<?xml version="1.0"?>
<MethodSetup Method="BDT::BDTG">
  <GeneralInfo>
    <Info name="TMVA Release" value="4.2.0 [262656]"/>
    <Info name="ROOT Release" value="6.02/05 [393733]"/>
    <Info name="Creator" value="kelmorab"/>
    <Info name="Date" value="Sat Apr  1 13:00:22 2017"/>
    <Info name="Host" value="Linux cmsbuild12.cern.ch 2.6.32-573.7.1.el6.x86_64 #1 SMP Wed Sep 23 10:12:03 CEST 2015 x86_64 x86_64 x86_64 GNU/Linux"/>
    <Info name="Dir" value="/nfs/dust/cms/user/kelmorab/Spring17Training/3makeHistosAndCards"/>
    <Info name="Training events" value="238064"/>
    <Info name="TrainingTime" value="5.03136076e+02"/>
    <Info name="AnalysisType" value="Classification"/>
  </GeneralInfo>
  <Options>
    <Option name="V" modified="Yes">False</Option>
    <Option name="VerbosityLevel" modified="No">Default</Option>
    <Option name="VarTransform" modified="No">None</Option>
    <Option name="H" modified="Yes">False</Option>
    <Option name="CreateMVAPdfs" modified="No">False</Option>
    <Option name="IgnoreNegWeightsInTraining" modified="No">False</Option>
    <Option name="NTrees" modified="Yes">893</Option>
    <Option name="MaxDepth" modified="Yes">2</Option>
    <Option name="MinNodeSize" modified="No">5%</Option>
    <Option name="nCuts" modified="Yes">47</Option>
    <Option name="BoostType" modified="Yes">Grad</Option>
    <Option name="AdaBoostR2Loss" modified="No">quadratic</Option>
    <Option name="UseBaggedBoost" modified="Yes">True</Option>
    <Option name="Shrinkage" modified="Yes">2.500000e-02</Option>
    <Option name="AdaBoostBeta" modified="No">5.000000e-01</Option>
    <Option name="UseRandomisedTrees" modified="No">False</Option>
    <Option name="UseNvars" modified="No">3</Option>
    <Option name="UsePoissonNvars" modified="No">True</Option>
    <Option name="BaggedSampleFraction" modified="No">1.120000e-01</Option>
    <Option name="UseYesNoLeaf" modified="No">True</Option>
    <Option name="NegWeightTreatment" modified="Yes">ignorenegweightsintraining</Option>
    <Option name="Css" modified="No">1.000000e+00</Option>
    <Option name="Cts_sb" modified="No">1.000000e+00</Option>
    <Option name="Ctb_ss" modified="No">1.000000e+00</Option>
    <Option name="Cbb" modified="No">1.000000e+00</Option>
    <Option name="NodePurityLimit" modified="No">5.000000e-01</Option>
    <Option name="SeparationType" modified="No">giniindex</Option>
    <Option name="DoBoostMonitor" modified="No">False</Option>
    <Option name="UseFisherCuts" modified="No">False</Option>
    <Option name="MinLinCorrForFisher" modified="No">8.000000e-01</Option>
    <Option name="UseExclusiveVars" modified="No">False</Option>
    <Option name="DoPreselection" modified="No">False</Option>
    <Option name="SigToBkgFraction" modified="No">1.000000e+00</Option>
    <Option name="PruneMethod" modified="No">nopruning</Option>
    <Option name="PruneStrength" modified="No">0.000000e+00</Option>
    <Option name="PruningValFraction" modified="No">5.000000e-01</Option>
    <Option name="nEventsMin" modified="No">0</Option>
    <Option name="UseBaggedGrad" modified="No">False</Option>
    <Option name="GradBaggingFraction" modified="Yes">1.120000e-01</Option>
    <Option name="UseNTrainEvents" modified="No">0</Option>
    <Option name="NNodesMax" modified="No">0</Option>
  </Options>
  <Variables NVar="10">
    <Variable VarIndex="0" Expression="closest_tagged_dijet_mass" Label="closest_tagged_dijet_mass" Title="closest_tagged_dijet_mass" Unit="" Internal="closest_tagged_dijet_mass" Type="F" Min="1.70471134e+01" Max="3.58969434e+03"/>
    <Variable VarIndex="1" Expression="blr_transformed" Label="blr_transformed" Title="blr_transformed" Unit="" Internal="blr_transformed" Type="F" Min="-4.99649906e+00" Max="5.77595520e+00"/>
    <Variable VarIndex="2" Expression="pt_all_jets_over_E_all_jets" Label="pt_all_jets_over_E_all_jets" Title="pt_all_jets_over_E_all_jets" Unit="" Internal="pt_all_jets_over_E_all_jets" Type="F" Min="2.16636598e-01" Max="9.80690420e-01"/>
    <Variable VarIndex="3" Expression="avg_dr_tagged_jets" Label="avg_dr_tagged_jets" Title="avg_dr_tagged_jets" Unit="" Internal="avg_dr_tagged_jets" Type="F" Min="3.94563377e-01" Max="5.46015978e+00"/>
    <Variable VarIndex="4" Expression="first_jet_pt" Label="first_jet_pt" Title="first_jet_pt" Unit="" Internal="first_jet_pt" Type="F" Min="3.63935585e+01" Max="1.91073364e+03"/>
    <Variable VarIndex="5" Expression="h3" Label="h3" Title="h3" Unit="" Internal="h3" Type="F" Min="-1.81030065e-01" Max="2.84357756e-01"/>
    <Variable VarIndex="6" Expression="avg_btag_disc_btags" Label="avg_btag_disc_btags" Title="avg_btag_disc_btags" Unit="" Internal="avg_btag_disc_btags" Type="F" Min="8.49395514e-01" Max="9.99498367e-01"/>
    <Variable VarIndex="7" Expression="h2" Label="h2" Title="h2" Unit="" Internal="h2" Type="F" Min="-1.24771804e-01" Max="3.51782233e-01"/>
    <Variable VarIndex="8" Expression="h0" Label="h0" Title="h0" Unit="" Internal="h0" Type="F" Min="1.22196168e-01" Max="4.47572291e-01"/>
    <Variable VarIndex="9" Expression="aplanarity" Label="aplanarity" Title="aplanarity" Unit="" Internal="aplanarity" Type="F" Min="4.40310396e-04" Max="4.50649738e-01"/>
  </Variables>
  <Spectators NSpec="0"/>
  <Classes NClass="2">
    <Class Name="Signal" Index="0"/>
    <Class Name="Background" Index="1"/>
  </Classes>
  <Transformations NTransformations="0"/>
  <MVAPdfs/>
  <Weights NTrees="893" AnalysisType="1">
    <BinaryTree type="DecisionTree" boostWeight="1.0000000000000000e+00" itree="0">
      <Node pos="s" depth="0" NCoef="0" IVar="1" Cut="6.2629735469818115e-01" cType="1" res="3.5236822441220284e-03" rms="4.9998757243156433e-01" purity="5.0352370738983154e-01" nType="0">
        <Node pos="l" depth="1" NCoef="0" IVar="1" Cut="-4.7493407130241394e-01" cType="1" res="-1.3018472492694855e-01" rms="4.8275452852249146e-01" purity="3.6981526017189026e-01" nType="0">
          <Node pos="l" depth="2" NCoef="0" IVar="-1" Cut="0.0000000000000000e+00" cType="1" res="-6.2474031001329422e-03" rms="4.6547174453735352e-01" purity="3.1741836667060852e-01" nType="-99"/>
          <Node pos="r" depth="2" NCoef="0" IVar="-1" Cut="0.0000000000000000e+00" cType="1" res="-1.3769934885203838e-03" rms="4.9722689390182495e-01" purity="4.4741284847259521e-01" nType="-99"/>
        </Node>
        <Node pos="r" depth="1" NCoef="0" IVar="1" Cut="2.1173470020294189e+00" cType="1" res="1.6855619847774506e-01" rms="4.7073221206665039e-01" purity="6.6855621337890625e-01" nType="0">
          <Node pos="l" depth="2" NCoef="0" IVar="-1" Cut="0.0000000000000000e+00" cType="1" res="2.3053428158164024e-03" rms="4.8750340938568115e-01" purity="6.1108744144439697e-01" nType="-99"/>
          <Node pos="r" depth="2" NCoef="0" IVar="-1" Cut="0.0000000000000000e+00" cType="1" res="4.6749766916036606e-03" rms="4.2173984646797180e-01" purity="7.6858049631118774e-01" nType="-99"/>
        </Node>
      </Node>
    </BinaryTree>
    <BinaryTree type="DecisionTree" boostWeight="1.0000000000000000e+00" itree="1">
      <Node pos="s" depth="0" NCoef="0" IVar="1" Cut="8.5381925106048584e-01" cType="1" res="8.3158276975154877e-03" rms="4.9929559230804443e-01" purity="5.0781112909317017e-01" nType="0">
        <Node pos="l" depth="1" NCoef="0" IVar="1" Cut="-4.4452381134033203e-01" cType="1" res="-1.0659326612949371e-01" rms="4.8787894845008850e-01" purity="3.9151939749717712e-01" nType="0">
          <Node pos="l" depth="2" NCoef="0" IVar="-1" Cut="0.0000000000000000e+00" cType="1" res="-5.7316059246659279e-03" rms="4.6838060021400452e-01" purity="3.2503023743629456e-01" nType="-99"/>
          <Node pos="r" depth="2" NCoef="0" IVar="-1" Cut="0.0000000000000000e+00" cType="1" res="-6.2742829322814941e-04" rms="4.9935409426689148e-01" purity="4.7481426596641541e-01" nType="-99"/>
        </Node>
        <Node pos="r" depth="1" NCoef="0" IVar="1" Cut="1.7496671676635742e+00" cType="1" res="1.8443185091018677e-01" rms="4.6402072906494141e-01" purity="6.8604636192321777e-01" nType="0">
          <Node pos="l" depth="2" NCoef="0" IVar="-1" Cut="0.0000000000000000e+00" cType="1" res="2.2491307463496923e-03" rms="4.8790848255157471e-01" purity="6.0929471254348755e-01" nType="-99"/>
          <Node pos="r" depth="2" NCoef="0" IVar="-1" Cut="0.0000000000000000e+00" cType="1" res="4.3686055578291416e-03" rms="4.3377009034156799e-01" purity="7.4863278865814209e-01" nType="-99"/>
        </Node>
      </Node>
    </BinaryTree>
    <BinaryTree type="DecisionTree" boostWeight="1.0000000000000000e+00" itree="2">
      <Node pos="s" depth="0" NCoef="0" IVar="1" Cut="8.5166764259338379e-01" cType="1" res="3.4241253160871565e-05" rms="4.9873206019401550e-01" purity="4.9919518828392029e-01" nType="0">
        <Node pos="l" depth="1" NCoef="0" IVar="1" Cut="-4.4727778434753418e-01" cType="1" res="-1.1010426282882690e-01" rms="4.8645883798599243e-01" purity="3.8633587956428528e-01" nType="0">
          <Node pos="l" depth="2" NCoef="0" IVar="-1" Cut="0.0000000000000000e+00" cType="1" res="-6.3066184520721436e-03" rms="4.6318641304969788e-01" purity="3.1171947717666626e-01" nType="-99"/>
          <Node pos="r" depth="2" NCoef="0" IVar="-1" Cut="0.0000000000000000e+00" cType="1" res="-5.9036060702055693e-04" rms="4.9937880039215088e-01" purity="4.7569441795349121e-01" nType="-99"/>
        </Node>
        <Node pos="r" depth="1" NCoef="0" IVar="1" Cut="2.1465880870819092e+00" cType="1" res="1.6969673335552216e-01" rms="4.6892237663269043e-01" purity="6.7304885387420654e-01" nType="0">
          <Node pos="l" depth="2" NCoef="0" IVar="-1" Cut="0.0000000000000000e+00" cType="1" res="2.2246320731937885e-03" rms="4.8797219991683960e-01" purity="6.0888212919235229e-01" nType="-99"/>
          <Node pos="r" depth="2" NCoef="0" IVar="-1" Cut="0.0000000000000000e+00" cType="1" res="4.6398965641856194e-03" rms="4.2122772336006165e-01" purity="7.6938295364379883e-01" nType="-99"/>
        </Node>
      </Node>
    </BinaryTree>
    <BinaryTree type="DecisionTree" boostWeight="1.0000000000000000e+00" itree="3">
      <Node pos="s" depth="0" NCoef="0" IVar="1" Cut="5.6495863199234009e-01" cType="1" res="-3.1169403810054064e-03" rms="4.9807342886924744e-01" purity="4.9543407559394836e-01" nType="0">
        <Node pos="l" depth="1" NCoef="0" IVar="1" Cut="-9.9969547986984253e-01" cType="1" res="-1.2893259525299072e-01" rms="4.8093035817146301e-01" purity="3.6490419507026672e-01" nType="0">
          <Node pos="l" depth="2" NCoef="0" IVar="-1" Cut="0.0000000000000000e+00" cType="1" res="-7.3626674711704254e-03" rms="4.5385533571243286e-01" purity="2.9020166397094727e-01" nType="-99"/>
          <Node pos="r" depth="2" NCoef="0" IVar="-1" Cut="0.0000000000000000e+00" cType="1" res="-2.1178110036998987e-03" rms="4.9323564767837524e-01" purity="4.1948640346527100e-01" nType="-99"/>
        </Node>
        <Node pos="r" depth="1" NCoef="0" IVar="1" Cut="2.1072988510131836e+00" cType="1" res="1.5026934444904327e-01" rms="4.7509190440177917e-01" purity="6.5456765890121460e-01" nType="0">
          <Node pos="l" depth="2" NCoef="0" IVar="-1" Cut="0.0000000000000000e+00" cType="1" res="1.8417304381728172e-03" rms="4.9188694357872009e-01" purity="5.8908605575561523e-01" nType="-99"/>
          <Node pos="r" depth="2" NCoef="0" IVar="-1" Cut="0.0000000000000000e+00" cType="1" res="4.5733852311968803e-03" rms="4.2014095187187195e-01" purity="7.7105581760406494e-01" nType="-99"/>
        </Node>
      </Node>
    </BinaryTree>
    <BinaryTree type="DecisionTree" boostWeight="1.0000000000000000e+00" itree="4">
      <Node pos="s" depth="0" NCoef="0" IVar="1" Cut="1.3626165688037872e-01" cType="1" res="-2.1088153589516878e-03" rms="4.9753764271736145e-01" purity="4.9597010016441345e-01" nType="0">
        <Node pos="l" depth="1" NCoef="0" IVar="3" Cut="2.5468206405639648e+00" cType="1" res="-1.4740107953548431e-01" rms="4.7422268986701965e-01" purity="3.4321531653404236e-01" nType="0">
          <Node pos="l" depth="2" NCoef="0" IVar="-1" Cut="0.0000000000000000e+00" cType="1" res="-2.7889756020158529e-03" rms="4.8843815922737122e-01" purity="3.9565622806549072e-01" nType="-99"/>
          <Node pos="r" depth="2" NCoef="0" IVar="-1" Cut="0.0000000000000000e+00" cType="1" res="-8.8243149220943451e-03" rms="4.3806603550910950e-01" purity="2.5997018814086914e-01" nType="-99"/>
        </Node>
        <Node pos="r" depth="1" NCoef="0" IVar="1" Cut="1.9682823419570923e+00" cType="1" res="1.1781894415616989e-01" rms="4.8418772220611572e-01" purity="6.2205755710601807e-01" nType="0">
          <Node pos="l" depth="2" NCoef="0" IVar="-1" Cut="0.0000000000000000e+00" cType="1" res="1.3554578181356192e-03" rms="4.9582278728485107e-01" purity="5.6284922361373901e-01" nType="-99"/>
          <Node pos="r" depth="2" NCoef="0" IVar="-1" Cut="0.0000000000000000e+00" cType="1" res="4.1715442202985287e-03" rms="4.3707796931266785e-01" purity="7.4275058507919312e-01" nType="-99"/>
        </Node>
      </Node>
    </BinaryTree>
    <BinaryTree type="DecisionTree" boostWeight="1.0000000000000000e+00" itree="5">
      <Node pos="s" depth="0" NCoef="0" IVar="1" Cut="4.3602728843688965e-01" cType="1" res="4.3878410942852497e-03" rms="4.9688130617141724e-01" purity="5.0190871953964233e-01" nType="0">
        <Node pos="l" depth="1" NCoef="0" IVar="1" Cut="-4.6054852008819580e-01" cType="1" res="-1.2443204969167709e-01" rms="4.8054125905036926e-01" purity="3.6479994654655457e-01" nType="0">
          <Node pos="l" depth="2" NCoef="0" IVar="-1" Cut="0.0000000000000000e+00" cType="1" res="-5.7759894989430904e-03" rms="4.6469786763191223e-01" purity="3.1586319208145142e-01" nType="-99"/>
          <Node pos="r" depth="2" NCoef="0" IVar="-1" Cut="0.0000000000000000e+00" cType="1" res="-1.1484645074233413e-03" rms="4.9751970171928406e-01" purity="4.5200869441032410e-01" nType="-99"/>
        </Node>
        <Node pos="r" depth="1" NCoef="0" IVar="1" Cut="1.7351658344268799e+00" cType="1" res="1.4255677163600922e-01" rms="4.7658333182334900e-01" purity="6.4896798133850098e-01" nType="0">
          <Node pos="l" depth="2" NCoef="0" IVar="-1" Cut="0.0000000000000000e+00" cType="1" res="1.4659436419606209e-03" rms="4.9486976861953735e-01" purity="5.7064056396484375e-01" nType="-99"/>
          <Node pos="r" depth="2" NCoef="0" IVar="-1" Cut="0.0000000000000000e+00" cType="1" res="4.1670622304081917e-03" rms="4.3682450056076050e-01" purity="7.4295145273208618e-01" nType="-99"/>
        </Node>
      </Node>
    </BinaryTree>
    <BinaryTree type="DecisionTree" boostWeight="1.0000000000000000e+00" itree="6">
      <Node pos="s" depth="0" NCoef="0" IVar="1" Cut="7.9229694604873657e-01" cType="1" res="5.6281886063516140e-03" rms="4.9634733796119690e-01" purity="5.0278311967849731e-01" nType="0">
        <Node pos="l" depth="1" NCoef="0" IVar="1" Cut="-4.6893399953842163e-01" cType="1" res="-1.0304882377386093e-01" rms="4.8549535870552063e-01" purity="3.8598242402076721e-01" nType="0">
          <Node pos="l" depth="2" NCoef="0" IVar="-1" Cut="0.0000000000000000e+00" cType="1" res="-5.8632101863622665e-03" rms="4.6331387758255005e-01" purity="3.1254690885543823e-01" nType="-99"/>
          <Node pos="r" depth="2" NCoef="0" IVar="-1" Cut="0.0000000000000000e+00" cType="1" res="-5.2280211821198463e-04" rms="4.9927935004234314e-01" purity="4.7601050138473511e-01" nType="-99"/>
        </Node>
        <Node pos="r" depth="1" NCoef="0" IVar="1" Cut="2.1463391780853271e+00" cType="1" res="1.6403514146804810e-01" rms="4.6859711408615112e-01" purity="6.7303115129470825e-01" nType="0">
          <Node pos="l" depth="2" NCoef="0" IVar="-1" Cut="0.0000000000000000e+00" cType="1" res="2.3116928059607744e-03" rms="4.8567917943000793e-01" purity="6.1866712570190430e-01" nType="-99"/>
          <Node pos="r" depth="2" NCoef="0" IVar="-1" Cut="0.0000000000000000e+00" cType="1" res="4.3377131223678589e-03" rms="4.2625796794891357e-01" purity="7.6135063171386719e-01" nType="-99"/>
        </Node>
      </Node>
    </BinaryTree>
    <BinaryTree type="DecisionTree" boostWeight="1.0000000000000000e+00" itree="7">
      <Node pos="s" depth="0" NCoef="0" IVar="1" Cut="8.0004262924194336e-01" cType="1" res="6.0102427378296852e-03" rms="4.9592843651771545e-01" purity="5.0266838073730469e-01" nType="0">
        <Node pos="l" depth="1" NCoef="0" IVar="1" Cut="-1.0181378126144409e+00" cType="1" res="-9.4858966767787933e-02" rms="4.8680290579795837e-01" purity="3.9240664243698120e-01" nType="0">
          <Node pos="l" depth="2" NCoef="0" IVar="-1" Cut="0.0000000000000000e+00" cType="1" res="-6.6505442373454571e-03" rms="4.5649388432502747e-01" purity="2.9643347859382629e-01" nType="-99"/>
          <Node pos="r" depth="2" NCoef="0" IVar="-1" Cut="0.0000000000000000e+00" cType="1" res="-1.1024461127817631e-03" rms="4.9677780270576477e-01" purity="4.5002901554107666e-01" nType="-99"/>
        </Node>
        <Node pos="r" depth="1" NCoef="0" IVar="1" Cut="1.8859922885894775e+00" cType="1" res="1.5537895262241364e-01" rms="4.7100654244422913e-01" purity="6.6594564914703369e-01" nType="0">
          <Node pos="l" depth="2" NCoef="0" IVar="-1" Cut="0.0000000000000000e+00" cType="1" res="1.7801253125071526e-03" rms="4.9155208468437195e-01" purity="5.9132796525955200e-01" nType="-99"/>
          <Node pos="r" depth="2" NCoef="0" IVar="-1" Cut="0.0000000000000000e+00" cType="1" res="4.1239247657358646e-03" rms="4.3532845377922058e-01" purity="7.4577975273132324e-01" nType="-99"/>
        </Node>
      </Node>
    </BinaryTree>
    <BinaryTree type="DecisionTree" boostWeight="1.0000000000000000e+00" itree="8">
      <Node pos="s" depth="0" NCoef="0" IVar="1" Cut="4.8143219947814941e-01" cType="1" res="6.2517565675079823e-03" rms="4.9520757794380188e-01" purity="5.0267165899276733e-01" nType="0">
        <Node pos="l" depth="1" NCoef="0" IVar="1" Cut="-1.0848236083984375e+00" cType="1" res="-1.1547528952360153e-01" rms="4.8084715008735657e-01" purity="3.6842453479766846e-01" nType="0">
          <Node pos="l" depth="2" NCoef="0" IVar="-1" Cut="0.0000000000000000e+00" cType="1" res="-7.6505872420966625e-03" rms="4.4626921415328979e-01" purity="2.7452743053436279e-01" nType="-99"/>
          <Node pos="r" depth="2" NCoef="0" IVar="-1" Cut="0.0000000000000000e+00" cType="1" res="-1.6505065141245723e-03" rms="4.9409744143486023e-01" purity="4.2884820699691772e-01" nType="-99"/>
        </Node>
        <Node pos="r" depth="1" NCoef="0" IVar="1" Cut="2.1520206928253174e+00" cType="1" res="1.4156869053840637e-01" rms="4.7542563080787659e-01" purity="6.5190643072128296e-01" nType="0">
          <Node pos="l" depth="2" NCoef="0" IVar="-1" Cut="0.0000000000000000e+00" cType="1" res="1.9401693716645241e-03" rms="4.8986965417861938e-01" purity="5.9895491600036621e-01" nType="-99"/>
          <Node pos="r" depth="2" NCoef="0" IVar="-1" Cut="0.0000000000000000e+00" cType="1" res="4.3345098383724689e-03" rms="4.2600324749946594e-01" purity="7.6176559925079346e-01" nType="-99"/>
        </Node>
      </Node>
    </BinaryTree>
    <BinaryTree type="DecisionTree" boostWeight="1.0000000000000000e+00" itree="9">
      <Node pos="s" depth="0" NCoef="0" IVar="1" Cut="9.1365921497344971e-01" cType="1" res="4.7254660166800022e-03" rms="4.9481716752052307e-01" purity="5.0063359737396240e-01" nType="0">
        <Node pos="l" depth="1" NCoef="0" IVar="1" Cut="-1.0682646036148071e+00" cType="1" res="-9.1297678649425507e-02" rms="4.8647892475128174e-01" purity="3.9380165934562683e-01" nType="0">
          <Node pos="l" depth="2" NCoef="0" IVar="-1" Cut="0.0000000000000000e+00" cType="1" res="-7.2286482900381088e-03" rms="4.4906798005104065e-01" purity="2.8043588995933533e-01" nType="-99"/>
          <Node pos="r" depth="2" NCoef="0" IVar="-1" Cut="0.0000000000000000e+00" cType="1" res="-1.0509232524782419e-03" rms="4.9680912494659424e-01" purity="4.5160797238349915e-01" nType="-99"/>
        </Node>
        <Node pos="r" depth="1" NCoef="0" IVar="2" Cut="6.1206579208374023e-01" cType="1" res="1.6367836296558380e-01" rms="4.6675422787666321e-01" purity="6.7747890949249268e-01" nType="0">
          <Node pos="l" depth="2" NCoef="0" IVar="-1" Cut="0.0000000000000000e+00" cType="1" res="2.0622671581804752e-03" rms="4.8630321025848389e-01" purity="6.1272007226943970e-01" nType="-99"/>
          <Node pos="r" depth="2" NCoef="0" IVar="-1" Cut="0.0000000000000000e+00" cType="1" res="4.2425105348229408e-03" rms="4.3144625425338745e-01" purity="7.5174963474273682e-01" nType="-99"/>
        </Node>
      </Node>
    </BinaryTree>
    <BinaryTree type="DecisionTree" boostWeight="1.0000000000000000e+00" itree="10">
      <Node pos="s" depth="0" NCoef="0" IVar="1" Cut="1.0289375782012939e+00" cType="1" res="-1.5834750374779105e-03" rms="4.9407550692558289e-01" purity="4.9389621615409851e-01" nType="0">
        <Node pos="l" depth="1" NCoef="0" IVar="1" Cut="-1.1051127910614014e+00" cType="1" res="-9.7210831940174103e-02" rms="4.8464885354042053e-01" purity="3.8701525330543518e-01" nType="0">
          <Node pos="l" depth="2" NCoef="0" IVar="-1" Cut="0.0000000000000000e+00" cType="1" res="-7.7287028543651104e-03" rms="4.4216576218605042e-01" purity="2.6683092117309570e-01" nType="-99"/>
          <Node pos="r" depth="2" NCoef="0" IVar="-1" Cut="0.0000000000000000e+00" cType="1" res="-1.2893949169665575e-03" rms="4.9581944942474365e-01" purity="4.4295227527618408e-01" nType="-99"/>
        </Node>
        <Node pos="r" depth="1" NCoef="0" IVar="1" Cut="2.6428966522216797e+00" cType="1" res="1.6997677087783813e-01" rms="4.6349096298217773e-01" purity="6.8564599752426147e-01" nType="0">
          <Node pos="l" depth="2" NCoef="0" IVar="-1" Cut="0.0000000000000000e+00" cType="1" res="2.5906476657837629e-03" rms="4.7812169790267944e-01" purity="6.4508533477783203e-01" nType="-99"/>
          <Node pos="r" depth="2" NCoef="0" IVar="-1" Cut="0.0000000000000000e+00" cType="1" res="4.6439981088042259e-03" rms="4.0257492661476135e-01" purity="7.9644602537155151e-01" nType="-99"/>
        </Node>
      </Node>
    </BinaryTree>
    <BinaryTree type="DecisionTree" boostWeight="1.0000000000000000e+00" itree="11">
      <Node pos="s" depth="0" NCoef="0" IVar="1" Cut="8.6895275115966797e-01" cType="1" res="9.7446719883009791e-04" rms="4.9328744411468506e-01" purity="4.9594539403915405e-01" nType="0">
        <Node pos="l" depth="1" NCoef="0" IVar="1" Cut="-5.6308650970458984e-01" cType="1" res="-1.0376754403114319e-01" rms="4.8229026794433594e-01" purity="3.7741872668266296e-01" nType="0">
          <Node pos="l" depth="2" NCoef="0" IVar="-1" Cut="0.0000000000000000e+00" cType="1" res="-6.0219359584152699e-03" rms="4.5717379450798035e-01" purity="2.9872286319732666e-01" nType="-99"/>
          <Node pos="r" depth="2" NCoef="0" IVar="-1" Cut="0.0000000000000000e+00" cType="1" res="-8.8450789917260408e-04" rms="4.9791321158409119e-01" purity="4.5989865064620972e-01" nType="-99"/>
        </Node>
        <Node pos="r" depth="1" NCoef="0" IVar="1" Cut="1.8013448715209961e+00" cType="1" res="1.6560149192810059e-01" rms="4.6459621191024780e-01" purity="6.8223828077316284e-01" nType="0">
          <Node pos="l" depth="2" NCoef="0" IVar="-1" Cut="0.0000000000000000e+00" cType="1" res="1.8909861100837588e-03" rms="4.8949375748634338e-01" purity="6.0140496492385864e-01" nType="-99"/>
          <Node pos="r" depth="2" NCoef="0" IVar="-1" Cut="0.0000000000000000e+00" cType="1" res="4.0571927092969418e-03" rms="4.3196886777877808e-01" purity="7.5118124485015869e-01" nType="-99"/>
        </Node>
      </Node>
    </BinaryTree>
    <BinaryTree type="DecisionTree" boostWeight="1.0000000000000000e+00" itree="12">
      <Node pos="s" depth="0" NCoef="0" IVar="1" Cut="4.6713948249816895e-01" cType="1" res="6.3631138764321804e-03" rms="4.9336045980453491e-01" purity="5.0039404630661011e-01" nType="0">
        <Node pos="l" depth="1" NCoef="0" IVar="1" Cut="-7.2767233848571777e-01" cType="1" res="-1.0109588503837585e-01" rms="4.8197066783905029e-01" purity="3.7477213144302368e-01" nType="0">
          <Node pos="l" depth="2" NCoef="0" IVar="-1" Cut="0.0000000000000000e+00" cType="1" res="-5.6583527475595474e-03" rms="4.6076217293739319e-01" purity="3.0647876858711243e-01" nType="-99"/>
          <Node pos="r" depth="2" NCoef="0" IVar="-1" Cut="0.0000000000000000e+00" cType="1" res="-9.5094885909929872e-04" rms="4.9721932411193848e-01" purity="4.5271113514900208e-01" nType="-99"/>
        </Node>
        <Node pos="r" depth="1" NCoef="0" IVar="1" Cut="1.8610043525695801e+00" cType="1" res="1.2893711030483246e-01" rms="4.7736763954162598e-01" purity="6.4368563890457153e-01" nType="0">
          <Node pos="l" depth="2" NCoef="0" IVar="-1" Cut="0.0000000000000000e+00" cType="1" res="1.4769260305911303e-03" rms="4.9362245202064514e-01" purity="5.7702404260635376e-01" nType="-99"/>
          <Node pos="r" depth="2" NCoef="0" IVar="-1" Cut="0.0000000000000000e+00" cType="1" res="3.8433845620602369e-03" rms="4.3916052579879761e-01" purity="7.3844528198242188e-01" nType="-99"/>
        </Node>
      </Node>
    </BinaryTree>
    <BinaryTree type="DecisionTree" boostWeight="1.0000000000000000e+00" itree="13">
      <Node pos="s" depth="0" NCoef="0" IVar="1" Cut="4.1862499713897705e-01" cType="1" res="5.6817014701664448e-03" rms="4.9236536026000977e-01" purity="4.9985432624816895e-01" nType="0">
        <Node pos="l" depth="1" NCoef="0" IVar="1" Cut="-1.0403833389282227e+00" cType="1" res="-1.1419859528541565e-01" rms="4.7758004069328308e-01" purity="3.5985964536666870e-01" nType="0">
          <Node pos="l" depth="2" NCoef="0" IVar="-1" Cut="0.0000000000000000e+00" cType="1" res="-7.5856340117752552e-03" rms="4.4097420573234558e-01" purity="2.6454320549964905e-01" nType="-99"/>
          <Node pos="r" depth="2" NCoef="0" IVar="-1" Cut="0.0000000000000000e+00" cType="1" res="-1.5330089954659343e-03" rms="4.9437439441680908e-01" purity="4.2862221598625183e-01" nType="-99"/>
        </Node>
        <Node pos="r" depth="1" NCoef="0" IVar="1" Cut="1.8988958597183228e+00" cType="1" res="1.3426952064037323e-01" rms="4.7524341940879822e-01" purity="6.5001755952835083e-01" nType="0">
          <Node pos="l" depth="2" NCoef="0" IVar="-1" Cut="0.0000000000000000e+00" cType="1" res="1.6471215058118105e-03" rms="4.9203395843505859e-01" purity="5.8594012260437012e-01" nType="-99"/>
          <Node pos="r" depth="2" NCoef="0" IVar="-1" Cut="0.0000000000000000e+00" cType="1" res="3.9569670334458351e-03" rms="4.3384537100791931e-01" purity="7.4800747632980347e-01" nType="-99"/>
        </Node>
      </Node>
    </BinaryTree>
    <BinaryTree type="DecisionTree" boostWeight="1.0000000000000000e+00" itree="14">
      <Node pos="s" depth="0" NCoef="0" IVar="1" Cut="5.3893363475799561e-01" cType="1" res="5.0061405636370182e-03" rms="4.9234470725059509e-01" purity="4.9854782223701477e-01" nType="0">
        <Node pos="l" depth="1" NCoef="0" IVar="2" Cut="6.1374074220657349e-01" cType="1" res="-1.0141623765230179e-01" rms="4.8103526234626770e-01" purity="3.7157103419303894e-01" nType="0">
          <Node pos="l" depth="2" NCoef="0" IVar="-1" Cut="0.0000000000000000e+00" cType="1" res="-5.0793839618563652e-03" rms="4.6425822377204895e-01" purity="3.2040253281593323e-01" nType="-99"/>
          <Node pos="r" depth="2" NCoef="0" IVar="-1" Cut="0.0000000000000000e+00" cType="1" res="-1.1650302913039923e-03" rms="4.9281266331672668e-01" purity="4.3025186657905579e-01" nType="-99"/>
        </Node>
        <Node pos="r" depth="1" NCoef="0" IVar="1" Cut="1.8122987747192383e+00" cType="1" res="1.3288351893424988e-01" rms="4.7504669427871704e-01" purity="6.5112334489822388e-01" nType="0">
          <Node pos="l" depth="2" NCoef="0" IVar="-1" Cut="0.0000000000000000e+00" cType="1" res="1.4364079106599092e-03" rms="4.9361553788185120e-01" purity="5.7798528671264648e-01" nType="-99"/>
          <Node pos="r" depth="2" NCoef="0" IVar="-1" Cut="0.0000000000000000e+00" cType="1" res="3.7843468599021435e-03" rms="4.3965423107147217e-01" purity="7.3748147487640381e-01" nType="-99"/>
        </Node>
      </Node>
    </BinaryTree>
    <BinaryTree type="DecisionTree" boostWeight="1.0000000000000000e+00" itree="15">
      <Node pos="s" depth="0" NCoef="0" IVar="1" Cut="1.1769988536834717e+00" cType="1" res="6.8357056006789207e-03" rms="4.9167317152023315e-01" purity="5.0040441751480103e-01" nType="0">
        <Node pos="l" depth="1" NCoef="0" IVar="1" Cut="-5.6641829013824463e-01" cType="1" res="-7.4812091886997223e-02" rms="4.8688721656799316e-01" purity="4.0392699837684631e-01" nType="0">
          <Node pos="l" depth="2" NCoef="0" IVar="-1" Cut="0.0000000000000000e+00" cType="1" res="-5.4574273526668549e-03" rms="4.5954295992851257e-01" purity="3.0420488119125366e-01" nType="-99"/>
          <Node pos="r" depth="2" NCoef="0" IVar="-1" Cut="0.0000000000000000e+00" cType="1" res="-1.9383686594665051e-04" rms="4.9904832243919373e-01" purity="4.8790699243545532e-01" nType="-99"/>
        </Node>
        <Node pos="r" depth="1" NCoef="0" IVar="2" Cut="6.0516017675399780e-01" cType="1" res="1.7460523545742035e-01" rms="4.5773479342460632e-01" purity="6.9864565134048462e-01" nType="0">
          <Node pos="l" depth="2" NCoef="0" IVar="-1" Cut="0.0000000000000000e+00" cType="1" res="2.2569571156054735e-03" rms="4.8013076186180115e-01" purity="6.3579434156417847e-01" nType="-99"/>
          <Node pos="r" depth="2" NCoef="0" IVar="-1" Cut="0.0000000000000000e+00" cType="1" res="4.1944137774407864e-03" rms="4.2200917005538940e-01" purity="7.6664388179779053e-01" nType="-99"/>
        </Node>
      </Node>
    </BinaryTree>
    <BinaryTree type="DecisionTree" boostWeight="1.0000000000000000e+00" itree="16">
      <Node pos="s" depth="0" NCoef="0" IVar="1" Cut="6.9410920143127441e-01" cType="1" res="5.5038891732692719e-03" rms="4.9130189418792725e-01" purity="4.9834913015365601e-01" nType="0">
        <Node pos="l" depth="1" NCoef="0" IVar="1" Cut="-3.7931597232818604e-01" cType="1" res="-9.3436181545257568e-02" rms="4.8195841908454895e-01" purity="3.7860962748527527e-01" nType="0">
          <Node pos="l" depth="2" NCoef="0" IVar="-1" Cut="0.0000000000000000e+00" cType="1" res="-4.9862903542816639e-03" rms="4.6338903903961182e-01" purity="3.1481400132179260e-01" nType="-99"/>
          <Node pos="r" depth="2" NCoef="0" IVar="-1" Cut="0.0000000000000000e+00" cType="1" res="-4.7922774683684111e-04" rms="4.9894306063652039e-01" purity="4.7274595499038696e-01" nType="-99"/>
        </Node>
        <Node pos="r" depth="1" NCoef="0" IVar="1" Cut="1.3856292963027954e+00" cType="1" res="1.4296041429042816e-01" rms="4.7065594792366028e-01" purity="6.6470211744308472e-01" nType="0">
          <Node pos="l" depth="2" NCoef="0" IVar="-1" Cut="0.0000000000000000e+00" cType="1" res="1.3275577221065760e-03" rms="4.9450081586837769e-01" purity="5.7283854484558105e-01" nType="-99"/>
          <Node pos="r" depth="2" NCoef="0" IVar="-1" Cut="0.0000000000000000e+00" cType="1" res="3.4149929415434599e-03" rms="4.5274412631988525e-01" purity="7.1060597896575928e-01" nType="-99"/>
        </Node>
      </Node>
    </BinaryTree>
    <BinaryTree type="DecisionTree" boostWeight="1.0000000000000000e+00" itree="17">
      <Node pos="s" depth="0" NCoef="0" IVar="1" Cut="8.7424725294113159e-01" cType="1" res="1.3679603114724159e-02" rms="4.9100673198699951e-01" purity="5.0635731220245361e-01" nType="0">
        <Node pos="l" depth="1" NCoef="0" IVar="1" Cut="-9.2169636487960815e-01" cType="1" res="-7.3906846344470978e-02" rms="4.8614925146102905e-01" purity="3.9855748414993286e-01" nType="0">
          <Node pos="l" depth="2" NCoef="0" IVar="-1" Cut="0.0000000000000000e+00" cType="1" res="-5.4199751466512680e-03" rms="4.5776361227035522e-01" purity="2.9986712336540222e-01" nType="-99"/>
          <Node pos="r" depth="2" NCoef="0" IVar="-1" Cut="0.0000000000000000e+00" cType="1" res="-6.7064049653708935e-04" rms="4.9731576442718506e-01" purity="4.6086522936820984e-01" nType="-99"/>
        </Node>
        <Node pos="r" depth="1" NCoef="0" IVar="1" Cut="2.1091866493225098e+00" cType="1" res="1.5358191728591919e-01" rms="4.6566405892372131e-01" purity="6.7854666709899902e-01" nType="0">
          <Node pos="l" depth="2" NCoef="0" IVar="-1" Cut="0.0000000000000000e+00" cType="1" res="1.9871373660862446e-03" rms="4.8631420731544495e-01" purity="6.1534142494201660e-01" nType="-99"/>
          <Node pos="r" depth="2" NCoef="0" IVar="-1" Cut="0.0000000000000000e+00" cType="1" res="4.0717720985412598e-03" rms="4.2279571294784546e-01" purity="7.6662027835845947e-01" nType="-99"/>
        </Node>
      </Node>
    </BinaryTree>
    <BinaryTree type="DecisionTree" boostWeight="1.0000000000000000e+00" itree="18">
      <Node pos="s" depth="0" NCoef="0" IVar="1" Cut="6.8919682502746582e-01" cType="1" res="3.3493869705125690e-04" rms="4.9020162224769592e-01" purity="4.9270206689834595e-01" nType="0">
        <Node pos="l" depth="1" NCoef="0" IVar="2" Cut="5.7565200328826904e-01" cType="1" res="-9.9644079804420471e-02" rms="4.7945392131805420e-01" purity="3.6905780434608459e-01" nType="0">
          <Node pos="l" depth="2" NCoef="0" IVar="-1" Cut="0.0000000000000000e+00" cType="1" res="-5.5320197716355324e-03" rms="4.5992925763130188e-01" purity="3.0950379371643066e-01" nType="-99"/>
          <Node pos="r" depth="2" NCoef="0" IVar="-1" Cut="0.0000000000000000e+00" cType="1" res="-1.3982680393382907e-03" rms="4.8955929279327393e-01" purity="4.1870021820068359e-01" nType="-99"/>
        </Node>
        <Node pos="r" depth="1" NCoef="0" IVar="1" Cut="2.0925288200378418e+00" cType="1" res="1.3618677854537964e-01" rms="4.7161468863487244e-01" purity="6.6071039438247681e-01" nType="0">
          <Node pos="l" depth="2" NCoef="0" IVar="-1" Cut="0.0000000000000000e+00" cType="1" res="1.6898385947570205e-03" rms="4.9013379216194153e-01" purity="5.9630727767944336e-01" nType="-99"/>
          <Node pos="r" depth="2" NCoef="0" IVar="-1" Cut="0.0000000000000000e+00" cType="1" res="3.9962949231266975e-03" rms="4.2617747187614441e-01" purity="7.6117753982543945e-01" nType="-99"/>
        </Node>
      </Node>
    </BinaryTree>
    <BinaryTree type="DecisionTree" boostWeight="1.0000000000000000e+00" itree="19">
      <Node pos="s" depth="0" NCoef="0" IVar="1" Cut="1.2000651359558105e+00" cType="1" res="3.7668056320399046e-03" rms="4.9027168750762939e-01" purity="4.9574902653694153e-01" nType="0">
        <Node pos="l" depth="1" NCoef="0" IVar="1" Cut="-9.4902193546295166e-01" cType="1" res="-6.9650769233703613e-02" rms="4.8636832833290100e-01" purity="4.0415862202644348e-01" nType="0">
          <Node pos="l" depth="2" NCoef="0" IVar="-1" Cut="0.0000000000000000e+00" cType="1" res="-5.7717775925993919e-03" rms="4.5335179567337036e-01" purity="2.8985550999641418e-01" nType="-99"/>
          <Node pos="r" depth="2" NCoef="0" IVar="-1" Cut="0.0000000000000000e+00" cType="1" res="-5.9080094797536731e-04" rms="4.9726152420043945e-01" purity="4.6628409624099731e-01" nType="-99"/>
        </Node>
        <Node pos="r" depth="1" NCoef="0" IVar="1" Cut="2.5644531250000000e+00" cType="1" res="1.5872953832149506e-01" rms="4.6154335141181946e-01" purity="6.8906933069229126e-01" nType="0">
          <Node pos="l" depth="2" NCoef="0" IVar="-1" Cut="0.0000000000000000e+00" cType="1" res="2.2424350026994944e-03" rms="4.7990977764129639e-01" purity="6.3819479942321777e-01" nType="-99"/>
          <Node pos="r" depth="2" NCoef="0" IVar="-1" Cut="0.0000000000000000e+00" cType="1" res="4.3175891041755676e-03" rms="4.0779605507850647e-01" purity="7.8912305831909180e-01" nType="-99"/>
        </Node>
      </Node>
    </BinaryTree>
    <BinaryTree type="DecisionTree" boostWeight="1.0000000000000000e+00" itree="20">
      <Node pos="s" depth="0" NCoef="0" IVar="1" Cut="4.8976755142211914e-01" cType="1" res="1.3263659551739693e-02" rms="4.8925402760505676e-01" purity="5.0559771060943604e-01" nType="0">
        <Node pos="l" depth="1" NCoef="0" IVar="2" Cut="7.3093461990356445e-01" cType="1" res="-9.6333660185337067e-02" rms="4.7882601618766785e-01" purity="3.6679622530937195e-01" nType="0">
          <Node pos="l" depth="2" NCoef="0" IVar="-1" Cut="0.0000000000000000e+00" cType="1" res="-4.0973327122628689e-03" rms="4.6981856226921082e-01" purity="3.3763438463211060e-01" nType="-99"/>
          <Node pos="r" depth="2" NCoef="0" IVar="-1" Cut="0.0000000000000000e+00" cType="1" res="3.7382598384283483e-04" rms="4.9617084860801697e-01" purity="4.7732004523277283e-01" nType="-99"/>
        </Node>
        <Node pos="r" depth="1" NCoef="0" IVar="1" Cut="1.9491528272628784e+00" cType="1" res="1.3264741003513336e-01" rms="4.7225993871688843e-01" purity="6.5679341554641724e-01" nType="0">
          <Node pos="l" depth="2" NCoef="0" IVar="-1" Cut="0.0000000000000000e+00" cType="1" res="1.5882501611486077e-03" rms="4.9127259850502014e-01" purity="5.8910745382308960e-01" nType="-99"/>
          <Node pos="r" depth="2" NCoef="0" IVar="-1" Cut="0.0000000000000000e+00" cType="1" res="3.9382535032927990e-03" rms="4.2640718817710876e-01" purity="7.6044493913650513e-01" nType="-99"/>
        </Node>
      </Node>
    </BinaryTree>
    <BinaryTree type="DecisionTree" boostWeight="1.0000000000000000e+00" itree="21">
      <Node pos="s" depth="0" NCoef="0" IVar="1" Cut="1.1406576633453369e+00" cType="1" res="1.3883636333048344e-02" rms="4.8937344551086426e-01" purity="5.0532013177871704e-01" nType="0">
        <Node pos="l" depth="1" NCoef="0" IVar="1" Cut="-8.6188846826553345e-01" cType="1" res="-6.5005473792552948e-02" rms="4.8686081171035767e-01" purity="4.0544572472572327e-01" nType="0">
          <Node pos="l" depth="2" NCoef="0" IVar="-1" Cut="0.0000000000000000e+00" cType="1" res="-4.7764666378498077e-03" rms="4.6148610115051270e-01" purity="3.0889037251472473e-01" nType="-99"/>
          <Node pos="r" depth="2" NCoef="0" IVar="-1" Cut="0.0000000000000000e+00" cType="1" res="-5.7199719594791532e-04" rms="4.9736952781677246e-01" purity="4.6581926941871643e-01" nType="-99"/>
        </Node>
        <Node pos="r" depth="1" NCoef="0" IVar="2" Cut="6.6177159547805786e-01" cType="1" res="1.6861706972122192e-01" rms="4.5623269677162170e-01" purity="7.0121401548385620e-01" nType="0">
          <Node pos="l" depth="2" NCoef="0" IVar="-1" Cut="0.0000000000000000e+00" cType="1" res="2.4124716874212027e-03" rms="4.7385036945343018e-01" purity="6.5466040372848511e-01" nType="-99"/>
          <Node pos="r" depth="2" NCoef="0" IVar="-1" Cut="0.0000000000000000e+00" cType="1" res="4.3741539120674133e-03" rms="4.0763330459594727e-01" purity="7.8822940587997437e-01" nType="-99"/>
        </Node>
      </Node>
    </BinaryTree>
    <BinaryTree type="DecisionTree" boostWeight="1.0000000000000000e+00" itree="22">
      <Node pos="s" depth="0" NCoef="0" IVar="1" Cut="1.0153728723526001e+00" cType="1" res="9.2632193118333817e-03" rms="4.8893305659294128e-01" purity="5.0064849853515625e-01" nType="0">
        <Node pos="l" depth="1" NCoef="0" IVar="3" Cut="1.6107848882675171e+00" cType="1" res="-7.6738812029361725e-02" rms="4.8414224386215210e-01" purity="3.9093706011772156e-01" nType="0">
          <Node pos="l" depth="2" NCoef="0" IVar="-1" Cut="0.0000000000000000e+00" cType="1" res="4.0579907363280654e-04" rms="4.9646207690238953e-01" purity="4.8597544431686401e-01" nType="-99"/>
          <Node pos="r" depth="2" NCoef="0" IVar="-1" Cut="0.0000000000000000e+00" cType="1" res="-3.4964985679835081e-03" rms="4.7463810443878174e-01" purity="3.5480663180351257e-01" nType="-99"/>
        </Node>
        <Node pos="r" depth="1" NCoef="0" IVar="1" Cut="2.3028209209442139e+00" cType="1" res="1.5883193910121918e-01" rms="4.6035751700401306e-01" purity="6.9145101308822632e-01" nType="0">
          <Node pos="l" depth="2" NCoef="0" IVar="-1" Cut="0.0000000000000000e+00" cType="1" res="2.3270174860954285e-03" rms="4.7902792692184448e-01" purity="6.4156246185302734e-01" nType="-99"/>
          <Node pos="r" depth="2" NCoef="0" IVar="-1" Cut="0.0000000000000000e+00" cType="1" res="4.0922905318439007e-03" rms="4.1606596112251282e-01" purity="7.7694416046142578e-01" nType="-99"/>
        </Node>
      </Node>
    </BinaryTree>
    <BinaryTree type="DecisionTree" boostWeight="1.0000000000000000e+00" itree="23">
      <Node pos="s" depth="0" NCoef="0" IVar="1" Cut="1.0959674119949341e+00" cType="1" res="2.8832929674535990e-03" rms="4.8830550909042358e-01" purity="4.9317517876625061e-01" nType="0">
        <Node pos="l" depth="1" NCoef="0" IVar="1" Cut="-4.2330005764961243e-01" cType="1" res="-7.5189419090747833e-02" rms="4.8364385962486267e-01" purity="3.9253729581832886e-01" nType="0">
          <Node pos="l" depth="2" NCoef="0" IVar="-1" Cut="0.0000000000000000e+00" cType="1" res="-4.6839020214974880e-03" rms="4.6195018291473389e-01" purity="3.1146380305290222e-01" nType="-99"/>
          <Node pos="r" depth="2" NCoef="0" IVar="-1" Cut="0.0000000000000000e+00" cType="1" res="-2.8359892894513905e-04" rms="4.9858719110488892e-01" purity="4.8136085271835327e-01" nType="-99"/>
        </Node>
        <Node pos="r" depth="1" NCoef="0" IVar="1" Cut="2.7321035861968994e+00" cType="1" res="1.5826122462749481e-01" rms="4.5955026149749756e-01" purity="6.9346159696578979e-01" nType="0">
          <Node pos="l" depth="2" NCoef="0" IVar="-1" Cut="0.0000000000000000e+00" cType="1" res="2.3686294443905354e-03" rms="4.7604173421859741e-01" purity="6.5080958604812622e-01" nType="-99"/>
          <Node pos="r" depth="2" NCoef="0" IVar="-1" Cut="0.0000000000000000e+00" cType="1" res="4.5148157514631748e-03" rms="3.9261984825134277e-01" purity="8.0948281288146973e-01" nType="-99"/>
        </Node>
      </Node>
    </BinaryTree>
    <BinaryTree type="DecisionTree" boostWeight="1.0000000000000000e+00" itree="24">
      <Node pos="s" depth="0" NCoef="0" IVar="1" Cut="2.3704646527767181e-01" cType="1" res="1.0923914611339569e-02" rms="4.8838287591934204e-01" purity="5.0151008367538452e-01" nType="0">
        <Node pos="l" depth="1" NCoef="0" IVar="2" Cut="6.4625173807144165e-01" cType="1" res="-9.8673336207866669e-02" rms="4.7605979442596436e-01" purity="3.5583922266960144e-01" nType="0">
          <Node pos="l" depth="2" NCoef="0" IVar="-1" Cut="0.0000000000000000e+00" cType="1" res="-4.6338858082890511e-03" rms="4.6292588114738464e-01" purity="3.1772953271865845e-01" nType="-99"/>
          <Node pos="r" depth="2" NCoef="0" IVar="-1" Cut="0.0000000000000000e+00" cType="1" res="-1.1377289192751050e-03" rms="4.9010732769966125e-01" purity="4.1519561409950256e-01" nType="-99"/>
        </Node>
        <Node pos="r" depth="1" NCoef="0" IVar="1" Cut="1.3609176874160767e+00" cType="1" res="1.1164028197526932e-01" rms="4.7776314616203308e-01" purity="6.3537687063217163e-01" nType="0">
          <Node pos="l" depth="2" NCoef="0" IVar="-1" Cut="0.0000000000000000e+00" cType="1" res="8.6410914082080126e-04" rms="4.9727517366409302e-01" purity="5.4326802492141724e-01" nType="-99"/>
          <Node pos="r" depth="2" NCoef="0" IVar="-1" Cut="0.0000000000000000e+00" cType="1" res="3.2153686042875051e-03" rms="4.5243111252784729e-01" purity="7.1048045158386230e-01" nType="-99"/>
        </Node>
      </Node>
    </BinaryTree>
    <BinaryTree type="DecisionTree" boostWeight="1.0000000000000000e+00" itree="25">
      <Node pos="s" depth="0" NCoef="0" IVar="1" Cut="8.5433351993560791e-01" cType="1" res="-1.0069485288113356e-03" rms="4.8807820677757263e-01" purity="4.8934423923492432e-01" nType="0">
        <Node pos="l" depth="1" NCoef="0" IVar="2" Cut="7.3537421226501465e-01" cType="1" res="-8.2722865045070648e-02" rms="4.8117646574974060e-01" purity="3.7929695844650269e-01" nType="0">
          <Node pos="l" depth="2" NCoef="0" IVar="-1" Cut="0.0000000000000000e+00" cType="1" res="-3.4537706524133682e-03" rms="4.7352769970893860e-01" purity="3.5112127661705017e-01" nType="-99"/>
          <Node pos="r" depth="2" NCoef="0" IVar="-1" Cut="0.0000000000000000e+00" cType="1" res="5.9175660135224462e-04" rms="4.9536329507827759e-01" purity="4.8733949661254883e-01" nType="-99"/>
        </Node>
        <Node pos="r" depth="1" NCoef="0" IVar="1" Cut="2.6556415557861328e+00" cType="1" res="1.2777113914489746e-01" rms="4.7080311179161072e-01" purity="6.6277039051055908e-01" nType="0">
          <Node pos="l" depth="2" NCoef="0" IVar="-1" Cut="0.0000000000000000e+00" cType="1" res="1.9011163385584950e-03" rms="4.8378801345825195e-01" purity="6.2265247106552124e-01" nType="-99"/>
          <Node pos="r" depth="2" NCoef="0" IVar="-1" Cut="0.0000000000000000e+00" cType="1" res="4.0995604358613491e-03" rms="4.0827277302742004e-01" purity="7.8845196962356567e-01" nType="-99"/>
        </Node>
      </Node>
    </BinaryTree>
    <BinaryTree type="DecisionTree" boostWeight="1.0000000000000000e+00" itree="26">
      <Node pos="s" depth="0" NCoef="0" IVar="1" Cut="1.3178403377532959e+00" cType="1" res="6.4794393256306648e-03" rms="4.8771542310714722e-01" purity="4.9650424718856812e-01" nType="0">
        <Node pos="l" depth="1" NCoef="0" IVar="1" Cut="-3.0100074410438538e-01" cType="1" res="-5.8660894632339478e-02" rms="4.8615348339080811e-01" purity="4.0993949770927429e-01" nType="0">
          <Node pos="l" depth="2" NCoef="0" IVar="-1" Cut="0.0000000000000000e+00" cType="1" res="-4.1135344654321671e-03" rms="4.6552702784538269e-01" purity="3.2272803783416748e-01" nType="-99"/>
          <Node pos="r" depth="2" NCoef="0" IVar="-1" Cut="0.0000000000000000e+00" cType="1" res="1.5637904289178550e-04" rms="4.9885374307632446e-01" purity="5.0216001272201538e-01" nType="-99"/>
        </Node>
        <Node pos="r" depth="1" NCoef="0" IVar="1" Cut="2.6521244049072266e+00" cType="1" res="1.6261535882949829e-01" rms="4.5493209362030029e-01" purity="7.0399266481399536e-01" nType="0">
          <Node pos="l" depth="2" NCoef="0" IVar="-1" Cut="0.0000000000000000e+00" cType="1" res="2.3839951027184725e-03" rms="4.7344478964805603e-01" purity="6.5862160921096802e-01" nType="-99"/>
          <Node pos="r" depth="2" NCoef="0" IVar="-1" Cut="0.0000000000000000e+00" cType="1" res="4.2828996665775776e-03" rms="3.9834424853324890e-01" purity="8.0200618505477905e-01" nType="-99"/>
        </Node>
      </Node>
    </BinaryTree>
    <BinaryTree type="DecisionTree" boostWeight="1.0000000000000000e+00" itree="27">
      <Node pos="s" depth="0" NCoef="0" IVar="1" Cut="1.0553710460662842e+00" cType="1" res="1.0838965885341167e-02" rms="4.8720991611480713e-01" purity="5.0037854909896851e-01" nType="0">
        <Node pos="l" depth="1" NCoef="0" IVar="3" Cut="2.0507488250732422e+00" cType="1" res="-6.4096264541149139e-02" rms="4.8456221818923950e-01" purity="3.9852064847946167e-01" nType="0">
          <Node pos="l" depth="2" NCoef="0" IVar="-1" Cut="0.0000000000000000e+00" cType="1" res="3.1150883296504617e-04" rms="4.9439895153045654e-01" purity="4.7790434956550598e-01" nType="-99"/>
          <Node pos="r" depth="2" NCoef="0" IVar="-1" Cut="0.0000000000000000e+00" cType="1" res="-3.8951965980231762e-03" rms="4.6905571222305298e-01" purity="3.3927521109580994e-01" nType="-99"/>
        </Node>
        <Node pos="r" depth="1" NCoef="0" IVar="2" Cut="6.4532476663589478e-01" cType="1" res="1.5066485106945038e-01" rms="4.6059241890907288e-01" purity="6.9044107198715210e-01" nType="0">
          <Node pos="l" depth="2" NCoef="0" IVar="-1" Cut="0.0000000000000000e+00" cType="1" res="2.0191532094031572e-03" rms="4.7878873348236084e-01" purity="6.3877713680267334e-01" nType="-99"/>
          <Node pos="r" depth="2" NCoef="0" IVar="-1" Cut="0.0000000000000000e+00" cType="1" res="4.1407798416912556e-03" rms="4.1587612032890320e-01" purity="7.7552860975265503e-01" nType="-99"/>
        </Node>
      </Node>
    </BinaryTree>
    <BinaryTree type="DecisionTree" boostWeight="1.0000000000000000e+00" itree="28">
      <Node pos="s" depth="0" NCoef="0" IVar="1" Cut="2.7168661355972290e-01" cType="1" res="9.3613741919398308e-03" rms="4.8634168505668640e-01" purity="4.9908414483070374e-01" nType="0">
        <Node pos="l" depth="1" NCoef="0" IVar="2" Cut="6.0826796293258667e-01" cType="1" res="-1.0055927187204361e-01" rms="4.7290015220642090e-01" purity="3.4882688522338867e-01" nType="0">
          <Node pos="l" depth="2" NCoef="0" IVar="-1" Cut="0.0000000000000000e+00" cType="1" res="-5.4328870028257370e-03" rms="4.5252960920333862e-01" purity="2.9442200064659119e-01" nType="-99"/>
          <Node pos="r" depth="2" NCoef="0" IVar="-1" Cut="0.0000000000000000e+00" cType="1" res="-1.2739183148369193e-03" rms="4.8774880170822144e-01" purity="4.0771600604057312e-01" nType="-99"/>
        </Node>
        <Node pos="r" depth="1" NCoef="0" IVar="1" Cut="2.7283174991607666e+00" cType="1" res="1.1212596297264099e-01" rms="4.7615754604339600e-01" purity="6.3955932855606079e-01" nType="0">
          <Node pos="l" depth="2" NCoef="0" IVar="-1" Cut="0.0000000000000000e+00" cType="1" res="1.7370167188346386e-03" rms="4.8661270737648010e-01" purity="6.0416537523269653e-01" nType="-99"/>
          <Node pos="r" depth="2" NCoef="0" IVar="-1" Cut="0.0000000000000000e+00" cType="1" res="4.3110931292176247e-03" rms="3.9425045251846313e-01" purity="8.0731981992721558e-01" nType="-99"/>
        </Node>
      </Node>
    </BinaryTree>
    <BinaryTree type="DecisionTree" boostWeight="1.0000000000000000e+00" itree="29">
      <Node pos="s" depth="0" NCoef="0" IVar="1" Cut="8.8056558370590210e-01" cType="1" res="8.6972666904330254e-03" rms="4.8624882102012634e-01" purity="4.9847963452339172e-01" nType="0">
        <Node pos="l" depth="1" NCoef="0" IVar="1" Cut="-1.1485573053359985e+00" cType="1" res="-7.5859859585762024e-02" rms="4.8137623071670532e-01" purity="3.8137406110763550e-01" nType="0">
          <Node pos="l" depth="2" NCoef="0" IVar="-1" Cut="0.0000000000000000e+00" cType="1" res="-5.5630109272897243e-03" rms="4.4936203956604004e-01" purity="2.8194603323936462e-01" nType="-99"/>
          <Node pos="r" depth="2" NCoef="0" IVar="-1" Cut="0.0000000000000000e+00" cType="1" res="-1.1756612220779061e-03" rms="4.9270898103713989e-01" purity="4.2923274636268616e-01" nType="-99"/>
        </Node>
        <Node pos="r" depth="1" NCoef="0" IVar="1" Cut="2.5976850986480713e+00" cType="1" res="1.3933460414409637e-01" rms="4.6433794498443604e-01" purity="6.7940294742584229e-01" nType="0">
          <Node pos="l" depth="2" NCoef="0" IVar="-1" Cut="0.0000000000000000e+00" cType="1" res="2.0519630052149296e-03" rms="4.8041453957557678e-01" purity="6.3487643003463745e-01" nType="-99"/>
          <Node pos="r" depth="2" NCoef="0" IVar="-1" Cut="0.0000000000000000e+00" cType="1" res="4.1588437743484974e-03" rms="3.9973646402359009e-01" purity="8.0007117986679077e-01" nType="-99"/>
        </Node>
      </Node>
    </BinaryTree>
    <BinaryTree type="DecisionTree" boostWeight="1.0000000000000000e+00" itree="30">
      <Node pos="s" depth="0" NCoef="0" IVar="1" Cut="7.2318273782730103e-01" cType="1" res="6.7891064099967480e-03" rms="4.8603123426437378e-01" purity="4.9543523788452148e-01" nType="0">
        <Node pos="l" depth="1" NCoef="0" IVar="3" Cut="1.7195390462875366e+00" cType="1" res="-7.7835172414779663e-02" rms="4.7985908389091492e-01" purity="3.7523311376571655e-01" nType="0">
          <Node pos="l" depth="2" NCoef="0" IVar="-1" Cut="0.0000000000000000e+00" cType="1" res="1.6121349472086877e-04" rms="4.9479827284812927e-01" purity="4.6444410085678101e-01" nType="-99"/>
          <Node pos="r" depth="2" NCoef="0" IVar="-1" Cut="0.0000000000000000e+00" cType="1" res="-3.7494117859750986e-03" rms="4.6842488646507263e-01" purity="3.3608970046043396e-01" nType="-99"/>
        </Node>
        <Node pos="r" depth="1" NCoef="0" IVar="1" Cut="1.9156763553619385e+00" cType="1" res="1.2533852458000183e-01" rms="4.6956557035446167e-01" purity="6.6382533311843872e-01" nType="0">
          <Node pos="l" depth="2" NCoef="0" IVar="-1" Cut="0.0000000000000000e+00" cType="1" res="1.4333274448290467e-03" rms="4.9083337187767029e-01" purity="5.9222853183746338e-01" nType="-99"/>
          <Node pos="r" depth="2" NCoef="0" IVar="-1" Cut="0.0000000000000000e+00" cType="1" res="3.4970340784639120e-03" rms="4.3354487419128418e-01" purity="7.4776065349578857e-01" nType="-99"/>
        </Node>
      </Node>
    </BinaryTree>
    <BinaryTree type="DecisionTree" boostWeight="1.0000000000000000e+00" itree="31">
      <Node pos="s" depth="0" NCoef="0" IVar="1" Cut="8.2138651609420776e-01" cType="1" res="1.5965372323989868e-02" rms="4.8589181900024414e-01" purity="5.0461059808731079e-01" nType="0">
        <Node pos="l" depth="1" NCoef="0" IVar="1" Cut="-5.4883944988250732e-01" cType="1" res="-6.3120648264884949e-02" rms="4.8320016264915466e-01" purity="3.9090672135353088e-01" nType="0">
          <Node pos="l" depth="2" NCoef="0" IVar="-1" Cut="0.0000000000000000e+00" cType="1" res="-3.9742756634950638e-03" rms="4.6360075473785400e-01" purity="3.1629720330238342e-01" nType="-99"/>
          <Node pos="r" depth="2" NCoef="0" IVar="-1" Cut="0.0000000000000000e+00" cType="1" res="-1.9312941003590822e-04" rms="4.9797421693801880e-01" purity="4.7276315093040466e-01" nType="-99"/>
        </Node>
        <Node pos="r" depth="1" NCoef="0" IVar="2" Cut="5.8207404613494873e-01" cType="1" res="1.3605456054210663e-01" rms="4.6490094065666199e-01" purity="6.7726564407348633e-01" nType="0">
          <Node pos="l" depth="2" NCoef="0" IVar="-1" Cut="0.0000000000000000e+00" cType="1" res="1.3771010562777519e-03" rms="4.8653158545494080e-01" purity="6.0502809286117554e-01" nType="-99"/>
          <Node pos="r" depth="2" NCoef="0" IVar="-1" Cut="0.0000000000000000e+00" cType="1" res="3.6330502480268478e-03" rms="4.3463149666786194e-01" purity="7.4289077520370483e-01" nType="-99"/>
        </Node>
      </Node>
    </BinaryTree>
    <BinaryTree type="DecisionTree" boostWeight="1.0000000000000000e+00" itree="32">
      <Node pos="s" depth="0" NCoef="0" IVar="1" Cut="1.3102617263793945e+00" cType="1" res="1.2161699123680592e-02" rms="4.8543271422386169e-01" purity="5.0007253885269165e-01" nType="0">
        <Node pos="l" depth="1" NCoef="0" IVar="1" Cut="-1.4258619546890259e+00" cType="1" res="-5.2246361970901489e-02" rms="4.8542246222496033e-01" purity="4.1023838520050049e-01" nType="0">
          <Node pos="l" depth="2" NCoef="0" IVar="-1" Cut="0.0000000000000000e+00" cType="1" res="-6.4715053886175156e-03" rms="4.3978431820869446e-01" purity="2.6356157660484314e-01" nType="-99"/>
          <Node pos="r" depth="2" NCoef="0" IVar="-1" Cut="0.0000000000000000e+00" cType="1" res="-6.0268322704359889e-04" rms="4.9354967474937439e-01" purity="4.5151233673095703e-01" nType="-99"/>
        </Node>
        <Node pos="r" depth="1" NCoef="0" IVar="2" Cut="5.6450217962265015e-01" cType="1" res="1.6713821887969971e-01" rms="4.4907617568969727e-01" purity="7.1622824668884277e-01" nType="0">
          <Node pos="l" depth="2" NCoef="0" IVar="-1" Cut="0.0000000000000000e+00" cType="1" res="1.9843745976686478e-03" rms="4.7661423683166504e-01" purity="6.4630848169326782e-01" nType="-99"/>
          <Node pos="r" depth="2" NCoef="0" IVar="-1" Cut="0.0000000000000000e+00" cType="1" res="3.8136770017445087e-03" rms="4.2068499326705933e-01" purity="7.6792305707931519e-01" nType="-99"/>
        </Node>
      </Node>
    </BinaryTree>
    <BinaryTree type="DecisionTree" boostWeight="1.0000000000000000e+00" itree="33">
      <Node pos="s" depth="0" NCoef="0" IVar="1" Cut="8.7913203239440918e-01" cType="1" res="1.1379102244973183e-02" rms="4.8517632484436035e-01" purity="5.0048267841339111e-01" nType="0">
        <Node pos="l" depth="1" NCoef="0" IVar="1" Cut="-1.1494539976119995e+00" cType="1" res="-6.5619945526123047e-02" rms="4.8194718360900879e-01" purity="3.8759556412696838e-01" nType="0">
          <Node pos="l" depth="2" NCoef="0" IVar="-1" Cut="0.0000000000000000e+00" cType="1" res="-6.0402536764740944e-03" rms="4.4123443961143494e-01" purity="2.6644685864448547e-01" nType="-99"/>
          <Node pos="r" depth="2" NCoef="0" IVar="-1" Cut="0.0000000000000000e+00" cType="1" res="-6.8595237098634243e-04" rms="4.9474018812179565e-01" purity="4.4401243329048157e-01" nType="-99"/>
        </Node>
        <Node pos="r" depth="1" NCoef="0" IVar="2" Cut="5.9751588106155396e-01" cType="1" res="1.3048896193504333e-01" rms="4.6569144725799561e-01" purity="6.7510777711868286e-01" nType="0">
          <Node pos="l" depth="2" NCoef="0" IVar="-1" Cut="0.0000000000000000e+00" cType="1" res="1.3509606942534447e-03" rms="4.8618474602699280e-01" purity="6.0619443655014038e-01" nType="-99"/>
          <Node pos="r" depth="2" NCoef="0" IVar="-1" Cut="0.0000000000000000e+00" cType="1" res="3.6143558099865913e-03" rms="4.3173733353614807e-01" purity="7.4841767549514771e-01" nType="-99"/>
        </Node>
      </Node>
    </BinaryTree>
    <BinaryTree type="DecisionTree" boostWeight="1.0000000000000000e+00" itree="34">
      <Node pos="s" depth="0" NCoef="0" IVar="1" Cut="1.5449815988540649e+00" cType="1" res="6.6448450088500977e-03" rms="4.8554900288581848e-01" purity="4.9416592717170715e-01" nType="0">
        <Node pos="l" depth="1" NCoef="0" IVar="1" Cut="-8.7038439512252808e-01" cType="1" res="-4.5910798013210297e-02" rms="4.8620638251304626e-01" purity="4.1868683695793152e-01" nType="0">
          <Node pos="l" depth="2" NCoef="0" IVar="-1" Cut="0.0000000000000000e+00" cType="1" res="-4.3104086071252823e-03" rms="4.5765054225921631e-01" purity="3.0160120129585266e-01" nType="-99"/>
          <Node pos="r" depth="2" NCoef="0" IVar="-1" Cut="0.0000000000000000e+00" cType="1" res="-2.2032023116480559e-04" rms="4.9640360474586487e-01" purity="4.7971454262733459e-01" nType="-99"/>
        </Node>
        <Node pos="r" depth="1" NCoef="0" IVar="2" Cut="6.6249561309814453e-01" cType="1" res="1.6037470102310181e-01" rms="4.4964095950126648e-01" purity="7.1494883298873901e-01" nType="0">
          <Node pos="l" depth="2" NCoef="0" IVar="-1" Cut="0.0000000000000000e+00" cType="1" res="2.2670505568385124e-03" rms="4.6879458427429199e-01" purity="6.6944080591201782e-01" nType="-99"/>
          <Node pos="r" depth="2" NCoef="0" IVar="-1" Cut="0.0000000000000000e+00" cType="1" res="4.2038364335894585e-03" rms="3.9947289228439331e-01" purity="7.9936599731445312e-01" nType="-99"/>
        </Node>
      </Node>
    </BinaryTree>
    <BinaryTree type="DecisionTree" boostWeight="1.0000000000000000e+00" itree="35">
      <Node pos="s" depth="0" NCoef="0" IVar="1" Cut="5.5318760871887207e-01" cType="1" res="9.7304126247763634e-03" rms="4.8411196470260620e-01" purity="4.9773946404457092e-01" nType="0">
        <Node pos="l" depth="1" NCoef="0" IVar="2" Cut="6.3621050119400024e-01" cType="1" res="-7.9982392489910126e-02" rms="4.7656625509262085e-01" purity="3.6525005102157593e-01" nType="0">
          <Node pos="l" depth="2" NCoef="0" IVar="-1" Cut="0.0000000000000000e+00" cType="1" res="-4.2119375430047512e-03" rms="4.6224400401115417e-01" purity="3.1885501742362976e-01" nType="-99"/>
          <Node pos="r" depth="2" NCoef="0" IVar="-1" Cut="0.0000000000000000e+00" cType="1" res="-4.6892534010112286e-04" rms="4.8934051394462585e-01" purity="4.3125015497207642e-01" nType="-99"/>
        </Node>
        <Node pos="r" depth="1" NCoef="0" IVar="1" Cut="1.8590843677520752e+00" cType="1" res="1.1798216402530670e-01" rms="4.7083052992820740e-01" purity="6.5760749578475952e-01" nType="0">
          <Node pos="l" depth="2" NCoef="0" IVar="-1" Cut="0.0000000000000000e+00" cType="1" res="1.4074920909479260e-03" rms="4.9101787805557251e-01" purity="5.8895856142044067e-01" nType="-99"/>
          <Node pos="r" depth="2" NCoef="0" IVar="-1" Cut="0.0000000000000000e+00" cType="1" res="3.3509989734739065e-03" rms="4.3456435203552246e-01" purity="7.4559801816940308e-01" nType="-99"/>
        </Node>
      </Node>
    </BinaryTree>
    <BinaryTree type="DecisionTree" boostWeight="1.0000000000000000e+00" itree="36">
      <Node pos="s" depth="0" NCoef="0" IVar="1" Cut="-3.4912634640932083e-02" cType="1" res="1.3835895806550980e-02" rms="4.8488086462020874e-01" purity="5.0156646966934204e-01" nType="0">
        <Node pos="l" depth="1" NCoef="0" IVar="1" Cut="-1.3254358768463135e+00" cType="1" res="-8.5769973695278168e-02" rms="4.7244378924369812e-01" purity="3.4740680456161499e-01" nType="0">
          <Node pos="l" depth="2" NCoef="0" IVar="-1" Cut="0.0000000000000000e+00" cType="1" res="-5.8651240542531013e-03" rms="4.4088038802146912e-01" purity="2.6581406593322754e-01" nType="-99"/>
          <Node pos="r" depth="2" NCoef="0" IVar="-1" Cut="0.0000000000000000e+00" cType="1" res="-1.2846322497352958e-03" rms="4.8855742812156677e-01" purity="4.0274012088775635e-01" nType="-99"/>
        </Node>
        <Node pos="r" depth="1" NCoef="0" IVar="1" Cut="1.9072511196136475e+00" cType="1" res="8.6324870586395264e-02" rms="4.8093596100807190e-01" purity="6.1375743150711060e-01" nType="0">
          <Node pos="l" depth="2" NCoef="0" IVar="-1" Cut="0.0000000000000000e+00" cType="1" res="8.8198127923533320e-04" rms="4.9532255530357361e-01" purity="5.4891633987426758e-01" nType="-99"/>
          <Node pos="r" depth="2" NCoef="0" IVar="-1" Cut="0.0000000000000000e+00" cType="1" res="3.3104298636317253e-03" rms="4.3484860658645630e-01" purity="7.4507158994674683e-01" nType="-99"/>
        </Node>
      </Node>
    </BinaryTree>
    <BinaryTree type="DecisionTree" boostWeight="1.0000000000000000e+00" itree="37">
      <Node pos="s" depth="0" NCoef="0" IVar="1" Cut="1.7683911323547363e-01" cType="1" res="1.2646686285734177e-02" rms="4.8413655161857605e-01" purity="5.0010317564010620e-01" nType="0">
        <Node pos="l" depth="1" NCoef="0" IVar="2" Cut="7.3210316896438599e-01" cType="1" res="-8.6557492613792419e-02" rms="4.7286304831504822e-01" purity="3.4883287549018860e-01" nType="0">
          <Node pos="l" depth="2" NCoef="0" IVar="-1" Cut="0.0000000000000000e+00" cType="1" res="-3.8105128332972527e-03" rms="4.6351620554924011e-01" purity="3.2200989127159119e-01" nType="-99"/>
          <Node pos="r" depth="2" NCoef="0" IVar="-1" Cut="0.0000000000000000e+00" cType="1" res="2.1061957522761077e-04" rms="4.9475651979446411e-01" purity="4.4829767942428589e-01" nType="-99"/>
        </Node>
        <Node pos="r" depth="1" NCoef="0" IVar="1" Cut="2.0622491836547852e+00" cType="1" res="9.7622320055961609e-02" rms="4.7747117280960083e-01" purity="6.2967729568481445e-01" nType="0">
          <Node pos="l" depth="2" NCoef="0" IVar="-1" Cut="0.0000000000000000e+00" cType="1" res="1.2666410766541958e-03" rms="4.9171787500381470e-01" purity="5.7510018348693848e-01" nType="-99"/>
          <Node pos="r" depth="2" NCoef="0" IVar="-1" Cut="0.0000000000000000e+00" cType="1" res="3.3735495526343584e-03" rms="4.2979422211647034e-01" purity="7.5427150726318359e-01" nType="-99"/>
        </Node>
      </Node>
    </BinaryTree>
    <BinaryTree type="DecisionTree" boostWeight="1.0000000000000000e+00" itree="38">
      <Node pos="s" depth="0" NCoef="0" IVar="1" Cut="1.2086819410324097e+00" cType="1" res="1.4953140169382095e-02" rms="4.8385909199714661e-01" purity="5.0230163335800171e-01" nType="0">
        <Node pos="l" depth="1" NCoef="0" IVar="1" Cut="-4.1874608397483826e-01" cType="1" res="-4.8322409391403198e-02" rms="4.8446363210678101e-01" purity="4.0670645236968994e-01" nType="0">
          <Node pos="l" depth="2" NCoef="0" IVar="-1" Cut="0.0000000000000000e+00" cType="1" res="-3.4246235154569149e-03" rms="4.6562165021896362e-01" purity="3.2205742597579956e-01" nType="-99"/>
          <Node pos="r" depth="2" NCoef="0" IVar="-1" Cut="0.0000000000000000e+00" cType="1" res="7.3611699917819351e-05" rms="4.9781244993209839e-01" purity="4.9333542585372925e-01" nType="-99"/>
        </Node>
        <Node pos="r" depth="1" NCoef="0" IVar="1" Cut="2.6393630504608154e+00" cType="1" res="1.4772938191890717e-01" rms="4.5481887459754944e-01" purity="7.0289683341979980e-01" nType="0">
          <Node pos="l" depth="2" NCoef="0" IVar="-1" Cut="0.0000000000000000e+00" cType="1" res="2.2193274926394224e-03" rms="4.7265526652336121e-01" purity="6.6040354967117310e-01" nType="-99"/>
          <Node pos="r" depth="2" NCoef="0" IVar="-1" Cut="0.0000000000000000e+00" cType="1" res="4.0053757838904858e-03" rms="3.9526382088661194e-01" purity="8.0573648214340210e-01" nType="-99"/>
        </Node>
      </Node>
    </BinaryTree>
    <BinaryTree type="DecisionTree" boostWeight="1.0000000000000000e+00" itree="39">
      <Node pos="s" depth="0" NCoef="0" IVar="1" Cut="9.1053366661071777e-01" cType="1" res="9.4902096316218376e-03" rms="4.8273426294326782e-01" purity="4.9743455648422241e-01" nType="0">
        <Node pos="l" depth="1" NCoef="0" IVar="2" Cut="6.6814416646957397e-01" cType="1" res="-6.4963415265083313e-02" rms="4.7996795177459717e-01" purity="3.8251614570617676e-01" nType="0">
          <Node pos="l" depth="2" NCoef="0" IVar="-1" Cut="0.0000000000000000e+00" cType="1" res="-3.4972273278981447e-03" rms="4.6796730160713196e-01" purity="3.3819693326950073e-01" nType="-99"/>
          <Node pos="r" depth="2" NCoef="0" IVar="-1" Cut="0.0000000000000000e+00" cType="1" res="4.2086307075805962e-04" rms="4.9217519164085388e-01" purity="4.6765562891960144e-01" nType="-99"/>
        </Node>
        <Node pos="r" depth="1" NCoef="0" IVar="1" Cut="2.4404585361480713e+00" cType="1" res="1.2812632322311401e-01" rms="4.6299937367439270e-01" purity="6.8054825067520142e-01" nType="0">
          <Node pos="l" depth="2" NCoef="0" IVar="-1" Cut="0.0000000000000000e+00" cType="1" res="1.6955066239461303e-03" rms="4.8261529207229614e-01" purity="6.2560051679611206e-01" nType="-99"/>
          <Node pos="r" depth="2" NCoef="0" IVar="-1" Cut="0.0000000000000000e+00" cType="1" res="3.8374504074454308e-03" rms="4.0327191352844238e-01" purity="7.9476571083068848e-01" nType="-99"/>
        </Node>
      </Node>
    </BinaryTree>
    <BinaryTree type="DecisionTree" boostWeight="1.0000000000000000e+00" itree="40">
      <Node pos="s" depth="0" NCoef="0" IVar="1" Cut="9.2360055446624756e-01" cType="1" res="1.5710609033703804e-02" rms="4.8282667994499207e-01" purity="5.0308585166931152e-01" nType="0">
        <Node pos="l" depth="1" NCoef="0" IVar="1" Cut="-2.1264445781707764e-01" cType="1" res="-5.3658820688724518e-02" rms="4.8205927014350891e-01" purity="3.9349207282066345e-01" nType="0">
          <Node pos="l" depth="2" NCoef="0" IVar="-1" Cut="0.0000000000000000e+00" cType="1" res="-3.2777397427707911e-03" rms="4.6647825837135315e-01" purity="3.2782715559005737e-01" nType="-99"/>
          <Node pos="r" depth="2" NCoef="0" IVar="-1" Cut="0.0000000000000000e+00" cType="1" res="3.0711546423844993e-04" rms="4.9850675463676453e-01" purity="4.9704194068908691e-01" nType="-99"/>
        </Node>
        <Node pos="r" depth="1" NCoef="0" IVar="1" Cut="2.6542329788208008e+00" cType="1" res="1.2995867431163788e-01" rms="4.6191251277923584e-01" purity="6.8358141183853149e-01" nType="0">
          <Node pos="l" depth="2" NCoef="0" IVar="-1" Cut="0.0000000000000000e+00" cType="1" res="1.9039055332541466e-03" rms="4.7831729054450989e-01" purity="6.4027088880538940e-01" nType="-99"/>
          <Node pos="r" depth="2" NCoef="0" IVar="-1" Cut="0.0000000000000000e+00" cType="1" res="3.9946367032825947e-03" rms="3.9567640423774719e-01" purity="8.0523991584777832e-01" nType="-99"/>
        </Node>
      </Node>
    </BinaryTree>
    <BinaryTree type="DecisionTree" boostWeight="1.0000000000000000e+00" itree="41">
      <Node pos="s" depth="0" NCoef="0" IVar="1" Cut="3.8020104169845581e-02" cType="1" res="1.1981420218944550e-02" rms="4.8285248875617981e-01" purity="4.9893844127655029e-01" nType="0">
        <Node pos="l" depth="1" NCoef="0" IVar="2" Cut="5.8827388286590576e-01" cType="1" res="-8.7514020502567291e-02" rms="4.6976691484451294e-01" purity="3.3985641598701477e-01" nType="0">
          <Node pos="l" depth="2" NCoef="0" IVar="-1" Cut="0.0000000000000000e+00" cType="1" res="-5.2527324296534061e-03" rms="4.4701832532882690e-01" purity="2.8185182809829712e-01" nType="-99"/>
          <Node pos="r" depth="2" NCoef="0" IVar="-1" Cut="0.0000000000000000e+00" cType="1" res="-1.2123397318646312e-03" rms="4.8398372530937195e-01" purity="3.9096993207931519e-01" nType="-99"/>
        </Node>
        <Node pos="r" depth="1" NCoef="0" IVar="1" Cut="2.2719988822937012e+00" cType="1" res="8.7572872638702393e-02" rms="4.7893854975700378e-01" purity="6.1980056762695312e-01" nType="0">
          <Node pos="l" depth="2" NCoef="0" IVar="-1" Cut="0.0000000000000000e+00" cType="1" res="1.0803707409650087e-03" rms="4.9251911044120789e-01" purity="5.6717222929000854e-01" nType="-99"/>
          <Node pos="r" depth="2" NCoef="0" IVar="-1" Cut="0.0000000000000000e+00" cType="1" res="3.6621529143303633e-03" rms="4.1169545054435730e-01" purity="7.8244876861572266e-01" nType="-99"/>
        </Node>
      </Node>
    </BinaryTree>
    <BinaryTree type="DecisionTree" boostWeight="1.0000000000000000e+00" itree="42">
      <Node pos="s" depth="0" NCoef="0" IVar="1" Cut="1.4817018508911133e+00" cType="1" res="4.8712044954299927e-03" rms="4.8331317305564880e-01" purity="4.9052694439888000e-01" nType="0">
        <Node pos="l" depth="1" NCoef="0" IVar="2" Cut="6.3757562637329102e-01" cType="1" res="-4.4030476361513138e-02" rms="4.8453754186630249e-01" purity="4.1404053568840027e-01" nType="0">
          <Node pos="l" depth="2" NCoef="0" IVar="-1" Cut="0.0000000000000000e+00" cType="1" res="-2.6398159097880125e-03" rms="4.7517046332359314e-01" purity="3.6866536736488342e-01" nType="-99"/>
          <Node pos="r" depth="2" NCoef="0" IVar="-1" Cut="0.0000000000000000e+00" cType="1" res="4.7911010915413499e-04" rms="4.9140813946723938e-01" purity="4.8113250732421875e-01" nType="-99"/>
        </Node>
        <Node pos="r" depth="1" NCoef="0" IVar="2" Cut="6.4098894596099854e-01" cType="1" res="1.4560130238533020e-01" rms="4.5110362768173218e-01" purity="7.1064090728759766e-01" nType="0">
          <Node pos="l" depth="2" NCoef="0" IVar="-1" Cut="0.0000000000000000e+00" cType="1" res="1.7272484255954623e-03" rms="4.7571805119514465e-01" purity="6.4768236875534058e-01" nType="-99"/>
          <Node pos="r" depth="2" NCoef="0" IVar="-1" Cut="0.0000000000000000e+00" cType="1" res="4.0352484211325645e-03" rms="3.9583536982536316e-01" purity="8.0364155769348145e-01" nType="-99"/>
        </Node>
      </Node>
    </BinaryTree>
    <BinaryTree type="DecisionTree" boostWeight="1.0000000000000000e+00" itree="43">
      <Node pos="s" depth="0" NCoef="0" IVar="1" Cut="2.8101468086242676e-01" cType="1" res="1.3948027975857258e-02" rms="4.8365214467048645e-01" purity="4.9965319037437439e-01" nType="0">
        <Node pos="l" depth="1" NCoef="0" IVar="2" Cut="7.1394121646881104e-01" cType="1" res="-6.6080927848815918e-02" rms="4.7713288664817810e-01" purity="3.6422067880630493e-01" nType="0">
          <Node pos="l" depth="2" NCoef="0" IVar="-1" Cut="0.0000000000000000e+00" cType="1" res="-3.0267506372183561e-03" rms="4.6907058358192444e-01" purity="3.3624607324600220e-01" nType="-99"/>
          <Node pos="r" depth="2" NCoef="0" IVar="-1" Cut="0.0000000000000000e+00" cType="1" res="3.0325286206789315e-04" rms="4.9314782023429871e-01" purity="4.5009914040565491e-01" nType="-99"/>
        </Node>
        <Node pos="r" depth="1" NCoef="0" IVar="2" Cut="5.9580355882644653e-01" cType="1" res="9.1148555278778076e-02" rms="4.7730851173400879e-01" purity="6.3029921054840088e-01" nType="0">
          <Node pos="l" depth="2" NCoef="0" IVar="-1" Cut="0.0000000000000000e+00" cType="1" res="5.8862846344709396e-04" rms="4.9053764343261719e-01" purity="5.6198626756668091e-01" nType="-99"/>
          <Node pos="r" depth="2" NCoef="0" IVar="-1" Cut="0.0000000000000000e+00" cType="1" res="3.0333481263369322e-03" rms="4.5318248867988586e-01" purity="7.0187664031982422e-01" nType="-99"/>
        </Node>
      </Node>
    </BinaryTree>
    <BinaryTree type="DecisionTree" boostWeight="1.0000000000000000e+00" itree="44">
      <Node pos="s" depth="0" NCoef="0" IVar="1" Cut="6.8919682502746582e-01" cType="1" res="1.3234455138444901e-02" rms="4.8137053847312927e-01" purity="5.0034028291702271e-01" nType="0">
        <Node pos="l" depth="1" NCoef="0" IVar="1" Cut="-8.5074222087860107e-01" cType="1" res="-6.4386539161205292e-02" rms="4.7741383314132690e-01" purity="3.7421351671218872e-01" nType="0">
          <Node pos="l" depth="2" NCoef="0" IVar="-1" Cut="0.0000000000000000e+00" cType="1" res="-4.9565932713449001e-03" rms="4.4573524594306946e-01" purity="2.7709370851516724e-01" nType="-99"/>
          <Node pos="r" depth="2" NCoef="0" IVar="-1" Cut="0.0000000000000000e+00" cType="1" res="-4.0557567263022065e-04" rms="4.9512606859207153e-01" purity="4.4964510202407837e-01" nType="-99"/>
        </Node>
        <Node pos="r" depth="1" NCoef="0" IVar="1" Cut="1.8920271396636963e+00" cType="1" res="1.1605897545814514e-01" rms="4.6710681915283203e-01" purity="6.6742038726806641e-01" nType="0">
          <Node pos="l" depth="2" NCoef="0" IVar="-1" Cut="0.0000000000000000e+00" cType="1" res="1.4087350573390722e-03" rms="4.8877313733100891e-01" purity="5.9926009178161621e-01" nType="-99"/>
          <Node pos="r" depth="2" NCoef="0" IVar="-1" Cut="0.0000000000000000e+00" cType="1" res="3.1753629446029663e-03" rms="4.3268042802810669e-01" purity="7.4849265813827515e-01" nType="-99"/>
        </Node>
      </Node>
    </BinaryTree>
    <BinaryTree type="DecisionTree" boostWeight="1.0000000000000000e+00" itree="45">
      <Node pos="s" depth="0" NCoef="0" IVar="1" Cut="5.8408564329147339e-01" cType="1" res="1.8022436648607254e-02" rms="4.8257660865783691e-01" purity="5.0446814298629761e-01" nType="0">
        <Node pos="l" depth="1" NCoef="0" IVar="2" Cut="6.4082431793212891e-01" cType="1" res="-5.4613530635833740e-02" rms="4.8024129867553711e-01" purity="3.8045361638069153e-01" nType="0">
          <Node pos="l" depth="2" NCoef="0" IVar="-1" Cut="0.0000000000000000e+00" cType="1" res="-3.0939546413719654e-03" rms="4.6845975518226624e-01" purity="3.3587539196014404e-01" nType="-99"/>
          <Node pos="r" depth="2" NCoef="0" IVar="-1" Cut="0.0000000000000000e+00" cType="1" res="1.4625584299210459e-04" rms="4.9141335487365723e-01" purity="4.4759330153465271e-01" nType="-99"/>
        </Node>
        <Node pos="r" depth="1" NCoef="0" IVar="1" Cut="2.6360285282135010e+00" cType="1" res="1.0684265196323395e-01" rms="4.7041374444961548e-01" purity="6.5611475706100464e-01" nType="0">
          <Node pos="l" depth="2" NCoef="0" IVar="-1" Cut="0.0000000000000000e+00" cType="1" res="1.5757017536088824e-03" rms="4.8398819565773010e-01" purity="6.1569046974182129e-01" nType="-99"/>
          <Node pos="r" depth="2" NCoef="0" IVar="-1" Cut="0.0000000000000000e+00" cType="1" res="3.8362178020179272e-03" rms="3.9669358730316162e-01" purity="8.0378812551498413e-01" nType="-99"/>
        </Node>
      </Node>
    </BinaryTree>
    <BinaryTree type="DecisionTree" boostWeight="1.0000000000000000e+00" itree="46">
      <Node pos="s" depth="0" NCoef="0" IVar="1" Cut="1.1805981397628784e+00" cType="1" res="9.1817816719412804e-03" rms="4.8227360844612122e-01" purity="4.9529600143432617e-01" nType="0">
        <Node pos="l" depth="1" NCoef="0" IVar="3" Cut="3.0239014625549316e+00" cType="1" res="-4.6976696699857712e-02" rms="4.8255088925361633e-01" purity="4.0179675817489624e-01" nType="0">
          <Node pos="l" depth="2" NCoef="0" IVar="-1" Cut="0.0000000000000000e+00" cType="1" res="-5.7306169765070081e-04" rms="4.8737999796867371e-01" purity="4.2971935868263245e-01" nType="-99"/>
          <Node pos="r" depth="2" NCoef="0" IVar="-1" Cut="0.0000000000000000e+00" cType="1" res="-6.5452610142529011e-03" rms="4.3680238723754883e-01" purity="2.6708209514617920e-01" nType="-99"/>
        </Node>
        <Node pos="r" depth="1" NCoef="0" IVar="2" Cut="6.2845903635025024e-01" cType="1" res="1.2567985057830811e-01" rms="4.6034634113311768e-01" purity="6.8925565481185913e-01" nType="0">
          <Node pos="l" depth="2" NCoef="0" IVar="-1" Cut="0.0000000000000000e+00" cType="1" res="1.6856741858646274e-03" rms="4.7702428698539734e-01" purity="6.4322251081466675e-01" nType="-99"/>
          <Node pos="r" depth="2" NCoef="0" IVar="-1" Cut="0.0000000000000000e+00" cType="1" res="3.3225372899323702e-03" rms="4.2890673875808716e-01" purity="7.5412201881408691e-01" nType="-99"/>
        </Node>
      </Node>
    </BinaryTree>
    <BinaryTree type="DecisionTree" boostWeight="1.0000000000000000e+00" itree="47">
      <Node pos="s" depth="0" NCoef="0" IVar="1" Cut="1.0691776275634766e+00" cType="1" res="1.7474789172410965e-02" rms="4.8174816370010376e-01" purity="5.0410079956054688e-01" nType="0">
        <Node pos="l" depth="1" NCoef="0" IVar="2" Cut="6.1457049846649170e-01" cType="1" res="-4.0949285030364990e-02" rms="4.8334246873855591e-01" purity="4.0461879968643188e-01" nType="0">
          <Node pos="l" depth="2" NCoef="0" IVar="-1" Cut="0.0000000000000000e+00" cType="1" res="-2.8148973360657692e-03" rms="4.7221177816390991e-01" purity="3.5187315940856934e-01" nType="-99"/>
          <Node pos="r" depth="2" NCoef="0" IVar="-1" Cut="0.0000000000000000e+00" cType="1" res="3.8707745261490345e-04" rms="4.9032884836196899e-01" purity="4.6689131855964661e-01" nType="-99"/>
        </Node>
        <Node pos="r" depth="1" NCoef="0" IVar="1" Cut="2.4290473461151123e+00" cType="1" res="1.2671048939228058e-01" rms="4.5922762155532837e-01" purity="6.9010269641876221e-01" nType="0">
          <Node pos="l" depth="2" NCoef="0" IVar="-1" Cut="0.0000000000000000e+00" cType="1" res="1.7317218007519841e-03" rms="4.7924894094467163e-01" purity="6.3771545886993408e-01" nType="-99"/>
          <Node pos="r" depth="2" NCoef="0" IVar="-1" Cut="0.0000000000000000e+00" cType="1" res="3.5542922560125589e-03" rms="4.0792843699455261e-01" purity="7.8841561079025269e-01" nType="-99"/>
        </Node>
      </Node>
    </BinaryTree>
    <BinaryTree type="DecisionTree" boostWeight="1.0000000000000000e+00" itree="48">
      <Node pos="s" depth="0" NCoef="0" IVar="1" Cut="1.2855432927608490e-01" cType="1" res="2.2678615525364876e-02" rms="4.8172840476036072e-01" purity="5.0898140668869019e-01" nType="0">
        <Node pos="l" depth="1" NCoef="0" IVar="1" Cut="-1.0685249567031860e+00" cType="1" res="-6.4803309738636017e-02" rms="4.7459861636161804e-01" purity="3.5845556855201721e-01" nType="0">
          <Node pos="l" depth="2" NCoef="0" IVar="-1" Cut="0.0000000000000000e+00" cType="1" res="-4.5422320254147053e-03" rms="4.4822427630424500e-01" purity="2.8076714277267456e-01" nType="-99"/>
          <Node pos="r" depth="2" NCoef="0" IVar="-1" Cut="0.0000000000000000e+00" cType="1" res="-5.8335962239652872e-04" rms="4.9193653464317322e-01" purity="4.2508560419082642e-01" nType="-99"/>
        </Node>
        <Node pos="r" depth="1" NCoef="0" IVar="2" Cut="5.6492835283279419e-01" cType="1" res="9.5586717128753662e-02" rms="4.7544825077056885e-01" purity="6.3443076610565186e-01" nType="0">
          <Node pos="l" depth="2" NCoef="0" IVar="-1" Cut="0.0000000000000000e+00" cType="1" res="7.5154326623305678e-04" rms="4.8955461382865906e-01" purity="5.6769198179244995e-01" nType="-99"/>
          <Node pos="r" depth="2" NCoef="0" IVar="-1" Cut="0.0000000000000000e+00" cType="1" res="2.8110821731388569e-03" rms="4.5777717232704163e-01" purity="6.8820321559906006e-01" nType="-99"/>
        </Node>
      </Node>
    </BinaryTree>
    <BinaryTree type="DecisionTree" boostWeight="1.0000000000000000e+00" itree="49">
      <Node pos="s" depth="0" NCoef="0" IVar="1" Cut="1.1224437952041626e+00" cType="1" res="1.7312362790107727e-02" rms="4.8097798228263855e-01" purity="5.0402730703353882e-01" nType="0">
        <Node pos="l" depth="1" NCoef="0" IVar="1" Cut="-9.1745787858963013e-01" cType="1" res="-4.0453005582094193e-02" rms="4.8288166522979736e-01" purity="4.0529736876487732e-01" nType="0">
          <Node pos="l" depth="2" NCoef="0" IVar="-1" Cut="0.0000000000000000e+00" cType="1" res="-4.0532788261771202e-03" rms="4.5265951752662659e-01" purity="2.9150214791297913e-01" nType="-99"/>
          <Node pos="r" depth="2" NCoef="0" IVar="-1" Cut="0.0000000000000000e+00" cType="1" res="-8.5451625636778772e-05" rms="4.9543112516403198e-01" purity="4.6997961401939392e-01" nType="-99"/>
        </Node>
        <Node pos="r" depth="1" NCoef="0" IVar="2" Cut="6.1730957031250000e-01" cType="1" res="1.2972854077816010e-01" rms="4.5676895976066589e-01" purity="6.9616383314132690e-01" nType="0">
          <Node pos="l" depth="2" NCoef="0" IVar="-1" Cut="0.0000000000000000e+00" cType="1" res="1.5227589756250381e-03" rms="4.7881442308425903e-01" purity="6.3546466827392578e-01" nType="-99"/>
          <Node pos="r" depth="2" NCoef="0" IVar="-1" Cut="0.0000000000000000e+00" cType="1" res="3.5630059428513050e-03" rms="4.1751724481582642e-01" purity="7.7170151472091675e-01" nType="-99"/>
        </Node>
      </Node>
    </BinaryTree>
    <BinaryTree type="DecisionTree" boostWeight="1.0000000000000000e+00" itree="50">
      <Node pos="s" depth="0" NCoef="0" IVar="1" Cut="1.0202310085296631e+00" cType="1" res="1.8127027899026871e-02" rms="4.8039203882217407e-01" purity="5.0449311733245850e-01" nType="0">
        <Node pos="l" depth="1" NCoef="0" IVar="3" Cut="2.9313395023345947e+00" cType="1" res="-4.4951811432838440e-02" rms="4.8169559240341187e-01" purity="3.9718237519264221e-01" nType="0">
          <Node pos="l" depth="2" NCoef="0" IVar="-1" Cut="0.0000000000000000e+00" cType="1" res="-4.7121624811552465e-04" rms="4.8731994628906250e-01" purity="4.2733299732208252e-01" nType="-99"/>
          <Node pos="r" depth="2" NCoef="0" IVar="-1" Cut="0.0000000000000000e+00" cType="1" res="-5.3817033767700195e-03" rms="4.4572395086288452e-01" purity="2.8699964284896851e-01" nType="-99"/>
        </Node>
        <Node pos="r" depth="1" NCoef="0" IVar="1" Cut="2.4181087017059326e+00" cType="1" res="1.3056337833404541e-01" rms="4.5695376396179199e-01" purity="6.9577169418334961e-01" nType="0">
          <Node pos="l" depth="2" NCoef="0" IVar="-1" Cut="0.0000000000000000e+00" cType="1" res="1.9297046819701791e-03" rms="4.7552302479743958e-01" purity="6.5039175748825073e-01" nType="-99"/>
          <Node pos="r" depth="2" NCoef="0" IVar="-1" Cut="0.0000000000000000e+00" cType="1" res="3.4687414299696684e-03" rms="4.0935298800468445e-01" purity="7.8587234020233154e-01" nType="-99"/>
        </Node>
      </Node>
    </BinaryTree>
    <BinaryTree type="DecisionTree" boostWeight="1.0000000000000000e+00" itree="51">
      <Node pos="s" depth="0" NCoef="0" IVar="1" Cut="1.0468339920043945e+00" cType="1" res="1.4554264955222607e-02" rms="4.8135003447532654e-01" purity="4.9994120001792908e-01" nType="0">
        <Node pos="l" depth="1" NCoef="0" IVar="2" Cut="6.3257068395614624e-01" cType="1" res="-4.1565179824829102e-02" rms="4.8275601863861084e-01" purity="3.9970284700393677e-01" nType="0">
          <Node pos="l" depth="2" NCoef="0" IVar="-1" Cut="0.0000000000000000e+00" cType="1" res="-2.4217362515628338e-03" rms="4.7333073616027832e-01" purity="3.5911929607391357e-01" nType="-99"/>
          <Node pos="r" depth="2" NCoef="0" IVar="-1" Cut="0.0000000000000000e+00" cType="1" res="2.7392973424866796e-04" rms="4.9168097972869873e-01" purity="4.5918554067611694e-01" nType="-99"/>
        </Node>
        <Node pos="r" depth="1" NCoef="0" IVar="1" Cut="2.5751655101776123e+00" cType="1" res="1.1826071143150330e-01" rms="4.6110507845878601e-01" purity="6.8517762422561646e-01" nType="0">
          <Node pos="l" depth="2" NCoef="0" IVar="-1" Cut="0.0000000000000000e+00" cType="1" res="1.7378405900672078e-03" rms="4.7766807675361633e-01" purity="6.4220970869064331e-01" nType="-99"/>
          <Node pos="r" depth="2" NCoef="0" IVar="-1" Cut="0.0000000000000000e+00" cType="1" res="3.4600601065903902e-03" rms="4.0802285075187683e-01" purity="7.8818625211715698e-01" nType="-99"/>
        </Node>
      </Node>
    </BinaryTree>
    <BinaryTree type="DecisionTree" boostWeight="1.0000000000000000e+00" itree="52">
      <Node pos="s" depth="0" NCoef="0" IVar="1" Cut="1.4047193527221680e+00" cType="1" res="1.0560100898146629e-02" rms="4.8043489456176758e-01" purity="4.9582970142364502e-01" nType="0">
        <Node pos="l" depth="1" NCoef="0" IVar="2" Cut="6.6800445318222046e-01" cType="1" res="-3.7759609520435333e-02" rms="4.8306986689567566e-01" purity="4.1316822171211243e-01" nType="0">
          <Node pos="l" depth="2" NCoef="0" IVar="-1" Cut="0.0000000000000000e+00" cType="1" res="-2.3044708650559187e-03" rms="4.7473278641700745e-01" purity="3.7090769410133362e-01" nType="-99"/>
          <Node pos="r" depth="2" NCoef="0" IVar="-1" Cut="0.0000000000000000e+00" cType="1" res="9.4029051251709461e-04" rms="4.9070924520492554e-01" purity="4.9743378162384033e-01" nType="-99"/>
        </Node>
        <Node pos="r" depth="1" NCoef="0" IVar="1" Cut="2.2149195671081543e+00" cType="1" res="1.3694080710411072e-01" rms="4.4955378770828247e-01" purity="7.1203178167343140e-01" nType="0">
          <Node pos="l" depth="2" NCoef="0" IVar="-1" Cut="0.0000000000000000e+00" cType="1" res="1.4049002202227712e-03" rms="4.8236489295959473e-01" purity="6.2857306003570557e-01" nType="-99"/>
          <Node pos="r" depth="2" NCoef="0" IVar="-1" Cut="0.0000000000000000e+00" cType="1" res="3.4935860894620419e-03" rms="4.0870156884193420e-01" purity="7.8639739751815796e-01" nType="-99"/>
        </Node>
      </Node>
    </BinaryTree>
    <BinaryTree type="DecisionTree" boostWeight="1.0000000000000000e+00" itree="53">
      <Node pos="s" depth="0" NCoef="0" IVar="1" Cut="4.7051620483398438e-01" cType="1" res="1.4028956182301044e-02" rms="4.8114627599716187e-01" purity="4.9925732612609863e-01" nType="0">
        <Node pos="l" depth="1" NCoef="0" IVar="4" Cut="1.1962320709228516e+02" cType="1" res="-5.5648159235715866e-02" rms="4.7724965214729309e-01" purity="3.6991465091705322e-01" nType="0">
          <Node pos="l" depth="2" NCoef="0" IVar="-1" Cut="0.0000000000000000e+00" cType="1" res="-4.6066110953688622e-03" rms="4.5125889778137207e-01" purity="2.9439896345138550e-01" nType="-99"/>
          <Node pos="r" depth="2" NCoef="0" IVar="-1" Cut="0.0000000000000000e+00" cType="1" res="-6.8205018760636449e-04" rms="4.8518669605255127e-01" purity="4.0446940064430237e-01" nType="-99"/>
        </Node>
        <Node pos="r" depth="1" NCoef="0" IVar="2" Cut="5.7839047908782959e-01" cType="1" res="9.1783672571182251e-02" rms="4.7350358963012695e-01" purity="6.4359456300735474e-01" nType="0">
          <Node pos="l" depth="2" NCoef="0" IVar="-1" Cut="0.0000000000000000e+00" cType="1" res="6.1341328546404839e-04" rms="4.8962399363517761e-01" purity="5.7399272918701172e-01" nType="-99"/>
          <Node pos="r" depth="2" NCoef="0" IVar="-1" Cut="0.0000000000000000e+00" cType="1" res="2.8303156141191721e-03" rms="4.5129302144050598e-01" purity="7.0528841018676758e-01" nType="-99"/>
        </Node>
      </Node>
    </BinaryTree>
    <BinaryTree type="DecisionTree" boostWeight="1.0000000000000000e+00" itree="54">
      <Node pos="s" depth="0" NCoef="0" IVar="1" Cut="3.5333213210105896e-01" cType="1" res="1.1127181351184845e-02" rms="4.8122325539588928e-01" purity="4.9502453207969666e-01" nType="0">
        <Node pos="l" depth="1" NCoef="0" IVar="4" Cut="1.4140788269042969e+02" cType="1" res="-6.3658826053142548e-02" rms="4.7491249442100525e-01" purity="3.5843461751937866e-01" nType="0">
          <Node pos="l" depth="2" NCoef="0" IVar="-1" Cut="0.0000000000000000e+00" cType="1" res="-4.0735490620136261e-03" rms="4.5507919788360596e-01" purity="3.0388236045837402e-01" nType="-99"/>
          <Node pos="r" depth="2" NCoef="0" IVar="-1" Cut="0.0000000000000000e+00" cType="1" res="-6.2410783721134067e-04" rms="4.8652064800262451e-01" purity="4.0326488018035889e-01" nType="-99"/>
        </Node>
        <Node pos="r" depth="1" NCoef="0" IVar="2" Cut="7.5287038087844849e-01" cType="1" res="8.8677711784839630e-02" rms="4.7541460394859314e-01" purity="6.3666361570358276e-01" nType="0">
          <Node pos="l" depth="2" NCoef="0" IVar="-1" Cut="0.0000000000000000e+00" cType="1" res="1.4024917036294937e-03" rms="4.8177340626716614e-01" purity="6.1276900768280029e-01" nType="-99"/>
          <Node pos="r" depth="2" NCoef="0" IVar="-1" Cut="0.0000000000000000e+00" cType="1" res="3.5805860534310341e-03" rms="4.2641037702560425e-01" purity="7.5475823879241943e-01" nType="-99"/>
        </Node>
      </Node>
    </BinaryTree>
    <BinaryTree type="DecisionTree" boostWeight="1.0000000000000000e+00" itree="55">
      <Node pos="s" depth="0" NCoef="0" IVar="1" Cut="3.7542197108268738e-01" cType="1" res="1.4262275770306587e-02" rms="4.7933036088943481e-01" purity="4.9999654293060303e-01" nType="0">
        <Node pos="l" depth="1" NCoef="0" IVar="3" Cut="3.0301291942596436e+00" cType="1" res="-6.2530130147933960e-02" rms="4.7380211949348450e-01" purity="3.6011305451393127e-01" nType="0">
          <Node pos="l" depth="2" NCoef="0" IVar="-1" Cut="0.0000000000000000e+00" cType="1" res="-1.2022427981719375e-03" rms="4.8077470064163208e-01" purity="3.8561779260635376e-01" nType="-99"/>
          <Node pos="r" depth="2" NCoef="0" IVar="-1" Cut="0.0000000000000000e+00" cType="1" res="-7.3010297492146492e-03" rms="4.1747018694877625e-01" purity="2.3104563355445862e-01" nType="-99"/>
        </Node>
        <Node pos="r" depth="1" NCoef="0" IVar="1" Cut="2.2972753047943115e+00" cType="1" res="9.3367360532283783e-02" rms="4.7207325696945190e-01" purity="6.4409273862838745e-01" nType="0">
          <Node pos="l" depth="2" NCoef="0" IVar="-1" Cut="0.0000000000000000e+00" cType="1" res="1.1659889714792371e-03" rms="4.8912337422370911e-01" purity="5.8810502290725708e-01" nType="-99"/>
          <Node pos="r" depth="2" NCoef="0" IVar="-1" Cut="0.0000000000000000e+00" cType="1" res="3.4672471228986979e-03" rms="4.0871781110763550e-01" purity="7.8676289319992065e-01" nType="-99"/>
        </Node>
      </Node>
    </BinaryTree>
    <BinaryTree type="DecisionTree" boostWeight="1.0000000000000000e+00" itree="56">
      <Node pos="s" depth="0" NCoef="0" IVar="1" Cut="1.4347442388534546e+00" cType="1" res="7.6839625835418701e-03" rms="4.7890448570251465e-01" purity="4.9288472533226013e-01" nType="0">
        <Node pos="l" depth="1" NCoef="0" IVar="1" Cut="-5.5386710166931152e-01" cType="1" res="-4.2769465595483780e-02" rms="4.8121172189712524e-01" purity="4.0609499812126160e-01" nType="0">
          <Node pos="l" depth="2" NCoef="0" IVar="-1" Cut="0.0000000000000000e+00" cType="1" res="-3.5129785537719727e-03" rms="4.5627298951148987e-01" purity="3.0229023098945618e-01" nType="-99"/>
          <Node pos="r" depth="2" NCoef="0" IVar="-1" Cut="0.0000000000000000e+00" cType="1" res="-3.3368858566973358e-05" rms="4.9588510394096375e-01" purity="4.8713085055351257e-01" nType="-99"/>
        </Node>
        <Node pos="r" depth="1" NCoef="0" IVar="1" Cut="2.4122447967529297e+00" cType="1" res="1.3856889307498932e-01" rms="4.4706636667251587e-01" purity="7.1803230047225952e-01" nType="0">
          <Node pos="l" depth="2" NCoef="0" IVar="-1" Cut="0.0000000000000000e+00" cType="1" res="1.7898535588756204e-03" rms="4.7379294037818909e-01" purity="6.5653592348098755e-01" nType="-99"/>
          <Node pos="r" depth="2" NCoef="0" IVar="-1" Cut="0.0000000000000000e+00" cType="1" res="3.4996769391000271e-03" rms="4.0456444025039673e-01" purity="7.9289299249649048e-01" nType="-99"/>
        </Node>
      </Node>
    </BinaryTree>
    <BinaryTree type="DecisionTree" boostWeight="1.0000000000000000e+00" itree="57">
      <Node pos="s" depth="0" NCoef="0" IVar="1" Cut="7.9361182451248169e-01" cType="1" res="1.4991388656198978e-02" rms="4.7950679063796997e-01" purity="5.0098723173141479e-01" nType="0">
        <Node pos="l" depth="1" NCoef="0" IVar="3" Cut="2.4067945480346680e+00" cType="1" res="-4.6042084693908691e-02" rms="4.7983178496360779e-01" purity="3.8467007875442505e-01" nType="0">
          <Node pos="l" depth="2" NCoef="0" IVar="-1" Cut="0.0000000000000000e+00" cType="1" res="-1.7943713464774191e-04" rms="4.8877274990081787e-01" purity="4.3038374185562134e-01" nType="-99"/>
          <Node pos="r" depth="2" NCoef="0" IVar="-1" Cut="0.0000000000000000e+00" cType="1" res="-3.1579940114170313e-03" rms="4.6424227952957153e-01" purity="3.2922708988189697e-01" nType="-99"/>
        </Node>
        <Node pos="r" depth="1" NCoef="0" IVar="1" Cut="2.1533071994781494e+00" cType="1" res="1.0370258986949921e-01" rms="4.6496191620826721e-01" purity="6.7005234956741333e-01" nType="0">
          <Node pos="l" depth="2" NCoef="0" IVar="-1" Cut="0.0000000000000000e+00" cType="1" res="1.1951420456171036e-03" rms="4.8693242669105530e-01" purity="6.0469549894332886e-01" nType="-99"/>
          <Node pos="r" depth="2" NCoef="0" IVar="-1" Cut="0.0000000000000000e+00" cType="1" res="3.1908669043332338e-03" rms="4.1817912459373474e-01" purity="7.7169859409332275e-01" nType="-99"/>
        </Node>
      </Node>
    </BinaryTree>
    <BinaryTree type="DecisionTree" boostWeight="1.0000000000000000e+00" itree="58">
      <Node pos="s" depth="0" NCoef="0" IVar="1" Cut="1.5857489109039307e+00" cType="1" res="1.9210094586014748e-02" rms="4.8023235797882080e-01" purity="5.0277906656265259e-01" nType="0">
        <Node pos="l" depth="1" NCoef="0" IVar="4" Cut="1.1840503692626953e+02" cType="1" res="-2.1146140992641449e-02" rms="4.8509779572486877e-01" purity="4.3020752072334290e-01" nType="0">
          <Node pos="l" depth="2" NCoef="0" IVar="-1" Cut="0.0000000000000000e+00" cType="1" res="-2.9734345152974129e-03" rms="4.6793273091316223e-01" purity="3.5037145018577576e-01" nType="-99"/>
          <Node pos="r" depth="2" NCoef="0" IVar="-1" Cut="0.0000000000000000e+00" cType="1" res="2.2841758618596941e-04" rms="4.8883044719696045e-01" purity="4.6285176277160645e-01" nType="-99"/>
        </Node>
        <Node pos="r" depth="1" NCoef="0" IVar="2" Cut="5.9654074907302856e-01" cType="1" res="1.4542065560817719e-01" rms="4.4148838520050049e-01" purity="7.2973996400833130e-01" nType="0">
          <Node pos="l" depth="2" NCoef="0" IVar="-1" Cut="0.0000000000000000e+00" cType="1" res="1.8877243855968118e-03" rms="4.6682631969451904e-01" purity="6.7395150661468506e-01" nType="-99"/>
          <Node pos="r" depth="2" NCoef="0" IVar="-1" Cut="0.0000000000000000e+00" cType="1" res="3.4589904826134443e-03" rms="4.0702086687088013e-01" purity="7.8808683156967163e-01" nType="-99"/>
        </Node>
      </Node>
    </BinaryTree>
    <BinaryTree type="DecisionTree" boostWeight="1.0000000000000000e+00" itree="59">
      <Node pos="s" depth="0" NCoef="0" IVar="1" Cut="9.5771646499633789e-01" cType="1" res="1.4176240190863609e-02" rms="4.7863918542861938e-01" purity="5.0013250112533569e-01" nType="0">
        <Node pos="l" depth="1" NCoef="0" IVar="1" Cut="-2.9621291160583496e-01" cType="1" res="-4.5095391571521759e-02" rms="4.7949948906898499e-01" purity="3.8955560326576233e-01" nType="0">
          <Node pos="l" depth="2" NCoef="0" IVar="-1" Cut="0.0000000000000000e+00" cType="1" res="-3.0630100518465042e-03" rms="4.6176692843437195e-01" purity="3.1565466523170471e-01" nType="-99"/>
          <Node pos="r" depth="2" NCoef="0" IVar="-1" Cut="0.0000000000000000e+00" cType="1" res="2.4890154600143433e-04" rms="4.9702855944633484e-01" purity="4.8890009522438049e-01" nType="-99"/>
        </Node>
        <Node pos="r" depth="1" NCoef="0" IVar="2" Cut="6.5829253196716309e-01" cType="1" res="1.1340729147195816e-01" rms="4.6042054891586304e-01" purity="6.8525761365890503e-01" nType="0">
          <Node pos="l" depth="2" NCoef="0" IVar="-1" Cut="0.0000000000000000e+00" cType="1" res="1.5251769218593836e-03" rms="4.7607025504112244e-01" purity="6.4152115583419800e-01" nType="-99"/>
          <Node pos="r" depth="2" NCoef="0" IVar="-1" Cut="0.0000000000000000e+00" cType="1" res="3.3825098071247339e-03" rms="4.2044600844383240e-01" purity="7.6647996902465820e-01" nType="-99"/>
        </Node>
      </Node>
    </BinaryTree>
    <BinaryTree type="DecisionTree" boostWeight="1.0000000000000000e+00" itree="60">
      <Node pos="s" depth="0" NCoef="0" IVar="1" Cut="4.2039966583251953e-01" cType="1" res="9.1922497376799583e-03" rms="4.7957268357276917e-01" purity="4.9320951104164124e-01" nType="0">
        <Node pos="l" depth="1" NCoef="0" IVar="2" Cut="6.6160917282104492e-01" cType="1" res="-5.6324865669012070e-02" rms="4.7511854767799377e-01" purity="3.6213415861129761e-01" nType="0">
          <Node pos="l" depth="2" NCoef="0" IVar="-1" Cut="0.0000000000000000e+00" cType="1" res="-3.1152635347098112e-03" rms="4.6278446912765503e-01" purity="3.2144048810005188e-01" nType="-99"/>
          <Node pos="r" depth="2" NCoef="0" IVar="-1" Cut="0.0000000000000000e+00" cType="1" res="1.5539898595307022e-04" rms="4.9079057574272156e-01" purity="4.3625706434249878e-01" nType="-99"/>
        </Node>
        <Node pos="r" depth="1" NCoef="0" IVar="2" Cut="5.7028752565383911e-01" cType="1" res="8.0823414027690887e-02" rms="4.7414660453796387e-01" purity="6.3651680946350098e-01" nType="0">
          <Node pos="l" depth="2" NCoef="0" IVar="-1" Cut="0.0000000000000000e+00" cType="1" res="3.0014946241863072e-04" rms="4.8911845684051514e-01" purity="5.6206172704696655e-01" nType="-99"/>
          <Node pos="r" depth="2" NCoef="0" IVar="-1" Cut="0.0000000000000000e+00" cType="1" res="2.6752599515020847e-03" rms="4.5348650217056274e-01" purity="6.9919490814208984e-01" nType="-99"/>
        </Node>
      </Node>
    </BinaryTree>
    <BinaryTree type="DecisionTree" boostWeight="1.0000000000000000e+00" itree="61">
      <Node pos="s" depth="0" NCoef="0" IVar="1" Cut="9.9039179086685181e-01" cType="1" res="1.3504964299499989e-02" rms="4.7861400246620178e-01" purity="4.9844521284103394e-01" nType="0">
        <Node pos="l" depth="1" NCoef="0" IVar="2" Cut="5.5644237995147705e-01" cType="1" res="-4.1825670748949051e-02" rms="4.8010087013244629e-01" purity="3.9141875505447388e-01" nType="0">
          <Node pos="l" depth="2" NCoef="0" IVar="-1" Cut="0.0000000000000000e+00" cType="1" res="-3.1579323112964630e-03" rms="4.6430155634880066e-01" purity="3.3108672499656677e-01" nType="-99"/>
          <Node pos="r" depth="2" NCoef="0" IVar="-1" Cut="0.0000000000000000e+00" cType="1" res="-1.5764053387101740e-04" rms="4.8727282881736755e-01" purity="4.3251538276672363e-01" nType="-99"/>
        </Node>
        <Node pos="r" depth="1" NCoef="0" IVar="1" Cut="2.2122249603271484e+00" cType="1" res="1.1009800434112549e-01" rms="4.6033471822738647e-01" purity="6.8528586626052856e-01" nType="0">
          <Node pos="l" depth="2" NCoef="0" IVar="-1" Cut="0.0000000000000000e+00" cType="1" res="1.4555995585396886e-03" rms="4.8120111227035522e-01" purity="6.2940758466720581e-01" nType="-99"/>
          <Node pos="r" depth="2" NCoef="0" IVar="-1" Cut="0.0000000000000000e+00" cType="1" res="3.0104222241789103e-03" rms="4.2186790704727173e-01" purity="7.6648676395416260e-01" nType="-99"/>
        </Node>
      </Node>
    </BinaryTree>
    <BinaryTree type="DecisionTree" boostWeight="1.0000000000000000e+00" itree="62">
      <Node pos="s" depth="0" NCoef="0" IVar="1" Cut="6.6756796836853027e-01" cType="1" res="1.4657072722911835e-02" rms="4.7777816653251648e-01" purity="5.0083643198013306e-01" nType="0">
        <Node pos="l" depth="1" NCoef="0" IVar="1" Cut="-9.7273588180541992e-01" cType="1" res="-5.4053317755460739e-02" rms="4.7608575224876404e-01" purity="3.6970001459121704e-01" nType="0">
          <Node pos="l" depth="2" NCoef="0" IVar="-1" Cut="0.0000000000000000e+00" cType="1" res="-4.2705400846898556e-03" rms="4.4507423043251038e-01" purity="2.7626293897628784e-01" nType="-99"/>
          <Node pos="r" depth="2" NCoef="0" IVar="-1" Cut="0.0000000000000000e+00" cType="1" res="-5.1271531265228987e-04" rms="4.9245494604110718e-01" purity="4.3160140514373779e-01" nType="-99"/>
        </Node>
        <Node pos="r" depth="1" NCoef="0" IVar="2" Cut="6.0214251279830933e-01" cType="1" res="1.0235351324081421e-01" rms="4.6542033553123474e-01" purity="6.6820847988128662e-01" nType="0">
          <Node pos="l" depth="2" NCoef="0" IVar="-1" Cut="0.0000000000000000e+00" cType="1" res="1.0566464625298977e-03" rms="4.8383674025535583e-01" purity="6.0797816514968872e-01" nType="-99"/>
          <Node pos="r" depth="2" NCoef="0" IVar="-1" Cut="0.0000000000000000e+00" cType="1" res="2.9555119108408689e-03" rms="4.3783554434776306e-01" purity="7.3324733972549438e-01" nType="-99"/>
        </Node>
      </Node>
    </BinaryTree>
    <BinaryTree type="DecisionTree" boostWeight="1.0000000000000000e+00" itree="63">
      <Node pos="s" depth="0" NCoef="0" IVar="1" Cut="5.1932072639465332e-01" cType="1" res="1.4115739613771439e-02" rms="4.7865417599678040e-01" purity="4.9815097451210022e-01" nType="0">
        <Node pos="l" depth="1" NCoef="0" IVar="3" Cut="3.1458058357238770e+00" cType="1" res="-5.1865860819816589e-02" rms="4.7588348388671875e-01" purity="3.6696466803550720e-01" nType="0">
          <Node pos="l" depth="2" NCoef="0" IVar="-1" Cut="0.0000000000000000e+00" cType="1" res="-1.0273704538121819e-03" rms="4.8147419095039368e-01" purity="3.8716652989387512e-01" nType="-99"/>
          <Node pos="r" depth="2" NCoef="0" IVar="-1" Cut="0.0000000000000000e+00" cType="1" res="-8.8603934273123741e-03" rms="3.9823994040489197e-01" purity="2.0252098143100739e-01" nType="-99"/>
        </Node>
        <Node pos="r" depth="1" NCoef="0" IVar="1" Cut="2.2834787368774414e+00" cType="1" res="9.1948650777339935e-02" rms="4.7014471888542175e-01" purity="6.5290027856826782e-01" nType="0">
          <Node pos="l" depth="2" NCoef="0" IVar="-1" Cut="0.0000000000000000e+00" cType="1" res="1.2317049549892545e-03" rms="4.8737210035324097e-01" purity="6.0119217634201050e-01" nType="-99"/>
          <Node pos="r" depth="2" NCoef="0" IVar="-1" Cut="0.0000000000000000e+00" cType="1" res="3.1898913439363241e-03" rms="4.1394200921058655e-01" purity="7.7818667888641357e-01" nType="-99"/>
        </Node>
      </Node>
    </BinaryTree>
    <BinaryTree type="DecisionTree" boostWeight="1.0000000000000000e+00" itree="64">
      <Node pos="s" depth="0" NCoef="0" IVar="1" Cut="1.4260898828506470e+00" cType="1" res="1.8166011199355125e-02" rms="4.7896847128868103e-01" purity="5.0282615423202515e-01" nType="0">
        <Node pos="l" depth="1" NCoef="0" IVar="2" Cut="6.5618193149566650e-01" cType="1" res="-2.2566735744476318e-02" rms="4.8332130908966064e-01" purity="4.2282092571258545e-01" nType="0">
          <Node pos="l" depth="2" NCoef="0" IVar="-1" Cut="0.0000000000000000e+00" cType="1" res="-1.8598802853375673e-03" rms="4.7579774260520935e-01" purity="3.7794172763824463e-01" nType="-99"/>
          <Node pos="r" depth="2" NCoef="0" IVar="-1" Cut="0.0000000000000000e+00" cType="1" res="1.1356490431353450e-03" rms="4.8900848627090454e-01" purity="5.0242507457733154e-01" nType="-99"/>
        </Node>
        <Node pos="r" depth="1" NCoef="0" IVar="1" Cut="2.7403521537780762e+00" cType="1" res="1.2463466823101044e-01" rms="4.5032200217247009e-01" purity="7.1194654703140259e-01" nType="0">
          <Node pos="l" depth="2" NCoef="0" IVar="-1" Cut="0.0000000000000000e+00" cType="1" res="1.8841581186279655e-03" rms="4.6823811531066895e-01" purity="6.7256534099578857e-01" nType="-99"/>
          <Node pos="r" depth="2" NCoef="0" IVar="-1" Cut="0.0000000000000000e+00" cType="1" res="3.3895631786435843e-03" rms="4.0088957548141479e-01" purity="7.9795348644256592e-01" nType="-99"/>
        </Node>
      </Node>
    </BinaryTree>
    <BinaryTree type="DecisionTree" boostWeight="1.0000000000000000e+00" itree="65">
      <Node pos="s" depth="0" NCoef="0" IVar="1" Cut="1.1846370697021484e+00" cType="1" res="1.1538865976035595e-02" rms="4.7760236263275146e-01" purity="4.9582844972610474e-01" nType="0">
        <Node pos="l" depth="1" NCoef="0" IVar="2" Cut="6.4025115966796875e-01" cType="1" res="-3.7846524268388748e-02" rms="4.8008576035499573e-01" purity="3.9920610189437866e-01" nType="0">
          <Node pos="l" depth="2" NCoef="0" IVar="-1" Cut="0.0000000000000000e+00" cType="1" res="-2.5286937598139048e-03" rms="4.6931505203247070e-01" purity="3.5037618875503540e-01" nType="-99"/>
          <Node pos="r" depth="2" NCoef="0" IVar="-1" Cut="0.0000000000000000e+00" cType="1" res="6.0790270799770951e-04" rms="4.8949646949768066e-01" purity="4.7226929664611816e-01" nType="-99"/>
        </Node>
        <Node pos="r" depth="1" NCoef="0" IVar="2" Cut="6.0473626852035522e-01" cType="1" res="1.1513830721378326e-01" rms="4.5526444911956787e-01" purity="6.9852042198181152e-01" nType="0">
          <Node pos="l" depth="2" NCoef="0" IVar="-1" Cut="0.0000000000000000e+00" cType="1" res="1.3929713750258088e-03" rms="4.7615981101989746e-01" purity="6.4327204227447510e-01" nType="-99"/>
          <Node pos="r" depth="2" NCoef="0" IVar="-1" Cut="0.0000000000000000e+00" cType="1" res="3.0651770066469908e-03" rms="4.2519792914390564e-01" purity="7.5911980867385864e-01" nType="-99"/>
        </Node>
      </Node>
    </BinaryTree>
    <BinaryTree type="DecisionTree" boostWeight="1.0000000000000000e+00" itree="66">
      <Node pos="s" depth="0" NCoef="0" IVar="1" Cut="4.8608040809631348e-01" cType="1" res="2.1963069215416908e-02" rms="4.7755134105682373e-01" purity="5.0733053684234619e-01" nType="0">
        <Node pos="l" depth="1" NCoef="0" IVar="4" Cut="1.4043226623535156e+02" cType="1" res="-4.5112472027540207e-02" rms="4.7645696997642517e-01" purity="3.7142068147659302e-01" nType="0">
          <Node pos="l" depth="2" NCoef="0" IVar="-1" Cut="0.0000000000000000e+00" cType="1" res="-3.3425695728510618e-03" rms="4.5672687888145447e-01" purity="3.1425935029983521e-01" nType="-99"/>
          <Node pos="r" depth="2" NCoef="0" IVar="-1" Cut="0.0000000000000000e+00" cType="1" res="-1.0740874131442979e-04" rms="4.8749077320098877e-01" purity="4.1652926802635193e-01" nType="-99"/>
        </Node>
        <Node pos="r" depth="1" NCoef="0" IVar="2" Cut="6.7126536369323730e-01" cType="1" res="9.6919603645801544e-02" rms="4.6752089262008667e-01" purity="6.5920907258987427e-01" nType="0">
          <Node pos="l" depth="2" NCoef="0" IVar="-1" Cut="0.0000000000000000e+00" cType="1" res="1.2758882949128747e-03" rms="4.7982078790664673e-01" purity="6.1749315261840820e-01" nType="-99"/>
          <Node pos="r" depth="2" NCoef="0" IVar="-1" Cut="0.0000000000000000e+00" cType="1" res="3.2418149057775736e-03" rms="4.3081712722778320e-01" purity="7.4670654535293579e-01" nType="-99"/>
        </Node>
      </Node>
    </BinaryTree>
    <BinaryTree type="DecisionTree" boostWeight="1.0000000000000000e+00" itree="67">
      <Node pos="s" depth="0" NCoef="0" IVar="1" Cut="1.2830690145492554e+00" cType="1" res="1.6649579629302025e-02" rms="4.7724825143814087e-01" purity="5.0079655647277832e-01" nType="0">
        <Node pos="l" depth="1" NCoef="0" IVar="3" Cut="1.9995265007019043e+00" cType="1" res="-3.0134486034512520e-02" rms="4.8143216967582703e-01" purity="4.0976580977439880e-01" nType="0">
          <Node pos="l" depth="2" NCoef="0" IVar="-1" Cut="0.0000000000000000e+00" cType="1" res="8.0302020069211721e-04" rms="4.9132931232452393e-01" purity="4.7839546203613281e-01" nType="-99"/>
          <Node pos="r" depth="2" NCoef="0" IVar="-1" Cut="0.0000000000000000e+00" cType="1" res="-2.2750247735530138e-03" rms="4.7000083327293396e-01" purity="3.6284682154655457e-01" nType="-99"/>
        </Node>
        <Node pos="r" depth="1" NCoef="0" IVar="2" Cut="5.7208549976348877e-01" cType="1" res="1.2577389180660248e-01" rms="4.4877251982688904e-01" purity="7.1312671899795532e-01" nType="0">
          <Node pos="l" depth="2" NCoef="0" IVar="-1" Cut="0.0000000000000000e+00" cType="1" res="1.4261864125728607e-03" rms="4.7512361407279968e-01" purity="6.4828979969024658e-01" nType="-99"/>
          <Node pos="r" depth="2" NCoef="0" IVar="-1" Cut="0.0000000000000000e+00" cType="1" res="3.1336182728409767e-03" rms="4.1959208250045776e-01" purity="7.6790881156921387e-01" nType="-99"/>
        </Node>
      </Node>
    </BinaryTree>
    <BinaryTree type="DecisionTree" boostWeight="1.0000000000000000e+00" itree="68">
      <Node pos="s" depth="0" NCoef="0" IVar="1" Cut="7.5720572471618652e-01" cType="1" res="1.2600039131939411e-02" rms="4.7795897722244263e-01" purity="4.9685293436050415e-01" nType="0">
        <Node pos="l" depth="1" NCoef="0" IVar="1" Cut="-8.6352568864822388e-01" cType="1" res="-4.1544448584318161e-02" rms="4.7804281115531921e-01" purity="3.8109928369522095e-01" nType="0">
          <Node pos="l" depth="2" NCoef="0" IVar="-1" Cut="0.0000000000000000e+00" cType="1" res="-3.4564181696623564e-03" rms="4.5237794518470764e-01" purity="2.9144507646560669e-01" nType="-99"/>
          <Node pos="r" depth="2" NCoef="0" IVar="-1" Cut="0.0000000000000000e+00" cType="1" res="-1.6225414583459496e-04" rms="4.9349266290664673e-01" purity="4.4847860932350159e-01" nType="-99"/>
        </Node>
        <Node pos="r" depth="1" NCoef="0" IVar="2" Cut="6.5878558158874512e-01" cType="1" res="9.0948753058910370e-02" rms="4.6684917807579041e-01" purity="6.6435194015502930e-01" nType="0">
          <Node pos="l" depth="2" NCoef="0" IVar="-1" Cut="0.0000000000000000e+00" cType="1" res="1.1163554154336452e-03" rms="4.8069766163825989e-01" purity="6.1979901790618896e-01" nType="-99"/>
          <Node pos="r" depth="2" NCoef="0" IVar="-1" Cut="0.0000000000000000e+00" cType="1" res="2.9774575959891081e-03" rms="4.3142747879028320e-01" purity="7.4657452106475830e-01" nType="-99"/>
        </Node>
      </Node>
    </BinaryTree>
    <BinaryTree type="DecisionTree" boostWeight="1.0000000000000000e+00" itree="69">
      <Node pos="s" depth="0" NCoef="0" IVar="1" Cut="8.3989357948303223e-01" cType="1" res="2.0520335063338280e-02" rms="4.7881197929382324e-01" purity="5.0391227006912231e-01" nType="0">
        <Node pos="l" depth="1" NCoef="0" IVar="3" Cut="3.2500264644622803e+00" cType="1" res="-2.9339628294110298e-02" rms="4.8179566860198975e-01" purity="3.9453655481338501e-01" nType="0">
          <Node pos="l" depth="2" NCoef="0" IVar="-1" Cut="0.0000000000000000e+00" cType="1" res="-4.2896700324490666e-04" rms="4.8573839664459229e-01" purity="4.1127306222915649e-01" nType="-99"/>
          <Node pos="r" depth="2" NCoef="0" IVar="-1" Cut="0.0000000000000000e+00" cType="1" res="-8.4225796163082123e-03" rms="4.0248736739158630e-01" purity="2.1037018299102783e-01" nType="-99"/>
        </Node>
        <Node pos="r" depth="1" NCoef="0" IVar="2" Cut="5.8018922805786133e-01" cType="1" res="9.8337113857269287e-02" rms="4.6352165937423706e-01" purity="6.7461556196212769e-01" nType="0">
          <Node pos="l" depth="2" NCoef="0" IVar="-1" Cut="0.0000000000000000e+00" cType="1" res="1.0638763196766376e-03" rms="4.8188558220863342e-01" purity="6.1728441715240479e-01" nType="-99"/>
          <Node pos="r" depth="2" NCoef="0" IVar="-1" Cut="0.0000000000000000e+00" cType="1" res="2.7111852541565895e-03" rms="4.4080686569213867e-01" purity="7.2870898246765137e-01" nType="-99"/>
        </Node>
      </Node>
    </BinaryTree>
    <BinaryTree type="DecisionTree" boostWeight="1.0000000000000000e+00" itree="70">
      <Node pos="s" depth="0" NCoef="0" IVar="1" Cut="5.4873311519622803e-01" cType="1" res="7.6815062202513218e-03" rms="4.7643905878067017e-01" purity="4.9314141273498535e-01" nType="0">
        <Node pos="l" depth="1" NCoef="0" IVar="3" Cut="2.7789030075073242e+00" cType="1" res="-5.7579658925533295e-02" rms="4.7219732403755188e-01" purity="3.5790255665779114e-01" nType="0">
          <Node pos="l" depth="2" NCoef="0" IVar="-1" Cut="0.0000000000000000e+00" cType="1" res="-8.5224118083715439e-04" rms="4.8179098963737488e-01" purity="3.9209258556365967e-01" nType="-99"/>
          <Node pos="r" depth="2" NCoef="0" IVar="-1" Cut="0.0000000000000000e+00" cType="1" res="-5.0457539036870003e-03" rms="4.3864506483078003e-01" purity="2.7169013023376465e-01" nType="-99"/>
        </Node>
        <Node pos="r" depth="1" NCoef="0" IVar="2" Cut="5.5129796266555786e-01" cType="1" res="8.4109574556350708e-02" rms="4.6997612714767456e-01" purity="6.5152120590209961e-01" nType="0">
          <Node pos="l" depth="2" NCoef="0" IVar="-1" Cut="0.0000000000000000e+00" cType="1" res="6.0240941820666194e-04" rms="4.8707926273345947e-01" purity="5.8418649435043335e-01" nType="-99"/>
          <Node pos="r" depth="2" NCoef="0" IVar="-1" Cut="0.0000000000000000e+00" cType="1" res="2.3860936053097248e-03" rms="4.5438462495803833e-01" purity="6.9635391235351562e-01" nType="-99"/>
        </Node>
      </Node>
    </BinaryTree>
    <BinaryTree type="DecisionTree" boostWeight="1.0000000000000000e+00" itree="71">
      <Node pos="s" depth="0" NCoef="0" IVar="1" Cut="1.2086819410324097e+00" cType="1" res="2.0538207143545151e-02" rms="4.7827950119972229e-01" purity="5.0420898199081421e-01" nType="0">
        <Node pos="l" depth="1" NCoef="0" IVar="3" Cut="2.0310862064361572e+00" cType="1" res="-2.1449897438287735e-02" rms="4.8327553272247314e-01" purity="4.1331186890602112e-01" nType="0">
          <Node pos="l" depth="2" NCoef="0" IVar="-1" Cut="0.0000000000000000e+00" cType="1" res="9.6869957633316517e-04" rms="4.9176728725433350e-01" purity="4.8237404227256775e-01" nType="-99"/>
          <Node pos="r" depth="2" NCoef="0" IVar="-1" Cut="0.0000000000000000e+00" cType="1" res="-2.0016264170408249e-03" rms="4.7257477045059204e-01" purity="3.6369901895523071e-01" nType="-99"/>
        </Node>
        <Node pos="r" depth="1" NCoef="0" IVar="2" Cut="6.6170156002044678e-01" cType="1" res="1.1104015260934830e-01" rms="4.5431941747665405e-01" purity="7.0013046264648438e-01" nType="0">
          <Node pos="l" depth="2" NCoef="0" IVar="-1" Cut="0.0000000000000000e+00" cType="1" res="1.5525959897786379e-03" rms="4.7039160132408142e-01" purity="6.5989142656326294e-01" nType="-99"/>
          <Node pos="r" depth="2" NCoef="0" IVar="-1" Cut="0.0000000000000000e+00" cType="1" res="3.2190419733524323e-03" rms="4.1330745816230774e-01" purity="7.7873420715332031e-01" nType="-99"/>
        </Node>
      </Node>
    </BinaryTree>
    <BinaryTree type="DecisionTree" boostWeight="1.0000000000000000e+00" itree="72">
      <Node pos="s" depth="0" NCoef="0" IVar="1" Cut="1.9296912848949432e-01" cType="1" res="1.4139477163553238e-02" rms="4.7691056132316589e-01" purity="4.9853804707527161e-01" nType="0">
        <Node pos="l" depth="1" NCoef="0" IVar="3" Cut="1.5156829357147217e+00" cType="1" res="-5.9266511350870132e-02" rms="4.7025057673454285e-01" purity="3.4464901685714722e-01" nType="0">
          <Node pos="l" depth="2" NCoef="0" IVar="-1" Cut="0.0000000000000000e+00" cType="1" res="3.2973216730169952e-04" rms="4.8941743373870850e-01" purity="4.2999598383903503e-01" nType="-99"/>
          <Node pos="r" depth="2" NCoef="0" IVar="-1" Cut="0.0000000000000000e+00" cType="1" res="-2.8585719410330057e-03" rms="4.6201527118682861e-01" purity="3.1838476657867432e-01" nType="-99"/>
        </Node>
        <Node pos="r" depth="1" NCoef="0" IVar="1" Cut="2.2159101963043213e+00" cType="1" res="7.8472852706909180e-02" rms="4.7340351343154907e-01" purity="6.3340723514556885e-01" nType="0">
          <Node pos="l" depth="2" NCoef="0" IVar="-1" Cut="0.0000000000000000e+00" cType="1" res="1.0803238255903125e-03" rms="4.8828127980232239e-01" purity="5.8361923694610596e-01" nType="-99"/>
          <Node pos="r" depth="2" NCoef="0" IVar="-1" Cut="0.0000000000000000e+00" cType="1" res="2.8353857342153788e-03" rms="4.2212262749671936e-01" purity="7.6577693223953247e-01" nType="-99"/>
        </Node>
      </Node>
    </BinaryTree>
    <BinaryTree type="DecisionTree" boostWeight="1.0000000000000000e+00" itree="73">
      <Node pos="s" depth="0" NCoef="0" IVar="1" Cut="3.6612372845411301e-02" cType="1" res="1.1470925062894821e-02" rms="4.7750127315521240e-01" purity="4.9513435363769531e-01" nType="0">
        <Node pos="l" depth="1" NCoef="0" IVar="3" Cut="3.0713317394256592e+00" cType="1" res="-6.0299895703792572e-02" rms="4.6801334619522095e-01" purity="3.3992397785186768e-01" nType="0">
          <Node pos="l" depth="2" NCoef="0" IVar="-1" Cut="0.0000000000000000e+00" cType="1" res="-1.3171269092708826e-03" rms="4.7618523240089417e-01" purity="3.6322310566902161e-01" nType="-99"/>
          <Node pos="r" depth="2" NCoef="0" IVar="-1" Cut="0.0000000000000000e+00" cType="1" res="-7.5477124191820621e-03" rms="4.0337899327278137e-01" purity="2.1025019884109497e-01" nType="-99"/>
        </Node>
        <Node pos="r" depth="1" NCoef="0" IVar="2" Cut="6.6335630416870117e-01" cType="1" res="6.7165739834308624e-02" rms="4.7735711932182312e-01" purity="6.1557906866073608e-01" nType="0">
          <Node pos="l" depth="2" NCoef="0" IVar="-1" Cut="0.0000000000000000e+00" cType="1" res="6.0734973521903157e-04" rms="4.8784452676773071e-01" purity="5.6704664230346680e-01" nType="-99"/>
          <Node pos="r" depth="2" NCoef="0" IVar="-1" Cut="0.0000000000000000e+00" cType="1" res="2.7877485845237970e-03" rms="4.4571870565414429e-01" purity="7.1101576089859009e-01" nType="-99"/>
        </Node>
      </Node>
    </BinaryTree>
    <BinaryTree type="DecisionTree" boostWeight="1.0000000000000000e+00" itree="74">
      <Node pos="s" depth="0" NCoef="0" IVar="1" Cut="1.2742825746536255e+00" cType="1" res="1.7034525051712990e-02" rms="4.7663933038711548e-01" purity="5.0072795152664185e-01" nType="0">
        <Node pos="l" depth="1" NCoef="0" IVar="3" Cut="3.1841757297515869e+00" cType="1" res="-2.4233669042587280e-02" rms="4.8138278722763062e-01" purity="4.1195148229598999e-01" nType="0">
          <Node pos="l" depth="2" NCoef="0" IVar="-1" Cut="0.0000000000000000e+00" cType="1" res="-2.0123818831052631e-04" rms="4.8516577482223511e-01" purity="4.3207490444183350e-01" nType="-99"/>
          <Node pos="r" depth="2" NCoef="0" IVar="-1" Cut="0.0000000000000000e+00" cType="1" res="-7.0636081509292126e-03" rms="4.1733551025390625e-01" purity="2.3408906161785126e-01" nType="-99"/>
        </Node>
        <Node pos="r" depth="1" NCoef="0" IVar="2" Cut="5.9672701358795166e-01" cType="1" res="1.1250714957714081e-01" rms="4.5123925805091858e-01" purity="7.0610934495925903e-01" nType="0">
          <Node pos="l" depth="2" NCoef="0" IVar="-1" Cut="0.0000000000000000e+00" cType="1" res="1.0776189155876637e-03" rms="4.7809830307960510e-01" purity="6.3540637493133545e-01" nType="-99"/>
          <Node pos="r" depth="2" NCoef="0" IVar="-1" Cut="0.0000000000000000e+00" cType="1" res="3.1536775641143322e-03" rms="4.1385746002197266e-01" purity="7.7723836898803711e-01" nType="-99"/>
        </Node>
      </Node>
    </BinaryTree>
    <BinaryTree type="DecisionTree" boostWeight="1.0000000000000000e+00" itree="75">
      <Node pos="s" depth="0" NCoef="0" IVar="1" Cut="1.4172422885894775e+00" cType="1" res="1.5391686931252480e-02" rms="4.7643244266510010e-01" purity="4.9940389394760132e-01" nType="0">
        <Node pos="l" depth="1" NCoef="0" IVar="4" Cut="1.0835742950439453e+02" cType="1" res="-2.2993767634034157e-02" rms="4.8145568370819092e-01" purity="4.1733890771865845e-01" nType="0">
          <Node pos="l" depth="2" NCoef="0" IVar="-1" Cut="0.0000000000000000e+00" cType="1" res="-3.8064522668719292e-03" rms="4.5519360899925232e-01" purity="3.1662589311599731e-01" nType="-99"/>
          <Node pos="r" depth="2" NCoef="0" IVar="-1" Cut="0.0000000000000000e+00" cType="1" res="7.3956296546384692e-05" rms="4.8578804731369019e-01" purity="4.4653612375259399e-01" nType="-99"/>
        </Node>
        <Node pos="r" depth="1" NCoef="0" IVar="2" Cut="5.8008390665054321e-01" cType="1" res="1.1604912579059601e-01" rms="4.4763210415840149e-01" purity="7.1460133790969849e-01" nType="0">
          <Node pos="l" depth="2" NCoef="0" IVar="-1" Cut="0.0000000000000000e+00" cType="1" res="1.2034556129947305e-03" rms="4.7582125663757324e-01" purity="6.4511168003082275e-01" nType="-99"/>
          <Node pos="r" depth="2" NCoef="0" IVar="-1" Cut="0.0000000000000000e+00" cType="1" res="2.9756990261375904e-03" rms="4.1620144248008728e-01" purity="7.7336758375167847e-01" nType="-99"/>
        </Node>
      </Node>
    </BinaryTree>
    <BinaryTree type="DecisionTree" boostWeight="1.0000000000000000e+00" itree="76">
      <Node pos="s" depth="0" NCoef="0" IVar="1" Cut="1.2682528495788574e+00" cType="1" res="1.4234952628612518e-02" rms="4.7608834505081177e-01" purity="4.9891975522041321e-01" nType="0">
        <Node pos="l" depth="1" NCoef="0" IVar="3" Cut="1.4331330060958862e+00" cType="1" res="-2.7770563960075378e-02" rms="4.8032525181770325e-01" purity="4.0768510103225708e-01" nType="0">
          <Node pos="l" depth="2" NCoef="0" IVar="-1" Cut="0.0000000000000000e+00" cType="1" res="1.5568459639325738e-03" rms="4.8801100254058838e-01" purity="5.1536631584167480e-01" nType="-99"/>
          <Node pos="r" depth="2" NCoef="0" IVar="-1" Cut="0.0000000000000000e+00" cType="1" res="-1.6424658242613077e-03" rms="4.7496327757835388e-01" purity="3.7715199589729309e-01" nType="-99"/>
        </Node>
        <Node pos="r" depth="1" NCoef="0" IVar="2" Cut="6.8955421447753906e-01" cType="1" res="1.0896208137273788e-01" rms="4.5229372382164001e-01" purity="7.0466399192810059e-01" nType="0">
          <Node pos="l" depth="2" NCoef="0" IVar="-1" Cut="0.0000000000000000e+00" cType="1" res="1.4904917916283011e-03" rms="4.6909439563751221e-01" purity="6.6408884525299072e-01" nType="-99"/>
          <Node pos="r" depth="2" NCoef="0" IVar="-1" Cut="0.0000000000000000e+00" cType="1" res="3.3878022804856300e-03" rms="3.9731982350349426e-01" purity="8.0198144912719727e-01" nType="-99"/>
        </Node>
      </Node>
    </BinaryTree>
    <BinaryTree type="DecisionTree" boostWeight="1.0000000000000000e+00" itree="77">
      <Node pos="s" depth="0" NCoef="0" IVar="1" Cut="3.7433400750160217e-01" cType="1" res="1.4418363571166992e-02" rms="4.7582581639289856e-01" purity="4.9961420893669128e-01" nType="0">
        <Node pos="l" depth="1" NCoef="0" IVar="3" Cut="2.3678398132324219e+00" cType="1" res="-5.1039181649684906e-02" rms="4.7227245569229126e-01" purity="3.5505616664886475e-01" nType="0">
          <Node pos="l" depth="2" NCoef="0" IVar="-1" Cut="0.0000000000000000e+00" cType="1" res="-3.6209062091074884e-04" rms="4.8489105701446533e-01" purity="4.0350365638732910e-01" nType="-99"/>
          <Node pos="r" depth="2" NCoef="0" IVar="-1" Cut="0.0000000000000000e+00" cType="1" res="-3.5111785400658846e-03" rms="4.5307123661041260e-01" purity="2.9884207248687744e-01" nType="-99"/>
        </Node>
        <Node pos="r" depth="1" NCoef="0" IVar="2" Cut="6.0066264867782593e-01" cType="1" res="8.0325201153755188e-02" rms="4.7025999426841736e-01" purity="6.4516448974609375e-01" nType="0">
          <Node pos="l" depth="2" NCoef="0" IVar="-1" Cut="0.0000000000000000e+00" cType="1" res="6.1901850858703256e-04" rms="4.8710191249847412e-01" purity="5.8048212528228760e-01" nType="-99"/>
          <Node pos="r" depth="2" NCoef="0" IVar="-1" Cut="0.0000000000000000e+00" cType="1" res="2.6139442343264818e-03" rms="4.4460439682006836e-01" purity="7.1488893032073975e-01" nType="-99"/>
        </Node>
      </Node>
    </BinaryTree>
    <BinaryTree type="DecisionTree" boostWeight="1.0000000000000000e+00" itree="78">
      <Node pos="s" depth="0" NCoef="0" IVar="1" Cut="6.5340459346771240e-02" cType="1" res="2.0855212584137917e-02" rms="4.7541320323944092e-01" purity="5.0606048107147217e-01" nType="0">
        <Node pos="l" depth="1" NCoef="0" IVar="2" Cut="6.7197668552398682e-01" cType="1" res="-5.4298214614391327e-02" rms="4.6798062324523926e-01" purity="3.4371137619018555e-01" nType="0">
          <Node pos="l" depth="2" NCoef="0" IVar="-1" Cut="0.0000000000000000e+00" cType="1" res="-3.2488366123288870e-03" rms="4.5301896333694458e-01" purity="3.0012729763984680e-01" nType="-99"/>
          <Node pos="r" depth="2" NCoef="0" IVar="-1" Cut="0.0000000000000000e+00" cType="1" res="3.6731170257553458e-04" rms="4.8855644464492798e-01" purity="4.2750969529151917e-01" nType="-99"/>
        </Node>
        <Node pos="r" depth="1" NCoef="0" IVar="2" Cut="5.4557538032531738e-01" cType="1" res="7.8139081597328186e-02" rms="4.7304946184158325e-01" purity="6.2980711460113525e-01" nType="0">
          <Node pos="l" depth="2" NCoef="0" IVar="-1" Cut="0.0000000000000000e+00" cType="1" res="2.3698400764260441e-04" rms="4.9002131819725037e-01" purity="5.4745167493820190e-01" nType="-99"/>
          <Node pos="r" depth="2" NCoef="0" IVar="-1" Cut="0.0000000000000000e+00" cType="1" res="2.4493744131177664e-03" rms="4.5618730783462524e-01" purity="6.8375951051712036e-01" nType="-99"/>
        </Node>
      </Node>
    </BinaryTree>
    <BinaryTree type="DecisionTree" boostWeight="1.0000000000000000e+00" itree="79">
      <Node pos="s" depth="0" NCoef="0" IVar="1" Cut="-1.2765529751777649e-01" cType="1" res="1.9564617425203323e-02" rms="4.7562584280967712e-01" purity="5.0433874130249023e-01" nType="0">
        <Node pos="l" depth="1" NCoef="0" IVar="4" Cut="1.3121606445312500e+02" cType="1" res="-5.8254487812519073e-02" rms="4.6591514348983765e-01" purity="3.3334845304489136e-01" nType="0">
          <Node pos="l" depth="2" NCoef="0" IVar="-1" Cut="0.0000000000000000e+00" cType="1" res="-4.2306212708353996e-03" rms="4.4183525443077087e-01" purity="2.7555540204048157e-01" nType="-99"/>
          <Node pos="r" depth="2" NCoef="0" IVar="-1" Cut="0.0000000000000000e+00" cType="1" res="-7.6281285146251321e-04" rms="4.7832584381103516e-01" purity="3.7227702140808105e-01" nType="-99"/>
        </Node>
        <Node pos="r" depth="1" NCoef="0" IVar="2" Cut="7.0710390806198120e-01" cType="1" res="7.1529366075992584e-02" rms="4.7495383024215698e-01" purity="6.1851978302001953e-01" nType="0">
          <Node pos="l" depth="2" NCoef="0" IVar="-1" Cut="0.0000000000000000e+00" cType="1" res="9.1178261209279299e-04" rms="4.8343417048454285e-01" purity="5.8161765336990356e-01" nType="-99"/>
          <Node pos="r" depth="2" NCoef="0" IVar="-1" Cut="0.0000000000000000e+00" cType="1" res="3.0806583818048239e-03" rms="4.3621742725372314e-01" purity="7.2938919067382812e-01" nType="-99"/>
        </Node>
      </Node>
    </BinaryTree>
    <BinaryTree type="DecisionTree" boostWeight="1.0000000000000000e+00" itree="80">
      <Node pos="s" depth="0" NCoef="0" IVar="1" Cut="1.0669672489166260e+00" cType="1" res="1.1615026742219925e-02" rms="4.7510415315628052e-01" purity="4.9551543593406677e-01" nType="0">
        <Node pos="l" depth="1" NCoef="0" IVar="4" Cut="1.3586387634277344e+02" cType="1" res="-3.2747056335210800e-02" rms="4.7814926505088806e-01" purity="3.9359560608863831e-01" nType="0">
          <Node pos="l" depth="2" NCoef="0" IVar="-1" Cut="0.0000000000000000e+00" cType="1" res="-3.1858673319220543e-03" rms="4.5832103490829468e-01" purity="3.2295745611190796e-01" nType="-99"/>
          <Node pos="r" depth="2" NCoef="0" IVar="-1" Cut="0.0000000000000000e+00" cType="1" res="2.1587719675153494e-04" rms="4.8677432537078857e-01" purity="4.4085025787353516e-01" nType="-99"/>
        </Node>
        <Node pos="r" depth="1" NCoef="0" IVar="1" Cut="2.5885708332061768e+00" cType="1" res="9.6289023756980896e-02" rms="4.5744672417640686e-01" purity="6.9005000591278076e-01" nType="0">
          <Node pos="l" depth="2" NCoef="0" IVar="-1" Cut="0.0000000000000000e+00" cType="1" res="1.3041626662015915e-03" rms="4.7579327225685120e-01" purity="6.4466357231140137e-01" nType="-99"/>
          <Node pos="r" depth="2" NCoef="0" IVar="-1" Cut="0.0000000000000000e+00" cType="1" res="3.1420693267136812e-03" rms="4.0102669596672058e-01" purity="7.9626858234405518e-01" nType="-99"/>
        </Node>
      </Node>
    </BinaryTree>
    <BinaryTree type="DecisionTree" boostWeight="1.0000000000000000e+00" itree="81">
      <Node pos="s" depth="0" NCoef="0" IVar="1" Cut="1.1813385486602783e+00" cType="1" res="1.7318164929747581e-02" rms="4.7620281577110291e-01" purity="5.0086814165115356e-01" nType="0">
        <Node pos="l" depth="1" NCoef="0" IVar="3" Cut="3.1113555431365967e+00" cType="1" res="-2.0783191546797752e-02" rms="4.8084792494773865e-01" purity="4.0891844034194946e-01" nType="0">
          <Node pos="l" depth="2" NCoef="0" IVar="-1" Cut="0.0000000000000000e+00" cType="1" res="-7.3875002271961421e-05" rms="4.8526829481124878e-01" purity="4.3112042546272278e-01" nType="-99"/>
          <Node pos="r" depth="2" NCoef="0" IVar="-1" Cut="0.0000000000000000e+00" cType="1" res="-5.8271656744182110e-03" rms="4.2819401621818542e-01" purity="2.5470310449600220e-01" nType="-99"/>
        </Node>
        <Node pos="r" depth="1" NCoef="0" IVar="2" Cut="6.8036913871765137e-01" cType="1" res="9.7865603864192963e-02" rms="4.5586636662483215e-01" purity="6.9525259733200073e-01" nType="0">
          <Node pos="l" depth="2" NCoef="0" IVar="-1" Cut="0.0000000000000000e+00" cType="1" res="1.2504868209362030e-03" rms="4.7373595833778381e-01" purity="6.4992505311965942e-01" nType="-99"/>
          <Node pos="r" depth="2" NCoef="0" IVar="-1" Cut="0.0000000000000000e+00" cType="1" res="3.2507125288248062e-03" rms="4.0379014611244202e-01" purity="7.9220050573348999e-01" nType="-99"/>
        </Node>
      </Node>
    </BinaryTree>
    <BinaryTree type="DecisionTree" boostWeight="1.0000000000000000e+00" itree="82">
      <Node pos="s" depth="0" NCoef="0" IVar="1" Cut="1.5013272762298584e+00" cType="1" res="2.0032476633787155e-02" rms="4.7670009732246399e-01" purity="5.0376766920089722e-01" nType="0">
        <Node pos="l" depth="1" NCoef="0" IVar="4" Cut="1.3992724609375000e+02" cType="1" res="-1.2022490613162518e-02" rms="4.8267334699630737e-01" purity="4.2922025918960571e-01" nType="0">
          <Node pos="l" depth="2" NCoef="0" IVar="-1" Cut="0.0000000000000000e+00" cType="1" res="-2.1612681448459625e-03" rms="4.7047802805900574e-01" purity="3.6145281791687012e-01" nType="-99"/>
          <Node pos="r" depth="2" NCoef="0" IVar="-1" Cut="0.0000000000000000e+00" cType="1" res="7.8388745896518230e-04" rms="4.8731869459152222e-01" purity="4.7965833544731140e-01" nType="-99"/>
        </Node>
        <Node pos="r" depth="1" NCoef="0" IVar="2" Cut="5.5397385358810425e-01" cType="1" res="1.1182679980993271e-01" rms="4.4661387801170349e-01" purity="7.1724569797515869e-01" nType="0">
          <Node pos="l" depth="2" NCoef="0" IVar="-1" Cut="0.0000000000000000e+00" cType="1" res="1.1213327525183558e-03" rms="4.7545406222343445e-01" purity="6.4658147096633911e-01" nType="-99"/>
          <Node pos="r" depth="2" NCoef="0" IVar="-1" Cut="0.0000000000000000e+00" cType="1" res="2.8357508126646280e-03" rms="4.2118671536445618e-01" purity="7.6594316959381104e-01" nType="-99"/>
        </Node>
      </Node>
    </BinaryTree>
    <BinaryTree type="DecisionTree" boostWeight="1.0000000000000000e+00" itree="83">
      <Node pos="s" depth="0" NCoef="0" IVar="1" Cut="-1.0076874494552612e-01" cType="1" res="1.8322501331567764e-02" rms="4.7505360841751099e-01" purity="5.0330829620361328e-01" nType="0">
        <Node pos="l" depth="1" NCoef="0" IVar="2" Cut="6.0220551490783691e-01" cType="1" res="-5.4465081542730331e-02" rms="4.6656951308250427e-01" purity="3.3568385243415833e-01" nType="0">
          <Node pos="l" depth="2" NCoef="0" IVar="-1" Cut="0.0000000000000000e+00" cType="1" res="-3.9807194843888283e-03" rms="4.4315278530120850e-01" purity="2.7472636103630066e-01" nType="-99"/>
          <Node pos="r" depth="2" NCoef="0" IVar="-1" Cut="0.0000000000000000e+00" cType="1" res="-2.9039892251603305e-04" rms="4.8365241289138794e-01" purity="3.9396965503692627e-01" nType="-99"/>
        </Node>
        <Node pos="r" depth="1" NCoef="0" IVar="1" Cut="2.6997418403625488e+00" cType="1" res="6.7564427852630615e-02" rms="4.7441703081130981e-01" purity="6.1670887470245361e-01" nType="0">
          <Node pos="l" depth="2" NCoef="0" IVar="-1" Cut="0.0000000000000000e+00" cType="1" res="1.0102777741849422e-03" rms="4.8571449518203735e-01" purity="5.7945603132247925e-01" nType="-99"/>
          <Node pos="r" depth="2" NCoef="0" IVar="-1" Cut="0.0000000000000000e+00" cType="1" res="3.2639268320053816e-03" rms="3.9245924353599548e-01" purity="8.0822211503982544e-01" nType="-99"/>
        </Node>
      </Node>
    </BinaryTree>
    <BinaryTree type="DecisionTree" boostWeight="1.0000000000000000e+00" itree="84">
      <Node pos="s" depth="0" NCoef="0" IVar="1" Cut="8.4555184841156006e-01" cType="1" res="1.5683550387620926e-02" rms="4.7479563951492310e-01" purity="4.9987146258354187e-01" nType="0">
        <Node pos="l" depth="1" NCoef="0" IVar="4" Cut="1.3950236511230469e+02" cType="1" res="-3.6617942154407501e-02" rms="4.7666072845458984e-01" purity="3.8064783811569214e-01" nType="0">
          <Node pos="l" depth="2" NCoef="0" IVar="-1" Cut="0.0000000000000000e+00" cType="1" res="-2.7208090759813786e-03" rms="4.6044224500656128e-01" purity="3.2765486836433411e-01" nType="-99"/>
          <Node pos="r" depth="2" NCoef="0" IVar="-1" Cut="0.0000000000000000e+00" cType="1" res="-7.1720751293469220e-05" rms="4.8626101016998291e-01" purity="4.2213261127471924e-01" nType="-99"/>
        </Node>
        <Node pos="r" depth="1" NCoef="0" IVar="3" Cut="2.9785153865814209e+00" cType="1" res="9.5823183655738831e-02" rms="4.6054100990295410e-01" purity="6.8255341053009033e-01" nType="0">
          <Node pos="l" depth="2" NCoef="0" IVar="-1" Cut="0.0000000000000000e+00" cType="1" res="2.2407220676541328e-03" rms="4.5228272676467896e-01" purity="7.0340234041213989e-01" nType="-99"/>
          <Node pos="r" depth="2" NCoef="0" IVar="-1" Cut="0.0000000000000000e+00" cType="1" res="-8.3913058915641159e-05" rms="4.8782697319984436e-01" purity="5.7808536291122437e-01" nType="-99"/>
        </Node>
      </Node>
    </BinaryTree>
    <BinaryTree type="DecisionTree" boostWeight="1.0000000000000000e+00" itree="85">
      <Node pos="s" depth="0" NCoef="0" IVar="1" Cut="5.4911661148071289e-01" cType="1" res="1.4200091361999512e-02" rms="4.7586876153945923e-01" purity="4.9767118692398071e-01" nType="0">
        <Node pos="l" depth="1" NCoef="0" IVar="4" Cut="1.0153490447998047e+02" cType="1" res="-3.7093769758939743e-02" rms="4.7525760531425476e-01" purity="3.6976045370101929e-01" nType="0">
          <Node pos="l" depth="2" NCoef="0" IVar="-1" Cut="0.0000000000000000e+00" cType="1" res="-5.1323287189006805e-03" rms="4.3584722280502319e-01" purity="2.6392650604248047e-01" nType="-99"/>
          <Node pos="r" depth="2" NCoef="0" IVar="-1" Cut="0.0000000000000000e+00" cType="1" res="-4.4792005792260170e-04" rms="4.8164165019989014e-01" purity="3.9535042643547058e-01" nType="-99"/>
        </Node>
        <Node pos="r" depth="1" NCoef="0" IVar="2" Cut="5.7782590389251709e-01" cType="1" res="7.6307468116283417e-02" rms="4.6916082501411438e-01" purity="6.5254741907119751e-01" nType="0">
          <Node pos="l" depth="2" NCoef="0" IVar="-1" Cut="0.0000000000000000e+00" cType="1" res="6.0500623658299446e-04" rms="4.8629239201545715e-01" purity="5.9057796001434326e-01" nType="-99"/>
          <Node pos="r" depth="2" NCoef="0" IVar="-1" Cut="0.0000000000000000e+00" cType="1" res="2.3290151730179787e-03" rms="4.4869312644004822e-01" purity="7.0845264196395874e-01" nType="-99"/>
        </Node>
      </Node>
    </BinaryTree>
    <BinaryTree type="DecisionTree" boostWeight="1.0000000000000000e+00" itree="86">
      <Node pos="s" depth="0" NCoef="0" IVar="1" Cut="1.3657462596893311e+00" cType="1" res="1.5878574922680855e-02" rms="4.7534936666488647e-01" purity="4.9948820471763611e-01" nType="0">
        <Node pos="l" depth="1" NCoef="0" IVar="4" Cut="1.3727853393554688e+02" cType="1" res="-1.7779927700757980e-02" rms="4.8048895597457886e-01" purity="4.1861513257026672e-01" nType="0">
          <Node pos="l" depth="2" NCoef="0" IVar="-1" Cut="0.0000000000000000e+00" cType="1" res="-2.4362285621464252e-03" rms="4.6452063322067261e-01" purity="3.4839513897895813e-01" nType="-99"/>
          <Node pos="r" depth="2" NCoef="0" IVar="-1" Cut="0.0000000000000000e+00" cType="1" res="5.7966192252933979e-04" rms="4.8725780844688416e-01" purity="4.6718758344650269e-01" nType="-99"/>
        </Node>
        <Node pos="r" depth="1" NCoef="0" IVar="1" Cut="2.6281962394714355e+00" cType="1" res="1.0275957733392715e-01" rms="4.5033738017082214e-01" purity="7.0824164152145386e-01" nType="0">
          <Node pos="l" depth="2" NCoef="0" IVar="-1" Cut="0.0000000000000000e+00" cType="1" res="1.4198042917996645e-03" rms="4.7104549407958984e-01" purity="6.6206312179565430e-01" nType="-99"/>
          <Node pos="r" depth="2" NCoef="0" IVar="-1" Cut="0.0000000000000000e+00" cType="1" res="3.0631297267973423e-03" rms="4.0080121159553528e-01" purity="7.9583930969238281e-01" nType="-99"/>
        </Node>
      </Node>
    </BinaryTree>
    <BinaryTree type="DecisionTree" boostWeight="1.0000000000000000e+00" itree="87">
      <Node pos="s" depth="0" NCoef="0" IVar="1" Cut="-3.8922616839408875e-01" cType="1" res="1.8347127363085747e-02" rms="4.7311416268348694e-01" purity="5.0410491228103638e-01" nType="0">
        <Node pos="l" depth="1" NCoef="0" IVar="4" Cut="1.5036625671386719e+02" cType="1" res="-7.2649560868740082e-02" rms="4.5526471734046936e-01" purity="3.0705899000167847e-01" nType="0">
          <Node pos="l" depth="2" NCoef="0" IVar="-1" Cut="0.0000000000000000e+00" cType="1" res="-4.5424429699778557e-03" rms="4.3285855650901794e-01" purity="2.5933206081390381e-01" nType="-99"/>
          <Node pos="r" depth="2" NCoef="0" IVar="-1" Cut="0.0000000000000000e+00" cType="1" res="-9.8274997435510159e-04" rms="4.7463607788085938e-01" purity="3.5881736874580383e-01" nType="-99"/>
        </Node>
        <Node pos="r" depth="1" NCoef="0" IVar="3" Cut="2.7669811248779297e+00" cType="1" res="6.5370343625545502e-02" rms="4.7530001401901245e-01" purity="6.0592985153198242e-01" nType="0">
          <Node pos="l" depth="2" NCoef="0" IVar="-1" Cut="0.0000000000000000e+00" cType="1" res="1.9728220067918301e-03" rms="4.6862408518791199e-01" purity="6.3854181766510010e-01" nType="-99"/>
          <Node pos="r" depth="2" NCoef="0" IVar="-1" Cut="0.0000000000000000e+00" cType="1" res="-4.3094108696095645e-04" rms="4.8423424363136292e-01" purity="5.1330208778381348e-01" nType="-99"/>
        </Node>
      </Node>
    </BinaryTree>
    <BinaryTree type="DecisionTree" boostWeight="1.0000000000000000e+00" itree="88">
      <Node pos="s" depth="0" NCoef="0" IVar="1" Cut="1.3513265848159790e+00" cType="1" res="1.3887360692024231e-02" rms="4.7421512007713318e-01" purity="4.9781680107116699e-01" nType="0">
        <Node pos="l" depth="1" NCoef="0" IVar="2" Cut="7.1536016464233398e-01" cType="1" res="-2.2063307464122772e-02" rms="4.7934281826019287e-01" purity="4.1152977943420410e-01" nType="0">
          <Node pos="l" depth="2" NCoef="0" IVar="-1" Cut="0.0000000000000000e+00" cType="1" res="-1.6205520369112492e-03" rms="4.7291499376296997e-01" purity="3.7490567564964294e-01" nType="-99"/>
          <Node pos="r" depth="2" NCoef="0" IVar="-1" Cut="0.0000000000000000e+00" cType="1" res="1.7470795428380370e-03" rms="4.8693817853927612e-01" purity="5.2543330192565918e-01" nType="-99"/>
        </Node>
        <Node pos="r" depth="1" NCoef="0" IVar="2" Cut="6.3591915369033813e-01" cType="1" res="1.0223990678787231e-01" rms="4.4931158423423767e-01" purity="7.0987612009048462e-01" nType="0">
          <Node pos="l" depth="2" NCoef="0" IVar="-1" Cut="0.0000000000000000e+00" cType="1" res="1.2781746918335557e-03" rms="4.7052201628684998e-01" purity="6.5923678874969482e-01" nType="-99"/>
          <Node pos="r" depth="2" NCoef="0" IVar="-1" Cut="0.0000000000000000e+00" cType="1" res="2.9805691447108984e-03" rms="4.0860956907272339e-01" purity="7.8553706407546997e-01" nType="-99"/>
        </Node>
      </Node>
    </BinaryTree>
    <BinaryTree type="DecisionTree" boostWeight="1.0000000000000000e+00" itree="89">
      <Node pos="s" depth="0" NCoef="0" IVar="1" Cut="1.9211076498031616e+00" cType="1" res="1.9267467781901360e-02" rms="4.7475507855415344e-01" purity="5.0365751981735229e-01" nType="0">
        <Node pos="l" depth="1" NCoef="0" IVar="2" Cut="7.4382776021957397e-01" cType="1" res="-8.8995983824133873e-03" rms="4.8165479302406311e-01" purity="4.4181308150291443e-01" nType="0">
          <Node pos="l" depth="2" NCoef="0" IVar="-1" Cut="0.0000000000000000e+00" cType="1" res="-8.2572473911568522e-04" rms="4.7927039861679077e-01" purity="4.1785922646522522e-01" nType="-99"/>
          <Node pos="r" depth="2" NCoef="0" IVar="-1" Cut="0.0000000000000000e+00" cType="1" res="1.8492522649466991e-03" rms="4.8229235410690308e-01" purity="5.4540920257568359e-01" nType="-99"/>
        </Node>
        <Node pos="r" depth="1" NCoef="0" IVar="2" Cut="5.4610013961791992e-01" cType="1" res="1.3418561220169067e-01" rms="4.2664560675621033e-01" purity="7.5597506761550903e-01" nType="0">
          <Node pos="l" depth="2" NCoef="0" IVar="-1" Cut="0.0000000000000000e+00" cType="1" res="1.6324917087331414e-03" rms="4.6062937378883362e-01" purity="6.9102537631988525e-01" nType="-99"/>
          <Node pos="r" depth="2" NCoef="0" IVar="-1" Cut="0.0000000000000000e+00" cType="1" res="3.0281241051852703e-03" rms="4.0039724111557007e-01" purity="7.9716312885284424e-01" nType="-99"/>
        </Node>
      </Node>
    </BinaryTree>
    <BinaryTree type="DecisionTree" boostWeight="1.0000000000000000e+00" itree="90">
      <Node pos="s" depth="0" NCoef="0" IVar="1" Cut="1.2105000019073486e+00" cType="1" res="1.2451812624931335e-02" rms="4.7521352767944336e-01" purity="4.9599730968475342e-01" nType="0">
        <Node pos="l" depth="1" NCoef="0" IVar="1" Cut="-2.5705140829086304e-01" cType="1" res="-2.4202538654208183e-02" rms="4.7931802272796631e-01" purity="4.0378513932228088e-01" nType="0">
          <Node pos="l" depth="2" NCoef="0" IVar="-1" Cut="0.0000000000000000e+00" cType="1" res="-2.1345044951885939e-03" rms="4.6242439746856689e-01" purity="3.2080614566802979e-01" nType="-99"/>
          <Node pos="r" depth="2" NCoef="0" IVar="-1" Cut="0.0000000000000000e+00" cType="1" res="4.3218006612733006e-04" rms="4.9553892016410828e-01" purity="5.0311237573623657e-01" nType="-99"/>
        </Node>
        <Node pos="r" depth="1" NCoef="0" IVar="0" Cut="1.5327407836914062e+02" cType="1" res="9.1608226299285889e-02" rms="4.5628935098648071e-01" purity="6.9513285160064697e-01" nType="0">
          <Node pos="l" depth="2" NCoef="0" IVar="-1" Cut="0.0000000000000000e+00" cType="1" res="2.4543406907469034e-03" rms="4.3866980075836182e-01" purity="7.3406261205673218e-01" nType="-99"/>
          <Node pos="r" depth="2" NCoef="0" IVar="-1" Cut="0.0000000000000000e+00" cType="1" res="7.5898639624938369e-04" rms="4.7498637437820435e-01" purity="6.3921010494232178e-01" nType="-99"/>
        </Node>
      </Node>
    </BinaryTree>
    <BinaryTree type="DecisionTree" boostWeight="1.0000000000000000e+00" itree="91">
      <Node pos="s" depth="0" NCoef="0" IVar="1" Cut="1.8294526338577271e+00" cType="1" res="1.4101973734796047e-02" rms="4.7618153691291809e-01" purity="4.9717313051223755e-01" nType="0">
        <Node pos="l" depth="1" NCoef="0" IVar="4" Cut="1.4725859069824219e+02" cType="1" res="-1.0576211847364902e-02" rms="4.8197698593139648e-01" purity="4.3757346272468567e-01" nType="0">
          <Node pos="l" depth="2" NCoef="0" IVar="-1" Cut="0.0000000000000000e+00" cType="1" res="-1.5411451458930969e-03" rms="4.7349500656127930e-01" purity="3.8427713513374329e-01" nType="-99"/>
          <Node pos="r" depth="2" NCoef="0" IVar="-1" Cut="0.0000000000000000e+00" cType="1" res="6.5439572790637612e-04" rms="4.8656758666038513e-01" purity="4.8482319712638855e-01" nType="-99"/>
        </Node>
        <Node pos="r" depth="1" NCoef="0" IVar="7" Cut="5.8766297996044159e-02" cType="1" res="1.1155843734741211e-01" rms="4.3922305107116699e-01" purity="7.3253774642944336e-01" nType="0">
          <Node pos="l" depth="2" NCoef="0" IVar="-1" Cut="0.0000000000000000e+00" cType="1" res="2.7721449732780457e-03" rms="4.1472178697586060e-01" purity="7.7580326795578003e-01" nType="-99"/>
          <Node pos="r" depth="2" NCoef="0" IVar="-1" Cut="0.0000000000000000e+00" cType="1" res="1.2366734445095062e-03" rms="4.6579226851463318e-01" purity="6.7418402433395386e-01" nType="-99"/>
        </Node>
      </Node>
    </BinaryTree>
    <BinaryTree type="DecisionTree" boostWeight="1.0000000000000000e+00" itree="92">
      <Node pos="s" depth="0" NCoef="0" IVar="1" Cut="-3.7083715200424194e-02" cType="1" res="1.7685871571302414e-02" rms="4.7239798307418823e-01" purity="5.0271803140640259e-01" nType="0">
        <Node pos="l" depth="1" NCoef="0" IVar="2" Cut="7.2959834337234497e-01" cType="1" res="-5.4974023252725601e-02" rms="4.6327537298202515e-01" purity="3.3180767297744751e-01" nType="0">
          <Node pos="l" depth="2" NCoef="0" IVar="-1" Cut="0.0000000000000000e+00" cType="1" res="-2.9269373044371605e-03" rms="4.5256987214088440e-01" purity="3.0014625191688538e-01" nType="-99"/>
          <Node pos="r" depth="2" NCoef="0" IVar="-1" Cut="0.0000000000000000e+00" cType="1" res="7.5248564826324582e-04" rms="4.8899739980697632e-01" purity="4.3887099623680115e-01" nType="-99"/>
        </Node>
        <Node pos="r" depth="1" NCoef="0" IVar="1" Cut="1.8086903095245361e+00" cType="1" res="6.9974668323993683e-02" rms="4.7198423743247986e-01" purity="6.2571156024932861e-01" nType="0">
          <Node pos="l" depth="2" NCoef="0" IVar="-1" Cut="0.0000000000000000e+00" cType="1" res="8.0979085760191083e-04" rms="4.9115985631942749e-01" purity="5.5412453413009644e-01" nType="-99"/>
          <Node pos="r" depth="2" NCoef="0" IVar="-1" Cut="0.0000000000000000e+00" cType="1" res="2.5081187486648560e-03" rms="4.2939615249633789e-01" purity="7.5210946798324585e-01" nType="-99"/>
        </Node>
      </Node>
    </BinaryTree>
    <BinaryTree type="DecisionTree" boostWeight="1.0000000000000000e+00" itree="93">
      <Node pos="s" depth="0" NCoef="0" IVar="1" Cut="1.9504240155220032e-01" cType="1" res="1.7542514950037003e-02" rms="4.7388300299644470e-01" purity="5.0264775753021240e-01" nType="0">
        <Node pos="l" depth="1" NCoef="0" IVar="4" Cut="1.2597158813476562e+02" cType="1" res="-4.3529205024242401e-02" rms="4.6953201293945312e-01" purity="3.4838983416557312e-01" nType="0">
          <Node pos="l" depth="2" NCoef="0" IVar="-1" Cut="0.0000000000000000e+00" cType="1" res="-3.5203106235712767e-03" rms="4.4681543111801147e-01" purity="2.8507119417190552e-01" nType="-99"/>
          <Node pos="r" depth="2" NCoef="0" IVar="-1" Cut="0.0000000000000000e+00" cType="1" res="-5.1029084715992212e-04" rms="4.7958797216415405e-01" purity="3.8370296359062195e-01" nType="-99"/>
        </Node>
        <Node pos="r" depth="1" NCoef="0" IVar="1" Cut="2.6370034217834473e+00" cType="1" res="6.9944888353347778e-02" rms="4.7131821513175964e-01" purity="6.3500815629959106e-01" nType="0">
          <Node pos="l" depth="2" NCoef="0" IVar="-1" Cut="0.0000000000000000e+00" cType="1" res="1.0313994716852903e-03" rms="4.8439121246337891e-01" purity="5.9652292728424072e-01" nType="-99"/>
          <Node pos="r" depth="2" NCoef="0" IVar="-1" Cut="0.0000000000000000e+00" cType="1" res="3.0706187244504690e-03" rms="3.9326238632202148e-01" purity="8.0625438690185547e-01" nType="-99"/>
        </Node>
      </Node>
    </BinaryTree>
    <BinaryTree type="DecisionTree" boostWeight="1.0000000000000000e+00" itree="94">
      <Node pos="s" depth="0" NCoef="0" IVar="1" Cut="3.5921859741210938e-01" cType="1" res="1.1517528444528580e-02" rms="4.7355544567108154e-01" purity="4.9558711051940918e-01" nType="0">
        <Node pos="l" depth="1" NCoef="0" IVar="3" Cut="1.4983702898025513e+00" cType="1" res="-4.3232135474681854e-02" rms="4.7032752633094788e-01" purity="3.5244435071945190e-01" nType="0">
          <Node pos="l" depth="2" NCoef="0" IVar="-1" Cut="0.0000000000000000e+00" cType="1" res="7.5942266266793013e-04" rms="4.8857101798057556e-01" purity="4.4084689021110535e-01" nType="-99"/>
          <Node pos="r" depth="2" NCoef="0" IVar="-1" Cut="0.0000000000000000e+00" cType="1" res="-2.2744361776858568e-03" rms="4.6240448951721191e-01" purity="3.2514733076095581e-01" nType="-99"/>
        </Node>
        <Node pos="r" depth="1" NCoef="0" IVar="2" Cut="6.6830766201019287e-01" cType="1" res="6.7211978137493134e-02" rms="4.7032225131988525e-01" purity="6.4120006561279297e-01" nType="0">
          <Node pos="l" depth="2" NCoef="0" IVar="-1" Cut="0.0000000000000000e+00" cType="1" res="6.1268900753930211e-04" rms="4.8358738422393799e-01" purity="5.9157866239547729e-01" nType="-99"/>
          <Node pos="r" depth="2" NCoef="0" IVar="-1" Cut="0.0000000000000000e+00" cType="1" res="2.8099047485738993e-03" rms="4.3008375167846680e-01" purity="7.4420839548110962e-01" nType="-99"/>
        </Node>
      </Node>
    </BinaryTree>
    <BinaryTree type="DecisionTree" boostWeight="1.0000000000000000e+00" itree="95">
      <Node pos="s" depth="0" NCoef="0" IVar="1" Cut="1.1702311038970947e+00" cType="1" res="1.3052148744463921e-02" rms="4.7400078177452087e-01" purity="4.9676972627639771e-01" nType="0">
        <Node pos="l" depth="1" NCoef="0" IVar="1" Cut="-1.4719288349151611e+00" cType="1" res="-2.2944031283259392e-02" rms="4.7864559292793274e-01" purity="4.0173354744911194e-01" nType="0">
          <Node pos="l" depth="2" NCoef="0" IVar="-1" Cut="0.0000000000000000e+00" cType="1" res="-4.8440638929605484e-03" rms="4.3042376637458801e-01" purity="2.4898009002208710e-01" nType="-99"/>
          <Node pos="r" depth="2" NCoef="0" IVar="-1" Cut="0.0000000000000000e+00" cType="1" res="2.8074830993318756e-07" rms="4.8844709992408752e-01" purity="4.4334039092063904e-01" nType="-99"/>
        </Node>
        <Node pos="r" depth="1" NCoef="0" IVar="2" Cut="5.6897610425949097e-01" cType="1" res="8.8106326758861542e-02" rms="4.5509985089302063e-01" purity="6.9492584466934204e-01" nType="0">
          <Node pos="l" depth="2" NCoef="0" IVar="-1" Cut="0.0000000000000000e+00" cType="1" res="7.0963567122817039e-04" rms="4.8039335012435913e-01" purity="6.2458068132400513e-01" nType="-99"/>
          <Node pos="r" depth="2" NCoef="0" IVar="-1" Cut="0.0000000000000000e+00" cType="1" res="2.4799052625894547e-03" rms="4.2967209219932556e-01" purity="7.4971812963485718e-01" nType="-99"/>
        </Node>
      </Node>
    </BinaryTree>
    <BinaryTree type="DecisionTree" boostWeight="1.0000000000000000e+00" itree="96">
      <Node pos="s" depth="0" NCoef="0" IVar="1" Cut="3.2977437973022461e-01" cType="1" res="1.5610122121870518e-02" rms="4.7421076893806458e-01" purity="5.0047916173934937e-01" nType="0">
        <Node pos="l" depth="1" NCoef="0" IVar="4" Cut="1.0610875701904297e+02" cType="1" res="-3.3748909831047058e-02" rms="4.7240230441093445e-01" purity="3.6029389500617981e-01" nType="0">
          <Node pos="l" depth="2" NCoef="0" IVar="-1" Cut="0.0000000000000000e+00" cType="1" res="-4.7687441110610962e-03" rms="4.3339267373085022e-01" purity="2.5857609510421753e-01" nType="-99"/>
          <Node pos="r" depth="2" NCoef="0" IVar="-1" Cut="0.0000000000000000e+00" cType="1" res="-2.8637677314691246e-04" rms="4.8040384054183960e-01" purity="3.8988193869590759e-01" nType="-99"/>
        </Node>
        <Node pos="r" depth="1" NCoef="0" IVar="2" Cut="7.0678925514221191e-01" cType="1" res="6.4080260694026947e-02" rms="4.7097253799438477e-01" purity="6.3813990354537964e-01" nType="0">
          <Node pos="l" depth="2" NCoef="0" IVar="-1" Cut="0.0000000000000000e+00" cType="1" res="7.4827164644375443e-04" rms="4.8138490319252014e-01" purity="6.0048872232437134e-01" nType="-99"/>
          <Node pos="r" depth="2" NCoef="0" IVar="-1" Cut="0.0000000000000000e+00" cType="1" res="2.8693964704871178e-03" rms="4.2645707726478577e-01" purity="7.4989449977874756e-01" nType="-99"/>
        </Node>
      </Node>
    </BinaryTree>
    <BinaryTree type="DecisionTree" boostWeight="1.0000000000000000e+00" itree="97">
      <Node pos="s" depth="0" NCoef="0" IVar="1" Cut="-7.2942018508911133e-01" cType="1" res="1.9329896196722984e-02" rms="4.7375079989433289e-01" purity="5.0440388917922974e-01" nType="0">
        <Node pos="l" depth="1" NCoef="0" IVar="3" Cut="1.7045851945877075e+00" cType="1" res="-6.4035274088382721e-02" rms="4.5326244831085205e-01" purity="2.9932805895805359e-01" nType="0">
          <Node pos="l" depth="2" NCoef="0" IVar="-1" Cut="0.0000000000000000e+00" cType="1" res="3.3192496630363166e-04" rms="4.8465541005134583e-01" purity="3.9090034365653992e-01" nType="-99"/>
          <Node pos="r" depth="2" NCoef="0" IVar="-1" Cut="0.0000000000000000e+00" cType="1" res="-3.8943213876336813e-03" rms="4.3630447983741760e-01" purity="2.6222801208496094e-01" nType="-99"/>
        </Node>
        <Node pos="r" depth="1" NCoef="0" IVar="3" Cut="2.0271701812744141e+00" cType="1" res="5.1256481558084488e-02" rms="4.7752773761749268e-01" purity="5.8294230699539185e-01" nType="0">
          <Node pos="l" depth="2" NCoef="0" IVar="-1" Cut="0.0000000000000000e+00" cType="1" res="2.1153816487640142e-03" rms="4.6615356206893921e-01" purity="6.4230763912200928e-01" nType="-99"/>
          <Node pos="r" depth="2" NCoef="0" IVar="-1" Cut="0.0000000000000000e+00" cType="1" res="3.1516209128312767e-04" rms="4.8247045278549194e-01" purity="5.3812605142593384e-01" nType="-99"/>
        </Node>
      </Node>
    </BinaryTree>
    <BinaryTree type="DecisionTree" boostWeight="1.0000000000000000e+00" itree="98">
      <Node pos="s" depth="0" NCoef="0" IVar="1" Cut="1.3505107164382935e+00" cType="1" res="1.6569955274462700e-02" rms="4.7232964634895325e-01" purity="5.0209790468215942e-01" nType="0">
        <Node pos="l" depth="1" NCoef="0" IVar="2" Cut="7.3544502258300781e-01" cType="1" res="-1.8689848482608795e-02" rms="4.7831618785858154e-01" purity="4.1252583265304565e-01" nType="0">
          <Node pos="l" depth="2" NCoef="0" IVar="-1" Cut="0.0000000000000000e+00" cType="1" res="-1.1838708305731416e-03" rms="4.7437173128128052e-01" purity="3.8640230894088745e-01" nType="-99"/>
          <Node pos="r" depth="2" NCoef="0" IVar="-1" Cut="0.0000000000000000e+00" cType="1" res="1.5069979708641768e-03" rms="4.8549953103065491e-01" purity="5.1524418592453003e-01" nType="-99"/>
        </Node>
        <Node pos="r" depth="1" NCoef="0" IVar="2" Cut="5.9136718511581421e-01" cType="1" res="1.0041049122810364e-01" rms="4.4674110412597656e-01" purity="7.1508187055587769e-01" nType="0">
          <Node pos="l" depth="2" NCoef="0" IVar="-1" Cut="0.0000000000000000e+00" cType="1" res="1.0316018015146255e-03" rms="4.7464594244956970e-01" purity="6.4903891086578369e-01" nType="-99"/>
          <Node pos="r" depth="2" NCoef="0" IVar="-1" Cut="0.0000000000000000e+00" cType="1" res="2.7951535303145647e-03" rms="4.1148802638053894e-01" purity="7.8013569116592407e-01" nType="-99"/>
        </Node>
      </Node>
    </BinaryTree>
    <BinaryTree type="DecisionTree" boostWeight="1.0000000000000000e+00" itree="99">
      <Node pos="s" depth="0" NCoef="0" IVar="1" Cut="8.9997351169586182e-01" cType="1" res="1.5544495545327663e-02" rms="4.7342240810394287e-01" purity="5.0003165006637573e-01" nType="0">
        <Node pos="l" depth="1" NCoef="0" IVar="1" Cut="-1.5936008691787720e+00" cType="1" res="-2.6862176135182381e-02" rms="4.7744739055633545e-01" purity="3.8507381081581116e-01" nType="0">
          <Node pos="l" depth="2" NCoef="0" IVar="-1" Cut="0.0000000000000000e+00" cType="1" res="-4.3015466071665287e-03" rms="4.3410408496856689e-01" purity="2.5539925694465637e-01" nType="-99"/>
          <Node pos="r" depth="2" NCoef="0" IVar="-1" Cut="0.0000000000000000e+00" cType="1" res="-2.5057833408936858e-04" rms="4.8638373613357544e-01" purity="4.1856390237808228e-01" nType="-99"/>
        </Node>
        <Node pos="r" depth="1" NCoef="0" IVar="2" Cut="5.3611868619918823e-01" cType="1" res="8.2520425319671631e-02" rms="4.5908397436141968e-01" purity="6.8159288167953491e-01" nType="0">
          <Node pos="l" depth="2" NCoef="0" IVar="-1" Cut="0.0000000000000000e+00" cType="1" res="3.9515527896583080e-04" rms="4.8451209068298340e-01" purity="6.0058319568634033e-01" nType="-99"/>
          <Node pos="r" depth="2" NCoef="0" IVar="-1" Cut="0.0000000000000000e+00" cType="1" res="2.3192747030407190e-03" rms="4.3973842263221741e-01" purity="7.2782558202743530e-01" nType="-99"/>
        </Node>
      </Node>
    </BinaryTree>
    <BinaryTree type="DecisionTree" boostWeight="1.0000000000000000e+00" itree="100">
      <Node pos="s" depth="0" NCoef="0" IVar="1" Cut="1.8046090602874756e+00" cType="1" res="1.7962198704481125e-02" rms="4.7361627221107483e-01" purity="5.0092846155166626e-01" nType="0">
        <Node pos="l" depth="1" NCoef="0" IVar="4" Cut="1.5506430053710938e+02" cType="1" res="-7.3291594162583351e-03" rms="4.8019734025001526e-01" purity="4.3863791227340698e-01" nType="0">
          <Node pos="l" depth="2" NCoef="0" IVar="-1" Cut="0.0000000000000000e+00" cType="1" res="-1.5801022527739406e-03" rms="4.7000348567962646e-01" purity="3.8188475370407104e-01" nType="-99"/>
          <Node pos="r" depth="2" NCoef="0" IVar="-1" Cut="0.0000000000000000e+00" cType="1" res="9.4227504450827837e-04" rms="4.8627573251724243e-01" purity="4.9622389674186707e-01" nType="-99"/>
        </Node>
        <Node pos="r" depth="1" NCoef="0" IVar="2" Cut="5.3490716218948364e-01" cType="1" res="1.1663477867841721e-01" rms="4.3311750888824463e-01" purity="7.4395084381103516e-01" nType="0">
          <Node pos="l" depth="2" NCoef="0" IVar="-1" Cut="0.0000000000000000e+00" cType="1" res="1.3086686376482248e-03" rms="4.6762847900390625e-01" purity="6.7384302616119385e-01" nType="-99"/>
          <Node pos="r" depth="2" NCoef="0" IVar="-1" Cut="0.0000000000000000e+00" cType="1" res="2.7793387416750193e-03" rms="4.0772417187690735e-01" purity="7.8622144460678101e-01" nType="-99"/>
        </Node>
      </Node>
    </BinaryTree>
    <BinaryTree type="DecisionTree" boostWeight="1.0000000000000000e+00" itree="101">
      <Node pos="s" depth="0" NCoef="0" IVar="1" Cut="1.5878126621246338e+00" cType="1" res="1.8186043947935104e-02" rms="4.7346600890159607e-01" purity="5.0176620483398438e-01" nType="0">
        <Node pos="l" depth="1" NCoef="0" IVar="3" Cut="2.0080661773681641e+00" cType="1" res="-1.1100956238806248e-02" rms="4.8006266355514526e-01" purity="4.2686879634857178e-01" nType="0">
          <Node pos="l" depth="2" NCoef="0" IVar="-1" Cut="0.0000000000000000e+00" cType="1" res="1.0080452775582671e-03" rms="4.8600822687149048e-01" purity="4.9212005734443665e-01" nType="-99"/>
          <Node pos="r" depth="2" NCoef="0" IVar="-1" Cut="0.0000000000000000e+00" cType="1" res="-1.4031090540811419e-03" rms="4.7280544042587280e-01" purity="3.8205155730247498e-01" nType="-99"/>
        </Node>
        <Node pos="r" depth="1" NCoef="0" IVar="2" Cut="6.1236560344696045e-01" cType="1" res="1.0682388395071030e-01" rms="4.4122600555419922e-01" purity="7.2844511270523071e-01" nType="0">
          <Node pos="l" depth="2" NCoef="0" IVar="-1" Cut="0.0000000000000000e+00" cType="1" res="1.4964940492063761e-03" rms="4.6372207999229431e-01" purity="6.8149650096893311e-01" nType="-99"/>
          <Node pos="r" depth="2" NCoef="0" IVar="-1" Cut="0.0000000000000000e+00" cType="1" res="2.7263388037681580e-03" rms="4.0767052769660950e-01" purity="7.8733724355697632e-01" nType="-99"/>
        </Node>
      </Node>
    </BinaryTree>
    <BinaryTree type="DecisionTree" boostWeight="1.0000000000000000e+00" itree="102">
      <Node pos="s" depth="0" NCoef="0" IVar="1" Cut="1.7418607473373413e+00" cType="1" res="9.4069475308060646e-03" rms="4.7307592630386353e-01" purity="4.9335640668869019e-01" nType="0">
        <Node pos="l" depth="1" NCoef="0" IVar="4" Cut="1.3766928100585938e+02" cType="1" res="-1.6819633543491364e-02" rms="4.7856462001800537e-01" purity="4.2820563912391663e-01" nType="0">
          <Node pos="l" depth="2" NCoef="0" IVar="-1" Cut="0.0000000000000000e+00" cType="1" res="-2.2240267135202885e-03" rms="4.6445256471633911e-01" purity="3.5807257890701294e-01" nType="-99"/>
          <Node pos="r" depth="2" NCoef="0" IVar="-1" Cut="0.0000000000000000e+00" cType="1" res="5.0678517436608672e-04" rms="4.8467040061950684e-01" purity="4.7621619701385498e-01" nType="-99"/>
        </Node>
        <Node pos="r" depth="1" NCoef="0" IVar="1" Cut="2.6737709045410156e+00" cType="1" res="1.0583416372537613e-01" rms="4.3905502557754517e-01" purity="7.3289620876312256e-01" nType="0">
          <Node pos="l" depth="2" NCoef="0" IVar="-1" Cut="0.0000000000000000e+00" cType="1" res="1.5186907257884741e-03" rms="4.6015977859497070e-01" purity="6.9000673294067383e-01" nType="-99"/>
          <Node pos="r" depth="2" NCoef="0" IVar="-1" Cut="0.0000000000000000e+00" cType="1" res="2.7552300598472357e-03" rms="4.0396270155906677e-01" purity="7.9279029369354248e-01" nType="-99"/>
        </Node>
      </Node>
    </BinaryTree>
    <BinaryTree type="DecisionTree" boostWeight="1.0000000000000000e+00" itree="103">
      <Node pos="s" depth="0" NCoef="0" IVar="1" Cut="2.2351646423339844e-01" cType="1" res="1.5545628964900970e-02" rms="4.7324818372726440e-01" purity="5.0030446052551270e-01" nType="0">
        <Node pos="l" depth="1" NCoef="0" IVar="3" Cut="2.3715894222259521e+00" cType="1" res="-3.7054311484098434e-02" rms="4.6967434883117676e-01" purity="3.5128939151763916e-01" nType="0">
          <Node pos="l" depth="2" NCoef="0" IVar="-1" Cut="0.0000000000000000e+00" cType="1" res="-1.9114038423140300e-06" rms="4.8367151618003845e-01" purity="4.0102869272232056e-01" nType="-99"/>
          <Node pos="r" depth="2" NCoef="0" IVar="-1" Cut="0.0000000000000000e+00" cType="1" res="-2.9971706680953503e-03" rms="4.4933599233627319e-01" purity="2.9419493675231934e-01" nType="-99"/>
        </Node>
        <Node pos="r" depth="1" NCoef="0" IVar="2" Cut="6.2182819843292236e-01" cType="1" res="6.3255786895751953e-02" rms="4.7141769528388977e-01" purity="6.3546681404113770e-01" nType="0">
          <Node pos="l" depth="2" NCoef="0" IVar="-1" Cut="0.0000000000000000e+00" cType="1" res="3.9903406286612153e-04" rms="4.8679667711257935e-01" purity="5.7474607229232788e-01" nType="-99"/>
          <Node pos="r" depth="2" NCoef="0" IVar="-1" Cut="0.0000000000000000e+00" cType="1" res="2.3513177875429392e-03" rms="4.4420000910758972e-01" purity="7.1351778507232666e-01" nType="-99"/>
        </Node>
      </Node>
    </BinaryTree>
    <BinaryTree type="DecisionTree" boostWeight="1.0000000000000000e+00" itree="104">
      <Node pos="s" depth="0" NCoef="0" IVar="1" Cut="2.1336379051208496e+00" cType="1" res="1.8735883757472038e-02" rms="4.7414889931678772e-01" purity="5.0360071659088135e-01" nType="0">
        <Node pos="l" depth="1" NCoef="0" IVar="3" Cut="3.1738083362579346e+00" cType="1" res="-1.8773196497932076e-03" rms="4.8079314827919006e-01" purity="4.5391228795051575e-01" nType="0">
          <Node pos="l" depth="2" NCoef="0" IVar="-1" Cut="0.0000000000000000e+00" cType="1" res="3.2857223413884640e-04" rms="4.8322919011116028e-01" purity="4.7230505943298340e-01" nType="-99"/>
          <Node pos="r" depth="2" NCoef="0" IVar="-1" Cut="0.0000000000000000e+00" cType="1" res="-4.7853370197117329e-03" rms="4.3832212686538696e-01" purity="2.9057678580284119e-01" nType="-99"/>
        </Node>
        <Node pos="r" depth="1" NCoef="0" IVar="-1" Cut="0.0000000000000000e+00" cType="1" res="2.4238147307187319e-03" rms="4.2114654183387756e-01" purity="7.6534944772720337e-01" nType="-99"/>
      </Node>
    </BinaryTree>
    <BinaryTree type="DecisionTree" boostWeight="1.0000000000000000e+00" itree="105">
      <Node pos="s" depth="0" NCoef="0" IVar="1" Cut="-5.2027541399002075e-01" cType="1" res="1.4991266652941704e-02" rms="4.7136929631233215e-01" purity="5.0122922658920288e-01" nType="0">
        <Node pos="l" depth="1" NCoef="0" IVar="3" Cut="1.4358687400817871e+00" cType="1" res="-6.4079001545906067e-02" rms="4.5299497246742249e-01" purity="3.0087020993232727e-01" nType="0">
          <Node pos="l" depth="2" NCoef="0" IVar="-1" Cut="0.0000000000000000e+00" cType="1" res="4.4525423436425626e-04" rms="4.8493611812591553e-01" purity="4.0085902810096741e-01" nType="-99"/>
          <Node pos="r" depth="2" NCoef="0" IVar="-1" Cut="0.0000000000000000e+00" cType="1" res="-3.4281816333532333e-03" rms="4.4195559620857239e-01" purity="2.7467191219329834e-01" nType="-99"/>
        </Node>
        <Node pos="r" depth="1" NCoef="0" IVar="2" Cut="5.2759319543838501e-01" cType="1" res="5.1369406282901764e-02" rms="4.7518768906593323e-01" purity="5.9340912103652954e-01" nType="0">
          <Node pos="l" depth="2" NCoef="0" IVar="-1" Cut="0.0000000000000000e+00" cType="1" res="-2.3324387439060956e-04" rms="4.8804852366447449e-01" purity="5.1213061809539795e-01" nType="-99"/>
          <Node pos="r" depth="2" NCoef="0" IVar="-1" Cut="0.0000000000000000e+00" cType="1" res="1.7819616477936506e-03" rms="4.6481412649154663e-01" purity="6.3714355230331421e-01" nType="-99"/>
        </Node>
      </Node>
    </BinaryTree>
    <BinaryTree type="DecisionTree" boostWeight="1.0000000000000000e+00" itree="106">
      <Node pos="s" depth="0" NCoef="0" IVar="1" Cut="1.8072897195816040e+00" cType="1" res="9.7620692104101181e-03" rms="4.7363334894180298e-01" purity="4.9392718076705933e-01" nType="0">
        <Node pos="l" depth="1" NCoef="0" IVar="3" Cut="3.0338325500488281e+00" cType="1" res="-1.4983432367444038e-02" rms="4.7967559099197388e-01" purity="4.2981925606727600e-01" nType="0">
          <Node pos="l" depth="2" NCoef="0" IVar="-1" Cut="0.0000000000000000e+00" cType="1" res="9.3094444309826940e-05" rms="4.8373988270759583e-01" purity="4.5421704649925232e-01" nType="-99"/>
          <Node pos="r" depth="2" NCoef="0" IVar="-1" Cut="0.0000000000000000e+00" cType="1" res="-3.8986762519925833e-03" rms="4.4674700498580933e-01" purity="3.0536618828773499e-01" nType="-99"/>
        </Node>
        <Node pos="r" depth="1" NCoef="0" IVar="7" Cut="5.3657319396734238e-02" cType="1" res="1.0285475105047226e-01" rms="4.3782305717468262e-01" purity="7.3510164022445679e-01" nType="0">
          <Node pos="l" depth="2" NCoef="0" IVar="-1" Cut="0.0000000000000000e+00" cType="1" res="2.6274879928678274e-03" rms="4.1240847110748291e-01" purity="7.7867019176483154e-01" nType="-99"/>
          <Node pos="r" depth="2" NCoef="0" IVar="-1" Cut="0.0000000000000000e+00" cType="1" res="1.1273019481450319e-03" rms="4.6610310673713684e-01" purity="6.7583680152893066e-01" nType="-99"/>
        </Node>
      </Node>
    </BinaryTree>
    <BinaryTree type="DecisionTree" boostWeight="1.0000000000000000e+00" itree="107">
      <Node pos="s" depth="0" NCoef="0" IVar="1" Cut="1.1608064174652100e+00" cType="1" res="1.4967861585319042e-02" rms="4.7259566187858582e-01" purity="4.9886158108711243e-01" nType="0">
        <Node pos="l" depth="1" NCoef="0" IVar="3" Cut="2.5600645542144775e+00" cType="1" res="-1.9248234108090401e-02" rms="4.7829535603523254e-01" purity="4.0188848972320557e-01" nType="0">
          <Node pos="l" depth="2" NCoef="0" IVar="-1" Cut="0.0000000000000000e+00" cType="1" res="3.9723207009956241e-04" rms="4.8734951019287109e-01" purity="4.4569113850593567e-01" nType="-99"/>
          <Node pos="r" depth="2" NCoef="0" IVar="-1" Cut="0.0000000000000000e+00" cType="1" res="-2.5541875511407852e-03" rms="4.5741876959800720e-01" purity="3.2917475700378418e-01" nType="-99"/>
        </Node>
        <Node pos="r" depth="1" NCoef="0" IVar="2" Cut="7.0241028070449829e-01" cType="1" res="8.6093813180923462e-02" rms="4.5231389999389648e-01" purity="7.0044219493865967e-01" nType="0">
          <Node pos="l" depth="2" NCoef="0" IVar="-1" Cut="0.0000000000000000e+00" cType="1" res="1.2187320971861482e-03" rms="4.6715670824050903e-01" purity="6.6518950462341309e-01" nType="-99"/>
          <Node pos="r" depth="2" NCoef="0" IVar="-1" Cut="0.0000000000000000e+00" cType="1" res="2.9185006860643625e-03" rms="4.0016299486160278e-01" purity="7.9678189754486084e-01" nType="-99"/>
        </Node>
      </Node>
    </BinaryTree>
    <BinaryTree type="DecisionTree" boostWeight="1.0000000000000000e+00" itree="108">
      <Node pos="s" depth="0" NCoef="0" IVar="1" Cut="2.7850392460823059e-01" cType="1" res="1.9090887159109116e-02" rms="4.7344440221786499e-01" purity="5.0310003757476807e-01" nType="0">
        <Node pos="l" depth="1" NCoef="0" IVar="3" Cut="3.1404144763946533e+00" cType="1" res="-2.7453865855932236e-02" rms="4.7275781631469727e-01" purity="3.6021912097930908e-01" nType="0">
          <Node pos="l" depth="2" NCoef="0" IVar="-1" Cut="0.0000000000000000e+00" cType="1" res="-4.7870725393295288e-04" rms="4.7859752178192139e-01" purity="3.7757709622383118e-01" nType="-99"/>
          <Node pos="r" depth="2" NCoef="0" IVar="-1" Cut="0.0000000000000000e+00" cType="1" res="-5.1994351670145988e-03" rms="4.1556555032730103e-01" purity="2.3126812279224396e-01" nType="-99"/>
        </Node>
        <Node pos="r" depth="1" NCoef="0" IVar="2" Cut="6.6560471057891846e-01" cType="1" res="6.2999390065670013e-02" rms="4.6988376975059509e-01" purity="6.3788843154907227e-01" nType="0">
          <Node pos="l" depth="2" NCoef="0" IVar="-1" Cut="0.0000000000000000e+00" cType="1" res="6.7699200008064508e-04" rms="4.8081043362617493e-01" purity="5.9412449598312378e-01" nType="-99"/>
          <Node pos="r" depth="2" NCoef="0" IVar="-1" Cut="0.0000000000000000e+00" cType="1" res="2.5007487274706364e-03" rms="4.4006419181823730e-01" purity="7.2576063871383667e-01" nType="-99"/>
        </Node>
      </Node>
    </BinaryTree>
    <BinaryTree type="DecisionTree" boostWeight="1.0000000000000000e+00" itree="109">
      <Node pos="s" depth="0" NCoef="0" IVar="1" Cut="1.7051230669021606e+00" cType="1" res="1.5469889156520367e-02" rms="4.7182989120483398e-01" purity="4.9945241212844849e-01" nType="0">
        <Node pos="l" depth="1" NCoef="0" IVar="2" Cut="6.1429369449615479e-01" cType="1" res="-1.2956435792148113e-02" rms="4.7894003987312317e-01" purity="4.2816567420959473e-01" nType="0">
          <Node pos="l" depth="2" NCoef="0" IVar="-1" Cut="0.0000000000000000e+00" cType="1" res="-1.4738729223608971e-03" rms="4.7321200370788574e-01" purity="3.8088771700859070e-01" nType="-99"/>
          <Node pos="r" depth="2" NCoef="0" IVar="-1" Cut="0.0000000000000000e+00" cType="1" res="8.1405451055616140e-04" rms="4.8236280679702759e-01" purity="4.8731079697608948e-01" nType="-99"/>
        </Node>
        <Node pos="r" depth="1" NCoef="0" IVar="2" Cut="6.2721687555313110e-01" cType="1" res="1.1321976035833359e-01" rms="4.3248549103736877e-01" purity="7.4458688497543335e-01" nType="0">
          <Node pos="l" depth="2" NCoef="0" IVar="-1" Cut="0.0000000000000000e+00" cType="1" res="1.6561972443014383e-03" rms="4.5654389262199402e-01" purity="6.9933420419692993e-01" nType="-99"/>
          <Node pos="r" depth="2" NCoef="0" IVar="-1" Cut="0.0000000000000000e+00" cType="1" res="2.9154133517295122e-03" rms="3.9265632629394531e-01" purity="8.0783700942993164e-01" nType="-99"/>
        </Node>
      </Node>
    </BinaryTree>
    <BinaryTree type="DecisionTree" boostWeight="1.0000000000000000e+00" itree="110">
      <Node pos="s" depth="0" NCoef="0" IVar="1" Cut="2.3208572864532471e+00" cType="1" res="1.4217868447303772e-02" rms="4.7265690565109253e-01" purity="4.9984320998191833e-01" nType="0">
        <Node pos="l" depth="1" NCoef="0" IVar="2" Cut="6.6744625568389893e-01" cType="1" res="-4.7087641432881355e-03" rms="4.7881361842155457e-01" purity="4.5564365386962891e-01" nType="0">
          <Node pos="l" depth="2" NCoef="0" IVar="-1" Cut="0.0000000000000000e+00" cType="1" res="-9.6137408399954438e-04" rms="4.7558987140655518e-01" purity="4.1807681322097778e-01" nType="-99"/>
          <Node pos="r" depth="2" NCoef="0" IVar="-1" Cut="0.0000000000000000e+00" cType="1" res="1.2672932352870703e-03" rms="4.8018622398376465e-01" purity="5.3045791387557983e-01" nType="-99"/>
        </Node>
        <Node pos="r" depth="1" NCoef="0" IVar="-1" Cut="0.0000000000000000e+00" cType="1" res="2.5483355857431889e-03" rms="4.1133558750152588e-01" purity="7.8170371055603027e-01" nType="-99"/>
      </Node>
    </BinaryTree>
    <BinaryTree type="DecisionTree" boostWeight="1.0000000000000000e+00" itree="111">
      <Node pos="s" depth="0" NCoef="0" IVar="1" Cut="8.8056558370590210e-01" cType="1" res="1.7773840576410294e-02" rms="4.7382959723472595e-01" purity="5.0193107128143311e-01" nType="0">
        <Node pos="l" depth="1" NCoef="0" IVar="2" Cut="6.5090435743331909e-01" cType="1" res="-1.5497834421694279e-02" rms="4.7834068536758423e-01" purity="3.9298927783966064e-01" nType="0">
          <Node pos="l" depth="2" NCoef="0" IVar="-1" Cut="0.0000000000000000e+00" cType="1" res="-1.6131289303302765e-03" rms="4.6873143315315247e-01" purity="3.4744259715080261e-01" nType="-99"/>
          <Node pos="r" depth="2" NCoef="0" IVar="-1" Cut="0.0000000000000000e+00" cType="1" res="1.0764880571514368e-03" rms="4.8896026611328125e-01" purity="4.6919652819633484e-01" nType="-99"/>
        </Node>
        <Node pos="r" depth="1" NCoef="0" IVar="2" Cut="6.9669103622436523e-01" cType="1" res="7.0730112493038177e-02" rms="4.6164008975028992e-01" purity="6.7532640695571899e-01" nType="0">
          <Node pos="l" depth="2" NCoef="0" IVar="-1" Cut="0.0000000000000000e+00" cType="1" res="8.7027909466996789e-04" rms="4.7603228688240051e-01" purity="6.3613981008529663e-01" nType="-99"/>
          <Node pos="r" depth="2" NCoef="0" IVar="-1" Cut="0.0000000000000000e+00" cType="1" res="2.8122297953814268e-03" rms="4.0939131379127502e-01" purity="7.8226453065872192e-01" nType="-99"/>
        </Node>
      </Node>
    </BinaryTree>
    <BinaryTree type="DecisionTree" boostWeight="1.0000000000000000e+00" itree="112">
      <Node pos="s" depth="0" NCoef="0" IVar="1" Cut="1.8923281431198120e+00" cType="1" res="1.7183244228363037e-02" rms="4.7300744056701660e-01" purity="5.0096356868743896e-01" nType="0">
        <Node pos="l" depth="1" NCoef="0" IVar="3" Cut="1.9830175638198853e+00" cType="1" res="-6.0027632862329483e-03" rms="4.8008245229721069e-01" purity="4.4084551930427551e-01" nType="0">
          <Node pos="l" depth="2" NCoef="0" IVar="-1" Cut="0.0000000000000000e+00" cType="1" res="1.1745787924155593e-03" rms="4.8600086569786072e-01" purity="5.1097995042800903e-01" nType="-99"/>
          <Node pos="r" depth="2" NCoef="0" IVar="-1" Cut="0.0000000000000000e+00" cType="1" res="-1.2825289741158485e-03" rms="4.7260910272598267e-01" purity="3.9316692948341370e-01" nType="-99"/>
        </Node>
        <Node pos="r" depth="1" NCoef="0" IVar="3" Cut="2.4731786251068115e+00" cType="1" res="1.1434672772884369e-01" rms="4.2870110273361206e-01" purity="7.5289481878280640e-01" nType="0">
          <Node pos="l" depth="2" NCoef="0" IVar="-1" Cut="0.0000000000000000e+00" cType="1" res="2.6690573431551456e-03" rms="4.1073384881019592e-01" purity="7.8270113468170166e-01" nType="-99"/>
          <Node pos="r" depth="2" NCoef="0" IVar="-1" Cut="0.0000000000000000e+00" cType="1" res="1.4309380203485489e-03" rms="4.5194017887115479e-01" purity="7.0619058609008789e-01" nType="-99"/>
        </Node>
      </Node>
    </BinaryTree>
    <BinaryTree type="DecisionTree" boostWeight="1.0000000000000000e+00" itree="113">
      <Node pos="s" depth="0" NCoef="0" IVar="1" Cut="-4.9477782845497131e-01" cType="1" res="1.6321944072842598e-02" rms="4.7280934453010559e-01" purity="5.0178438425064087e-01" nType="0">
        <Node pos="l" depth="1" NCoef="0" IVar="3" Cut="1.8210005760192871e+00" cType="1" res="-4.6285159885883331e-02" rms="4.5984697341918945e-01" purity="3.1603297591209412e-01" nType="0">
          <Node pos="l" depth="2" NCoef="0" IVar="-1" Cut="0.0000000000000000e+00" cType="1" res="1.4198810094967484e-04" rms="4.8226618766784668e-01" purity="3.8741523027420044e-01" nType="-99"/>
          <Node pos="r" depth="2" NCoef="0" IVar="-1" Cut="0.0000000000000000e+00" cType="1" res="-2.8783513698726892e-03" rms="4.4636026024818420e-01" purity="2.8107309341430664e-01" nType="-99"/>
        </Node>
        <Node pos="r" depth="1" NCoef="0" IVar="2" Cut="5.6451052427291870e-01" cType="1" res="4.6347450464963913e-02" rms="4.7598871588706970e-01" purity="5.9086823463439941e-01" nType="0">
          <Node pos="l" depth="2" NCoef="0" IVar="-1" Cut="0.0000000000000000e+00" cType="1" res="-1.0228172322968021e-04" rms="4.8833864927291870e-01" purity="5.1823139190673828e-01" nType="-99"/>
          <Node pos="r" depth="2" NCoef="0" IVar="-1" Cut="0.0000000000000000e+00" cType="1" res="1.8061252776533365e-03" rms="4.6221995353698730e-01" purity="6.4780843257904053e-01" nType="-99"/>
        </Node>
      </Node>
    </BinaryTree>
    <BinaryTree type="DecisionTree" boostWeight="1.0000000000000000e+00" itree="114">
      <Node pos="s" depth="0" NCoef="0" IVar="1" Cut="-6.9958311319351196e-01" cType="1" res="1.5558965504169464e-02" rms="4.7252523899078369e-01" purity="4.9959006905555725e-01" nType="0">
        <Node pos="l" depth="1" NCoef="0" IVar="2" Cut="7.2684621810913086e-01" cType="1" res="-5.6849129498004913e-02" rms="4.5259982347488403e-01" purity="3.0062860250473022e-01" nType="0">
          <Node pos="l" depth="2" NCoef="0" IVar="-1" Cut="0.0000000000000000e+00" cType="1" res="-3.5107077565044165e-03" rms="4.3684729933738708e-01" purity="2.6418241858482361e-01" nType="-99"/>
          <Node pos="r" depth="2" NCoef="0" IVar="-1" Cut="0.0000000000000000e+00" cType="1" res="6.4965011551976204e-04" rms="4.8810482025146484e-01" purity="4.0878188610076904e-01" nType="-99"/>
        </Node>
        <Node pos="r" depth="1" NCoef="0" IVar="2" Cut="7.0940852165222168e-01" cType="1" res="4.4406142085790634e-02" rms="4.7718238830566406e-01" purity="5.7885575294494629e-01" nType="0">
          <Node pos="l" depth="2" NCoef="0" IVar="-1" Cut="0.0000000000000000e+00" cType="1" res="4.6216670307330787e-04" rms="4.8377910256385803e-01" purity="5.4394102096557617e-01" nType="-99"/>
          <Node pos="r" depth="2" NCoef="0" IVar="-1" Cut="0.0000000000000000e+00" cType="1" res="2.5033850688487291e-03" rms="4.4604349136352539e-01" purity="6.9154280424118042e-01" nType="-99"/>
        </Node>
      </Node>
    </BinaryTree>
    <BinaryTree type="DecisionTree" boostWeight="1.0000000000000000e+00" itree="115">
      <Node pos="s" depth="0" NCoef="0" IVar="1" Cut="7.3013484477996826e-02" cType="1" res="1.5970537438988686e-02" rms="4.7286176681518555e-01" purity="5.0008386373519897e-01" nType="0">
        <Node pos="l" depth="1" NCoef="0" IVar="4" Cut="1.0619418334960938e+02" cType="1" res="-3.1739071011543274e-02" rms="4.6858152747154236e-01" purity="3.4762474894523621e-01" nType="0">
          <Node pos="l" depth="2" NCoef="0" IVar="-1" Cut="0.0000000000000000e+00" cType="1" res="-3.6964279133826494e-03" rms="4.3627679347991943e-01" purity="2.6494085788726807e-01" nType="-99"/>
          <Node pos="r" depth="2" NCoef="0" IVar="-1" Cut="0.0000000000000000e+00" cType="1" res="-4.2428687447682023e-04" rms="4.7612711787223816e-01" purity="3.7207511067390442e-01" nType="-99"/>
        </Node>
        <Node pos="r" depth="1" NCoef="0" IVar="3" Cut="2.8618476390838623e+00" cType="1" res="5.4200109094381332e-02" rms="4.7280201315879822e-01" purity="6.2224888801574707e-01" nType="0">
          <Node pos="l" depth="2" NCoef="0" IVar="-1" Cut="0.0000000000000000e+00" cType="1" res="1.6440118197351694e-03" rms="4.6547186374664307e-01" purity="6.5227186679840088e-01" nType="-99"/>
          <Node pos="r" depth="2" NCoef="0" IVar="-1" Cut="0.0000000000000000e+00" cType="1" res="-7.5724517228081822e-04" rms="4.8732507228851318e-01" purity="5.2043616771697998e-01" nType="-99"/>
        </Node>
      </Node>
    </BinaryTree>
    <BinaryTree type="DecisionTree" boostWeight="1.0000000000000000e+00" itree="116">
      <Node pos="s" depth="0" NCoef="0" IVar="1" Cut="2.2497279942035675e-01" cType="1" res="1.8981298431754112e-02" rms="4.7054538130760193e-01" purity="5.0553232431411743e-01" nType="0">
        <Node pos="l" depth="1" NCoef="0" IVar="2" Cut="7.5409919023513794e-01" cType="1" res="-3.6165077239274979e-02" rms="4.6764943003654480e-01" purity="3.4753227233886719e-01" nType="0">
          <Node pos="l" depth="2" NCoef="0" IVar="-1" Cut="0.0000000000000000e+00" cType="1" res="-1.8930712249130011e-03" rms="4.6087720990180969e-01" purity="3.2415053248405457e-01" nType="-99"/>
          <Node pos="r" depth="2" NCoef="0" IVar="-1" Cut="0.0000000000000000e+00" cType="1" res="1.2502560857683420e-03" rms="4.9024558067321777e-01" purity="4.5774316787719727e-01" nType="-99"/>
        </Node>
        <Node pos="r" depth="1" NCoef="0" IVar="2" Cut="5.7483583688735962e-01" cType="1" res="6.6854156553745270e-02" rms="4.6780312061309814e-01" purity="6.4269304275512695e-01" nType="0">
          <Node pos="l" depth="2" NCoef="0" IVar="-1" Cut="0.0000000000000000e+00" cType="1" res="5.0059723434969783e-04" rms="4.8220986127853394e-01" purity="5.7766479253768921e-01" nType="-99"/>
          <Node pos="r" depth="2" NCoef="0" IVar="-1" Cut="0.0000000000000000e+00" cType="1" res="2.0939728710800409e-03" rms="4.5148035883903503e-01" purity="6.9878756999969482e-01" nType="-99"/>
        </Node>
      </Node>
    </BinaryTree>
    <BinaryTree type="DecisionTree" boostWeight="1.0000000000000000e+00" itree="117">
      <Node pos="s" depth="0" NCoef="0" IVar="1" Cut="1.9724185466766357e+00" cType="1" res="1.4414923265576363e-02" rms="4.7144123911857605e-01" purity="5.0042420625686646e-01" nType="0">
        <Node pos="l" depth="1" NCoef="0" IVar="2" Cut="5.5450993776321411e-01" cType="1" res="-9.2260986566543579e-03" rms="4.7900208830833435e-01" purity="4.3933561444282532e-01" nType="0">
          <Node pos="l" depth="2" NCoef="0" IVar="-1" Cut="0.0000000000000000e+00" cType="1" res="-1.6788115026429296e-03" rms="4.7181737422943115e-01" purity="3.7822678685188293e-01" nType="-99"/>
          <Node pos="r" depth="2" NCoef="0" IVar="-1" Cut="0.0000000000000000e+00" cType="1" res="5.8073189575225115e-04" rms="4.8138904571533203e-01" purity="4.8134094476699829e-01" nType="-99"/>
        </Node>
        <Node pos="r" depth="1" NCoef="0" IVar="7" Cut="6.4857281744480133e-02" cType="1" res="1.1489217728376389e-01" rms="4.2337182164192200e-01" purity="7.6005828380584717e-01" nType="0">
          <Node pos="l" depth="2" NCoef="0" IVar="-1" Cut="0.0000000000000000e+00" cType="1" res="2.6840749196708202e-03" rms="4.0055871009826660e-01" purity="7.9628372192382812e-01" nType="-99"/>
          <Node pos="r" depth="2" NCoef="0" IVar="-1" Cut="0.0000000000000000e+00" cType="1" res="1.3460648478940129e-03" rms="4.5555049180984497e-01" purity="6.9847732782363892e-01" nType="-99"/>
        </Node>
      </Node>
    </BinaryTree>
    <BinaryTree type="DecisionTree" boostWeight="1.0000000000000000e+00" itree="118">
      <Node pos="s" depth="0" NCoef="0" IVar="3" Cut="2.0963563919067383e+00" cType="1" res="1.5003575012087822e-02" rms="4.7293347120285034e-01" purity="4.9935796856880188e-01" nType="0">
        <Node pos="l" depth="1" NCoef="0" IVar="4" Cut="1.0749038696289062e+02" cType="1" res="6.1645742505788803e-02" rms="4.7187510132789612e-01" purity="5.6377160549163818e-01" nType="0">
          <Node pos="l" depth="2" NCoef="0" IVar="-1" Cut="0.0000000000000000e+00" cType="1" res="-5.4855289636179805e-04" rms="4.6977210044860840e-01" purity="4.5539048314094543e-01" nType="-99"/>
          <Node pos="r" depth="2" NCoef="0" IVar="-1" Cut="0.0000000000000000e+00" cType="1" res="1.8838905962184072e-03" rms="4.6997064352035522e-01" purity="5.9355819225311279e-01" nType="-99"/>
        </Node>
        <Node pos="r" depth="1" NCoef="0" IVar="2" Cut="6.3897144794464111e-01" cType="1" res="-2.3585412651300430e-02" rms="4.7032371163368225e-01" purity="4.4606596231460571e-01" nType="0">
          <Node pos="l" depth="2" NCoef="0" IVar="-1" Cut="0.0000000000000000e+00" cType="1" res="-1.7247550422325730e-03" rms="4.6562510728836060e-01" purity="4.0035533905029297e-01" nType="-99"/>
          <Node pos="r" depth="2" NCoef="0" IVar="-1" Cut="0.0000000000000000e+00" cType="1" res="8.3952932618558407e-04" rms="4.7257331013679504e-01" purity="5.2216660976409912e-01" nType="-99"/>
        </Node>
      </Node>
    </BinaryTree>
    <BinaryTree type="DecisionTree" boostWeight="1.0000000000000000e+00" itree="119">
      <Node pos="s" depth="0" NCoef="0" IVar="1" Cut="5.0554037094116211e-01" cType="1" res="1.6104726120829582e-02" rms="4.7185978293418884e-01" purity="5.0190973281860352e-01" nType="0">
        <Node pos="l" depth="1" NCoef="0" IVar="1" Cut="-1.4436467885971069e+00" cType="1" res="-2.6827236637473106e-02" rms="4.7227692604064941e-01" purity="3.6558076739311218e-01" nType="0">
          <Node pos="l" depth="2" NCoef="0" IVar="-1" Cut="0.0000000000000000e+00" cType="1" res="-3.8906922563910484e-03" rms="4.3332338333129883e-01" purity="2.5723412632942200e-01" nType="-99"/>
          <Node pos="r" depth="2" NCoef="0" IVar="-1" Cut="0.0000000000000000e+00" cType="1" res="-1.1647769133560359e-04" rms="4.8444396257400513e-01" purity="4.0710866451263428e-01" nType="-99"/>
        </Node>
        <Node pos="r" depth="1" NCoef="0" IVar="3" Cut="2.8597214221954346e+00" cType="1" res="6.4008936285972595e-02" rms="4.6675553917884827e-01" purity="6.5402781963348389e-01" nType="0">
          <Node pos="l" depth="2" NCoef="0" IVar="-1" Cut="0.0000000000000000e+00" cType="1" res="1.7283520428463817e-03" rms="4.5929953455924988e-01" purity="6.7974960803985596e-01" nType="-99"/>
          <Node pos="r" depth="2" NCoef="0" IVar="-1" Cut="0.0000000000000000e+00" cType="1" res="-1.9931825227104127e-04" rms="4.8386311531066895e-01" purity="5.6787866353988647e-01" nType="-99"/>
        </Node>
      </Node>
    </BinaryTree>
    <BinaryTree type="DecisionTree" boostWeight="1.0000000000000000e+00" itree="120">
      <Node pos="s" depth="0" NCoef="0" IVar="1" Cut="8.6352384090423584e-01" cType="1" res="1.0490776970982552e-02" rms="4.7275477647781372e-01" purity="4.9341917037963867e-01" nType="0">
        <Node pos="l" depth="1" NCoef="0" IVar="2" Cut="7.4591922760009766e-01" cType="1" res="-2.0807709544897079e-02" rms="4.7610068321228027e-01" purity="3.8525360822677612e-01" nType="0">
          <Node pos="l" depth="2" NCoef="0" IVar="-1" Cut="0.0000000000000000e+00" cType="1" res="-1.3077843468636274e-03" rms="4.7095608711242676e-01" purity="3.5845836997032166e-01" nType="-99"/>
          <Node pos="r" depth="2" NCoef="0" IVar="-1" Cut="0.0000000000000000e+00" cType="1" res="1.5270421281456947e-03" rms="4.8893848061561584e-01" purity="4.9817660450935364e-01" nType="-99"/>
        </Node>
        <Node pos="r" depth="1" NCoef="0" IVar="2" Cut="6.4898562431335449e-01" cType="1" res="6.1533160507678986e-02" rms="4.6272742748260498e-01" purity="6.6981834173202515e-01" nType="0">
          <Node pos="l" depth="2" NCoef="0" IVar="-1" Cut="0.0000000000000000e+00" cType="1" res="5.0759111763909459e-04" rms="4.8066857457160950e-01" purity="6.1677974462509155e-01" nType="-99"/>
          <Node pos="r" depth="2" NCoef="0" IVar="-1" Cut="0.0000000000000000e+00" cType="1" res="2.4287260603159666e-03" rms="4.2307555675506592e-01" purity="7.5948071479797363e-01" nType="-99"/>
        </Node>
      </Node>
    </BinaryTree>
    <BinaryTree type="DecisionTree" boostWeight="1.0000000000000000e+00" itree="121">
      <Node pos="s" depth="0" NCoef="0" IVar="1" Cut="-1.3259375095367432e-01" cType="1" res="1.4322056435048580e-02" rms="4.7104802727699280e-01" purity="4.9860069155693054e-01" nType="0">
        <Node pos="l" depth="1" NCoef="0" IVar="3" Cut="2.4224095344543457e+00" cType="1" res="-4.6327643096446991e-02" rms="4.6096014976501465e-01" purity="3.2436668872833252e-01" nType="0">
          <Node pos="l" depth="2" NCoef="0" IVar="-1" Cut="0.0000000000000000e+00" cType="1" res="-4.6894617844372988e-04" rms="4.7739756107330322e-01" purity="3.7076723575592041e-01" nType="-99"/>
          <Node pos="r" depth="2" NCoef="0" IVar="-1" Cut="0.0000000000000000e+00" cType="1" res="-3.5221839789301157e-03" rms="4.3639475107192993e-01" purity="2.6650822162628174e-01" nType="-99"/>
        </Node>
        <Node pos="r" depth="1" NCoef="0" IVar="3" Cut="3.2012510299682617e+00" cType="1" res="5.4520454257726669e-02" rms="4.7335389256477356e-01" purity="6.1408239603042603e-01" nType="0">
          <Node pos="l" depth="2" NCoef="0" IVar="-1" Cut="0.0000000000000000e+00" cType="1" res="1.4562810538336635e-03" rms="4.7064101696014404e-01" purity="6.3149523735046387e-01" nType="-99"/>
          <Node pos="r" depth="2" NCoef="0" IVar="-1" Cut="0.0000000000000000e+00" cType="1" res="-2.5290781632065773e-03" rms="4.7618660330772400e-01" purity="4.3332502245903015e-01" nType="-99"/>
        </Node>
      </Node>
    </BinaryTree>
    <BinaryTree type="DecisionTree" boostWeight="1.0000000000000000e+00" itree="122">
      <Node pos="s" depth="0" NCoef="0" IVar="1" Cut="1.6861299276351929e+00" cType="1" res="1.6742084175348282e-02" rms="4.7275120019912720e-01" purity="5.0092750787734985e-01" nType="0">
        <Node pos="l" depth="1" NCoef="0" IVar="3" Cut="2.2981948852539062e+00" cType="1" res="-5.9386719949543476e-03" rms="4.7994053363800049e-01" purity="4.3292215466499329e-01" nType="0">
          <Node pos="l" depth="2" NCoef="0" IVar="-1" Cut="0.0000000000000000e+00" cType="1" res="8.1097165821120143e-04" rms="4.8616302013397217e-01" purity="4.8620685935020447e-01" nType="-99"/>
          <Node pos="r" depth="2" NCoef="0" IVar="-1" Cut="0.0000000000000000e+00" cType="1" res="-1.4597389381378889e-03" rms="4.6978798508644104e-01" purity="3.7529659271240234e-01" nType="-99"/>
        </Node>
        <Node pos="r" depth="1" NCoef="0" IVar="3" Cut="2.3065330982208252e+00" cType="1" res="9.3798875808715820e-02" rms="4.3879196047782898e-01" purity="7.3197269439697266e-01" nType="0">
          <Node pos="l" depth="2" NCoef="0" IVar="-1" Cut="0.0000000000000000e+00" cType="1" res="2.3272715043276548e-03" rms="4.2076575756072998e-01" purity="7.6452171802520752e-01" nType="-99"/>
          <Node pos="r" depth="2" NCoef="0" IVar="-1" Cut="0.0000000000000000e+00" cType="1" res="1.2073090765625238e-03" rms="4.5722669363021851e-01" purity="6.9249856472015381e-01" nType="-99"/>
        </Node>
      </Node>
    </BinaryTree>
    <BinaryTree type="DecisionTree" boostWeight="1.0000000000000000e+00" itree="123">
      <Node pos="s" depth="0" NCoef="0" IVar="1" Cut="-6.2288683652877808e-01" cType="1" res="1.5957700088620186e-02" rms="4.7011503577232361e-01" purity="5.0217860937118530e-01" nType="0">
        <Node pos="l" depth="1" NCoef="0" IVar="1" Cut="-1.8986730575561523e+00" cType="1" res="-5.8816038072109222e-02" rms="4.5131826400756836e-01" purity="2.9503452777862549e-01" nType="0">
          <Node pos="l" depth="2" NCoef="0" IVar="-1" Cut="0.0000000000000000e+00" cType="1" res="-5.6572547182440758e-03" rms="4.1581675410270691e-01" purity="2.2764398157596588e-01" nType="-99"/>
          <Node pos="r" depth="2" NCoef="0" IVar="-1" Cut="0.0000000000000000e+00" cType="1" res="-1.3451398117467761e-03" rms="4.6265095472335815e-01" purity="3.2139852643013000e-01" nType="-99"/>
        </Node>
        <Node pos="r" depth="1" NCoef="0" IVar="2" Cut="7.0240932703018188e-01" cType="1" res="4.7497227787971497e-02" rms="4.7430017590522766e-01" purity="5.8955186605453491e-01" nType="0">
          <Node pos="l" depth="2" NCoef="0" IVar="-1" Cut="0.0000000000000000e+00" cType="1" res="4.7150088357739151e-04" rms="4.8205891251564026e-01" purity="5.4966706037521362e-01" nType="-99"/>
          <Node pos="r" depth="2" NCoef="0" IVar="-1" Cut="0.0000000000000000e+00" cType="1" res="2.5037541054189205e-03" rms="4.4211232662200928e-01" purity="7.0358222723007202e-01" nType="-99"/>
        </Node>
      </Node>
    </BinaryTree>
    <BinaryTree type="DecisionTree" boostWeight="1.0000000000000000e+00" itree="124">
      <Node pos="s" depth="0" NCoef="0" IVar="1" Cut="2.0035202503204346e+00" cType="1" res="2.2256096825003624e-02" rms="4.7171178460121155e-01" purity="5.0662708282470703e-01" nType="0">
        <Node pos="l" depth="1" NCoef="0" IVar="3" Cut="1.6801462173461914e+00" cType="1" res="2.5881582405418158e-03" rms="4.7953182458877563e-01" purity="4.5158663392066956e-01" nType="0">
          <Node pos="l" depth="2" NCoef="0" IVar="-1" Cut="0.0000000000000000e+00" cType="1" res="1.5836578095331788e-03" rms="4.8215979337692261e-01" purity="5.3831154108047485e-01" nType="-99"/>
          <Node pos="r" depth="2" NCoef="0" IVar="-1" Cut="0.0000000000000000e+00" cType="1" res="-7.2077970253303647e-04" rms="4.7581332921981812e-01" purity="4.1464522480964661e-01" nType="-99"/>
        </Node>
        <Node pos="r" depth="1" NCoef="0" IVar="3" Cut="2.3142488002777100e+00" cType="1" res="1.1411004513502121e-01" rms="4.2134022712707520e-01" purity="7.6367914676666260e-01" nType="0">
          <Node pos="l" depth="2" NCoef="0" IVar="-1" Cut="0.0000000000000000e+00" cType="1" res="2.7174775023013353e-03" rms="4.0051972866058350e-01" purity="7.9612284898757935e-01" nType="-99"/>
          <Node pos="r" depth="2" NCoef="0" IVar="-1" Cut="0.0000000000000000e+00" cType="1" res="1.5327755827456713e-03" rms="4.4469308853149414e-01" purity="7.2044152021408081e-01" nType="-99"/>
        </Node>
      </Node>
    </BinaryTree>
    <BinaryTree type="DecisionTree" boostWeight="1.0000000000000000e+00" itree="125">
      <Node pos="s" depth="0" NCoef="0" IVar="1" Cut="2.5759223103523254e-01" cType="1" res="1.6009757295250893e-02" rms="4.7088685631752014e-01" purity="5.0088548660278320e-01" nType="0">
        <Node pos="l" depth="1" NCoef="0" IVar="2" Cut="7.2225987911224365e-01" cType="1" res="-2.9837997630238533e-02" rms="4.6901965141296387e-01" purity="3.5050031542778015e-01" nType="0">
          <Node pos="l" depth="2" NCoef="0" IVar="-1" Cut="0.0000000000000000e+00" cType="1" res="-1.7372946022078395e-03" rms="4.6014985442161560e-01" purity="3.2267451286315918e-01" nType="-99"/>
          <Node pos="r" depth="2" NCoef="0" IVar="-1" Cut="0.0000000000000000e+00" cType="1" res="9.0810022084042430e-04" rms="4.9239030480384827e-01" purity="4.4323652982711792e-01" nType="-99"/>
        </Node>
        <Node pos="r" depth="1" NCoef="0" IVar="2" Cut="6.8789684772491455e-01" cType="1" res="5.8287404477596283e-02" rms="4.6864381432533264e-01" purity="6.3956034183502197e-01" nType="0">
          <Node pos="l" depth="2" NCoef="0" IVar="-1" Cut="0.0000000000000000e+00" cType="1" res="6.7279703216627240e-04" rms="4.8022854328155518e-01" purity="5.9821504354476929e-01" nType="-99"/>
          <Node pos="r" depth="2" NCoef="0" IVar="-1" Cut="0.0000000000000000e+00" cType="1" res="2.4263893719762564e-03" rms="4.3225997686386108e-01" purity="7.3935925960540771e-01" nType="-99"/>
        </Node>
      </Node>
    </BinaryTree>
    <BinaryTree type="DecisionTree" boostWeight="1.0000000000000000e+00" itree="126">
      <Node pos="s" depth="0" NCoef="0" IVar="1" Cut="1.4969205856323242e-01" cType="1" res="2.2711990401148796e-02" rms="4.7099491953849792e-01" purity="5.0946962833404541e-01" nType="0">
        <Node pos="l" depth="1" NCoef="0" IVar="3" Cut="1.4515694379806519e+00" cType="1" res="-2.4872219190001488e-02" rms="4.6969082951545715e-01" purity="3.5377463698387146e-01" nType="0">
          <Node pos="l" depth="2" NCoef="0" IVar="-1" Cut="0.0000000000000000e+00" cType="1" res="1.6791190719231963e-03" rms="4.9210608005523682e-01" purity="4.6841296553611755e-01" nType="-99"/>
          <Node pos="r" depth="2" NCoef="0" IVar="-1" Cut="0.0000000000000000e+00" cType="1" res="-1.7880009254440665e-03" rms="4.5997193455696106e-01" purity="3.2063072919845581e-01" nType="-99"/>
        </Node>
        <Node pos="r" depth="1" NCoef="0" IVar="2" Cut="5.9055185317993164e-01" cType="1" res="6.2115501612424850e-02" rms="4.6842759847640991e-01" purity="6.3839739561080933e-01" nType="0">
          <Node pos="l" depth="2" NCoef="0" IVar="-1" Cut="0.0000000000000000e+00" cType="1" res="4.8050837358459830e-04" rms="4.8462551832199097e-01" purity="5.7625609636306763e-01" nType="-99"/>
          <Node pos="r" depth="2" NCoef="0" IVar="-1" Cut="0.0000000000000000e+00" cType="1" res="2.0672436803579330e-03" rms="4.4754505157470703e-01" purity="7.0172381401062012e-01" nType="-99"/>
        </Node>
      </Node>
    </BinaryTree>
    <BinaryTree type="DecisionTree" boostWeight="1.0000000000000000e+00" itree="127">
      <Node pos="s" depth="0" NCoef="0" IVar="1" Cut="-5.2613437175750732e-02" cType="1" res="1.2333935126662254e-02" rms="4.7035518288612366e-01" purity="4.9774706363677979e-01" nType="0">
        <Node pos="l" depth="1" NCoef="0" IVar="3" Cut="1.2352252006530762e+00" cType="1" res="-4.1882742196321487e-02" rms="4.6149885654449463e-01" purity="3.2822307944297791e-01" nType="0">
          <Node pos="l" depth="2" NCoef="0" IVar="-1" Cut="0.0000000000000000e+00" cType="1" res="1.3133898610249162e-03" rms="4.9048060178756714e-01" purity="4.4837939739227295e-01" nType="-99"/>
          <Node pos="r" depth="2" NCoef="0" IVar="-1" Cut="0.0000000000000000e+00" cType="1" res="-2.1538760047405958e-03" rms="4.5432388782501221e-01" purity="3.0677792429924011e-01" nType="-99"/>
        </Node>
        <Node pos="r" depth="1" NCoef="0" IVar="2" Cut="7.5298351049423218e-01" cType="1" res="5.0614353269338608e-02" rms="4.7277921438217163e-01" purity="6.1744177341461182e-01" nType="0">
          <Node pos="l" depth="2" NCoef="0" IVar="-1" Cut="0.0000000000000000e+00" cType="1" res="7.3404284194111824e-04" rms="4.7921654582023621e-01" purity="5.9226286411285400e-01" nType="-99"/>
          <Node pos="r" depth="2" NCoef="0" IVar="-1" Cut="0.0000000000000000e+00" cType="1" res="2.6569897308945656e-03" rms="4.2962080240249634e-01" purity="7.4025493860244751e-01" nType="-99"/>
        </Node>
      </Node>
    </BinaryTree>
    <BinaryTree type="DecisionTree" boostWeight="1.0000000000000000e+00" itree="128">
      <Node pos="s" depth="0" NCoef="0" IVar="1" Cut="1.8655732870101929e+00" cType="1" res="1.3531806878745556e-02" rms="4.7197645902633667e-01" purity="4.9725064635276794e-01" nType="0">
        <Node pos="l" depth="1" NCoef="0" IVar="4" Cut="1.4040008544921875e+02" cType="1" res="-6.6196345724165440e-03" rms="4.7882798314094543e-01" purity="4.3724641203880310e-01" nType="0">
          <Node pos="l" depth="2" NCoef="0" IVar="-1" Cut="0.0000000000000000e+00" cType="1" res="-1.6404169145971537e-03" rms="4.6895536780357361e-01" purity="3.7168937921524048e-01" nType="-99"/>
          <Node pos="r" depth="2" NCoef="0" IVar="-1" Cut="0.0000000000000000e+00" cType="1" res="7.0127611979842186e-04" rms="4.8324310779571533e-01" purity="4.8578065633773804e-01" nType="-99"/>
        </Node>
        <Node pos="r" depth="1" NCoef="0" IVar="6" Cut="9.6053731441497803e-01" cType="1" res="9.6305131912231445e-02" rms="4.3299403786659241e-01" purity="7.4372178316116333e-01" nType="0">
          <Node pos="l" depth="2" NCoef="0" IVar="-1" Cut="0.0000000000000000e+00" cType="1" res="1.0424595093354583e-03" rms="4.5629495382308960e-01" purity="6.9649577140808105e-01" nType="-99"/>
          <Node pos="r" depth="2" NCoef="0" IVar="-1" Cut="0.0000000000000000e+00" cType="1" res="2.5599552318453789e-03" rms="4.0991598367691040e-01" purity="7.8129309415817261e-01" nType="-99"/>
        </Node>
      </Node>
    </BinaryTree>
    <BinaryTree type="DecisionTree" boostWeight="1.0000000000000000e+00" itree="129">
      <Node pos="s" depth="0" NCoef="0" IVar="1" Cut="-9.1988742351531982e-01" cType="1" res="1.9537616521120071e-02" rms="4.7222301363945007e-01" purity="5.0463503599166870e-01" nType="0">
        <Node pos="l" depth="1" NCoef="0" IVar="7" Cut="6.9789968430995941e-02" cType="1" res="-5.0352040678262711e-02" rms="4.5067965984344482e-01" purity="2.9249489307403564e-01" nType="0">
          <Node pos="l" depth="2" NCoef="0" IVar="-1" Cut="0.0000000000000000e+00" cType="1" res="-1.0199620155617595e-03" rms="4.6361175179481506e-01" purity="3.2183894515037537e-01" nType="-99"/>
          <Node pos="r" depth="2" NCoef="0" IVar="-1" Cut="0.0000000000000000e+00" cType="1" res="-4.8340838402509689e-03" rms="4.1538417339324951e-01" purity="2.2625800967216492e-01" nType="-99"/>
        </Node>
        <Node pos="r" depth="1" NCoef="0" IVar="2" Cut="6.4988166093826294e-01" cType="1" res="4.1591499000787735e-02" rms="4.7669783234596252e-01" purity="5.7157647609710693e-01" nType="0">
          <Node pos="l" depth="2" NCoef="0" IVar="-1" Cut="0.0000000000000000e+00" cType="1" res="2.2068773978389800e-04" rms="4.8314592242240906e-01" purity="5.2117669582366943e-01" nType="-99"/>
          <Node pos="r" depth="2" NCoef="0" IVar="-1" Cut="0.0000000000000000e+00" cType="1" res="2.0287048537284136e-03" rms="4.6021407842636108e-01" purity="6.5762782096862793e-01" nType="-99"/>
        </Node>
      </Node>
    </BinaryTree>
    <BinaryTree type="DecisionTree" boostWeight="1.0000000000000000e+00" itree="130">
      <Node pos="s" depth="0" NCoef="0" IVar="3" Cut="2.4752101898193359e+00" cType="1" res="2.0823450759053230e-02" rms="4.7120434045791626e-01" purity="5.0647330284118652e-01" nType="0">
        <Node pos="l" depth="1" NCoef="0" IVar="1" Cut="-4.6746835112571716e-01" cType="1" res="5.3380597382783890e-02" rms="4.7047898173332214e-01" purity="5.5261898040771484e-01" nType="0">
          <Node pos="l" depth="2" NCoef="0" IVar="-1" Cut="0.0000000000000000e+00" cType="1" res="-4.4327604700811207e-04" rms="4.7496429085731506e-01" purity="3.5682949423789978e-01" nType="-99"/>
          <Node pos="r" depth="2" NCoef="0" IVar="-1" Cut="0.0000000000000000e+00" cType="1" res="1.7862821696326137e-03" rms="4.6510806679725647e-01" purity="6.4445894956588745e-01" nType="-99"/>
        </Node>
        <Node pos="r" depth="1" NCoef="0" IVar="1" Cut="6.2084764242172241e-01" cType="1" res="-2.7140937745571136e-02" rms="4.6816414594650269e-01" purity="4.3848988413810730e-01" nType="0">
          <Node pos="l" depth="2" NCoef="0" IVar="-1" Cut="0.0000000000000000e+00" cType="1" res="-2.1458282135426998e-03" rms="4.5685148239135742e-01" purity="3.1157305836677551e-01" nType="-99"/>
          <Node pos="r" depth="2" NCoef="0" IVar="-1" Cut="0.0000000000000000e+00" cType="1" res="3.2375767477788031e-04" rms="4.7962617874145508e-01" purity="6.0751289129257202e-01" nType="-99"/>
        </Node>
      </Node>
    </BinaryTree>
    <BinaryTree type="DecisionTree" boostWeight="1.0000000000000000e+00" itree="131">
      <Node pos="s" depth="0" NCoef="0" IVar="1" Cut="1.4984972476959229e+00" cType="1" res="4.1164094582200050e-03" rms="4.7060307860374451e-01" purity="4.8652800917625427e-01" nType="0">
        <Node pos="l" depth="1" NCoef="0" IVar="3" Cut="2.4159893989562988e+00" cType="1" res="-2.2076463326811790e-02" rms="4.7631797194480896e-01" purity="4.0712451934814453e-01" nType="0">
          <Node pos="l" depth="2" NCoef="0" IVar="-1" Cut="0.0000000000000000e+00" cType="1" res="3.5024635144509375e-04" rms="4.8463580012321472e-01" purity="4.5825856924057007e-01" nType="-99"/>
          <Node pos="r" depth="2" NCoef="0" IVar="-1" Cut="0.0000000000000000e+00" cType="1" res="-2.2799486760050058e-03" rms="4.6130311489105225e-01" purity="3.4055194258689880e-01" nType="-99"/>
        </Node>
        <Node pos="r" depth="1" NCoef="0" IVar="3" Cut="2.5626471042633057e+00" cType="1" res="8.0384522676467896e-02" rms="4.4485437870025635e-01" purity="7.1773427724838257e-01" nType="0">
          <Node pos="l" depth="2" NCoef="0" IVar="-1" Cut="0.0000000000000000e+00" cType="1" res="2.1246117539703846e-03" rms="4.2977631092071533e-01" purity="7.4954777956008911e-01" nType="-99"/>
          <Node pos="r" depth="2" NCoef="0" IVar="-1" Cut="0.0000000000000000e+00" cType="1" res="5.9167866129428148e-04" rms="4.6714878082275391e-01" purity="6.5818697214126587e-01" nType="-99"/>
        </Node>
      </Node>
    </BinaryTree>
    <BinaryTree type="DecisionTree" boostWeight="1.0000000000000000e+00" itree="132">
      <Node pos="s" depth="0" NCoef="0" IVar="1" Cut="-1.6880400478839874e-01" cType="1" res="1.2861594557762146e-02" rms="4.7010996937751770e-01" purity="4.9777707457542419e-01" nType="0">
        <Node pos="l" depth="1" NCoef="0" IVar="2" Cut="7.2680002450942993e-01" cType="1" res="-4.2750362306833267e-02" rms="4.5906168222427368e-01" purity="3.2110458612442017e-01" nType="0">
          <Node pos="l" depth="2" NCoef="0" IVar="-1" Cut="0.0000000000000000e+00" cType="1" res="-2.6012684684246778e-03" rms="4.4739425182342529e-01" purity="2.8707602620124817e-01" nType="-99"/>
          <Node pos="r" depth="2" NCoef="0" IVar="-1" Cut="0.0000000000000000e+00" cType="1" res="9.5547287492081523e-04" rms="4.8793530464172363e-01" purity="4.3312606215476990e-01" nType="-99"/>
        </Node>
        <Node pos="r" depth="1" NCoef="0" IVar="3" Cut="3.1841011047363281e+00" cType="1" res="4.8701129853725433e-02" rms="4.7364717721939087e-01" purity="6.1163496971130371e-01" nType="0">
          <Node pos="l" depth="2" NCoef="0" IVar="-1" Cut="0.0000000000000000e+00" cType="1" res="1.2855312088504434e-03" rms="4.7188159823417664e-01" purity="6.2646043300628662e-01" nType="-99"/>
          <Node pos="r" depth="2" NCoef="0" IVar="-1" Cut="0.0000000000000000e+00" cType="1" res="-1.6879301983863115e-03" rms="4.7665527462959290e-01" purity="4.6412914991378784e-01" nType="-99"/>
        </Node>
      </Node>
    </BinaryTree>
    <BinaryTree type="DecisionTree" boostWeight="1.0000000000000000e+00" itree="133">
      <Node pos="s" depth="0" NCoef="0" IVar="1" Cut="1.5297944545745850e+00" cType="1" res="1.3789135031402111e-02" rms="4.7110491991043091e-01" purity="4.9960568547248840e-01" nType="0">
        <Node pos="l" depth="1" NCoef="0" IVar="3" Cut="2.7733485698699951e+00" cType="1" res="-1.0088890790939331e-02" rms="4.7849324345588684e-01" purity="4.2110833525657654e-01" nType="0">
          <Node pos="l" depth="2" NCoef="0" IVar="-1" Cut="0.0000000000000000e+00" cType="1" res="3.3063293085433543e-04" rms="4.8328316211700439e-01" purity="4.5527887344360352e-01" nType="-99"/>
          <Node pos="r" depth="2" NCoef="0" IVar="-1" Cut="0.0000000000000000e+00" cType="1" res="-2.2933532018214464e-03" rms="4.6135601401329041e-01" purity="3.3442187309265137e-01" nType="-99"/>
        </Node>
        <Node pos="r" depth="1" NCoef="0" IVar="1" Cut="2.6879351139068604e+00" cType="1" res="8.1627748906612396e-02" rms="4.4247627258300781e-01" purity="7.2262048721313477e-01" nType="0">
          <Node pos="l" depth="2" NCoef="0" IVar="-1" Cut="0.0000000000000000e+00" cType="1" res="1.0896116727963090e-03" rms="4.6323218941688538e-01" purity="6.7921680212020874e-01" nType="-99"/>
          <Node pos="r" depth="2" NCoef="0" IVar="-1" Cut="0.0000000000000000e+00" cType="1" res="2.5472112465649843e-03" rms="3.9856958389282227e-01" purity="7.9863297939300537e-01" nType="-99"/>
        </Node>
      </Node>
    </BinaryTree>
    <BinaryTree type="DecisionTree" boostWeight="1.0000000000000000e+00" itree="134">
      <Node pos="s" depth="0" NCoef="0" IVar="1" Cut="2.1622526645660400e+00" cType="1" res="2.2119687870144844e-02" rms="4.6892923116683960e-01" purity="5.0963664054870605e-01" nType="0">
        <Node pos="l" depth="1" NCoef="0" IVar="3" Cut="2.4067049026489258e+00" cType="1" res="1.8615124281495810e-03" rms="4.7734481096267700e-01" purity="4.5671796798706055e-01" nType="0">
          <Node pos="l" depth="2" NCoef="0" IVar="-1" Cut="0.0000000000000000e+00" cType="1" res="1.0325917974114418e-03" rms="4.8401728272438049e-01" purity="5.1184970140457153e-01" nType="-99"/>
          <Node pos="r" depth="2" NCoef="0" IVar="-1" Cut="0.0000000000000000e+00" cType="1" res="-1.5697705093771219e-03" rms="4.6311795711517334e-01" purity="3.8325276970863342e-01" nType="-99"/>
        </Node>
        <Node pos="r" depth="1" NCoef="0" IVar="-1" Cut="0.0000000000000000e+00" cType="1" res="2.4969151709228754e-03" rms="4.0535748004913330e-01" purity="7.8873449563980103e-01" nType="-99"/>
      </Node>
    </BinaryTree>
    <BinaryTree type="DecisionTree" boostWeight="1.0000000000000000e+00" itree="135">
      <Node pos="s" depth="0" NCoef="0" IVar="1" Cut="1.6284029185771942e-01" cType="1" res="1.9231358543038368e-02" rms="4.7054329514503479e-01" purity="5.0547128915786743e-01" nType="0">
        <Node pos="l" depth="1" NCoef="0" IVar="3" Cut="1.5237979888916016e+00" cType="1" res="-2.4251854047179222e-02" rms="4.6833169460296631e-01" purity="3.5036304593086243e-01" nType="0">
          <Node pos="l" depth="2" NCoef="0" IVar="-1" Cut="0.0000000000000000e+00" cType="1" res="1.2514310656115413e-03" rms="4.9034899473190308e-01" purity="4.5032268762588501e-01" nType="-99"/>
          <Node pos="r" depth="2" NCoef="0" IVar="-1" Cut="0.0000000000000000e+00" cType="1" res="-1.6723152948543429e-03" rms="4.5896199345588684e-01" purity="3.1854006648063660e-01" nType="-99"/>
        </Node>
        <Node pos="r" depth="1" NCoef="0" IVar="2" Cut="7.1124625205993652e-01" cType="1" res="5.5566832423210144e-02" rms="4.6930357813835144e-01" purity="6.3508296012878418e-01" nType="0">
          <Node pos="l" depth="2" NCoef="0" IVar="-1" Cut="0.0000000000000000e+00" cType="1" res="7.2649616049602628e-04" rms="4.7897022962570190e-01" purity="6.0180562734603882e-01" nType="-99"/>
          <Node pos="r" depth="2" NCoef="0" IVar="-1" Cut="0.0000000000000000e+00" cType="1" res="2.5226036086678505e-03" rms="4.2785149812698364e-01" purity="7.4471181631088257e-01" nType="-99"/>
        </Node>
      </Node>
    </BinaryTree>
    <BinaryTree type="DecisionTree" boostWeight="1.0000000000000000e+00" itree="136">
      <Node pos="s" depth="0" NCoef="0" IVar="1" Cut="2.0798919200897217e+00" cType="1" res="2.0602552220225334e-02" rms="4.7092443704605103e-01" purity="5.0585556030273438e-01" nType="0">
        <Node pos="l" depth="1" NCoef="0" IVar="3" Cut="2.0800123214721680e+00" cType="1" res="3.4241925459355116e-03" rms="4.7844600677490234e-01" purity="4.5389604568481445e-01" nType="0">
          <Node pos="l" depth="2" NCoef="0" IVar="-1" Cut="0.0000000000000000e+00" cType="1" res="1.1246838839724660e-03" rms="4.8230984807014465e-01" purity="5.1884382963180542e-01" nType="-99"/>
          <Node pos="r" depth="2" NCoef="0" IVar="-1" Cut="0.0000000000000000e+00" cType="1" res="-8.6937862215563655e-04" rms="4.7290256619453430e-01" purity="4.0390050411224365e-01" nType="-99"/>
        </Node>
        <Node pos="r" depth="1" NCoef="0" IVar="3" Cut="2.2569019794464111e+00" cType="1" res="1.0599980503320694e-01" rms="4.2132171988487244e-01" purity="7.6415729522705078e-01" nType="0">
          <Node pos="l" depth="2" NCoef="0" IVar="-1" Cut="0.0000000000000000e+00" cType="1" res="2.5304751470685005e-03" rms="4.0146598219871521e-01" purity="7.9413414001464844e-01" nType="-99"/>
          <Node pos="r" depth="2" NCoef="0" IVar="-1" Cut="0.0000000000000000e+00" cType="1" res="1.4983377186581492e-03" rms="4.4228148460388184e-01" purity="7.2793149948120117e-01" nType="-99"/>
        </Node>
      </Node>
    </BinaryTree>
    <BinaryTree type="DecisionTree" boostWeight="1.0000000000000000e+00" itree="137">
      <Node pos="s" depth="0" NCoef="0" IVar="3" Cut="2.1598293781280518e+00" cType="1" res="1.8573274835944176e-02" rms="4.6936416625976562e-01" purity="5.0409245491027832e-01" nType="0">
        <Node pos="l" depth="1" NCoef="0" IVar="4" Cut="1.1940550231933594e+02" cType="1" res="6.3553489744663239e-02" rms="4.6882537007331848e-01" purity="5.7063639163970947e-01" nType="0">
          <Node pos="l" depth="2" NCoef="0" IVar="-1" Cut="0.0000000000000000e+00" cType="1" res="-6.5051915589720011e-04" rms="4.6886962652206421e-01" purity="4.5282578468322754e-01" nType="-99"/>
          <Node pos="r" depth="2" NCoef="0" IVar="-1" Cut="0.0000000000000000e+00" cType="1" res="2.1246119868010283e-03" rms="4.6470379829406738e-01" purity="6.1434966325759888e-01" nType="-99"/>
        </Node>
        <Node pos="r" depth="1" NCoef="0" IVar="1" Cut="1.7874493598937988e+00" cType="1" res="-2.2498613223433495e-02" rms="4.6607935428619385e-01" purity="4.4333052635192871e-01" nType="0">
          <Node pos="l" depth="2" NCoef="0" IVar="-1" Cut="0.0000000000000000e+00" cType="1" res="-1.4435742050409317e-03" rms="4.6803563833236694e-01" purity="3.7565344572067261e-01" nType="-99"/>
          <Node pos="r" depth="2" NCoef="0" IVar="-1" Cut="0.0000000000000000e+00" cType="1" res="1.4254020061343908e-03" rms="4.4613155722618103e-01" purity="7.1651113033294678e-01" nType="-99"/>
        </Node>
      </Node>
    </BinaryTree>
    <BinaryTree type="DecisionTree" boostWeight="1.0000000000000000e+00" itree="138">
      <Node pos="s" depth="0" NCoef="0" IVar="2" Cut="6.7173647880554199e-01" cType="1" res="1.3702350668609142e-02" rms="4.7024825215339661e-01" purity="5.0112259387969971e-01" nType="0">
        <Node pos="l" depth="1" NCoef="0" IVar="1" Cut="1.7874000072479248e+00" cType="1" res="-1.9855143502354622e-02" rms="4.7047352790832520e-01" purity="4.5402550697326660e-01" nType="0">
          <Node pos="l" depth="2" NCoef="0" IVar="-1" Cut="0.0000000000000000e+00" cType="1" res="-1.3151526218280196e-03" rms="4.7197142243385315e-01" purity="3.8441583514213562e-01" nType="-99"/>
          <Node pos="r" depth="2" NCoef="0" IVar="-1" Cut="0.0000000000000000e+00" cType="1" res="1.2275988701730967e-03" rms="4.5613676309585571e-01" purity="6.9841474294662476e-01" nType="-99"/>
        </Node>
        <Node pos="r" depth="1" NCoef="0" IVar="1" Cut="-7.0016008615493774e-01" cType="1" res="8.1001341342926025e-02" rms="4.6251583099365234e-01" purity="5.9557497501373291e-01" nType="0">
          <Node pos="l" depth="2" NCoef="0" IVar="-1" Cut="0.0000000000000000e+00" cType="1" res="3.7921537295915186e-04" rms="4.8547402024269104e-01" purity="3.8690581917762756e-01" nType="-99"/>
          <Node pos="r" depth="2" NCoef="0" IVar="-1" Cut="0.0000000000000000e+00" cType="1" res="2.2596723865717649e-03" rms="4.4868198037147522e-01" purity="6.8731021881103516e-01" nType="-99"/>
        </Node>
      </Node>
    </BinaryTree>
    <BinaryTree type="DecisionTree" boostWeight="1.0000000000000000e+00" itree="139">
      <Node pos="s" depth="0" NCoef="0" IVar="3" Cut="2.8916823863983154e+00" cType="1" res="1.0415822267532349e-02" rms="4.7112950682640076e-01" purity="4.9452316761016846e-01" nType="0">
        <Node pos="l" depth="1" NCoef="0" IVar="6" Cut="9.1885304450988770e-01" cType="1" res="2.9813932254910469e-02" rms="4.7346514463424683e-01" purity="5.2431029081344604e-01" nType="0">
          <Node pos="l" depth="2" NCoef="0" IVar="-1" Cut="0.0000000000000000e+00" cType="1" res="-2.2969867568463087e-03" rms="4.6820729970932007e-01" purity="4.0661641955375671e-01" nType="-99"/>
          <Node pos="r" depth="2" NCoef="0" IVar="-1" Cut="0.0000000000000000e+00" cType="1" res="1.0475730523467064e-03" rms="4.7244200110435486e-01" purity="5.3807646036148071e-01" nType="-99"/>
        </Node>
        <Node pos="r" depth="1" NCoef="0" IVar="2" Cut="5.6648963689804077e-01" cType="1" res="-5.6168008595705032e-02" rms="4.5679885149002075e-01" purity="3.9227935671806335e-01" nType="0">
          <Node pos="l" depth="2" NCoef="0" IVar="-1" Cut="0.0000000000000000e+00" cType="1" res="-4.0905340574681759e-03" rms="4.4358450174331665e-01" purity="3.1297135353088379e-01" nType="-99"/>
          <Node pos="r" depth="2" NCoef="0" IVar="-1" Cut="0.0000000000000000e+00" cType="1" res="8.6688465671613812e-05" rms="4.6186250448226929e-01" purity="4.7048860788345337e-01" nType="-99"/>
        </Node>
      </Node>
    </BinaryTree>
    <BinaryTree type="DecisionTree" boostWeight="1.0000000000000000e+00" itree="140">
      <Node pos="s" depth="0" NCoef="0" IVar="2" Cut="7.5989639759063721e-01" cType="1" res="2.0543741062283516e-02" rms="4.7111341357231140e-01" purity="5.0650370121002197e-01" nType="0">
        <Node pos="l" depth="1" NCoef="0" IVar="3" Cut="2.9721171855926514e+00" cType="1" res="5.0923009403049946e-03" rms="4.7216919064521790e-01" purity="4.8430904746055603e-01" nType="0">
          <Node pos="l" depth="2" NCoef="0" IVar="-1" Cut="0.0000000000000000e+00" cType="1" res="5.7841755915433168e-04" rms="4.7403928637504578e-01" purity="5.1169002056121826e-01" nType="-99"/>
          <Node pos="r" depth="2" NCoef="0" IVar="-1" Cut="0.0000000000000000e+00" cType="1" res="-2.0410346332937479e-03" rms="4.5813021063804626e-01" purity="3.7658727169036865e-01" nType="-99"/>
        </Node>
        <Node pos="r" depth="1" NCoef="0" IVar="1" Cut="-5.2872097492218018e-01" cType="1" res="1.0130981355905533e-01" rms="4.5713362097740173e-01" purity="6.2251740694046021e-01" nType="0">
          <Node pos="l" depth="2" NCoef="0" IVar="-1" Cut="0.0000000000000000e+00" cType="1" res="1.2340984540060163e-03" rms="4.9192422628402710e-01" purity="4.3096914887428284e-01" nType="-99"/>
          <Node pos="r" depth="2" NCoef="0" IVar="-1" Cut="0.0000000000000000e+00" cType="1" res="2.6415341999381781e-03" rms="4.3427187204360962e-01" purity="7.2391128540039062e-01" nType="-99"/>
        </Node>
      </Node>
    </BinaryTree>
    <BinaryTree type="DecisionTree" boostWeight="1.0000000000000000e+00" itree="141">
      <Node pos="s" depth="0" NCoef="0" IVar="1" Cut="-1.3924946784973145e+00" cType="1" res="1.9122596830129623e-02" rms="4.6937468647956848e-01" purity="5.0581169128417969e-01" nType="0">
        <Node pos="l" depth="1" NCoef="0" IVar="2" Cut="6.3035237789154053e-01" cType="1" res="-8.3891101181507111e-02" rms="4.2716372013092041e-01" purity="2.5078693032264709e-01" nType="0">
          <Node pos="l" depth="2" NCoef="0" IVar="-1" Cut="0.0000000000000000e+00" cType="1" res="-7.0937816053628922e-03" rms="3.8427880406379700e-01" purity="1.8434238433837891e-01" nType="-99"/>
          <Node pos="r" depth="2" NCoef="0" IVar="-1" Cut="0.0000000000000000e+00" cType="1" res="-1.5025222674012184e-03" rms="4.6333855390548706e-01" purity="3.1986925005912781e-01" nType="-99"/>
        </Node>
        <Node pos="r" depth="1" NCoef="0" IVar="1" Cut="2.4403495788574219e+00" cType="1" res="3.7754029035568237e-02" rms="4.7422647476196289e-01" purity="5.5193638801574707e-01" nType="0">
          <Node pos="l" depth="2" NCoef="0" IVar="-1" Cut="0.0000000000000000e+00" cType="1" res="5.7212542742490768e-04" rms="4.8335805535316467e-01" purity="5.1291525363922119e-01" nType="-99"/>
          <Node pos="r" depth="2" NCoef="0" IVar="-1" Cut="0.0000000000000000e+00" cType="1" res="2.4489751085639000e-03" rms="4.0076833963394165e-01" purity="7.9596376419067383e-01" nType="-99"/>
        </Node>
      </Node>
    </BinaryTree>
    <BinaryTree type="DecisionTree" boostWeight="1.0000000000000000e+00" itree="142">
      <Node pos="s" depth="0" NCoef="0" IVar="2" Cut="7.5784140825271606e-01" cType="1" res="9.8996013402938843e-03" rms="4.7116759419441223e-01" purity="4.9563810229301453e-01" nType="0">
        <Node pos="l" depth="1" NCoef="0" IVar="1" Cut="1.4279540777206421e+00" cType="1" res="-5.6145312264561653e-03" rms="4.7230076789855957e-01" purity="4.7260418534278870e-01" nType="0">
          <Node pos="l" depth="2" NCoef="0" IVar="-1" Cut="0.0000000000000000e+00" cType="1" res="-8.1720063462853432e-04" rms="4.7547978162765503e-01" purity="3.9282330870628357e-01" nType="-99"/>
          <Node pos="r" depth="2" NCoef="0" IVar="-1" Cut="0.0000000000000000e+00" cType="1" res="1.0708027984946966e-03" rms="4.5882850885391235e-01" purity="6.8617421388626099e-01" nType="-99"/>
        </Node>
        <Node pos="r" depth="1" NCoef="0" IVar="1" Cut="2.2146421670913696e-01" cType="1" res="8.8779531419277191e-02" rms="4.5729345083236694e-01" purity="6.1275154352188110e-01" nType="0">
          <Node pos="l" depth="2" NCoef="0" IVar="-1" Cut="0.0000000000000000e+00" cType="1" res="1.0263883741572499e-03" rms="4.9086442589759827e-01" purity="4.5489075779914856e-01" nType="-99"/>
          <Node pos="r" depth="2" NCoef="0" IVar="-1" Cut="0.0000000000000000e+00" cType="1" res="2.6619983837008476e-03" rms="4.1700768470764160e-01" purity="7.6266241073608398e-01" nType="-99"/>
        </Node>
      </Node>
    </BinaryTree>
    <BinaryTree type="DecisionTree" boostWeight="1.0000000000000000e+00" itree="143">
      <Node pos="s" depth="0" NCoef="0" IVar="1" Cut="-1.0338726639747620e-01" cType="1" res="1.9199827685952187e-02" rms="4.6936926245689392e-01" purity="5.0595086812973022e-01" nType="0">
        <Node pos="l" depth="1" NCoef="0" IVar="1" Cut="-1.6041268110275269e+00" cType="1" res="-2.8164509683847427e-02" rms="4.6472835540771484e-01" purity="3.3555889129638672e-01" nType="0">
          <Node pos="l" depth="2" NCoef="0" IVar="-1" Cut="0.0000000000000000e+00" cType="1" res="-3.7075916770845652e-03" rms="4.2960053682327271e-01" purity="2.5055652856826782e-01" nType="-99"/>
          <Node pos="r" depth="2" NCoef="0" IVar="-1" Cut="0.0000000000000000e+00" cType="1" res="-1.9845740462187678e-04" rms="4.7712895274162292e-01" purity="3.7156045436859131e-01" nType="-99"/>
        </Node>
        <Node pos="r" depth="1" NCoef="0" IVar="2" Cut="5.7776510715484619e-01" cType="1" res="5.1253091543912888e-02" rms="4.6978250145912170e-01" purity="6.2126165628433228e-01" nType="0">
          <Node pos="l" depth="2" NCoef="0" IVar="-1" Cut="0.0000000000000000e+00" cType="1" res="2.9871863080188632e-04" rms="4.8430368304252625e-01" purity="5.5801570415496826e-01" nType="-99"/>
          <Node pos="r" depth="2" NCoef="0" IVar="-1" Cut="0.0000000000000000e+00" cType="1" res="1.7925957217812538e-03" rms="4.5325192809104919e-01" purity="6.7918372154235840e-01" nType="-99"/>
        </Node>
      </Node>
    </BinaryTree>
    <BinaryTree type="DecisionTree" boostWeight="1.0000000000000000e+00" itree="144">
      <Node pos="s" depth="0" NCoef="0" IVar="1" Cut="2.2823452949523926e+00" cType="1" res="4.3362756259739399e-03" rms="4.7076898813247681e-01" purity="4.8993220925331116e-01" nType="0">
        <Node pos="l" depth="1" NCoef="0" IVar="3" Cut="1.7487698793411255e+00" cType="1" res="-1.0519644245505333e-02" rms="4.7650688886642456e-01" purity="4.4637095928192139e-01" nType="0">
          <Node pos="l" depth="2" NCoef="0" IVar="-1" Cut="0.0000000000000000e+00" cType="1" res="1.0286478791385889e-03" rms="4.8013591766357422e-01" purity="5.2866297960281372e-01" nType="-99"/>
          <Node pos="r" depth="2" NCoef="0" IVar="-1" Cut="0.0000000000000000e+00" cType="1" res="-1.0447060922160745e-03" rms="4.7277510166168213e-01" purity="4.0765714645385742e-01" nType="-99"/>
        </Node>
        <Node pos="r" depth="1" NCoef="0" IVar="-1" Cut="0.0000000000000000e+00" cType="1" res="1.9403134938329458e-03" rms="4.2085894942283630e-01" purity="7.6492869853973389e-01" nType="-99"/>
      </Node>
    </BinaryTree>
    <BinaryTree type="DecisionTree" boostWeight="1.0000000000000000e+00" itree="145">
      <Node pos="s" depth="0" NCoef="0" IVar="3" Cut="1.7982735633850098e+00" cType="1" res="1.3921799138188362e-02" rms="4.7013464570045471e-01" purity="4.9887612462043762e-01" nType="0">
        <Node pos="l" depth="1" NCoef="0" IVar="1" Cut="-1.0227639675140381e+00" cType="1" res="6.7438103258609772e-02" rms="4.6906644105911255e-01" purity="5.7928913831710815e-01" nType="0">
          <Node pos="l" depth="2" NCoef="0" IVar="-1" Cut="0.0000000000000000e+00" cType="1" res="-9.4862148398533463e-04" rms="4.6848544478416443e-01" purity="3.3770099282264709e-01" nType="-99"/>
          <Node pos="r" depth="2" NCoef="0" IVar="-1" Cut="0.0000000000000000e+00" cType="1" res="1.9392333924770355e-03" rms="4.6633601188659668e-01" purity="6.3903844356536865e-01" nType="-99"/>
        </Node>
        <Node pos="r" depth="1" NCoef="0" IVar="2" Cut="7.4603784084320068e-01" cType="1" res="-1.4885299839079380e-02" rms="4.6818280220031738e-01" purity="4.5559087395668030e-01" nType="0">
          <Node pos="l" depth="2" NCoef="0" IVar="-1" Cut="0.0000000000000000e+00" cType="1" res="-9.6615805523470044e-04" rms="4.6696379780769348e-01" purity="4.2814239859580994e-01" nType="-99"/>
          <Node pos="r" depth="2" NCoef="0" IVar="-1" Cut="0.0000000000000000e+00" cType="1" res="1.7236683052033186e-03" rms="4.6382141113281250e-01" purity="5.8634543418884277e-01" nType="-99"/>
        </Node>
      </Node>
    </BinaryTree>
    <BinaryTree type="DecisionTree" boostWeight="1.0000000000000000e+00" itree="146">
      <Node pos="s" depth="0" NCoef="0" IVar="1" Cut="-1.5158912539482117e-01" cType="1" res="1.1231590993702412e-02" rms="4.7104892134666443e-01" purity="4.9757710099220276e-01" nType="0">
        <Node pos="l" depth="1" NCoef="0" IVar="3" Cut="1.3460801839828491e+00" cType="1" res="-3.3578831702470779e-02" rms="4.6235191822052002e-01" purity="3.2825070619583130e-01" nType="0">
          <Node pos="l" depth="2" NCoef="0" IVar="-1" Cut="0.0000000000000000e+00" cType="1" res="1.1073935311287642e-03" rms="4.9095275998115540e-01" purity="4.3338298797607422e-01" nType="-99"/>
          <Node pos="r" depth="2" NCoef="0" IVar="-1" Cut="0.0000000000000000e+00" cType="1" res="-1.9609662704169750e-03" rms="4.5353734493255615e-01" purity="3.0290916562080383e-01" nType="-99"/>
        </Node>
        <Node pos="r" depth="1" NCoef="0" IVar="2" Cut="5.8936369419097900e-01" cType="1" res="4.0182366967201233e-02" rms="4.7433778643608093e-01" purity="6.0697424411773682e-01" nType="0">
          <Node pos="l" depth="2" NCoef="0" IVar="-1" Cut="0.0000000000000000e+00" cType="1" res="9.6495874458923936e-05" rms="4.8512405157089233e-01" purity="5.4876333475112915e-01" nType="-99"/>
          <Node pos="r" depth="2" NCoef="0" IVar="-1" Cut="0.0000000000000000e+00" cType="1" res="1.6346680931746960e-03" rms="4.5978999137878418e-01" purity="6.6778892278671265e-01" nType="-99"/>
        </Node>
      </Node>
    </BinaryTree>
    <BinaryTree type="DecisionTree" boostWeight="1.0000000000000000e+00" itree="147">
      <Node pos="s" depth="0" NCoef="0" IVar="7" Cut="2.8470687568187714e-02" cType="1" res="1.2840554118156433e-02" rms="4.7240692377090454e-01" purity="4.9710389971733093e-01" nType="0">
        <Node pos="l" depth="1" NCoef="0" IVar="1" Cut="-3.8296341896057129e-02" cType="1" res="4.8377085477113724e-02" rms="4.6977415680885315e-01" purity="5.4610633850097656e-01" nType="0">
          <Node pos="l" depth="2" NCoef="0" IVar="-1" Cut="0.0000000000000000e+00" cType="1" res="2.8798083076253533e-04" rms="4.8038700222969055e-01" purity="3.8564121723175049e-01" nType="-99"/>
          <Node pos="r" depth="2" NCoef="0" IVar="-1" Cut="0.0000000000000000e+00" cType="1" res="1.6262368299067020e-03" rms="4.5943391323089600e-01" purity="6.6653096675872803e-01" nType="-99"/>
        </Node>
        <Node pos="r" depth="1" NCoef="0" IVar="3" Cut="3.2014451026916504e+00" cType="1" res="-1.7962779849767685e-02" rms="4.7251981496810913e-01" purity="4.5462819933891296e-01" nType="0">
          <Node pos="l" depth="2" NCoef="0" IVar="-1" Cut="0.0000000000000000e+00" cType="1" res="-1.1552395881153643e-04" rms="4.7559720277786255e-01" purity="4.7517538070678711e-01" nType="-99"/>
          <Node pos="r" depth="2" NCoef="0" IVar="-1" Cut="0.0000000000000000e+00" cType="1" res="-4.4079008512198925e-03" rms="4.3648922443389893e-01" purity="3.0414330959320068e-01" nType="-99"/>
        </Node>
      </Node>
    </BinaryTree>
    <BinaryTree type="DecisionTree" boostWeight="1.0000000000000000e+00" itree="148">
      <Node pos="s" depth="0" NCoef="0" IVar="1" Cut="1.3683356046676636e+00" cType="1" res="2.1346466615796089e-02" rms="4.6823069453239441e-01" purity="5.0871175527572632e-01" nType="0">
        <Node pos="l" depth="1" NCoef="0" IVar="3" Cut="1.9223552942276001e+00" cType="1" res="-5.7096192613244057e-03" rms="4.7778722643852234e-01" purity="4.1831403970718384e-01" nType="0">
          <Node pos="l" depth="2" NCoef="0" IVar="-1" Cut="0.0000000000000000e+00" cType="1" res="1.0756414849311113e-03" rms="4.8532950878143311e-01" purity="4.9392953515052795e-01" nType="-99"/>
          <Node pos="r" depth="2" NCoef="0" IVar="-1" Cut="0.0000000000000000e+00" cType="1" res="-1.1175735853612423e-03" rms="4.7065594792366028e-01" purity="3.7167885899543762e-01" nType="-99"/>
        </Node>
        <Node pos="r" depth="1" NCoef="0" IVar="0" Cut="1.6137619018554688e+02" cType="1" res="8.7493225932121277e-02" rms="4.3700379133224487e-01" purity="7.2971630096435547e-01" nType="0">
          <Node pos="l" depth="2" NCoef="0" IVar="-1" Cut="0.0000000000000000e+00" cType="1" res="2.2355495020747185e-03" rms="4.2159211635589600e-01" purity="7.6096242666244507e-01" nType="-99"/>
          <Node pos="r" depth="2" NCoef="0" IVar="-1" Cut="0.0000000000000000e+00" cType="1" res="8.8081066496670246e-04" rms="4.5689138770103455e-01" purity="6.7985725402832031e-01" nType="-99"/>
        </Node>
      </Node>
    </BinaryTree>
    <BinaryTree type="DecisionTree" boostWeight="1.0000000000000000e+00" itree="149">
      <Node pos="s" depth="0" NCoef="0" IVar="1" Cut="2.2244732379913330e+00" cType="1" res="1.4922212809324265e-02" rms="4.7128468751907349e-01" purity="5.0066763162612915e-01" nType="0">
        <Node pos="l" depth="1" NCoef="0" IVar="3" Cut="1.5451327562332153e+00" cType="1" res="6.3877739012241364e-04" rms="4.7820276021957397e-01" purity="4.5532211661338806e-01" nType="0">
          <Node pos="l" depth="2" NCoef="0" IVar="-1" Cut="0.0000000000000000e+00" cType="1" res="1.3900746125727892e-03" rms="4.8216131329536438e-01" purity="5.4611176252365112e-01" nType="-99"/>
          <Node pos="r" depth="2" NCoef="0" IVar="-1" Cut="0.0000000000000000e+00" cType="1" res="-5.6866771774366498e-04" rms="4.7513628005981445e-01" purity="4.2316719889640808e-01" nType="-99"/>
        </Node>
        <Node pos="r" depth="1" NCoef="0" IVar="-1" Cut="0.0000000000000000e+00" cType="1" res="1.9754683598875999e-03" rms="4.1824319958686829e-01" purity="7.6880627870559692e-01" nType="-99"/>
      </Node>
    </BinaryTree>
    <BinaryTree type="DecisionTree" boostWeight="1.0000000000000000e+00" itree="150">
      <Node pos="s" depth="0" NCoef="0" IVar="4" Cut="1.6616281127929688e+02" cType="1" res="1.4953040517866611e-02" rms="4.6945181488990784e-01" purity="5.0229638814926147e-01" nType="0">
        <Node pos="l" depth="1" NCoef="0" IVar="9" Cut="1.2700439989566803e-01" cType="1" res="-1.8960617482662201e-02" rms="4.6775978803634644e-01" purity="4.4903552532196045e-01" nType="0">
          <Node pos="l" depth="2" NCoef="0" IVar="-1" Cut="0.0000000000000000e+00" cType="1" res="-1.6242103883996606e-03" rms="4.6393653750419617e-01" purity="4.0459707379341125e-01" nType="-99"/>
          <Node pos="r" depth="2" NCoef="0" IVar="-1" Cut="0.0000000000000000e+00" cType="1" res="1.0728617198765278e-03" rms="4.6801018714904785e-01" purity="5.2506113052368164e-01" nType="-99"/>
        </Node>
        <Node pos="r" depth="1" NCoef="0" IVar="1" Cut="-1.4785156250000000e+00" cType="1" res="5.4749019443988800e-02" rms="4.6830812096595764e-01" purity="5.6479525566101074e-01" nType="0">
          <Node pos="l" depth="2" NCoef="0" IVar="-1" Cut="0.0000000000000000e+00" cType="1" res="-2.9467497952282429e-03" rms="4.4245538115501404e-01" purity="2.7353075146675110e-01" nType="-99"/>
          <Node pos="r" depth="2" NCoef="0" IVar="-1" Cut="0.0000000000000000e+00" cType="1" res="1.5933200484141707e-03" rms="4.6923786401748657e-01" purity="6.0389983654022217e-01" nType="-99"/>
        </Node>
      </Node>
    </BinaryTree>
    <BinaryTree type="DecisionTree" boostWeight="1.0000000000000000e+00" itree="151">
      <Node pos="s" depth="0" NCoef="0" IVar="3" Cut="1.7372485399246216e+00" cType="1" res="1.0715278796851635e-02" rms="4.7052279114723206e-01" purity="4.9583438038825989e-01" nType="0">
        <Node pos="l" depth="1" NCoef="0" IVar="0" Cut="9.2502136230468750e+01" cType="1" res="6.6081561148166656e-02" rms="4.7039952874183655e-01" purity="5.7916706800460815e-01" nType="0">
          <Node pos="l" depth="2" NCoef="0" IVar="-1" Cut="0.0000000000000000e+00" cType="1" res="1.0012675920734182e-04" rms="4.7689151763916016e-01" purity="5.0710445642471313e-01" nType="-99"/>
          <Node pos="r" depth="2" NCoef="0" IVar="-1" Cut="0.0000000000000000e+00" cType="1" res="2.7083128225058317e-03" rms="4.5636844635009766e-01" purity="6.4767545461654663e-01" nType="-99"/>
        </Node>
        <Node pos="r" depth="1" NCoef="0" IVar="1" Cut="1.9372427463531494e+00" cType="1" res="-1.6247276216745377e-02" rms="4.6821829676628113e-01" purity="4.5525264739990234e-01" nType="0">
          <Node pos="l" depth="2" NCoef="0" IVar="-1" Cut="0.0000000000000000e+00" cType="1" res="-9.9971727468073368e-04" rms="4.7166278958320618e-01" purity="3.9788636565208435e-01" nType="-99"/>
          <Node pos="r" depth="2" NCoef="0" IVar="-1" Cut="0.0000000000000000e+00" cType="1" res="1.2376817176118493e-03" rms="4.4398128986358643e-01" purity="7.2007960081100464e-01" nType="-99"/>
        </Node>
      </Node>
    </BinaryTree>
    <BinaryTree type="DecisionTree" boostWeight="1.0000000000000000e+00" itree="152">
      <Node pos="s" depth="0" NCoef="0" IVar="1" Cut="2.5369706153869629e+00" cType="1" res="1.2457412667572498e-02" rms="4.6915477514266968e-01" purity="4.9940910935401917e-01" nType="0">
        <Node pos="l" depth="1" NCoef="0" IVar="3" Cut="3.0317442417144775e+00" cType="1" res="-8.7018357589840889e-04" rms="4.7542926669120789e-01" purity="4.6302780508995056e-01" nType="0">
          <Node pos="l" depth="2" NCoef="0" IVar="-1" Cut="0.0000000000000000e+00" cType="1" res="3.5953457700088620e-04" rms="4.7893178462982178e-01" purity="4.8596516251564026e-01" nType="-99"/>
          <Node pos="r" depth="2" NCoef="0" IVar="-1" Cut="0.0000000000000000e+00" cType="1" res="-2.5231936015188694e-03" rms="4.4939449429512024e-01" purity="3.4453192353248596e-01" nType="-99"/>
        </Node>
        <Node pos="r" depth="1" NCoef="0" IVar="-1" Cut="0.0000000000000000e+00" cType="1" res="2.3534656502306461e-03" rms="3.9716178178787231e-01" purity="7.9922401905059814e-01" nType="-99"/>
      </Node>
    </BinaryTree>
    <BinaryTree type="DecisionTree" boostWeight="1.0000000000000000e+00" itree="153">
      <Node pos="s" depth="0" NCoef="0" IVar="1" Cut="2.2876415252685547e+00" cType="1" res="2.0768010988831520e-02" rms="4.6988901495933533e-01" purity="5.0747150182723999e-01" nType="0">
        <Node pos="l" depth="1" NCoef="0" IVar="3" Cut="3.1993575096130371e+00" cType="1" res="7.4522471986711025e-03" rms="4.7702580690383911e-01" purity="4.6456101536750793e-01" nType="0">
          <Node pos="l" depth="2" NCoef="0" IVar="-1" Cut="0.0000000000000000e+00" cType="1" res="4.6943296911194921e-04" rms="4.7939673066139221e-01" purity="4.8088961839675903e-01" nType="-99"/>
          <Node pos="r" depth="2" NCoef="0" IVar="-1" Cut="0.0000000000000000e+00" cType="1" res="-3.0824688728898764e-03" rms="4.4370085000991821e-01" purity="3.1548112630844116e-01" nType="-99"/>
        </Node>
        <Node pos="r" depth="1" NCoef="0" IVar="-1" Cut="0.0000000000000000e+00" cType="1" res="2.0724262576550245e-03" rms="4.1261717677116394e-01" purity="7.7693319320678711e-01" nType="-99"/>
      </Node>
    </BinaryTree>
    <BinaryTree type="DecisionTree" boostWeight="1.0000000000000000e+00" itree="154">
      <Node pos="s" depth="0" NCoef="0" IVar="2" Cut="6.5090435743331909e-01" cType="1" res="1.2305933050811291e-02" rms="4.7102943062782288e-01" purity="4.9806767702102661e-01" nType="0">
        <Node pos="l" depth="1" NCoef="0" IVar="4" Cut="9.0718513488769531e+01" cType="1" res="-1.5455385670065880e-02" rms="4.7214359045028687e-01" purity="4.5240262150764465e-01" nType="0">
          <Node pos="l" depth="2" NCoef="0" IVar="-1" Cut="0.0000000000000000e+00" cType="1" res="-3.8251376245170832e-03" rms="4.4362738728523254e-01" purity="3.2142272591590881e-01" nType="-99"/>
          <Node pos="r" depth="2" NCoef="0" IVar="-1" Cut="0.0000000000000000e+00" cType="1" res="-7.4005947681143880e-05" rms="4.7452962398529053e-01" purity="4.7042468190193176e-01" nType="-99"/>
        </Node>
        <Node pos="r" depth="1" NCoef="0" IVar="1" Cut="-1.6606738567352295e+00" cType="1" res="5.9415794909000397e-02" rms="4.6535822749137878e-01" purity="5.7555949687957764e-01" nType="0">
          <Node pos="l" depth="2" NCoef="0" IVar="-1" Cut="0.0000000000000000e+00" cType="1" res="-1.2429906055331230e-03" rms="4.6589428186416626e-01" purity="3.2307922840118408e-01" nType="-99"/>
          <Node pos="r" depth="2" NCoef="0" IVar="-1" Cut="0.0000000000000000e+00" cType="1" res="1.6674408689141273e-03" rms="4.6357586979866028e-01" purity="6.1639606952667236e-01" nType="-99"/>
        </Node>
      </Node>
    </BinaryTree>
    <BinaryTree type="DecisionTree" boostWeight="1.0000000000000000e+00" itree="155">
      <Node pos="s" depth="0" NCoef="0" IVar="1" Cut="2.0715761184692383e+00" cType="1" res="1.7048412933945656e-02" rms="4.6844118833541870e-01" purity="5.0523072481155396e-01" nType="0">
        <Node pos="l" depth="1" NCoef="0" IVar="2" Cut="7.7370178699493408e-01" cType="1" res="-9.5068110385909677e-04" rms="4.7651723027229309e-01" purity="4.5056185126304626e-01" nType="0">
          <Node pos="l" depth="2" NCoef="0" IVar="-1" Cut="0.0000000000000000e+00" cType="1" res="-4.7227478353306651e-04" rms="4.7526055574417114e-01" purity="4.2920082807540894e-01" nType="-99"/>
          <Node pos="r" depth="2" NCoef="0" IVar="-1" Cut="0.0000000000000000e+00" cType="1" res="2.2506427485495806e-03" rms="4.7276923060417175e-01" purity="5.8326375484466553e-01" nType="-99"/>
        </Node>
        <Node pos="r" depth="1" NCoef="0" IVar="7" Cut="4.7044347971677780e-02" cType="1" res="1.0532354563474655e-01" rms="4.1548472642898560e-01" purity="7.7335011959075928e-01" nType="0">
          <Node pos="l" depth="2" NCoef="0" IVar="-1" Cut="0.0000000000000000e+00" cType="1" res="2.5120645295828581e-03" rms="3.9127719402313232e-01" purity="8.0917620658874512e-01" nType="-99"/>
          <Node pos="r" depth="2" NCoef="0" IVar="-1" Cut="0.0000000000000000e+00" cType="1" res="1.5389126492664218e-03" rms="4.4121313095092773e-01" purity="7.3026019334793091e-01" nType="-99"/>
        </Node>
      </Node>
    </BinaryTree>
    <BinaryTree type="DecisionTree" boostWeight="1.0000000000000000e+00" itree="156">
      <Node pos="s" depth="0" NCoef="0" IVar="1" Cut="-4.2940524220466614e-01" cType="1" res="1.5249054878950119e-02" rms="4.7016727924346924e-01" purity="5.0194686651229858e-01" nType="0">
        <Node pos="l" depth="1" NCoef="0" IVar="4" Cut="1.6982083129882812e+02" cType="1" res="-3.2871350646018982e-02" rms="4.5838204026222229e-01" purity="3.1643638014793396e-01" nType="0">
          <Node pos="l" depth="2" NCoef="0" IVar="-1" Cut="0.0000000000000000e+00" cType="1" res="-2.3642689920961857e-03" rms="4.4572567939758301e-01" purity="2.8009951114654541e-01" nType="-99"/>
          <Node pos="r" depth="2" NCoef="0" IVar="-1" Cut="0.0000000000000000e+00" cType="1" res="1.9470581901259720e-04" rms="4.7468876838684082e-01" purity="3.7255856394767761e-01" nType="-99"/>
        </Node>
        <Node pos="r" depth="1" NCoef="0" IVar="4" Cut="1.3176606750488281e+02" cType="1" res="3.9577070623636246e-02" rms="4.7415950894355774e-01" purity="5.9573453664779663e-01" nType="0">
          <Node pos="l" depth="2" NCoef="0" IVar="-1" Cut="0.0000000000000000e+00" cType="1" res="-1.8578472372610122e-04" rms="4.7966545820236206e-01" purity="5.3207981586456299e-01" nType="-99"/>
          <Node pos="r" depth="2" NCoef="0" IVar="-1" Cut="0.0000000000000000e+00" cType="1" res="1.3623724225908518e-03" rms="4.6960428357124329e-01" purity="6.2754344940185547e-01" nType="-99"/>
        </Node>
      </Node>
    </BinaryTree>
    <BinaryTree type="DecisionTree" boostWeight="1.0000000000000000e+00" itree="157">
      <Node pos="s" depth="0" NCoef="0" IVar="1" Cut="2.0264480113983154e+00" cType="1" res="1.0309142991900444e-02" rms="4.7204753756523132e-01" purity="4.9663427472114563e-01" nType="0">
        <Node pos="l" depth="1" NCoef="0" IVar="6" Cut="9.4057285785675049e-01" cType="1" res="-4.5301085337996483e-03" rms="4.7911548614501953e-01" purity="4.4354131817817688e-01" nType="0">
          <Node pos="l" depth="2" NCoef="0" IVar="-1" Cut="0.0000000000000000e+00" cType="1" res="-1.4253819826990366e-03" rms="4.7375294566154480e-01" purity="3.9715430140495300e-01" nType="-99"/>
          <Node pos="r" depth="2" NCoef="0" IVar="-1" Cut="0.0000000000000000e+00" cType="1" res="3.9418871165253222e-04" rms="4.8021137714385986e-01" purity="4.6375578641891479e-01" nType="-99"/>
        </Node>
        <Node pos="r" depth="1" NCoef="0" IVar="4" Cut="1.6475305175781250e+02" cType="1" res="8.0632552504539490e-02" rms="4.3009382486343384e-01" purity="7.4824279546737671e-01" nType="0">
          <Node pos="l" depth="2" NCoef="0" IVar="-1" Cut="0.0000000000000000e+00" cType="1" res="1.0594045743346214e-03" rms="4.4593065977096558e-01" purity="7.1532058715820312e-01" nType="-99"/>
          <Node pos="r" depth="2" NCoef="0" IVar="-1" Cut="0.0000000000000000e+00" cType="1" res="2.1266753319650888e-03" rms="4.1397449374198914e-01" purity="7.7694749832153320e-01" nType="-99"/>
        </Node>
      </Node>
    </BinaryTree>
    <BinaryTree type="DecisionTree" boostWeight="1.0000000000000000e+00" itree="158">
      <Node pos="s" depth="0" NCoef="0" IVar="1" Cut="8.4329092502593994e-01" cType="1" res="9.6688289195299149e-03" rms="4.6710717678070068e-01" purity="4.9757143855094910e-01" nType="0">
        <Node pos="l" depth="1" NCoef="0" IVar="2" Cut="7.4305623769760132e-01" cType="1" res="-2.3445302620530128e-02" rms="4.7135183215141296e-01" purity="3.7610864639282227e-01" nType="0">
          <Node pos="l" depth="2" NCoef="0" IVar="-1" Cut="0.0000000000000000e+00" cType="1" res="-1.3319728896021843e-03" rms="4.6530765295028687e-01" purity="3.5079926252365112e-01" nType="-99"/>
          <Node pos="r" depth="2" NCoef="0" IVar="-1" Cut="0.0000000000000000e+00" cType="1" res="1.2484157923609018e-03" rms="4.9031111598014832e-01" purity="4.8570156097412109e-01" nType="-99"/>
        </Node>
        <Node pos="r" depth="1" NCoef="0" IVar="2" Cut="6.0639268159866333e-01" cType="1" res="5.9810496866703033e-02" rms="4.5605126023292542e-01" purity="6.8149125576019287e-01" nType="0">
          <Node pos="l" depth="2" NCoef="0" IVar="-1" Cut="0.0000000000000000e+00" cType="1" res="4.4152073678560555e-04" rms="4.7731041908264160e-01" purity="6.1961811780929565e-01" nType="-99"/>
          <Node pos="r" depth="2" NCoef="0" IVar="-1" Cut="0.0000000000000000e+00" cType="1" res="2.0835937466472387e-03" rms="4.2564380168914795e-01" purity="7.5316721200942993e-01" nType="-99"/>
        </Node>
      </Node>
    </BinaryTree>
    <BinaryTree type="DecisionTree" boostWeight="1.0000000000000000e+00" itree="159">
      <Node pos="s" depth="0" NCoef="0" IVar="2" Cut="6.0342848300933838e-01" cType="1" res="1.4666654169559479e-02" rms="4.7004720568656921e-01" purity="5.0128513574600220e-01" nType="0">
        <Node pos="l" depth="1" NCoef="0" IVar="3" Cut="2.6758542060852051e+00" cType="1" res="-1.8323743715882301e-02" rms="4.7112861275672913e-01" purity="4.4629642367362976e-01" nType="0">
          <Node pos="l" depth="2" NCoef="0" IVar="-1" Cut="0.0000000000000000e+00" cType="1" res="2.0935403881594539e-04" rms="4.7521296143531799e-01" purity="4.8789194226264954e-01" nType="-99"/>
          <Node pos="r" depth="2" NCoef="0" IVar="-1" Cut="0.0000000000000000e+00" cType="1" res="-2.2018726449459791e-03" rms="4.5911860466003418e-01" purity="3.6713159084320068e-01" nType="-99"/>
        </Node>
        <Node pos="r" depth="1" NCoef="0" IVar="1" Cut="9.0561258792877197e-01" cType="1" res="4.9759857356548309e-02" rms="4.6633937954902649e-01" purity="5.5977886915206909e-01" nType="0">
          <Node pos="l" depth="2" NCoef="0" IVar="-1" Cut="0.0000000000000000e+00" cType="1" res="6.5490865381434560e-04" rms="4.8519214987754822e-01" purity="4.4731423258781433e-01" nType="-99"/>
          <Node pos="r" depth="2" NCoef="0" IVar="-1" Cut="0.0000000000000000e+00" cType="1" res="1.8638054607436061e-03" rms="4.2985433340072632e-01" purity="7.4591368436813354e-01" nType="-99"/>
        </Node>
      </Node>
    </BinaryTree>
    <BinaryTree type="DecisionTree" boostWeight="1.0000000000000000e+00" itree="160">
      <Node pos="s" depth="0" NCoef="0" IVar="1" Cut="2.1739051342010498e+00" cType="1" res="1.3639894314110279e-02" rms="4.7053134441375732e-01" purity="5.0131791830062866e-01" nType="0">
        <Node pos="l" depth="1" NCoef="0" IVar="2" Cut="5.7504588365554810e-01" cType="1" res="-5.4976821411401033e-04" rms="4.7787910699844360e-01" purity="4.5324006676673889e-01" nType="0">
          <Node pos="l" depth="2" NCoef="0" IVar="-1" Cut="0.0000000000000000e+00" cType="1" res="-9.6767791546881199e-04" rms="4.7336468100547791e-01" purity="4.0087106823921204e-01" nType="-99"/>
          <Node pos="r" depth="2" NCoef="0" IVar="-1" Cut="0.0000000000000000e+00" cType="1" res="6.7908671917393804e-04" rms="4.8004212975502014e-01" purity="4.9791237711906433e-01" nType="-99"/>
        </Node>
        <Node pos="r" depth="1" NCoef="0" IVar="-1" Cut="0.0000000000000000e+00" cType="1" res="1.8396696541458368e-03" rms="4.1937622427940369e-01" purity="7.6573276519775391e-01" nType="-99"/>
      </Node>
    </BinaryTree>
    <BinaryTree type="DecisionTree" boostWeight="1.0000000000000000e+00" itree="161">
      <Node pos="s" depth="0" NCoef="0" IVar="2" Cut="7.5654900074005127e-01" cType="1" res="1.7292888835072517e-02" rms="4.6982294321060181e-01" purity="5.0439959764480591e-01" nType="0">
        <Node pos="l" depth="1" NCoef="0" IVar="1" Cut="2.4242343902587891e+00" cType="1" res="2.9887109994888306e-03" rms="4.7180083394050598e-01" purity="4.8096528649330139e-01" nType="0">
          <Node pos="l" depth="2" NCoef="0" IVar="-1" Cut="0.0000000000000000e+00" cType="1" res="-2.3420981597155333e-04" rms="4.7655344009399414e-01" purity="4.4339886307716370e-01" nType="-99"/>
          <Node pos="r" depth="2" NCoef="0" IVar="-1" Cut="0.0000000000000000e+00" cType="1" res="1.7304253997281194e-03" rms="4.2554932832717896e-01" purity="7.5925445556640625e-01" nType="-99"/>
        </Node>
        <Node pos="r" depth="1" NCoef="0" IVar="1" Cut="-6.2023168802261353e-01" cType="1" res="8.7388575077056885e-02" rms="4.5353168249130249e-01" purity="6.1923629045486450e-01" nType="0">
          <Node pos="l" depth="2" NCoef="0" IVar="-1" Cut="0.0000000000000000e+00" cType="1" res="1.1496315710246563e-04" rms="4.8310458660125732e-01" purity="3.9242336153984070e-01" nType="-99"/>
          <Node pos="r" depth="2" NCoef="0" IVar="-1" Cut="0.0000000000000000e+00" cType="1" res="2.5541244540363550e-03" rms="4.3365409970283508e-01" purity="7.2456723451614380e-01" nType="-99"/>
        </Node>
      </Node>
    </BinaryTree>
    <BinaryTree type="DecisionTree" boostWeight="1.0000000000000000e+00" itree="162">
      <Node pos="s" depth="0" NCoef="0" IVar="1" Cut="-2.0891508460044861e-01" cType="1" res="1.2342200614511967e-02" rms="4.6946403384208679e-01" purity="5.0040209293365479e-01" nType="0">
        <Node pos="l" depth="1" NCoef="0" IVar="1" Cut="-1.9251172542572021e+00" cType="1" res="-3.0883736908435822e-02" rms="4.6151769161224365e-01" purity="3.2624837756156921e-01" nType="0">
          <Node pos="l" depth="2" NCoef="0" IVar="-1" Cut="0.0000000000000000e+00" cType="1" res="-5.0694006495177746e-03" rms="4.1597026586532593e-01" purity="2.2724997997283936e-01" nType="-99"/>
          <Node pos="r" depth="2" NCoef="0" IVar="-1" Cut="0.0000000000000000e+00" cType="1" res="-4.4355873251333833e-04" rms="4.7095653414726257e-01" purity="3.5183930397033691e-01" nType="-99"/>
        </Node>
        <Node pos="r" depth="1" NCoef="0" IVar="2" Cut="7.5877052545547485e-01" cType="1" res="3.8583178073167801e-02" rms="4.7229716181755066e-01" purity="6.0612481832504272e-01" nType="0">
          <Node pos="l" depth="2" NCoef="0" IVar="-1" Cut="0.0000000000000000e+00" cType="1" res="4.7967548016458750e-04" rms="4.7944837808609009e-01" purity="5.7933115959167480e-01" nType="-99"/>
          <Node pos="r" depth="2" NCoef="0" IVar="-1" Cut="0.0000000000000000e+00" cType="1" res="2.6693991385400295e-03" rms="4.1834694147109985e-01" purity="7.5230139493942261e-01" nType="-99"/>
        </Node>
      </Node>
    </BinaryTree>
    <BinaryTree type="DecisionTree" boostWeight="1.0000000000000000e+00" itree="163">
      <Node pos="s" depth="0" NCoef="0" IVar="1" Cut="2.4711561203002930e+00" cType="1" res="1.5243290923535824e-02" rms="4.6815046668052673e-01" purity="5.0364822149276733e-01" nType="0">
        <Node pos="l" depth="1" NCoef="0" IVar="3" Cut="2.6797106266021729e+00" cType="1" res="1.4877776848152280e-03" rms="4.7508499026298523e-01" purity="4.6376743912696838e-01" nType="0">
          <Node pos="l" depth="2" NCoef="0" IVar="-1" Cut="0.0000000000000000e+00" cType="1" res="6.0690264217555523e-04" rms="4.7998669743537903e-01" purity="5.0017660856246948e-01" nType="-99"/>
          <Node pos="r" depth="2" NCoef="0" IVar="-1" Cut="0.0000000000000000e+00" cType="1" res="-1.4467469882220030e-03" rms="4.6078607439994812e-01" purity="3.8558977842330933e-01" nType="-99"/>
        </Node>
        <Node pos="r" depth="1" NCoef="0" IVar="-1" Cut="0.0000000000000000e+00" cType="1" res="2.2832979448139668e-03" rms="3.9916795492172241e-01" purity="7.9736691713333130e-01" nType="-99"/>
      </Node>
    </BinaryTree>
    <BinaryTree type="DecisionTree" boostWeight="1.0000000000000000e+00" itree="164">
      <Node pos="s" depth="0" NCoef="0" IVar="1" Cut="1.3107402324676514e+00" cType="1" res="2.1560296416282654e-02" rms="4.6883499622344971e-01" purity="5.0984138250350952e-01" nType="0">
        <Node pos="l" depth="1" NCoef="0" IVar="2" Cut="7.4712800979614258e-01" cType="1" res="-9.3396269949153066e-04" rms="4.7805511951446533e-01" purity="4.2007723450660706e-01" nType="0">
          <Node pos="l" depth="2" NCoef="0" IVar="-1" Cut="0.0000000000000000e+00" cType="1" res="-5.0475035095587373e-04" rms="4.7546112537384033e-01" purity="3.9503538608551025e-01" nType="-99"/>
          <Node pos="r" depth="2" NCoef="0" IVar="-1" Cut="0.0000000000000000e+00" cType="1" res="1.6839539166539907e-03" rms="4.8337271809577942e-01" purity="5.3241199254989624e-01" nType="-99"/>
        </Node>
        <Node pos="r" depth="1" NCoef="0" IVar="2" Cut="5.1571297645568848e-01" cType="1" res="7.3989905416965485e-02" rms="4.4218665361404419e-01" purity="7.1906369924545288e-01" nType="0">
          <Node pos="l" depth="2" NCoef="0" IVar="-1" Cut="0.0000000000000000e+00" cType="1" res="4.6987095265649259e-04" rms="4.7441217303276062e-01" purity="6.3951909542083740e-01" nType="-99"/>
          <Node pos="r" depth="2" NCoef="0" IVar="-1" Cut="0.0000000000000000e+00" cType="1" res="1.9474838627502322e-03" rms="4.2398259043693542e-01" purity="7.5654232501983643e-01" nType="-99"/>
        </Node>
      </Node>
    </BinaryTree>
    <BinaryTree type="DecisionTree" boostWeight="1.0000000000000000e+00" itree="165">
      <Node pos="s" depth="0" NCoef="0" IVar="1" Cut="-2.5859925150871277e-01" cType="1" res="1.4684235677123070e-02" rms="4.6749511361122131e-01" purity="5.0351595878601074e-01" nType="0">
        <Node pos="l" depth="1" NCoef="0" IVar="1" Cut="-1.9090158939361572e+00" cType="1" res="-3.8837969303131104e-02" rms="4.5724895596504211e-01" purity="3.1579333543777466e-01" nType="0">
          <Node pos="l" depth="2" NCoef="0" IVar="-1" Cut="0.0000000000000000e+00" cType="1" res="-5.3100390359759331e-03" rms="4.1049703955650330e-01" purity="2.2025053203105927e-01" nType="-99"/>
          <Node pos="r" depth="2" NCoef="0" IVar="-1" Cut="0.0000000000000000e+00" cType="1" res="-7.0235913153737783e-04" rms="4.6810019016265869e-01" purity="3.4308639168739319e-01" nType="-99"/>
        </Node>
        <Node pos="r" depth="1" NCoef="0" IVar="2" Cut="5.9983342885971069e-01" cType="1" res="4.5532185584306717e-02" rms="4.7054234147071838e-01" purity="6.1171138286590576e-01" nType="0">
          <Node pos="l" depth="2" NCoef="0" IVar="-1" Cut="0.0000000000000000e+00" cType="1" res="2.6061898097395897e-04" rms="4.8313367366790771e-01" purity="5.5088704824447632e-01" nType="-99"/>
          <Node pos="r" depth="2" NCoef="0" IVar="-1" Cut="0.0000000000000000e+00" cType="1" res="1.7557925311848521e-03" rms="4.5272773504257202e-01" purity="6.8066674470901489e-01" nType="-99"/>
        </Node>
      </Node>
    </BinaryTree>
    <BinaryTree type="DecisionTree" boostWeight="1.0000000000000000e+00" itree="166">
      <Node pos="s" depth="0" NCoef="0" IVar="1" Cut="-1.2456466443836689e-02" cType="1" res="1.0842931456863880e-02" rms="4.6828949451446533e-01" purity="5.0004255771636963e-01" nType="0">
        <Node pos="l" depth="1" NCoef="0" IVar="3" Cut="1.9030897617340088e+00" cType="1" res="-2.8816938400268555e-02" rms="4.6294015645980835e-01" purity="3.3473601937294006e-01" nType="0">
          <Node pos="l" depth="2" NCoef="0" IVar="-1" Cut="0.0000000000000000e+00" cType="1" res="2.7368459268473089e-04" rms="4.8390874266624451e-01" purity="4.0404632687568665e-01" nType="-99"/>
          <Node pos="r" depth="2" NCoef="0" IVar="-1" Cut="0.0000000000000000e+00" cType="1" res="-1.9563392270356417e-03" rms="4.4924479722976685e-01" purity="2.9553499817848206e-01" nType="-99"/>
        </Node>
        <Node pos="r" depth="1" NCoef="0" IVar="2" Cut="7.0719575881958008e-01" cType="1" res="3.9578497409820557e-02" rms="4.7004148364067078e-01" purity="6.1981552839279175e-01" nType="0">
          <Node pos="l" depth="2" NCoef="0" IVar="-1" Cut="0.0000000000000000e+00" cType="1" res="3.6799171357415617e-04" rms="4.8045432567596436e-01" purity="5.8059906959533691e-01" nType="-99"/>
          <Node pos="r" depth="2" NCoef="0" IVar="-1" Cut="0.0000000000000000e+00" cType="1" res="2.2251568734645844e-03" rms="4.2886903882026672e-01" purity="7.3957467079162598e-01" nType="-99"/>
        </Node>
      </Node>
    </BinaryTree>
    <BinaryTree type="DecisionTree" boostWeight="1.0000000000000000e+00" itree="167">
      <Node pos="s" depth="0" NCoef="0" IVar="1" Cut="1.2886956930160522e+00" cType="1" res="9.4766365364193916e-03" rms="4.6834519505500793e-01" purity="4.9845781922340393e-01" nType="0">
        <Node pos="l" depth="1" NCoef="0" IVar="2" Cut="5.6462055444717407e-01" cType="1" res="-1.4369645155966282e-02" rms="4.7543486952781677e-01" purity="4.0466588735580444e-01" nType="0">
          <Node pos="l" depth="2" NCoef="0" IVar="-1" Cut="0.0000000000000000e+00" cType="1" res="-1.5995893627405167e-03" rms="4.6536120772361755e-01" purity="3.4792122244834900e-01" nType="-99"/>
          <Node pos="r" depth="2" NCoef="0" IVar="-1" Cut="0.0000000000000000e+00" cType="1" res="3.1593290623277426e-04" rms="4.8139473795890808e-01" purity="4.4793102145195007e-01" nType="-99"/>
        </Node>
        <Node pos="r" depth="1" NCoef="0" IVar="9" Cut="9.3347325921058655e-02" cType="1" res="6.2615677714347839e-02" rms="4.4760012626647949e-01" purity="7.0746356248855591e-01" nType="0">
          <Node pos="l" depth="2" NCoef="0" IVar="-1" Cut="0.0000000000000000e+00" cType="1" res="5.9067376423627138e-04" rms="4.6439701318740845e-01" purity="6.6458445787429810e-01" nType="-99"/>
          <Node pos="r" depth="2" NCoef="0" IVar="-1" Cut="0.0000000000000000e+00" cType="1" res="2.2053602151572704e-03" rms="4.1660481691360474e-01" purity="7.7024585008621216e-01" nType="-99"/>
        </Node>
      </Node>
    </BinaryTree>
    <BinaryTree type="DecisionTree" boostWeight="1.0000000000000000e+00" itree="168">
      <Node pos="s" depth="0" NCoef="0" IVar="2" Cut="7.0056438446044922e-01" cType="1" res="1.2454166077077389e-02" rms="4.7070175409317017e-01" purity="4.9789264798164368e-01" nType="0">
        <Node pos="l" depth="1" NCoef="0" IVar="4" Cut="1.4886836242675781e+02" cType="1" res="-6.2686773017048836e-03" rms="4.7153922915458679e-01" purity="4.6607720851898193e-01" nType="0">
          <Node pos="l" depth="2" NCoef="0" IVar="-1" Cut="0.0000000000000000e+00" cType="1" res="-1.1354524176567793e-03" rms="4.6497741341590881e-01" purity="4.1287571191787720e-01" nType="-99"/>
          <Node pos="r" depth="2" NCoef="0" IVar="-1" Cut="0.0000000000000000e+00" cType="1" res="5.6713313097134233e-04" rms="4.7552505135536194e-01" purity="5.1373380422592163e-01" nType="-99"/>
        </Node>
        <Node pos="r" depth="1" NCoef="0" IVar="1" Cut="-1.3026545047760010e+00" cType="1" res="6.3506722450256348e-02" rms="4.6459254622459412e-01" purity="5.8464550971984863e-01" nType="0">
          <Node pos="l" depth="2" NCoef="0" IVar="-1" Cut="0.0000000000000000e+00" cType="1" res="-5.3589727031067014e-04" rms="4.7390162944793701e-01" purity="3.4740939736366272e-01" nType="-99"/>
          <Node pos="r" depth="2" NCoef="0" IVar="-1" Cut="0.0000000000000000e+00" cType="1" res="1.8343087285757065e-03" rms="4.5979228615760803e-01" purity="6.4834725856781006e-01" nType="-99"/>
        </Node>
      </Node>
    </BinaryTree>
    <BinaryTree type="DecisionTree" boostWeight="1.0000000000000000e+00" itree="169">
      <Node pos="s" depth="0" NCoef="0" IVar="1" Cut="8.2128167152404785e-02" cType="1" res="1.6175501048564911e-02" rms="4.6677607297897339e-01" purity="5.0491023063659668e-01" nType="0">
        <Node pos="l" depth="1" NCoef="0" IVar="1" Cut="-1.2667284011840820e+00" cType="1" res="-2.5960890576243401e-02" rms="4.6438249945640564e-01" purity="3.4033647179603577e-01" nType="0">
          <Node pos="l" depth="2" NCoef="0" IVar="-1" Cut="0.0000000000000000e+00" cType="1" res="-2.8548864647746086e-03" rms="4.3448305130004883e-01" purity="2.6153910160064697e-01" nType="-99"/>
          <Node pos="r" depth="2" NCoef="0" IVar="-1" Cut="0.0000000000000000e+00" cType="1" res="-2.5777610062505119e-05" rms="4.8135784268379211e-01" purity="3.9207103848457336e-01" nType="-99"/>
        </Node>
        <Node pos="r" depth="1" NCoef="0" IVar="2" Cut="6.7038673162460327e-01" cType="1" res="4.9607254564762115e-02" rms="4.6596342325210571e-01" purity="6.3548594713211060e-01" nType="0">
          <Node pos="l" depth="2" NCoef="0" IVar="-1" Cut="0.0000000000000000e+00" cType="1" res="5.4159009596332908e-04" rms="4.7789320349693298e-01" purity="5.9105408191680908e-01" nType="-99"/>
          <Node pos="r" depth="2" NCoef="0" IVar="-1" Cut="0.0000000000000000e+00" cType="1" res="2.0762491039931774e-03" rms="4.3455386161804199e-01" purity="7.3038256168365479e-01" nType="-99"/>
        </Node>
      </Node>
    </BinaryTree>
    <BinaryTree type="DecisionTree" boostWeight="1.0000000000000000e+00" itree="170">
      <Node pos="s" depth="0" NCoef="0" IVar="1" Cut="1.3199020624160767e+00" cType="1" res="1.3337862677872181e-02" rms="4.6818128228187561e-01" purity="5.0234216451644897e-01" nType="0">
        <Node pos="l" depth="1" NCoef="0" IVar="3" Cut="2.0443873405456543e+00" cType="1" res="-9.3023916706442833e-03" rms="4.7651365399360657e-01" purity="4.1021960973739624e-01" nType="0">
          <Node pos="l" depth="2" NCoef="0" IVar="-1" Cut="0.0000000000000000e+00" cType="1" res="8.4847141988575459e-04" rms="4.8518615961074829e-01" purity="4.8219120502471924e-01" nType="-99"/>
          <Node pos="r" depth="2" NCoef="0" IVar="-1" Cut="0.0000000000000000e+00" cType="1" res="-1.2987838126718998e-03" rms="4.6787402033805847e-01" purity="3.5825917124748230e-01" nType="-99"/>
        </Node>
        <Node pos="r" depth="1" NCoef="0" IVar="2" Cut="5.6593805551528931e-01" cType="1" res="6.5375998616218567e-02" rms="4.4408896565437317e-01" purity="7.1408379077911377e-01" nType="0">
          <Node pos="l" depth="2" NCoef="0" IVar="-1" Cut="0.0000000000000000e+00" cType="1" res="3.6682511563412845e-04" rms="4.7583597898483276e-01" purity="6.3710981607437134e-01" nType="-99"/>
          <Node pos="r" depth="2" NCoef="0" IVar="-1" Cut="0.0000000000000000e+00" cType="1" res="2.0192787051200867e-03" rms="4.1437226533889771e-01" purity="7.7314084768295288e-01" nType="-99"/>
        </Node>
      </Node>
    </BinaryTree>
    <BinaryTree type="DecisionTree" boostWeight="1.0000000000000000e+00" itree="171">
      <Node pos="s" depth="0" NCoef="0" IVar="1" Cut="2.0286629199981689e+00" cType="1" res="1.3515146449208260e-02" rms="4.6943628787994385e-01" purity="5.0102943181991577e-01" nType="0">
        <Node pos="l" depth="1" NCoef="0" IVar="9" Cut="1.0212440043687820e-01" cType="1" res="-1.6300714924000204e-04" rms="4.7704136371612549e-01" purity="4.4737172126770020e-01" nType="0">
          <Node pos="l" depth="2" NCoef="0" IVar="-1" Cut="0.0000000000000000e+00" cType="1" res="-7.4563047382980585e-04" rms="4.7329503297805786e-01" purity="4.1628852486610413e-01" nType="-99"/>
          <Node pos="r" depth="2" NCoef="0" IVar="-1" Cut="0.0000000000000000e+00" cType="1" res="1.0959724895656109e-03" rms="4.8026290535926819e-01" purity="4.9939686059951782e-01" nType="-99"/>
        </Node>
        <Node pos="r" depth="1" NCoef="0" IVar="2" Cut="5.6426537036895752e-01" cType="1" res="7.8000858426094055e-02" rms="4.2590472102165222e-01" purity="7.5399893522262573e-01" nType="0">
          <Node pos="l" depth="2" NCoef="0" IVar="-1" Cut="0.0000000000000000e+00" cType="1" res="7.9386663855984807e-04" rms="4.6319949626922607e-01" purity="6.8398511409759521e-01" nType="-99"/>
          <Node pos="r" depth="2" NCoef="0" IVar="-1" Cut="0.0000000000000000e+00" cType="1" res="2.1231980063021183e-03" rms="3.9568141102790833e-01" purity="8.0249154567718506e-01" nType="-99"/>
        </Node>
      </Node>
    </BinaryTree>
    <BinaryTree type="DecisionTree" boostWeight="1.0000000000000000e+00" itree="172">
      <Node pos="s" depth="0" NCoef="0" IVar="3" Cut="1.6696565151214600e+00" cType="1" res="1.2937026098370552e-02" rms="4.6885776519775391e-01" purity="5.0050073862075806e-01" nType="0">
        <Node pos="l" depth="1" NCoef="0" IVar="0" Cut="1.1052576446533203e+02" cType="1" res="6.1123684048652649e-02" rms="4.6644863486289978e-01" purity="5.8348876237869263e-01" nType="0">
          <Node pos="l" depth="2" NCoef="0" IVar="-1" Cut="0.0000000000000000e+00" cType="1" res="4.0767103200778365e-04" rms="4.6988537907600403e-01" purity="5.3065884113311768e-01" nType="-99"/>
          <Node pos="r" depth="2" NCoef="0" IVar="-1" Cut="0.0000000000000000e+00" cType="1" res="3.1197038479149342e-03" rms="4.4681021571159363e-01" purity="6.8771862983703613e-01" nType="-99"/>
        </Node>
        <Node pos="r" depth="1" NCoef="0" IVar="7" Cut="3.6259189248085022e-02" cType="1" res="-8.4746759384870529e-03" rms="4.6833601593971252e-01" purity="4.6362510323524475e-01" nType="0">
          <Node pos="l" depth="2" NCoef="0" IVar="-1" Cut="0.0000000000000000e+00" cType="1" res="6.5393833210691810e-04" rms="4.6610203385353088e-01" purity="5.1064962148666382e-01" nType="-99"/>
          <Node pos="r" depth="2" NCoef="0" IVar="-1" Cut="0.0000000000000000e+00" cType="1" res="-1.2002196162939072e-03" rms="4.6823596954345703e-01" purity="4.1852274537086487e-01" nType="-99"/>
        </Node>
      </Node>
    </BinaryTree>
    <BinaryTree type="DecisionTree" boostWeight="1.0000000000000000e+00" itree="173">
      <Node pos="s" depth="0" NCoef="0" IVar="4" Cut="1.3507093811035156e+02" cType="1" res="1.7937621101737022e-02" rms="4.6829086542129517e-01" purity="5.0584679841995239e-01" nType="0">
        <Node pos="l" depth="1" NCoef="0" IVar="9" Cut="1.8332049250602722e-01" cType="1" res="-2.9710778966546059e-02" rms="4.6622142195701599e-01" purity="4.2708641290664673e-01" nType="0">
          <Node pos="l" depth="2" NCoef="0" IVar="-1" Cut="0.0000000000000000e+00" cType="1" res="-1.4794990420341492e-03" rms="4.6321091055870056e-01" purity="4.0051832795143127e-01" nType="-99"/>
          <Node pos="r" depth="2" NCoef="0" IVar="-1" Cut="0.0000000000000000e+00" cType="1" res="1.3065646635368466e-03" rms="4.7007447481155396e-01" purity="5.3875440359115601e-01" nType="-99"/>
        </Node>
        <Node pos="r" depth="1" NCoef="0" IVar="1" Cut="-5.7328772544860840e-01" cType="1" res="4.6028640121221542e-02" rms="4.6723535656929016e-01" purity="5.5227982997894287e-01" nType="0">
          <Node pos="l" depth="2" NCoef="0" IVar="-1" Cut="0.0000000000000000e+00" cType="1" res="-5.1814044127240777e-04" rms="4.6815261244773865e-01" purity="3.3796659111976624e-01" nType="-99"/>
          <Node pos="r" depth="2" NCoef="0" IVar="-1" Cut="0.0000000000000000e+00" cType="1" res="1.4845385449007154e-03" rms="4.6487706899642944e-01" purity="6.3298183679580688e-01" nType="-99"/>
        </Node>
      </Node>
    </BinaryTree>
    <BinaryTree type="DecisionTree" boostWeight="1.0000000000000000e+00" itree="174">
      <Node pos="s" depth="0" NCoef="0" IVar="2" Cut="8.3104294538497925e-01" cType="1" res="1.0217896662652493e-02" rms="4.6739953756332397e-01" purity="4.9999427795410156e-01" nType="0">
        <Node pos="l" depth="1" NCoef="0" IVar="1" Cut="1.2010519504547119e+00" cType="1" res="1.0723326122388244e-03" rms="4.6853339672088623e-01" purity="4.8711243271827698e-01" nType="0">
          <Node pos="l" depth="2" NCoef="0" IVar="-1" Cut="0.0000000000000000e+00" cType="1" res="-6.4197380561381578e-04" rms="4.7266516089439392e-01" purity="3.9095190167427063e-01" nType="-99"/>
          <Node pos="r" depth="2" NCoef="0" IVar="-1" Cut="0.0000000000000000e+00" cType="1" res="9.9656148813664913e-04" rms="4.5628228783607483e-01" purity="6.8922829627990723e-01" nType="-99"/>
        </Node>
        <Node pos="r" depth="1" NCoef="0" IVar="-1" Cut="0.0000000000000000e+00" cType="1" res="2.7450416237115860e-03" rms="4.3525734543800354e-01" purity="6.6743826866149902e-01" nType="-99"/>
      </Node>
    </BinaryTree>
    <BinaryTree type="DecisionTree" boostWeight="1.0000000000000000e+00" itree="175">
      <Node pos="s" depth="0" NCoef="0" IVar="3" Cut="1.9488495588302612e+00" cType="1" res="1.6099916771054268e-02" rms="4.6825763583183289e-01" purity="5.0473904609680176e-01" nType="0">
        <Node pos="l" depth="1" NCoef="0" IVar="4" Cut="1.1830562591552734e+02" cType="1" res="5.9924427419900894e-02" rms="4.6699392795562744e-01" purity="5.7956737279891968e-01" nType="0">
          <Node pos="l" depth="2" NCoef="0" IVar="-1" Cut="0.0000000000000000e+00" cType="1" res="-5.4176594130694866e-04" rms="4.7479918599128723e-01" purity="4.5854455232620239e-01" nType="-99"/>
          <Node pos="r" depth="2" NCoef="0" IVar="-1" Cut="0.0000000000000000e+00" cType="1" res="1.9329253118485212e-03" rms="4.6105706691741943e-01" purity="6.2163764238357544e-01" nType="-99"/>
        </Node>
        <Node pos="r" depth="1" NCoef="0" IVar="1" Cut="1.8524051904678345e+00" cType="1" res="-1.2705937959253788e-02" rms="4.6685105562210083e-01" purity="4.5555442571640015e-01" nType="0">
          <Node pos="l" depth="2" NCoef="0" IVar="-1" Cut="0.0000000000000000e+00" cType="1" res="-8.6301646661013365e-04" rms="4.7004580497741699e-01" purity="3.9486134052276611e-01" nType="-99"/>
          <Node pos="r" depth="2" NCoef="0" IVar="-1" Cut="0.0000000000000000e+00" cType="1" res="1.0779496515169740e-03" rms="4.4697055220603943e-01" purity="7.1601587533950806e-01" nType="-99"/>
        </Node>
      </Node>
    </BinaryTree>
    <BinaryTree type="DecisionTree" boostWeight="1.0000000000000000e+00" itree="176">
      <Node pos="s" depth="0" NCoef="0" IVar="1" Cut="1.0670920461416245e-01" cType="1" res="1.1825155466794968e-02" rms="4.6694532036781311e-01" purity="4.9992674589157104e-01" nType="0">
        <Node pos="l" depth="1" NCoef="0" IVar="6" Cut="9.7752946615219116e-01" cType="1" res="-2.9524477198719978e-02" rms="4.6239802241325378e-01" purity="3.3700248599052429e-01" nType="0">
          <Node pos="l" depth="2" NCoef="0" IVar="-1" Cut="0.0000000000000000e+00" cType="1" res="-1.8427971517667174e-03" rms="4.5510274171829224e-01" purity="3.1526583433151245e-01" nType="-99"/>
          <Node pos="r" depth="2" NCoef="0" IVar="-1" Cut="0.0000000000000000e+00" cType="1" res="4.0341884596273303e-04" rms="4.7394526004791260e-01" purity="3.8064685463905334e-01" nType="-99"/>
        </Node>
        <Node pos="r" depth="1" NCoef="0" IVar="3" Cut="2.7846031188964844e+00" cType="1" res="4.5598197728395462e-02" rms="4.6792358160018921e-01" purity="6.3299804925918579e-01" nType="0">
          <Node pos="l" depth="2" NCoef="0" IVar="-1" Cut="0.0000000000000000e+00" cType="1" res="1.4091376215219498e-03" rms="4.6120035648345947e-01" purity="6.6269350051879883e-01" nType="-99"/>
          <Node pos="r" depth="2" NCoef="0" IVar="-1" Cut="0.0000000000000000e+00" cType="1" res="-4.0178286144509912e-04" rms="4.8184198141098022e-01" purity="5.4561233520507812e-01" nType="-99"/>
        </Node>
      </Node>
    </BinaryTree>
    <BinaryTree type="DecisionTree" boostWeight="1.0000000000000000e+00" itree="177">
      <Node pos="s" depth="0" NCoef="0" IVar="1" Cut="-1.6907120943069458e+00" cType="1" res="1.2860883958637714e-02" rms="4.6914717555046082e-01" purity="5.0058943033218384e-01" nType="0">
        <Node pos="l" depth="1" NCoef="0" IVar="1" Cut="-2.1442809104919434e+00" cType="1" res="-8.0317199230194092e-02" rms="4.2263922095298767e-01" purity="2.3925247788429260e-01" nType="0">
          <Node pos="l" depth="2" NCoef="0" IVar="-1" Cut="0.0000000000000000e+00" cType="1" res="-6.1325090937316418e-03" rms="4.0100467205047607e-01" purity="2.0597563683986664e-01" nType="-99"/>
          <Node pos="r" depth="2" NCoef="0" IVar="-1" Cut="0.0000000000000000e+00" cType="1" res="-1.9469999242573977e-03" rms="4.4117516279220581e-01" purity="2.7373313903808594e-01" nType="-99"/>
        </Node>
        <Node pos="r" depth="1" NCoef="0" IVar="2" Cut="5.8570432662963867e-01" cType="1" res="2.4250213056802750e-02" rms="4.7326284646987915e-01" purity="5.3253316879272461e-01" nType="0">
          <Node pos="l" depth="2" NCoef="0" IVar="-1" Cut="0.0000000000000000e+00" cType="1" res="-3.3395941136404872e-04" rms="4.7456744313240051e-01" purity="4.7097679972648621e-01" nType="-99"/>
          <Node pos="r" depth="2" NCoef="0" IVar="-1" Cut="0.0000000000000000e+00" cType="1" res="1.4046481810510159e-03" rms="4.6921366453170776e-01" purity="5.9261775016784668e-01" nType="-99"/>
        </Node>
      </Node>
    </BinaryTree>
    <BinaryTree type="DecisionTree" boostWeight="1.0000000000000000e+00" itree="178">
      <Node pos="s" depth="0" NCoef="0" IVar="1" Cut="9.2360055446624756e-01" cType="1" res="9.7272386774420738e-03" rms="4.6697282791137695e-01" purity="4.9903309345245361e-01" nType="0">
        <Node pos="l" depth="1" NCoef="0" IVar="4" Cut="1.3917604064941406e+02" cType="1" res="-1.7298441380262375e-02" rms="4.7191503643989563e-01" purity="3.8259679079055786e-01" nType="0">
          <Node pos="l" depth="2" NCoef="0" IVar="-1" Cut="0.0000000000000000e+00" cType="1" res="-1.8522790633141994e-03" rms="4.5535498857498169e-01" purity="3.2646834850311279e-01" nType="-99"/>
          <Node pos="r" depth="2" NCoef="0" IVar="-1" Cut="0.0000000000000000e+00" cType="1" res="2.8923625359311700e-04" rms="4.8259860277175903e-01" purity="4.2605224251747131e-01" nType="-99"/>
        </Node>
        <Node pos="r" depth="1" NCoef="0" IVar="2" Cut="6.9972050189971924e-01" cType="1" res="5.2796494215726852e-02" rms="4.5568621158599854e-01" purity="6.8459087610244751e-01" nType="0">
          <Node pos="l" depth="2" NCoef="0" IVar="-1" Cut="0.0000000000000000e+00" cType="1" res="6.9971336051821709e-04" rms="4.7067821025848389e-01" purity="6.4873832464218140e-01" nType="-99"/>
          <Node pos="r" depth="2" NCoef="0" IVar="-1" Cut="0.0000000000000000e+00" cType="1" res="2.1552331745624542e-03" rms="4.0693756937980652e-01" purity="7.8245180845260620e-01" nType="-99"/>
        </Node>
      </Node>
    </BinaryTree>
    <BinaryTree type="DecisionTree" boostWeight="1.0000000000000000e+00" itree="179">
      <Node pos="s" depth="0" NCoef="0" IVar="4" Cut="1.1021600341796875e+02" cType="1" res="1.3476835563778877e-02" rms="4.6862268447875977e-01" purity="5.0100535154342651e-01" nType="0">
        <Node pos="l" depth="1" NCoef="0" IVar="0" Cut="1.5245159912109375e+02" cType="1" res="-5.1672384142875671e-02" rms="4.6229696273803711e-01" purity="3.9556133747100830e-01" nType="0">
          <Node pos="l" depth="2" NCoef="0" IVar="-1" Cut="0.0000000000000000e+00" cType="1" res="-6.8999978248029947e-04" rms="4.7107222676277161e-01" purity="4.3526989221572876e-01" nType="-99"/>
          <Node pos="r" depth="2" NCoef="0" IVar="-1" Cut="0.0000000000000000e+00" cType="1" res="-5.7806139811873436e-03" rms="4.1920894384384155e-01" purity="2.6485523581504822e-01" nType="-99"/>
        </Node>
        <Node pos="r" depth="1" NCoef="0" IVar="3" Cut="2.3707761764526367e+00" cType="1" res="3.2359033823013306e-02" rms="4.6875074505805969e-01" purity="5.3156614303588867e-01" nType="0">
          <Node pos="l" depth="2" NCoef="0" IVar="-1" Cut="0.0000000000000000e+00" cType="1" res="1.5721861273050308e-03" rms="4.6721324324607849e-01" purity="5.9092640876770020e-01" nType="-99"/>
          <Node pos="r" depth="2" NCoef="0" IVar="-1" Cut="0.0000000000000000e+00" cType="1" res="-3.3869739854708314e-04" rms="4.6689784526824951e-01" purity="4.5710307359695435e-01" nType="-99"/>
        </Node>
      </Node>
    </BinaryTree>
    <BinaryTree type="DecisionTree" boostWeight="1.0000000000000000e+00" itree="180">
      <Node pos="s" depth="0" NCoef="0" IVar="4" Cut="1.3209457397460938e+02" cType="1" res="1.4442609623074532e-02" rms="4.6773406863212585e-01" purity="5.0552469491958618e-01" nType="0">
        <Node pos="l" depth="1" NCoef="0" IVar="0" Cut="1.7467323303222656e+02" cType="1" res="-2.9912611469626427e-02" rms="4.6135801076889038e-01" purity="4.3004006147384644e-01" nType="0">
          <Node pos="l" depth="2" NCoef="0" IVar="-1" Cut="0.0000000000000000e+00" cType="1" res="-2.4687996483407915e-04" rms="4.6680542826652527e-01" purity="4.6061995625495911e-01" nType="-99"/>
          <Node pos="r" depth="2" NCoef="0" IVar="-1" Cut="0.0000000000000000e+00" cType="1" res="-4.2267250828444958e-03" rms="4.2875927686691284e-01" purity="3.0825021862983704e-01" nType="-99"/>
        </Node>
        <Node pos="r" depth="1" NCoef="0" IVar="3" Cut="1.8464086055755615e+00" cType="1" res="3.9035219699144363e-02" rms="4.6942949295043945e-01" purity="5.4737693071365356e-01" nType="0">
          <Node pos="l" depth="2" NCoef="0" IVar="-1" Cut="0.0000000000000000e+00" cType="1" res="1.7935978248715401e-03" rms="4.6285909414291382e-01" purity="6.1991173028945923e-01" nType="-99"/>
          <Node pos="r" depth="2" NCoef="0" IVar="-1" Cut="0.0000000000000000e+00" cType="1" res="3.8792067789472640e-04" rms="4.7151076793670654e-01" purity="5.0539523363113403e-01" nType="-99"/>
        </Node>
      </Node>
    </BinaryTree>
    <BinaryTree type="DecisionTree" boostWeight="1.0000000000000000e+00" itree="181">
      <Node pos="s" depth="0" NCoef="0" IVar="1" Cut="-1.6658524274826050e+00" cType="1" res="4.5645688660442829e-03" rms="4.6696770191192627e-01" purity="4.9227190017700195e-01" nType="0">
        <Node pos="l" depth="1" NCoef="0" IVar="4" Cut="1.4668354797363281e+02" cType="1" res="-8.7127335369586945e-02" rms="4.1422522068023682e-01" purity="2.3061098158359528e-01" nType="0">
          <Node pos="l" depth="2" NCoef="0" IVar="-1" Cut="0.0000000000000000e+00" cType="1" res="-7.3575144633650780e-03" rms="3.7614858150482178e-01" purity="1.7642101645469666e-01" nType="-99"/>
          <Node pos="r" depth="2" NCoef="0" IVar="-1" Cut="0.0000000000000000e+00" cType="1" res="-2.1180876065045595e-03" rms="4.4469416141510010e-01" purity="2.8314462304115295e-01" nType="-99"/>
        </Node>
        <Node pos="r" depth="1" NCoef="0" IVar="2" Cut="7.1648889780044556e-01" cType="1" res="1.6281936317682266e-02" rms="4.7200250625610352e-01" purity="5.2570974826812744e-01" nType="0">
          <Node pos="l" depth="2" NCoef="0" IVar="-1" Cut="0.0000000000000000e+00" cType="1" res="-5.6993176258401945e-05" rms="4.7480893135070801e-01" purity="4.9265590310096741e-01" nType="-99"/>
          <Node pos="r" depth="2" NCoef="0" IVar="-1" Cut="0.0000000000000000e+00" cType="1" res="1.7292586853727698e-03" rms="4.5697978138923645e-01" purity="6.3694000244140625e-01" nType="-99"/>
        </Node>
      </Node>
    </BinaryTree>
    <BinaryTree type="DecisionTree" boostWeight="1.0000000000000000e+00" itree="182">
      <Node pos="s" depth="0" NCoef="0" IVar="1" Cut="-2.4906885623931885e-01" cType="1" res="1.0590960271656513e-02" rms="4.6829727292060852e-01" purity="4.9720624089241028e-01" nType="0">
        <Node pos="l" depth="1" NCoef="0" IVar="2" Cut="5.6262052059173584e-01" cType="1" res="-2.9503423720598221e-02" rms="4.5820453763008118e-01" purity="3.2215937972068787e-01" nType="0">
          <Node pos="l" depth="2" NCoef="0" IVar="-1" Cut="0.0000000000000000e+00" cType="1" res="-3.0381667893379927e-03" rms="4.3201312422752380e-01" purity="2.5721499323844910e-01" nType="-99"/>
          <Node pos="r" depth="2" NCoef="0" IVar="-1" Cut="0.0000000000000000e+00" cType="1" res="-9.2249429144430906e-05" rms="4.7311246395111084e-01" purity="3.6579135060310364e-01" nType="-99"/>
        </Node>
        <Node pos="r" depth="1" NCoef="0" IVar="2" Cut="5.3762334585189819e-01" cType="1" res="3.5004593431949615e-02" rms="4.7267460823059082e-01" purity="6.0379296541213989e-01" nType="0">
          <Node pos="l" depth="2" NCoef="0" IVar="-1" Cut="0.0000000000000000e+00" cType="1" res="-1.6153226897586137e-04" rms="4.8645484447479248e-01" purity="5.2949559688568115e-01" nType="-99"/>
          <Node pos="r" depth="2" NCoef="0" IVar="-1" Cut="0.0000000000000000e+00" cType="1" res="1.3242955319583416e-03" rms="4.6209084987640381e-01" purity="6.4963310956954956e-01" nType="-99"/>
        </Node>
      </Node>
    </BinaryTree>
    <BinaryTree type="DecisionTree" boostWeight="1.0000000000000000e+00" itree="183">
      <Node pos="s" depth="0" NCoef="0" IVar="2" Cut="5.8860397338867188e-01" cType="1" res="1.6683869063854218e-02" rms="4.6851572394371033e-01" purity="5.0488716363906860e-01" nType="0">
        <Node pos="l" depth="1" NCoef="0" IVar="5" Cut="-1.6351670026779175e-02" cType="1" res="-1.5606008470058441e-02" rms="4.6994966268539429e-01" purity="4.4779044389724731e-01" nType="0">
          <Node pos="l" depth="2" NCoef="0" IVar="-1" Cut="0.0000000000000000e+00" cType="1" res="-1.7928573070093989e-03" rms="4.6101030707359314e-01" purity="4.0133413672447205e-01" nType="-99"/>
          <Node pos="r" depth="2" NCoef="0" IVar="-1" Cut="0.0000000000000000e+00" cType="1" res="3.8706319173797965e-04" rms="4.7368386387825012e-01" purity="4.7986632585525513e-01" nType="-99"/>
        </Node>
        <Node pos="r" depth="1" NCoef="0" IVar="1" Cut="-1.4368661642074585e+00" cType="1" res="4.7743164002895355e-02" rms="4.6502146124839783e-01" purity="5.5980789661407471e-01" nType="0">
          <Node pos="l" depth="2" NCoef="0" IVar="-1" Cut="0.0000000000000000e+00" cType="1" res="-1.1594139505177736e-03" rms="4.5791646838188171e-01" purity="3.1018707156181335e-01" nType="-99"/>
          <Node pos="r" depth="2" NCoef="0" IVar="-1" Cut="0.0000000000000000e+00" cType="1" res="1.4623473398387432e-03" rms="4.6487602591514587e-01" purity="6.1240947246551514e-01" nType="-99"/>
        </Node>
      </Node>
    </BinaryTree>
    <BinaryTree type="DecisionTree" boostWeight="1.0000000000000000e+00" itree="184">
      <Node pos="s" depth="0" NCoef="0" IVar="4" Cut="1.3451739501953125e+02" cType="1" res="1.3932905159890652e-02" rms="4.6875777840614319e-01" purity="5.0162535905838013e-01" nType="0">
        <Node pos="l" depth="1" NCoef="0" IVar="9" Cut="1.2149858474731445e-01" cType="1" res="-3.2209388911724091e-02" rms="4.6332481503486633e-01" purity="4.2244854569435120e-01" nType="0">
          <Node pos="l" depth="2" NCoef="0" IVar="-1" Cut="0.0000000000000000e+00" cType="1" res="-2.2365062031894922e-03" rms="4.5545876026153564e-01" purity="3.6709254980087280e-01" nType="-99"/>
          <Node pos="r" depth="2" NCoef="0" IVar="-1" Cut="0.0000000000000000e+00" cType="1" res="4.8344524111598730e-04" rms="4.6902388334274292e-01" purity="4.9678456783294678e-01" nType="-99"/>
        </Node>
        <Node pos="r" depth="1" NCoef="0" IVar="3" Cut="1.8740665912628174e+00" cType="1" res="4.1610982269048691e-02" rms="4.6981722116470337e-01" purity="5.4911893606185913e-01" nType="0">
          <Node pos="l" depth="2" NCoef="0" IVar="-1" Cut="0.0000000000000000e+00" cType="1" res="1.9028451060876250e-03" rms="4.5946329832077026e-01" purity="6.2789261341094971e-01" nType="-99"/>
          <Node pos="r" depth="2" NCoef="0" IVar="-1" Cut="0.0000000000000000e+00" cType="1" res="3.8282744935713708e-04" rms="4.7401556372642517e-01" purity="5.0092369318008423e-01" nType="-99"/>
        </Node>
      </Node>
    </BinaryTree>
    <BinaryTree type="DecisionTree" boostWeight="1.0000000000000000e+00" itree="185">
      <Node pos="s" depth="0" NCoef="0" IVar="1" Cut="2.6186378002166748e+00" cType="1" res="1.0375144891440868e-02" rms="4.6836879849433899e-01" purity="4.9898332357406616e-01" nType="0">
        <Node pos="l" depth="1" NCoef="0" IVar="3" Cut="2.1490995883941650e+00" cType="1" res="-1.1795156169682741e-03" rms="4.7494804859161377e-01" purity="4.6402889490127563e-01" nType="0">
          <Node pos="l" depth="2" NCoef="0" IVar="-1" Cut="0.0000000000000000e+00" cType="1" res="7.6779123628512025e-04" rms="4.7698599100112915e-01" purity="5.2524560689926147e-01" nType="-99"/>
          <Node pos="r" depth="2" NCoef="0" IVar="-1" Cut="0.0000000000000000e+00" cType="1" res="-8.8740332284942269e-04" rms="4.7135773301124573e-01" purity="4.1039723157882690e-01" nType="-99"/>
        </Node>
        <Node pos="r" depth="1" NCoef="0" IVar="-1" Cut="0.0000000000000000e+00" cType="1" res="2.2258120588958263e-03" rms="3.9189833402633667e-01" purity="8.0519574880599976e-01" nType="-99"/>
      </Node>
    </BinaryTree>
    <BinaryTree type="DecisionTree" boostWeight="1.0000000000000000e+00" itree="186">
      <Node pos="s" depth="0" NCoef="0" IVar="4" Cut="1.2685064697265625e+02" cType="1" res="1.5865087509155273e-02" rms="4.6773943305015564e-01" purity="5.0645494461059570e-01" nType="0">
        <Node pos="l" depth="1" NCoef="0" IVar="9" Cut="7.5505860149860382e-02" cType="1" res="-2.8417009860277176e-02" rms="4.6337601542472839e-01" purity="4.2589017748832703e-01" nType="0">
          <Node pos="l" depth="2" NCoef="0" IVar="-1" Cut="0.0000000000000000e+00" cType="1" res="-2.8037487063556910e-03" rms="4.4655635952949524e-01" purity="3.5350093245506287e-01" nType="-99"/>
          <Node pos="r" depth="2" NCoef="0" IVar="-1" Cut="0.0000000000000000e+00" cType="1" res="-5.8030185755342245e-05" rms="4.6842575073242188e-01" purity="4.5869603753089905e-01" nType="-99"/>
        </Node>
        <Node pos="r" depth="1" NCoef="0" IVar="9" Cut="5.9525735676288605e-02" cType="1" res="3.7138696759939194e-02" rms="4.6833470463752747e-01" purity="5.4515916109085083e-01" nType="0">
          <Node pos="l" depth="2" NCoef="0" IVar="-1" Cut="0.0000000000000000e+00" cType="1" res="-3.7697198422392830e-05" rms="4.7108209133148193e-01" purity="4.9474442005157471e-01" nType="-99"/>
          <Node pos="r" depth="2" NCoef="0" IVar="-1" Cut="0.0000000000000000e+00" cType="1" res="1.6149595612660050e-03" rms="4.6369785070419312e-01" purity="5.8637189865112305e-01" nType="-99"/>
        </Node>
      </Node>
    </BinaryTree>
    <BinaryTree type="DecisionTree" boostWeight="1.0000000000000000e+00" itree="187">
      <Node pos="s" depth="0" NCoef="0" IVar="2" Cut="7.7388542890548706e-01" cType="1" res="1.2560777366161346e-02" rms="4.6831643581390381e-01" purity="5.0045645236968994e-01" nType="0">
        <Node pos="l" depth="1" NCoef="0" IVar="1" Cut="2.1519939899444580e+00" cType="1" res="-5.3407560335472226e-04" rms="4.6954748034477234e-01" purity="4.8031848669052124e-01" nType="0">
          <Node pos="l" depth="2" NCoef="0" IVar="-1" Cut="0.0000000000000000e+00" cType="1" res="-4.3219421058893204e-04" rms="4.7574892640113831e-01" purity="4.2939031124114990e-01" nType="-99"/>
          <Node pos="r" depth="2" NCoef="0" IVar="-1" Cut="0.0000000000000000e+00" cType="1" res="1.6037550522014499e-03" rms="4.2603772878646851e-01" purity="7.5553572177886963e-01" nType="-99"/>
        </Node>
        <Node pos="r" depth="1" NCoef="0" IVar="6" Cut="9.6629816293716431e-01" cType="1" res="9.4329386949539185e-02" rms="4.5205548405647278e-01" purity="6.2620478868484497e-01" nType="0">
          <Node pos="l" depth="2" NCoef="0" IVar="-1" Cut="0.0000000000000000e+00" cType="1" res="1.2801176635548472e-03" rms="4.6213132143020630e-01" purity="5.8185499906539917e-01" nType="-99"/>
          <Node pos="r" depth="2" NCoef="0" IVar="-1" Cut="0.0000000000000000e+00" cType="1" res="2.9373457655310631e-03" rms="4.3758067488670349e-01" purity="6.7166644334793091e-01" nType="-99"/>
        </Node>
      </Node>
    </BinaryTree>
    <BinaryTree type="DecisionTree" boostWeight="1.0000000000000000e+00" itree="188">
      <Node pos="s" depth="0" NCoef="0" IVar="3" Cut="1.6370956897735596e+00" cType="1" res="1.6300782561302185e-02" rms="4.6889474987983704e-01" purity="5.0547283887863159e-01" nType="0">
        <Node pos="l" depth="1" NCoef="0" IVar="0" Cut="1.1052576446533203e+02" cType="1" res="6.5815344452857971e-02" rms="4.6265017986297607e-01" purity="5.9305202960968018e-01" nType="0">
          <Node pos="l" depth="2" NCoef="0" IVar="-1" Cut="0.0000000000000000e+00" cType="1" res="5.9016060549765825e-04" rms="4.6774840354919434e-01" purity="5.4164922237396240e-01" nType="-99"/>
          <Node pos="r" depth="2" NCoef="0" IVar="-1" Cut="0.0000000000000000e+00" cType="1" res="3.0634207651019096e-03" rms="4.4098013639450073e-01" purity="6.9434118270874023e-01" nType="-99"/>
        </Node>
        <Node pos="r" depth="1" NCoef="0" IVar="3" Cut="3.3315627574920654e+00" cType="1" res="-4.6255602501332760e-03" rms="4.6994328498840332e-01" purity="4.6845927834510803e-01" nType="0">
          <Node pos="l" depth="2" NCoef="0" IVar="-1" Cut="0.0000000000000000e+00" cType="1" res="1.2914607941638678e-04" rms="4.7212043404579163e-01" purity="4.8308306932449341e-01" nType="-99"/>
          <Node pos="r" depth="2" NCoef="0" IVar="-1" Cut="0.0000000000000000e+00" cType="1" res="-3.7448070943355560e-03" rms="4.3422436714172363e-01" purity="3.1454101204872131e-01" nType="-99"/>
        </Node>
      </Node>
    </BinaryTree>
    <BinaryTree type="DecisionTree" boostWeight="1.0000000000000000e+00" itree="189">
      <Node pos="s" depth="0" NCoef="0" IVar="9" Cut="1.0995034873485565e-01" cType="1" res="8.9833103120326996e-03" rms="4.6895858645439148e-01" purity="4.9693161249160767e-01" nType="0">
        <Node pos="l" depth="1" NCoef="0" IVar="4" Cut="1.7983497619628906e+02" cType="1" res="-1.2033817358314991e-02" rms="4.6924880146980286e-01" purity="4.7056227922439575e-01" nType="0">
          <Node pos="l" depth="2" NCoef="0" IVar="-1" Cut="0.0000000000000000e+00" cType="1" res="-1.2887903722003102e-03" rms="4.6522569656372070e-01" purity="4.1241151094436646e-01" nType="-99"/>
          <Node pos="r" depth="2" NCoef="0" IVar="-1" Cut="0.0000000000000000e+00" cType="1" res="5.2821176359429955e-04" rms="4.7127124667167664e-01" purity="5.3300142288208008e-01" nType="-99"/>
        </Node>
        <Node pos="r" depth="1" NCoef="0" IVar="4" Cut="9.1457969665527344e+01" cType="1" res="5.1299087703227997e-02" rms="4.6550399065017700e-01" purity="5.5002349615097046e-01" nType="0">
          <Node pos="l" depth="2" NCoef="0" IVar="-1" Cut="0.0000000000000000e+00" cType="1" res="-5.2367331227287650e-04" rms="4.6251598000526428e-01" purity="4.4361844658851624e-01" nType="-99"/>
          <Node pos="r" depth="2" NCoef="0" IVar="-1" Cut="0.0000000000000000e+00" cType="1" res="1.6323301242664456e-03" rms="4.6469011902809143e-01" purity="5.7564139366149902e-01" nType="-99"/>
        </Node>
      </Node>
    </BinaryTree>
    <BinaryTree type="DecisionTree" boostWeight="1.0000000000000000e+00" itree="190">
      <Node pos="s" depth="0" NCoef="0" IVar="2" Cut="5.5035144090652466e-01" cType="1" res="1.4523745514452457e-02" rms="4.6761995553970337e-01" purity="5.0304234027862549e-01" nType="0">
        <Node pos="l" depth="1" NCoef="0" IVar="1" Cut="1.8466258049011230e+00" cType="1" res="-2.6514029130339622e-02" rms="4.6839734911918640e-01" purity="4.3488195538520813e-01" nType="0">
          <Node pos="l" depth="2" NCoef="0" IVar="-1" Cut="0.0000000000000000e+00" cType="1" res="-1.3699842384085059e-03" rms="4.6835350990295410e-01" purity="3.7074086070060730e-01" nType="-99"/>
          <Node pos="r" depth="2" NCoef="0" IVar="-1" Cut="0.0000000000000000e+00" cType="1" res="7.7152351150289178e-04" rms="4.6307003498077393e-01" purity="6.7943400144577026e-01" nType="-99"/>
        </Node>
        <Node pos="r" depth="1" NCoef="0" IVar="1" Cut="-1.5790313482284546e+00" cType="1" res="4.0972717106342316e-02" rms="4.6520370244979858e-01" purity="5.4697185754776001e-01" nType="0">
          <Node pos="l" depth="2" NCoef="0" IVar="-1" Cut="0.0000000000000000e+00" cType="1" res="-2.0542766433209181e-03" rms="4.4588556885719299e-01" purity="2.8398221731185913e-01" nType="-99"/>
          <Node pos="r" depth="2" NCoef="0" IVar="-1" Cut="0.0000000000000000e+00" cType="1" res="1.2856753310188651e-03" rms="4.6666625142097473e-01" purity="5.8962321281433105e-01" nType="-99"/>
        </Node>
      </Node>
    </BinaryTree>
    <BinaryTree type="DecisionTree" boostWeight="1.0000000000000000e+00" itree="191">
      <Node pos="s" depth="0" NCoef="0" IVar="3" Cut="1.6882196664810181e+00" cType="1" res="7.5024147517979145e-03" rms="4.6938267350196838e-01" purity="4.9492648243904114e-01" nType="0">
        <Node pos="l" depth="1" NCoef="0" IVar="0" Cut="8.8169563293457031e+01" cType="1" res="5.4881639778614044e-02" rms="4.6738824248313904e-01" purity="5.7884484529495239e-01" nType="0">
          <Node pos="l" depth="2" NCoef="0" IVar="-1" Cut="0.0000000000000000e+00" cType="1" res="-2.1993214613758028e-04" rms="4.7135072946548462e-01" purity="5.0230985879898071e-01" nType="-99"/>
          <Node pos="r" depth="2" NCoef="0" IVar="-1" Cut="0.0000000000000000e+00" cType="1" res="2.4802440311759710e-03" rms="4.5632094144821167e-01" purity="6.4771598577499390e-01" nType="-99"/>
        </Node>
        <Node pos="r" depth="1" NCoef="0" IVar="1" Cut="-2.0069761276245117e+00" cType="1" res="-1.3310049660503864e-02" rms="4.6874469518661499e-01" purity="4.5806333422660828e-01" nType="0">
          <Node pos="l" depth="2" NCoef="0" IVar="-1" Cut="0.0000000000000000e+00" cType="1" res="-6.4162081107497215e-03" rms="3.8575965166091919e-01" purity="1.8645803630352020e-01" nType="-99"/>
          <Node pos="r" depth="2" NCoef="0" IVar="-1" Cut="0.0000000000000000e+00" cType="1" res="-1.4796621690038592e-04" rms="4.7378987073898315e-01" purity="4.7949743270874023e-01" nType="-99"/>
        </Node>
      </Node>
    </BinaryTree>
    <BinaryTree type="DecisionTree" boostWeight="1.0000000000000000e+00" itree="192">
      <Node pos="s" depth="0" NCoef="0" IVar="3" Cut="1.8773212432861328e+00" cType="1" res="1.5893954783678055e-02" rms="4.6955722570419312e-01" purity="5.0346148014068604e-01" nType="0">
        <Node pos="l" depth="1" NCoef="0" IVar="0" Cut="9.3433921813964844e+01" cType="1" res="5.4954513907432556e-02" rms="4.6663138270378113e-01" purity="5.7665222883224487e-01" nType="0">
          <Node pos="l" depth="2" NCoef="0" IVar="-1" Cut="0.0000000000000000e+00" cType="1" res="1.1651727982098237e-04" rms="4.7227782011032104e-01" purity="5.1335763931274414e-01" nType="-99"/>
          <Node pos="r" depth="2" NCoef="0" IVar="-1" Cut="0.0000000000000000e+00" cType="1" res="2.1749346051365137e-03" rms="4.5754045248031616e-01" purity="6.2992513179779053e-01" nType="-99"/>
        </Node>
        <Node pos="r" depth="1" NCoef="0" IVar="2" Cut="7.7526193857192993e-01" cType="1" res="-6.7104715853929520e-03" rms="4.6976080536842346e-01" purity="4.6110591292381287e-01" nType="0">
          <Node pos="l" depth="2" NCoef="0" IVar="-1" Cut="0.0000000000000000e+00" cType="1" res="-5.7345721870660782e-04" rms="4.7003683447837830e-01" purity="4.4040554761886597e-01" nType="-99"/>
          <Node pos="r" depth="2" NCoef="0" IVar="-1" Cut="0.0000000000000000e+00" cType="1" res="1.9207843579351902e-03" rms="4.5804801583290100e-01" purity="6.0117834806442261e-01" nType="-99"/>
        </Node>
      </Node>
    </BinaryTree>
    <BinaryTree type="DecisionTree" boostWeight="1.0000000000000000e+00" itree="193">
      <Node pos="s" depth="0" NCoef="0" IVar="1" Cut="-1.7364911735057831e-01" cType="1" res="8.8751791045069695e-03" rms="4.6694254875183105e-01" purity="4.9951887130737305e-01" nType="0">
        <Node pos="l" depth="1" NCoef="0" IVar="2" Cut="7.7225369215011597e-01" cType="1" res="-2.8266018256545067e-02" rms="4.5783185958862305e-01" purity="3.2624584436416626e-01" nType="0">
          <Node pos="l" depth="2" NCoef="0" IVar="-1" Cut="0.0000000000000000e+00" cType="1" res="-1.6274795634672046e-03" rms="4.5071107149124146e-01" purity="3.0317184329032898e-01" nType="-99"/>
          <Node pos="r" depth="2" NCoef="0" IVar="-1" Cut="0.0000000000000000e+00" cType="1" res="1.2863782467320561e-03" rms="4.8815914988517761e-01" purity="4.5195978879928589e-01" nType="-99"/>
        </Node>
        <Node pos="r" depth="1" NCoef="0" IVar="9" Cut="1.5513171255588531e-01" cType="1" res="3.2580900937318802e-02" rms="4.7113743424415588e-01" purity="6.1011201143264771e-01" nType="0">
          <Node pos="l" depth="2" NCoef="0" IVar="-1" Cut="0.0000000000000000e+00" cType="1" res="4.0310350595973432e-04" rms="4.7509312629699707e-01" purity="5.9024822711944580e-01" nType="-99"/>
          <Node pos="r" depth="2" NCoef="0" IVar="-1" Cut="0.0000000000000000e+00" cType="1" res="2.1745478734374046e-03" rms="4.4382494688034058e-01" purity="7.0850807428359985e-01" nType="-99"/>
        </Node>
      </Node>
    </BinaryTree>
    <BinaryTree type="DecisionTree" boostWeight="1.0000000000000000e+00" itree="194">
      <Node pos="s" depth="0" NCoef="0" IVar="1" Cut="2.3911900520324707e+00" cType="1" res="1.2495453469455242e-02" rms="4.6785476803779602e-01" purity="5.0233912467956543e-01" nType="0">
        <Node pos="l" depth="1" NCoef="0" IVar="2" Cut="6.0258752107620239e-01" cType="1" res="1.7709763487800956e-03" rms="4.7457289695739746e-01" purity="4.6196180582046509e-01" nType="0">
          <Node pos="l" depth="2" NCoef="0" IVar="-1" Cut="0.0000000000000000e+00" cType="1" res="-7.0628168759867549e-04" rms="4.7279834747314453e-01" purity="4.1070613265037537e-01" nType="-99"/>
          <Node pos="r" depth="2" NCoef="0" IVar="-1" Cut="0.0000000000000000e+00" cType="1" res="7.5832236325368285e-04" rms="4.7494179010391235e-01" purity="5.1816034317016602e-01" nType="-99"/>
        </Node>
        <Node pos="r" depth="1" NCoef="0" IVar="-1" Cut="0.0000000000000000e+00" cType="1" res="1.7483730334788561e-03" rms="4.1188654303550720e-01" purity="7.7732843160629272e-01" nType="-99"/>
      </Node>
    </BinaryTree>
    <BinaryTree type="DecisionTree" boostWeight="1.0000000000000000e+00" itree="195">
      <Node pos="s" depth="0" NCoef="0" IVar="3" Cut="2.5765087604522705e+00" cType="1" res="9.9934777244925499e-03" rms="4.6905031800270081e-01" purity="4.9829235672950745e-01" nType="0">
        <Node pos="l" depth="1" NCoef="0" IVar="4" Cut="9.5095733642578125e+01" cType="1" res="3.3348377794027328e-02" rms="4.7133547067642212e-01" purity="5.4036164283752441e-01" nType="0">
          <Node pos="l" depth="2" NCoef="0" IVar="-1" Cut="0.0000000000000000e+00" cType="1" res="-1.3749123318120837e-03" rms="4.7100058197975159e-01" purity="4.1816648840904236e-01" nType="-99"/>
          <Node pos="r" depth="2" NCoef="0" IVar="-1" Cut="0.0000000000000000e+00" cType="1" res="1.1194335529580712e-03" rms="4.7010490298271179e-01" purity="5.6029653549194336e-01" nType="-99"/>
        </Node>
        <Node pos="r" depth="1" NCoef="0" IVar="7" Cut="3.3760488033294678e-02" cType="1" res="-3.1226158142089844e-02" rms="4.6211877465248108e-01" purity="4.2404317855834961e-01" nType="0">
          <Node pos="l" depth="2" NCoef="0" IVar="-1" Cut="0.0000000000000000e+00" cType="1" res="1.9434725982137024e-04" rms="4.6587631106376648e-01" purity="4.7781395912170410e-01" nType="-99"/>
          <Node pos="r" depth="2" NCoef="0" IVar="-1" Cut="0.0000000000000000e+00" cType="1" res="-1.8616807647049427e-03" rms="4.5734250545501709e-01" purity="3.8480523228645325e-01" nType="-99"/>
        </Node>
      </Node>
    </BinaryTree>
    <BinaryTree type="DecisionTree" boostWeight="1.0000000000000000e+00" itree="196">
      <Node pos="s" depth="0" NCoef="0" IVar="2" Cut="7.4861192703247070e-01" cType="1" res="1.2951188720762730e-02" rms="4.6813625097274780e-01" purity="5.0148731470108032e-01" nType="0">
        <Node pos="l" depth="1" NCoef="0" IVar="1" Cut="2.0039851665496826e+00" cType="1" res="-1.3395048445090652e-03" rms="4.6958476305007935e-01" purity="4.7709923982620239e-01" nType="0">
          <Node pos="l" depth="2" NCoef="0" IVar="-1" Cut="0.0000000000000000e+00" cType="1" res="-4.2329178540967405e-04" rms="4.7475096583366394e-01" purity="4.2244097590446472e-01" nType="-99"/>
          <Node pos="r" depth="2" NCoef="0" IVar="-1" Cut="0.0000000000000000e+00" cType="1" res="1.2457813136279583e-03" rms="4.3943080306053162e-01" purity="7.3234546184539795e-01" nType="-99"/>
        </Node>
        <Node pos="r" depth="1" NCoef="0" IVar="1" Cut="-1.7268308997154236e-01" cType="1" res="7.8741475939750671e-02" rms="4.5566412806510925e-01" purity="6.1376315355300903e-01" nType="0">
          <Node pos="l" depth="2" NCoef="0" IVar="-1" Cut="0.0000000000000000e+00" cType="1" res="1.0144767584279180e-03" rms="4.9081423878669739e-01" purity="4.3582841753959656e-01" nType="-99"/>
          <Node pos="r" depth="2" NCoef="0" IVar="-1" Cut="0.0000000000000000e+00" cType="1" res="2.2237375378608704e-03" rms="4.2473986744880676e-01" purity="7.4606406688690186e-01" nType="-99"/>
        </Node>
      </Node>
    </BinaryTree>
    <BinaryTree type="DecisionTree" boostWeight="1.0000000000000000e+00" itree="197">
      <Node pos="s" depth="0" NCoef="0" IVar="1" Cut="-7.6234990358352661e-01" cType="1" res="1.1758401989936829e-02" rms="4.6784535050392151e-01" purity="5.0175589323043823e-01" nType="0">
        <Node pos="l" depth="1" NCoef="0" IVar="2" Cut="6.0675454139709473e-01" cType="1" res="-3.8192432373762131e-02" rms="4.4786247611045837e-01" purity="2.9421851038932800e-01" nType="0">
          <Node pos="l" depth="2" NCoef="0" IVar="-1" Cut="0.0000000000000000e+00" cType="1" res="-3.7224770057946444e-03" rms="4.1525432467460632e-01" purity="2.2733584046363831e-01" nType="-99"/>
          <Node pos="r" depth="2" NCoef="0" IVar="-1" Cut="0.0000000000000000e+00" cType="1" res="-8.5164123447611928e-05" rms="4.7313207387924194e-01" purity="3.5585871338844299e-01" nType="-99"/>
        </Node>
        <Node pos="r" depth="1" NCoef="0" IVar="3" Cut="3.1347498893737793e+00" cType="1" res="3.0060090124607086e-02" rms="4.7363972663879395e-01" purity="5.7779628038406372e-01" nType="0">
          <Node pos="l" depth="2" NCoef="0" IVar="-1" Cut="0.0000000000000000e+00" cType="1" res="9.1302668442949653e-04" rms="4.7231987118721008e-01" purity="5.9457749128341675e-01" nType="-99"/>
          <Node pos="r" depth="2" NCoef="0" IVar="-1" Cut="0.0000000000000000e+00" cType="1" res="-1.2800191761925817e-03" rms="4.7697943449020386e-01" purity="4.4731232523918152e-01" nType="-99"/>
        </Node>
      </Node>
    </BinaryTree>
    <BinaryTree type="DecisionTree" boostWeight="1.0000000000000000e+00" itree="198">
      <Node pos="s" depth="0" NCoef="0" IVar="1" Cut="2.0012805461883545e+00" cType="1" res="1.4141881838440895e-02" rms="4.6638843417167664e-01" purity="5.0358462333679199e-01" nType="0">
        <Node pos="l" depth="1" NCoef="0" IVar="2" Cut="6.3912695646286011e-01" cType="1" res="-2.3214085958898067e-03" rms="4.7563213109970093e-01" purity="4.4455647468566895e-01" nType="0">
          <Node pos="l" depth="2" NCoef="0" IVar="-1" Cut="0.0000000000000000e+00" cType="1" res="-8.3259528037160635e-04" rms="4.7076034545898438e-01" purity="3.9738675951957703e-01" nType="-99"/>
          <Node pos="r" depth="2" NCoef="0" IVar="-1" Cut="0.0000000000000000e+00" cType="1" res="9.3351595569401979e-04" rms="4.8046281933784485e-01" purity="5.1724302768707275e-01" nType="-99"/>
        </Node>
        <Node pos="r" depth="1" NCoef="0" IVar="7" Cut="4.2063772678375244e-02" cType="1" res="8.9399032294750214e-02" rms="4.1329246759414673e-01" purity="7.7341461181640625e-01" nType="0">
          <Node pos="l" depth="2" NCoef="0" IVar="-1" Cut="0.0000000000000000e+00" cType="1" res="2.3628491908311844e-03" rms="3.8254463672637939e-01" purity="8.1881010532379150e-01" nType="-99"/>
          <Node pos="r" depth="2" NCoef="0" IVar="-1" Cut="0.0000000000000000e+00" cType="1" res="1.1800389038398862e-03" rms="4.4168770313262939e-01" purity="7.2472095489501953e-01" nType="-99"/>
        </Node>
      </Node>
    </BinaryTree>
    <BinaryTree type="DecisionTree" boostWeight="1.0000000000000000e+00" itree="199">
      <Node pos="s" depth="0" NCoef="0" IVar="3" Cut="3.4035708904266357e+00" cType="1" res="2.0130375400185585e-02" rms="4.6842309832572937e-01" purity="5.1077938079833984e-01" nType="0">
        <Node pos="l" depth="1" NCoef="0" IVar="1" Cut="4.5350391417741776e-02" cType="1" res="2.6726337149739265e-02" rms="4.6938210725784302e-01" purity="5.2194476127624512e-01" nType="0">
          <Node pos="l" depth="2" NCoef="0" IVar="-1" Cut="0.0000000000000000e+00" cType="1" res="-1.3633456546813250e-04" rms="4.7122541069984436e-01" purity="3.6240044236183167e-01" nType="-99"/>
          <Node pos="r" depth="2" NCoef="0" IVar="-1" Cut="0.0000000000000000e+00" cType="1" res="1.0767896892502904e-03" rms="4.6668043732643127e-01" purity="6.4108139276504517e-01" nType="-99"/>
        </Node>
        <Node pos="r" depth="1" NCoef="0" IVar="-1" Cut="0.0000000000000000e+00" cType="1" res="-3.6507775075733662e-03" rms="4.3389001488685608e-01" purity="3.0939286947250366e-01" nType="-99"/>
      </Node>
    </BinaryTree>
    <BinaryTree type="DecisionTree" boostWeight="1.0000000000000000e+00" itree="200">
      <Node pos="s" depth="0" NCoef="0" IVar="1" Cut="2.2273440361022949e+00" cType="1" res="1.1343997903168201e-02" rms="4.6903592348098755e-01" purity="5.0018769502639771e-01" nType="0">
        <Node pos="l" depth="1" NCoef="0" IVar="3" Cut="3.3578152656555176e+00" cType="1" res="-5.6788738584145904e-04" rms="4.7636801004409790e-01" purity="4.5508745312690735e-01" nType="0">
          <Node pos="l" depth="2" NCoef="0" IVar="-1" Cut="0.0000000000000000e+00" cType="1" res="1.7167057376354933e-04" rms="4.7821220755577087e-01" purity="4.6681553125381470e-01" nType="-99"/>
          <Node pos="r" depth="2" NCoef="0" IVar="-1" Cut="0.0000000000000000e+00" cType="1" res="-4.6423007734119892e-03" rms="4.3052390217781067e-01" purity="2.6582562923431396e-01" nType="-99"/>
        </Node>
        <Node pos="r" depth="1" NCoef="0" IVar="-1" Cut="0.0000000000000000e+00" cType="1" res="1.6983062960207462e-03" rms="4.1474249958992004e-01" purity="7.7301257848739624e-01" nType="-99"/>
      </Node>
    </BinaryTree>
    <BinaryTree type="DecisionTree" boostWeight="1.0000000000000000e+00" itree="201">
      <Node pos="s" depth="0" NCoef="0" IVar="3" Cut="2.9775915145874023e+00" cType="1" res="1.5774829313158989e-02" rms="4.6695414185523987e-01" purity="5.0631344318389893e-01" nType="0">
        <Node pos="l" depth="1" NCoef="0" IVar="4" Cut="9.3036552429199219e+01" cType="1" res="2.9984408989548683e-02" rms="4.6914404630661011e-01" purity="5.3307610750198364e-01" nType="0">
          <Node pos="l" depth="2" NCoef="0" IVar="-1" Cut="0.0000000000000000e+00" cType="1" res="-1.4411791926249862e-03" rms="4.6313351392745972e-01" purity="4.1024163365364075e-01" nType="-99"/>
          <Node pos="r" depth="2" NCoef="0" IVar="-1" Cut="0.0000000000000000e+00" cType="1" res="9.9937326740473509e-04" rms="4.6897587180137634e-01" purity="5.5025851726531982e-01" nType="-99"/>
        </Node>
        <Node pos="r" depth="1" NCoef="0" IVar="2" Cut="5.7827067375183105e-01" cType="1" res="-4.6104885637760162e-02" rms="4.5211800932884216e-01" purity="3.8976782560348511e-01" nType="0">
          <Node pos="l" depth="2" NCoef="0" IVar="-1" Cut="0.0000000000000000e+00" cType="1" res="-3.4218570217490196e-03" rms="4.3578293919563293e-01" purity="3.1092897057533264e-01" nType="-99"/>
          <Node pos="r" depth="2" NCoef="0" IVar="-1" Cut="0.0000000000000000e+00" cType="1" res="2.9301835456863046e-04" rms="4.6378359198570251e-01" purity="4.8057594895362854e-01" nType="-99"/>
        </Node>
      </Node>
    </BinaryTree>
    <BinaryTree type="DecisionTree" boostWeight="1.0000000000000000e+00" itree="202">
      <Node pos="s" depth="0" NCoef="0" IVar="4" Cut="1.0982112121582031e+02" cType="1" res="3.9770343573763967e-04" rms="4.6693688631057739e-01" purity="4.8972067236900330e-01" nType="0">
        <Node pos="l" depth="1" NCoef="0" IVar="8" Cut="3.9975297451019287e-01" cType="1" res="-5.9297643601894379e-02" rms="4.5584085583686829e-01" purity="3.8716277480125427e-01" nType="0">
          <Node pos="l" depth="2" NCoef="0" IVar="-1" Cut="0.0000000000000000e+00" cType="1" res="-3.1231339089572430e-03" rms="4.4210973381996155e-01" purity="3.3650627732276917e-01" nType="-99"/>
          <Node pos="r" depth="2" NCoef="0" IVar="-1" Cut="0.0000000000000000e+00" cType="1" res="-3.3486541360616684e-04" rms="4.7220677137374878e-01" purity="4.6473610401153564e-01" nType="-99"/>
        </Node>
        <Node pos="r" depth="1" NCoef="0" IVar="9" Cut="1.1550156027078629e-01" cType="1" res="1.7601557075977325e-02" rms="4.6867683529853821e-01" purity="5.1927727460861206e-01" nType="0">
          <Node pos="l" depth="2" NCoef="0" IVar="-1" Cut="0.0000000000000000e+00" cType="1" res="-4.5449545723386109e-05" rms="4.6957048773765564e-01" purity="4.9378687143325806e-01" nType="-99"/>
          <Node pos="r" depth="2" NCoef="0" IVar="-1" Cut="0.0000000000000000e+00" cType="1" res="1.7381095094606280e-03" rms="4.6148332953453064e-01" purity="5.9350645542144775e-01" nType="-99"/>
        </Node>
      </Node>
    </BinaryTree>
    <BinaryTree type="DecisionTree" boostWeight="1.0000000000000000e+00" itree="203">
      <Node pos="s" depth="0" NCoef="0" IVar="1" Cut="1.2874325513839722e+00" cType="1" res="6.0637607239186764e-03" rms="4.6507200598716736e-01" purity="4.9682787060737610e-01" nType="0">
        <Node pos="l" depth="1" NCoef="0" IVar="4" Cut="2.1730773925781250e+02" cType="1" res="-1.5738883987069130e-02" rms="4.7247514128684998e-01" purity="4.0219345688819885e-01" nType="0">
          <Node pos="l" depth="2" NCoef="0" IVar="-1" Cut="0.0000000000000000e+00" cType="1" res="-1.1676254216581583e-03" rms="4.6577927470207214e-01" purity="3.7107506394386292e-01" nType="-99"/>
          <Node pos="r" depth="2" NCoef="0" IVar="-1" Cut="0.0000000000000000e+00" cType="1" res="1.0894226143136621e-03" rms="4.8617091774940491e-01" purity="4.8965981602668762e-01" nType="-99"/>
        </Node>
        <Node pos="r" depth="1" NCoef="0" IVar="2" Cut="6.5961819887161255e-01" cType="1" res="5.5481519550085068e-02" rms="4.4389232993125916e-01" purity="7.1132564544677734e-01" nType="0">
          <Node pos="l" depth="2" NCoef="0" IVar="-1" Cut="0.0000000000000000e+00" cType="1" res="5.7059113169088960e-04" rms="4.6788385510444641e-01" purity="6.5917259454727173e-01" nType="-99"/>
          <Node pos="r" depth="2" NCoef="0" IVar="-1" Cut="0.0000000000000000e+00" cType="1" res="2.1640732884407043e-03" rms="3.9195123314857483e-01" purity="8.0495321750640869e-01" nType="-99"/>
        </Node>
      </Node>
    </BinaryTree>
    <BinaryTree type="DecisionTree" boostWeight="1.0000000000000000e+00" itree="204">
      <Node pos="s" depth="0" NCoef="0" IVar="1" Cut="2.0792366564273834e-01" cType="1" res="1.0615585371851921e-02" rms="4.6621096134185791e-01" purity="5.0035285949707031e-01" nType="0">
        <Node pos="l" depth="1" NCoef="0" IVar="3" Cut="3.0814776420593262e+00" cType="1" res="-2.3344505578279495e-02" rms="4.6376672387123108e-01" purity="3.4424999356269836e-01" nType="0">
          <Node pos="l" depth="2" NCoef="0" IVar="-1" Cut="0.0000000000000000e+00" cType="1" res="-3.7988836993463337e-04" rms="4.7267585992813110e-01" purity="3.6746615171432495e-01" nType="-99"/>
          <Node pos="r" depth="2" NCoef="0" IVar="-1" Cut="0.0000000000000000e+00" cType="1" res="-4.5088287442922592e-03" rms="4.0264198184013367e-01" purity="2.1174481511116028e-01" nType="-99"/>
        </Node>
        <Node pos="r" depth="1" NCoef="0" IVar="3" Cut="3.0665781497955322e+00" cType="1" res="4.0280528366565704e-02" rms="4.6631625294685364e-01" purity="6.3671243190765381e-01" nType="0">
          <Node pos="l" depth="2" NCoef="0" IVar="-1" Cut="0.0000000000000000e+00" cType="1" res="1.1205938644707203e-03" rms="4.6293121576309204e-01" purity="6.5629541873931885e-01" nType="-99"/>
          <Node pos="r" depth="2" NCoef="0" IVar="-1" Cut="0.0000000000000000e+00" cType="1" res="-8.8858563685789704e-04" rms="4.7977888584136963e-01" purity="5.1529723405838013e-01" nType="-99"/>
        </Node>
      </Node>
    </BinaryTree>
    <BinaryTree type="DecisionTree" boostWeight="1.0000000000000000e+00" itree="205">
      <Node pos="s" depth="0" NCoef="0" IVar="5" Cut="-7.1197085082530975e-02" cType="1" res="1.1334696784615517e-02" rms="4.7000375390052795e-01" purity="4.9984744191169739e-01" nType="0">
        <Node pos="l" depth="1" NCoef="0" IVar="-1" Cut="0.0000000000000000e+00" cType="1" res="-2.9128389433026314e-03" rms="4.6928176283836365e-01" purity="3.7416851520538330e-01" nType="-99"/>
        <Node pos="r" depth="1" NCoef="0" IVar="4" Cut="1.1572712707519531e+02" cType="1" res="1.8065022304654121e-02" rms="4.6926686167716980e-01" purity="5.0808274745941162e-01" nType="0">
          <Node pos="l" depth="2" NCoef="0" IVar="-1" Cut="0.0000000000000000e+00" cType="1" res="-8.9552655117586255e-04" rms="4.6361419558525085e-01" purity="4.1760712862014771e-01" nType="-99"/>
          <Node pos="r" depth="2" NCoef="0" IVar="-1" Cut="0.0000000000000000e+00" cType="1" res="8.6744566215202212e-04" rms="4.7008380293846130e-01" purity="5.3972125053405762e-01" nType="-99"/>
        </Node>
      </Node>
    </BinaryTree>
    <BinaryTree type="DecisionTree" boostWeight="1.0000000000000000e+00" itree="206">
      <Node pos="s" depth="0" NCoef="0" IVar="3" Cut="1.7196458578109741e+00" cType="1" res="1.4345634728670120e-02" rms="4.6596679091453552e-01" purity="5.0476211309432983e-01" nType="0">
        <Node pos="l" depth="1" NCoef="0" IVar="0" Cut="1.0149321746826172e+02" cType="1" res="5.7944756001234055e-02" rms="4.6512320637702942e-01" purity="5.8464682102203369e-01" nType="0">
          <Node pos="l" depth="2" NCoef="0" IVar="-1" Cut="0.0000000000000000e+00" cType="1" res="1.5661472571082413e-04" rms="4.6842366456985474e-01" purity="5.2085340023040771e-01" nType="-99"/>
          <Node pos="r" depth="2" NCoef="0" IVar="-1" Cut="0.0000000000000000e+00" cType="1" res="2.6526262518018484e-03" rms="4.5236283540725708e-01" purity="6.6606211662292480e-01" nType="-99"/>
        </Node>
        <Node pos="r" depth="1" NCoef="0" IVar="1" Cut="1.6530876159667969e+00" cType="1" res="-5.9935580939054489e-03" rms="4.6496343612670898e-01" purity="4.6749553084373474e-01" nType="0">
          <Node pos="l" depth="2" NCoef="0" IVar="-1" Cut="0.0000000000000000e+00" cType="1" res="-7.1443966589868069e-04" rms="4.6983358263969421e-01" purity="3.9270752668380737e-01" nType="-99"/>
          <Node pos="r" depth="2" NCoef="0" IVar="-1" Cut="0.0000000000000000e+00" cType="1" res="1.0576230706647038e-03" rms="4.4379627704620361e-01" purity="7.1592038869857788e-01" nType="-99"/>
        </Node>
      </Node>
    </BinaryTree>
    <BinaryTree type="DecisionTree" boostWeight="1.0000000000000000e+00" itree="207">
      <Node pos="s" depth="0" NCoef="0" IVar="1" Cut="1.3186478614807129e+00" cType="1" res="1.0115892626345158e-02" rms="4.6735563874244690e-01" purity="4.9877578020095825e-01" nType="0">
        <Node pos="l" depth="1" NCoef="0" IVar="9" Cut="1.5686382353305817e-01" cType="1" res="-9.4317346811294556e-03" rms="4.7537052631378174e-01" purity="4.0911981463432312e-01" nType="0">
          <Node pos="l" depth="2" NCoef="0" IVar="-1" Cut="0.0000000000000000e+00" cType="1" res="-6.7188090179115534e-04" rms="4.7327283024787903e-01" purity="3.9183151721954346e-01" nType="-99"/>
          <Node pos="r" depth="2" NCoef="0" IVar="-1" Cut="0.0000000000000000e+00" cType="1" res="1.3143197866156697e-03" rms="4.8082995414733887e-01" purity="4.9173423647880554e-01" nType="-99"/>
        </Node>
        <Node pos="r" depth="1" NCoef="0" IVar="3" Cut="1.6788109540939331e+00" cType="1" res="5.7326871901750565e-02" rms="4.4387030601501465e-01" purity="7.1531081199645996e-01" nType="0">
          <Node pos="l" depth="2" NCoef="0" IVar="-1" Cut="0.0000000000000000e+00" cType="1" res="2.0403095986694098e-03" rms="4.1059529781341553e-01" purity="7.7770227193832397e-01" nType="-99"/>
          <Node pos="r" depth="2" NCoef="0" IVar="-1" Cut="0.0000000000000000e+00" cType="1" res="7.3563243495300412e-04" rms="4.5807462930679321e-01" purity="6.8380045890808105e-01" nType="-99"/>
        </Node>
      </Node>
    </BinaryTree>
    <BinaryTree type="DecisionTree" boostWeight="1.0000000000000000e+00" itree="208">
      <Node pos="s" depth="0" NCoef="0" IVar="1" Cut="-1.1132649183273315e+00" cType="1" res="1.7634252086281776e-02" rms="4.6590036153793335e-01" purity="5.0963723659515381e-01" nType="0">
        <Node pos="l" depth="1" NCoef="0" IVar="3" Cut="2.8539972305297852e+00" cType="1" res="-3.9435464888811111e-02" rms="4.4185760617256165e-01" purity="2.8023394942283630e-01" nType="0">
          <Node pos="l" depth="2" NCoef="0" IVar="-1" Cut="0.0000000000000000e+00" cType="1" res="-9.2684791889041662e-04" rms="4.5822677016258240e-01" purity="3.1156778335571289e-01" nType="-99"/>
          <Node pos="r" depth="2" NCoef="0" IVar="-1" Cut="0.0000000000000000e+00" cType="1" res="-4.9268347211182117e-03" rms="3.8700804114341736e-01" purity="1.8964704871177673e-01" nType="-99"/>
        </Node>
        <Node pos="r" depth="1" NCoef="0" IVar="2" Cut="6.2699788808822632e-01" cType="1" res="3.1941592693328857e-02" rms="4.7065213322639465e-01" purity="5.6714850664138794e-01" nType="0">
          <Node pos="l" depth="2" NCoef="0" IVar="-1" Cut="0.0000000000000000e+00" cType="1" res="1.8834683578461409e-04" rms="4.7781732678413391e-01" purity="5.1333373785018921e-01" nType="-99"/>
          <Node pos="r" depth="2" NCoef="0" IVar="-1" Cut="0.0000000000000000e+00" cType="1" res="1.4507002197206020e-03" rms="4.5822718739509583e-01" purity="6.4262437820434570e-01" nType="-99"/>
        </Node>
      </Node>
    </BinaryTree>
    <BinaryTree type="DecisionTree" boostWeight="1.0000000000000000e+00" itree="209">
      <Node pos="s" depth="0" NCoef="0" IVar="3" Cut="3.2987534999847412e+00" cType="1" res="1.2693604454398155e-02" rms="4.6750783920288086e-01" purity="5.0196015834808350e-01" nType="0">
        <Node pos="l" depth="1" NCoef="0" IVar="4" Cut="1.0323795318603516e+02" cType="1" res="2.1161712706089020e-02" rms="4.6877565979957581e-01" purity="5.1612722873687744e-01" nType="0">
          <Node pos="l" depth="2" NCoef="0" IVar="-1" Cut="0.0000000000000000e+00" cType="1" res="-1.3820560416206717e-03" rms="4.6071290969848633e-01" purity="4.0321320295333862e-01" nType="-99"/>
          <Node pos="r" depth="2" NCoef="0" IVar="-1" Cut="0.0000000000000000e+00" cType="1" res="8.7992451153695583e-04" rms="4.6928840875625610e-01" purity="5.4030281305313110e-01" nType="-99"/>
        </Node>
        <Node pos="r" depth="1" NCoef="0" IVar="-1" Cut="0.0000000000000000e+00" cType="1" res="-3.9029400795698166e-03" rms="4.3211221694946289e-01" purity="3.0290406942367554e-01" nType="-99"/>
      </Node>
    </BinaryTree>
    <BinaryTree type="DecisionTree" boostWeight="1.0000000000000000e+00" itree="210">
      <Node pos="s" depth="0" NCoef="0" IVar="1" Cut="-9.2272621393203735e-01" cType="1" res="1.1268575675785542e-02" rms="4.6704921126365662e-01" purity="5.0128942728042603e-01" nType="0">
        <Node pos="l" depth="1" NCoef="0" IVar="1" Cut="-2.2151081562042236e+00" cType="1" res="-3.7090443074703217e-02" rms="4.4452282786369324e-01" purity="2.8617954254150391e-01" nType="0">
          <Node pos="l" depth="2" NCoef="0" IVar="-1" Cut="0.0000000000000000e+00" cType="1" res="-5.5047236382961273e-03" rms="4.0093779563903809e-01" purity="2.0921532809734344e-01" nType="-99"/>
          <Node pos="r" depth="2" NCoef="0" IVar="-1" Cut="0.0000000000000000e+00" cType="1" res="-7.9897622345015407e-04" rms="4.5406201481819153e-01" purity="3.0691894888877869e-01" nType="-99"/>
        </Node>
        <Node pos="r" depth="1" NCoef="0" IVar="2" Cut="4.3765896558761597e-01" cType="1" res="2.6228055357933044e-02" rms="4.7280007600784302e-01" purity="5.6783187389373779e-01" nType="0">
          <Node pos="l" depth="2" NCoef="0" IVar="-1" Cut="0.0000000000000000e+00" cType="1" res="-1.0849626269191504e-03" rms="4.7918716073036194e-01" purity="4.6096828579902649e-01" nType="-99"/>
          <Node pos="r" depth="2" NCoef="0" IVar="-1" Cut="0.0000000000000000e+00" cType="1" res="8.9685415150597692e-04" rms="4.7054162621498108e-01" purity="5.8779829740524292e-01" nType="-99"/>
        </Node>
      </Node>
    </BinaryTree>
    <BinaryTree type="DecisionTree" boostWeight="1.0000000000000000e+00" itree="211">
      <Node pos="s" depth="0" NCoef="0" IVar="4" Cut="1.6623927307128906e+02" cType="1" res="7.7802897430956364e-03" rms="4.6745678782463074e-01" purity="4.9562856554985046e-01" nType="0">
        <Node pos="l" depth="1" NCoef="0" IVar="9" Cut="7.2994947433471680e-02" cType="1" res="-1.8083648756146431e-02" rms="4.6523267030715942e-01" purity="4.4726881384849548e-01" nType="0">
          <Node pos="l" depth="2" NCoef="0" IVar="-1" Cut="0.0000000000000000e+00" cType="1" res="-2.2952351719141006e-03" rms="4.5849639177322388e-01" purity="3.7142121791839600e-01" nType="-99"/>
          <Node pos="r" depth="2" NCoef="0" IVar="-1" Cut="0.0000000000000000e+00" cType="1" res="2.3439040523953736e-04" rms="4.6637913584709167e-01" purity="4.8602035641670227e-01" nType="-99"/>
        </Node>
        <Node pos="r" depth="1" NCoef="0" IVar="9" Cut="3.3358223736286163e-02" cType="1" res="3.9291001856327057e-02" rms="4.6822562813758850e-01" purity="5.5454647541046143e-01" nType="0">
          <Node pos="l" depth="2" NCoef="0" IVar="-1" Cut="0.0000000000000000e+00" cType="1" res="-2.2627953148912638e-04" rms="4.7174495458602905e-01" purity="4.8855876922607422e-01" nType="-99"/>
          <Node pos="r" depth="2" NCoef="0" IVar="-1" Cut="0.0000000000000000e+00" cType="1" res="1.4000791124999523e-03" rms="4.6542805433273315e-01" purity="5.8102732896804810e-01" nType="-99"/>
        </Node>
      </Node>
    </BinaryTree>
    <BinaryTree type="DecisionTree" boostWeight="1.0000000000000000e+00" itree="212">
      <Node pos="s" depth="0" NCoef="0" IVar="1" Cut="-2.9793420433998108e-01" cType="1" res="8.6212083697319031e-03" rms="4.6649497747421265e-01" purity="4.9856179952621460e-01" nType="0">
        <Node pos="l" depth="1" NCoef="0" IVar="9" Cut="9.3251034617424011e-02" cType="1" res="-2.9029173776507378e-02" rms="4.5610347390174866e-01" purity="3.1616494059562683e-01" nType="0">
          <Node pos="l" depth="2" NCoef="0" IVar="-1" Cut="0.0000000000000000e+00" cType="1" res="-1.9567809067666531e-03" rms="4.4519248604774475e-01" purity="2.8792420029640198e-01" nType="-99"/>
          <Node pos="r" depth="2" NCoef="0" IVar="-1" Cut="0.0000000000000000e+00" cType="1" res="-1.1405684199417010e-04" rms="4.6909764409065247e-01" purity="3.5400816798210144e-01" nType="-99"/>
        </Node>
        <Node pos="r" depth="1" NCoef="0" IVar="9" Cut="5.9332218021154404e-02" cType="1" res="3.0173262581229210e-02" rms="4.7098785638809204e-01" purity="6.0297048091888428e-01" nType="0">
          <Node pos="l" depth="2" NCoef="0" IVar="-1" Cut="0.0000000000000000e+00" cType="1" res="-3.9865824510343373e-04" rms="4.8172554373741150e-01" purity="5.3998768329620361e-01" nType="-99"/>
          <Node pos="r" depth="2" NCoef="0" IVar="-1" Cut="0.0000000000000000e+00" cType="1" res="1.2688993010669947e-03" rms="4.6218568086624146e-01" purity="6.4065051078796387e-01" nType="-99"/>
        </Node>
      </Node>
    </BinaryTree>
    <BinaryTree type="DecisionTree" boostWeight="1.0000000000000000e+00" itree="213">
      <Node pos="s" depth="0" NCoef="0" IVar="4" Cut="1.1313003540039062e+02" cType="1" res="7.7742156572639942e-03" rms="4.6769800782203674e-01" purity="4.9652707576751709e-01" nType="0">
        <Node pos="l" depth="1" NCoef="0" IVar="4" Cut="8.4452590942382812e+01" cType="1" res="-4.0627073496580124e-02" rms="4.5731735229492188e-01" purity="4.0692883729934692e-01" nType="0">
          <Node pos="l" depth="2" NCoef="0" IVar="-1" Cut="0.0000000000000000e+00" cType="1" res="-3.3688149414956570e-03" rms="4.4533431529998779e-01" purity="3.3316060900688171e-01" nType="-99"/>
          <Node pos="r" depth="2" NCoef="0" IVar="-1" Cut="0.0000000000000000e+00" cType="1" res="-4.4031007564626634e-04" rms="4.6045938134193420e-01" purity="4.4080370664596558e-01" nType="-99"/>
        </Node>
        <Node pos="r" depth="1" NCoef="0" IVar="8" Cut="3.5072883963584900e-01" cType="1" res="2.3425878956913948e-02" rms="4.6994042396545410e-01" purity="5.2550065517425537e-01" nType="0">
          <Node pos="l" depth="2" NCoef="0" IVar="-1" Cut="0.0000000000000000e+00" cType="1" res="-1.7099526012316346e-03" rms="4.6391105651855469e-01" purity="4.2094185948371887e-01" nType="-99"/>
          <Node pos="r" depth="2" NCoef="0" IVar="-1" Cut="0.0000000000000000e+00" cType="1" res="9.3225983437150717e-04" rms="4.6952626109123230e-01" purity="5.4313468933105469e-01" nType="-99"/>
        </Node>
      </Node>
    </BinaryTree>
    <BinaryTree type="DecisionTree" boostWeight="1.0000000000000000e+00" itree="214">
      <Node pos="s" depth="0" NCoef="0" IVar="1" Cut="-2.9333901405334473e-01" cType="1" res="1.4698877930641174e-02" rms="4.6602922677993774e-01" purity="5.0506407022476196e-01" nType="0">
        <Node pos="l" depth="1" NCoef="0" IVar="9" Cut="4.3719395995140076e-02" cType="1" res="-2.3494651541113853e-02" rms="4.5939308404922485e-01" purity="3.2068252563476562e-01" nType="0">
          <Node pos="l" depth="2" NCoef="0" IVar="-1" Cut="0.0000000000000000e+00" cType="1" res="-3.1796873081475496e-03" rms="4.3314629793167114e-01" purity="2.5942260026931763e-01" nType="-99"/>
          <Node pos="r" depth="2" NCoef="0" IVar="-1" Cut="0.0000000000000000e+00" cType="1" res="-3.1396484700962901e-04" rms="4.6579647064208984e-01" purity="3.3869057893753052e-01" nType="-99"/>
        </Node>
        <Node pos="r" depth="1" NCoef="0" IVar="2" Cut="7.4873995780944824e-01" cType="1" res="3.6664027720689774e-02" rms="4.6839478611946106e-01" purity="6.1110210418701172e-01" nType="0">
          <Node pos="l" depth="2" NCoef="0" IVar="-1" Cut="0.0000000000000000e+00" cType="1" res="5.3495512111112475e-04" rms="4.7505357861518860e-01" purity="5.8589380979537964e-01" nType="-99"/>
          <Node pos="r" depth="2" NCoef="0" IVar="-1" Cut="0.0000000000000000e+00" cType="1" res="2.1483872551470995e-03" rms="4.2709290981292725e-01" purity="7.3815023899078369e-01" nType="-99"/>
        </Node>
      </Node>
    </BinaryTree>
    <BinaryTree type="DecisionTree" boostWeight="1.0000000000000000e+00" itree="215">
      <Node pos="s" depth="0" NCoef="0" IVar="1" Cut="1.6278356313705444e+00" cType="1" res="8.9994380250573158e-03" rms="4.6812269091606140e-01" purity="4.9690458178520203e-01" nType="0">
        <Node pos="l" depth="1" NCoef="0" IVar="8" Cut="3.8627982139587402e-01" cType="1" res="-6.7784385755658150e-03" rms="4.7637972235679626e-01" purity="4.2489704489707947e-01" nType="0">
          <Node pos="l" depth="2" NCoef="0" IVar="-1" Cut="0.0000000000000000e+00" cType="1" res="-1.2021593283861876e-03" rms="4.6830040216445923e-01" purity="3.8486564159393311e-01" nType="-99"/>
          <Node pos="r" depth="2" NCoef="0" IVar="-1" Cut="0.0000000000000000e+00" cType="1" res="5.1236088620498776e-04" rms="4.8119804263114929e-01" purity="4.5653468370437622e-01" nType="-99"/>
        </Node>
        <Node pos="r" depth="1" NCoef="0" IVar="0" Cut="1.8721177673339844e+02" cType="1" res="6.0640405863523483e-02" rms="4.3604102730751038e-01" purity="7.3258507251739502e-01" nType="0">
          <Node pos="l" depth="2" NCoef="0" IVar="-1" Cut="0.0000000000000000e+00" cType="1" res="1.6125770052894950e-03" rms="4.2409810423851013e-01" purity="7.5591403245925903e-01" nType="-99"/>
          <Node pos="r" depth="2" NCoef="0" IVar="-1" Cut="0.0000000000000000e+00" cType="1" res="3.2248097704723477e-04" rms="4.6076801419258118e-01" purity="6.7549306154251099e-01" nType="-99"/>
        </Node>
      </Node>
    </BinaryTree>
    <BinaryTree type="DecisionTree" boostWeight="1.0000000000000000e+00" itree="216">
      <Node pos="s" depth="0" NCoef="0" IVar="1" Cut="6.4384746551513672e-01" cType="1" res="5.7667591609060764e-03" rms="4.6495807170867920e-01" purity="4.9614000320434570e-01" nType="0">
        <Node pos="l" depth="1" NCoef="0" IVar="2" Cut="5.4315954446792603e-01" cType="1" res="-1.9588353112339973e-02" rms="4.6707910299301147e-01" purity="3.6588850617408752e-01" nType="0">
          <Node pos="l" depth="2" NCoef="0" IVar="-1" Cut="0.0000000000000000e+00" cType="1" res="-2.1044269669800997e-03" rms="4.4817125797271729e-01" purity="2.9916563630104065e-01" nType="-99"/>
          <Node pos="r" depth="2" NCoef="0" IVar="-1" Cut="0.0000000000000000e+00" cType="1" res="3.6747711419593543e-05" rms="4.7646942734718323e-01" purity="4.0459147095680237e-01" nType="-99"/>
        </Node>
        <Node pos="r" depth="1" NCoef="0" IVar="2" Cut="7.0254981517791748e-01" cType="1" res="3.8418795913457870e-02" rms="4.6015882492065430e-01" purity="6.6387635469436646e-01" nType="0">
          <Node pos="l" depth="2" NCoef="0" IVar="-1" Cut="0.0000000000000000e+00" cType="1" res="4.1515880730003119e-04" rms="4.7331255674362183e-01" purity="6.2623953819274902e-01" nType="-99"/>
          <Node pos="r" depth="2" NCoef="0" IVar="-1" Cut="0.0000000000000000e+00" cType="1" res="1.9317211117595434e-03" rms="4.1541072726249695e-01" purity="7.7117824554443359e-01" nType="-99"/>
        </Node>
      </Node>
    </BinaryTree>
    <BinaryTree type="DecisionTree" boostWeight="1.0000000000000000e+00" itree="217">
      <Node pos="s" depth="0" NCoef="0" IVar="6" Cut="9.6237492561340332e-01" cType="1" res="9.7953667864203453e-03" rms="4.6587353944778442e-01" purity="5.0124430656433105e-01" nType="0">
        <Node pos="l" depth="1" NCoef="0" IVar="2" Cut="7.2429090738296509e-01" cType="1" res="-2.0059779286384583e-02" rms="4.6645513176918030e-01" purity="4.6585768461227417e-01" nType="0">
          <Node pos="l" depth="2" NCoef="0" IVar="-1" Cut="0.0000000000000000e+00" cType="1" res="-9.7817112691700459e-04" rms="4.6696034073829651e-01" purity="4.3721276521682739e-01" nType="-99"/>
          <Node pos="r" depth="2" NCoef="0" IVar="-1" Cut="0.0000000000000000e+00" cType="1" res="8.0463587073609233e-04" rms="4.6065267920494080e-01" purity="5.7291263341903687e-01" nType="-99"/>
        </Node>
        <Node pos="r" depth="1" NCoef="0" IVar="1" Cut="8.8469135761260986e-01" cType="1" res="3.9833601564168930e-02" rms="4.6335029602050781e-01" purity="5.3684794902801514e-01" nType="0">
          <Node pos="l" depth="2" NCoef="0" IVar="-1" Cut="0.0000000000000000e+00" cType="1" res="4.7919462667778134e-04" rms="4.7715854644775391e-01" purity="4.1302704811096191e-01" nType="-99"/>
          <Node pos="r" depth="2" NCoef="0" IVar="-1" Cut="0.0000000000000000e+00" cType="1" res="1.5533778350800276e-03" rms="4.3986234068870544e-01" purity="7.1928727626800537e-01" nType="-99"/>
        </Node>
      </Node>
    </BinaryTree>
    <BinaryTree type="DecisionTree" boostWeight="1.0000000000000000e+00" itree="218">
      <Node pos="s" depth="0" NCoef="0" IVar="1" Cut="2.3063939809799194e-01" cType="1" res="1.9315907731652260e-02" rms="4.6599274873733521e-01" purity="5.0986790657043457e-01" nType="0">
        <Node pos="l" depth="1" NCoef="0" IVar="7" Cut="1.0682524740695953e-01" cType="1" res="-9.5230434089899063e-03" rms="4.6779194474220276e-01" purity="3.5683444142341614e-01" nType="0">
          <Node pos="l" depth="2" NCoef="0" IVar="-1" Cut="0.0000000000000000e+00" cType="1" res="1.1489626922411844e-04" rms="4.7422534227371216e-01" purity="3.7613779306411743e-01" nType="-99"/>
          <Node pos="r" depth="2" NCoef="0" IVar="-1" Cut="0.0000000000000000e+00" cType="1" res="-2.3697710130363703e-03" rms="4.3900650739669800e-01" purity="2.8355273604393005e-01" nType="-99"/>
        </Node>
        <Node pos="r" depth="1" NCoef="0" IVar="2" Cut="6.8432962894439697e-01" cType="1" res="4.5356769114732742e-02" rms="4.6282079815864563e-01" purity="6.4805328845977783e-01" nType="0">
          <Node pos="l" depth="2" NCoef="0" IVar="-1" Cut="0.0000000000000000e+00" cType="1" res="6.0215120902284980e-04" rms="4.7556421160697937e-01" purity="6.0754919052124023e-01" nType="-99"/>
          <Node pos="r" depth="2" NCoef="0" IVar="-1" Cut="0.0000000000000000e+00" cType="1" res="1.8297625938430429e-03" rms="4.2811855673789978e-01" purity="7.4397414922714233e-01" nType="-99"/>
        </Node>
      </Node>
    </BinaryTree>
    <BinaryTree type="DecisionTree" boostWeight="1.0000000000000000e+00" itree="219">
      <Node pos="s" depth="0" NCoef="0" IVar="2" Cut="5.7775110006332397e-01" cType="1" res="1.1711583472788334e-02" rms="4.6701458096504211e-01" purity="5.0089144706726074e-01" nType="0">
        <Node pos="l" depth="1" NCoef="0" IVar="3" Cut="1.2971849441528320e+00" cType="1" res="-1.5842974185943604e-02" rms="4.6788874268531799e-01" purity="4.4286710023880005e-01" nType="0">
          <Node pos="l" depth="2" NCoef="0" IVar="-1" Cut="0.0000000000000000e+00" cType="1" res="1.2326819123700261e-03" rms="4.7037643194198608e-01" purity="5.6256955862045288e-01" nType="-99"/>
          <Node pos="r" depth="2" NCoef="0" IVar="-1" Cut="0.0000000000000000e+00" cType="1" res="-8.8255025912076235e-04" rms="4.6613308787345886e-01" purity="4.1839382052421570e-01" nType="-99"/>
        </Node>
        <Node pos="r" depth="1" NCoef="0" IVar="1" Cut="-1.0839556455612183e+00" cType="1" res="3.5233851522207260e-02" rms="4.6497687697410583e-01" purity="5.5042463541030884e-01" nType="0">
          <Node pos="l" depth="2" NCoef="0" IVar="-1" Cut="0.0000000000000000e+00" cType="1" res="-7.2489696322008967e-04" rms="4.6213373541831970e-01" purity="3.2139444351196289e-01" nType="-99"/>
          <Node pos="r" depth="2" NCoef="0" IVar="-1" Cut="0.0000000000000000e+00" cType="1" res="1.1824229732155800e-03" rms="4.6458300948143005e-01" purity="6.1991798877716064e-01" nType="-99"/>
        </Node>
      </Node>
    </BinaryTree>
    <BinaryTree type="DecisionTree" boostWeight="1.0000000000000000e+00" itree="220">
      <Node pos="s" depth="0" NCoef="0" IVar="3" Cut="2.1648857593536377e+00" cType="1" res="1.0557199828326702e-02" rms="4.6608495712280273e-01" purity="5.0293052196502686e-01" nType="0">
        <Node pos="l" depth="1" NCoef="0" IVar="0" Cut="8.8860679626464844e+01" cType="1" res="4.2562395334243774e-02" rms="4.6574330329895020e-01" purity="5.6728702783584595e-01" nType="0">
          <Node pos="l" depth="2" NCoef="0" IVar="-1" Cut="0.0000000000000000e+00" cType="1" res="-2.0362815121188760e-04" rms="4.6742120385169983e-01" purity="5.0664341449737549e-01" nType="-99"/>
          <Node pos="r" depth="2" NCoef="0" IVar="-1" Cut="0.0000000000000000e+00" cType="1" res="1.5918842982500792e-03" rms="4.6265873312950134e-01" purity="5.9912145137786865e-01" nType="-99"/>
        </Node>
        <Node pos="r" depth="1" NCoef="0" IVar="1" Cut="2.0058758258819580e+00" cType="1" res="-2.0031295716762543e-02" rms="4.6435418725013733e-01" purity="4.4142282009124756e-01" nType="0">
          <Node pos="l" depth="2" NCoef="0" IVar="-1" Cut="0.0000000000000000e+00" cType="1" res="-1.0954969329759479e-03" rms="4.6835726499557495e-01" purity="3.8206288218498230e-01" nType="-99"/>
          <Node pos="r" depth="2" NCoef="0" IVar="-1" Cut="0.0000000000000000e+00" cType="1" res="1.0218867100775242e-03" rms="4.3823933601379395e-01" purity="7.2697454690933228e-01" nType="-99"/>
        </Node>
      </Node>
    </BinaryTree>
    <BinaryTree type="DecisionTree" boostWeight="1.0000000000000000e+00" itree="221">
      <Node pos="s" depth="0" NCoef="0" IVar="1" Cut="1.8527561426162720e+00" cType="1" res="1.9124491140246391e-02" rms="4.6518418192863464e-01" purity="5.1054322719573975e-01" nType="0">
        <Node pos="l" depth="1" NCoef="0" IVar="6" Cut="9.7162139415740967e-01" cType="1" res="4.7913771122694016e-03" rms="4.7468686103820801e-01" purity="4.4669333100318909e-01" nType="0">
          <Node pos="l" depth="2" NCoef="0" IVar="-1" Cut="0.0000000000000000e+00" cType="1" res="-4.3592639849521220e-04" rms="4.7192582488059998e-01" purity="4.2594850063323975e-01" nType="-99"/>
          <Node pos="r" depth="2" NCoef="0" IVar="-1" Cut="0.0000000000000000e+00" cType="1" res="9.5817528199404478e-04" rms="4.7729849815368652e-01" purity="4.7891923785209656e-01" nType="-99"/>
        </Node>
        <Node pos="r" depth="1" NCoef="0" IVar="7" Cut="7.0908822119235992e-02" cType="1" res="7.4995979666709900e-02" rms="4.2149624228477478e-01" purity="7.5943470001220703e-01" nType="0">
          <Node pos="l" depth="2" NCoef="0" IVar="-1" Cut="0.0000000000000000e+00" cType="1" res="1.9997516646981239e-03" rms="4.0150776505470276e-01" purity="7.9401350021362305e-01" nType="-99"/>
          <Node pos="r" depth="2" NCoef="0" IVar="-1" Cut="0.0000000000000000e+00" cType="1" res="6.9779501063749194e-04" rms="4.5391860604286194e-01" purity="6.9404649734497070e-01" nType="-99"/>
        </Node>
      </Node>
    </BinaryTree>
    <BinaryTree type="DecisionTree" boostWeight="1.0000000000000000e+00" itree="222">
      <Node pos="s" depth="0" NCoef="0" IVar="4" Cut="1.5593060302734375e+02" cType="1" res="8.5016107186675072e-03" rms="4.6483466029167175e-01" purity="4.9936714768409729e-01" nType="0">
        <Node pos="l" depth="1" NCoef="0" IVar="9" Cut="1.3643421232700348e-01" cType="1" res="-2.1611047908663750e-02" rms="4.6236321330070496e-01" purity="4.4072869420051575e-01" nType="0">
          <Node pos="l" depth="2" NCoef="0" IVar="-1" Cut="0.0000000000000000e+00" cType="1" res="-1.3764062896370888e-03" rms="4.6122604608535767e-01" purity="4.0035814046859741e-01" nType="-99"/>
          <Node pos="r" depth="2" NCoef="0" IVar="-1" Cut="0.0000000000000000e+00" cType="1" res="6.6534872166812420e-04" rms="4.6104452013969421e-01" purity="5.2208763360977173e-01" nType="-99"/>
        </Node>
        <Node pos="r" depth="1" NCoef="0" IVar="3" Cut="2.3534710407257080e+00" cType="1" res="3.7170238792896271e-02" rms="4.6536836028099060e-01" purity="5.5519360303878784e-01" nType="0">
          <Node pos="l" depth="2" NCoef="0" IVar="-1" Cut="0.0000000000000000e+00" cType="1" res="1.6947657568380237e-03" rms="4.6240249276161194e-01" purity="6.1777979135513306e-01" nType="-99"/>
          <Node pos="r" depth="2" NCoef="0" IVar="-1" Cut="0.0000000000000000e+00" cType="1" res="-3.2217625994235277e-04" rms="4.6464580297470093e-01" purity="4.7404807806015015e-01" nType="-99"/>
        </Node>
      </Node>
    </BinaryTree>
    <BinaryTree type="DecisionTree" boostWeight="1.0000000000000000e+00" itree="223">
      <Node pos="s" depth="0" NCoef="0" IVar="1" Cut="2.4484233856201172e+00" cType="1" res="8.8898148387670517e-03" rms="4.6578183770179749e-01" purity="5.0079649686813354e-01" nType="0">
        <Node pos="l" depth="1" NCoef="0" IVar="2" Cut="7.6750469207763672e-01" cType="1" res="-2.0135953091084957e-03" rms="4.7286280989646912e-01" purity="4.6122044324874878e-01" nType="0">
          <Node pos="l" depth="2" NCoef="0" IVar="-1" Cut="0.0000000000000000e+00" cType="1" res="-4.0509158861823380e-04" rms="4.7294321656227112e-01" purity="4.3944633007049561e-01" nType="-99"/>
          <Node pos="r" depth="2" NCoef="0" IVar="-1" Cut="0.0000000000000000e+00" cType="1" res="1.5923869796097279e-03" rms="4.6642136573791504e-01" purity="5.8446043729782104e-01" nType="-99"/>
        </Node>
        <Node pos="r" depth="1" NCoef="0" IVar="-1" Cut="0.0000000000000000e+00" cType="1" res="1.8544285558164120e-03" rms="4.0055450797080994e-01" purity="7.9335635900497437e-01" nType="-99"/>
      </Node>
    </BinaryTree>
    <BinaryTree type="DecisionTree" boostWeight="1.0000000000000000e+00" itree="224">
      <Node pos="s" depth="0" NCoef="0" IVar="4" Cut="1.0696138763427734e+02" cType="1" res="8.8391220197081566e-03" rms="4.6685633063316345e-01" purity="5.0070285797119141e-01" nType="0">
        <Node pos="l" depth="1" NCoef="0" IVar="6" Cut="9.4362115859985352e-01" cType="1" res="-4.8648748546838760e-02" rms="4.5734384655952454e-01" purity="3.9887285232543945e-01" nType="0">
          <Node pos="l" depth="2" NCoef="0" IVar="-1" Cut="0.0000000000000000e+00" cType="1" res="-3.1349149066954851e-03" rms="4.4457709789276123e-01" purity="3.4759092330932617e-01" nType="-99"/>
          <Node pos="r" depth="2" NCoef="0" IVar="-1" Cut="0.0000000000000000e+00" cType="1" res="-7.8480102820321918e-04" rms="4.6163392066955566e-01" purity="4.2367574572563171e-01" nType="-99"/>
        </Node>
        <Node pos="r" depth="1" NCoef="0" IVar="3" Cut="3.2975378036499023e+00" cType="1" res="2.3568680509924889e-02" rms="4.6812781691551208e-01" purity="5.2679377794265747e-01" nType="0">
          <Node pos="l" depth="2" NCoef="0" IVar="-1" Cut="0.0000000000000000e+00" cType="1" res="8.0014765262603760e-04" rms="4.6906960010528564e-01" purity="5.4110229015350342e-01" nType="-99"/>
          <Node pos="r" depth="2" NCoef="0" IVar="-1" Cut="0.0000000000000000e+00" cType="1" res="-3.2701785676181316e-03" rms="4.3803697824478149e-01" purity="3.2850563526153564e-01" nType="-99"/>
        </Node>
      </Node>
    </BinaryTree>
    <BinaryTree type="DecisionTree" boostWeight="1.0000000000000000e+00" itree="225">
      <Node pos="s" depth="0" NCoef="0" IVar="1" Cut="1.5612461566925049e+00" cType="1" res="9.8113706335425377e-03" rms="4.6587687730789185e-01" purity="5.0159466266632080e-01" nType="0">
        <Node pos="l" depth="1" NCoef="0" IVar="4" Cut="1.2869174194335938e+02" cType="1" res="-4.8610330559313297e-03" rms="4.7372281551361084e-01" purity="4.2565762996673584e-01" nType="0">
          <Node pos="l" depth="2" NCoef="0" IVar="-1" Cut="0.0000000000000000e+00" cType="1" res="-1.4140460407361388e-03" rms="4.6135044097900391e-01" purity="3.5679942369461060e-01" nType="-99"/>
          <Node pos="r" depth="2" NCoef="0" IVar="-1" Cut="0.0000000000000000e+00" cType="1" res="4.2705191299319267e-04" rms="4.7916841506958008e-01" purity="4.6362274885177612e-01" nType="-99"/>
        </Node>
        <Node pos="r" depth="1" NCoef="0" IVar="2" Cut="6.1413609981536865e-01" cType="1" res="5.2914086729288101e-02" rms="4.3919736146926880e-01" purity="7.2467279434204102e-01" nType="0">
          <Node pos="l" depth="2" NCoef="0" IVar="-1" Cut="0.0000000000000000e+00" cType="1" res="5.9021671768277884e-04" rms="4.6621224284172058e-01" purity="6.6851156949996948e-01" nType="-99"/>
          <Node pos="r" depth="2" NCoef="0" IVar="-1" Cut="0.0000000000000000e+00" cType="1" res="1.7582630971446633e-03" rms="4.0159735083580017e-01" purity="7.9331839084625244e-01" nType="-99"/>
        </Node>
      </Node>
    </BinaryTree>
    <BinaryTree type="DecisionTree" boostWeight="1.0000000000000000e+00" itree="226">
      <Node pos="s" depth="0" NCoef="0" IVar="1" Cut="1.8885607719421387e+00" cType="1" res="9.4954753294587135e-03" rms="4.6559485793113708e-01" purity="5.0147628784179688e-01" nType="0">
        <Node pos="l" depth="1" NCoef="0" IVar="9" Cut="1.3503941893577576e-01" cType="1" res="-5.1577105186879635e-03" rms="4.7451871633529663e-01" purity="4.3786391615867615e-01" nType="0">
          <Node pos="l" depth="2" NCoef="0" IVar="-1" Cut="0.0000000000000000e+00" cType="1" res="-5.9132656315341592e-04" rms="4.7173598408699036e-01" purity="4.1705209016799927e-01" nType="-99"/>
          <Node pos="r" depth="2" NCoef="0" IVar="-1" Cut="0.0000000000000000e+00" cType="1" res="1.1054917704313993e-03" rms="4.8014354705810547e-01" purity="5.0401180982589722e-01" nType="-99"/>
        </Node>
        <Node pos="r" depth="1" NCoef="0" IVar="7" Cut="3.3606123179197311e-02" cType="1" res="6.8172015249729156e-02" rms="4.2294386029243469e-01" purity="7.5620281696319580e-01" nType="0">
          <Node pos="l" depth="2" NCoef="0" IVar="-1" Cut="0.0000000000000000e+00" cType="1" res="1.9994794856756926e-03" rms="3.9256614446640015e-01" purity="8.0489867925643921e-01" nType="-99"/>
          <Node pos="r" depth="2" NCoef="0" IVar="-1" Cut="0.0000000000000000e+00" cType="1" res="8.2234619185328484e-04" rms="4.4868567585945129e-01" purity="7.0860463380813599e-01" nType="-99"/>
        </Node>
      </Node>
    </BinaryTree>
    <BinaryTree type="DecisionTree" boostWeight="1.0000000000000000e+00" itree="227">
      <Node pos="s" depth="0" NCoef="0" IVar="2" Cut="5.5931460857391357e-01" cType="1" res="1.4721416868269444e-02" rms="4.6811187267303467e-01" purity="5.0523674488067627e-01" nType="0">
        <Node pos="l" depth="1" NCoef="0" IVar="5" Cut="1.2028849683701992e-02" cType="1" res="-1.5385153703391552e-02" rms="4.6840026974678040e-01" purity="4.4424238801002502e-01" nType="0">
          <Node pos="l" depth="2" NCoef="0" IVar="-1" Cut="0.0000000000000000e+00" cType="1" res="-1.3553416356444359e-03" rms="4.6497589349746704e-01" purity="4.1201230883598328e-01" nType="-99"/>
          <Node pos="r" depth="2" NCoef="0" IVar="-1" Cut="0.0000000000000000e+00" cType="1" res="6.2763784080743790e-04" rms="4.7001221776008606e-01" purity="4.8675978183746338e-01" nType="-99"/>
        </Node>
        <Node pos="r" depth="1" NCoef="0" IVar="6" Cut="9.9013417959213257e-01" cType="1" res="3.6259919404983521e-02" rms="4.6671524643898010e-01" purity="5.4887264966964722e-01" nType="0">
          <Node pos="l" depth="2" NCoef="0" IVar="-1" Cut="0.0000000000000000e+00" cType="1" res="6.1720144003629684e-04" rms="4.6638661623001099e-01" purity="5.3606998920440674e-01" nType="-99"/>
          <Node pos="r" depth="2" NCoef="0" IVar="-1" Cut="0.0000000000000000e+00" cType="1" res="2.1117532160133123e-03" rms="4.6425113081932068e-01" purity="6.0701602697372437e-01" nType="-99"/>
        </Node>
      </Node>
    </BinaryTree>
    <BinaryTree type="DecisionTree" boostWeight="1.0000000000000000e+00" itree="228">
      <Node pos="s" depth="0" NCoef="0" IVar="3" Cut="3.3038549423217773e+00" cType="1" res="6.8273199722170830e-03" rms="4.6609640121459961e-01" purity="4.9607467651367188e-01" nType="0">
        <Node pos="l" depth="1" NCoef="0" IVar="8" Cut="3.8186064362525940e-01" cType="1" res="1.5339426696300507e-02" rms="4.6769082546234131e-01" purity="5.1086145639419556e-01" nType="0">
          <Node pos="l" depth="2" NCoef="0" IVar="-1" Cut="0.0000000000000000e+00" cType="1" res="-4.7166345757432282e-04" rms="4.6989339590072632e-01" purity="4.6446117758750916e-01" nType="-99"/>
          <Node pos="r" depth="2" NCoef="0" IVar="-1" Cut="0.0000000000000000e+00" cType="1" res="8.6446298519149423e-04" rms="4.6538689732551575e-01" purity="5.3764176368713379e-01" nType="-99"/>
        </Node>
        <Node pos="r" depth="1" NCoef="0" IVar="-1" Cut="0.0000000000000000e+00" cType="1" res="-4.6421810984611511e-03" rms="4.2310068011283875e-01" purity="2.8021898865699768e-01" nType="-99"/>
      </Node>
    </BinaryTree>
    <BinaryTree type="DecisionTree" boostWeight="1.0000000000000000e+00" itree="229">
      <Node pos="s" depth="0" NCoef="0" IVar="1" Cut="1.8461234569549561e+00" cType="1" res="4.3490868993103504e-03" rms="4.6715152263641357e-01" purity="4.9347159266471863e-01" nType="0">
        <Node pos="l" depth="1" NCoef="0" IVar="9" Cut="7.3408000171184540e-02" cType="1" res="-1.0164567269384861e-02" rms="4.7542241215705872e-01" purity="4.2981913685798645e-01" nType="0">
          <Node pos="l" depth="2" NCoef="0" IVar="-1" Cut="0.0000000000000000e+00" cType="1" res="-1.1904588900506496e-03" rms="4.7075358033180237e-01" purity="3.9135232567787170e-01" nType="-99"/>
          <Node pos="r" depth="2" NCoef="0" IVar="-1" Cut="0.0000000000000000e+00" cType="1" res="3.8822903297841549e-04" rms="4.7807279229164124e-01" purity="4.6293351054191589e-01" nType="-99"/>
        </Node>
        <Node pos="r" depth="1" NCoef="0" IVar="7" Cut="3.9761230349540710e-02" cType="1" res="6.2118712812662125e-02" rms="4.2781314253807068e-01" purity="7.4683153629302979e-01" nType="0">
          <Node pos="l" depth="2" NCoef="0" IVar="-1" Cut="0.0000000000000000e+00" cType="1" res="1.9762821029871702e-03" rms="3.9440429210662842e-01" purity="8.0204164981842041e-01" nType="-99"/>
          <Node pos="r" depth="2" NCoef="0" IVar="-1" Cut="0.0000000000000000e+00" cType="1" res="5.7118519907817245e-04" rms="4.5723584294319153e-01" purity="6.8967288732528687e-01" nType="-99"/>
        </Node>
      </Node>
    </BinaryTree>
    <BinaryTree type="DecisionTree" boostWeight="1.0000000000000000e+00" itree="230">
      <Node pos="s" depth="0" NCoef="0" IVar="1" Cut="-1.3905308246612549e+00" cType="1" res="5.4093119688332081e-03" rms="4.6473389863967896e-01" purity="4.9831545352935791e-01" nType="0">
        <Node pos="l" depth="1" NCoef="0" IVar="8" Cut="3.9216446876525879e-01" cType="1" res="-6.4005568623542786e-02" rms="4.2532917857170105e-01" purity="2.4693086743354797e-01" nType="0">
          <Node pos="l" depth="2" NCoef="0" IVar="-1" Cut="0.0000000000000000e+00" cType="1" res="-4.5551140792667866e-03" rms="4.0743669867515564e-01" purity="2.1850304305553436e-01" nType="-99"/>
          <Node pos="r" depth="2" NCoef="0" IVar="-1" Cut="0.0000000000000000e+00" cType="1" res="-1.2016720138490200e-03" rms="4.4730696082115173e-01" purity="2.8770327568054199e-01" nType="-99"/>
        </Node>
        <Node pos="r" depth="1" NCoef="0" IVar="2" Cut="7.5595343112945557e-01" cType="1" res="1.7941018566489220e-02" rms="4.7040668129920959e-01" purity="5.4369884729385376e-01" nType="0">
          <Node pos="l" depth="2" NCoef="0" IVar="-1" Cut="0.0000000000000000e+00" cType="1" res="9.7844422271009535e-05" rms="4.7354266047477722e-01" purity="5.1622545719146729e-01" nType="-99"/>
          <Node pos="r" depth="2" NCoef="0" IVar="-1" Cut="0.0000000000000000e+00" cType="1" res="1.9027449889108539e-03" rms="4.4807851314544678e-01" purity="6.7977637052536011e-01" nType="-99"/>
        </Node>
      </Node>
    </BinaryTree>
    <BinaryTree type="DecisionTree" boostWeight="1.0000000000000000e+00" itree="231">
      <Node pos="s" depth="0" NCoef="0" IVar="1" Cut="-1.3214163780212402e+00" cType="1" res="8.6375968530774117e-03" rms="4.6818175911903381e-01" purity="4.9795490503311157e-01" nType="0">
        <Node pos="l" depth="1" NCoef="0" IVar="2" Cut="6.5715014934539795e-01" cType="1" res="-5.2417617291212082e-02" rms="4.3072479963302612e-01" purity="2.5916975736618042e-01" nType="0">
          <Node pos="l" depth="2" NCoef="0" IVar="-1" Cut="0.0000000000000000e+00" cType="1" res="-4.0783318690955639e-03" rms="4.0329700708389282e-01" purity="2.0927038788795471e-01" nType="-99"/>
          <Node pos="r" depth="2" NCoef="0" IVar="-1" Cut="0.0000000000000000e+00" cType="1" res="-9.0391736011952162e-04" rms="4.6343326568603516e-01" purity="3.2600808143615723e-01" nType="-99"/>
        </Node>
        <Node pos="r" depth="1" NCoef="0" IVar="6" Cut="9.5602595806121826e-01" cType="1" res="2.0814614370465279e-02" rms="4.7436028718948364e-01" purity="5.4557883739471436e-01" nType="0">
          <Node pos="l" depth="2" NCoef="0" IVar="-1" Cut="0.0000000000000000e+00" cType="1" res="-2.8139053029008210e-04" rms="4.7638222575187683e-01" purity="5.0811034440994263e-01" nType="-99"/>
          <Node pos="r" depth="2" NCoef="0" IVar="-1" Cut="0.0000000000000000e+00" cType="1" res="1.1277724988758564e-03" rms="4.7110563516616821e-01" purity="5.7618135213851929e-01" nType="-99"/>
        </Node>
      </Node>
    </BinaryTree>
    <BinaryTree type="DecisionTree" boostWeight="1.0000000000000000e+00" itree="232">
      <Node pos="s" depth="0" NCoef="0" IVar="1" Cut="2.4183247089385986e+00" cType="1" res="1.3360998593270779e-02" rms="4.6567311882972717e-01" purity="5.0444531440734863e-01" nType="0">
        <Node pos="l" depth="1" NCoef="0" IVar="2" Cut="7.7359896898269653e-01" cType="1" res="2.6139689143747091e-03" rms="4.7318127751350403e-01" purity="4.6336981654167175e-01" nType="0">
          <Node pos="l" depth="2" NCoef="0" IVar="-1" Cut="0.0000000000000000e+00" cType="1" res="-2.5606984854675829e-04" rms="4.7351190447807312e-01" purity="4.4207093119621277e-01" nType="-99"/>
          <Node pos="r" depth="2" NCoef="0" IVar="-1" Cut="0.0000000000000000e+00" cType="1" res="1.7366005340591073e-03" rms="4.6476107835769653e-01" purity="5.9380871057510376e-01" nType="-99"/>
        </Node>
        <Node pos="r" depth="1" NCoef="0" IVar="-1" Cut="0.0000000000000000e+00" cType="1" res="1.8285942496731877e-03" rms="4.0096929669380188e-01" purity="7.9320716857910156e-01" nType="-99"/>
      </Node>
    </BinaryTree>
    <BinaryTree type="DecisionTree" boostWeight="1.0000000000000000e+00" itree="233">
      <Node pos="s" depth="0" NCoef="0" IVar="1" Cut="2.6333994865417480e+00" cType="1" res="6.7992899566888809e-03" rms="4.6594458818435669e-01" purity="4.9885678291320801e-01" nType="0">
        <Node pos="l" depth="1" NCoef="0" IVar="6" Cut="9.6821743249893188e-01" cType="1" res="-2.5509202387183905e-03" rms="4.7217565774917603e-01" purity="4.6534746885299683e-01" nType="0">
          <Node pos="l" depth="2" NCoef="0" IVar="-1" Cut="0.0000000000000000e+00" cType="1" res="-6.5595557680353522e-04" rms="4.7227126359939575e-01" purity="4.4124087691307068e-01" nType="-99"/>
          <Node pos="r" depth="2" NCoef="0" IVar="-1" Cut="0.0000000000000000e+00" cType="1" res="6.7197065800428391e-04" rms="4.7061043977737427e-01" purity="4.9778988957405090e-01" nType="-99"/>
        </Node>
        <Node pos="r" depth="1" NCoef="0" IVar="-1" Cut="0.0000000000000000e+00" cType="1" res="1.8887671176344156e-03" rms="3.9532077312469482e-01" purity="8.0199390649795532e-01" nType="-99"/>
      </Node>
    </BinaryTree>
    <BinaryTree type="DecisionTree" boostWeight="1.0000000000000000e+00" itree="234">
      <Node pos="s" depth="0" NCoef="0" IVar="1" Cut="2.5457432270050049e+00" cType="1" res="1.2216160073876381e-02" rms="4.6710622310638428e-01" purity="5.0408691167831421e-01" nType="0">
        <Node pos="l" depth="1" NCoef="0" IVar="3" Cut="3.1386115550994873e+00" cType="1" res="4.2158276773989201e-03" rms="4.7320479154586792e-01" purity="4.7093012928962708e-01" nType="0">
          <Node pos="l" depth="2" NCoef="0" IVar="-1" Cut="0.0000000000000000e+00" cType="1" res="3.4923030762001872e-04" rms="4.7584199905395508e-01" purity="4.8930680751800537e-01" nType="-99"/>
          <Node pos="r" depth="2" NCoef="0" IVar="-1" Cut="0.0000000000000000e+00" cType="1" res="-2.2049634717404842e-03" rms="4.4712767004966736e-01" purity="3.3241996169090271e-01" nType="-99"/>
        </Node>
        <Node pos="r" depth="1" NCoef="0" IVar="-1" Cut="0.0000000000000000e+00" cType="1" res="1.6986221307888627e-03" rms="4.0446308255195618e-01" purity="7.8921878337860107e-01" nType="-99"/>
      </Node>
    </BinaryTree>
    <BinaryTree type="DecisionTree" boostWeight="1.0000000000000000e+00" itree="235">
      <Node pos="s" depth="0" NCoef="0" IVar="1" Cut="2.3666744232177734e+00" cType="1" res="9.5632616430521011e-03" rms="4.6635597944259644e-01" purity="5.0136721134185791e-01" nType="0">
        <Node pos="l" depth="1" NCoef="0" IVar="6" Cut="9.7774142026901245e-01" cType="1" res="-7.1139563806355000e-04" rms="4.7367456555366516e-01" purity="4.5966729521751404e-01" nType="0">
          <Node pos="l" depth="2" NCoef="0" IVar="-1" Cut="0.0000000000000000e+00" cType="1" res="-5.6548375869169831e-04" rms="4.7290569543838501e-01" purity="4.3712559342384338e-01" nType="-99"/>
          <Node pos="r" depth="2" NCoef="0" IVar="-1" Cut="0.0000000000000000e+00" cType="1" res="1.0079181520268321e-03" rms="4.7281235456466675e-01" purity="5.0585979223251343e-01" nType="-99"/>
        </Node>
        <Node pos="r" depth="1" NCoef="0" IVar="-1" Cut="0.0000000000000000e+00" cType="1" res="1.6826336504891515e-03" rms="4.0623059868812561e-01" purity="7.8533977270126343e-01" nType="-99"/>
      </Node>
    </BinaryTree>
    <BinaryTree type="DecisionTree" boostWeight="1.0000000000000000e+00" itree="236">
      <Node pos="s" depth="0" NCoef="0" IVar="1" Cut="2.0267667770385742e+00" cType="1" res="1.3677890412509441e-02" rms="4.6509391069412231e-01" purity="5.0387424230575562e-01" nType="0">
        <Node pos="l" depth="1" NCoef="0" IVar="3" Cut="1.4515694379806519e+00" cType="1" res="7.1811216184869409e-04" rms="4.7417092323303223e-01" purity="4.4791740179061890e-01" nType="0">
          <Node pos="l" depth="2" NCoef="0" IVar="-1" Cut="0.0000000000000000e+00" cType="1" res="1.2912569800391793e-03" rms="4.7530055046081543e-01" purity="5.4943037033081055e-01" nType="-99"/>
          <Node pos="r" depth="2" NCoef="0" IVar="-1" Cut="0.0000000000000000e+00" cType="1" res="-4.4410082045942545e-04" rms="4.7268915176391602e-01" purity="4.1822206974029541e-01" nType="-99"/>
        </Node>
        <Node pos="r" depth="1" NCoef="0" IVar="3" Cut="2.2692346572875977e+00" cType="1" res="7.5976856052875519e-02" rms="4.1308563947677612e-01" purity="7.7286428213119507e-01" nType="0">
          <Node pos="l" depth="2" NCoef="0" IVar="-1" Cut="0.0000000000000000e+00" cType="1" res="1.9869792740792036e-03" rms="3.9426204562187195e-01" purity="8.0388277769088745e-01" nType="-99"/>
          <Node pos="r" depth="2" NCoef="0" IVar="-1" Cut="0.0000000000000000e+00" cType="1" res="1.0855620494112372e-03" rms="4.3353140354156494e-01" purity="7.3512411117553711e-01" nType="-99"/>
        </Node>
      </Node>
    </BinaryTree>
    <BinaryTree type="DecisionTree" boostWeight="1.0000000000000000e+00" itree="237">
      <Node pos="s" depth="0" NCoef="0" IVar="1" Cut="1.9252978563308716e+00" cType="1" res="9.0871695429086685e-03" rms="4.6330055594444275e-01" purity="5.0290608406066895e-01" nType="0">
        <Node pos="l" depth="1" NCoef="0" IVar="2" Cut="5.3307962417602539e-01" cType="1" res="-6.1928671784698963e-03" rms="4.7235980629920959e-01" purity="4.3907719850540161e-01" nType="0">
          <Node pos="l" depth="2" NCoef="0" IVar="-1" Cut="0.0000000000000000e+00" cType="1" res="-1.6639397945255041e-03" rms="4.6044856309890747e-01" purity="3.6088386178016663e-01" nType="-99"/>
          <Node pos="r" depth="2" NCoef="0" IVar="-1" Cut="0.0000000000000000e+00" cType="1" res="4.8252122360281646e-04" rms="4.7682580351829529e-01" purity="4.8077020049095154e-01" nType="-99"/>
        </Node>
        <Node pos="r" depth="1" NCoef="0" IVar="7" Cut="5.5177774280309677e-02" cType="1" res="7.2126150131225586e-02" rms="4.1801947355270386e-01" purity="7.6623708009719849e-01" nType="0">
          <Node pos="l" depth="2" NCoef="0" IVar="-1" Cut="0.0000000000000000e+00" cType="1" res="1.9655493088066578e-03" rms="3.9245393872261047e-01" purity="8.0581504106521606e-01" nType="-99"/>
          <Node pos="r" depth="2" NCoef="0" IVar="-1" Cut="0.0000000000000000e+00" cType="1" res="8.1942358519881964e-04" rms="4.5046445727348328e-01" purity="7.0887106657028198e-01" nType="-99"/>
        </Node>
      </Node>
    </BinaryTree>
    <BinaryTree type="DecisionTree" boostWeight="1.0000000000000000e+00" itree="238">
      <Node pos="s" depth="0" NCoef="0" IVar="4" Cut="1.0070300292968750e+02" cType="1" res="1.5291608870029449e-02" rms="4.6800929307937622e-01" purity="5.0632953643798828e-01" nType="0">
        <Node pos="l" depth="1" NCoef="0" IVar="7" Cut="4.4664638116955757e-03" cType="1" res="-5.0850465893745422e-02" rms="4.5900455117225647e-01" purity="3.8787323236465454e-01" nType="0">
          <Node pos="l" depth="2" NCoef="0" IVar="-1" Cut="0.0000000000000000e+00" cType="1" res="-3.8440804928541183e-04" rms="4.6366745233535767e-01" purity="4.6063008904457092e-01" nType="-99"/>
          <Node pos="r" depth="2" NCoef="0" IVar="-1" Cut="0.0000000000000000e+00" cType="1" res="-2.4889595806598663e-03" rms="4.5489126443862915e-01" purity="3.4577861428260803e-01" nType="-99"/>
        </Node>
        <Node pos="r" depth="1" NCoef="0" IVar="3" Cut="3.1428577899932861e+00" cType="1" res="2.8535302728414536e-02" rms="4.6867129206657410e-01" purity="5.3004813194274902e-01" nType="0">
          <Node pos="l" depth="2" NCoef="0" IVar="-1" Cut="0.0000000000000000e+00" cType="1" res="9.1961596626788378e-04" rms="4.6993342041969299e-01" purity="5.4780417680740356e-01" nType="-99"/>
          <Node pos="r" depth="2" NCoef="0" IVar="-1" Cut="0.0000000000000000e+00" cType="1" res="-1.1295859003439546e-03" rms="4.5352903008460999e-01" purity="3.9044833183288574e-01" nType="-99"/>
        </Node>
      </Node>
    </BinaryTree>
    <BinaryTree type="DecisionTree" boostWeight="1.0000000000000000e+00" itree="239">
      <Node pos="s" depth="0" NCoef="0" IVar="1" Cut="2.4836714267730713e+00" cType="1" res="8.8800583034753799e-03" rms="4.6672293543815613e-01" purity="5.0025922060012817e-01" nType="0">
        <Node pos="l" depth="1" NCoef="0" IVar="3" Cut="3.1894090175628662e+00" cType="1" res="-4.4593939674086869e-04" rms="4.7375664114952087e-01" purity="4.6282985806465149e-01" nType="0">
          <Node pos="l" depth="2" NCoef="0" IVar="-1" Cut="0.0000000000000000e+00" cType="1" res="1.9435847934801131e-04" rms="4.7623735666275024e-01" purity="4.7989207506179810e-01" nType="-99"/>
          <Node pos="r" depth="2" NCoef="0" IVar="-1" Cut="0.0000000000000000e+00" cType="1" res="-2.6569359470158815e-03" rms="4.4418567419052124e-01" purity="3.0605518817901611e-01" nType="-99"/>
        </Node>
        <Node pos="r" depth="1" NCoef="0" IVar="-1" Cut="0.0000000000000000e+00" cType="1" res="1.7159651033580303e-03" rms="4.0007120370864868e-01" purity="7.9316449165344238e-01" nType="-99"/>
      </Node>
    </BinaryTree>
    <BinaryTree type="DecisionTree" boostWeight="1.0000000000000000e+00" itree="240">
      <Node pos="s" depth="0" NCoef="0" IVar="4" Cut="1.1127111816406250e+02" cType="1" res="1.8059009686112404e-02" rms="4.6739634871482849e-01" purity="5.0859117507934570e-01" nType="0">
        <Node pos="l" depth="1" NCoef="0" IVar="2" Cut="6.7935043573379517e-01" cType="1" res="-3.3751774579286575e-02" rms="4.5871469378471375e-01" purity="4.1254889965057373e-01" nType="0">
          <Node pos="l" depth="2" NCoef="0" IVar="-1" Cut="0.0000000000000000e+00" cType="1" res="-1.9312429940328002e-03" rms="4.5605146884918213e-01" purity="3.6792132258415222e-01" nType="-99"/>
          <Node pos="r" depth="2" NCoef="0" IVar="-1" Cut="0.0000000000000000e+00" cType="1" res="8.7406218517571688e-04" rms="4.5916259288787842e-01" purity="5.3374725580215454e-01" nType="-99"/>
        </Node>
        <Node pos="r" depth="1" NCoef="0" IVar="3" Cut="1.5250610113143921e+00" cType="1" res="3.3912163227796555e-02" rms="4.6887823939323425e-01" purity="5.3797829151153564e-01" nType="0">
          <Node pos="l" depth="2" NCoef="0" IVar="-1" Cut="0.0000000000000000e+00" cType="1" res="1.7793030710890889e-03" rms="4.6143850684165955e-01" purity="6.3018047809600830e-01" nType="-99"/>
          <Node pos="r" depth="2" NCoef="0" IVar="-1" Cut="0.0000000000000000e+00" cType="1" res="4.6053290134295821e-04" rms="4.7044652700424194e-01" purity="5.0469660758972168e-01" nType="-99"/>
        </Node>
      </Node>
    </BinaryTree>
    <BinaryTree type="DecisionTree" boostWeight="1.0000000000000000e+00" itree="241">
      <Node pos="s" depth="0" NCoef="0" IVar="4" Cut="1.7268688964843750e+02" cType="1" res="1.2319073081016541e-02" rms="4.6606266498565674e-01" purity="5.0324946641921997e-01" nType="0">
        <Node pos="l" depth="1" NCoef="0" IVar="8" Cut="3.9998656511306763e-01" cType="1" res="-1.4050007797777653e-02" rms="4.6415030956268311e-01" purity="4.5258039236068726e-01" nType="0">
          <Node pos="l" depth="2" NCoef="0" IVar="-1" Cut="0.0000000000000000e+00" cType="1" res="-1.0184984421357512e-03" rms="4.6014058589935303e-01" purity="4.1862180829048157e-01" nType="-99"/>
          <Node pos="r" depth="2" NCoef="0" IVar="-1" Cut="0.0000000000000000e+00" cType="1" res="6.6918670199811459e-04" rms="4.6963369846343994e-01" purity="5.2115660905838013e-01" nType="-99"/>
        </Node>
        <Node pos="r" depth="1" NCoef="0" IVar="6" Cut="9.3158900737762451e-01" cType="1" res="4.6776361763477325e-02" rms="4.6630784869194031e-01" purity="5.6946039199829102e-01" nType="0">
          <Node pos="l" depth="2" NCoef="0" IVar="-1" Cut="0.0000000000000000e+00" cType="1" res="-1.3723090523853898e-04" rms="4.7051370143890381e-01" purity="5.0913965702056885e-01" nType="-99"/>
          <Node pos="r" depth="2" NCoef="0" IVar="-1" Cut="0.0000000000000000e+00" cType="1" res="1.4774964656680822e-03" rms="4.6399649977684021e-01" purity="5.8688426017761230e-01" nType="-99"/>
        </Node>
      </Node>
    </BinaryTree>
    <BinaryTree type="DecisionTree" boostWeight="1.0000000000000000e+00" itree="242">
      <Node pos="s" depth="0" NCoef="0" IVar="6" Cut="9.4375717639923096e-01" cType="1" res="5.9822145849466324e-03" rms="4.6751621365547180e-01" purity="4.9442926049232483e-01" nType="0">
        <Node pos="l" depth="1" NCoef="0" IVar="5" Cut="-2.3682506754994392e-02" cType="1" res="-2.6782838627696037e-02" rms="4.6525549888610840e-01" purity="4.5309975743293762e-01" nType="0">
          <Node pos="l" depth="2" NCoef="0" IVar="-1" Cut="0.0000000000000000e+00" cType="1" res="-2.2896456066519022e-03" rms="4.5153084397315979e-01" purity="4.0175727009773254e-01" nType="-99"/>
          <Node pos="r" depth="2" NCoef="0" IVar="-1" Cut="0.0000000000000000e+00" cType="1" res="2.6540188628132455e-05" rms="4.7052529454231262e-01" purity="4.8197495937347412e-01" nType="-99"/>
        </Node>
        <Node pos="r" depth="1" NCoef="0" IVar="4" Cut="1.4351689147949219e+02" cType="1" res="2.2386202588677406e-02" rms="4.6778261661529541e-01" purity="5.1512110233306885e-01" nType="0">
          <Node pos="l" depth="2" NCoef="0" IVar="-1" Cut="0.0000000000000000e+00" cType="1" res="-1.7489874153397977e-04" rms="4.6324148774147034e-01" purity="4.5553153753280640e-01" nType="-99"/>
          <Node pos="r" depth="2" NCoef="0" IVar="-1" Cut="0.0000000000000000e+00" cType="1" res="1.0938437189906836e-03" rms="4.7006362676620483e-01" purity="5.6060904264450073e-01" nType="-99"/>
        </Node>
      </Node>
    </BinaryTree>
    <BinaryTree type="DecisionTree" boostWeight="1.0000000000000000e+00" itree="243">
      <Node pos="s" depth="0" NCoef="0" IVar="1" Cut="2.4094443321228027e+00" cType="1" res="7.8818649053573608e-03" rms="4.6776181459426880e-01" purity="4.9839130043983459e-01" nType="0">
        <Node pos="l" depth="1" NCoef="0" IVar="8" Cut="4.0788453817367554e-01" cType="1" res="-1.5728303696960211e-03" rms="4.7482061386108398e-01" purity="4.5965594053268433e-01" nType="0">
          <Node pos="l" depth="2" NCoef="0" IVar="-1" Cut="0.0000000000000000e+00" cType="1" res="-2.7883675647899508e-04" rms="4.7374340891838074e-01" purity="4.4565019011497498e-01" nType="-99"/>
          <Node pos="r" depth="2" NCoef="0" IVar="-1" Cut="0.0000000000000000e+00" cType="1" res="1.4139408012852073e-03" rms="4.7837474942207336e-01" purity="5.6430321931838989e-01" nType="-99"/>
        </Node>
        <Node pos="r" depth="1" NCoef="0" IVar="-1" Cut="0.0000000000000000e+00" cType="1" res="1.6484024235978723e-03" rms="4.0437933802604675e-01" purity="7.8736543655395508e-01" nType="-99"/>
      </Node>
    </BinaryTree>
    <BinaryTree type="DecisionTree" boostWeight="1.0000000000000000e+00" itree="244">
      <Node pos="s" depth="0" NCoef="0" IVar="6" Cut="9.5303654670715332e-01" cType="1" res="9.0585676953196526e-03" rms="4.6748805046081543e-01" purity="5.0109845399856567e-01" nType="0">
        <Node pos="l" depth="1" NCoef="0" IVar="3" Cut="1.3392686843872070e+00" cType="1" res="-1.9038416445255280e-02" rms="4.6945634484291077e-01" purity="4.6533569693565369e-01" nType="0">
          <Node pos="l" depth="2" NCoef="0" IVar="-1" Cut="0.0000000000000000e+00" cType="1" res="8.3946925587952137e-04" rms="4.7055307030677795e-01" purity="5.6865102052688599e-01" nType="-99"/>
          <Node pos="r" depth="2" NCoef="0" IVar="-1" Cut="0.0000000000000000e+00" cType="1" res="-9.3243317678570747e-04" rms="4.6822258830070496e-01" purity="4.3956387042999268e-01" nType="-99"/>
        </Node>
        <Node pos="r" depth="1" NCoef="0" IVar="3" Cut="2.4284482002258301e+00" cType="1" res="2.9499594122171402e-02" rms="4.6498522162437439e-01" purity="5.2711641788482666e-01" nType="0">
          <Node pos="l" depth="2" NCoef="0" IVar="-1" Cut="0.0000000000000000e+00" cType="1" res="1.2789540924131870e-03" rms="4.6313390135765076e-01" purity="5.7415664196014404e-01" nType="-99"/>
          <Node pos="r" depth="2" NCoef="0" IVar="-1" Cut="0.0000000000000000e+00" cType="1" res="-7.4337425758130848e-05" rms="4.6572491526603699e-01" purity="4.6028482913970947e-01" nType="-99"/>
        </Node>
      </Node>
    </BinaryTree>
    <BinaryTree type="DecisionTree" boostWeight="1.0000000000000000e+00" itree="245">
      <Node pos="s" depth="0" NCoef="0" IVar="3" Cut="1.7355382442474365e+00" cType="1" res="8.2231471315026283e-03" rms="4.6603161096572876e-01" purity="5.0074023008346558e-01" nType="0">
        <Node pos="l" depth="1" NCoef="0" IVar="0" Cut="8.5444625854492188e+01" cType="1" res="4.8202324658632278e-02" rms="4.6601596474647522e-01" purity="5.7989722490310669e-01" nType="0">
          <Node pos="l" depth="2" NCoef="0" IVar="-1" Cut="0.0000000000000000e+00" cType="1" res="-2.5621146778576076e-04" rms="4.6834534406661987e-01" purity="5.0760346651077271e-01" nType="-99"/>
          <Node pos="r" depth="2" NCoef="0" IVar="-1" Cut="0.0000000000000000e+00" cType="1" res="2.0644599571824074e-03" rms="4.5948883891105652e-01" purity="6.3391858339309692e-01" nType="-99"/>
        </Node>
        <Node pos="r" depth="1" NCoef="0" IVar="3" Cut="3.3788223266601562e+00" cType="1" res="-1.1493803933262825e-02" rms="4.6477481722831726e-01" purity="4.6170154213905334e-01" nType="0">
          <Node pos="l" depth="2" NCoef="0" IVar="-1" Cut="0.0000000000000000e+00" cType="1" res="-8.7428707047365606e-05" rms="4.6760541200637817e-01" purity="4.7630423307418823e-01" nType="-99"/>
          <Node pos="r" depth="2" NCoef="0" IVar="-1" Cut="0.0000000000000000e+00" cType="1" res="-4.0495661087334156e-03" rms="4.2040967941284180e-01" purity="2.9739347100257874e-01" nType="-99"/>
        </Node>
      </Node>
    </BinaryTree>
    <BinaryTree type="DecisionTree" boostWeight="1.0000000000000000e+00" itree="246">
      <Node pos="s" depth="0" NCoef="0" IVar="3" Cut="3.2306876182556152e+00" cType="1" res="7.8993914648890495e-03" rms="4.6544179320335388e-01" purity="4.9899896979331970e-01" nType="0">
        <Node pos="l" depth="1" NCoef="0" IVar="8" Cut="4.0350714325904846e-01" cType="1" res="1.5800733119249344e-02" rms="4.6673962473869324e-01" purity="5.1465255022048950e-01" nType="0">
          <Node pos="l" depth="2" NCoef="0" IVar="-1" Cut="0.0000000000000000e+00" cType="1" res="8.6988060502335429e-05" rms="4.6814891695976257e-01" purity="4.9336990714073181e-01" nType="-99"/>
          <Node pos="r" depth="2" NCoef="0" IVar="-1" Cut="0.0000000000000000e+00" cType="1" res="1.5926918713375926e-03" rms="4.5711100101470947e-01" purity="6.0336971282958984e-01" nType="-99"/>
        </Node>
        <Node pos="r" depth="1" NCoef="0" IVar="-1" Cut="0.0000000000000000e+00" cType="1" res="-2.8956052847206593e-03" rms="4.4152480363845825e-01" purity="3.2596537470817566e-01" nType="-99"/>
      </Node>
    </BinaryTree>
    <BinaryTree type="DecisionTree" boostWeight="1.0000000000000000e+00" itree="247">
      <Node pos="s" depth="0" NCoef="0" IVar="4" Cut="1.5763941955566406e+02" cType="1" res="8.8667515665292740e-03" rms="4.6456611156463623e-01" purity="5.0271207094192505e-01" nType="0">
        <Node pos="l" depth="1" NCoef="0" IVar="1" Cut="-1.6702189445495605e+00" cType="1" res="-1.8016431480646133e-02" rms="4.6256250143051147e-01" purity="4.4684684276580811e-01" nType="0">
          <Node pos="l" depth="2" NCoef="0" IVar="-1" Cut="0.0000000000000000e+00" cType="1" res="-5.8960369788110256e-03" rms="3.8753360509872437e-01" purity="1.8890459835529327e-01" nType="-99"/>
          <Node pos="r" depth="2" NCoef="0" IVar="-1" Cut="0.0000000000000000e+00" cType="1" res="-1.6895294538699090e-04" rms="4.7102564573287964e-01" purity="4.8331594467163086e-01" nType="-99"/>
        </Node>
        <Node pos="r" depth="1" NCoef="0" IVar="9" Cut="1.2797456979751587e-01" cType="1" res="3.5715728998184204e-02" rms="4.6500992774963379e-01" purity="5.5850619077682495e-01" nType="0">
          <Node pos="l" depth="2" NCoef="0" IVar="-1" Cut="0.0000000000000000e+00" cType="1" res="5.6729058269411325e-04" rms="4.6759638190269470e-01" purity="5.3893303871154785e-01" nType="-99"/>
          <Node pos="r" depth="2" NCoef="0" IVar="-1" Cut="0.0000000000000000e+00" cType="1" res="2.4813092313706875e-03" rms="4.4150283932685852e-01" purity="6.7312180995941162e-01" nType="-99"/>
        </Node>
      </Node>
    </BinaryTree>
    <BinaryTree type="DecisionTree" boostWeight="1.0000000000000000e+00" itree="248">
      <Node pos="s" depth="0" NCoef="0" IVar="1" Cut="1.6864674091339111e+00" cType="1" res="6.0235960409045219e-03" rms="4.6332922577857971e-01" purity="4.9957585334777832e-01" nType="0">
        <Node pos="l" depth="1" NCoef="0" IVar="2" Cut="5.7208549976348877e-01" cType="1" res="-1.0642790235579014e-02" rms="4.7208705544471741e-01" purity="4.2471659183502197e-01" nType="0">
          <Node pos="l" depth="2" NCoef="0" IVar="-1" Cut="0.0000000000000000e+00" cType="1" res="-1.4592160005122423e-03" rms="4.6254274249076843e-01" purity="3.5727065801620483e-01" nType="-99"/>
          <Node pos="r" depth="2" NCoef="0" IVar="-1" Cut="0.0000000000000000e+00" cType="1" res="4.4010428246110678e-04" rms="4.7781243920326233e-01" purity="4.7821992635726929e-01" nType="-99"/>
        </Node>
        <Node pos="r" depth="1" NCoef="0" IVar="6" Cut="9.6266317367553711e-01" cType="1" res="6.0709252953529358e-02" rms="4.2882609367370605e-01" purity="7.4520385265350342e-01" nType="0">
          <Node pos="l" depth="2" NCoef="0" IVar="-1" Cut="0.0000000000000000e+00" cType="1" res="6.6996895475313067e-04" rms="4.4624477624893188e-01" purity="7.1137601137161255e-01" nType="-99"/>
          <Node pos="r" depth="2" NCoef="0" IVar="-1" Cut="0.0000000000000000e+00" cType="1" res="1.8122665351256728e-03" rms="4.0963762998580933e-01" purity="7.7735304832458496e-01" nType="-99"/>
        </Node>
      </Node>
    </BinaryTree>
    <BinaryTree type="DecisionTree" boostWeight="1.0000000000000000e+00" itree="249">
      <Node pos="s" depth="0" NCoef="0" IVar="4" Cut="1.0711810302734375e+02" cType="1" res="1.2950691394507885e-02" rms="4.6445712447166443e-01" purity="5.0668311119079590e-01" nType="0">
        <Node pos="l" depth="1" NCoef="0" IVar="9" Cut="1.2084394693374634e-01" cType="1" res="-3.7157259881496429e-02" rms="4.5701375603675842e-01" purity="4.0516901016235352e-01" nType="0">
          <Node pos="l" depth="2" NCoef="0" IVar="-1" Cut="0.0000000000000000e+00" cType="1" res="-2.5662197731435299e-03" rms="4.5073139667510986e-01" purity="3.4300136566162109e-01" nType="-99"/>
          <Node pos="r" depth="2" NCoef="0" IVar="-1" Cut="0.0000000000000000e+00" cType="1" res="2.3393695300910622e-04" rms="4.6022325754165649e-01" purity="4.7900661826133728e-01" nType="-99"/>
        </Node>
        <Node pos="r" depth="1" NCoef="0" IVar="3" Cut="1.8534463644027710e+00" cType="1" res="2.6162847876548767e-02" rms="4.6550223231315613e-01" purity="5.3344970941543579e-01" nType="0">
          <Node pos="l" depth="2" NCoef="0" IVar="-1" Cut="0.0000000000000000e+00" cType="1" res="1.4715542783960700e-03" rms="4.5730853080749512e-01" purity="6.1832994222640991e-01" nType="-99"/>
          <Node pos="r" depth="2" NCoef="0" IVar="-1" Cut="0.0000000000000000e+00" cType="1" res="1.0792039392981678e-04" rms="4.6875378489494324e-01" purity="4.8427072167396545e-01" nType="-99"/>
        </Node>
      </Node>
    </BinaryTree>
    <BinaryTree type="DecisionTree" boostWeight="1.0000000000000000e+00" itree="250">
      <Node pos="s" depth="0" NCoef="0" IVar="1" Cut="2.6676778793334961e+00" cType="1" res="3.2452689483761787e-03" rms="4.6596083045005798e-01" purity="4.9623888731002808e-01" nType="0">
        <Node pos="l" depth="1" NCoef="0" IVar="4" Cut="1.6980743408203125e+02" cType="1" res="-5.4563228040933609e-03" rms="4.7176000475883484e-01" purity="4.6434393525123596e-01" nType="0">
          <Node pos="l" depth="2" NCoef="0" IVar="-1" Cut="0.0000000000000000e+00" cType="1" res="-8.4796349983662367e-04" rms="4.6565276384353638e-01" purity="4.1927960515022278e-01" nType="-99"/>
          <Node pos="r" depth="2" NCoef="0" IVar="-1" Cut="0.0000000000000000e+00" cType="1" res="6.2959559727460146e-04" rms="4.7801125049591064e-01" purity="5.2361065149307251e-01" nType="-99"/>
        </Node>
        <Node pos="r" depth="1" NCoef="0" IVar="-1" Cut="0.0000000000000000e+00" cType="1" res="1.7887101275846362e-03" rms="3.9760810136795044e-01" purity="7.9838490486145020e-01" nType="-99"/>
      </Node>
    </BinaryTree>
    <BinaryTree type="DecisionTree" boostWeight="1.0000000000000000e+00" itree="251">
      <Node pos="s" depth="0" NCoef="0" IVar="2" Cut="4.6980789303779602e-01" cType="1" res="8.7659424170851707e-03" rms="4.6471875905990601e-01" purity="5.0226002931594849e-01" nType="0">
        <Node pos="l" depth="1" NCoef="0" IVar="5" Cut="1.3890440575778484e-02" cType="1" res="-5.1170144230127335e-02" rms="4.6363908052444458e-01" purity="4.0467801690101624e-01" nType="0">
          <Node pos="l" depth="2" NCoef="0" IVar="-1" Cut="0.0000000000000000e+00" cType="1" res="-4.0604365058243275e-03" rms="4.3945732712745667e-01" purity="3.3293163776397705e-01" nType="-99"/>
          <Node pos="r" depth="2" NCoef="0" IVar="-1" Cut="0.0000000000000000e+00" cType="1" res="5.2290607709437609e-04" rms="4.7655114531517029e-01" purity="4.7722727060317993e-01" nType="-99"/>
        </Node>
        <Node pos="r" depth="1" NCoef="0" IVar="1" Cut="-5.0322377681732178e-01" cType="1" res="2.4089410901069641e-02" rms="4.6375268697738647e-01" purity="5.2720814943313599e-01" nType="0">
          <Node pos="l" depth="2" NCoef="0" IVar="-1" Cut="0.0000000000000000e+00" cType="1" res="-8.2595500862225890e-04" rms="4.5810166001319885e-01" purity="3.1979870796203613e-01" nType="-99"/>
          <Node pos="r" depth="2" NCoef="0" IVar="-1" Cut="0.0000000000000000e+00" cType="1" res="1.0326980846002698e-03" rms="4.6484571695327759e-01" purity="6.2715524435043335e-01" nType="-99"/>
        </Node>
      </Node>
    </BinaryTree>
    <BinaryTree type="DecisionTree" boostWeight="1.0000000000000000e+00" itree="252">
      <Node pos="s" depth="0" NCoef="0" IVar="4" Cut="1.0321051025390625e+02" cType="1" res="1.1913971044123173e-02" rms="4.6446248888969421e-01" purity="5.0596880912780762e-01" nType="0">
        <Node pos="l" depth="1" NCoef="0" IVar="4" Cut="8.4088676452636719e+01" cType="1" res="-4.0750958025455475e-02" rms="4.5676237344741821e-01" purity="3.9594939351081848e-01" nType="0">
          <Node pos="l" depth="2" NCoef="0" IVar="-1" Cut="0.0000000000000000e+00" cType="1" res="-3.2553600613027811e-03" rms="4.4048833847045898e-01" purity="3.3621671795845032e-01" nType="-99"/>
          <Node pos="r" depth="2" NCoef="0" IVar="-1" Cut="0.0000000000000000e+00" cType="1" res="-1.2309683370403945e-04" rms="4.6430736780166626e-01" purity="4.3771806359291077e-01" nType="-99"/>
        </Node>
        <Node pos="r" depth="1" NCoef="0" IVar="9" Cut="1.8752713501453400e-01" cType="1" res="2.3451304063200951e-02" rms="4.6533715724945068e-01" purity="5.3007078170776367e-01" nType="0">
          <Node pos="l" depth="2" NCoef="0" IVar="-1" Cut="0.0000000000000000e+00" cType="1" res="3.7942035123705864e-04" rms="4.6654590964317322e-01" purity="5.1711875200271606e-01" nType="-99"/>
          <Node pos="r" depth="2" NCoef="0" IVar="-1" Cut="0.0000000000000000e+00" cType="1" res="2.6153470389544964e-03" rms="4.4112825393676758e-01" purity="6.6905891895294189e-01" nType="-99"/>
        </Node>
      </Node>
    </BinaryTree>
    <BinaryTree type="DecisionTree" boostWeight="1.0000000000000000e+00" itree="253">
      <Node pos="s" depth="0" NCoef="0" IVar="1" Cut="2.6676778793334961e+00" cType="1" res="6.2097711488604546e-03" rms="4.6617737412452698e-01" purity="4.9682694673538208e-01" nType="0">
        <Node pos="l" depth="1" NCoef="0" IVar="3" Cut="3.2958974838256836e+00" cType="1" res="-2.9206220060586929e-03" rms="4.7260722517967224e-01" purity="4.6407237648963928e-01" nType="0">
          <Node pos="l" depth="2" NCoef="0" IVar="-1" Cut="0.0000000000000000e+00" cType="1" res="1.0832276166183874e-04" rms="4.7487002611160278e-01" purity="4.7816544771194458e-01" nType="-99"/>
          <Node pos="r" depth="2" NCoef="0" IVar="-1" Cut="0.0000000000000000e+00" cType="1" res="-3.8602876011282206e-03" rms="4.3038806319236755e-01" purity="2.7462330460548401e-01" nType="-99"/>
        </Node>
        <Node pos="r" depth="1" NCoef="0" IVar="-1" Cut="0.0000000000000000e+00" cType="1" res="1.9481371855363250e-03" rms="3.8922643661499023e-01" purity="8.0869406461715698e-01" nType="-99"/>
      </Node>
    </BinaryTree>
    <BinaryTree type="DecisionTree" boostWeight="1.0000000000000000e+00" itree="254">
      <Node pos="s" depth="0" NCoef="0" IVar="3" Cut="1.8530911207199097e+00" cType="1" res="1.3653141446411610e-02" rms="4.6630513668060303e-01" purity="5.0700592994689941e-01" nType="0">
        <Node pos="l" depth="1" NCoef="0" IVar="0" Cut="1.0807492828369141e+02" cType="1" res="4.2951397597789764e-02" rms="4.6580535173416138e-01" purity="5.7776588201522827e-01" nType="0">
          <Node pos="l" depth="2" NCoef="0" IVar="-1" Cut="0.0000000000000000e+00" cType="1" res="2.0395852334331721e-04" rms="4.6983367204666138e-01" purity="5.3137046098709106e-01" nType="-99"/>
          <Node pos="r" depth="2" NCoef="0" IVar="-1" Cut="0.0000000000000000e+00" cType="1" res="2.0953088533133268e-03" rms="4.5503133535385132e-01" purity="6.4576715230941772e-01" nType="-99"/>
        </Node>
        <Node pos="r" depth="1" NCoef="0" IVar="5" Cut="-5.6120663881301880e-02" cType="1" res="-2.9952218756079674e-03" rms="4.6576845645904541e-01" purity="4.6679750084877014e-01" nType="0">
          <Node pos="l" depth="2" NCoef="0" IVar="-1" Cut="0.0000000000000000e+00" cType="1" res="-2.0855823531746864e-03" rms="4.5407909154891968e-01" purity="3.8124123215675354e-01" nType="-99"/>
          <Node pos="r" depth="2" NCoef="0" IVar="-1" Cut="0.0000000000000000e+00" cType="1" res="1.6315674292854965e-04" rms="4.6676853299140930e-01" purity="4.7922131419181824e-01" nType="-99"/>
        </Node>
      </Node>
    </BinaryTree>
    <BinaryTree type="DecisionTree" boostWeight="1.0000000000000000e+00" itree="255">
      <Node pos="s" depth="0" NCoef="0" IVar="6" Cut="9.2821133136749268e-01" cType="1" res="6.9251172244548798e-03" rms="4.6735250949859619e-01" purity="4.9712285399436951e-01" nType="0">
        <Node pos="l" depth="1" NCoef="0" IVar="5" Cut="-2.9152229428291321e-02" cType="1" res="-4.4171776622533798e-02" rms="4.6939846873283386e-01" purity="4.3019431829452515e-01" nType="0">
          <Node pos="l" depth="2" NCoef="0" IVar="-1" Cut="0.0000000000000000e+00" cType="1" res="-2.7540083974599838e-03" rms="4.5790624618530273e-01" purity="3.7915506958961487e-01" nType="-99"/>
          <Node pos="r" depth="2" NCoef="0" IVar="-1" Cut="0.0000000000000000e+00" cType="1" res="-6.6648924257606268e-04" rms="4.7299712896347046e-01" purity="4.5292627811431885e-01" nType="-99"/>
        </Node>
        <Node pos="r" depth="1" NCoef="0" IVar="8" Cut="4.0479257702827454e-01" cType="1" res="1.8638109788298607e-02" rms="4.6609368920326233e-01" purity="5.1246494054794312e-01" nType="0">
          <Node pos="l" depth="2" NCoef="0" IVar="-1" Cut="0.0000000000000000e+00" cType="1" res="2.0362957729957998e-04" rms="4.6673056483268738e-01" purity="4.9335259199142456e-01" nType="-99"/>
          <Node pos="r" depth="2" NCoef="0" IVar="-1" Cut="0.0000000000000000e+00" cType="1" res="1.7259682063013315e-03" rms="4.5915955305099487e-01" purity="6.0516709089279175e-01" nType="-99"/>
        </Node>
      </Node>
    </BinaryTree>
    <BinaryTree type="DecisionTree" boostWeight="1.0000000000000000e+00" itree="256">
      <Node pos="s" depth="0" NCoef="0" IVar="8" Cut="3.5592809319496155e-01" cType="1" res="1.1100656352937222e-02" rms="4.6505910158157349e-01" purity="5.0481116771697998e-01" nType="0">
        <Node pos="l" depth="1" NCoef="0" IVar="7" Cut="3.2026719301939011e-02" cType="1" res="-6.0258314013481140e-02" rms="4.6158000826835632e-01" purity="4.1457715630531311e-01" nType="0">
          <Node pos="l" depth="2" NCoef="0" IVar="-1" Cut="0.0000000000000000e+00" cType="1" res="-2.1043085143901408e-04" rms="4.6734306216239929e-01" purity="4.7581264376640320e-01" nType="-99"/>
          <Node pos="r" depth="2" NCoef="0" IVar="-1" Cut="0.0000000000000000e+00" cType="1" res="-3.3361888490617275e-03" rms="4.5212388038635254e-01" purity="3.6377945542335510e-01" nType="-99"/>
        </Node>
        <Node pos="r" depth="1" NCoef="0" IVar="4" Cut="1.1676332855224609e+02" cType="1" res="2.2514494135975838e-02" rms="4.6459752321243286e-01" purity="5.1924407482147217e-01" nType="0">
          <Node pos="l" depth="2" NCoef="0" IVar="-1" Cut="0.0000000000000000e+00" cType="1" res="-6.3739344477653503e-04" rms="4.6322208642959595e-01" purity="4.2563945055007935e-01" nType="-99"/>
          <Node pos="r" depth="2" NCoef="0" IVar="-1" Cut="0.0000000000000000e+00" cType="1" res="1.0079103522002697e-03" rms="4.6394565701484680e-01" purity="5.5842584371566772e-01" nType="-99"/>
        </Node>
      </Node>
    </BinaryTree>
    <BinaryTree type="DecisionTree" boostWeight="1.0000000000000000e+00" itree="257">
      <Node pos="s" depth="0" NCoef="0" IVar="3" Cut="1.9574126005172729e+00" cType="1" res="8.5921213030815125e-03" rms="4.6446689963340759e-01" purity="5.0158953666687012e-01" nType="0">
        <Node pos="l" depth="1" NCoef="0" IVar="0" Cut="8.5422073364257812e+01" cType="1" res="4.7035250812768936e-02" rms="4.6275031566619873e-01" purity="5.7832127809524536e-01" nType="0">
          <Node pos="l" depth="2" NCoef="0" IVar="-1" Cut="0.0000000000000000e+00" cType="1" res="-1.5172873645497020e-05" rms="4.6765828132629395e-01" purity="5.1670527458190918e-01" nType="-99"/>
          <Node pos="r" depth="2" NCoef="0" IVar="-1" Cut="0.0000000000000000e+00" cType="1" res="1.7423960380256176e-03" rms="4.5750010013580322e-01" purity="6.1473917961120605e-01" nType="-99"/>
        </Node>
        <Node pos="r" depth="1" NCoef="0" IVar="9" Cut="8.6463622748851776e-02" cType="1" res="-1.7041863873600960e-02" rms="4.6384081244468689e-01" purity="4.5042458176612854e-01" nType="0">
          <Node pos="l" depth="2" NCoef="0" IVar="-1" Cut="0.0000000000000000e+00" cType="1" res="-1.3063218211755157e-03" rms="4.6100974082946777e-01" purity="4.1398778557777405e-01" nType="-99"/>
          <Node pos="r" depth="2" NCoef="0" IVar="-1" Cut="0.0000000000000000e+00" cType="1" res="4.2901322012767196e-04" rms="4.6534648537635803e-01" purity="4.9660882353782654e-01" nType="-99"/>
        </Node>
      </Node>
    </BinaryTree>
    <BinaryTree type="DecisionTree" boostWeight="1.0000000000000000e+00" itree="258">
      <Node pos="s" depth="0" NCoef="0" IVar="1" Cut="1.6701130867004395e+00" cType="1" res="8.0579379573464394e-03" rms="4.6349391341209412e-01" purity="5.0271624326705933e-01" nType="0">
        <Node pos="l" depth="1" NCoef="0" IVar="4" Cut="1.6840632629394531e+02" cType="1" res="-7.4071153067052364e-03" rms="4.7322919964790344e-01" purity="4.2781925201416016e-01" nType="0">
          <Node pos="l" depth="2" NCoef="0" IVar="-1" Cut="0.0000000000000000e+00" cType="1" res="-1.0383379412814975e-03" rms="4.6485051512718201e-01" purity="3.8228708505630493e-01" nType="-99"/>
          <Node pos="r" depth="2" NCoef="0" IVar="-1" Cut="0.0000000000000000e+00" cType="1" res="7.1695446968078613e-04" rms="4.8222717642784119e-01" purity="4.8978111147880554e-01" nType="-99"/>
        </Node>
        <Node pos="r" depth="1" NCoef="0" IVar="6" Cut="9.6252167224884033e-01" cType="1" res="5.8324489742517471e-02" rms="4.2647621035575867e-01" purity="7.4615639448165894e-01" nType="0">
          <Node pos="l" depth="2" NCoef="0" IVar="-1" Cut="0.0000000000000000e+00" cType="1" res="5.1980890566483140e-04" rms="4.4661763310432434e-01" purity="7.0583194494247437e-01" nType="-99"/>
          <Node pos="r" depth="2" NCoef="0" IVar="-1" Cut="0.0000000000000000e+00" cType="1" res="1.8563629128038883e-03" rms="4.0465030074119568e-01" purity="7.8301686048507690e-01" nType="-99"/>
        </Node>
      </Node>
    </BinaryTree>
    <BinaryTree type="DecisionTree" boostWeight="1.0000000000000000e+00" itree="259">
      <Node pos="s" depth="0" NCoef="0" IVar="3" Cut="1.9513609409332275e+00" cType="1" res="9.8476819694042206e-03" rms="4.6468016505241394e-01" purity="5.0364780426025391e-01" nType="0">
        <Node pos="l" depth="1" NCoef="0" IVar="0" Cut="9.8475524902343750e+01" cType="1" res="4.2841341346502304e-02" rms="4.6319606900215149e-01" purity="5.7596105337142944e-01" nType="0">
          <Node pos="l" depth="2" NCoef="0" IVar="-1" Cut="0.0000000000000000e+00" cType="1" res="-1.2176977907074615e-04" rms="4.6706140041351318e-01" purity="5.1346540451049805e-01" nType="-99"/>
          <Node pos="r" depth="2" NCoef="0" IVar="-1" Cut="0.0000000000000000e+00" cType="1" res="1.9817759748548269e-03" rms="4.5517873764038086e-01" purity="6.3382387161254883e-01" nType="-99"/>
        </Node>
        <Node pos="r" depth="1" NCoef="0" IVar="7" Cut="1.4655065536499023e-01" cType="1" res="-1.2225817888975143e-02" rms="4.6436345577239990e-01" purity="4.5526859164237976e-01" nType="0">
          <Node pos="l" depth="2" NCoef="0" IVar="-1" Cut="0.0000000000000000e+00" cType="1" res="-5.9615384088829160e-05" rms="4.6593728661537170e-01" purity="4.7006425261497498e-01" nType="-99"/>
          <Node pos="r" depth="2" NCoef="0" IVar="-1" Cut="0.0000000000000000e+00" cType="1" res="-2.8256673831492662e-03" rms="4.4605162739753723e-01" purity="3.4825348854064941e-01" nType="-99"/>
        </Node>
      </Node>
    </BinaryTree>
    <BinaryTree type="DecisionTree" boostWeight="1.0000000000000000e+00" itree="260">
      <Node pos="s" depth="0" NCoef="0" IVar="9" Cut="7.0947967469692230e-02" cType="1" res="2.5907638482749462e-03" rms="4.6617570519447327e-01" purity="4.9326571822166443e-01" nType="0">
        <Node pos="l" depth="1" NCoef="0" IVar="1" Cut="1.9464186429977417e+00" cType="1" res="-3.0387133359909058e-02" rms="4.6312594413757324e-01" purity="4.4967830181121826e-01" nType="0">
          <Node pos="l" depth="2" NCoef="0" IVar="-1" Cut="0.0000000000000000e+00" cType="1" res="-1.3778924476355314e-03" rms="4.6556779742240906e-01" purity="3.8656231760978699e-01" nType="-99"/>
          <Node pos="r" depth="2" NCoef="0" IVar="-1" Cut="0.0000000000000000e+00" cType="1" res="6.0029322048649192e-04" rms="4.4827169179916382e-01" purity="7.0884209871292114e-01" nType="-99"/>
        </Node>
        <Node pos="r" depth="1" NCoef="0" IVar="4" Cut="9.3880805969238281e+01" cType="1" res="2.9308563098311424e-02" rms="4.6692717075347900e-01" purity="5.2857905626296997e-01" nType="0">
          <Node pos="l" depth="2" NCoef="0" IVar="-1" Cut="0.0000000000000000e+00" cType="1" res="-1.4099708059802651e-03" rms="4.5615062117576599e-01" purity="4.0292590856552124e-01" nType="-99"/>
          <Node pos="r" depth="2" NCoef="0" IVar="-1" Cut="0.0000000000000000e+00" cType="1" res="1.1498047970235348e-03" rms="4.6771726012229919e-01" purity="5.5718380212783813e-01" nType="-99"/>
        </Node>
      </Node>
    </BinaryTree>
    <BinaryTree type="DecisionTree" boostWeight="1.0000000000000000e+00" itree="261">
      <Node pos="s" depth="0" NCoef="0" IVar="2" Cut="6.5144163370132446e-01" cType="1" res="1.0950961150228977e-02" rms="4.6529266238212585e-01" purity="5.0362986326217651e-01" nType="0">
        <Node pos="l" depth="1" NCoef="0" IVar="4" Cut="9.2992668151855469e+01" cType="1" res="-7.3948055505752563e-03" rms="4.6684560179710388e-01" purity="4.5878225564956665e-01" nType="0">
          <Node pos="l" depth="2" NCoef="0" IVar="-1" Cut="0.0000000000000000e+00" cType="1" res="-3.1091528944671154e-03" rms="4.4563162326812744e-01" purity="3.2227623462677002e-01" nType="-99"/>
          <Node pos="r" depth="2" NCoef="0" IVar="-1" Cut="0.0000000000000000e+00" cType="1" res="1.3596478675026447e-04" rms="4.6894058585166931e-01" purity="4.8051267862319946e-01" nType="-99"/>
        </Node>
        <Node pos="r" depth="1" NCoef="0" IVar="1" Cut="-1.0350347757339478e+00" cType="1" res="4.2237497866153717e-02" rms="4.6095094084739685e-01" purity="5.8011209964752197e-01" nType="0">
          <Node pos="l" depth="2" NCoef="0" IVar="-1" Cut="0.0000000000000000e+00" cType="1" res="-2.6414461899548769e-04" rms="4.7163656353950500e-01" purity="3.4916168451309204e-01" nType="-99"/>
          <Node pos="r" depth="2" NCoef="0" IVar="-1" Cut="0.0000000000000000e+00" cType="1" res="1.3010491384193301e-03" rms="4.5633363723754883e-01" purity="6.5409296751022339e-01" nType="-99"/>
        </Node>
      </Node>
    </BinaryTree>
    <BinaryTree type="DecisionTree" boostWeight="1.0000000000000000e+00" itree="262">
      <Node pos="s" depth="0" NCoef="0" IVar="3" Cut="1.9839429855346680e+00" cType="1" res="9.4305034726858139e-03" rms="4.6795731782913208e-01" purity="5.0122064352035522e-01" nType="0">
        <Node pos="l" depth="1" NCoef="0" IVar="0" Cut="8.7224906921386719e+01" cType="1" res="3.7452638149261475e-02" rms="4.6925732493400574e-01" purity="5.6457275152206421e-01" nType="0">
          <Node pos="l" depth="2" NCoef="0" IVar="-1" Cut="0.0000000000000000e+00" cType="1" res="-1.8630376143846661e-04" rms="4.7272911667823792e-01" purity="5.0281137228012085e-01" nType="-99"/>
          <Node pos="r" depth="2" NCoef="0" IVar="-1" Cut="0.0000000000000000e+00" cType="1" res="1.5153390122577548e-03" rms="4.6498551964759827e-01" purity="6.0257762670516968e-01" nType="-99"/>
        </Node>
        <Node pos="r" depth="1" NCoef="0" IVar="4" Cut="2.5734762573242188e+02" cType="1" res="-1.0174892842769623e-02" rms="4.6604496240615845e-01" purity="4.5689705014228821e-01" nType="0">
          <Node pos="l" depth="2" NCoef="0" IVar="-1" Cut="0.0000000000000000e+00" cType="1" res="-6.4385571749880910e-04" rms="4.6433690190315247e-01" purity="4.3585807085037231e-01" nType="-99"/>
          <Node pos="r" depth="2" NCoef="0" IVar="-1" Cut="0.0000000000000000e+00" cType="1" res="1.1469272430986166e-03" rms="4.7011682391166687e-01" purity="5.6028884649276733e-01" nType="-99"/>
        </Node>
      </Node>
    </BinaryTree>
    <BinaryTree type="DecisionTree" boostWeight="1.0000000000000000e+00" itree="263">
      <Node pos="s" depth="0" NCoef="0" IVar="3" Cut="3.2002813816070557e+00" cType="1" res="1.2255039066076279e-02" rms="4.6552506089210510e-01" purity="5.0527215003967285e-01" nType="0">
        <Node pos="l" depth="1" NCoef="0" IVar="8" Cut="4.1098099946975708e-01" cType="1" res="2.1230151876807213e-02" rms="4.6711900830268860e-01" purity="5.2326631546020508e-01" nType="0">
          <Node pos="l" depth="2" NCoef="0" IVar="-1" Cut="0.0000000000000000e+00" cType="1" res="3.6174457636661828e-04" rms="4.6741431951522827e-01" purity="5.1064538955688477e-01" nType="-99"/>
          <Node pos="r" depth="2" NCoef="0" IVar="-1" Cut="0.0000000000000000e+00" cType="1" res="2.0967023447155952e-03" rms="4.5733100175857544e-01" purity="6.5011715888977051e-01" nType="-99"/>
        </Node>
        <Node pos="r" depth="1" NCoef="0" IVar="-1" Cut="0.0000000000000000e+00" cType="1" res="-2.9598097316920757e-03" rms="4.3826496601104736e-01" purity="3.2020959258079529e-01" nType="-99"/>
      </Node>
    </BinaryTree>
    <BinaryTree type="DecisionTree" boostWeight="1.0000000000000000e+00" itree="264">
      <Node pos="s" depth="0" NCoef="0" IVar="3" Cut="1.5108858346939087e+00" cType="1" res="7.2595947422087193e-03" rms="4.6365574002265930e-01" purity="5.0123327970504761e-01" nType="0">
        <Node pos="l" depth="1" NCoef="0" IVar="0" Cut="9.7744834899902344e+01" cType="1" res="5.5174130946397781e-02" rms="4.6041923761367798e-01" purity="5.9785497188568115e-01" nType="0">
          <Node pos="l" depth="2" NCoef="0" IVar="-1" Cut="0.0000000000000000e+00" cType="1" res="3.2962302793748677e-04" rms="4.6782529354095459e-01" purity="5.3848773241043091e-01" nType="-99"/>
          <Node pos="r" depth="2" NCoef="0" IVar="-1" Cut="0.0000000000000000e+00" cType="1" res="2.5913165882229805e-03" rms="4.4080844521522522e-01" purity="6.8991440534591675e-01" nType="-99"/>
        </Node>
        <Node pos="r" depth="1" NCoef="0" IVar="1" Cut="1.8266229629516602e+00" cType="1" res="-9.0350415557622910e-03" rms="4.6362429857254028e-01" purity="4.6837449073791504e-01" nType="0">
          <Node pos="l" depth="2" NCoef="0" IVar="-1" Cut="0.0000000000000000e+00" cType="1" res="-7.0248736301437020e-04" rms="4.6953243017196655e-01" purity="4.0089711546897888e-01" nType="-99"/>
          <Node pos="r" depth="2" NCoef="0" IVar="-1" Cut="0.0000000000000000e+00" cType="1" res="9.6952094463631511e-04" rms="4.3559697270393372e-01" purity="7.3122501373291016e-01" nType="-99"/>
        </Node>
      </Node>
    </BinaryTree>
    <BinaryTree type="DecisionTree" boostWeight="1.0000000000000000e+00" itree="265">
      <Node pos="s" depth="0" NCoef="0" IVar="6" Cut="9.6841251850128174e-01" cType="1" res="1.8505502957850695e-03" rms="4.6268177032470703e-01" purity="4.9710068106651306e-01" nType="0">
        <Node pos="l" depth="1" NCoef="0" IVar="3" Cut="1.6462645530700684e+00" cType="1" res="-2.1358234807848930e-02" rms="4.6419501304626465e-01" purity="4.6786540746688843e-01" nType="0">
          <Node pos="l" depth="2" NCoef="0" IVar="-1" Cut="0.0000000000000000e+00" cType="1" res="6.2150973826646805e-04" rms="4.6775445342063904e-01" purity="5.5991077423095703e-01" nType="-99"/>
          <Node pos="r" depth="2" NCoef="0" IVar="-1" Cut="0.0000000000000000e+00" cType="1" res="-1.1814793106168509e-03" rms="4.6139451861381531e-01" purity="4.3080624938011169e-01" nType="-99"/>
        </Node>
        <Node pos="r" depth="1" NCoef="0" IVar="1" Cut="-4.2840486764907837e-01" cType="1" res="3.2467640936374664e-02" rms="4.5888572931289673e-01" purity="5.3566795587539673e-01" nType="0">
          <Node pos="l" depth="2" NCoef="0" IVar="-1" Cut="0.0000000000000000e+00" cType="1" res="-8.0310070188716054e-04" rms="4.5616829395294189e-01" purity="3.1939092278480530e-01" nType="-99"/>
          <Node pos="r" depth="2" NCoef="0" IVar="-1" Cut="0.0000000000000000e+00" cType="1" res="1.2997456360608339e-03" rms="4.5795252919197083e-01" purity="6.4114826917648315e-01" nType="-99"/>
        </Node>
      </Node>
    </BinaryTree>
    <BinaryTree type="DecisionTree" boostWeight="1.0000000000000000e+00" itree="266">
      <Node pos="s" depth="0" NCoef="0" IVar="3" Cut="3.1384282112121582e+00" cType="1" res="3.8970662280917168e-03" rms="4.6544599533081055e-01" purity="4.9427434802055359e-01" nType="0">
        <Node pos="l" depth="1" NCoef="0" IVar="6" Cut="9.6841102838516235e-01" cType="1" res="1.3017517514526844e-02" rms="4.6772930026054382e-01" purity="5.1421266794204712e-01" nType="0">
          <Node pos="l" depth="2" NCoef="0" IVar="-1" Cut="0.0000000000000000e+00" cType="1" res="-2.4170415417756885e-04" rms="4.6815803647041321e-01" purity="4.8715278506278992e-01" nType="-99"/>
          <Node pos="r" depth="2" NCoef="0" IVar="-1" Cut="0.0000000000000000e+00" cType="1" res="1.0518075432628393e-03" rms="4.6563804149627686e-01" purity="5.4926723241806030e-01" nType="-99"/>
        </Node>
        <Node pos="r" depth="1" NCoef="0" IVar="9" Cut="6.4985774457454681e-02" cType="1" res="-6.8143896758556366e-02" rms="4.4041222333908081e-01" purity="3.3678495883941650e-01" nType="0">
          <Node pos="l" depth="2" NCoef="0" IVar="-1" Cut="0.0000000000000000e+00" cType="1" res="-4.8532369546592236e-03" rms="4.2661103606224060e-01" purity="2.7330508828163147e-01" nType="-99"/>
          <Node pos="r" depth="2" NCoef="0" IVar="-1" Cut="0.0000000000000000e+00" cType="1" res="-5.6940084323287010e-04" rms="4.4862672686576843e-01" purity="4.0181338787078857e-01" nType="-99"/>
        </Node>
      </Node>
    </BinaryTree>
    <BinaryTree type="DecisionTree" boostWeight="1.0000000000000000e+00" itree="267">
      <Node pos="s" depth="0" NCoef="0" IVar="3" Cut="1.5625833272933960e+00" cType="1" res="8.0285053700208664e-03" rms="4.6586349606513977e-01" purity="4.9954929947853088e-01" nType="0">
        <Node pos="l" depth="1" NCoef="0" IVar="0" Cut="8.7763710021972656e+01" cType="1" res="5.3602576255798340e-02" rms="4.6266630291938782e-01" purity="5.9396868944168091e-01" nType="0">
          <Node pos="l" depth="2" NCoef="0" IVar="-1" Cut="0.0000000000000000e+00" cType="1" res="3.5909102734876797e-05" rms="4.6878960728645325e-01" purity="5.2352750301361084e-01" nType="-99"/>
          <Node pos="r" depth="2" NCoef="0" IVar="-1" Cut="0.0000000000000000e+00" cType="1" res="2.3848987184464931e-03" rms="4.4955667853355408e-01" purity="6.6847193241119385e-01" nType="-99"/>
        </Node>
        <Node pos="r" depth="1" NCoef="0" IVar="9" Cut="5.3321052342653275e-02" cType="1" res="-8.8640749454498291e-03" rms="4.6591195464134216e-01" purity="4.6455165743827820e-01" nType="0">
          <Node pos="l" depth="2" NCoef="0" IVar="-1" Cut="0.0000000000000000e+00" cType="1" res="-1.2913281098008156e-03" rms="4.6088981628417969e-01" purity="4.1304638981819153e-01" nType="-99"/>
          <Node pos="r" depth="2" NCoef="0" IVar="-1" Cut="0.0000000000000000e+00" cType="1" res="2.0546844461932778e-04" rms="4.6743458509445190e-01" purity="4.8941117525100708e-01" nType="-99"/>
        </Node>
      </Node>
    </BinaryTree>
    <BinaryTree type="DecisionTree" boostWeight="1.0000000000000000e+00" itree="268">
      <Node pos="s" depth="0" NCoef="0" IVar="7" Cut="-7.0067937485873699e-03" cType="1" res="-2.5862120091915131e-03" rms="4.6559807658195496e-01" purity="4.8912140727043152e-01" nType="0">
        <Node pos="l" depth="1" NCoef="0" IVar="5" Cut="6.0749836266040802e-03" cType="1" res="4.4021017849445343e-02" rms="4.6636503934860229e-01" purity="5.6160575151443481e-01" nType="0">
          <Node pos="l" depth="2" NCoef="0" IVar="-1" Cut="0.0000000000000000e+00" cType="1" res="1.6311421059072018e-03" rms="4.6375432610511780e-01" purity="5.8162695169448853e-01" nType="-99"/>
          <Node pos="r" depth="2" NCoef="0" IVar="-1" Cut="0.0000000000000000e+00" cType="1" res="1.2051202793372795e-04" rms="4.6812549233436584e-01" purity="5.2766525745391846e-01" nType="-99"/>
        </Node>
        <Node pos="r" depth="1" NCoef="0" IVar="6" Cut="9.9004757404327393e-01" cType="1" res="-2.0082665607333183e-02" rms="4.6410304307937622e-01" purity="4.6191060543060303e-01" nType="0">
          <Node pos="l" depth="2" NCoef="0" IVar="-1" Cut="0.0000000000000000e+00" cType="1" res="-9.3901919899508357e-04" rms="4.6313723921775818e-01" purity="4.4765540957450867e-01" nType="-99"/>
          <Node pos="r" depth="2" NCoef="0" IVar="-1" Cut="0.0000000000000000e+00" cType="1" res="1.1087530292570591e-03" rms="4.6369600296020508e-01" purity="5.3336596488952637e-01" nType="-99"/>
        </Node>
      </Node>
    </BinaryTree>
    <BinaryTree type="DecisionTree" boostWeight="1.0000000000000000e+00" itree="269">
      <Node pos="s" depth="0" NCoef="0" IVar="1" Cut="2.6911325454711914e+00" cType="1" res="7.2604091838002205e-03" rms="4.6473625302314758e-01" purity="5.0036460161209106e-01" nType="0">
        <Node pos="l" depth="1" NCoef="0" IVar="4" Cut="1.0532432556152344e+02" cType="1" res="-2.7817117515951395e-03" rms="4.7144016623497009e-01" purity="4.6701845526695251e-01" nType="0">
          <Node pos="l" depth="2" NCoef="0" IVar="-1" Cut="0.0000000000000000e+00" cType="1" res="-1.6262165736407042e-03" rms="4.5969697833061218e-01" purity="3.7110534310340881e-01" nType="-99"/>
          <Node pos="r" depth="2" NCoef="0" IVar="-1" Cut="0.0000000000000000e+00" cType="1" res="2.3660618171561509e-04" rms="4.7363537549972534e-01" purity="4.9118494987487793e-01" nType="-99"/>
        </Node>
        <Node pos="r" depth="1" NCoef="0" IVar="-1" Cut="0.0000000000000000e+00" cType="1" res="2.1431546192616224e-03" rms="3.8115394115447998e-01" purity="8.2124733924865723e-01" nType="-99"/>
      </Node>
    </BinaryTree>
    <BinaryTree type="DecisionTree" boostWeight="1.0000000000000000e+00" itree="270">
      <Node pos="s" depth="0" NCoef="0" IVar="1" Cut="-9.7687000036239624e-01" cType="1" res="-8.2842115079984069e-04" rms="4.6291601657867432e-01" purity="4.9334388971328735e-01" nType="0">
        <Node pos="l" depth="1" NCoef="0" IVar="3" Cut="2.2526822090148926e+00" cType="1" res="-5.5631879717111588e-02" rms="4.3034848570823669e-01" purity="2.5994303822517395e-01" nType="0">
          <Node pos="l" depth="2" NCoef="0" IVar="-1" Cut="0.0000000000000000e+00" cType="1" res="-1.2610554695129395e-03" rms="4.5773243904113770e-01" purity="3.1640166044235229e-01" nType="-99"/>
          <Node pos="r" depth="2" NCoef="0" IVar="-1" Cut="0.0000000000000000e+00" cType="1" res="-4.1518840007483959e-03" rms="4.0332162380218506e-01" purity="2.0971575379371643e-01" nType="-99"/>
        </Node>
        <Node pos="r" depth="1" NCoef="0" IVar="3" Cut="3.2814073562622070e+00" cType="1" res="1.5140675008296967e-02" rms="4.7078442573547363e-01" purity="5.6135416030883789e-01" nType="0">
          <Node pos="l" depth="2" NCoef="0" IVar="-1" Cut="0.0000000000000000e+00" cType="1" res="5.2864314056932926e-04" rms="4.7086042165756226e-01" purity="5.7531809806823730e-01" nType="-99"/>
          <Node pos="r" depth="2" NCoef="0" IVar="-1" Cut="0.0000000000000000e+00" cType="1" res="-2.6442809030413628e-03" rms="4.5904216170310974e-01" purity="3.6815449595451355e-01" nType="-99"/>
        </Node>
      </Node>
    </BinaryTree>
    <BinaryTree type="DecisionTree" boostWeight="1.0000000000000000e+00" itree="271">
      <Node pos="s" depth="0" NCoef="0" IVar="3" Cut="1.4319117069244385e+00" cType="1" res="1.0192889720201492e-02" rms="4.6553289890289307e-01" purity="5.0299775600433350e-01" nType="0">
        <Node pos="l" depth="1" NCoef="0" IVar="0" Cut="8.6163803100585938e+01" cType="1" res="5.4182298481464386e-02" rms="4.6192282438278198e-01" purity="5.9713488817214966e-01" nType="0">
          <Node pos="l" depth="2" NCoef="0" IVar="-1" Cut="0.0000000000000000e+00" cType="1" res="-3.2609302434138954e-04" rms="4.6704271435737610e-01" purity="5.0943416357040405e-01" nType="-99"/>
          <Node pos="r" depth="2" NCoef="0" IVar="-1" Cut="0.0000000000000000e+00" cType="1" res="2.7009786572307348e-03" rms="4.4447511434555054e-01" purity="6.9497036933898926e-01" nType="-99"/>
        </Node>
        <Node pos="r" depth="1" NCoef="0" IVar="2" Cut="6.0380792617797852e-01" cType="1" res="-2.7758167125284672e-03" rms="4.6579965949058533e-01" purity="4.7524479031562805e-01" nType="0">
          <Node pos="l" depth="2" NCoef="0" IVar="-1" Cut="0.0000000000000000e+00" cType="1" res="-7.9324486432597041e-04" rms="4.6475899219512939e-01" purity="4.1871336102485657e-01" nType="-99"/>
          <Node pos="r" depth="2" NCoef="0" IVar="-1" Cut="0.0000000000000000e+00" cType="1" res="6.0593237867578864e-04" rms="4.6554687619209290e-01" purity="5.3791993856430054e-01" nType="-99"/>
        </Node>
      </Node>
    </BinaryTree>
    <BinaryTree type="DecisionTree" boostWeight="1.0000000000000000e+00" itree="272">
      <Node pos="s" depth="0" NCoef="0" IVar="1" Cut="8.3287811279296875e-01" cType="1" res="6.0669505037367344e-03" rms="4.6556821465492249e-01" purity="4.9809005856513977e-01" nType="0">
        <Node pos="l" depth="1" NCoef="0" IVar="7" Cut="1.0706400126218796e-01" cType="1" res="-1.2370778247714043e-02" rms="4.7071513533592224e-01" purity="3.7855070829391479e-01" nType="0">
          <Node pos="l" depth="2" NCoef="0" IVar="-1" Cut="0.0000000000000000e+00" cType="1" res="-7.0480432441399898e-06" rms="4.7666463255882263e-01" purity="3.9900559186935425e-01" nType="-99"/>
          <Node pos="r" depth="2" NCoef="0" IVar="-1" Cut="0.0000000000000000e+00" cType="1" res="-2.2120601497590542e-03" rms="4.4447654485702515e-01" purity="3.0110284686088562e-01" nType="-99"/>
        </Node>
        <Node pos="r" depth="1" NCoef="0" IVar="8" Cut="3.6688631772994995e-01" cType="1" res="3.3432178199291229e-02" rms="4.5645162463188171e-01" purity="6.7551004886627197e-01" nType="0">
          <Node pos="l" depth="2" NCoef="0" IVar="-1" Cut="0.0000000000000000e+00" cType="1" res="-7.6309399446472526e-04" rms="4.7598439455032349e-01" purity="5.9544539451599121e-01" nType="-99"/>
          <Node pos="r" depth="2" NCoef="0" IVar="-1" Cut="0.0000000000000000e+00" cType="1" res="1.0544833494350314e-03" rms="4.5014527440071106e-01" purity="6.9491308927536011e-01" nType="-99"/>
        </Node>
      </Node>
    </BinaryTree>
    <BinaryTree type="DecisionTree" boostWeight="1.0000000000000000e+00" itree="273">
      <Node pos="s" depth="0" NCoef="0" IVar="4" Cut="1.5473506164550781e+02" cType="1" res="5.1439837552607059e-03" rms="4.6479535102844238e-01" purity="4.9785357713699341e-01" nType="0">
        <Node pos="l" depth="1" NCoef="0" IVar="4" Cut="9.1318496704101562e+01" cType="1" res="-2.1746050566434860e-02" rms="4.6332049369812012e-01" purity="4.3910700082778931e-01" nType="0">
          <Node pos="l" depth="2" NCoef="0" IVar="-1" Cut="0.0000000000000000e+00" cType="1" res="-3.3604875206947327e-03" rms="4.4208595156669617e-01" purity="3.3102947473526001e-01" nType="-99"/>
          <Node pos="r" depth="2" NCoef="0" IVar="-1" Cut="0.0000000000000000e+00" cType="1" res="-9.1244446593918838e-06" rms="4.6719923615455627e-01" purity="4.7077667713165283e-01" nType="-99"/>
        </Node>
        <Node pos="r" depth="1" NCoef="0" IVar="8" Cut="3.8679730892181396e-01" cType="1" res="3.0216746032238007e-02" rms="4.6476683020591736e-01" purity="5.5262988805770874e-01" nType="0">
          <Node pos="l" depth="2" NCoef="0" IVar="-1" Cut="0.0000000000000000e+00" cType="1" res="1.7177670088130981e-04" rms="4.6822375059127808e-01" purity="5.1231354475021362e-01" nType="-99"/>
          <Node pos="r" depth="2" NCoef="0" IVar="-1" Cut="0.0000000000000000e+00" cType="1" res="1.4500183751806617e-03" rms="4.5826387405395508e-01" purity="6.0608196258544922e-01" nType="-99"/>
        </Node>
      </Node>
    </BinaryTree>
    <BinaryTree type="DecisionTree" boostWeight="1.0000000000000000e+00" itree="274">
      <Node pos="s" depth="0" NCoef="0" IVar="3" Cut="3.2689268589019775e+00" cType="1" res="8.8898632675409317e-03" rms="4.6585515141487122e-01" purity="5.0087255239486694e-01" nType="0">
        <Node pos="l" depth="1" NCoef="0" IVar="1" Cut="2.5767414569854736e+00" cType="1" res="1.7174834385514259e-02" rms="4.6784269809722900e-01" purity="5.1650875806808472e-01" nType="0">
          <Node pos="l" depth="2" NCoef="0" IVar="-1" Cut="0.0000000000000000e+00" cType="1" res="2.5104347150772810e-04" rms="4.7537484765052795e-01" purity="4.8298606276512146e-01" nType="-99"/>
          <Node pos="r" depth="2" NCoef="0" IVar="-1" Cut="0.0000000000000000e+00" cType="1" res="1.8396000377833843e-03" rms="3.8935035467147827e-01" purity="8.0890172719955444e-01" nType="-99"/>
        </Node>
        <Node pos="r" depth="1" NCoef="0" IVar="-1" Cut="0.0000000000000000e+00" cType="1" res="-3.6634544376283884e-03" rms="4.2485365271568298e-01" purity="2.9801091551780701e-01" nType="-99"/>
      </Node>
    </BinaryTree>
    <BinaryTree type="DecisionTree" boostWeight="1.0000000000000000e+00" itree="275">
      <Node pos="s" depth="0" NCoef="0" IVar="4" Cut="1.6980743408203125e+02" cType="1" res="8.0552417784929276e-03" rms="4.6579438447952271e-01" purity="4.9998271465301514e-01" nType="0">
        <Node pos="l" depth="1" NCoef="0" IVar="9" Cut="5.6286904960870743e-02" cType="1" res="-1.3966244645416737e-02" rms="4.6325346827507019e-01" purity="4.5117765665054321e-01" nType="0">
          <Node pos="l" depth="2" NCoef="0" IVar="-1" Cut="0.0000000000000000e+00" cType="1" res="-2.2375346161425114e-03" rms="4.5151141285896301e-01" purity="3.6559325456619263e-01" nType="-99"/>
          <Node pos="r" depth="2" NCoef="0" IVar="-1" Cut="0.0000000000000000e+00" cType="1" res="5.2025581680936739e-05" rms="4.6545150876045227e-01" purity="4.7625496983528137e-01" nType="-99"/>
        </Node>
        <Node pos="r" depth="1" NCoef="0" IVar="6" Cut="9.5629197359085083e-01" cType="1" res="3.6586057394742966e-02" rms="4.6752595901489258e-01" purity="5.6321406364440918e-01" nType="0">
          <Node pos="l" depth="2" NCoef="0" IVar="-1" Cut="0.0000000000000000e+00" cType="1" res="1.6040036280173808e-04" rms="4.7198712825775146e-01" purity="5.2482074499130249e-01" nType="-99"/>
          <Node pos="r" depth="2" NCoef="0" IVar="-1" Cut="0.0000000000000000e+00" cType="1" res="1.4848873252049088e-03" rms="4.6223929524421692e-01" purity="5.9534442424774170e-01" nType="-99"/>
        </Node>
      </Node>
    </BinaryTree>
    <BinaryTree type="DecisionTree" boostWeight="1.0000000000000000e+00" itree="276">
      <Node pos="s" depth="0" NCoef="0" IVar="1" Cut="2.5780637264251709e+00" cType="1" res="3.5826573148369789e-03" rms="4.6395125985145569e-01" purity="4.9763405323028564e-01" nType="0">
        <Node pos="l" depth="1" NCoef="0" IVar="2" Cut="7.8761374950408936e-01" cType="1" res="-6.3675995916128159e-03" rms="4.7095704078674316e-01" purity="4.6066746115684509e-01" nType="0">
          <Node pos="l" depth="2" NCoef="0" IVar="-1" Cut="0.0000000000000000e+00" cType="1" res="-4.3057237053290009e-04" rms="4.7126728296279907e-01" purity="4.4304037094116211e-01" nType="-99"/>
          <Node pos="r" depth="2" NCoef="0" IVar="-1" Cut="0.0000000000000000e+00" cType="1" res="1.3565807603299618e-03" rms="4.6384721994400024e-01" purity="5.8876198530197144e-01" nType="-99"/>
        </Node>
        <Node pos="r" depth="1" NCoef="0" IVar="-1" Cut="0.0000000000000000e+00" cType="1" res="1.8372104968875647e-03" rms="3.9092501997947693e-01" purity="8.0634135007858276e-01" nType="-99"/>
      </Node>
    </BinaryTree>
    <BinaryTree type="DecisionTree" boostWeight="1.0000000000000000e+00" itree="277">
      <Node pos="s" depth="0" NCoef="0" IVar="2" Cut="6.5248733758926392e-01" cType="1" res="4.3908711522817612e-03" rms="4.6470648050308228e-01" purity="4.9653157591819763e-01" nType="0">
        <Node pos="l" depth="1" NCoef="0" IVar="4" Cut="9.3860023498535156e+01" cType="1" res="-1.4375377446413040e-02" rms="4.6696195006370544e-01" purity="4.4982430338859558e-01" nType="0">
          <Node pos="l" depth="2" NCoef="0" IVar="-1" Cut="0.0000000000000000e+00" cType="1" res="-2.5749444030225277e-03" rms="4.4836798310279846e-01" purity="3.3000317215919495e-01" nType="-99"/>
          <Node pos="r" depth="2" NCoef="0" IVar="-1" Cut="0.0000000000000000e+00" cType="1" res="-1.1944178550038487e-04" rms="4.6934518218040466e-01" purity="4.7042003273963928e-01" nType="-99"/>
        </Node>
        <Node pos="r" depth="1" NCoef="0" IVar="1" Cut="-7.3240256309509277e-01" cType="1" res="3.6107953637838364e-02" rms="4.5912900567054749e-01" purity="5.7547217607498169e-01" nType="0">
          <Node pos="l" depth="2" NCoef="0" IVar="-1" Cut="0.0000000000000000e+00" cType="1" res="-1.0108895367011428e-03" rms="4.6919640898704529e-01" purity="3.3912426233291626e-01" nType="-99"/>
          <Node pos="r" depth="2" NCoef="0" IVar="-1" Cut="0.0000000000000000e+00" cType="1" res="1.3775849947705865e-03" rms="4.5214927196502686e-01" purity="6.7413783073425293e-01" nType="-99"/>
        </Node>
      </Node>
    </BinaryTree>
    <BinaryTree type="DecisionTree" boostWeight="1.0000000000000000e+00" itree="278">
      <Node pos="s" depth="0" NCoef="0" IVar="1" Cut="2.6521794795989990e+00" cType="1" res="1.2331731617450714e-02" rms="4.6647107601165771e-01" purity="5.0422000885009766e-01" nType="0">
        <Node pos="l" depth="1" NCoef="0" IVar="1" Cut="-1.3323438167572021e+00" cType="1" res="4.1473284363746643e-03" rms="4.7330054640769958e-01" purity="4.7157463431358337e-01" nType="0">
          <Node pos="l" depth="2" NCoef="0" IVar="-1" Cut="0.0000000000000000e+00" cType="1" res="-1.8843589350581169e-03" rms="4.3358573317527771e-01" purity="2.6550829410552979e-01" nType="-99"/>
          <Node pos="r" depth="2" NCoef="0" IVar="-1" Cut="0.0000000000000000e+00" cType="1" res="3.5663018934428692e-04" rms="4.8121523857116699e-01" purity="5.1792377233505249e-01" nType="-99"/>
        </Node>
        <Node pos="r" depth="1" NCoef="0" IVar="-1" Cut="0.0000000000000000e+00" cType="1" res="1.8843652214854956e-03" rms="3.8870251178741455e-01" purity="8.0951315164566040e-01" nType="-99"/>
      </Node>
    </BinaryTree>
    <BinaryTree type="DecisionTree" boostWeight="1.0000000000000000e+00" itree="279">
      <Node pos="s" depth="0" NCoef="0" IVar="1" Cut="-1.3799510002136230e+00" cType="1" res="9.7759049385786057e-03" rms="4.6437636017799377e-01" purity="5.0186884403228760e-01" nType="0">
        <Node pos="l" depth="1" NCoef="0" IVar="9" Cut="6.7764334380626678e-02" cType="1" res="-4.8937909305095673e-02" rms="4.2840328812599182e-01" purity="2.5708729028701782e-01" nType="0">
          <Node pos="l" depth="2" NCoef="0" IVar="-1" Cut="0.0000000000000000e+00" cType="1" res="-4.4308430515229702e-03" rms="3.9865314960479736e-01" purity="2.0707583427429199e-01" nType="-99"/>
          <Node pos="r" depth="2" NCoef="0" IVar="-1" Cut="0.0000000000000000e+00" cType="1" res="-1.1931550689041615e-03" rms="4.4507542252540588e-01" purity="2.8902953863143921e-01" nType="-99"/>
        </Node>
        <Node pos="r" depth="1" NCoef="0" IVar="6" Cut="9.2191290855407715e-01" cType="1" res="2.1051237359642982e-02" rms="4.7013166546821594e-01" purity="5.4887640476226807e-01" nType="0">
          <Node pos="l" depth="2" NCoef="0" IVar="-1" Cut="0.0000000000000000e+00" cType="1" res="-1.3079138007014990e-03" rms="4.7387588024139404e-01" purity="4.6082875132560730e-01" nType="-99"/>
          <Node pos="r" depth="2" NCoef="0" IVar="-1" Cut="0.0000000000000000e+00" cType="1" res="7.7641947427764535e-04" rms="4.6867051720619202e-01" purity="5.6221860647201538e-01" nType="-99"/>
        </Node>
      </Node>
    </BinaryTree>
    <BinaryTree type="DecisionTree" boostWeight="1.0000000000000000e+00" itree="280">
      <Node pos="s" depth="0" NCoef="0" IVar="1" Cut="2.0669796466827393e+00" cType="1" res="1.1516285128891468e-02" rms="4.6293762326240540e-01" purity="5.0584381818771362e-01" nType="0">
        <Node pos="l" depth="1" NCoef="0" IVar="3" Cut="2.7231791019439697e+00" cType="1" res="-3.0716630863025784e-04" rms="4.7217658162117004e-01" purity="4.4852977991104126e-01" nType="0">
          <Node pos="l" depth="2" NCoef="0" IVar="-1" Cut="0.0000000000000000e+00" cType="1" res="3.8106978172436357e-04" rms="4.7757956385612488e-01" purity="4.8500084877014160e-01" nType="-99"/>
          <Node pos="r" depth="2" NCoef="0" IVar="-1" Cut="0.0000000000000000e+00" cType="1" res="-1.1202299501746893e-03" rms="4.5780611038208008e-01" purity="3.6490231752395630e-01" nType="-99"/>
        </Node>
        <Node pos="r" depth="1" NCoef="0" IVar="9" Cut="7.6442882418632507e-02" cType="1" res="6.6813290119171143e-02" rms="4.1254556179046631e-01" purity="7.7389544248580933e-01" nType="0">
          <Node pos="l" depth="2" NCoef="0" IVar="-1" Cut="0.0000000000000000e+00" cType="1" res="9.0088968863710761e-04" rms="4.3633601069450378e-01" purity="7.3382234573364258e-01" nType="-99"/>
          <Node pos="r" depth="2" NCoef="0" IVar="-1" Cut="0.0000000000000000e+00" cType="1" res="1.9154514884576201e-03" rms="3.8669428229331970e-01" purity="8.1261670589447021e-01" nType="-99"/>
        </Node>
      </Node>
    </BinaryTree>
    <BinaryTree type="DecisionTree" boostWeight="1.0000000000000000e+00" itree="281">
      <Node pos="s" depth="0" NCoef="0" IVar="0" Cut="1.6905879211425781e+02" cType="1" res="2.5472731795161963e-03" rms="4.6416160464286804e-01" purity="4.9514138698577881e-01" nType="0">
        <Node pos="l" depth="1" NCoef="0" IVar="0" Cut="7.9204284667968750e+01" cType="1" res="2.1585332229733467e-02" rms="4.6485722064971924e-01" purity="5.2663689851760864e-01" nType="0">
          <Node pos="l" depth="2" NCoef="0" IVar="-1" Cut="0.0000000000000000e+00" cType="1" res="-9.3639909755438566e-04" rms="4.7176414728164673e-01" purity="4.7445350885391235e-01" nType="-99"/>
          <Node pos="r" depth="2" NCoef="0" IVar="-1" Cut="0.0000000000000000e+00" cType="1" res="9.1987318592146039e-04" rms="4.6189597249031067e-01" purity="5.4037421941757202e-01" nType="-99"/>
        </Node>
        <Node pos="r" depth="1" NCoef="0" IVar="7" Cut="1.0380261391401291e-01" cType="1" res="-2.9019188135862350e-02" rms="4.6127772331237793e-01" purity="4.4291952252388000e-01" nType="0">
          <Node pos="l" depth="2" NCoef="0" IVar="-1" Cut="0.0000000000000000e+00" cType="1" res="-1.9259680993855000e-04" rms="4.6481639146804810e-01" purity="4.7601488232612610e-01" nType="-99"/>
          <Node pos="r" depth="2" NCoef="0" IVar="-1" Cut="0.0000000000000000e+00" cType="1" res="-3.4687337465584278e-03" rms="4.4261112809181213e-01" purity="3.3815020322799683e-01" nType="-99"/>
        </Node>
      </Node>
    </BinaryTree>
    <BinaryTree type="DecisionTree" boostWeight="1.0000000000000000e+00" itree="282">
      <Node pos="s" depth="0" NCoef="0" IVar="4" Cut="8.6269775390625000e+01" cType="1" res="2.9862364754080772e-03" rms="4.6243765950202942e-01" purity="4.9775624275207520e-01" nType="0">
        <Node pos="l" depth="1" NCoef="0" IVar="-1" Cut="0.0000000000000000e+00" cType="1" res="-3.2188289333134890e-03" rms="4.3390205502510071e-01" purity="3.3464193344116211e-01" nType="-99"/>
        <Node pos="r" depth="1" NCoef="0" IVar="6" Cut="9.5912206172943115e-01" cType="1" res="1.2212148867547512e-02" rms="4.6405354142189026e-01" purity="5.1347810029983521e-01" nType="0">
          <Node pos="l" depth="2" NCoef="0" IVar="-1" Cut="0.0000000000000000e+00" cType="1" res="-4.6754241338931024e-04" rms="4.6794062852859497e-01" purity="4.7534176707267761e-01" nType="-99"/>
          <Node pos="r" depth="2" NCoef="0" IVar="-1" Cut="0.0000000000000000e+00" cType="1" res="1.0055891470983624e-03" rms="4.5874804258346558e-01" purity="5.4884010553359985e-01" nType="-99"/>
        </Node>
      </Node>
    </BinaryTree>
    <BinaryTree type="DecisionTree" boostWeight="1.0000000000000000e+00" itree="283">
      <Node pos="s" depth="0" NCoef="0" IVar="3" Cut="1.4317077398300171e+00" cType="1" res="9.3163698911666870e-03" rms="4.6501758694648743e-01" purity="5.0054937601089478e-01" nType="0">
        <Node pos="l" depth="1" NCoef="0" IVar="0" Cut="9.9494857788085938e+01" cType="1" res="5.8373313397169113e-02" rms="4.5984718203544617e-01" purity="6.0150933265686035e-01" nType="0">
          <Node pos="l" depth="2" NCoef="0" IVar="-1" Cut="0.0000000000000000e+00" cType="1" res="3.3057638211175799e-04" rms="4.7186386585235596e-01" purity="5.3399723768234253e-01" nType="-99"/>
          <Node pos="r" depth="2" NCoef="0" IVar="-1" Cut="0.0000000000000000e+00" cType="1" res="2.9893517494201660e-03" rms="4.2248487472534180e-01" purity="7.3096817731857300e-01" nType="-99"/>
        </Node>
        <Node pos="r" depth="1" NCoef="0" IVar="1" Cut="-1.9525275230407715e+00" cType="1" res="-5.1241107285022736e-03" rms="4.6554487943649292e-01" purity="4.7083061933517456e-01" nType="0">
          <Node pos="l" depth="2" NCoef="0" IVar="-1" Cut="0.0000000000000000e+00" cType="1" res="-5.3498568013310432e-03" rms="3.8833379745483398e-01" purity="1.9419924914836884e-01" nType="-99"/>
          <Node pos="r" depth="2" NCoef="0" IVar="-1" Cut="0.0000000000000000e+00" cType="1" res="6.0120073612779379e-05" rms="4.7065266966819763e-01" purity="4.9384966492652893e-01" nType="-99"/>
        </Node>
      </Node>
    </BinaryTree>
    <BinaryTree type="DecisionTree" boostWeight="1.0000000000000000e+00" itree="284">
      <Node pos="s" depth="0" NCoef="0" IVar="4" Cut="1.5048149108886719e+02" cType="1" res="6.2358169816434383e-03" rms="4.6553608775138855e-01" purity="4.9859642982482910e-01" nType="0">
        <Node pos="l" depth="1" NCoef="0" IVar="0" Cut="1.9009135437011719e+02" cType="1" res="-1.8138920888304710e-02" rms="4.5995238423347473e-01" purity="4.3911984562873840e-01" nType="0">
          <Node pos="l" depth="2" NCoef="0" IVar="-1" Cut="0.0000000000000000e+00" cType="1" res="-9.6369345556013286e-05" rms="4.6384248137474060e-01" purity="4.6337679028511047e-01" nType="-99"/>
          <Node pos="r" depth="2" NCoef="0" IVar="-1" Cut="0.0000000000000000e+00" cType="1" res="-2.8532373253256083e-03" rms="4.3724629282951355e-01" purity="3.3496212959289551e-01" nType="-99"/>
        </Node>
        <Node pos="r" depth="1" NCoef="0" IVar="9" Cut="4.0955726057291031e-02" cType="1" res="2.7108065783977509e-02" rms="4.6925956010818481e-01" purity="5.4952657222747803e-01" nType="0">
          <Node pos="l" depth="2" NCoef="0" IVar="-1" Cut="0.0000000000000000e+00" cType="1" res="-1.0057272447738796e-04" rms="4.7531339526176453e-01" purity="4.9370372295379639e-01" nType="-99"/>
          <Node pos="r" depth="2" NCoef="0" IVar="-1" Cut="0.0000000000000000e+00" cType="1" res="1.0462752543389797e-03" rms="4.6536374092102051e-01" purity="5.7792836427688599e-01" nType="-99"/>
        </Node>
      </Node>
    </BinaryTree>
    <BinaryTree type="DecisionTree" boostWeight="1.0000000000000000e+00" itree="285">
      <Node pos="s" depth="0" NCoef="0" IVar="6" Cut="9.2820852994918823e-01" cType="1" res="9.8529206588864326e-03" rms="4.6595320105552673e-01" purity="5.0214165449142456e-01" nType="0">
        <Node pos="l" depth="1" NCoef="0" IVar="9" Cut="7.2524920105934143e-02" cType="1" res="-4.5192837715148926e-02" rms="4.6010392904281616e-01" purity="4.3416860699653625e-01" nType="0">
          <Node pos="l" depth="2" NCoef="0" IVar="-1" Cut="0.0000000000000000e+00" cType="1" res="-2.6027404237538576e-03" rms="4.5390138030052185e-01" purity="3.8339710235595703e-01" nType="-99"/>
          <Node pos="r" depth="2" NCoef="0" IVar="-1" Cut="0.0000000000000000e+00" cType="1" res="-2.3392778530251235e-04" rms="4.6297883987426758e-01" purity="4.8236224055290222e-01" nType="-99"/>
        </Node>
        <Node pos="r" depth="1" NCoef="0" IVar="0" Cut="1.9077395629882812e+02" cType="1" res="2.2594993934035301e-02" rms="4.6637162566184998e-01" purity="5.1787608861923218e-01" nType="0">
          <Node pos="l" depth="2" NCoef="0" IVar="-1" Cut="0.0000000000000000e+00" cType="1" res="9.4009825261309743e-04" rms="4.6561223268508911e-01" purity="5.4180312156677246e-01" nType="-99"/>
          <Node pos="r" depth="2" NCoef="0" IVar="-1" Cut="0.0000000000000000e+00" cType="1" res="-2.9228944913484156e-04" rms="4.6649599075317383e-01" purity="4.6194386482238770e-01" nType="-99"/>
        </Node>
      </Node>
    </BinaryTree>
    <BinaryTree type="DecisionTree" boostWeight="1.0000000000000000e+00" itree="286">
      <Node pos="s" depth="0" NCoef="0" IVar="6" Cut="9.4016975164413452e-01" cType="1" res="1.5515095554292202e-02" rms="4.6624344587326050e-01" purity="5.0847125053405762e-01" nType="0">
        <Node pos="l" depth="1" NCoef="0" IVar="4" Cut="1.1124486541748047e+02" cType="1" res="-2.8437238186597824e-02" rms="4.6551179885864258e-01" purity="4.4710406661033630e-01" nType="0">
          <Node pos="l" depth="2" NCoef="0" IVar="-1" Cut="0.0000000000000000e+00" cType="1" res="-3.0721770599484444e-03" rms="4.4741037487983704e-01" purity="3.2611054182052612e-01" nType="-99"/>
          <Node pos="r" depth="2" NCoef="0" IVar="-1" Cut="0.0000000000000000e+00" cType="1" res="-2.8458511224016547e-04" rms="4.6941715478897095e-01" purity="4.8385772109031677e-01" nType="-99"/>
        </Node>
        <Node pos="r" depth="1" NCoef="0" IVar="4" Cut="1.6652484130859375e+02" cType="1" res="3.3325430005788803e-02" rms="4.6535918116569519e-01" purity="5.3333836793899536e-01" nType="0">
          <Node pos="l" depth="2" NCoef="0" IVar="-1" Cut="0.0000000000000000e+00" cType="1" res="3.4079875331372023e-04" rms="4.6744632720947266e-01" purity="4.8055335879325867e-01" nType="-99"/>
          <Node pos="r" depth="2" NCoef="0" IVar="-1" Cut="0.0000000000000000e+00" cType="1" res="1.3684876030310988e-03" rms="4.6170151233673096e-01" purity="5.9484684467315674e-01" nType="-99"/>
        </Node>
      </Node>
    </BinaryTree>
    <BinaryTree type="DecisionTree" boostWeight="1.0000000000000000e+00" itree="287">
      <Node pos="s" depth="0" NCoef="0" IVar="6" Cut="9.5886623859405518e-01" cType="1" res="6.8255048245191574e-03" rms="4.6397876739501953e-01" purity="5.0175851583480835e-01" nType="0">
        <Node pos="l" depth="1" NCoef="0" IVar="4" Cut="1.3743684387207031e+02" cType="1" res="-1.8908018246293068e-02" rms="4.6346908807754517e-01" purity="4.6701031923294067e-01" nType="0">
          <Node pos="l" depth="2" NCoef="0" IVar="-1" Cut="0.0000000000000000e+00" cType="1" res="-1.7957316013053060e-03" rms="4.5336556434631348e-01" purity="3.8753402233123779e-01" nType="-99"/>
          <Node pos="r" depth="2" NCoef="0" IVar="-1" Cut="0.0000000000000000e+00" cType="1" res="1.2118578888475895e-04" rms="4.6792829036712646e-01" purity="5.1530379056930542e-01" nType="-99"/>
        </Node>
        <Node pos="r" depth="1" NCoef="0" IVar="1" Cut="-3.6609706282615662e-01" cType="1" res="2.9510274529457092e-02" rms="4.6324360370635986e-01" purity="5.3238993883132935e-01" nType="0">
          <Node pos="l" depth="2" NCoef="0" IVar="-1" Cut="0.0000000000000000e+00" cType="1" res="-1.6497311298735440e-04" rms="4.6407926082611084e-01" purity="3.3612892031669617e-01" nType="-99"/>
          <Node pos="r" depth="2" NCoef="0" IVar="-1" Cut="0.0000000000000000e+00" cType="1" res="1.0783661855384707e-03" rms="4.6182048320770264e-01" purity="6.3463079929351807e-01" nType="-99"/>
        </Node>
      </Node>
    </BinaryTree>
    <BinaryTree type="DecisionTree" boostWeight="1.0000000000000000e+00" itree="288">
      <Node pos="s" depth="0" NCoef="0" IVar="1" Cut="-9.5682871341705322e-01" cType="1" res="4.1643357835710049e-03" rms="4.6360042691230774e-01" purity="4.9907284975051880e-01" nType="0">
        <Node pos="l" depth="1" NCoef="0" IVar="7" Cut="8.7764486670494080e-04" cType="1" res="-3.9885260164737701e-02" rms="4.3909204006195068e-01" purity="2.7281507849693298e-01" nType="0">
          <Node pos="l" depth="2" NCoef="0" IVar="-1" Cut="0.0000000000000000e+00" cType="1" res="-2.5316808023490012e-04" rms="4.6899726986885071e-01" purity="3.3215984702110291e-01" nType="-99"/>
          <Node pos="r" depth="2" NCoef="0" IVar="-1" Cut="0.0000000000000000e+00" cType="1" res="-2.8061016928404570e-03" rms="4.2080387473106384e-01" purity="2.4049481749534607e-01" nType="-99"/>
        </Node>
        <Node pos="r" depth="1" NCoef="0" IVar="7" Cut="-3.6018699407577515e-02" cType="1" res="1.7345361411571503e-02" rms="4.6988409757614136e-01" purity="5.6677627563476562e-01" nType="0">
          <Node pos="l" depth="2" NCoef="0" IVar="-1" Cut="0.0000000000000000e+00" cType="1" res="1.8197591416537762e-03" rms="4.5267948508262634e-01" purity="6.7212766408920288e-01" nType="-99"/>
          <Node pos="r" depth="2" NCoef="0" IVar="-1" Cut="0.0000000000000000e+00" cType="1" res="2.0116571977268904e-04" rms="4.7143214941024780e-01" purity="5.5245101451873779e-01" nType="-99"/>
        </Node>
      </Node>
    </BinaryTree>
    <BinaryTree type="DecisionTree" boostWeight="1.0000000000000000e+00" itree="289">
      <Node pos="s" depth="0" NCoef="0" IVar="8" Cut="4.0439662337303162e-01" cType="1" res="6.9017130881547928e-03" rms="4.6400040388107300e-01" purity="4.9987402558326721e-01" nType="0">
        <Node pos="l" depth="1" NCoef="0" IVar="1" Cut="2.0489010810852051e+00" cType="1" res="-4.9495892599225044e-03" rms="4.6358183026313782e-01" purity="4.7937655448913574e-01" nType="0">
          <Node pos="l" depth="2" NCoef="0" IVar="-1" Cut="0.0000000000000000e+00" cType="1" res="-4.7656596871092916e-04" rms="4.7026830911636353e-01" purity="4.2523190379142761e-01" nType="-99"/>
          <Node pos="r" depth="2" NCoef="0" IVar="-1" Cut="0.0000000000000000e+00" cType="1" res="1.1305058142170310e-03" rms="4.2268407344818115e-01" purity="7.5836551189422607e-01" nType="-99"/>
        </Node>
        <Node pos="r" depth="1" NCoef="0" IVar="6" Cut="9.6914196014404297e-01" cType="1" res="6.1663903295993805e-02" rms="4.6199837327003479e-01" purity="5.9458810091018677e-01" nType="0">
          <Node pos="l" depth="2" NCoef="0" IVar="-1" Cut="0.0000000000000000e+00" cType="1" res="8.0686865840107203e-04" rms="4.6597200632095337e-01" purity="5.5987495183944702e-01" nType="-99"/>
          <Node pos="r" depth="2" NCoef="0" IVar="-1" Cut="0.0000000000000000e+00" cType="1" res="2.2076703608036041e-03" rms="4.5509678125381470e-01" purity="6.3461917638778687e-01" nType="-99"/>
        </Node>
      </Node>
    </BinaryTree>
    <BinaryTree type="DecisionTree" boostWeight="1.0000000000000000e+00" itree="290">
      <Node pos="s" depth="0" NCoef="0" IVar="6" Cut="9.8069977760314941e-01" cType="1" res="3.8091572932898998e-03" rms="4.6479234099388123e-01" purity="4.9539449810981750e-01" nType="0">
        <Node pos="l" depth="1" NCoef="0" IVar="4" Cut="2.2308285522460938e+02" cType="1" res="-1.0108027607202530e-02" rms="4.6417707204818726e-01" purity="4.7819212079048157e-01" nType="0">
          <Node pos="l" depth="2" NCoef="0" IVar="-1" Cut="0.0000000000000000e+00" cType="1" res="-7.2396604809910059e-04" rms="4.6262925863265991e-01" purity="4.4729766249656677e-01" nType="-99"/>
          <Node pos="r" depth="2" NCoef="0" IVar="-1" Cut="0.0000000000000000e+00" cType="1" res="7.8200281132012606e-04" rms="4.6588435769081116e-01" purity="5.6329619884490967e-01" nType="-99"/>
        </Node>
        <Node pos="r" depth="1" NCoef="0" IVar="2" Cut="6.8743515014648438e-01" cType="1" res="3.7894744426012039e-02" rms="4.6453803777694702e-01" purity="5.3752619028091431e-01" nType="0">
          <Node pos="l" depth="2" NCoef="0" IVar="-1" Cut="0.0000000000000000e+00" cType="1" res="4.7904881648719311e-04" rms="4.6836638450622559e-01" purity="4.9462714791297913e-01" nType="-99"/>
          <Node pos="r" depth="2" NCoef="0" IVar="-1" Cut="0.0000000000000000e+00" cType="1" res="1.9129528664052486e-03" rms="4.5290622115135193e-01" purity="6.3144558668136597e-01" nType="-99"/>
        </Node>
      </Node>
    </BinaryTree>
    <BinaryTree type="DecisionTree" boostWeight="1.0000000000000000e+00" itree="291">
      <Node pos="s" depth="0" NCoef="0" IVar="5" Cut="-6.3379541039466858e-02" cType="1" res="4.6869860962033272e-03" rms="4.6508908271789551e-01" purity="4.9568790197372437e-01" nType="0">
        <Node pos="l" depth="1" NCoef="0" IVar="-1" Cut="0.0000000000000000e+00" cType="1" res="-2.5049857795238495e-03" rms="4.4424399733543396e-01" purity="3.8754951953887939e-01" nType="-99"/>
        <Node pos="r" depth="1" NCoef="0" IVar="1" Cut="-1.4223376512527466e+00" cType="1" res="1.3358563184738159e-02" rms="4.6633842587471008e-01" purity="5.0689500570297241e-01" nType="0">
          <Node pos="l" depth="2" NCoef="0" IVar="-1" Cut="0.0000000000000000e+00" cType="1" res="-2.3121871054172516e-03" rms="4.2894712090492249e-01" purity="2.5475776195526123e-01" nType="-99"/>
          <Node pos="r" depth="2" NCoef="0" IVar="-1" Cut="0.0000000000000000e+00" cType="1" res="5.9848016826435924e-04" rms="4.7175672650337219e-01" purity="5.5119061470031738e-01" nType="-99"/>
        </Node>
      </Node>
    </BinaryTree>
    <BinaryTree type="DecisionTree" boostWeight="1.0000000000000000e+00" itree="292">
      <Node pos="s" depth="0" NCoef="0" IVar="8" Cut="4.1353061795234680e-01" cType="1" res="1.6339642927050591e-02" rms="4.6534246206283569e-01" purity="5.1000720262527466e-01" nType="0">
        <Node pos="l" depth="1" NCoef="0" IVar="4" Cut="1.3477839660644531e+02" cType="1" res="1.0090936906635761e-02" rms="4.6624127030372620e-01" purity="4.9873429536819458e-01" nType="0">
          <Node pos="l" depth="2" NCoef="0" IVar="-1" Cut="0.0000000000000000e+00" cType="1" res="-5.0543807446956635e-04" rms="4.6320539712905884e-01" purity="4.2397922277450562e-01" nType="-99"/>
          <Node pos="r" depth="2" NCoef="0" IVar="-1" Cut="0.0000000000000000e+00" cType="1" res="6.6295103169977665e-04" rms="4.6729999780654907e-01" purity="5.4306346178054810e-01" nType="-99"/>
        </Node>
        <Node pos="r" depth="1" NCoef="0" IVar="-1" Cut="0.0000000000000000e+00" cType="1" res="2.3017523344606161e-03" rms="4.4379028677940369e-01" purity="6.6594344377517700e-01" nType="-99"/>
      </Node>
    </BinaryTree>
    <BinaryTree type="DecisionTree" boostWeight="1.0000000000000000e+00" itree="293">
      <Node pos="s" depth="0" NCoef="0" IVar="6" Cut="9.4645273685455322e-01" cType="1" res="8.6899315938353539e-03" rms="4.6404001116752625e-01" purity="5.0078910589218140e-01" nType="0">
        <Node pos="l" depth="1" NCoef="0" IVar="2" Cut="5.7137423753738403e-01" cType="1" res="-2.4017047137022018e-02" rms="4.6656316518783569e-01" purity="4.5214086771011353e-01" nType="0">
          <Node pos="l" depth="2" NCoef="0" IVar="-1" Cut="0.0000000000000000e+00" cType="1" res="-1.6869365936145186e-03" rms="4.5931944251060486e-01" purity="3.8602593541145325e-01" nType="-99"/>
          <Node pos="r" depth="2" NCoef="0" IVar="-1" Cut="0.0000000000000000e+00" cType="1" res="5.9170048189116642e-05" rms="4.7104996442794800e-01" purity="5.0837361812591553e-01" nType="-99"/>
        </Node>
        <Node pos="r" depth="1" NCoef="0" IVar="1" Cut="-5.9386020898818970e-01" cType="1" res="2.6603698730468750e-02" rms="4.6167117357254028e-01" purity="5.2743393182754517e-01" nType="0">
          <Node pos="l" depth="2" NCoef="0" IVar="-1" Cut="0.0000000000000000e+00" cType="1" res="-5.6629191385582089e-04" rms="4.5403981208801270e-01" purity="3.1581440567970276e-01" nType="-99"/>
          <Node pos="r" depth="2" NCoef="0" IVar="-1" Cut="0.0000000000000000e+00" cType="1" res="1.0180677054449916e-03" rms="4.6381285786628723e-01" purity="6.1889243125915527e-01" nType="-99"/>
        </Node>
      </Node>
    </BinaryTree>
    <BinaryTree type="DecisionTree" boostWeight="1.0000000000000000e+00" itree="294">
      <Node pos="s" depth="0" NCoef="0" IVar="9" Cut="1.3011290132999420e-01" cType="1" res="1.1325911618769169e-02" rms="4.6430253982543945e-01" purity="5.0487923622131348e-01" nType="0">
        <Node pos="l" depth="1" NCoef="0" IVar="4" Cut="1.4842803955078125e+02" cType="1" res="-2.0303309429436922e-03" rms="4.6465823054313660e-01" purity="4.8286142945289612e-01" nType="0">
          <Node pos="l" depth="2" NCoef="0" IVar="-1" Cut="0.0000000000000000e+00" cType="1" res="-1.1448803124949336e-03" rms="4.5556613802909851e-01" purity="3.9966699481010437e-01" nType="-99"/>
          <Node pos="r" depth="2" NCoef="0" IVar="-1" Cut="0.0000000000000000e+00" cType="1" res="4.9401185242459178e-04" rms="4.6890503168106079e-01" purity="5.3405702114105225e-01" nType="-99"/>
        </Node>
        <Node pos="r" depth="1" NCoef="0" IVar="6" Cut="9.5703285932540894e-01" cType="1" res="5.1179215312004089e-02" rms="4.6094501018524170e-01" purity="5.7057738304138184e-01" nType="0">
          <Node pos="l" depth="2" NCoef="0" IVar="-1" Cut="0.0000000000000000e+00" cType="1" res="4.8493710346519947e-04" rms="4.6599674224853516e-01" purity="5.2835512161254883e-01" nType="-99"/>
          <Node pos="r" depth="2" NCoef="0" IVar="-1" Cut="0.0000000000000000e+00" cType="1" res="1.8412251956760883e-03" rms="4.5559644699096680e-01" purity="6.0239982604980469e-01" nType="-99"/>
        </Node>
      </Node>
    </BinaryTree>
    <BinaryTree type="DecisionTree" boostWeight="1.0000000000000000e+00" itree="295">
      <Node pos="s" depth="0" NCoef="0" IVar="6" Cut="9.7795915603637695e-01" cType="1" res="3.0422278214246035e-03" rms="4.6690055727958679e-01" purity="4.9261644482612610e-01" nType="0">
        <Node pos="l" depth="1" NCoef="0" IVar="5" Cut="-4.5391459017992020e-02" cType="1" res="-1.2265628203749657e-02" rms="4.6745914220809937e-01" purity="4.7171166539192200e-01" nType="0">
          <Node pos="l" depth="2" NCoef="0" IVar="-1" Cut="0.0000000000000000e+00" cType="1" res="-1.5028970083221793e-03" rms="4.6432664990425110e-01" purity="4.2177522182464600e-01" nType="-99"/>
          <Node pos="r" depth="2" NCoef="0" IVar="-1" Cut="0.0000000000000000e+00" cType="1" res="-7.4425595812499523e-05" rms="4.6778053045272827e-01" purity="4.8454555869102478e-01" nType="-99"/>
        </Node>
        <Node pos="r" depth="1" NCoef="0" IVar="8" Cut="3.7233987450599670e-01" cType="1" res="3.5123176872730255e-02" rms="4.6409276127815247e-01" purity="5.3642708063125610e-01" nType="0">
          <Node pos="l" depth="2" NCoef="0" IVar="-1" Cut="0.0000000000000000e+00" cType="1" res="-4.2462744750082493e-04" rms="4.6423020958900452e-01" purity="4.7090643644332886e-01" nType="-99"/>
          <Node pos="r" depth="2" NCoef="0" IVar="-1" Cut="0.0000000000000000e+00" cType="1" res="1.2945920461788774e-03" rms="4.6290668845176697e-01" purity="5.5731403827667236e-01" nType="-99"/>
        </Node>
      </Node>
    </BinaryTree>
    <BinaryTree type="DecisionTree" boostWeight="1.0000000000000000e+00" itree="296">
      <Node pos="s" depth="0" NCoef="0" IVar="1" Cut="-1.3136613368988037e+00" cType="1" res="4.8005627468228340e-03" rms="4.6312823891639709e-01" purity="4.9871885776519775e-01" nType="0">
        <Node pos="l" depth="1" NCoef="0" IVar="1" Cut="-2.0701198577880859e+00" cType="1" res="-6.0518328100442886e-02" rms="4.2155480384826660e-01" purity="2.4090825021266937e-01" nType="0">
          <Node pos="l" depth="2" NCoef="0" IVar="-1" Cut="0.0000000000000000e+00" cType="1" res="-5.4007633589208126e-03" rms="3.9214256405830383e-01" purity="2.0092739164829254e-01" nType="-99"/>
          <Node pos="r" depth="2" NCoef="0" IVar="-1" Cut="0.0000000000000000e+00" cType="1" res="-1.8164721550419927e-03" rms="4.3716973066329956e-01" purity="2.6525932550430298e-01" nType="-99"/>
        </Node>
        <Node pos="r" depth="1" NCoef="0" IVar="2" Cut="7.0309215784072876e-01" cType="1" res="1.7424941062927246e-02" rms="4.6969375014305115e-01" purity="5.4854667186737061e-01" nType="0">
          <Node pos="l" depth="2" NCoef="0" IVar="-1" Cut="0.0000000000000000e+00" cType="1" res="9.8040902230422944e-05" rms="4.7451069951057434e-01" purity="5.1209592819213867e-01" nType="-99"/>
          <Node pos="r" depth="2" NCoef="0" IVar="-1" Cut="0.0000000000000000e+00" cType="1" res="1.3047923566773534e-03" rms="4.5302408933639526e-01" purity="6.5486687421798706e-01" nType="-99"/>
        </Node>
      </Node>
    </BinaryTree>
    <BinaryTree type="DecisionTree" boostWeight="1.0000000000000000e+00" itree="297">
      <Node pos="s" depth="0" NCoef="0" IVar="1" Cut="2.0222725868225098e+00" cType="1" res="8.5770385339856148e-03" rms="4.6442490816116333e-01" purity="5.0119149684906006e-01" nType="0">
        <Node pos="l" depth="1" NCoef="0" IVar="0" Cut="9.5221405029296875e+01" cType="1" res="-1.6683684661984444e-03" rms="4.7314295172691345e-01" purity="4.4505608081817627e-01" nType="0">
          <Node pos="l" depth="2" NCoef="0" IVar="-1" Cut="0.0000000000000000e+00" cType="1" res="-1.2806400191038847e-03" rms="4.7198650240898132e-01" purity="4.2132556438446045e-01" nType="-99"/>
          <Node pos="r" depth="2" NCoef="0" IVar="-1" Cut="0.0000000000000000e+00" cType="1" res="2.6693020481616259e-04" rms="4.7281989455223083e-01" purity="4.5125964283943176e-01" nType="-99"/>
        </Node>
        <Node pos="r" depth="1" NCoef="0" IVar="9" Cut="7.0218890905380249e-02" cType="1" res="5.6795217096805573e-02" rms="4.1761606931686401e-01" purity="7.6538270711898804e-01" nType="0">
          <Node pos="l" depth="2" NCoef="0" IVar="-1" Cut="0.0000000000000000e+00" cType="1" res="8.0668722512200475e-04" rms="4.3811094760894775e-01" purity="7.2915816307067871e-01" nType="-99"/>
          <Node pos="r" depth="2" NCoef="0" IVar="-1" Cut="0.0000000000000000e+00" cType="1" res="1.5759316738694906e-03" rms="3.9847546815872192e-01" purity="7.9644411802291870e-01" nType="-99"/>
        </Node>
      </Node>
    </BinaryTree>
    <BinaryTree type="DecisionTree" boostWeight="1.0000000000000000e+00" itree="298">
      <Node pos="s" depth="0" NCoef="0" IVar="2" Cut="7.4171161651611328e-01" cType="1" res="6.6337683238089085e-03" rms="4.6503537893295288e-01" purity="4.9889004230499268e-01" nType="0">
        <Node pos="l" depth="1" NCoef="0" IVar="6" Cut="9.1834813356399536e-01" cType="1" res="-5.4786829277873039e-03" rms="4.6637392044067383e-01" purity="4.7171995043754578e-01" nType="0">
          <Node pos="l" depth="2" NCoef="0" IVar="-1" Cut="0.0000000000000000e+00" cType="1" res="-2.4764759000390768e-03" rms="4.5944529771804810e-01" purity="3.7331238389015198e-01" nType="-99"/>
          <Node pos="r" depth="2" NCoef="0" IVar="-1" Cut="0.0000000000000000e+00" cType="1" res="9.9647215392906219e-05" rms="4.6641734242439270e-01" purity="4.8386490345001221e-01" nType="-99"/>
        </Node>
        <Node pos="r" depth="1" NCoef="0" IVar="7" Cut="-1.5373488888144493e-02" cType="1" res="5.7238735258579254e-02" rms="4.5593348145484924e-01" purity="6.1240470409393311e-01" nType="0">
          <Node pos="l" depth="2" NCoef="0" IVar="-1" Cut="0.0000000000000000e+00" cType="1" res="2.1142512559890747e-03" rms="4.4998118281364441e-01" purity="6.4596056938171387e-01" nType="-99"/>
          <Node pos="r" depth="2" NCoef="0" IVar="-1" Cut="0.0000000000000000e+00" cType="1" res="7.4714439688250422e-04" rms="4.5851361751556396e-01" purity="5.8726406097412109e-01" nType="-99"/>
        </Node>
      </Node>
    </BinaryTree>
    <BinaryTree type="DecisionTree" boostWeight="1.0000000000000000e+00" itree="299">
      <Node pos="s" depth="0" NCoef="0" IVar="4" Cut="1.5430413818359375e+02" cType="1" res="2.2789747454226017e-03" rms="4.6425488591194153e-01" purity="4.9537959694862366e-01" nType="0">
        <Node pos="l" depth="1" NCoef="0" IVar="0" Cut="1.8590185546875000e+02" cType="1" res="-2.6147061958909035e-02" rms="4.6067431569099426e-01" purity="4.3452242016792297e-01" nType="0">
          <Node pos="l" depth="2" NCoef="0" IVar="-1" Cut="0.0000000000000000e+00" cType="1" res="-2.5169330183416605e-04" rms="4.6556609869003296e-01" purity="4.6370026469230652e-01" nType="-99"/>
          <Node pos="r" depth="2" NCoef="0" IVar="-1" Cut="0.0000000000000000e+00" cType="1" res="-3.3355471678078175e-03" rms="4.3546006083488464e-01" purity="3.2386678457260132e-01" nType="-99"/>
        </Node>
        <Node pos="r" depth="1" NCoef="0" IVar="0" Cut="1.9542655944824219e+02" cType="1" res="2.8520785272121429e-02" rms="4.6599927544593811e-01" purity="5.5156058073043823e-01" nType="0">
          <Node pos="l" depth="2" NCoef="0" IVar="-1" Cut="0.0000000000000000e+00" cType="1" res="1.1512130731716752e-03" rms="4.6353310346603394e-01" purity="5.8967965841293335e-01" nType="-99"/>
          <Node pos="r" depth="2" NCoef="0" IVar="-1" Cut="0.0000000000000000e+00" cType="1" res="-5.9459136537043378e-05" rms="4.6810963749885559e-01" purity="4.9292311072349548e-01" nType="-99"/>
        </Node>
      </Node>
    </BinaryTree>
    <BinaryTree type="DecisionTree" boostWeight="1.0000000000000000e+00" itree="300">
      <Node pos="s" depth="0" NCoef="0" IVar="3" Cut="1.5191284418106079e+00" cType="1" res="-3.6701641511172056e-03" rms="4.6558853983879089e-01" purity="4.8849248886108398e-01" nType="0">
        <Node pos="l" depth="1" NCoef="0" IVar="0" Cut="8.8264686584472656e+01" cType="1" res="3.6367632448673248e-02" rms="4.6412125229835510e-01" purity="5.7791435718536377e-01" nType="0">
          <Node pos="l" depth="2" NCoef="0" IVar="-1" Cut="0.0000000000000000e+00" cType="1" res="-4.1864824015647173e-04" rms="4.6781253814697266e-01" purity="5.0335210561752319e-01" nType="-99"/>
          <Node pos="r" depth="2" NCoef="0" IVar="-1" Cut="0.0000000000000000e+00" cType="1" res="2.1254976745694876e-03" rms="4.5291543006896973e-01" purity="6.6118168830871582e-01" nType="-99"/>
        </Node>
        <Node pos="r" depth="1" NCoef="0" IVar="9" Cut="1.2120502442121506e-01" cType="1" res="-1.7424974590539932e-02" rms="4.6529713273048401e-01" purity="4.5777198672294617e-01" nType="0">
          <Node pos="l" depth="2" NCoef="0" IVar="-1" Cut="0.0000000000000000e+00" cType="1" res="-9.9112722091376781e-04" rms="4.6358743309974670e-01" purity="4.3129271268844604e-01" nType="-99"/>
          <Node pos="r" depth="2" NCoef="0" IVar="-1" Cut="0.0000000000000000e+00" cType="1" res="5.7339534396305680e-04" rms="4.6718853712081909e-01" purity="5.2283632755279541e-01" nType="-99"/>
        </Node>
      </Node>
    </BinaryTree>
    <BinaryTree type="DecisionTree" boostWeight="1.0000000000000000e+00" itree="301">
      <Node pos="s" depth="0" NCoef="0" IVar="5" Cut="-7.0313230156898499e-02" cType="1" res="1.0106535628437996e-02" rms="4.6459397673606873e-01" purity="5.0277888774871826e-01" nType="0">
        <Node pos="l" depth="1" NCoef="0" IVar="-1" Cut="0.0000000000000000e+00" cType="1" res="-2.7546463534235954e-03" rms="4.5128238201141357e-01" purity="3.7527045607566833e-01" nType="-99"/>
        <Node pos="r" depth="1" NCoef="0" IVar="6" Cut="9.4639194011688232e-01" cType="1" res="1.6651725396513939e-02" rms="4.6479180455207825e-01" purity="5.1161521673202515e-01" nType="0">
          <Node pos="l" depth="2" NCoef="0" IVar="-1" Cut="0.0000000000000000e+00" cType="1" res="-4.0214532054960728e-04" rms="4.6784996986389160e-01" purity="4.6419078111648560e-01" nType="-99"/>
          <Node pos="r" depth="2" NCoef="0" IVar="-1" Cut="0.0000000000000000e+00" cType="1" res="8.7128585437312722e-04" rms="4.6226760745048523e-01" purity="5.3713703155517578e-01" nType="-99"/>
        </Node>
      </Node>
    </BinaryTree>
    <BinaryTree type="DecisionTree" boostWeight="1.0000000000000000e+00" itree="302">
      <Node pos="s" depth="0" NCoef="0" IVar="5" Cut="-5.8273043483495712e-02" cType="1" res="6.0955947265028954e-03" rms="4.6319347620010376e-01" purity="5.0092405080795288e-01" nType="0">
        <Node pos="l" depth="1" NCoef="0" IVar="2" Cut="5.4704880714416504e-01" cType="1" res="-5.2788008004426956e-02" rms="4.5233687758445740e-01" purity="4.1987922787666321e-01" nType="0">
          <Node pos="l" depth="2" NCoef="0" IVar="-1" Cut="0.0000000000000000e+00" cType="1" res="-3.9650606922805309e-03" rms="4.4400796294212341e-01" purity="3.2069551944732666e-01" nType="-99"/>
          <Node pos="r" depth="2" NCoef="0" IVar="-1" Cut="0.0000000000000000e+00" cType="1" res="4.2812062019947916e-05" rms="4.5304077863693237e-01" purity="5.1052975654602051e-01" nType="-99"/>
        </Node>
        <Node pos="r" depth="1" NCoef="0" IVar="1" Cut="2.2118918895721436e+00" cType="1" res="1.4118319377303123e-02" rms="4.6407505869865417e-01" purity="5.1196622848510742e-01" nType="0">
          <Node pos="l" depth="2" NCoef="0" IVar="-1" Cut="0.0000000000000000e+00" cType="1" res="1.3246691378299147e-04" rms="4.7298461198806763e-01" purity="4.6322524547576904e-01" nType="-99"/>
          <Node pos="r" depth="2" NCoef="0" IVar="-1" Cut="0.0000000000000000e+00" cType="1" res="1.4258365845307708e-03" rms="4.0706276893615723e-01" purity="7.8330612182617188e-01" nType="-99"/>
        </Node>
      </Node>
    </BinaryTree>
    <BinaryTree type="DecisionTree" boostWeight="1.0000000000000000e+00" itree="303">
      <Node pos="s" depth="0" NCoef="0" IVar="8" Cut="3.9319476485252380e-01" cType="1" res="8.0130640417337418e-03" rms="4.6355935931205750e-01" purity="5.0075972080230713e-01" nType="0">
        <Node pos="l" depth="1" NCoef="0" IVar="1" Cut="2.1519939899444580e+00" cType="1" res="-1.0310104116797447e-02" rms="4.6108251810073853e-01" purity="4.7378927469253540e-01" nType="0">
          <Node pos="l" depth="2" NCoef="0" IVar="-1" Cut="0.0000000000000000e+00" cType="1" res="-6.4133323030546308e-04" rms="4.6721950173377991e-01" purity="4.2406502366065979e-01" nType="-99"/>
          <Node pos="r" depth="2" NCoef="0" IVar="-1" Cut="0.0000000000000000e+00" cType="1" res="1.1911666952073574e-03" rms="4.1707935929298401e-01" purity="7.6650518178939819e-01" nType="-99"/>
        </Node>
        <Node pos="r" depth="1" NCoef="0" IVar="6" Cut="9.4354021549224854e-01" cType="1" res="3.2380715012550354e-02" rms="4.6571740508079529e-01" purity="5.3662717342376709e-01" nType="0">
          <Node pos="l" depth="2" NCoef="0" IVar="-1" Cut="0.0000000000000000e+00" cType="1" res="-2.5571137666702271e-04" rms="4.6544477343559265e-01" purity="4.8194780945777893e-01" nType="-99"/>
          <Node pos="r" depth="2" NCoef="0" IVar="-1" Cut="0.0000000000000000e+00" cType="1" res="1.3212300837039948e-03" rms="4.6452310681343079e-01" purity="5.6248652935028076e-01" nType="-99"/>
        </Node>
      </Node>
    </BinaryTree>
    <BinaryTree type="DecisionTree" boostWeight="1.0000000000000000e+00" itree="304">
      <Node pos="s" depth="0" NCoef="0" IVar="4" Cut="1.1392558288574219e+02" cType="1" res="9.1362055391073227e-03" rms="4.6545749902725220e-01" purity="5.0245690345764160e-01" nType="0">
        <Node pos="l" depth="1" NCoef="0" IVar="4" Cut="7.7912475585937500e+01" cType="1" res="-2.9825620353221893e-02" rms="4.6238678693771362e-01" purity="4.0522193908691406e-01" nType="0">
          <Node pos="l" depth="2" NCoef="0" IVar="-1" Cut="0.0000000000000000e+00" cType="1" res="-3.2210487406700850e-03" rms="4.4820564985275269e-01" purity="3.2914310693740845e-01" nType="-99"/>
          <Node pos="r" depth="2" NCoef="0" IVar="-1" Cut="0.0000000000000000e+00" cType="1" res="-4.4538051588460803e-04" rms="4.6470472216606140e-01" purity="4.2452740669250488e-01" nType="-99"/>
        </Node>
        <Node pos="r" depth="1" NCoef="0" IVar="0" Cut="1.6868171691894531e+02" cType="1" res="2.2013951092958450e-02" rms="4.6575188636779785e-01" purity="5.3459519147872925e-01" nType="0">
          <Node pos="l" depth="2" NCoef="0" IVar="-1" Cut="0.0000000000000000e+00" cType="1" res="9.9617976229637861e-04" rms="4.6259561181068420e-01" purity="5.7372075319290161e-01" nType="-99"/>
          <Node pos="r" depth="2" NCoef="0" IVar="-1" Cut="0.0000000000000000e+00" cType="1" res="-3.7590489228023216e-05" rms="4.6851682662963867e-01" purity="4.8682850599288940e-01" nType="-99"/>
        </Node>
      </Node>
    </BinaryTree>
    <BinaryTree type="DecisionTree" boostWeight="1.0000000000000000e+00" itree="305">
      <Node pos="s" depth="0" NCoef="0" IVar="2" Cut="6.6487640142440796e-01" cType="1" res="1.3939183205366135e-02" rms="4.6319878101348877e-01" purity="5.0774228572845459e-01" nType="0">
        <Node pos="l" depth="1" NCoef="0" IVar="4" Cut="2.2012629699707031e+02" cType="1" res="-2.4089026264846325e-03" rms="4.6619120240211487e-01" purity="4.6448522806167603e-01" nType="0">
          <Node pos="l" depth="2" NCoef="0" IVar="-1" Cut="0.0000000000000000e+00" cType="1" res="-4.6491067041642964e-04" rms="4.6361944079399109e-01" purity="4.3547272682189941e-01" nType="-99"/>
          <Node pos="r" depth="2" NCoef="0" IVar="-1" Cut="0.0000000000000000e+00" cType="1" res="9.2408503405749798e-04" rms="4.7156068682670593e-01" purity="5.5205655097961426e-01" nType="-99"/>
        </Node>
        <Node pos="r" depth="1" NCoef="0" IVar="4" Cut="1.0851573944091797e+02" cType="1" res="4.5462232083082199e-02" rms="4.5572075247764587e-01" purity="5.9115225076675415e-01" nType="0">
          <Node pos="l" depth="2" NCoef="0" IVar="-1" Cut="0.0000000000000000e+00" cType="1" res="-4.6686141286045313e-04" rms="4.6670988202095032e-01" purity="4.7118499875068665e-01" nType="-99"/>
          <Node pos="r" depth="2" NCoef="0" IVar="-1" Cut="0.0000000000000000e+00" cType="1" res="1.3938690535724163e-03" rms="4.5235833525657654e-01" purity="6.1594820022583008e-01" nType="-99"/>
        </Node>
      </Node>
    </BinaryTree>
    <BinaryTree type="DecisionTree" boostWeight="1.0000000000000000e+00" itree="306">
      <Node pos="s" depth="0" NCoef="0" IVar="1" Cut="-1.5817542076110840e+00" cType="1" res="2.4991610553115606e-03" rms="4.6337273716926575e-01" purity="4.9708464741706848e-01" nType="0">
        <Node pos="l" depth="1" NCoef="0" IVar="6" Cut="9.5912998914718628e-01" cType="1" res="-5.6520089507102966e-02" rms="4.2182523012161255e-01" purity="2.4063071608543396e-01" nType="0">
          <Node pos="l" depth="2" NCoef="0" IVar="-1" Cut="0.0000000000000000e+00" cType="1" res="-3.8412327412515879e-03" rms="4.1048195958137512e-01" purity="2.1654549241065979e-01" nType="-99"/>
          <Node pos="r" depth="2" NCoef="0" IVar="-1" Cut="0.0000000000000000e+00" cType="1" res="-1.9831487443298101e-03" rms="4.3152755498886108e-01" purity="2.6275634765625000e-01" nType="-99"/>
        </Node>
        <Node pos="r" depth="1" NCoef="0" IVar="2" Cut="5.2163577079772949e-01" cType="1" res="1.1033379472792149e-02" rms="4.6846118569374084e-01" purity="5.3416812419891357e-01" nType="0">
          <Node pos="l" depth="2" NCoef="0" IVar="-1" Cut="0.0000000000000000e+00" cType="1" res="-6.4201891655102372e-04" rms="4.7183096408843994e-01" purity="4.5088502764701843e-01" nType="-99"/>
          <Node pos="r" depth="2" NCoef="0" IVar="-1" Cut="0.0000000000000000e+00" cType="1" res="6.8784126779064536e-04" rms="4.6579921245574951e-01" purity="5.7621031999588013e-01" nType="-99"/>
        </Node>
      </Node>
    </BinaryTree>
    <BinaryTree type="DecisionTree" boostWeight="1.0000000000000000e+00" itree="307">
      <Node pos="s" depth="0" NCoef="0" IVar="4" Cut="1.8555085754394531e+02" cType="1" res="7.3842252604663372e-03" rms="4.6314552426338196e-01" purity="5.0012874603271484e-01" nType="0">
        <Node pos="l" depth="1" NCoef="0" IVar="1" Cut="1.6909146308898926e+00" cType="1" res="-1.3588528148829937e-02" rms="4.6155989170074463e-01" purity="4.5332658290863037e-01" nType="0">
          <Node pos="l" depth="2" NCoef="0" IVar="-1" Cut="0.0000000000000000e+00" cType="1" res="-8.3611102309077978e-04" rms="4.6615752577781677e-01" purity="3.8592806458473206e-01" nType="-99"/>
          <Node pos="r" depth="2" NCoef="0" IVar="-1" Cut="0.0000000000000000e+00" cType="1" res="8.1690715160220861e-04" rms="4.3906411528587341e-01" purity="7.2237461805343628e-01" nType="-99"/>
        </Node>
        <Node pos="r" depth="1" NCoef="0" IVar="5" Cut="-3.4656330943107605e-02" cType="1" res="4.1206412017345428e-02" rms="4.6369716525077820e-01" purity="5.7560527324676514e-01" nType="0">
          <Node pos="l" depth="2" NCoef="0" IVar="-1" Cut="0.0000000000000000e+00" cType="1" res="-2.0023187971673906e-04" rms="4.6813496947288513e-01" purity="5.1284050941467285e-01" nType="-99"/>
          <Node pos="r" depth="2" NCoef="0" IVar="-1" Cut="0.0000000000000000e+00" cType="1" res="1.4012918109074235e-03" rms="4.6080538630485535e-01" purity="5.9833687543869019e-01" nType="-99"/>
        </Node>
      </Node>
    </BinaryTree>
    <BinaryTree type="DecisionTree" boostWeight="1.0000000000000000e+00" itree="308">
      <Node pos="s" depth="0" NCoef="0" IVar="5" Cut="-7.3177598416805267e-02" cType="1" res="6.7282849922776222e-03" rms="4.6524924039840698e-01" purity="5.0153511762619019e-01" nType="0">
        <Node pos="l" depth="1" NCoef="0" IVar="-1" Cut="0.0000000000000000e+00" cType="1" res="-2.9512892942875624e-03" rms="4.4667717814445496e-01" purity="3.6977562308311462e-01" nType="-99"/>
        <Node pos="r" depth="1" NCoef="0" IVar="3" Cut="3.2928435802459717e+00" cType="1" res="1.2335419654846191e-02" rms="4.6569761633872986e-01" purity="5.0922048091888428e-01" nType="0">
          <Node pos="l" depth="2" NCoef="0" IVar="-1" Cut="0.0000000000000000e+00" cType="1" res="4.7018437180668116e-04" rms="4.6710887551307678e-01" purity="5.2214896678924561e-01" nType="-99"/>
          <Node pos="r" depth="2" NCoef="0" IVar="-1" Cut="0.0000000000000000e+00" cType="1" res="-2.2249890025705099e-03" rms="4.3899792432785034e-01" purity="3.3172929286956787e-01" nType="-99"/>
        </Node>
      </Node>
    </BinaryTree>
    <BinaryTree type="DecisionTree" boostWeight="1.0000000000000000e+00" itree="309">
      <Node pos="s" depth="0" NCoef="0" IVar="1" Cut="2.6920118331909180e+00" cType="1" res="5.1518296822905540e-04" rms="4.6374160051345825e-01" purity="4.9341118335723877e-01" nType="0">
        <Node pos="l" depth="1" NCoef="0" IVar="9" Cut="9.9962659180164337e-02" cType="1" res="-7.1469135582447052e-03" rms="4.6957430243492126e-01" purity="4.6152773499488831e-01" nType="0">
          <Node pos="l" depth="2" NCoef="0" IVar="-1" Cut="0.0000000000000000e+00" cType="1" res="-6.9486297434195876e-04" rms="4.6898105740547180e-01" purity="4.3343147635459900e-01" nType="-99"/>
          <Node pos="r" depth="2" NCoef="0" IVar="-1" Cut="0.0000000000000000e+00" cType="1" res="5.3694209782406688e-04" rms="4.6925255656242371e-01" purity="5.0819849967956543e-01" nType="-99"/>
        </Node>
        <Node pos="r" depth="1" NCoef="0" IVar="-1" Cut="0.0000000000000000e+00" cType="1" res="1.6052460996434093e-03" rms="3.9550524950027466e-01" purity="8.0140328407287598e-01" nType="-99"/>
      </Node>
    </BinaryTree>
    <BinaryTree type="DecisionTree" boostWeight="1.0000000000000000e+00" itree="310">
      <Node pos="s" depth="0" NCoef="0" IVar="5" Cut="-3.7839643657207489e-02" cType="1" res="6.4841904677450657e-03" rms="4.6500778198242188e-01" purity="4.9820545315742493e-01" nType="0">
        <Node pos="l" depth="1" NCoef="0" IVar="9" Cut="5.0887033343315125e-02" cType="1" res="-3.6325193941593170e-02" rms="4.5988172292709351e-01" purity="4.4298067688941956e-01" nType="0">
          <Node pos="l" depth="2" NCoef="0" IVar="-1" Cut="0.0000000000000000e+00" cType="1" res="-3.1557218171656132e-03" rms="4.4233179092407227e-01" purity="3.7831753492355347e-01" nType="-99"/>
          <Node pos="r" depth="2" NCoef="0" IVar="-1" Cut="0.0000000000000000e+00" cType="1" res="-8.8758381025400013e-05" rms="4.6603158116340637e-01" purity="4.7882792353630066e-01" nType="-99"/>
        </Node>
        <Node pos="r" depth="1" NCoef="0" IVar="6" Cut="9.1829687356948853e-01" cType="1" res="2.0847959443926811e-02" rms="4.6583449840545654e-01" purity="5.1673495769500732e-01" nType="0">
          <Node pos="l" depth="2" NCoef="0" IVar="-1" Cut="0.0000000000000000e+00" cType="1" res="-1.3627820881083608e-03" rms="4.6122595667839050e-01" purity="4.3095391988754272e-01" nType="-99"/>
          <Node pos="r" depth="2" NCoef="0" IVar="-1" Cut="0.0000000000000000e+00" cType="1" res="7.6302827801555395e-04" rms="4.6571862697601318e-01" purity="5.2717506885528564e-01" nType="-99"/>
        </Node>
      </Node>
    </BinaryTree>
    <BinaryTree type="DecisionTree" boostWeight="1.0000000000000000e+00" itree="311">
      <Node pos="s" depth="0" NCoef="0" IVar="4" Cut="1.0304740905761719e+02" cType="1" res="-1.8336567154619843e-04" rms="4.6469667553901672e-01" purity="4.9194395542144775e-01" nType="0">
        <Node pos="l" depth="1" NCoef="0" IVar="6" Cut="9.5295155048370361e-01" cType="1" res="-5.1360726356506348e-02" rms="4.5298111438751221e-01" purity="3.7897700071334839e-01" nType="0">
          <Node pos="l" depth="2" NCoef="0" IVar="-1" Cut="0.0000000000000000e+00" cType="1" res="-3.2282245811074972e-03" rms="4.3817600607872009e-01" purity="3.2289251685142517e-01" nType="-99"/>
          <Node pos="r" depth="2" NCoef="0" IVar="-1" Cut="0.0000000000000000e+00" cType="1" res="-6.8339606514200568e-04" rms="4.6095246076583862e-01" purity="4.1904187202453613e-01" nType="-99"/>
        </Node>
        <Node pos="r" depth="1" NCoef="0" IVar="0" Cut="2.3802659606933594e+02" cType="1" res="1.0948821902275085e-02" rms="4.6646326780319214e-01" purity="5.1651668548583984e-01" nType="0">
          <Node pos="l" depth="2" NCoef="0" IVar="-1" Cut="0.0000000000000000e+00" cType="1" res="6.7631143610924482e-04" rms="4.6811008453369141e-01" purity="5.4197067022323608e-01" nType="-99"/>
          <Node pos="r" depth="2" NCoef="0" IVar="-1" Cut="0.0000000000000000e+00" cType="1" res="-1.3379283482208848e-03" rms="4.5625099539756775e-01" purity="4.2663341760635376e-01" nType="-99"/>
        </Node>
      </Node>
    </BinaryTree>
    <BinaryTree type="DecisionTree" boostWeight="1.0000000000000000e+00" itree="312">
      <Node pos="s" depth="0" NCoef="0" IVar="2" Cut="7.4304383993148804e-01" cType="1" res="7.6135070994496346e-03" rms="4.6394851803779602e-01" purity="5.0366866588592529e-01" nType="0">
        <Node pos="l" depth="1" NCoef="0" IVar="3" Cut="3.3053112030029297e+00" cType="1" res="-4.0205125696957111e-03" rms="4.6640646457672119e-01" purity="4.7647947072982788e-01" nType="0">
          <Node pos="l" depth="2" NCoef="0" IVar="-1" Cut="0.0000000000000000e+00" cType="1" res="7.7498669270426035e-05" rms="4.6865686774253845e-01" purity="4.9222084879875183e-01" nType="-99"/>
          <Node pos="r" depth="2" NCoef="0" IVar="-1" Cut="0.0000000000000000e+00" cType="1" res="-3.6973787937313318e-03" rms="4.2833256721496582e-01" purity="2.8092578053474426e-01" nType="-99"/>
        </Node>
        <Node pos="r" depth="1" NCoef="0" IVar="1" Cut="-1.8809238448739052e-02" cType="1" res="5.5952478200197220e-02" rms="4.5038631558418274e-01" purity="6.1663883924484253e-01" nType="0">
          <Node pos="l" depth="2" NCoef="0" IVar="-1" Cut="0.0000000000000000e+00" cType="1" res="6.7669723648577929e-04" rms="4.8645478487014771e-01" purity="4.4051393866539001e-01" nType="-99"/>
          <Node pos="r" depth="2" NCoef="0" IVar="-1" Cut="0.0000000000000000e+00" cType="1" res="1.7306482186540961e-03" rms="4.1782045364379883e-01" purity="7.5613027811050415e-01" nType="-99"/>
        </Node>
      </Node>
    </BinaryTree>
    <BinaryTree type="DecisionTree" boostWeight="1.0000000000000000e+00" itree="313">
      <Node pos="s" depth="0" NCoef="0" IVar="4" Cut="8.0661857604980469e+01" cType="1" res="9.3474406749010086e-03" rms="4.6346876025199890e-01" purity="5.0443112850189209e-01" nType="0">
        <Node pos="l" depth="1" NCoef="0" IVar="-1" Cut="0.0000000000000000e+00" cType="1" res="-3.5077836364507675e-03" rms="4.3233355879783630e-01" purity="3.2115173339843750e-01" nType="-99"/>
        <Node pos="r" depth="1" NCoef="0" IVar="1" Cut="-6.2601381540298462e-01" cType="1" res="1.5907576307654381e-02" rms="4.6457982063293457e-01" purity="5.1597833633422852e-01" nType="0">
          <Node pos="l" depth="2" NCoef="0" IVar="-1" Cut="0.0000000000000000e+00" cType="1" res="-7.5090228347107768e-04" rms="4.5288088917732239e-01" purity="3.0920445919036865e-01" nType="-99"/>
          <Node pos="r" depth="2" NCoef="0" IVar="-1" Cut="0.0000000000000000e+00" cType="1" res="6.9760583573952317e-04" rms="4.6846151351928711e-01" purity="5.9874290227890015e-01" nType="-99"/>
        </Node>
      </Node>
    </BinaryTree>
    <BinaryTree type="DecisionTree" boostWeight="1.0000000000000000e+00" itree="314">
      <Node pos="s" depth="0" NCoef="0" IVar="6" Cut="9.4313848018646240e-01" cType="1" res="1.1816704645752907e-02" rms="4.6253830194473267e-01" purity="5.0663930177688599e-01" nType="0">
        <Node pos="l" depth="1" NCoef="0" IVar="1" Cut="1.5151946544647217e+00" cType="1" res="-2.2920999675989151e-02" rms="4.6456104516983032e-01" purity="4.5443871617317200e-01" nType="0">
          <Node pos="l" depth="2" NCoef="0" IVar="-1" Cut="0.0000000000000000e+00" cType="1" res="-1.2048294302076101e-03" rms="4.6791678667068481e-01" purity="3.7597364187240601e-01" nType="-99"/>
          <Node pos="r" depth="2" NCoef="0" IVar="-1" Cut="0.0000000000000000e+00" cType="1" res="4.8741241334937513e-04" rms="4.5106804370880127e-01" purity="6.9349414110183716e-01" nType="-99"/>
        </Node>
        <Node pos="r" depth="1" NCoef="0" IVar="0" Cut="1.5365351867675781e+02" cType="1" res="2.8237136080861092e-02" rms="4.6066823601722717e-01" purity="5.3131431341171265e-01" nType="0">
          <Node pos="l" depth="2" NCoef="0" IVar="-1" Cut="0.0000000000000000e+00" cType="1" res="1.3702620053663850e-03" rms="4.5957079529762268e-01" purity="5.7383751869201660e-01" nType="-99"/>
          <Node pos="r" depth="2" NCoef="0" IVar="-1" Cut="0.0000000000000000e+00" cType="1" res="-1.7727632075548172e-04" rms="4.5974907279014587e-01" purity="4.7755554318428040e-01" nType="-99"/>
        </Node>
      </Node>
    </BinaryTree>
    <BinaryTree type="DecisionTree" boostWeight="1.0000000000000000e+00" itree="315">
      <Node pos="s" depth="0" NCoef="0" IVar="2" Cut="8.0739325284957886e-01" cType="1" res="6.8427217192947865e-03" rms="4.6485793590545654e-01" purity="5.0156849622726440e-01" nType="0">
        <Node pos="l" depth="1" NCoef="0" IVar="4" Cut="1.6438665771484375e+02" cType="1" res="-1.1272355914115906e-03" rms="4.6646860241889954e-01" purity="4.8571962118148804e-01" nType="0">
          <Node pos="l" depth="2" NCoef="0" IVar="-1" Cut="0.0000000000000000e+00" cType="1" res="-5.8777036610990763e-04" rms="4.6247661113739014e-01" purity="4.3637633323669434e-01" nType="-99"/>
          <Node pos="r" depth="2" NCoef="0" IVar="-1" Cut="0.0000000000000000e+00" cType="1" res="5.2430562209337950e-04" rms="4.7014605998992920e-01" purity="5.4323577880859375e-01" nType="-99"/>
        </Node>
        <Node pos="r" depth="1" NCoef="0" IVar="-1" Cut="0.0000000000000000e+00" cType="1" res="1.8586559453979135e-03" rms="4.4323498010635376e-01" purity="6.4664912223815918e-01" nType="-99"/>
      </Node>
    </BinaryTree>
    <BinaryTree type="DecisionTree" boostWeight="1.0000000000000000e+00" itree="316">
      <Node pos="s" depth="0" NCoef="0" IVar="4" Cut="9.2396896362304688e+01" cType="1" res="2.9906644485890865e-03" rms="4.6562108397483826e-01" purity="4.9530047178268433e-01" nType="0">
        <Node pos="l" depth="1" NCoef="0" IVar="9" Cut="1.2123951315879822e-01" cType="1" res="-5.9980846941471100e-02" rms="4.5079383254051208e-01" purity="3.6498019099235535e-01" nType="0">
          <Node pos="l" depth="2" NCoef="0" IVar="-1" Cut="0.0000000000000000e+00" cType="1" res="-3.6913973744958639e-03" rms="4.2975276708602905e-01" purity="2.9959130287170410e-01" nType="-99"/>
          <Node pos="r" depth="2" NCoef="0" IVar="-1" Cut="0.0000000000000000e+00" cType="1" res="-5.5624131346121430e-04" rms="4.6883326768875122e-01" purity="4.3533715605735779e-01" nType="-99"/>
        </Node>
        <Node pos="r" depth="1" NCoef="0" IVar="9" Cut="5.1098525524139404e-02" cType="1" res="1.1705533601343632e-02" rms="4.6696758270263672e-01" purity="5.1333606243133545e-01" nType="0">
          <Node pos="l" depth="2" NCoef="0" IVar="-1" Cut="0.0000000000000000e+00" cType="1" res="-7.0198578760027885e-04" rms="4.6838596463203430e-01" purity="4.5623764395713806e-01" nType="-99"/>
          <Node pos="r" depth="2" NCoef="0" IVar="-1" Cut="0.0000000000000000e+00" cType="1" res="7.7548122499138117e-04" rms="4.6519124507904053e-01" purity="5.4177284240722656e-01" nType="-99"/>
        </Node>
      </Node>
    </BinaryTree>
    <BinaryTree type="DecisionTree" boostWeight="1.0000000000000000e+00" itree="317">
      <Node pos="s" depth="0" NCoef="0" IVar="0" Cut="1.5496640014648438e+02" cType="1" res="8.9721037074923515e-03" rms="4.6647614240646362e-01" purity="5.0294017791748047e-01" nType="0">
        <Node pos="l" depth="1" NCoef="0" IVar="0" Cut="8.8082595825195312e+01" cType="1" res="2.6522308588027954e-02" rms="4.6663120388984680e-01" purity="5.3509038686752319e-01" nType="0">
          <Node pos="l" depth="2" NCoef="0" IVar="-1" Cut="0.0000000000000000e+00" cType="1" res="-4.4081054511480033e-04" rms="4.6707722544670105e-01" purity="4.9425590038299561e-01" nType="-99"/>
          <Node pos="r" depth="2" NCoef="0" IVar="-1" Cut="0.0000000000000000e+00" cType="1" res="1.1498191161081195e-03" rms="4.6514818072319031e-01" purity="5.5350327491760254e-01" nType="-99"/>
        </Node>
        <Node pos="r" depth="1" NCoef="0" IVar="4" Cut="1.3870135498046875e+02" cType="1" res="-1.4018616639077663e-02" rms="4.6527239680290222e-01" purity="4.6082344651222229e-01" nType="0">
          <Node pos="l" depth="2" NCoef="0" IVar="-1" Cut="0.0000000000000000e+00" cType="1" res="-1.8859123811125755e-03" rms="4.4668346643447876e-01" purity="3.6008471250534058e-01" nType="-99"/>
          <Node pos="r" depth="2" NCoef="0" IVar="-1" Cut="0.0000000000000000e+00" cType="1" res="5.4767580877523869e-05" rms="4.7130233049392700e-01" purity="4.9986147880554199e-01" nType="-99"/>
        </Node>
      </Node>
    </BinaryTree>
    <BinaryTree type="DecisionTree" boostWeight="1.0000000000000000e+00" itree="318">
      <Node pos="s" depth="0" NCoef="0" IVar="8" Cut="4.0226098895072937e-01" cType="1" res="6.4033549278974533e-03" rms="4.6400842070579529e-01" purity="4.9937635660171509e-01" nType="0">
        <Node pos="l" depth="1" NCoef="0" IVar="8" Cut="3.7054026126861572e-01" cType="1" res="-5.8195907622575760e-03" rms="4.6425935626029968e-01" purity="4.7804915904998779e-01" nType="0">
          <Node pos="l" depth="2" NCoef="0" IVar="-1" Cut="0.0000000000000000e+00" cType="1" res="-1.0911168064922094e-03" rms="4.6044239401817322e-01" purity="4.4022819399833679e-01" nType="-99"/>
          <Node pos="r" depth="2" NCoef="0" IVar="-1" Cut="0.0000000000000000e+00" cType="1" res="2.0616709662135690e-04" rms="4.6523281931877136e-01" purity="4.9415034055709839e-01" nType="-99"/>
        </Node>
        <Node pos="r" depth="1" NCoef="0" IVar="0" Cut="1.8051304626464844e+02" cType="1" res="5.0380084663629532e-02" rms="4.6042829751968384e-01" purity="5.7610917091369629e-01" nType="0">
          <Node pos="l" depth="2" NCoef="0" IVar="-1" Cut="0.0000000000000000e+00" cType="1" res="1.8329308368265629e-03" rms="4.6027269959449768e-01" purity="6.1008220911026001e-01" nType="-99"/>
          <Node pos="r" depth="2" NCoef="0" IVar="-1" Cut="0.0000000000000000e+00" cType="1" res="-2.1606402879115194e-04" rms="4.5533105731010437e-01" purity="5.0109857320785522e-01" nType="-99"/>
        </Node>
      </Node>
    </BinaryTree>
    <BinaryTree type="DecisionTree" boostWeight="1.0000000000000000e+00" itree="319">
      <Node pos="s" depth="0" NCoef="0" IVar="6" Cut="9.6816152334213257e-01" cType="1" res="-1.0209146421402693e-03" rms="4.6102523803710938e-01" purity="4.9403336644172668e-01" nType="0">
        <Node pos="l" depth="1" NCoef="0" IVar="9" Cut="6.0895007103681564e-02" cType="1" res="-2.6869772002100945e-02" rms="4.6278414130210876e-01" purity="4.5790278911590576e-01" nType="0">
          <Node pos="l" depth="2" NCoef="0" IVar="-1" Cut="0.0000000000000000e+00" cType="1" res="-1.9107899861410260e-03" rms="4.5627754926681519e-01" purity="4.0475499629974365e-01" nType="-99"/>
          <Node pos="r" depth="2" NCoef="0" IVar="-1" Cut="0.0000000000000000e+00" cType="1" res="-1.1462236579973251e-04" rms="4.6551844477653503e-01" purity="4.9212265014648438e-01" nType="-99"/>
        </Node>
        <Node pos="r" depth="1" NCoef="0" IVar="1" Cut="-9.3915730714797974e-02" cType="1" res="3.2324500381946564e-02" rms="4.5658981800079346e-01" purity="5.4064226150512695e-01" nType="0">
          <Node pos="l" depth="2" NCoef="0" IVar="-1" Cut="0.0000000000000000e+00" cType="1" res="-2.8632080648094416e-04" rms="4.6387958526611328e-01" purity="3.4605050086975098e-01" nType="-99"/>
          <Node pos="r" depth="2" NCoef="0" IVar="-1" Cut="0.0000000000000000e+00" cType="1" res="1.2961952015757561e-03" rms="4.4975620508193970e-01" purity="6.6892737150192261e-01" nType="-99"/>
        </Node>
      </Node>
    </BinaryTree>
    <BinaryTree type="DecisionTree" boostWeight="1.0000000000000000e+00" itree="320">
      <Node pos="s" depth="0" NCoef="0" IVar="3" Cut="1.6469473838806152e+00" cType="1" res="4.5199203304946423e-03" rms="4.6648493409156799e-01" purity="4.9318993091583252e-01" nType="0">
        <Node pos="l" depth="1" NCoef="0" IVar="0" Cut="1.0062062835693359e+02" cType="1" res="3.9983551949262619e-02" rms="4.6724316477775574e-01" purity="5.8091747760772705e-01" nType="0">
          <Node pos="l" depth="2" NCoef="0" IVar="-1" Cut="0.0000000000000000e+00" cType="1" res="-4.9107107770396397e-05" rms="4.7499489784240723e-01" purity="5.1717990636825562e-01" nType="-99"/>
          <Node pos="r" depth="2" NCoef="0" IVar="-1" Cut="0.0000000000000000e+00" cType="1" res="2.2065115626901388e-03" rms="4.4946172833442688e-01" purity="6.7094534635543823e-01" nType="-99"/>
        </Node>
        <Node pos="r" depth="1" NCoef="0" IVar="2" Cut="7.7615481615066528e-01" cType="1" res="-1.0129816830158234e-02" rms="4.6538329124450684e-01" purity="4.5695039629936218e-01" nType="0">
          <Node pos="l" depth="2" NCoef="0" IVar="-1" Cut="0.0000000000000000e+00" cType="1" res="-5.7755783200263977e-04" rms="4.6473652124404907e-01" purity="4.3819582462310791e-01" nType="-99"/>
          <Node pos="r" depth="2" NCoef="0" IVar="-1" Cut="0.0000000000000000e+00" cType="1" res="1.3682201970368624e-03" rms="4.6450060606002808e-01" purity="5.8732110261917114e-01" nType="-99"/>
        </Node>
      </Node>
    </BinaryTree>
    <BinaryTree type="DecisionTree" boostWeight="1.0000000000000000e+00" itree="321">
      <Node pos="s" depth="0" NCoef="0" IVar="6" Cut="9.4057995080947876e-01" cType="1" res="7.8483978286385536e-03" rms="4.6314305067062378e-01" purity="5.0175666809082031e-01" nType="0">
        <Node pos="l" depth="1" NCoef="0" IVar="6" Cut="9.0123414993286133e-01" cType="1" res="-2.3960782214999199e-02" rms="4.6435135602951050e-01" purity="4.5319926738739014e-01" nType="0">
          <Node pos="l" depth="2" NCoef="0" IVar="-1" Cut="0.0000000000000000e+00" cType="1" res="-2.1790782921016216e-03" rms="4.4808304309844971e-01" purity="4.0272322297096252e-01" nType="-99"/>
          <Node pos="r" depth="2" NCoef="0" IVar="-1" Cut="0.0000000000000000e+00" cType="1" res="-3.7815552786923945e-04" rms="4.6711283922195435e-01" purity="4.6404635906219482e-01" nType="-99"/>
        </Node>
        <Node pos="r" depth="1" NCoef="0" IVar="2" Cut="4.2335054278373718e-01" cType="1" res="2.1413730457425117e-02" rms="4.6196106076240540e-01" purity="5.2246445417404175e-01" nType="0">
          <Node pos="l" depth="2" NCoef="0" IVar="-1" Cut="0.0000000000000000e+00" cType="1" res="-1.2783708516508341e-03" rms="4.6209961175918579e-01" purity="4.0973719954490662e-01" nType="-99"/>
          <Node pos="r" depth="2" NCoef="0" IVar="-1" Cut="0.0000000000000000e+00" cType="1" res="7.6762482058256865e-04" rms="4.6129804849624634e-01" purity="5.3705263137817383e-01" nType="-99"/>
        </Node>
      </Node>
    </BinaryTree>
    <BinaryTree type="DecisionTree" boostWeight="1.0000000000000000e+00" itree="322">
      <Node pos="s" depth="0" NCoef="0" IVar="8" Cut="3.9031177759170532e-01" cType="1" res="4.5762392692267895e-03" rms="4.6269664168357849e-01" purity="4.9738240242004395e-01" nType="0">
        <Node pos="l" depth="1" NCoef="0" IVar="4" Cut="1.6232522583007812e+02" cType="1" res="-1.5899792313575745e-02" rms="4.6198132634162903e-01" purity="4.6391174197196960e-01" nType="0">
          <Node pos="l" depth="2" NCoef="0" IVar="-1" Cut="0.0000000000000000e+00" cType="1" res="-1.7228296492248774e-03" rms="4.4959023594856262e-01" purity="3.8059529662132263e-01" nType="-99"/>
          <Node pos="r" depth="2" NCoef="0" IVar="-1" Cut="0.0000000000000000e+00" cType="1" res="2.4586296058259904e-04" rms="4.6848705410957336e-01" purity="5.2028459310531616e-01" nType="-99"/>
        </Node>
        <Node pos="r" depth="1" NCoef="0" IVar="6" Cut="9.8998224735260010e-01" cType="1" res="2.6144161820411682e-02" rms="4.6246960759162903e-01" purity="5.3263795375823975e-01" nType="0">
          <Node pos="l" depth="2" NCoef="0" IVar="-1" Cut="0.0000000000000000e+00" cType="1" res="3.7056655855849385e-04" rms="4.6312782168388367e-01" purity="5.1787811517715454e-01" nType="-99"/>
          <Node pos="r" depth="2" NCoef="0" IVar="-1" Cut="0.0000000000000000e+00" cType="1" res="1.9621835090219975e-03" rms="4.5496982336044312e-01" purity="6.0197389125823975e-01" nType="-99"/>
        </Node>
      </Node>
    </BinaryTree>
    <BinaryTree type="DecisionTree" boostWeight="1.0000000000000000e+00" itree="323">
      <Node pos="s" depth="0" NCoef="0" IVar="1" Cut="1.0070828348398209e-01" cType="1" res="1.1998456902801991e-02" rms="4.6344512701034546e-01" purity="5.0602513551712036e-01" nType="0">
        <Node pos="l" depth="1" NCoef="0" IVar="0" Cut="8.8978652954101562e+01" cType="1" res="-1.0044869966804981e-02" rms="4.6236804127693176e-01" purity="3.4677058458328247e-01" nType="0">
          <Node pos="l" depth="2" NCoef="0" IVar="-1" Cut="0.0000000000000000e+00" cType="1" res="-2.8602376114577055e-03" rms="4.5219409465789795e-01" purity="3.0427145957946777e-01" nType="-99"/>
          <Node pos="r" depth="2" NCoef="0" IVar="-1" Cut="0.0000000000000000e+00" cType="1" res="1.5366137085948139e-04" rms="4.6321406960487366e-01" purity="3.5578933358192444e-01" nType="-99"/>
        </Node>
        <Node pos="r" depth="1" NCoef="0" IVar="9" Cut="8.2874529063701630e-02" cType="1" res="2.9523471370339394e-02" rms="4.6355229616165161e-01" purity="6.3263660669326782e-01" nType="0">
          <Node pos="l" depth="2" NCoef="0" IVar="-1" Cut="0.0000000000000000e+00" cType="1" res="1.9568637071643025e-04" rms="4.7403776645660400e-01" purity="5.9148699045181274e-01" nType="-99"/>
          <Node pos="r" depth="2" NCoef="0" IVar="-1" Cut="0.0000000000000000e+00" cType="1" res="1.1837629135698080e-03" rms="4.4989717006683350e-01" purity="6.8019944429397583e-01" nType="-99"/>
        </Node>
      </Node>
    </BinaryTree>
    <BinaryTree type="DecisionTree" boostWeight="1.0000000000000000e+00" itree="324">
      <Node pos="s" depth="0" NCoef="0" IVar="6" Cut="9.5336031913757324e-01" cType="1" res="-1.5836780949030071e-04" rms="4.6523314714431763e-01" purity="4.9065232276916504e-01" nType="0">
        <Node pos="l" depth="1" NCoef="0" IVar="9" Cut="1.6659705340862274e-01" cType="1" res="-2.5655455887317657e-02" rms="4.6443486213684082e-01" purity="4.5188960433006287e-01" nType="0">
          <Node pos="l" depth="2" NCoef="0" IVar="-1" Cut="0.0000000000000000e+00" cType="1" res="-1.0408356320112944e-03" rms="4.6173337101936340e-01" purity="4.3742746114730835e-01" nType="-99"/>
          <Node pos="r" depth="2" NCoef="0" IVar="-1" Cut="0.0000000000000000e+00" cType="1" res="9.7221421310678124e-04" rms="4.7604209184646606e-01" purity="5.4222249984741211e-01" nType="-99"/>
        </Node>
        <Node pos="r" depth="1" NCoef="0" IVar="4" Cut="2.5062796020507812e+02" cType="1" res="1.8538350239396095e-02" rms="4.6492990851402283e-01" purity="5.1907652616500854e-01" nType="0">
          <Node pos="l" depth="2" NCoef="0" IVar="-1" Cut="0.0000000000000000e+00" cType="1" res="2.2166983399074525e-04" rms="4.6595597267150879e-01" purity="4.9734121561050415e-01" nType="-99"/>
          <Node pos="r" depth="2" NCoef="0" IVar="-1" Cut="0.0000000000000000e+00" cType="1" res="1.5219704946503043e-03" rms="4.5763877034187317e-01" purity="6.1375725269317627e-01" nType="-99"/>
        </Node>
      </Node>
    </BinaryTree>
    <BinaryTree type="DecisionTree" boostWeight="1.0000000000000000e+00" itree="325">
      <Node pos="s" depth="0" NCoef="0" IVar="5" Cut="-7.3012657463550568e-02" cType="1" res="5.9938165359199047e-03" rms="4.6440672874450684e-01" purity="4.9931138753890991e-01" nType="0">
        <Node pos="l" depth="1" NCoef="0" IVar="-1" Cut="0.0000000000000000e+00" cType="1" res="-3.2079562079161406e-03" rms="4.5234555006027222e-01" purity="3.4888407588005066e-01" nType="-99"/>
        <Node pos="r" depth="1" NCoef="0" IVar="3" Cut="2.9752330780029297e+00" cType="1" res="1.1623676866292953e-02" rms="4.6441906690597534e-01" purity="5.0766408443450928e-01" nType="0">
          <Node pos="l" depth="2" NCoef="0" IVar="-1" Cut="0.0000000000000000e+00" cType="1" res="5.1898608217015862e-04" rms="4.6584963798522949e-01" purity="5.3207308053970337e-01" nType="-99"/>
          <Node pos="r" depth="2" NCoef="0" IVar="-1" Cut="0.0000000000000000e+00" cType="1" res="-8.1311748363077641e-04" rms="4.5607876777648926e-01" purity="3.9820423722267151e-01" nType="-99"/>
        </Node>
      </Node>
    </BinaryTree>
    <BinaryTree type="DecisionTree" boostWeight="1.0000000000000000e+00" itree="326">
      <Node pos="s" depth="0" NCoef="0" IVar="4" Cut="1.4150430297851562e+02" cType="1" res="4.8238355666399002e-03" rms="4.6271666884422302e-01" purity="4.9891662597656250e-01" nType="0">
        <Node pos="l" depth="1" NCoef="0" IVar="6" Cut="9.5585095882415771e-01" cType="1" res="-2.1593172103166580e-02" rms="4.5738679170608521e-01" purity="4.3331363797187805e-01" nType="0">
          <Node pos="l" depth="2" NCoef="0" IVar="-1" Cut="0.0000000000000000e+00" cType="1" res="-1.8281014636158943e-03" rms="4.5359757542610168e-01" purity="3.8113519549369812e-01" nType="-99"/>
          <Node pos="r" depth="2" NCoef="0" IVar="-1" Cut="0.0000000000000000e+00" cType="1" res="1.5264455578289926e-04" rms="4.5840117335319519e-01" purity="4.7281089425086975e-01" nType="-99"/>
        </Node>
        <Node pos="r" depth="1" NCoef="0" IVar="8" Cut="3.7970462441444397e-01" cType="1" res="2.3285018280148506e-02" rms="4.6551620960235596e-01" purity="5.4476237297058105e-01" nType="0">
          <Node pos="l" depth="2" NCoef="0" IVar="-1" Cut="0.0000000000000000e+00" cType="1" res="-6.2290106143336743e-05" rms="4.6712899208068848e-01" purity="4.9722233414649963e-01" nType="-99"/>
          <Node pos="r" depth="2" NCoef="0" IVar="-1" Cut="0.0000000000000000e+00" cType="1" res="1.0548708960413933e-03" rms="4.6327751874923706e-01" purity="5.8179241418838501e-01" nType="-99"/>
        </Node>
      </Node>
    </BinaryTree>
    <BinaryTree type="DecisionTree" boostWeight="1.0000000000000000e+00" itree="327">
      <Node pos="s" depth="0" NCoef="0" IVar="3" Cut="1.8810311555862427e+00" cType="1" res="1.3606450520455837e-02" rms="4.6420764923095703e-01" purity="5.0794583559036255e-01" nType="0">
        <Node pos="l" depth="1" NCoef="0" IVar="0" Cut="8.0736846923828125e+01" cType="1" res="4.5102205127477646e-02" rms="4.6244633197784424e-01" purity="5.8516162633895874e-01" nType="0">
          <Node pos="l" depth="2" NCoef="0" IVar="-1" Cut="0.0000000000000000e+00" cType="1" res="-1.1769764387281612e-04" rms="4.7063869237899780e-01" purity="5.0924527645111084e-01" nType="-99"/>
          <Node pos="r" depth="2" NCoef="0" IVar="-1" Cut="0.0000000000000000e+00" cType="1" res="1.6656470252200961e-03" rms="4.5580214262008667e-01" purity="6.2569653987884521e-01" nType="-99"/>
        </Node>
        <Node pos="r" depth="1" NCoef="0" IVar="2" Cut="7.8070819377899170e-01" cType="1" res="-5.1956484094262123e-03" rms="4.6423849463462830e-01" purity="4.6185010671615601e-01" nType="0">
          <Node pos="l" depth="2" NCoef="0" IVar="-1" Cut="0.0000000000000000e+00" cType="1" res="-5.0065177492797375e-04" rms="4.6389061212539673e-01" purity="4.4017958641052246e-01" nType="-99"/>
          <Node pos="r" depth="2" NCoef="0" IVar="-1" Cut="0.0000000000000000e+00" cType="1" res="1.8094374099746346e-03" rms="4.5834600925445557e-01" purity="6.1279553174972534e-01" nType="-99"/>
        </Node>
      </Node>
    </BinaryTree>
    <BinaryTree type="DecisionTree" boostWeight="1.0000000000000000e+00" itree="328">
      <Node pos="s" depth="0" NCoef="0" IVar="6" Cut="9.6815377473831177e-01" cType="1" res="6.4476556144654751e-03" rms="4.6462723612785339e-01" purity="5.0071758031845093e-01" nType="0">
        <Node pos="l" depth="1" NCoef="0" IVar="2" Cut="7.9070609807968140e-01" cType="1" res="-1.2539322488009930e-02" rms="4.6681720018386841e-01" purity="4.6939846873283386e-01" nType="0">
          <Node pos="l" depth="2" NCoef="0" IVar="-1" Cut="0.0000000000000000e+00" cType="1" res="-5.8976758737117052e-04" rms="4.6738725900650024e-01" purity="4.5200616121292114e-01" nType="-99"/>
          <Node pos="r" depth="2" NCoef="0" IVar="-1" Cut="0.0000000000000000e+00" cType="1" res="1.2266875710338354e-03" rms="4.5749813318252563e-01" purity="6.0591995716094971e-01" nType="-99"/>
        </Node>
        <Node pos="r" depth="1" NCoef="0" IVar="3" Cut="2.2542254924774170e+00" cType="1" res="3.1337313354015350e-02" rms="4.6055662631988525e-01" purity="5.4177308082580566e-01" nType="0">
          <Node pos="l" depth="2" NCoef="0" IVar="-1" Cut="0.0000000000000000e+00" cType="1" res="1.3738194247707725e-03" rms="4.5773562788963318e-01" purity="6.0184323787689209e-01" nType="-99"/>
          <Node pos="r" depth="2" NCoef="0" IVar="-1" Cut="0.0000000000000000e+00" cType="1" res="1.1374810128472745e-04" rms="4.6196061372756958e-01" purity="4.7800102829933167e-01" nType="-99"/>
        </Node>
      </Node>
    </BinaryTree>
    <BinaryTree type="DecisionTree" boostWeight="1.0000000000000000e+00" itree="329">
      <Node pos="s" depth="0" NCoef="0" IVar="1" Cut="2.5072045326232910e+00" cType="1" res="9.1186985373497009e-03" rms="4.6317601203918457e-01" purity="5.0370174646377563e-01" nType="0">
        <Node pos="l" depth="1" NCoef="0" IVar="6" Cut="9.4327390193939209e-01" cType="1" res="1.6313273226842284e-03" rms="4.7056114673614502e-01" purity="4.6638047695159912e-01" nType="0">
          <Node pos="l" depth="2" NCoef="0" IVar="-1" Cut="0.0000000000000000e+00" cType="1" res="-7.6125643681734800e-04" rms="4.6596863865852356e-01" purity="4.2726680636405945e-01" nType="-99"/>
          <Node pos="r" depth="2" NCoef="0" IVar="-1" Cut="0.0000000000000000e+00" cType="1" res="4.3284468119964004e-04" rms="4.7222808003425598e-01" purity="4.8612540960311890e-01" nType="-99"/>
        </Node>
        <Node pos="r" depth="1" NCoef="0" IVar="-1" Cut="0.0000000000000000e+00" cType="1" res="1.4737892197445035e-03" rms="3.9544504880905151e-01" purity="7.9728734493255615e-01" nType="-99"/>
      </Node>
    </BinaryTree>
    <BinaryTree type="DecisionTree" boostWeight="1.0000000000000000e+00" itree="330">
      <Node pos="s" depth="0" NCoef="0" IVar="6" Cut="9.4625449180603027e-01" cType="1" res="7.4346642941236496e-03" rms="4.6379280090332031e-01" purity="5.0066381692886353e-01" nType="0">
        <Node pos="l" depth="1" NCoef="0" IVar="2" Cut="7.3786973953247070e-01" cType="1" res="-2.2875297814607620e-02" rms="4.6105888485908508e-01" purity="4.5519095659255981e-01" nType="0">
          <Node pos="l" depth="2" NCoef="0" IVar="-1" Cut="0.0000000000000000e+00" cType="1" res="-1.1847863206639886e-03" rms="4.5795470476150513e-01" purity="4.2212164402008057e-01" nType="-99"/>
          <Node pos="r" depth="2" NCoef="0" IVar="-1" Cut="0.0000000000000000e+00" cType="1" res="1.2287844438105822e-03" rms="4.6658664941787720e-01" purity="5.9356939792633057e-01" nType="-99"/>
        </Node>
        <Node pos="r" depth="1" NCoef="0" IVar="4" Cut="2.0891613769531250e+02" cType="1" res="2.3877093568444252e-02" rms="4.6444231271743774e-01" purity="5.2533173561096191e-01" nType="0">
          <Node pos="l" depth="2" NCoef="0" IVar="-1" Cut="0.0000000000000000e+00" cType="1" res="2.7156487340107560e-04" rms="4.6694609522819519e-01" purity="4.9048131704330444e-01" nType="-99"/>
          <Node pos="r" depth="2" NCoef="0" IVar="-1" Cut="0.0000000000000000e+00" cType="1" res="1.3668297324329615e-03" rms="4.5662847161293030e-01" purity="6.0859495401382446e-01" nType="-99"/>
        </Node>
      </Node>
    </BinaryTree>
    <BinaryTree type="DecisionTree" boostWeight="1.0000000000000000e+00" itree="331">
      <Node pos="s" depth="0" NCoef="0" IVar="1" Cut="2.3170471191406250e+00" cType="1" res="5.0698299892246723e-03" rms="4.6299442648887634e-01" purity="4.9964988231658936e-01" nType="0">
        <Node pos="l" depth="1" NCoef="0" IVar="3" Cut="1.1071400642395020e+00" cType="1" res="-3.0167123768478632e-03" rms="4.7039285302162170e-01" purity="4.5693612098693848e-01" nType="0">
          <Node pos="l" depth="2" NCoef="0" IVar="-1" Cut="0.0000000000000000e+00" cType="1" res="1.2584407813847065e-03" rms="4.7112473845481873e-01" purity="5.6903368234634399e-01" nType="-99"/>
          <Node pos="r" depth="2" NCoef="0" IVar="-1" Cut="0.0000000000000000e+00" cType="1" res="-3.3645099028944969e-04" rms="4.6970164775848389e-01" purity="4.3954229354858398e-01" nType="-99"/>
        </Node>
        <Node pos="r" depth="1" NCoef="0" IVar="-1" Cut="0.0000000000000000e+00" cType="1" res="1.2805351288989186e-03" rms="4.0680637955665588e-01" purity="7.8164416551589966e-01" nType="-99"/>
      </Node>
    </BinaryTree>
    <BinaryTree type="DecisionTree" boostWeight="1.0000000000000000e+00" itree="332">
      <Node pos="s" depth="0" NCoef="0" IVar="1" Cut="-1.8532384634017944e+00" cType="1" res="8.2444986328482628e-03" rms="4.6486836671829224e-01" purity="5.0311839580535889e-01" nType="0">
        <Node pos="l" depth="1" NCoef="0" IVar="-1" Cut="0.0000000000000000e+00" cType="1" res="-3.5211164504289627e-03" rms="4.1260987520217896e-01" purity="2.2708575427532196e-01" nType="-99"/>
        <Node pos="r" depth="1" NCoef="0" IVar="9" Cut="1.6056421399116516e-01" cType="1" res="1.5210377052426338e-02" rms="4.6888813376426697e-01" purity="5.2910715341567993e-01" nType="0">
          <Node pos="l" depth="2" NCoef="0" IVar="-1" Cut="0.0000000000000000e+00" cType="1" res="1.3984950783196837e-04" rms="4.6912130713462830e-01" purity="5.1327532529830933e-01" nType="-99"/>
          <Node pos="r" depth="2" NCoef="0" IVar="-1" Cut="0.0000000000000000e+00" cType="1" res="1.6399293672293425e-03" rms="4.6398738026618958e-01" purity="6.1485606431961060e-01" nType="-99"/>
        </Node>
      </Node>
    </BinaryTree>
    <BinaryTree type="DecisionTree" boostWeight="1.0000000000000000e+00" itree="333">
      <Node pos="s" depth="0" NCoef="0" IVar="4" Cut="1.5721490478515625e+02" cType="1" res="4.1326242499053478e-03" rms="4.6398809552192688e-01" purity="4.9777963757514954e-01" nType="0">
        <Node pos="l" depth="1" NCoef="0" IVar="0" Cut="1.4895812988281250e+02" cType="1" res="-1.9684793427586555e-02" rms="4.6153405308723450e-01" purity="4.3817019462585449e-01" nType="0">
          <Node pos="l" depth="2" NCoef="0" IVar="-1" Cut="0.0000000000000000e+00" cType="1" res="4.6293873310787603e-05" rms="4.7006654739379883e-01" purity="4.7818791866302490e-01" nType="-99"/>
          <Node pos="r" depth="2" NCoef="0" IVar="-1" Cut="0.0000000000000000e+00" cType="1" res="-1.8616801826283336e-03" rms="4.4449734687805176e-01" purity="3.7081283330917358e-01" nType="-99"/>
        </Node>
        <Node pos="r" depth="1" NCoef="0" IVar="9" Cut="6.8275503814220428e-02" cType="1" res="2.7326410636305809e-02" rms="4.6519500017166138e-01" purity="5.5582821369171143e-01" nType="0">
          <Node pos="l" depth="2" NCoef="0" IVar="-1" Cut="0.0000000000000000e+00" cType="1" res="2.5209721570718102e-05" rms="4.7144532203674316e-01" purity="5.0670540332794189e-01" nType="-99"/>
          <Node pos="r" depth="2" NCoef="0" IVar="-1" Cut="0.0000000000000000e+00" cType="1" res="1.4683364424854517e-03" rms="4.5464080572128296e-01" purity="6.1979043483734131e-01" nType="-99"/>
        </Node>
      </Node>
    </BinaryTree>
    <BinaryTree type="DecisionTree" boostWeight="1.0000000000000000e+00" itree="334">
      <Node pos="s" depth="0" NCoef="0" IVar="0" Cut="1.4663244628906250e+02" cType="1" res="8.7293414399027824e-03" rms="4.6590638160705566e-01" purity="5.0094968080520630e-01" nType="0">
        <Node pos="l" depth="1" NCoef="0" IVar="0" Cut="9.8466224670410156e+01" cType="1" res="2.9518177732825279e-02" rms="4.6671950817108154e-01" purity="5.3820192813873291e-01" nType="0">
          <Node pos="l" depth="2" NCoef="0" IVar="-1" Cut="0.0000000000000000e+00" cType="1" res="-3.5045036929659545e-04" rms="4.6698930859565735e-01" purity="4.9906614422798157e-01" nType="-99"/>
          <Node pos="r" depth="2" NCoef="0" IVar="-1" Cut="0.0000000000000000e+00" cType="1" res="1.5344504499807954e-03" rms="4.6385911107063293e-01" purity="5.6830608844757080e-01" nType="-99"/>
        </Node>
        <Node pos="r" depth="1" NCoef="0" IVar="4" Cut="2.5240681457519531e+02" cType="1" res="-1.4203952625393867e-02" rms="4.6392834186553955e-01" purity="4.5985472202301025e-01" nType="0">
          <Node pos="l" depth="2" NCoef="0" IVar="-1" Cut="0.0000000000000000e+00" cType="1" res="-9.3668792396783829e-04" rms="4.5955112576484680e-01" purity="4.2869806289672852e-01" nType="-99"/>
          <Node pos="r" depth="2" NCoef="0" IVar="-1" Cut="0.0000000000000000e+00" cType="1" res="9.5443561440333724e-04" rms="4.7373971343040466e-01" purity="5.5849575996398926e-01" nType="-99"/>
        </Node>
      </Node>
    </BinaryTree>
    <BinaryTree type="DecisionTree" boostWeight="1.0000000000000000e+00" itree="335">
      <Node pos="s" depth="0" NCoef="0" IVar="8" Cut="4.0791696310043335e-01" cType="1" res="9.1963987797498703e-03" rms="4.6348151564598083e-01" purity="5.0347959995269775e-01" nType="0">
        <Node pos="l" depth="1" NCoef="0" IVar="3" Cut="3.2958297729492188e+00" cType="1" res="1.2329895980656147e-03" rms="4.6481215953826904e-01" purity="4.8625111579895020e-01" nType="0">
          <Node pos="l" depth="2" NCoef="0" IVar="-1" Cut="0.0000000000000000e+00" cType="1" res="1.8105554045177996e-04" rms="4.6661037206649780e-01" purity="5.0032126903533936e-01" nType="-99"/>
          <Node pos="r" depth="2" NCoef="0" IVar="-1" Cut="0.0000000000000000e+00" cType="1" res="-2.9385350644588470e-03" rms="4.3299064040184021e-01" purity="2.9622712731361389e-01" nType="-99"/>
        </Node>
        <Node pos="r" depth="1" NCoef="0" IVar="2" Cut="6.1420702934265137e-01" cType="1" res="6.5351381897926331e-02" rms="4.5000478625297546e-01" purity="6.2496852874755859e-01" nType="0">
          <Node pos="l" depth="2" NCoef="0" IVar="-1" Cut="0.0000000000000000e+00" cType="1" res="6.5992493182420731e-04" rms="4.6442094445228577e-01" purity="5.4353392124176025e-01" nType="-99"/>
          <Node pos="r" depth="2" NCoef="0" IVar="-1" Cut="0.0000000000000000e+00" cType="1" res="2.0769061520695686e-03" rms="4.3654954433441162e-01" purity="6.8587189912796021e-01" nType="-99"/>
        </Node>
      </Node>
    </BinaryTree>
    <BinaryTree type="DecisionTree" boostWeight="1.0000000000000000e+00" itree="336">
      <Node pos="s" depth="0" NCoef="0" IVar="2" Cut="7.8926277160644531e-01" cType="1" res="8.3146700635552406e-03" rms="4.6220773458480835e-01" purity="5.0263911485671997e-01" nType="0">
        <Node pos="l" depth="1" NCoef="0" IVar="1" Cut="1.6597300767898560e+00" cType="1" res="-9.4588258070871234e-04" rms="4.6353754401206970e-01" purity="4.8320069909095764e-01" nType="0">
          <Node pos="l" depth="2" NCoef="0" IVar="-1" Cut="0.0000000000000000e+00" cType="1" res="-4.1900970973074436e-04" rms="4.7022244334220886e-01" purity="4.0863555669784546e-01" nType="-99"/>
          <Node pos="r" depth="2" NCoef="0" IVar="-1" Cut="0.0000000000000000e+00" cType="1" res="8.9633889729157090e-04" rms="4.3835964798927307e-01" purity="7.2627621889114380e-01" nType="-99"/>
        </Node>
        <Node pos="r" depth="1" NCoef="0" IVar="7" Cut="4.0600299835205078e-03" cType="1" res="7.3470741510391235e-02" rms="4.4735407829284668e-01" purity="6.3940566778182983e-01" nType="0">
          <Node pos="l" depth="2" NCoef="0" IVar="-1" Cut="0.0000000000000000e+00" cType="1" res="2.3062138352543116e-03" rms="4.4470572471618652e-01" purity="6.5919858217239380e-01" nType="-99"/>
          <Node pos="r" depth="2" NCoef="0" IVar="-1" Cut="0.0000000000000000e+00" cType="1" res="1.0772225214168429e-03" rms="4.4856536388397217e-01" purity="6.1752569675445557e-01" nType="-99"/>
        </Node>
      </Node>
    </BinaryTree>
    <BinaryTree type="DecisionTree" boostWeight="1.0000000000000000e+00" itree="337">
      <Node pos="s" depth="0" NCoef="0" IVar="2" Cut="7.7303451299667358e-01" cType="1" res="1.1952592991292477e-02" rms="4.6408998966217041e-01" purity="5.0304073095321655e-01" nType="0">
        <Node pos="l" depth="1" NCoef="0" IVar="3" Cut="2.0021061897277832e+00" cType="1" res="3.7062882911413908e-03" rms="4.6575775742530823e-01" purity="4.8221081495285034e-01" nType="0">
          <Node pos="l" depth="2" NCoef="0" IVar="-1" Cut="0.0000000000000000e+00" cType="1" res="7.1532884612679482e-04" rms="4.6793660521507263e-01" purity="5.5162644386291504e-01" nType="-99"/>
          <Node pos="r" depth="2" NCoef="0" IVar="-1" Cut="0.0000000000000000e+00" cType="1" res="-3.9251288399100304e-04" rms="4.6351897716522217e-01" purity="4.3492889404296875e-01" nType="-99"/>
        </Node>
        <Node pos="r" depth="1" NCoef="0" IVar="6" Cut="9.6275794506072998e-01" cType="1" res="6.1599913984537125e-02" rms="4.5074248313903809e-01" purity="6.2844848632812500e-01" nType="0">
          <Node pos="l" depth="2" NCoef="0" IVar="-1" Cut="0.0000000000000000e+00" cType="1" res="6.1106908833608031e-04" rms="4.6191453933715820e-01" purity="5.8322745561599731e-01" nType="-99"/>
          <Node pos="r" depth="2" NCoef="0" IVar="-1" Cut="0.0000000000000000e+00" cType="1" res="2.1135704591870308e-03" rms="4.3851917982101440e-01" purity="6.6709828376770020e-01" nType="-99"/>
        </Node>
      </Node>
    </BinaryTree>
    <BinaryTree type="DecisionTree" boostWeight="1.0000000000000000e+00" itree="338">
      <Node pos="s" depth="0" NCoef="0" IVar="8" Cut="4.1023150086402893e-01" cType="1" res="9.6277846023440361e-03" rms="4.6453171968460083e-01" purity="5.0619012117385864e-01" nType="0">
        <Node pos="l" depth="1" NCoef="0" IVar="3" Cut="3.3562254905700684e+00" cType="1" res="2.8403447940945625e-03" rms="4.6521416306495667e-01" purity="4.9248072504997253e-01" nType="0">
          <Node pos="l" depth="2" NCoef="0" IVar="-1" Cut="0.0000000000000000e+00" cType="1" res="2.1862673747818917e-04" rms="4.6677201986312866e-01" purity="5.0549620389938354e-01" nType="-99"/>
          <Node pos="r" depth="2" NCoef="0" IVar="-1" Cut="0.0000000000000000e+00" cType="1" res="-3.3133123070001602e-03" rms="4.3076324462890625e-01" purity="2.8393876552581787e-01" nType="-99"/>
        </Node>
        <Node pos="r" depth="1" NCoef="0" IVar="-1" Cut="0.0000000000000000e+00" cType="1" res="1.6402851324528456e-03" rms="4.5341512560844421e-01" purity="6.3270986080169678e-01" nType="-99"/>
      </Node>
    </BinaryTree>
    <BinaryTree type="DecisionTree" boostWeight="1.0000000000000000e+00" itree="339">
      <Node pos="s" depth="0" NCoef="0" IVar="1" Cut="-3.5384866595268250e-01" cType="1" res="1.1607713531702757e-03" rms="4.6304851770401001e-01" purity="4.9538502097129822e-01" nType="0">
        <Node pos="l" depth="1" NCoef="0" IVar="2" Cut="7.7729862928390503e-01" cType="1" res="-2.6950139552354813e-02" rms="4.4981238245964050e-01" purity="3.0706593394279480e-01" nType="0">
          <Node pos="l" depth="2" NCoef="0" IVar="-1" Cut="0.0000000000000000e+00" cType="1" res="-1.5394433867186308e-03" rms="4.4208249449729919e-01" purity="2.8458696603775024e-01" nType="-99"/>
          <Node pos="r" depth="2" NCoef="0" IVar="-1" Cut="0.0000000000000000e+00" cType="1" res="7.9720153007656336e-04" rms="4.8891931772232056e-01" purity="4.3812221288681030e-01" nType="-99"/>
        </Node>
        <Node pos="r" depth="1" NCoef="0" IVar="3" Cut="2.9615914821624756e+00" cType="1" res="1.6358384862542152e-02" rms="4.6934854984283447e-01" purity="5.9719604253768921e-01" nType="0">
          <Node pos="l" depth="2" NCoef="0" IVar="-1" Cut="0.0000000000000000e+00" cType="1" res="6.3521531410515308e-04" rms="4.6730074286460876e-01" purity="6.2289261817932129e-01" nType="-99"/>
          <Node pos="r" depth="2" NCoef="0" IVar="-1" Cut="0.0000000000000000e+00" cType="1" res="-9.0406433446332812e-04" rms="4.7502481937408447e-01" purity="4.8403328657150269e-01" nType="-99"/>
        </Node>
      </Node>
    </BinaryTree>
    <BinaryTree type="DecisionTree" boostWeight="1.0000000000000000e+00" itree="340">
      <Node pos="s" depth="0" NCoef="0" IVar="8" Cut="3.8077440857887268e-01" cType="1" res="5.6368676014244556e-03" rms="4.6439245343208313e-01" purity="5.0024056434631348e-01" nType="0">
        <Node pos="l" depth="1" NCoef="0" IVar="6" Cut="9.7510093450546265e-01" cType="1" res="-1.9384874030947685e-02" rms="4.6524271368980408e-01" purity="4.5900198817253113e-01" nType="0">
          <Node pos="l" depth="2" NCoef="0" IVar="-1" Cut="0.0000000000000000e+00" cType="1" res="-1.1362376390025020e-03" rms="4.6387287974357605e-01" purity="4.3240195512771606e-01" nType="-99"/>
          <Node pos="r" depth="2" NCoef="0" IVar="-1" Cut="0.0000000000000000e+00" cType="1" res="4.6229053987190127e-04" rms="4.6563556790351868e-01" purity="5.0893062353134155e-01" nType="-99"/>
        </Node>
        <Node pos="r" depth="1" NCoef="0" IVar="0" Cut="1.4466241455078125e+02" cType="1" res="1.9373657181859016e-02" rms="4.6335083246231079e-01" purity="5.2288031578063965e-01" nType="0">
          <Node pos="l" depth="2" NCoef="0" IVar="-1" Cut="0.0000000000000000e+00" cType="1" res="1.0517109185457230e-03" rms="4.6477711200714111e-01" purity="5.5915832519531250e-01" nType="-99"/>
          <Node pos="r" depth="2" NCoef="0" IVar="-1" Cut="0.0000000000000000e+00" cType="1" res="-1.6110451542772353e-04" rms="4.6046689152717590e-01" purity="4.8287376761436462e-01" nType="-99"/>
        </Node>
      </Node>
    </BinaryTree>
    <BinaryTree type="DecisionTree" boostWeight="1.0000000000000000e+00" itree="341">
      <Node pos="s" depth="0" NCoef="0" IVar="0" Cut="1.7113160705566406e+02" cType="1" res="-2.9540020041167736e-03" rms="4.6587508916854858e-01" purity="4.8984050750732422e-01" nType="0">
        <Node pos="l" depth="1" NCoef="0" IVar="0" Cut="7.7051383972167969e+01" cType="1" res="1.3810238800942898e-02" rms="4.6878615021705627e-01" purity="5.1836508512496948e-01" nType="0">
          <Node pos="l" depth="2" NCoef="0" IVar="-1" Cut="0.0000000000000000e+00" cType="1" res="-1.1502482229843736e-03" rms="4.6897348761558533e-01" purity="4.7098070383071899e-01" nType="-99"/>
          <Node pos="r" depth="2" NCoef="0" IVar="-1" Cut="0.0000000000000000e+00" cType="1" res="7.0395664079114795e-04" rms="4.6779638528823853e-01" purity="5.2958601713180542e-01" nType="-99"/>
        </Node>
        <Node pos="r" depth="1" NCoef="0" IVar="4" Cut="1.9265020751953125e+02" cType="1" res="-3.1803809106349945e-02" rms="4.5939230918884277e-01" purity="4.4075223803520203e-01" nType="0">
          <Node pos="l" depth="2" NCoef="0" IVar="-1" Cut="0.0000000000000000e+00" cType="1" res="-2.0007540006190538e-03" rms="4.4991430640220642e-01" purity="3.7683793902397156e-01" nType="-99"/>
          <Node pos="r" depth="2" NCoef="0" IVar="-1" Cut="0.0000000000000000e+00" cType="1" res="3.4316679375478998e-05" rms="4.6783146262168884e-01" purity="5.1397716999053955e-01" nType="-99"/>
        </Node>
      </Node>
    </BinaryTree>
    <BinaryTree type="DecisionTree" boostWeight="1.0000000000000000e+00" itree="342">
      <Node pos="s" depth="0" NCoef="0" IVar="3" Cut="3.3032691478729248e+00" cType="1" res="6.5448209643363953e-03" rms="4.6556624770164490e-01" purity="4.9913188815116882e-01" nType="0">
        <Node pos="l" depth="1" NCoef="0" IVar="4" Cut="1.1571286773681641e+02" cType="1" res="1.2457769364118576e-02" rms="4.6790722012519836e-01" purity="5.1275753974914551e-01" nType="0">
          <Node pos="l" depth="2" NCoef="0" IVar="-1" Cut="0.0000000000000000e+00" cType="1" res="-5.5983773199841380e-04" rms="4.6371865272521973e-01" purity="4.2589709162712097e-01" nType="-99"/>
          <Node pos="r" depth="2" NCoef="0" IVar="-1" Cut="0.0000000000000000e+00" cType="1" res="5.9227814199402928e-04" rms="4.6887633204460144e-01" purity="5.4282617568969727e-01" nType="-99"/>
        </Node>
        <Node pos="r" depth="1" NCoef="0" IVar="-1" Cut="0.0000000000000000e+00" cType="1" res="-3.0496381223201752e-03" rms="4.2098250985145569e-01" purity="3.0163615942001343e-01" nType="-99"/>
      </Node>
    </BinaryTree>
    <BinaryTree type="DecisionTree" boostWeight="1.0000000000000000e+00" itree="343">
      <Node pos="s" depth="0" NCoef="0" IVar="1" Cut="2.4788556098937988e+00" cType="1" res="4.3798303231596947e-03" rms="4.6299389004707336e-01" purity="4.9792194366455078e-01" nType="0">
        <Node pos="l" depth="1" NCoef="0" IVar="2" Cut="8.2114464044570923e-01" cType="1" res="-3.5760395694524050e-03" rms="4.7001829743385315e-01" purity="4.5871597528457642e-01" nType="0">
          <Node pos="l" depth="2" NCoef="0" IVar="-1" Cut="0.0000000000000000e+00" cType="1" res="-2.7010522899217904e-04" rms="4.7057816386222839e-01" purity="4.4556057453155518e-01" nType="-99"/>
          <Node pos="r" depth="2" NCoef="0" IVar="-1" Cut="0.0000000000000000e+00" cType="1" res="1.4603600138798356e-03" rms="4.5875054597854614e-01" purity="6.0450536012649536e-01" nType="-99"/>
        </Node>
        <Node pos="r" depth="1" NCoef="0" IVar="-1" Cut="0.0000000000000000e+00" cType="1" res="1.3966171536594629e-03" rms="4.0142267942428589e-01" purity="7.9214239120483398e-01" nType="-99"/>
      </Node>
    </BinaryTree>
    <BinaryTree type="DecisionTree" boostWeight="1.0000000000000000e+00" itree="344">
      <Node pos="s" depth="0" NCoef="0" IVar="5" Cut="-6.1937145888805389e-02" cType="1" res="1.5270520234480500e-03" rms="4.6401715278625488e-01" purity="4.9357888102531433e-01" nType="0">
        <Node pos="l" depth="1" NCoef="0" IVar="2" Cut="5.3124314546585083e-01" cType="1" res="-6.2551803886890411e-02" rms="4.5607212185859680e-01" purity="3.9946025609970093e-01" nType="0">
          <Node pos="l" depth="2" NCoef="0" IVar="-1" Cut="0.0000000000000000e+00" cType="1" res="-3.5542820114642382e-03" rms="4.4605585932731628e-01" purity="3.3093106746673584e-01" nType="-99"/>
          <Node pos="r" depth="2" NCoef="0" IVar="-1" Cut="0.0000000000000000e+00" cType="1" res="-7.2810781421139836e-04" rms="4.6256121993064880e-01" purity="4.6603101491928101e-01" nType="-99"/>
        </Node>
        <Node pos="r" depth="1" NCoef="0" IVar="6" Cut="9.2769867181777954e-01" cType="1" res="8.8741667568683624e-03" rms="4.6435472369194031e-01" purity="5.0437027215957642e-01" nType="0">
          <Node pos="l" depth="2" NCoef="0" IVar="-1" Cut="0.0000000000000000e+00" cType="1" res="-1.1416048510000110e-03" rms="4.6371436119079590e-01" purity="4.3199807405471802e-01" nType="-99"/>
          <Node pos="r" depth="2" NCoef="0" IVar="-1" Cut="0.0000000000000000e+00" cType="1" res="5.2495411364361644e-04" rms="4.6380409598350525e-01" purity="5.2045160531997681e-01" nType="-99"/>
        </Node>
      </Node>
    </BinaryTree>
    <BinaryTree type="DecisionTree" boostWeight="1.0000000000000000e+00" itree="345">
      <Node pos="s" depth="0" NCoef="0" IVar="8" Cut="3.6511760950088501e-01" cType="1" res="2.8026560321450233e-03" rms="4.6528562903404236e-01" purity="4.9481478333473206e-01" nType="0">
        <Node pos="l" depth="1" NCoef="0" IVar="5" Cut="-1.4187350869178772e-02" cType="1" res="-4.0807373821735382e-02" rms="4.6133437752723694e-01" purity="4.3700933456420898e-01" nType="0">
          <Node pos="l" depth="2" NCoef="0" IVar="-1" Cut="0.0000000000000000e+00" cType="1" res="-2.4203127250075340e-03" rms="4.5353201031684875e-01" purity="3.8993850350379944e-01" nType="-99"/>
          <Node pos="r" depth="2" NCoef="0" IVar="-1" Cut="0.0000000000000000e+00" cType="1" res="-4.1498159407638013e-04" rms="4.6527597308158875e-01" purity="4.7164809703826904e-01" nType="-99"/>
        </Node>
        <Node pos="r" depth="1" NCoef="0" IVar="3" Cut="2.0492846965789795e+00" cType="1" res="1.3558019883930683e-02" rms="4.6562752127647400e-01" purity="5.0907111167907715e-01" nType="0">
          <Node pos="l" depth="2" NCoef="0" IVar="-1" Cut="0.0000000000000000e+00" cType="1" res="1.0382212931290269e-03" rms="4.6181565523147583e-01" purity="5.8162736892700195e-01" nType="-99"/>
          <Node pos="r" depth="2" NCoef="0" IVar="-1" Cut="0.0000000000000000e+00" cType="1" res="-2.3087252338882536e-04" rms="4.6722623705863953e-01" purity="4.5605161786079407e-01" nType="-99"/>
        </Node>
      </Node>
    </BinaryTree>
    <BinaryTree type="DecisionTree" boostWeight="1.0000000000000000e+00" itree="346">
      <Node pos="s" depth="0" NCoef="0" IVar="6" Cut="9.8397290706634521e-01" cType="1" res="1.0173055343329906e-02" rms="4.6467712521553040e-01" purity="5.0628089904785156e-01" nType="0">
        <Node pos="l" depth="1" NCoef="0" IVar="3" Cut="3.0253379344940186e+00" cType="1" res="-1.4745705993846059e-03" rms="4.6530222892761230e-01" purity="4.8924615979194641e-01" nType="0">
          <Node pos="l" depth="2" NCoef="0" IVar="-1" Cut="0.0000000000000000e+00" cType="1" res="2.2263366554398090e-04" rms="4.6879008412361145e-01" purity="5.1500916481018066e-01" nType="-99"/>
          <Node pos="r" depth="2" NCoef="0" IVar="-1" Cut="0.0000000000000000e+00" cType="1" res="-1.7545792507007718e-03" rms="4.4375389814376831e-01" purity="3.5825672745704651e-01" nType="-99"/>
        </Node>
        <Node pos="r" depth="1" NCoef="0" IVar="4" Cut="1.1624885559082031e+02" cType="1" res="4.3790850788354874e-02" rms="4.6122151613235474e-01" purity="5.5544704198837280e-01" nType="0">
          <Node pos="l" depth="2" NCoef="0" IVar="-1" Cut="0.0000000000000000e+00" cType="1" res="-4.4177813833812252e-06" rms="4.5836526155471802e-01" purity="4.6404641866683960e-01" nType="-99"/>
          <Node pos="r" depth="2" NCoef="0" IVar="-1" Cut="0.0000000000000000e+00" cType="1" res="1.4506359584629536e-03" rms="4.6121567487716675e-01" purity="5.8905190229415894e-01" nType="-99"/>
        </Node>
      </Node>
    </BinaryTree>
    <BinaryTree type="DecisionTree" boostWeight="1.0000000000000000e+00" itree="347">
      <Node pos="s" depth="0" NCoef="0" IVar="3" Cut="1.4365530014038086e+00" cType="1" res="-1.1123767035314813e-04" rms="4.6226397156715393e-01" purity="4.9393075704574585e-01" nType="0">
        <Node pos="l" depth="1" NCoef="0" IVar="0" Cut="8.4369064331054688e+01" cType="1" res="4.1599523276090622e-02" rms="4.6020850539207458e-01" purity="5.9305334091186523e-01" nType="0">
          <Node pos="l" depth="2" NCoef="0" IVar="-1" Cut="0.0000000000000000e+00" cType="1" res="-2.6344301295466721e-04" rms="4.6801626682281494e-01" purity="5.1318013668060303e-01" nType="-99"/>
          <Node pos="r" depth="2" NCoef="0" IVar="-1" Cut="0.0000000000000000e+00" cType="1" res="2.1334185730665922e-03" rms="4.4502007961273193e-01" purity="6.7914885282516479e-01" nType="-99"/>
        </Node>
        <Node pos="r" depth="1" NCoef="0" IVar="1" Cut="2.0888106822967529e+00" cType="1" res="-1.2638089247047901e-02" rms="4.6214503049850464e-01" purity="4.6416163444519043e-01" nType="0">
          <Node pos="l" depth="2" NCoef="0" IVar="-1" Cut="0.0000000000000000e+00" cType="1" res="-6.7267008125782013e-04" rms="4.6785694360733032e-01" purity="4.1183060407638550e-01" nType="-99"/>
          <Node pos="r" depth="2" NCoef="0" IVar="-1" Cut="0.0000000000000000e+00" cType="1" res="8.6422095773741603e-04" rms="4.2609360814094543e-01" purity="7.4775785207748413e-01" nType="-99"/>
        </Node>
      </Node>
    </BinaryTree>
    <BinaryTree type="DecisionTree" boostWeight="1.0000000000000000e+00" itree="348">
      <Node pos="s" depth="0" NCoef="0" IVar="5" Cut="-7.3017872869968414e-02" cType="1" res="1.1848848313093185e-02" rms="4.6204313635826111e-01" purity="5.0638419389724731e-01" nType="0">
        <Node pos="l" depth="1" NCoef="0" IVar="-1" Cut="0.0000000000000000e+00" cType="1" res="-2.5093609001487494e-03" rms="4.4360783696174622e-01" purity="3.7712264060974121e-01" nType="-99"/>
        <Node pos="r" depth="1" NCoef="0" IVar="1" Cut="1.9266892671585083e+00" cType="1" res="1.7250480130314827e-02" rms="4.6256655454635620e-01" purity="5.1412791013717651e-01" nType="0">
          <Node pos="l" depth="2" NCoef="0" IVar="-1" Cut="0.0000000000000000e+00" cType="1" res="1.9421488104853779e-04" rms="4.7340402007102966e-01" purity="4.5225140452384949e-01" nType="-99"/>
          <Node pos="r" depth="2" NCoef="0" IVar="-1" Cut="0.0000000000000000e+00" cType="1" res="1.3154915068298578e-03" rms="4.1111493110656738e-01" purity="7.7393716573715210e-01" nType="-99"/>
        </Node>
      </Node>
    </BinaryTree>
    <BinaryTree type="DecisionTree" boostWeight="1.0000000000000000e+00" itree="349">
      <Node pos="s" depth="0" NCoef="0" IVar="1" Cut="1.9027084112167358e+00" cType="1" res="7.3813749477267265e-03" rms="4.6397539973258972e-01" purity="5.0192803144454956e-01" nType="0">
        <Node pos="l" depth="1" NCoef="0" IVar="6" Cut="9.4637358188629150e-01" cType="1" res="-1.8310361774638295e-03" rms="4.7273552417755127e-01" purity="4.4128519296646118e-01" nType="0">
          <Node pos="l" depth="2" NCoef="0" IVar="-1" Cut="0.0000000000000000e+00" cType="1" res="-8.7172724306583405e-04" rms="4.6941724419593811e-01" purity="4.0292391180992126e-01" nType="-99"/>
          <Node pos="r" depth="2" NCoef="0" IVar="-1" Cut="0.0000000000000000e+00" cType="1" res="3.9158150320872664e-04" rms="4.7392407059669495e-01" purity="4.6344935894012451e-01" nType="-99"/>
        </Node>
        <Node pos="r" depth="1" NCoef="0" IVar="9" Cut="5.8050956577062607e-02" cType="1" res="4.5544624328613281e-02" rms="4.2364168167114258e-01" purity="7.5314658880233765e-01" nType="0">
          <Node pos="l" depth="2" NCoef="0" IVar="-1" Cut="0.0000000000000000e+00" cType="1" res="3.7765197339467704e-04" rms="4.5184990763664246e-01" purity="7.0223605632781982e-01" nType="-99"/>
          <Node pos="r" depth="2" NCoef="0" IVar="-1" Cut="0.0000000000000000e+00" cType="1" res="1.3871627161279321e-03" rms="4.0406039357185364e-01" purity="7.8489309549331665e-01" nType="-99"/>
        </Node>
      </Node>
    </BinaryTree>
    <BinaryTree type="DecisionTree" boostWeight="1.0000000000000000e+00" itree="350">
      <Node pos="s" depth="0" NCoef="0" IVar="4" Cut="1.0801997375488281e+02" cType="1" res="-2.4792209733277559e-03" rms="4.6304902434349060e-01" purity="4.9279636144638062e-01" nType="0">
        <Node pos="l" depth="1" NCoef="0" IVar="9" Cut="1.3560411334037781e-01" cType="1" res="-4.1691206395626068e-02" rms="4.5285022258758545e-01" purity="3.9100867509841919e-01" nType="0">
          <Node pos="l" depth="2" NCoef="0" IVar="-1" Cut="0.0000000000000000e+00" cType="1" res="-2.2998198401182890e-03" rms="4.4653555750846863e-01" purity="3.3935549855232239e-01" nType="-99"/>
          <Node pos="r" depth="2" NCoef="0" IVar="-1" Cut="0.0000000000000000e+00" cType="1" res="-5.8882284065475687e-05" rms="4.5993354916572571e-01" purity="4.7307768464088440e-01" nType="-99"/>
        </Node>
        <Node pos="r" depth="1" NCoef="0" IVar="3" Cut="1.4721364974975586e+00" cType="1" res="8.0868965014815331e-03" rms="4.6519401669502258e-01" purity="5.2022421360015869e-01" nType="0">
          <Node pos="l" depth="2" NCoef="0" IVar="-1" Cut="0.0000000000000000e+00" cType="1" res="1.1336973402649164e-03" rms="4.5788493752479553e-01" purity="6.1745923757553101e-01" nType="-99"/>
          <Node pos="r" depth="2" NCoef="0" IVar="-1" Cut="0.0000000000000000e+00" cType="1" res="-1.2818805407732725e-04" rms="4.6677505970001221e-01" purity="4.8933270573616028e-01" nType="-99"/>
        </Node>
      </Node>
    </BinaryTree>
    <BinaryTree type="DecisionTree" boostWeight="1.0000000000000000e+00" itree="351">
      <Node pos="s" depth="0" NCoef="0" IVar="4" Cut="1.0511065673828125e+02" cType="1" res="1.0006010532379150e-02" rms="4.6307837963104248e-01" purity="5.0657236576080322e-01" nType="0">
        <Node pos="l" depth="1" NCoef="0" IVar="4" Cut="7.8360328674316406e+01" cType="1" res="-2.8688216581940651e-02" rms="4.5764470100402832e-01" purity="4.0010812878608704e-01" nType="0">
          <Node pos="l" depth="2" NCoef="0" IVar="-1" Cut="0.0000000000000000e+00" cType="1" res="-2.8282480780035257e-03" rms="4.3804576992988586e-01" purity="3.3742150664329529e-01" nType="-99"/>
          <Node pos="r" depth="2" NCoef="0" IVar="-1" Cut="0.0000000000000000e+00" cType="1" res="-3.1826063059270382e-04" rms="4.6346762776374817e-01" purity="4.2375323176383972e-01" nType="-99"/>
        </Node>
        <Node pos="r" depth="1" NCoef="0" IVar="3" Cut="1.8433710336685181e+00" cType="1" res="1.9317736849188805e-02" rms="4.6389493346214294e-01" purity="5.3219282627105713e-01" nType="0">
          <Node pos="l" depth="2" NCoef="0" IVar="-1" Cut="0.0000000000000000e+00" cType="1" res="1.1764861410483718e-03" rms="4.6138516068458557e-01" purity="6.1411285400390625e-01" nType="-99"/>
          <Node pos="r" depth="2" NCoef="0" IVar="-1" Cut="0.0000000000000000e+00" cType="1" res="4.5349523134063929e-05" rms="4.6442091464996338e-01" purity="4.8484945297241211e-01" nType="-99"/>
        </Node>
      </Node>
    </BinaryTree>
    <BinaryTree type="DecisionTree" boostWeight="1.0000000000000000e+00" itree="352">
      <Node pos="s" depth="0" NCoef="0" IVar="1" Cut="2.5248086452484131e+00" cType="1" res="7.2245015762746334e-03" rms="4.6304917335510254e-01" purity="5.0423479080200195e-01" nType="0">
        <Node pos="l" depth="1" NCoef="0" IVar="9" Cut="7.3799714446067810e-02" cType="1" res="-1.0457179741933942e-03" rms="4.7086039185523987e-01" purity="4.6608316898345947e-01" nType="0">
          <Node pos="l" depth="2" NCoef="0" IVar="-1" Cut="0.0000000000000000e+00" cType="1" res="-6.8708008620887995e-04" rms="4.7081616520881653e-01" purity="4.2775276303291321e-01" nType="-99"/>
          <Node pos="r" depth="2" NCoef="0" IVar="-1" Cut="0.0000000000000000e+00" cType="1" res="4.9819570267572999e-04" rms="4.7001957893371582e-01" purity="4.9981486797332764e-01" nType="-99"/>
        </Node>
        <Node pos="r" depth="1" NCoef="0" IVar="-1" Cut="0.0000000000000000e+00" cType="1" res="1.5863862354308367e-03" rms="3.9010444283485413e-01" purity="8.0470150709152222e-01" nType="-99"/>
      </Node>
    </BinaryTree>
    <BinaryTree type="DecisionTree" boostWeight="1.0000000000000000e+00" itree="353">
      <Node pos="s" depth="0" NCoef="0" IVar="1" Cut="-1.3731386661529541e+00" cType="1" res="1.0701090097427368e-02" rms="4.6295818686485291e-01" purity="5.0769513845443726e-01" nType="0">
        <Node pos="l" depth="1" NCoef="0" IVar="1" Cut="-2.0165972709655762e+00" cType="1" res="-4.1623905301094055e-02" rms="4.2865976691246033e-01" purity="2.5565001368522644e-01" nType="0">
          <Node pos="l" depth="2" NCoef="0" IVar="-1" Cut="0.0000000000000000e+00" cType="1" res="-3.6863530986011028e-03" rms="4.0891548991203308e-01" purity="2.2263017296791077e-01" nType="-99"/>
          <Node pos="r" depth="2" NCoef="0" IVar="-1" Cut="0.0000000000000000e+00" cType="1" res="-9.4264594372361898e-04" rms="4.4240978360176086e-01" purity="2.8144717216491699e-01" nType="-99"/>
        </Node>
        <Node pos="r" depth="1" NCoef="0" IVar="9" Cut="3.6388207226991653e-02" cType="1" res="2.0244380459189415e-02" rms="4.6831333637237549e-01" purity="5.5366432666778564e-01" nType="0">
          <Node pos="l" depth="2" NCoef="0" IVar="-1" Cut="0.0000000000000000e+00" cType="1" res="-6.3203513855114579e-04" rms="4.7064471244812012e-01" purity="4.8676857352256775e-01" nType="-99"/>
          <Node pos="r" depth="2" NCoef="0" IVar="-1" Cut="0.0000000000000000e+00" cType="1" res="7.5582286808639765e-04" rms="4.6711212396621704e-01" purity="5.7004469633102417e-01" nType="-99"/>
        </Node>
      </Node>
    </BinaryTree>
    <BinaryTree type="DecisionTree" boostWeight="1.0000000000000000e+00" itree="354">
      <Node pos="s" depth="0" NCoef="0" IVar="4" Cut="1.0444049835205078e+02" cType="1" res="4.7321087913587689e-04" rms="4.6508613228797913e-01" purity="4.9439784884452820e-01" nType="0">
        <Node pos="l" depth="1" NCoef="0" IVar="9" Cut="1.3900613784790039e-01" cType="1" res="-4.1786666959524155e-02" rms="4.5684814453125000e-01" purity="3.8246810436248779e-01" nType="0">
          <Node pos="l" depth="2" NCoef="0" IVar="-1" Cut="0.0000000000000000e+00" cType="1" res="-2.3530072066932917e-03" rms="4.4717994332313538e-01" purity="3.3326074481010437e-01" nType="-99"/>
          <Node pos="r" depth="2" NCoef="0" IVar="-1" Cut="0.0000000000000000e+00" cType="1" res="1.5666953913751058e-05" rms="4.6908009052276611e-01" purity="4.6251976490020752e-01" nType="-99"/>
        </Node>
        <Node pos="r" depth="1" NCoef="0" IVar="5" Cut="-1.6521800309419632e-02" cType="1" res="1.0507503524422646e-02" rms="4.6645870804786682e-01" purity="5.2097475528717041e-01" nType="0">
          <Node pos="l" depth="2" NCoef="0" IVar="-1" Cut="0.0000000000000000e+00" cType="1" res="-3.5194976953789592e-04" rms="4.6434015035629272e-01" purity="4.9306881427764893e-01" nType="-99"/>
          <Node pos="r" depth="2" NCoef="0" IVar="-1" Cut="0.0000000000000000e+00" cType="1" res="6.9038837682455778e-04" rms="4.6725299954414368e-01" purity="5.4065138101577759e-01" nType="-99"/>
        </Node>
      </Node>
    </BinaryTree>
    <BinaryTree type="DecisionTree" boostWeight="1.0000000000000000e+00" itree="355">
      <Node pos="s" depth="0" NCoef="0" IVar="3" Cut="1.5179550647735596e+00" cType="1" res="-1.2776764342561364e-03" rms="4.6310859918594360e-01" purity="4.9196189641952515e-01" nType="0">
        <Node pos="l" depth="1" NCoef="0" IVar="0" Cut="1.0288856506347656e+02" cType="1" res="3.4274954348802567e-02" rms="4.5984882116317749e-01" purity="5.8616709709167480e-01" nType="0">
          <Node pos="l" depth="2" NCoef="0" IVar="-1" Cut="0.0000000000000000e+00" cType="1" res="-1.3702534488402307e-04" rms="4.6467173099517822e-01" purity="5.2586305141448975e-01" nType="-99"/>
          <Node pos="r" depth="2" NCoef="0" IVar="-1" Cut="0.0000000000000000e+00" cType="1" res="2.3204134777188301e-03" rms="4.4247388839721680e-01" purity="6.9344824552536011e-01" nType="-99"/>
        </Node>
        <Node pos="r" depth="1" NCoef="0" IVar="1" Cut="8.4067654609680176e-01" cType="1" res="-1.3420125469565392e-02" rms="4.6359249949455261e-01" purity="4.5978760719299316e-01" nType="0">
          <Node pos="l" depth="2" NCoef="0" IVar="-1" Cut="0.0000000000000000e+00" cType="1" res="-9.9160266108810902e-04" rms="4.6260276436805725e-01" purity="3.4118539094924927e-01" nType="-99"/>
          <Node pos="r" depth="2" NCoef="0" IVar="-1" Cut="0.0000000000000000e+00" cType="1" res="2.2786951740272343e-04" rms="4.6419385075569153e-01" purity="6.4889681339263916e-01" nType="-99"/>
        </Node>
      </Node>
    </BinaryTree>
    <BinaryTree type="DecisionTree" boostWeight="1.0000000000000000e+00" itree="356">
      <Node pos="s" depth="0" NCoef="0" IVar="1" Cut="-1.5149738788604736e+00" cType="1" res="2.2967695258557796e-03" rms="4.6261829137802124e-01" purity="4.9538359045982361e-01" nType="0">
        <Node pos="l" depth="1" NCoef="0" IVar="9" Cut="9.1096252202987671e-02" cType="1" res="-5.2277412265539169e-02" rms="4.2016214132308960e-01" purity="2.4234394729137421e-01" nType="0">
          <Node pos="l" depth="2" NCoef="0" IVar="-1" Cut="0.0000000000000000e+00" cType="1" res="-5.1144827157258987e-03" rms="3.8704591989517212e-01" purity="1.9025769829750061e-01" nType="-99"/>
          <Node pos="r" depth="2" NCoef="0" IVar="-1" Cut="0.0000000000000000e+00" cType="1" res="-6.5997114870697260e-04" rms="4.5117023587226868e-01" purity="2.9998973011970520e-01" nType="-99"/>
        </Node>
        <Node pos="r" depth="1" NCoef="0" IVar="6" Cut="9.6541839838027954e-01" cType="1" res="1.0910506360232830e-02" rms="4.6838766336441040e-01" purity="5.3532218933105469e-01" nType="0">
          <Node pos="l" depth="2" NCoef="0" IVar="-1" Cut="0.0000000000000000e+00" cType="1" res="-2.8755766106769443e-04" rms="4.7227942943572998e-01" purity="4.9908226728439331e-01" nType="-99"/>
          <Node pos="r" depth="2" NCoef="0" IVar="-1" Cut="0.0000000000000000e+00" cType="1" res="9.0033974265679717e-04" rms="4.6248710155487061e-01" purity="5.7773798704147339e-01" nType="-99"/>
        </Node>
      </Node>
    </BinaryTree>
    <BinaryTree type="DecisionTree" boostWeight="1.0000000000000000e+00" itree="357">
      <Node pos="s" depth="0" NCoef="0" IVar="3" Cut="1.1836661100387573e+00" cType="1" res="-1.4380841748788953e-03" rms="4.6162992715835571e-01" purity="4.9252882599830627e-01" nType="0">
        <Node pos="l" depth="1" NCoef="0" IVar="0" Cut="6.4222816467285156e+01" cType="1" res="5.1303882151842117e-02" rms="4.5260030031204224e-01" purity="6.0978388786315918e-01" nType="0">
          <Node pos="l" depth="2" NCoef="0" IVar="-1" Cut="0.0000000000000000e+00" cType="1" res="-9.7804272081702948e-04" rms="4.5669960975646973e-01" purity="4.8989275097846985e-01" nType="-99"/>
          <Node pos="r" depth="2" NCoef="0" IVar="-1" Cut="0.0000000000000000e+00" cType="1" res="2.3721512407064438e-03" rms="4.4079229235649109e-01" purity="6.8766051530838013e-01" nType="-99"/>
        </Node>
        <Node pos="r" depth="1" NCoef="0" IVar="8" Cut="3.9469021558761597e-01" cType="1" res="-1.1195000261068344e-02" rms="4.6262246370315552e-01" purity="4.7083744406700134e-01" nType="0">
          <Node pos="l" depth="2" NCoef="0" IVar="-1" Cut="0.0000000000000000e+00" cType="1" res="-7.5768574606627226e-04" rms="4.6226254105567932e-01" purity="4.4095453619956970e-01" nType="-99"/>
          <Node pos="r" depth="2" NCoef="0" IVar="-1" Cut="0.0000000000000000e+00" cType="1" res="2.8029415989294648e-04" rms="4.6232870221138000e-01" purity="5.1632463932037354e-01" nType="-99"/>
        </Node>
      </Node>
    </BinaryTree>
    <BinaryTree type="DecisionTree" boostWeight="1.0000000000000000e+00" itree="358">
      <Node pos="s" depth="0" NCoef="0" IVar="1" Cut="-1.4117867946624756e+00" cType="1" res="9.9268984049558640e-03" rms="4.6436157822608948e-01" purity="5.0471341609954834e-01" nType="0">
        <Node pos="l" depth="1" NCoef="0" IVar="4" Cut="1.3438198852539062e+02" cType="1" res="-3.6599151790142059e-02" rms="4.2937719821929932e-01" purity="2.5862577557563782e-01" nType="0">
          <Node pos="l" depth="2" NCoef="0" IVar="-1" Cut="0.0000000000000000e+00" cType="1" res="-3.7438075523823500e-03" rms="3.9825087785720825e-01" purity="2.0174320042133331e-01" nType="-99"/>
          <Node pos="r" depth="2" NCoef="0" IVar="-1" Cut="0.0000000000000000e+00" cType="1" res="-7.2330469265580177e-04" rms="4.4952890276908875e-01" purity="2.9973247647285461e-01" nType="-99"/>
        </Node>
        <Node pos="r" depth="1" NCoef="0" IVar="2" Cut="7.5595343112945557e-01" cType="1" res="1.8284887075424194e-02" rms="4.6988272666931152e-01" purity="5.4892081022262573e-01" nType="0">
          <Node pos="l" depth="2" NCoef="0" IVar="-1" Cut="0.0000000000000000e+00" cType="1" res="2.6718105073086917e-04" rms="4.7385978698730469e-01" purity="5.2431499958038330e-01" nType="-99"/>
          <Node pos="r" depth="2" NCoef="0" IVar="-1" Cut="0.0000000000000000e+00" cType="1" res="1.3292733347043395e-03" rms="4.4708499312400818e-01" purity="6.7355555295944214e-01" nType="-99"/>
        </Node>
      </Node>
    </BinaryTree>
    <BinaryTree type="DecisionTree" boostWeight="1.0000000000000000e+00" itree="359">
      <Node pos="s" depth="0" NCoef="0" IVar="6" Cut="9.9314838647842407e-01" cType="1" res="1.5483193565160036e-03" rms="4.6208542585372925e-01" purity="4.9706074595451355e-01" nType="0">
        <Node pos="l" depth="1" NCoef="0" IVar="2" Cut="7.7220016717910767e-01" cType="1" res="-5.6906859390437603e-03" rms="4.6264418959617615e-01" purity="4.8749837279319763e-01" nType="0">
          <Node pos="l" depth="2" NCoef="0" IVar="-1" Cut="0.0000000000000000e+00" cType="1" res="-4.0493914275430143e-04" rms="4.6388259530067444e-01" purity="4.6668794751167297e-01" nType="-99"/>
          <Node pos="r" depth="2" NCoef="0" IVar="-1" Cut="0.0000000000000000e+00" cType="1" res="1.0848781093955040e-03" rms="4.5207640528678894e-01" purity="6.1038541793823242e-01" nType="-99"/>
        </Node>
        <Node pos="r" depth="1" NCoef="0" IVar="0" Cut="1.4396144104003906e+02" cType="1" res="5.5808592587709427e-02" rms="4.5421701669692993e-01" purity="5.6873637437820435e-01" nType="0">
          <Node pos="l" depth="2" NCoef="0" IVar="-1" Cut="0.0000000000000000e+00" cType="1" res="1.8569558160379529e-03" rms="4.5134082436561584e-01" purity="6.0676038265228271e-01" nType="-99"/>
          <Node pos="r" depth="2" NCoef="0" IVar="-1" Cut="0.0000000000000000e+00" cType="1" res="7.7814509859308600e-04" rms="4.5618614554405212e-01" purity="5.2557611465454102e-01" nType="-99"/>
        </Node>
      </Node>
    </BinaryTree>
    <BinaryTree type="DecisionTree" boostWeight="1.0000000000000000e+00" itree="360">
      <Node pos="s" depth="0" NCoef="0" IVar="5" Cut="-6.8549871444702148e-02" cType="1" res="5.1872213371098042e-03" rms="4.6301513910293579e-01" purity="4.9943360686302185e-01" nType="0">
        <Node pos="l" depth="1" NCoef="0" IVar="-1" Cut="0.0000000000000000e+00" cType="1" res="-2.3811256978660822e-03" rms="4.4430834054946899e-01" purity="3.7872666120529175e-01" nType="-99"/>
        <Node pos="r" depth="1" NCoef="0" IVar="6" Cut="9.9008220434188843e-01" cType="1" res="1.1216110549867153e-02" rms="4.6382868289947510e-01" purity="5.0849717855453491e-01" nType="0">
          <Node pos="l" depth="2" NCoef="0" IVar="-1" Cut="0.0000000000000000e+00" cType="1" res="7.2521143010817468e-05" rms="4.6467626094818115e-01" purity="4.9655371904373169e-01" nType="-99"/>
          <Node pos="r" depth="2" NCoef="0" IVar="-1" Cut="0.0000000000000000e+00" cType="1" res="1.3273850781843066e-03" rms="4.5727634429931641e-01" purity="5.6747877597808838e-01" nType="-99"/>
        </Node>
      </Node>
    </BinaryTree>
    <BinaryTree type="DecisionTree" boostWeight="1.0000000000000000e+00" itree="361">
      <Node pos="s" depth="0" NCoef="0" IVar="3" Cut="1.9780052900314331e+00" cType="1" res="9.2239463701844215e-03" rms="4.6409511566162109e-01" purity="5.0314897298812866e-01" nType="0">
        <Node pos="l" depth="1" NCoef="0" IVar="0" Cut="9.0393470764160156e+01" cType="1" res="3.5758677870035172e-02" rms="4.6302044391632080e-01" purity="5.7619547843933105e-01" nType="0">
          <Node pos="l" depth="2" NCoef="0" IVar="-1" Cut="0.0000000000000000e+00" cType="1" res="-2.9875422114855610e-05" rms="4.6754997968673706e-01" purity="5.1925557851791382e-01" nType="-99"/>
          <Node pos="r" depth="2" NCoef="0" IVar="-1" Cut="0.0000000000000000e+00" cType="1" res="1.4424637192860246e-03" rms="4.5829817652702332e-01" purity="6.1436706781387329e-01" nType="-99"/>
        </Node>
        <Node pos="r" depth="1" NCoef="0" IVar="4" Cut="2.8980111694335938e+02" cType="1" res="-9.4923563301563263e-03" rms="4.6393978595733643e-01" purity="4.5162543654441833e-01" nType="0">
          <Node pos="l" depth="2" NCoef="0" IVar="-1" Cut="0.0000000000000000e+00" cType="1" res="-5.7204841868951917e-04" rms="4.6240854263305664e-01" purity="4.3356555700302124e-01" nType="-99"/>
          <Node pos="r" depth="2" NCoef="0" IVar="-1" Cut="0.0000000000000000e+00" cType="1" res="1.4097066596150398e-03" rms="4.6908944845199585e-01" purity="5.8044749498367310e-01" nType="-99"/>
        </Node>
      </Node>
    </BinaryTree>
    <BinaryTree type="DecisionTree" boostWeight="1.0000000000000000e+00" itree="362">
      <Node pos="s" depth="0" NCoef="0" IVar="9" Cut="4.5456856489181519e-02" cType="1" res="1.8083702307194471e-03" rms="4.6521738171577454e-01" purity="4.9368357658386230e-01" nType="0">
        <Node pos="l" depth="1" NCoef="0" IVar="4" Cut="2.0198194885253906e+02" cType="1" res="-3.1168017536401749e-02" rms="4.6260276436805725e-01" purity="4.4479575753211975e-01" nType="0">
          <Node pos="l" depth="2" NCoef="0" IVar="-1" Cut="0.0000000000000000e+00" cType="1" res="-2.5484734214842319e-03" rms="4.5058131217956543e-01" purity="3.5487380623817444e-01" nType="-99"/>
          <Node pos="r" depth="2" NCoef="0" IVar="-1" Cut="0.0000000000000000e+00" cType="1" res="1.0091371223097667e-04" rms="4.6905577182769775e-01" purity="5.1668298244476318e-01" nType="-99"/>
        </Node>
        <Node pos="r" depth="1" NCoef="0" IVar="4" Cut="9.3819686889648438e+01" cType="1" res="1.3656121678650379e-02" rms="4.6558320522308350e-01" purity="5.1124799251556396e-01" nType="0">
          <Node pos="l" depth="2" NCoef="0" IVar="-1" Cut="0.0000000000000000e+00" cType="1" res="-1.2877245899289846e-03" rms="4.5830801129341125e-01" purity="3.8585191965103149e-01" nType="-99"/>
          <Node pos="r" depth="2" NCoef="0" IVar="-1" Cut="0.0000000000000000e+00" cType="1" res="6.2124687246978283e-04" rms="4.6628120541572571e-01" purity="5.3531795740127563e-01" nType="-99"/>
        </Node>
      </Node>
    </BinaryTree>
    <BinaryTree type="DecisionTree" boostWeight="1.0000000000000000e+00" itree="363">
      <Node pos="s" depth="0" NCoef="0" IVar="8" Cut="4.1304174065589905e-01" cType="1" res="2.5089480914175510e-03" rms="4.6291700005531311e-01" purity="4.9594783782958984e-01" nType="0">
        <Node pos="l" depth="1" NCoef="0" IVar="2" Cut="7.7715414762496948e-01" cType="1" res="-3.1065780203789473e-03" rms="4.6287915110588074e-01" purity="4.8549854755401611e-01" nType="0">
          <Node pos="l" depth="2" NCoef="0" IVar="-1" Cut="0.0000000000000000e+00" cType="1" res="-3.0580349266529083e-04" rms="4.6410256624221802e-01" purity="4.6601152420043945e-01" nType="-99"/>
          <Node pos="r" depth="2" NCoef="0" IVar="-1" Cut="0.0000000000000000e+00" cType="1" res="1.1244532652199268e-03" rms="4.5176523923873901e-01" purity="6.1178386211395264e-01" nType="-99"/>
        </Node>
        <Node pos="r" depth="1" NCoef="0" IVar="-1" Cut="0.0000000000000000e+00" cType="1" res="1.8388822209089994e-03" rms="4.5626857876777649e-01" purity="6.4199107885360718e-01" nType="-99"/>
      </Node>
    </BinaryTree>
    <BinaryTree type="DecisionTree" boostWeight="1.0000000000000000e+00" itree="364">
      <Node pos="s" depth="0" NCoef="0" IVar="3" Cut="2.5034391880035400e+00" cType="1" res="2.3365099914371967e-03" rms="4.6191114187240601e-01" purity="4.9814352393150330e-01" nType="0">
        <Node pos="l" depth="1" NCoef="0" IVar="0" Cut="8.7488151550292969e+01" cType="1" res="1.9021458923816681e-02" rms="4.6527054905891418e-01" purity="5.4302024841308594e-01" nType="0">
          <Node pos="l" depth="2" NCoef="0" IVar="-1" Cut="0.0000000000000000e+00" cType="1" res="-7.9486786853522062e-04" rms="4.6211582422256470e-01" purity="4.8981526494026184e-01" nType="-99"/>
          <Node pos="r" depth="2" NCoef="0" IVar="-1" Cut="0.0000000000000000e+00" cType="1" res="9.3857245519757271e-04" rms="4.6515959501266479e-01" purity="5.6296628713607788e-01" nType="-99"/>
        </Node>
        <Node pos="r" depth="1" NCoef="0" IVar="2" Cut="5.8470827341079712e-01" cType="1" res="-2.3489581421017647e-02" rms="4.5545884966850281e-01" purity="4.2868036031723022e-01" nType="0">
          <Node pos="l" depth="2" NCoef="0" IVar="-1" Cut="0.0000000000000000e+00" cType="1" res="-1.7779795452952385e-03" rms="4.4792038202285767e-01" purity="3.5819593071937561e-01" nType="-99"/>
          <Node pos="r" depth="2" NCoef="0" IVar="-1" Cut="0.0000000000000000e+00" cType="1" res="1.5003640146460384e-04" rms="4.6110659837722778e-01" purity="4.9952116608619690e-01" nType="-99"/>
        </Node>
      </Node>
    </BinaryTree>
    <BinaryTree type="DecisionTree" boostWeight="1.0000000000000000e+00" itree="365">
      <Node pos="s" depth="0" NCoef="0" IVar="1" Cut="1.2562811374664307e+00" cType="1" res="8.9611653238534927e-03" rms="4.6201860904693604e-01" purity="5.0511872768402100e-01" nType="0">
        <Node pos="l" depth="1" NCoef="0" IVar="2" Cut="7.9949992895126343e-01" cType="1" res="-5.1148808561265469e-03" rms="4.7094869613647461e-01" purity="4.0753430128097534e-01" nType="0">
          <Node pos="l" depth="2" NCoef="0" IVar="-1" Cut="0.0000000000000000e+00" cType="1" res="-4.1594263166189194e-04" rms="4.6850880980491638e-01" purity="3.9000755548477173e-01" nType="-99"/>
          <Node pos="r" depth="2" NCoef="0" IVar="-1" Cut="0.0000000000000000e+00" cType="1" res="1.4875227352604270e-03" rms="4.8553639650344849e-01" purity="5.5175685882568359e-01" nType="-99"/>
        </Node>
        <Node pos="r" depth="1" NCoef="0" IVar="6" Cut="9.6249425411224365e-01" cType="1" res="3.9297137409448624e-02" rms="4.4063404202461243e-01" purity="7.1542775630950928e-01" nType="0">
          <Node pos="l" depth="2" NCoef="0" IVar="-1" Cut="0.0000000000000000e+00" cType="1" res="4.9977109301835299e-04" rms="4.5209792256355286e-01" purity="6.8842732906341553e-01" nType="-99"/>
          <Node pos="r" depth="2" NCoef="0" IVar="-1" Cut="0.0000000000000000e+00" cType="1" res="1.2007509358227253e-03" rms="4.2863434553146362e-01" purity="7.4160641431808472e-01" nType="-99"/>
        </Node>
      </Node>
    </BinaryTree>
    <BinaryTree type="DecisionTree" boostWeight="1.0000000000000000e+00" itree="366">
      <Node pos="s" depth="0" NCoef="0" IVar="3" Cut="3.1906056404113770e+00" cType="1" res="6.4610707340762019e-04" rms="4.6404519677162170e-01" purity="4.9196323752403259e-01" nType="0">
        <Node pos="l" depth="1" NCoef="0" IVar="4" Cut="3.4413967895507812e+02" cType="1" res="7.9684909433126450e-03" rms="4.6691364049911499e-01" purity="5.0984257459640503e-01" nType="0">
          <Node pos="l" depth="2" NCoef="0" IVar="-1" Cut="0.0000000000000000e+00" cType="1" res="2.0438341380213387e-05" rms="4.6747106313705444e-01" purity="4.9585354328155518e-01" nType="-99"/>
          <Node pos="r" depth="2" NCoef="0" IVar="-1" Cut="0.0000000000000000e+00" cType="1" res="1.6901220660656691e-03" rms="4.5617732405662537e-01" purity="6.4054894447326660e-01" nType="-99"/>
        </Node>
        <Node pos="r" depth="1" NCoef="0" IVar="-1" Cut="0.0000000000000000e+00" cType="1" res="-2.7758986689150333e-03" rms="4.2766901850700378e-01" purity="3.1394630670547485e-01" nType="-99"/>
      </Node>
    </BinaryTree>
    <BinaryTree type="DecisionTree" boostWeight="1.0000000000000000e+00" itree="367">
      <Node pos="s" depth="0" NCoef="0" IVar="9" Cut="2.0373466610908508e-01" cType="1" res="1.0571283055469394e-03" rms="4.6266371011734009e-01" purity="4.9615561962127686e-01" nType="0">
        <Node pos="l" depth="1" NCoef="0" IVar="4" Cut="1.2019658660888672e+02" cType="1" res="-4.4502876698970795e-03" rms="4.6290856599807739e-01" purity="4.8744204640388489e-01" nType="0">
          <Node pos="l" depth="2" NCoef="0" IVar="-1" Cut="0.0000000000000000e+00" cType="1" res="-1.2066625058650970e-03" rms="4.5511490106582642e-01" purity="3.8681367039680481e-01" nType="-99"/>
          <Node pos="r" depth="2" NCoef="0" IVar="-1" Cut="0.0000000000000000e+00" cType="1" res="1.8375310173723847e-04" rms="4.6506494283676147e-01" purity="5.2270102500915527e-01" nType="-99"/>
        </Node>
        <Node pos="r" depth="1" NCoef="0" IVar="-1" Cut="0.0000000000000000e+00" cType="1" res="1.6027656383812428e-03" rms="4.5483556389808655e-01" purity="5.9831875562667847e-01" nType="-99"/>
      </Node>
    </BinaryTree>
    <BinaryTree type="DecisionTree" boostWeight="1.0000000000000000e+00" itree="368">
      <Node pos="s" depth="0" NCoef="0" IVar="1" Cut="-9.7278243303298950e-01" cType="1" res="6.5672826021909714e-03" rms="4.6116593480110168e-01" purity="5.0265586376190186e-01" nType="0">
        <Node pos="l" depth="1" NCoef="0" IVar="1" Cut="-2.1739501953125000e+00" cType="1" res="-3.7246193736791611e-02" rms="4.3642216920852661e-01" purity="2.6747983694076538e-01" nType="0">
          <Node pos="l" depth="2" NCoef="0" IVar="-1" Cut="0.0000000000000000e+00" cType="1" res="-4.0448349900543690e-03" rms="4.0221211314201355e-01" purity="2.1375013887882233e-01" nType="-99"/>
          <Node pos="r" depth="2" NCoef="0" IVar="-1" Cut="0.0000000000000000e+00" cType="1" res="-1.1025217827409506e-03" rms="4.4611024856567383e-01" purity="2.8453299403190613e-01" nType="-99"/>
        </Node>
        <Node pos="r" depth="1" NCoef="0" IVar="5" Cut="-6.7797765135765076e-02" cType="1" res="1.9209919497370720e-02" rms="4.6729966998100281e-01" purity="5.7051736116409302e-01" nType="0">
          <Node pos="l" depth="2" NCoef="0" IVar="-1" Cut="0.0000000000000000e+00" cType="1" res="-1.6623573610559106e-03" rms="4.6254360675811768e-01" purity="4.5614397525787354e-01" nType="-99"/>
          <Node pos="r" depth="2" NCoef="0" IVar="-1" Cut="0.0000000000000000e+00" cType="1" res="6.0310936532914639e-04" rms="4.6712824702262878e-01" purity="5.7911455631256104e-01" nType="-99"/>
        </Node>
      </Node>
    </BinaryTree>
    <BinaryTree type="DecisionTree" boostWeight="1.0000000000000000e+00" itree="369">
      <Node pos="s" depth="0" NCoef="0" IVar="1" Cut="2.1775078773498535e+00" cType="1" res="5.3179315291345119e-03" rms="4.6295818686485291e-01" purity="5.0062912702560425e-01" nType="0">
        <Node pos="l" depth="1" NCoef="0" IVar="6" Cut="9.1666299104690552e-01" cType="1" res="-3.6441078409552574e-03" rms="4.7168487310409546e-01" purity="4.4902580976486206e-01" nType="0">
          <Node pos="l" depth="2" NCoef="0" IVar="-1" Cut="0.0000000000000000e+00" cType="1" res="-1.6357076819986105e-03" rms="4.6864420175552368e-01" purity="3.7661892175674438e-01" nType="-99"/>
          <Node pos="r" depth="2" NCoef="0" IVar="-1" Cut="0.0000000000000000e+00" cType="1" res="7.6939133577980101e-05" rms="4.7169548273086548e-01" purity="4.5830336213111877e-01" nType="-99"/>
        </Node>
        <Node pos="r" depth="1" NCoef="0" IVar="-1" Cut="0.0000000000000000e+00" cType="1" res="1.1778861517086625e-03" rms="4.0991675853729248e-01" purity="7.7633005380630493e-01" nType="-99"/>
      </Node>
    </BinaryTree>
    <BinaryTree type="DecisionTree" boostWeight="1.0000000000000000e+00" itree="370">
      <Node pos="s" depth="0" NCoef="0" IVar="1" Cut="2.3666744232177734e+00" cType="1" res="1.1103174649178982e-02" rms="4.6019610762596130e-01" purity="5.0778084993362427e-01" nType="0">
        <Node pos="l" depth="1" NCoef="0" IVar="4" Cut="1.8870053100585938e+02" cType="1" res="2.2765400353819132e-03" rms="4.6870136260986328e-01" purity="4.6428734064102173e-01" nType="0">
          <Node pos="l" depth="2" NCoef="0" IVar="-1" Cut="0.0000000000000000e+00" cType="1" res="-4.3540235492400825e-04" rms="4.6451729536056519e-01" purity="4.2510241270065308e-01" nType="-99"/>
          <Node pos="r" depth="2" NCoef="0" IVar="-1" Cut="0.0000000000000000e+00" cType="1" res="8.2472397480159998e-04" rms="4.7471889853477478e-01" purity="5.3581053018569946e-01" nType="-99"/>
        </Node>
        <Node pos="r" depth="1" NCoef="0" IVar="-1" Cut="0.0000000000000000e+00" cType="1" res="1.5388140454888344e-03" rms="3.9279103279113770e-01" purity="8.0180299282073975e-01" nType="-99"/>
      </Node>
    </BinaryTree>
    <BinaryTree type="DecisionTree" boostWeight="1.0000000000000000e+00" itree="371">
      <Node pos="s" depth="0" NCoef="0" IVar="8" Cut="4.0697473287582397e-01" cType="1" res="2.4416816886514425e-03" rms="4.6307340264320374e-01" purity="4.9769568443298340e-01" nType="0">
        <Node pos="l" depth="1" NCoef="0" IVar="2" Cut="5.3941172361373901e-01" cType="1" res="-6.6260024905204773e-03" rms="4.6224954724311829e-01" purity="4.7985216975212097e-01" nType="0">
          <Node pos="l" depth="2" NCoef="0" IVar="-1" Cut="0.0000000000000000e+00" cType="1" res="-1.0719901183620095e-03" rms="4.5945265889167786e-01" purity="4.1152414679527283e-01" nType="-99"/>
          <Node pos="r" depth="2" NCoef="0" IVar="-1" Cut="0.0000000000000000e+00" cType="1" res="2.9524319688789546e-04" rms="4.6310392022132874e-01" purity="5.2247792482376099e-01" nType="-99"/>
        </Node>
        <Node pos="r" depth="1" NCoef="0" IVar="0" Cut="1.4762677001953125e+02" cType="1" res="5.9876739978790283e-02" rms="4.6416172385215759e-01" purity="6.1071699857711792e-01" nType="0">
          <Node pos="l" depth="2" NCoef="0" IVar="-1" Cut="0.0000000000000000e+00" cType="1" res="2.1881042048335075e-03" rms="4.5402136445045471e-01" purity="6.6174781322479248e-01" nType="-99"/>
          <Node pos="r" depth="2" NCoef="0" IVar="-1" Cut="0.0000000000000000e+00" cType="1" res="4.9276207573711872e-04" rms="4.7200584411621094e-01" purity="5.5318433046340942e-01" nType="-99"/>
        </Node>
      </Node>
    </BinaryTree>
    <BinaryTree type="DecisionTree" boostWeight="1.0000000000000000e+00" itree="372">
      <Node pos="s" depth="0" NCoef="0" IVar="6" Cut="9.7131472826004028e-01" cType="1" res="7.8899605432525277e-04" rms="4.6046045422554016e-01" purity="4.9716746807098389e-01" nType="0">
        <Node pos="l" depth="1" NCoef="0" IVar="1" Cut="7.8235363960266113e-01" cType="1" res="-1.9841337576508522e-02" rms="4.6040430665016174e-01" purity="4.6666613221168518e-01" nType="0">
          <Node pos="l" depth="2" NCoef="0" IVar="-1" Cut="0.0000000000000000e+00" cType="1" res="-1.2964321067556739e-03" rms="4.5800539851188660e-01" purity="3.4440785646438599e-01" nType="-99"/>
          <Node pos="r" depth="2" NCoef="0" IVar="-1" Cut="0.0000000000000000e+00" cType="1" res="1.5804456779733300e-04" rms="4.6259787678718567e-01" purity="6.4638745784759521e-01" nType="-99"/>
        </Node>
        <Node pos="r" depth="1" NCoef="0" IVar="4" Cut="1.1821759796142578e+02" cType="1" res="3.1097164377570152e-02" rms="4.5886373519897461e-01" purity="5.4197710752487183e-01" nType="0">
          <Node pos="l" depth="2" NCoef="0" IVar="-1" Cut="0.0000000000000000e+00" cType="1" res="-7.6116929994896054e-04" rms="4.5447444915771484e-01" purity="4.2621898651123047e-01" nType="-99"/>
          <Node pos="r" depth="2" NCoef="0" IVar="-1" Cut="0.0000000000000000e+00" cType="1" res="1.2786455918103456e-03" rms="4.5876854658126831e-01" purity="5.8456772565841675e-01" nType="-99"/>
        </Node>
      </Node>
    </BinaryTree>
    <BinaryTree type="DecisionTree" boostWeight="1.0000000000000000e+00" itree="373">
      <Node pos="s" depth="0" NCoef="0" IVar="6" Cut="9.7129935026168823e-01" cType="1" res="9.5700947567820549e-03" rms="4.6609774231910706e-01" purity="5.0118875503540039e-01" nType="0">
        <Node pos="l" depth="1" NCoef="0" IVar="0" Cut="8.7231880187988281e+01" cType="1" res="-6.4540896564722061e-03" rms="4.6795868873596191e-01" purity="4.7432994842529297e-01" nType="0">
          <Node pos="l" depth="2" NCoef="0" IVar="-1" Cut="0.0000000000000000e+00" cType="1" res="-1.4988449402153492e-03" rms="4.6895155310630798e-01" purity="4.3899965286254883e-01" nType="-99"/>
          <Node pos="r" depth="2" NCoef="0" IVar="-1" Cut="0.0000000000000000e+00" cType="1" res="7.8811579442117363e-05" rms="4.6721023321151733e-01" purity="4.8144847154617310e-01" nType="-99"/>
        </Node>
        <Node pos="r" depth="1" NCoef="0" IVar="8" Cut="3.5793322324752808e-01" cType="1" res="3.3511321991682053e-02" rms="4.6226966381072998e-01" purity="5.4131758213043213e-01" nType="0">
          <Node pos="l" depth="2" NCoef="0" IVar="-1" Cut="0.0000000000000000e+00" cType="1" res="-5.2291271276772022e-04" rms="4.7254037857055664e-01" purity="4.7124809026718140e-01" nType="-99"/>
          <Node pos="r" depth="2" NCoef="0" IVar="-1" Cut="0.0000000000000000e+00" cType="1" res="1.0858287569135427e-03" rms="4.5988145470619202e-01" purity="5.5345761775970459e-01" nType="-99"/>
        </Node>
      </Node>
    </BinaryTree>
    <BinaryTree type="DecisionTree" boostWeight="1.0000000000000000e+00" itree="374">
      <Node pos="s" depth="0" NCoef="0" IVar="8" Cut="3.5287693142890930e-01" cType="1" res="6.3127023167908192e-03" rms="4.6427157521247864e-01" purity="4.9941423535346985e-01" nType="0">
        <Node pos="l" depth="1" NCoef="0" IVar="7" Cut="4.4767320156097412e-02" cType="1" res="-4.4440403580665588e-02" rms="4.5954996347427368e-01" purity="4.2852342128753662e-01" nType="0">
          <Node pos="l" depth="2" NCoef="0" IVar="-1" Cut="0.0000000000000000e+00" cType="1" res="-4.3425540206953883e-04" rms="4.6214666962623596e-01" purity="4.7079765796661377e-01" nType="-99"/>
          <Node pos="r" depth="2" NCoef="0" IVar="-1" Cut="0.0000000000000000e+00" cType="1" res="-2.4220966733992100e-03" rms="4.5452779531478882e-01" purity="3.8203555345535278e-01" nType="-99"/>
        </Node>
        <Node pos="r" depth="1" NCoef="0" IVar="1" Cut="-1.7638891935348511e+00" cType="1" res="1.3492881320416927e-02" rms="4.6448811888694763e-01" purity="5.0944340229034424e-01" nType="0">
          <Node pos="l" depth="2" NCoef="0" IVar="-1" Cut="0.0000000000000000e+00" cType="1" res="-1.9892442505806684e-03" rms="4.2603805661201477e-01" purity="2.4797487258911133e-01" nType="-99"/>
          <Node pos="r" depth="2" NCoef="0" IVar="-1" Cut="0.0000000000000000e+00" cType="1" res="4.9496127758175135e-04" rms="4.6823766827583313e-01" purity="5.3875339031219482e-01" nType="-99"/>
        </Node>
      </Node>
    </BinaryTree>
    <BinaryTree type="DecisionTree" boostWeight="1.0000000000000000e+00" itree="375">
      <Node pos="s" depth="0" NCoef="0" IVar="3" Cut="1.3515068292617798e+00" cType="1" res="2.8262233827263117e-03" rms="4.6365582942962646e-01" purity="4.9601590633392334e-01" nType="0">
        <Node pos="l" depth="1" NCoef="0" IVar="0" Cut="6.9007179260253906e+01" cType="1" res="4.3692342936992645e-02" rms="4.6085053682327271e-01" purity="5.9822720289230347e-01" nType="0">
          <Node pos="l" depth="2" NCoef="0" IVar="-1" Cut="0.0000000000000000e+00" cType="1" res="-8.1191066419705749e-04" rms="4.6907818317413330e-01" purity="4.8881718516349792e-01" nType="-99"/>
          <Node pos="r" depth="2" NCoef="0" IVar="-1" Cut="0.0000000000000000e+00" cType="1" res="2.0183871965855360e-03" rms="4.4971981644630432e-01" purity="6.6525703668594360e-01" nType="-99"/>
        </Node>
        <Node pos="r" depth="1" NCoef="0" IVar="8" Cut="3.9888709783554077e-01" cType="1" res="-7.2715696878731251e-03" rms="4.6379193663597107e-01" purity="4.7076004743576050e-01" nType="0">
          <Node pos="l" depth="2" NCoef="0" IVar="-1" Cut="0.0000000000000000e+00" cType="1" res="-5.8162194909527898e-04" rms="4.6459475159645081e-01" purity="4.4249480962753296e-01" nType="-99"/>
          <Node pos="r" depth="2" NCoef="0" IVar="-1" Cut="0.0000000000000000e+00" cType="1" res="5.4425449343398213e-04" rms="4.6071255207061768e-01" purity="5.3549820184707642e-01" nType="-99"/>
        </Node>
      </Node>
    </BinaryTree>
    <BinaryTree type="DecisionTree" boostWeight="1.0000000000000000e+00" itree="376">
      <Node pos="s" depth="0" NCoef="0" IVar="1" Cut="1.7763075828552246e+00" cType="1" res="-3.2280911691486835e-03" rms="4.6042153239250183e-01" purity="4.9178570508956909e-01" nType="0">
        <Node pos="l" depth="1" NCoef="0" IVar="0" Cut="8.5667480468750000e+01" cType="1" res="-1.6585381701588631e-02" rms="4.6980211138725281e-01" purity="4.1761091351509094e-01" nType="0">
          <Node pos="l" depth="2" NCoef="0" IVar="-1" Cut="0.0000000000000000e+00" cType="1" res="-2.2559275384992361e-03" rms="4.6395859122276306e-01" purity="3.8048398494720459e-01" nType="-99"/>
          <Node pos="r" depth="2" NCoef="0" IVar="-1" Cut="0.0000000000000000e+00" cType="1" res="-1.8833192007150501e-04" rms="4.7016346454620361e-01" purity="4.2449876666069031e-01" nType="-99"/>
        </Node>
        <Node pos="r" depth="1" NCoef="0" IVar="1" Cut="2.7056024074554443e+00" cType="1" res="4.3171126395463943e-02" rms="4.2297011613845825e-01" purity="7.4944669008255005e-01" nType="0">
          <Node pos="l" depth="2" NCoef="0" IVar="-1" Cut="0.0000000000000000e+00" cType="1" res="5.0770479720085859e-04" rms="4.4731086492538452e-01" purity="7.0570743083953857e-01" nType="-99"/>
          <Node pos="r" depth="2" NCoef="0" IVar="-1" Cut="0.0000000000000000e+00" cType="1" res="1.5937827993184328e-03" rms="3.8476908206939697e-01" purity="8.1034529209136963e-01" nType="-99"/>
        </Node>
      </Node>
    </BinaryTree>
    <BinaryTree type="DecisionTree" boostWeight="1.0000000000000000e+00" itree="377">
      <Node pos="s" depth="0" NCoef="0" IVar="9" Cut="4.5733585953712463e-02" cType="1" res="5.5979099124670029e-03" rms="4.6309506893157959e-01" purity="5.0006812810897827e-01" nType="0">
        <Node pos="l" depth="1" NCoef="0" IVar="6" Cut="9.5422857999801636e-01" cType="1" res="-2.3745959624648094e-02" rms="4.6190720796585083e-01" purity="4.5191255211830139e-01" nType="0">
          <Node pos="l" depth="2" NCoef="0" IVar="-1" Cut="0.0000000000000000e+00" cType="1" res="-1.8288133433088660e-03" rms="4.5321580767631531e-01" purity="4.0285742282867432e-01" nType="-99"/>
          <Node pos="r" depth="2" NCoef="0" IVar="-1" Cut="0.0000000000000000e+00" cType="1" res="1.5270868607331067e-04" rms="4.6673214435577393e-01" purity="4.9141505360603333e-01" nType="-99"/>
        </Node>
        <Node pos="r" depth="1" NCoef="0" IVar="4" Cut="1.1283504486083984e+02" cType="1" res="1.6324130818247795e-02" rms="4.6306467056274414e-01" purity="5.1767075061798096e-01" nType="0">
          <Node pos="l" depth="2" NCoef="0" IVar="-1" Cut="0.0000000000000000e+00" cType="1" res="-3.8901960942894220e-04" rms="4.6270737051963806e-01" purity="4.2372098565101624e-01" nType="-99"/>
          <Node pos="r" depth="2" NCoef="0" IVar="-1" Cut="0.0000000000000000e+00" cType="1" res="7.3424889706075191e-04" rms="4.6266987919807434e-01" purity="5.5740654468536377e-01" nType="-99"/>
        </Node>
      </Node>
    </BinaryTree>
    <BinaryTree type="DecisionTree" boostWeight="1.0000000000000000e+00" itree="378">
      <Node pos="s" depth="0" NCoef="0" IVar="3" Cut="3.2984468936920166e+00" cType="1" res="4.2885583825409412e-03" rms="4.6295240521430969e-01" purity="4.9797165393829346e-01" nType="0">
        <Node pos="l" depth="1" NCoef="0" IVar="6" Cut="9.9313986301422119e-01" cType="1" res="9.7039788961410522e-03" rms="4.6526610851287842e-01" purity="5.1225757598876953e-01" nType="0">
          <Node pos="l" depth="2" NCoef="0" IVar="-1" Cut="0.0000000000000000e+00" cType="1" res="7.6668256951961666e-05" rms="4.6589231491088867e-01" purity="5.0296419858932495e-01" nType="-99"/>
          <Node pos="r" depth="2" NCoef="0" IVar="-1" Cut="0.0000000000000000e+00" cType="1" res="1.5030688373371959e-03" rms="4.5706656575202942e-01" purity="5.8306258916854858e-01" nType="-99"/>
        </Node>
        <Node pos="r" depth="1" NCoef="0" IVar="-1" Cut="0.0000000000000000e+00" cType="1" res="-2.8606876730918884e-03" rms="4.2147868871688843e-01" purity="2.9580125212669373e-01" nType="-99"/>
      </Node>
    </BinaryTree>
    <BinaryTree type="DecisionTree" boostWeight="1.0000000000000000e+00" itree="379">
      <Node pos="s" depth="0" NCoef="0" IVar="1" Cut="-5.5259698629379272e-01" cType="1" res="4.5571285299956799e-03" rms="4.6168267726898193e-01" purity="5.0152683258056641e-01" nType="0">
        <Node pos="l" depth="1" NCoef="0" IVar="3" Cut="2.6597037315368652e+00" cType="1" res="-2.7617735788226128e-02" rms="4.4490495324134827e-01" purity="2.9578077793121338e-01" nType="0">
          <Node pos="l" depth="2" NCoef="0" IVar="-1" Cut="0.0000000000000000e+00" cType="1" res="-3.1107917311601341e-04" rms="4.6546217799186707e-01" purity="3.4029096364974976e-01" nType="-99"/>
          <Node pos="r" depth="2" NCoef="0" IVar="-1" Cut="0.0000000000000000e+00" cType="1" res="-3.6261593922972679e-03" rms="3.9757657051086426e-01" purity="2.0622062683105469e-01" nType="-99"/>
        </Node>
        <Node pos="r" depth="1" NCoef="0" IVar="3" Cut="1.6462959051132202e+00" cType="1" res="1.8773404881358147e-02" rms="4.6820086240768433e-01" purity="5.9243446588516235e-01" nType="0">
          <Node pos="l" depth="2" NCoef="0" IVar="-1" Cut="0.0000000000000000e+00" cType="1" res="1.2175983283668756e-03" rms="4.4874709844589233e-01" purity="6.7508900165557861e-01" nType="-99"/>
          <Node pos="r" depth="2" NCoef="0" IVar="-1" Cut="0.0000000000000000e+00" cType="1" res="5.8355421060696244e-05" rms="4.7576710581779480e-01" purity="5.5531275272369385e-01" nType="-99"/>
        </Node>
      </Node>
    </BinaryTree>
    <BinaryTree type="DecisionTree" boostWeight="1.0000000000000000e+00" itree="380">
      <Node pos="s" depth="0" NCoef="0" IVar="3" Cut="3.1424582004547119e+00" cType="1" res="2.7963514439761639e-03" rms="4.5972698926925659e-01" purity="4.9858424067497253e-01" nType="0">
        <Node pos="l" depth="1" NCoef="0" IVar="4" Cut="1.0341583251953125e+02" cType="1" res="1.0514124296605587e-02" rms="4.6283018589019775e-01" purity="5.1958549022674561e-01" nType="0">
          <Node pos="l" depth="2" NCoef="0" IVar="-1" Cut="0.0000000000000000e+00" cType="1" res="-1.1655302951112390e-03" rms="4.5450413227081299e-01" purity="3.9908593893051147e-01" nType="-99"/>
          <Node pos="r" depth="2" NCoef="0" IVar="-1" Cut="0.0000000000000000e+00" cType="1" res="5.2798510296270251e-04" rms="4.6399196982383728e-01" purity="5.4568463563919067e-01" nType="-99"/>
        </Node>
        <Node pos="r" depth="1" NCoef="0" IVar="1" Cut="1.9271753728389740e-01" cType="1" res="-5.8375377207994461e-02" rms="4.2946892976760864e-01" purity="3.3212679624557495e-01" nType="0">
          <Node pos="l" depth="2" NCoef="0" IVar="-1" Cut="0.0000000000000000e+00" cType="1" res="-5.6728473864495754e-03" rms="3.6830469965934753e-01" purity="1.6489714384078979e-01" nType="-99"/>
          <Node pos="r" depth="2" NCoef="0" IVar="-1" Cut="0.0000000000000000e+00" cType="1" res="-6.7240913631394506e-04" rms="4.7973293066024780e-01" purity="4.9608746170997620e-01" nType="-99"/>
        </Node>
      </Node>
    </BinaryTree>
    <BinaryTree type="DecisionTree" boostWeight="1.0000000000000000e+00" itree="381">
      <Node pos="s" depth="0" NCoef="0" IVar="3" Cut="1.9139274358749390e+00" cType="1" res="3.4495005384087563e-03" rms="4.6093440055847168e-01" purity="4.9718496203422546e-01" nType="0">
        <Node pos="l" depth="1" NCoef="0" IVar="0" Cut="1.0364743041992188e+02" cType="1" res="3.1255103647708893e-02" rms="4.6044275164604187e-01" purity="5.7287168502807617e-01" nType="0">
          <Node pos="l" depth="2" NCoef="0" IVar="-1" Cut="0.0000000000000000e+00" cType="1" res="8.9136818132828921e-05" rms="4.6660339832305908e-01" purity="5.2323389053344727e-01" nType="-99"/>
          <Node pos="r" depth="2" NCoef="0" IVar="-1" Cut="0.0000000000000000e+00" cType="1" res="1.5062042511999607e-03" rms="4.5081311464309692e-01" purity="6.3170248270034790e-01" nType="-99"/>
        </Node>
        <Node pos="r" depth="1" NCoef="0" IVar="4" Cut="2.3478913879394531e+02" cType="1" res="-1.4279308728873730e-02" rms="4.6037167310714722e-01" purity="4.4892719388008118e-01" nType="0">
          <Node pos="l" depth="2" NCoef="0" IVar="-1" Cut="0.0000000000000000e+00" cType="1" res="-8.6047907825559378e-04" rms="4.5842003822326660e-01" purity="4.2173042893409729e-01" nType="-99"/>
          <Node pos="r" depth="2" NCoef="0" IVar="-1" Cut="0.0000000000000000e+00" cType="1" res="8.5560622392222285e-04" rms="4.6420687437057495e-01" purity="5.4823803901672363e-01" nType="-99"/>
        </Node>
      </Node>
    </BinaryTree>
    <BinaryTree type="DecisionTree" boostWeight="1.0000000000000000e+00" itree="382">
      <Node pos="s" depth="0" NCoef="0" IVar="9" Cut="6.8551041185855865e-02" cType="1" res="1.7374857561662793e-03" rms="4.6179163455963135e-01" purity="4.9676328897476196e-01" nType="0">
        <Node pos="l" depth="1" NCoef="0" IVar="5" Cut="4.2657233774662018e-02" cType="1" res="-2.2400729358196259e-02" rms="4.5985388755798340e-01" purity="4.5424169301986694e-01" nType="0">
          <Node pos="l" depth="2" NCoef="0" IVar="-1" Cut="0.0000000000000000e+00" cType="1" res="-1.1356135364621878e-03" rms="4.5831817388534546e-01" purity="4.3936732411384583e-01" nType="-99"/>
          <Node pos="r" depth="2" NCoef="0" IVar="-1" Cut="0.0000000000000000e+00" cType="1" res="6.3969270559027791e-04" rms="4.6127116680145264e-01" purity="4.9866339564323425e-01" nType="-99"/>
        </Node>
        <Node pos="r" depth="1" NCoef="0" IVar="4" Cut="9.0377685546875000e+01" cType="1" res="2.0327663049101830e-02" rms="4.6242040395736694e-01" purity="5.2951163053512573e-01" nType="0">
          <Node pos="l" depth="2" NCoef="0" IVar="-1" Cut="0.0000000000000000e+00" cType="1" res="-7.0300715742632747e-04" rms="4.6159666776657104e-01" purity="4.0114793181419373e-01" nType="-99"/>
          <Node pos="r" depth="2" NCoef="0" IVar="-1" Cut="0.0000000000000000e+00" cType="1" res="7.1137561462819576e-04" rms="4.6217283606529236e-01" purity="5.5182749032974243e-01" nType="-99"/>
        </Node>
      </Node>
    </BinaryTree>
    <BinaryTree type="DecisionTree" boostWeight="1.0000000000000000e+00" itree="383">
      <Node pos="s" depth="0" NCoef="0" IVar="8" Cut="4.0856778621673584e-01" cType="1" res="5.3992066532373428e-03" rms="4.6281704306602478e-01" purity="5.0001972913742065e-01" nType="0">
        <Node pos="l" depth="1" NCoef="0" IVar="4" Cut="2.1237675476074219e+02" cType="1" res="-8.1659230636432767e-04" rms="4.6233826875686646e-01" purity="4.8642119765281677e-01" nType="0">
          <Node pos="l" depth="2" NCoef="0" IVar="-1" Cut="0.0000000000000000e+00" cType="1" res="-4.3953565182164311e-04" rms="4.6113726496696472e-01" purity="4.4975265860557556e-01" nType="-99"/>
          <Node pos="r" depth="2" NCoef="0" IVar="-1" Cut="0.0000000000000000e+00" cType="1" res="7.8893982572481036e-04" rms="4.6349900960922241e-01" purity="5.7130008935928345e-01" nType="-99"/>
        </Node>
        <Node pos="r" depth="1" NCoef="0" IVar="-1" Cut="0.0000000000000000e+00" cType="1" res="1.3524143723770976e-03" rms="4.6358263492584229e-01" purity="6.1199831962585449e-01" nType="-99"/>
      </Node>
    </BinaryTree>
    <BinaryTree type="DecisionTree" boostWeight="1.0000000000000000e+00" itree="384">
      <Node pos="s" depth="0" NCoef="0" IVar="6" Cut="9.2842417955398560e-01" cType="1" res="9.1778878122568130e-03" rms="4.6277683973312378e-01" purity="5.0406664609909058e-01" nType="0">
        <Node pos="l" depth="1" NCoef="0" IVar="7" Cut="9.5358647406101227e-02" cType="1" res="-3.0773131176829338e-02" rms="4.6392968297004700e-01" purity="4.3844729661941528e-01" nType="0">
          <Node pos="l" depth="2" NCoef="0" IVar="-1" Cut="0.0000000000000000e+00" cType="1" res="-3.9585461490787566e-04" rms="4.6576723456382751e-01" purity="4.6822717785835266e-01" nType="-99"/>
          <Node pos="r" depth="2" NCoef="0" IVar="-1" Cut="0.0000000000000000e+00" cType="1" res="-2.3970855399966240e-03" rms="4.5612367987632751e-01" purity="3.5918775200843811e-01" nType="-99"/>
        </Node>
        <Node pos="r" depth="1" NCoef="0" IVar="3" Cut="1.7407641410827637e+00" cType="1" res="1.8420189619064331e-02" rms="4.6201795339584351e-01" purity="5.1924705505371094e-01" nType="0">
          <Node pos="l" depth="2" NCoef="0" IVar="-1" Cut="0.0000000000000000e+00" cType="1" res="1.1204775655642152e-03" rms="4.5628365874290466e-01" purity="6.0333710908889771e-01" nType="-99"/>
          <Node pos="r" depth="2" NCoef="0" IVar="-1" Cut="0.0000000000000000e+00" cType="1" res="1.3832181866746396e-04" rms="4.6416440606117249e-01" purity="4.7852879762649536e-01" nType="-99"/>
        </Node>
      </Node>
    </BinaryTree>
    <BinaryTree type="DecisionTree" boostWeight="1.0000000000000000e+00" itree="385">
      <Node pos="s" depth="0" NCoef="0" IVar="8" Cut="4.0639251470565796e-01" cType="1" res="1.1698796413838863e-02" rms="4.6256309747695923e-01" purity="5.0648856163024902e-01" nType="0">
        <Node pos="l" depth="1" NCoef="0" IVar="4" Cut="1.8159484863281250e+02" cType="1" res="4.4879224151372910e-03" rms="4.6278503537178040e-01" purity="4.8980656266212463e-01" nType="0">
          <Node pos="l" depth="2" NCoef="0" IVar="-1" Cut="0.0000000000000000e+00" cType="1" res="-3.5168786416761577e-04" rms="4.6068769693374634e-01" purity="4.4273579120635986e-01" nType="-99"/>
          <Node pos="r" depth="2" NCoef="0" IVar="-1" Cut="0.0000000000000000e+00" cType="1" res="7.0044945459812880e-04" rms="4.6476772427558899e-01" purity="5.5677032470703125e-01" nType="-99"/>
        </Node>
        <Node pos="r" depth="1" NCoef="0" IVar="7" Cut="5.3354978561401367e-02" cType="1" res="5.5553127080202103e-02" rms="4.5877695083618164e-01" purity="6.0794353485107422e-01" nType="0">
          <Node pos="l" depth="2" NCoef="0" IVar="-1" Cut="0.0000000000000000e+00" cType="1" res="1.7512562917545438e-03" rms="4.5008313655853271e-01" purity="6.5495878458023071e-01" nType="-99"/>
          <Node pos="r" depth="2" NCoef="0" IVar="-1" Cut="0.0000000000000000e+00" cType="1" res="6.6748599056154490e-04" rms="4.6959921717643738e-01" purity="5.3959912061691284e-01" nType="-99"/>
        </Node>
      </Node>
    </BinaryTree>
    <BinaryTree type="DecisionTree" boostWeight="1.0000000000000000e+00" itree="386">
      <Node pos="s" depth="0" NCoef="0" IVar="4" Cut="1.0685800170898438e+02" cType="1" res="7.3763015680015087e-03" rms="4.6143448352813721e-01" purity="5.0363230705261230e-01" nType="0">
        <Node pos="l" depth="1" NCoef="0" IVar="5" Cut="-5.6675602681934834e-03" cType="1" res="-3.9961773902177811e-02" rms="4.5551019906997681e-01" purity="3.8435351848602295e-01" nType="0">
          <Node pos="l" depth="2" NCoef="0" IVar="-1" Cut="0.0000000000000000e+00" cType="1" res="-2.6840195059776306e-03" rms="4.3969559669494629e-01" purity="3.5084241628646851e-01" nType="-99"/>
          <Node pos="r" depth="2" NCoef="0" IVar="-1" Cut="0.0000000000000000e+00" cType="1" res="1.0578046931186691e-04" rms="4.6911785006523132e-01" purity="4.2249512672424316e-01" nType="-99"/>
        </Node>
        <Node pos="r" depth="1" NCoef="0" IVar="1" Cut="-3.1131836771965027e-01" cType="1" res="1.9357617944478989e-02" rms="4.6215361356735229e-01" purity="5.3382182121276855e-01" nType="0">
          <Node pos="l" depth="2" NCoef="0" IVar="-1" Cut="0.0000000000000000e+00" cType="1" res="-4.1606408194638789e-04" rms="4.6345824003219604e-01" purity="3.3573001623153687e-01" nType="-99"/>
          <Node pos="r" depth="2" NCoef="0" IVar="-1" Cut="0.0000000000000000e+00" cType="1" res="8.0393237294629216e-04" rms="4.6069318056106567e-01" purity="6.3520735502243042e-01" nType="-99"/>
        </Node>
      </Node>
    </BinaryTree>
    <BinaryTree type="DecisionTree" boostWeight="1.0000000000000000e+00" itree="387">
      <Node pos="s" depth="0" NCoef="0" IVar="5" Cut="-6.2962219119071960e-02" cType="1" res="4.4465614482760429e-03" rms="4.6484619379043579e-01" purity="4.9824541807174683e-01" nType="0">
        <Node pos="l" depth="1" NCoef="0" IVar="-1" Cut="0.0000000000000000e+00" cType="1" res="-2.6571233756840229e-03" rms="4.4644761085510254e-01" purity="3.7954765558242798e-01" nType="-99"/>
        <Node pos="r" depth="1" NCoef="0" IVar="9" Cut="1.8098039925098419e-01" cType="1" res="1.2992224656045437e-02" rms="4.6579343080520630e-01" purity="5.1015561819076538e-01" nType="0">
          <Node pos="l" depth="2" NCoef="0" IVar="-1" Cut="0.0000000000000000e+00" cType="1" res="1.4404348621610552e-04" rms="4.6660873293876648e-01" purity="4.9699342250823975e-01" nType="-99"/>
          <Node pos="r" depth="2" NCoef="0" IVar="-1" Cut="0.0000000000000000e+00" cType="1" res="1.6016474692150950e-03" rms="4.5662885904312134e-01" purity="6.0020065307617188e-01" nType="-99"/>
        </Node>
      </Node>
    </BinaryTree>
    <BinaryTree type="DecisionTree" boostWeight="1.0000000000000000e+00" itree="388">
      <Node pos="s" depth="0" NCoef="0" IVar="0" Cut="6.6656005859375000e+01" cType="1" res="1.3483097776770592e-02" rms="4.6228173375129700e-01" purity="5.0874638557434082e-01" nType="0">
        <Node pos="l" depth="1" NCoef="0" IVar="-1" Cut="0.0000000000000000e+00" cType="1" res="-1.9761899020522833e-03" rms="4.5963656902313232e-01" purity="4.4574475288391113e-01" nType="-99"/>
        <Node pos="r" depth="1" NCoef="0" IVar="3" Cut="1.4317820072174072e+00" cType="1" res="2.0515248179435730e-02" rms="4.6184721589088440e-01" purity="5.1425683498382568e-01" nType="0">
          <Node pos="l" depth="2" NCoef="0" IVar="-1" Cut="0.0000000000000000e+00" cType="1" res="1.9005141220986843e-03" rms="4.4803515076637268e-01" purity="6.5502572059631348e-01" nType="-99"/>
          <Node pos="r" depth="2" NCoef="0" IVar="-1" Cut="0.0000000000000000e+00" cType="1" res="2.2540715872310102e-04" rms="4.6347975730895996e-01" purity="4.8675835132598877e-01" nType="-99"/>
        </Node>
      </Node>
    </BinaryTree>
    <BinaryTree type="DecisionTree" boostWeight="1.0000000000000000e+00" itree="389">
      <Node pos="s" depth="0" NCoef="0" IVar="9" Cut="1.8904013931751251e-01" cType="1" res="1.1809739284217358e-02" rms="4.6394088864326477e-01" purity="5.0549918413162231e-01" nType="0">
        <Node pos="l" depth="1" NCoef="0" IVar="4" Cut="1.5763941955566406e+02" cType="1" res="5.0337347202003002e-03" rms="4.6454870700836182e-01" purity="4.9411007761955261e-01" nType="0">
          <Node pos="l" depth="2" NCoef="0" IVar="-1" Cut="0.0000000000000000e+00" cType="1" res="-3.8761689211241901e-04" rms="4.6140822768211365e-01" purity="4.3391898274421692e-01" nType="-99"/>
          <Node pos="r" depth="2" NCoef="0" IVar="-1" Cut="0.0000000000000000e+00" cType="1" res="5.3914834279567003e-04" rms="4.6675679087638855e-01" purity="5.4792135953903198e-01" nType="-99"/>
        </Node>
        <Node pos="r" depth="1" NCoef="0" IVar="-1" Cut="0.0000000000000000e+00" cType="1" res="1.7072453629225492e-03" rms="4.5423826575279236e-01" purity="6.0558438301086426e-01" nType="-99"/>
      </Node>
    </BinaryTree>
    <BinaryTree type="DecisionTree" boostWeight="1.0000000000000000e+00" itree="390">
      <Node pos="s" depth="0" NCoef="0" IVar="6" Cut="9.6510303020477295e-01" cType="1" res="4.9874284304678440e-03" rms="4.6185305714607239e-01" purity="5.0115841627120972e-01" nType="0">
        <Node pos="l" depth="1" NCoef="0" IVar="4" Cut="1.5412771606445312e+02" cType="1" res="-1.4824477955698967e-02" rms="4.6600157022476196e-01" purity="4.6488040685653687e-01" nType="0">
          <Node pos="l" depth="2" NCoef="0" IVar="-1" Cut="0.0000000000000000e+00" cType="1" res="-1.1409156722947955e-03" rms="4.5929375290870667e-01" purity="4.0356579422950745e-01" nType="-99"/>
          <Node pos="r" depth="2" NCoef="0" IVar="-1" Cut="0.0000000000000000e+00" cType="1" res="1.0570803715381771e-04" rms="4.7104054689407349e-01" purity="5.1902806758880615e-01" nType="-99"/>
        </Node>
        <Node pos="r" depth="1" NCoef="0" IVar="1" Cut="-1.1625354290008545e+00" cType="1" res="2.7274144813418388e-02" rms="4.5611399412155151e-01" purity="5.4196804761886597e-01" nType="0">
          <Node pos="l" depth="2" NCoef="0" IVar="-1" Cut="0.0000000000000000e+00" cType="1" res="-1.3019827893003821e-03" rms="4.3732878565788269e-01" purity="2.8249639272689819e-01" nType="-99"/>
          <Node pos="r" depth="2" NCoef="0" IVar="-1" Cut="0.0000000000000000e+00" cType="1" res="9.8174181766808033e-04" rms="4.5945265889167786e-01" purity="6.0397022962570190e-01" nType="-99"/>
        </Node>
      </Node>
    </BinaryTree>
    <BinaryTree type="DecisionTree" boostWeight="1.0000000000000000e+00" itree="391">
      <Node pos="s" depth="0" NCoef="0" IVar="1" Cut="2.5456006526947021e+00" cType="1" res="9.5899170264601707e-03" rms="4.6177193522453308e-01" purity="5.0608795881271362e-01" nType="0">
        <Node pos="l" depth="1" NCoef="0" IVar="4" Cut="1.0584087371826172e+02" cType="1" res="2.1835321094840765e-03" rms="4.6912378072738647e-01" purity="4.7014340758323669e-01" nType="0">
          <Node pos="l" depth="2" NCoef="0" IVar="-1" Cut="0.0000000000000000e+00" cType="1" res="-1.1229574447497725e-03" rms="4.5816212892532349e-01" purity="3.7087574601173401e-01" nType="-99"/>
          <Node pos="r" depth="2" NCoef="0" IVar="-1" Cut="0.0000000000000000e+00" cType="1" res="2.9996165540069342e-04" rms="4.7144231200218201e-01" purity="4.9537062644958496e-01" nType="-99"/>
        </Node>
        <Node pos="r" depth="1" NCoef="0" IVar="-1" Cut="0.0000000000000000e+00" cType="1" res="1.5754242194816470e-03" rms="3.8910272717475891e-01" purity="8.0808264017105103e-01" nType="-99"/>
      </Node>
    </BinaryTree>
    <BinaryTree type="DecisionTree" boostWeight="1.0000000000000000e+00" itree="392">
      <Node pos="s" depth="0" NCoef="0" IVar="8" Cut="4.0346309542655945e-01" cType="1" res="-4.9326202133670449e-04" rms="4.6253645420074463e-01" purity="4.9497133493423462e-01" nType="0">
        <Node pos="l" depth="1" NCoef="0" IVar="4" Cut="1.5912173461914062e+02" cType="1" res="-9.8134092986583710e-03" rms="4.6300745010375977e-01" purity="4.7476285696029663e-01" nType="0">
          <Node pos="l" depth="2" NCoef="0" IVar="-1" Cut="0.0000000000000000e+00" cType="1" res="-9.7088282927870750e-04" rms="4.5736715197563171e-01" purity="4.1248089075088501e-01" nType="-99"/>
          <Node pos="r" depth="2" NCoef="0" IVar="-1" Cut="0.0000000000000000e+00" cType="1" res="2.5297305546700954e-04" rms="4.6722465753555298e-01" purity="5.3138607740402222e-01" nType="-99"/>
        </Node>
        <Node pos="r" depth="1" NCoef="0" IVar="0" Cut="1.7150712585449219e+02" cType="1" res="3.8293059915304184e-02" rms="4.5854118466377258e-01" purity="5.7906991243362427e-01" nType="0">
          <Node pos="l" depth="2" NCoef="0" IVar="-1" Cut="0.0000000000000000e+00" cType="1" res="1.3491810532286763e-03" rms="4.5408692955970764e-01" purity="6.0815989971160889e-01" nType="-99"/>
          <Node pos="r" depth="2" NCoef="0" IVar="-1" Cut="0.0000000000000000e+00" cType="1" res="1.4080590335652232e-04" rms="4.6452206373214722e-01" purity="5.2736502885818481e-01" nType="-99"/>
        </Node>
      </Node>
    </BinaryTree>
    <BinaryTree type="DecisionTree" boostWeight="1.0000000000000000e+00" itree="393">
      <Node pos="s" depth="0" NCoef="0" IVar="4" Cut="1.0029791259765625e+02" cType="1" res="6.7874751985073090e-03" rms="4.6437641978263855e-01" purity="5.0185793638229370e-01" nType="0">
        <Node pos="l" depth="1" NCoef="0" IVar="0" Cut="9.3624725341796875e+01" cType="1" res="-3.2655552029609680e-02" rms="4.5692029595375061e-01" purity="3.9098694920539856e-01" nType="0">
          <Node pos="l" depth="2" NCoef="0" IVar="-1" Cut="0.0000000000000000e+00" cType="1" res="-2.4818414822220802e-03" rms="4.5279088616371155e-01" purity="3.7737414240837097e-01" nType="-99"/>
          <Node pos="r" depth="2" NCoef="0" IVar="-1" Cut="0.0000000000000000e+00" cType="1" res="-3.9265243685804307e-04" rms="4.5741876959800720e-01" purity="3.9739227294921875e-01" nType="-99"/>
        </Node>
        <Node pos="r" depth="1" NCoef="0" IVar="0" Cut="2.3514122009277344e+02" cType="1" res="1.4476746320724487e-02" rms="4.6542686223983765e-01" purity="5.2347177267074585e-01" nType="0">
          <Node pos="l" depth="2" NCoef="0" IVar="-1" Cut="0.0000000000000000e+00" cType="1" res="6.4705999102443457e-04" rms="4.6611583232879639e-01" purity="5.4617494344711304e-01" nType="-99"/>
          <Node pos="r" depth="2" NCoef="0" IVar="-1" Cut="0.0000000000000000e+00" cType="1" res="-7.3722488014027476e-04" rms="4.6082380414009094e-01" purity="4.4128248095512390e-01" nType="-99"/>
        </Node>
      </Node>
    </BinaryTree>
    <BinaryTree type="DecisionTree" boostWeight="1.0000000000000000e+00" itree="394">
      <Node pos="s" depth="0" NCoef="0" IVar="2" Cut="4.5742863416671753e-01" cType="1" res="1.0305942036211491e-02" rms="4.6346479654312134e-01" purity="5.0669318437576294e-01" nType="0">
        <Node pos="l" depth="1" NCoef="0" IVar="5" Cut="5.0848625600337982e-02" cType="1" res="-2.3590724915266037e-02" rms="4.6178853511810303e-01" purity="4.2246651649475098e-01" nType="0">
          <Node pos="l" depth="2" NCoef="0" IVar="-1" Cut="0.0000000000000000e+00" cType="1" res="-1.7438867362216115e-03" rms="4.5295765995979309e-01" purity="3.8946470618247986e-01" nType="-99"/>
          <Node pos="r" depth="2" NCoef="0" IVar="-1" Cut="0.0000000000000000e+00" cType="1" res="1.0122435633093119e-03" rms="4.7263699769973755e-01" purity="4.8671495914459229e-01" nType="-99"/>
        </Node>
        <Node pos="r" depth="1" NCoef="0" IVar="1" Cut="-1.2418346405029297e+00" cType="1" res="1.8175354227423668e-02" rms="4.6349865198135376e-01" purity="5.2624708414077759e-01" nType="0">
          <Node pos="l" depth="2" NCoef="0" IVar="-1" Cut="0.0000000000000000e+00" cType="1" res="-9.9435518495738506e-04" rms="4.4356814026832581e-01" purity="2.8363513946533203e-01" nType="-99"/>
          <Node pos="r" depth="2" NCoef="0" IVar="-1" Cut="0.0000000000000000e+00" cType="1" res="6.7263963865116239e-04" rms="4.6750131249427795e-01" purity="5.8252805471420288e-01" nType="-99"/>
        </Node>
      </Node>
    </BinaryTree>
    <BinaryTree type="DecisionTree" boostWeight="1.0000000000000000e+00" itree="395">
      <Node pos="s" depth="0" NCoef="0" IVar="8" Cut="3.5536056756973267e-01" cType="1" res="8.0233933404088020e-03" rms="4.6353161334991455e-01" purity="5.0056409835815430e-01" nType="0">
        <Node pos="l" depth="1" NCoef="0" IVar="4" Cut="2.4544758605957031e+02" cType="1" res="-5.0442941486835480e-02" rms="4.5999798178672791e-01" purity="4.1490048170089722e-01" nType="0">
          <Node pos="l" depth="2" NCoef="0" IVar="-1" Cut="0.0000000000000000e+00" cType="1" res="-2.7361568063497543e-03" rms="4.4958192110061646e-01" purity="3.4613740444183350e-01" nType="-99"/>
          <Node pos="r" depth="2" NCoef="0" IVar="-1" Cut="0.0000000000000000e+00" cType="1" res="-5.5398250697180629e-04" rms="4.6925738453865051e-01" purity="4.8986741900444031e-01" nType="-99"/>
        </Node>
        <Node pos="r" depth="1" NCoef="0" IVar="1" Cut="2.4094443321228027e+00" cType="1" res="1.7173692584037781e-02" rms="4.6341511607170105e-01" purity="5.1397097110748291e-01" nType="0">
          <Node pos="l" depth="2" NCoef="0" IVar="-1" Cut="0.0000000000000000e+00" cType="1" res="2.8011237736791372e-04" rms="4.7235640883445740e-01" purity="4.7252067923545837e-01" nType="-99"/>
          <Node pos="r" depth="2" NCoef="0" IVar="-1" Cut="0.0000000000000000e+00" cType="1" res="1.4781774953007698e-03" rms="3.9174419641494751e-01" purity="8.0369335412979126e-01" nType="-99"/>
        </Node>
      </Node>
    </BinaryTree>
    <BinaryTree type="DecisionTree" boostWeight="1.0000000000000000e+00" itree="396">
      <Node pos="s" depth="0" NCoef="0" IVar="6" Cut="9.7134214639663696e-01" cType="1" res="3.5429229028522968e-03" rms="4.6329227089881897e-01" purity="4.9800384044647217e-01" nType="0">
        <Node pos="l" depth="1" NCoef="0" IVar="2" Cut="7.4104827642440796e-01" cType="1" res="-1.1445115320384502e-02" rms="4.6509316563606262e-01" purity="4.7194766998291016e-01" nType="0">
          <Node pos="l" depth="2" NCoef="0" IVar="-1" Cut="0.0000000000000000e+00" cType="1" res="-6.1206822283565998e-04" rms="4.6657496690750122e-01" purity="4.4546216726303101e-01" nType="-99"/>
          <Node pos="r" depth="2" NCoef="0" IVar="-1" Cut="0.0000000000000000e+00" cType="1" res="7.5192021904513240e-04" rms="4.5603063702583313e-01" purity="5.9076088666915894e-01" nType="-99"/>
        </Node>
        <Node pos="r" depth="1" NCoef="0" IVar="0" Cut="1.7333865356445312e+02" cType="1" res="2.6182595640420914e-02" rms="4.5963287353515625e-01" purity="5.3736209869384766e-01" nType="0">
          <Node pos="l" depth="2" NCoef="0" IVar="-1" Cut="0.0000000000000000e+00" cType="1" res="1.2679625069722533e-03" rms="4.5674592256546021e-01" purity="5.7291239500045776e-01" nType="-99"/>
          <Node pos="r" depth="2" NCoef="0" IVar="-1" Cut="0.0000000000000000e+00" cType="1" res="-5.1759596681222320e-04" rms="4.6178057789802551e-01" purity="4.7051727771759033e-01" nType="-99"/>
        </Node>
      </Node>
    </BinaryTree>
    <BinaryTree type="DecisionTree" boostWeight="1.0000000000000000e+00" itree="397">
      <Node pos="s" depth="0" NCoef="0" IVar="9" Cut="3.5509351640939713e-02" cType="1" res="-3.8928879075683653e-04" rms="4.6195665001869202e-01" purity="4.9564659595489502e-01" nType="0">
        <Node pos="l" depth="1" NCoef="0" IVar="4" Cut="2.9825241088867188e+02" cType="1" res="-3.4995067864656448e-02" rms="4.6121948957443237e-01" purity="4.4554165005683899e-01" nType="0">
          <Node pos="l" depth="2" NCoef="0" IVar="-1" Cut="0.0000000000000000e+00" cType="1" res="-1.8524844199419022e-03" rms="4.6014884114265442e-01" purity="3.9346662163734436e-01" nType="-99"/>
          <Node pos="r" depth="2" NCoef="0" IVar="-1" Cut="0.0000000000000000e+00" cType="1" res="4.0707539301365614e-04" rms="4.5946055650711060e-01" purity="5.6175798177719116e-01" nType="-99"/>
        </Node>
        <Node pos="r" depth="1" NCoef="0" IVar="4" Cut="8.2311256408691406e+01" cType="1" res="7.5336261652410030e-03" rms="4.6176055073738098e-01" purity="5.0711798667907715e-01" nType="0">
          <Node pos="l" depth="2" NCoef="0" IVar="-1" Cut="0.0000000000000000e+00" cType="1" res="-1.8936858978122473e-03" rms="4.4907864928245544e-01" purity="3.4949836134910583e-01" nType="-99"/>
          <Node pos="r" depth="2" NCoef="0" IVar="-1" Cut="0.0000000000000000e+00" cType="1" res="3.5361738991923630e-04" rms="4.6249854564666748e-01" purity="5.2166169881820679e-01" nType="-99"/>
        </Node>
      </Node>
    </BinaryTree>
    <BinaryTree type="DecisionTree" boostWeight="1.0000000000000000e+00" itree="398">
      <Node pos="s" depth="0" NCoef="0" IVar="3" Cut="1.0061938762664795e+00" cType="1" res="-4.0605165995657444e-03" rms="4.6091452240943909e-01" purity="4.9075493216514587e-01" nType="0">
        <Node pos="l" depth="1" NCoef="0" IVar="-1" Cut="0.0000000000000000e+00" cType="1" res="1.4691986143589020e-03" rms="4.5272678136825562e-01" purity="6.2398642301559448e-01" nType="-99"/>
        <Node pos="r" depth="1" NCoef="0" IVar="1" Cut="-7.1437823772430420e-01" cType="1" res="-1.2805634178221226e-02" rms="4.6124520897865295e-01" purity="4.7346574068069458e-01" nType="0">
          <Node pos="l" depth="2" NCoef="0" IVar="-1" Cut="0.0000000000000000e+00" cType="1" res="-2.0109564065933228e-03" rms="4.3040740489959717e-01" purity="2.6430013775825500e-01" nType="-99"/>
          <Node pos="r" depth="2" NCoef="0" IVar="-1" Cut="0.0000000000000000e+00" cType="1" res="-8.7067555796238594e-06" rms="4.7223412990570068e-01" purity="5.5568176507949829e-01" nType="-99"/>
        </Node>
      </Node>
    </BinaryTree>
    <BinaryTree type="DecisionTree" boostWeight="1.0000000000000000e+00" itree="399">
      <Node pos="s" depth="0" NCoef="0" IVar="1" Cut="2.6135201454162598e+00" cType="1" res="6.0390643775463104e-03" rms="4.6245765686035156e-01" purity="5.0196778774261475e-01" nType="0">
        <Node pos="l" depth="1" NCoef="0" IVar="4" Cut="1.1964250946044922e+02" cType="1" res="-1.2653708108700812e-04" rms="4.6902066469192505e-01" purity="4.6846526861190796e-01" nType="0">
          <Node pos="l" depth="2" NCoef="0" IVar="-1" Cut="0.0000000000000000e+00" cType="1" res="-1.0300508001819253e-03" rms="4.6056640148162842e-01" purity="3.7891077995300293e-01" nType="-99"/>
          <Node pos="r" depth="2" NCoef="0" IVar="-1" Cut="0.0000000000000000e+00" cType="1" res="3.3885461743921041e-04" rms="4.7184333205223083e-01" purity="5.0523662567138672e-01" nType="-99"/>
        </Node>
        <Node pos="r" depth="1" NCoef="0" IVar="-1" Cut="0.0000000000000000e+00" cType="1" res="1.3418580638244748e-03" rms="3.9558467268943787e-01" purity="7.9828506708145142e-01" nType="-99"/>
      </Node>
    </BinaryTree>
    <BinaryTree type="DecisionTree" boostWeight="1.0000000000000000e+00" itree="400">
      <Node pos="s" depth="0" NCoef="0" IVar="4" Cut="1.7459387207031250e+02" cType="1" res="8.9218709617853165e-03" rms="4.6470031142234802e-01" purity="5.0135314464569092e-01" nType="0">
        <Node pos="l" depth="1" NCoef="0" IVar="8" Cut="3.6179858446121216e-01" cType="1" res="-6.9408244453370571e-03" rms="4.6250551939010620e-01" purity="4.5540159940719604e-01" nType="0">
          <Node pos="l" depth="2" NCoef="0" IVar="-1" Cut="0.0000000000000000e+00" cType="1" res="-3.2614225056022406e-03" rms="4.3819692730903625e-01" purity="3.1540748476982117e-01" nType="-99"/>
          <Node pos="r" depth="2" NCoef="0" IVar="-1" Cut="0.0000000000000000e+00" cType="1" res="3.6483899748418480e-05" rms="4.6408385038375854e-01" purity="4.6947380900382996e-01" nType="-99"/>
        </Node>
        <Node pos="r" depth="1" NCoef="0" IVar="8" Cut="3.7398317456245422e-01" cType="1" res="3.0825626105070114e-02" rms="4.6682888269424438e-01" purity="5.6480461359024048e-01" nType="0">
          <Node pos="l" depth="2" NCoef="0" IVar="-1" Cut="0.0000000000000000e+00" cType="1" res="1.9215505744796246e-04" rms="4.6810218691825867e-01" purity="5.1237255334854126e-01" nType="-99"/>
          <Node pos="r" depth="2" NCoef="0" IVar="-1" Cut="0.0000000000000000e+00" cType="1" res="1.1509454343467951e-03" rms="4.6528032422065735e-01" purity="6.0040980577468872e-01" nType="-99"/>
        </Node>
      </Node>
    </BinaryTree>
    <BinaryTree type="DecisionTree" boostWeight="1.0000000000000000e+00" itree="401">
      <Node pos="s" depth="0" NCoef="0" IVar="2" Cut="7.6134330034255981e-01" cType="1" res="1.2758263619616628e-03" rms="4.6320307254791260e-01" purity="4.9450793862342834e-01" nType="0">
        <Node pos="l" depth="1" NCoef="0" IVar="6" Cut="9.3373388051986694e-01" cType="1" res="-9.3303900212049484e-03" rms="4.6465075016021729e-01" purity="4.6971872448921204e-01" nType="0">
          <Node pos="l" depth="2" NCoef="0" IVar="-1" Cut="0.0000000000000000e+00" cType="1" res="-1.3791815144941211e-03" rms="4.6060925722122192e-01" purity="4.1100090742111206e-01" nType="-99"/>
          <Node pos="r" depth="2" NCoef="0" IVar="-1" Cut="0.0000000000000000e+00" cType="1" res="5.8320300013292581e-05" rms="4.6532592177391052e-01" purity="4.8815104365348816e-01" nType="-99"/>
        </Node>
        <Node pos="r" depth="1" NCoef="0" IVar="1" Cut="-6.4560282230377197e-01" cType="1" res="5.6527875363826752e-02" rms="4.5157599449157715e-01" purity="6.2364488840103149e-01" nType="0">
          <Node pos="l" depth="2" NCoef="0" IVar="-1" Cut="0.0000000000000000e+00" cType="1" res="4.5866105938330293e-04" rms="4.8471069335937500e-01" purity="4.1109845042228699e-01" nType="-99"/>
          <Node pos="r" depth="2" NCoef="0" IVar="-1" Cut="0.0000000000000000e+00" cType="1" res="1.7042042454704642e-03" rms="4.3245950341224670e-01" purity="7.3052954673767090e-01" nType="-99"/>
        </Node>
      </Node>
    </BinaryTree>
    <BinaryTree type="DecisionTree" boostWeight="1.0000000000000000e+00" itree="402">
      <Node pos="s" depth="0" NCoef="0" IVar="2" Cut="8.3449804782867432e-01" cType="1" res="5.2958475425839424e-03" rms="4.6263802051544189e-01" purity="5.0155919790267944e-01" nType="0">
        <Node pos="l" depth="1" NCoef="0" IVar="0" Cut="2.0795013427734375e+02" cType="1" res="8.3656370406970382e-05" rms="4.6317756175994873e-01" purity="4.9123120307922363e-01" nType="0">
          <Node pos="l" depth="2" NCoef="0" IVar="-1" Cut="0.0000000000000000e+00" cType="1" res="2.9795221053063869e-04" rms="4.6466490626335144e-01" purity="5.1148319244384766e-01" nType="-99"/>
          <Node pos="r" depth="2" NCoef="0" IVar="-1" Cut="0.0000000000000000e+00" cType="1" res="-9.6568925073370337e-04" rms="4.5734986662864685e-01" purity="4.3253770470619202e-01" nType="-99"/>
        </Node>
        <Node pos="r" depth="1" NCoef="0" IVar="-1" Cut="0.0000000000000000e+00" cType="1" res="1.8466765759512782e-03" rms="4.4826939702033997e-01" purity="6.4926147460937500e-01" nType="-99"/>
      </Node>
    </BinaryTree>
    <BinaryTree type="DecisionTree" boostWeight="1.0000000000000000e+00" itree="403">
      <Node pos="s" depth="0" NCoef="0" IVar="1" Cut="1.6662054061889648e+00" cType="1" res="2.5484587531536818e-03" rms="4.6003419160842896e-01" purity="4.9817860126495361e-01" nType="0">
        <Node pos="l" depth="1" NCoef="0" IVar="8" Cut="4.0981903672218323e-01" cType="1" res="-9.3361670151352882e-03" rms="4.6920663118362427e-01" purity="4.2317309975624084e-01" nType="0">
          <Node pos="l" depth="2" NCoef="0" IVar="-1" Cut="0.0000000000000000e+00" cType="1" res="-4.5983621384948492e-04" rms="4.6679869294166565e-01" purity="4.1331994533538818e-01" nType="-99"/>
          <Node pos="r" depth="2" NCoef="0" IVar="-1" Cut="0.0000000000000000e+00" cType="1" res="1.3368482468649745e-03" rms="4.9006515741348267e-01" purity="5.2986288070678711e-01" nType="-99"/>
        </Node>
        <Node pos="r" depth="1" NCoef="0" IVar="7" Cut="6.5481670200824738e-02" cType="1" res="4.1559562087059021e-02" rms="4.2622524499893188e-01" purity="7.4438303709030151e-01" nType="0">
          <Node pos="l" depth="2" NCoef="0" IVar="-1" Cut="0.0000000000000000e+00" cType="1" res="1.4205117477104068e-03" rms="4.0166038274765015e-01" purity="7.8810316324234009e-01" nType="-99"/>
          <Node pos="r" depth="2" NCoef="0" IVar="-1" Cut="0.0000000000000000e+00" cType="1" res="3.1655035854782909e-05" rms="4.6298810839653015e-01" purity="6.6863906383514404e-01" nType="-99"/>
        </Node>
      </Node>
    </BinaryTree>
    <BinaryTree type="DecisionTree" boostWeight="1.0000000000000000e+00" itree="404">
      <Node pos="s" depth="0" NCoef="0" IVar="2" Cut="8.0567097663879395e-01" cType="1" res="3.2748011872172356e-03" rms="4.6178659796714783e-01" purity="5.0019001960754395e-01" nType="0">
        <Node pos="l" depth="1" NCoef="0" IVar="3" Cut="2.7890787124633789e+00" cType="1" res="-3.4394930116832256e-03" rms="4.6364694833755493e-01" purity="4.8421248793601990e-01" nType="0">
          <Node pos="l" depth="2" NCoef="0" IVar="-1" Cut="0.0000000000000000e+00" cType="1" res="1.9439835159573704e-04" rms="4.6790826320648193e-01" purity="5.1815420389175415e-01" nType="-99"/>
          <Node pos="r" depth="2" NCoef="0" IVar="-1" Cut="0.0000000000000000e+00" cType="1" res="-1.0396299185231328e-03" rms="4.5093849301338196e-01" purity="3.9453071355819702e-01" nType="-99"/>
        </Node>
        <Node pos="r" depth="1" NCoef="0" IVar="-1" Cut="0.0000000000000000e+00" cType="1" res="1.5191433485597372e-03" rms="4.3999898433685303e-01" purity="6.4457947015762329e-01" nType="-99"/>
      </Node>
    </BinaryTree>
    <BinaryTree type="DecisionTree" boostWeight="1.0000000000000000e+00" itree="405">
      <Node pos="s" depth="0" NCoef="0" IVar="9" Cut="4.5410480350255966e-02" cType="1" res="8.4223311205278151e-06" rms="4.6367919445037842e-01" purity="4.9273091554641724e-01" nType="0">
        <Node pos="l" depth="1" NCoef="0" IVar="4" Cut="2.0176289367675781e+02" cType="1" res="-2.9454739764332771e-02" rms="4.6467128396034241e-01" purity="4.4328257441520691e-01" nType="0">
          <Node pos="l" depth="2" NCoef="0" IVar="-1" Cut="0.0000000000000000e+00" cType="1" res="-2.0996129605919123e-03" rms="4.5138800144195557e-01" purity="3.6599835753440857e-01" nType="-99"/>
          <Node pos="r" depth="2" NCoef="0" IVar="-1" Cut="0.0000000000000000e+00" cType="1" res="-3.5789165849564597e-05" rms="4.7361990809440613e-01" purity="5.0764167308807373e-01" nType="-99"/>
        </Node>
        <Node pos="r" depth="1" NCoef="0" IVar="8" Cut="4.1319179534912109e-01" cType="1" res="1.0441995225846767e-02" rms="4.6287792921066284e-01" purity="5.1024168729782104e-01" nType="0">
          <Node pos="l" depth="2" NCoef="0" IVar="-1" Cut="0.0000000000000000e+00" cType="1" res="1.4262815238907933e-04" rms="4.6444889903068542e-01" purity="4.9660417437553406e-01" nType="-99"/>
          <Node pos="r" depth="2" NCoef="0" IVar="-1" Cut="0.0000000000000000e+00" cType="1" res="1.4558495022356510e-03" rms="4.4341957569122314e-01" purity="6.4666736125946045e-01" nType="-99"/>
        </Node>
      </Node>
    </BinaryTree>
    <BinaryTree type="DecisionTree" boostWeight="1.0000000000000000e+00" itree="406">
      <Node pos="s" depth="0" NCoef="0" IVar="8" Cut="3.5832080245018005e-01" cType="1" res="2.4826067965477705e-03" rms="4.6304121613502502e-01" purity="4.9707487225532532e-01" nType="0">
        <Node pos="l" depth="1" NCoef="0" IVar="6" Cut="9.6898859739303589e-01" cType="1" res="-4.4007189571857452e-02" rms="4.6260294318199158e-01" purity="4.2748254537582397e-01" nType="0">
          <Node pos="l" depth="2" NCoef="0" IVar="-1" Cut="0.0000000000000000e+00" cType="1" res="-2.4641598574817181e-03" rms="4.4913774728775024e-01" purity="3.8337072730064392e-01" nType="-99"/>
          <Node pos="r" depth="2" NCoef="0" IVar="-1" Cut="0.0000000000000000e+00" cType="1" res="7.2833143349271268e-05" rms="4.7665104269981384e-01" purity="4.8837286233901978e-01" nType="-99"/>
        </Node>
        <Node pos="r" depth="1" NCoef="0" IVar="3" Cut="1.2292220592498779e+00" cType="1" res="1.0869250632822514e-02" rms="4.6262308955192566e-01" purity="5.0962913036346436e-01" nType="0">
          <Node pos="l" depth="2" NCoef="0" IVar="-1" Cut="0.0000000000000000e+00" cType="1" res="1.3261302374303341e-03" rms="4.5683926343917847e-01" purity="6.1424577236175537e-01" nType="-99"/>
          <Node pos="r" depth="2" NCoef="0" IVar="-1" Cut="0.0000000000000000e+00" cType="1" res="5.5689124565105885e-05" rms="4.6326607465744019e-01" purity="4.8861229419708252e-01" nType="-99"/>
        </Node>
      </Node>
    </BinaryTree>
    <BinaryTree type="DecisionTree" boostWeight="1.0000000000000000e+00" itree="407">
      <Node pos="s" depth="0" NCoef="0" IVar="8" Cut="3.9580234885215759e-01" cType="1" res="6.3766766106709838e-04" rms="4.6268597245216370e-01" purity="4.9515622854232788e-01" nType="0">
        <Node pos="l" depth="1" NCoef="0" IVar="4" Cut="1.6312098693847656e+02" cType="1" res="-1.4236543327569962e-02" rms="4.6151340007781982e-01" purity="4.6609833836555481e-01" nType="0">
          <Node pos="l" depth="2" NCoef="0" IVar="-1" Cut="0.0000000000000000e+00" cType="1" res="-1.2052124366164207e-03" rms="4.5314449071884155e-01" purity="3.9549145102500916e-01" nType="-99"/>
          <Node pos="r" depth="2" NCoef="0" IVar="-1" Cut="0.0000000000000000e+00" cType="1" res="1.3546951231546700e-04" rms="4.6740192174911499e-01" purity="5.2423262596130371e-01" nType="-99"/>
        </Node>
        <Node pos="r" depth="1" NCoef="0" IVar="3" Cut="1.5472221374511719e+00" cType="1" res="2.5989051908254623e-02" rms="4.6357908844947815e-01" purity="5.4468208551406860e-01" nType="0">
          <Node pos="l" depth="2" NCoef="0" IVar="-1" Cut="0.0000000000000000e+00" cType="1" res="1.5032619703561068e-03" rms="4.5254662632942200e-01" purity="6.3670068979263306e-01" nType="-99"/>
          <Node pos="r" depth="2" NCoef="0" IVar="-1" Cut="0.0000000000000000e+00" cType="1" res="3.2468343852087855e-04" rms="4.6656328439712524e-01" purity="5.1241916418075562e-01" nType="-99"/>
        </Node>
      </Node>
    </BinaryTree>
    <BinaryTree type="DecisionTree" boostWeight="1.0000000000000000e+00" itree="408">
      <Node pos="s" depth="0" NCoef="0" IVar="1" Cut="2.4164125919342041e+00" cType="1" res="-1.0778850410133600e-03" rms="4.6164715290069580e-01" purity="4.9596989154815674e-01" nType="0">
        <Node pos="l" depth="1" NCoef="0" IVar="9" Cut="1.5123550593852997e-01" cType="1" res="-9.1500012204051018e-03" rms="4.6888771653175354e-01" purity="4.5436996221542358e-01" nType="0">
          <Node pos="l" depth="2" NCoef="0" IVar="-1" Cut="0.0000000000000000e+00" cType="1" res="-5.6675577070564032e-04" rms="4.6896231174468994e-01" purity="4.3456789851188660e-01" nType="-99"/>
          <Node pos="r" depth="2" NCoef="0" IVar="-1" Cut="0.0000000000000000e+00" cType="1" res="9.1601989697664976e-04" rms="4.6584674715995789e-01" purity="5.4220718145370483e-01" nType="-99"/>
        </Node>
        <Node pos="r" depth="1" NCoef="0" IVar="-1" Cut="0.0000000000000000e+00" cType="1" res="1.2504099868237972e-03" rms="4.0243485569953918e-01" purity="7.8906774520874023e-01" nType="-99"/>
      </Node>
    </BinaryTree>
    <BinaryTree type="DecisionTree" boostWeight="1.0000000000000000e+00" itree="409">
      <Node pos="s" depth="0" NCoef="0" IVar="1" Cut="-1.4538221359252930e+00" cType="1" res="1.3039229437708855e-02" rms="4.6224993467330933e-01" purity="5.0736641883850098e-01" nType="0">
        <Node pos="l" depth="1" NCoef="0" IVar="7" Cut="1.0966050438582897e-02" cType="1" res="-3.5959262400865555e-02" rms="4.2685610055923462e-01" purity="2.4878935515880585e-01" nType="0">
          <Node pos="l" depth="2" NCoef="0" IVar="-1" Cut="0.0000000000000000e+00" cType="1" res="-3.8471072912216187e-04" rms="4.5514613389968872e-01" purity="3.0416956543922424e-01" nType="-99"/>
          <Node pos="r" depth="2" NCoef="0" IVar="-1" Cut="0.0000000000000000e+00" cType="1" res="-3.1588568817824125e-03" rms="4.0420249104499817e-01" purity="2.0897120237350464e-01" nType="-99"/>
        </Node>
        <Node pos="r" depth="1" NCoef="0" IVar="5" Cut="-6.7172355949878693e-02" cType="1" res="2.1312929689884186e-02" rms="4.6745571494102478e-01" purity="5.5102878808975220e-01" nType="0">
          <Node pos="l" depth="2" NCoef="0" IVar="-1" Cut="0.0000000000000000e+00" cType="1" res="-1.0713959345594049e-03" rms="4.6743366122245789e-01" purity="4.4324859976768494e-01" nType="-99"/>
          <Node pos="r" depth="2" NCoef="0" IVar="-1" Cut="0.0000000000000000e+00" cType="1" res="6.4901309087872505e-04" rms="4.6713545918464661e-01" purity="5.5986499786376953e-01" nType="-99"/>
        </Node>
      </Node>
    </BinaryTree>
    <BinaryTree type="DecisionTree" boostWeight="1.0000000000000000e+00" itree="410">
      <Node pos="s" depth="0" NCoef="0" IVar="3" Cut="1.5159091949462891e+00" cType="1" res="1.1490996694192290e-03" rms="4.6175372600555420e-01" purity="4.9949067831039429e-01" nType="0">
        <Node pos="l" depth="1" NCoef="0" IVar="0" Cut="9.9414558410644531e+01" cType="1" res="3.1908120959997177e-02" rms="4.5789968967437744e-01" purity="5.9317702054977417e-01" nType="0">
          <Node pos="l" depth="2" NCoef="0" IVar="-1" Cut="0.0000000000000000e+00" cType="1" res="8.5070032582734711e-06" rms="4.6597430109977722e-01" purity="5.3471463918685913e-01" nType="-99"/>
          <Node pos="r" depth="2" NCoef="0" IVar="-1" Cut="0.0000000000000000e+00" cType="1" res="1.9439120078459382e-03" rms="4.3843561410903931e-01" purity="6.9349128007888794e-01" nType="-99"/>
        </Node>
        <Node pos="r" depth="1" NCoef="0" IVar="9" Cut="1.5113180875778198e-01" cType="1" res="-9.3063665553927422e-03" rms="4.6259096264839172e-01" purity="4.6764522790908813e-01" nType="0">
          <Node pos="l" depth="2" NCoef="0" IVar="-1" Cut="0.0000000000000000e+00" cType="1" res="-5.5451691150665283e-04" rms="4.6235650777816772e-01" purity="4.4841393828392029e-01" nType="-99"/>
          <Node pos="r" depth="2" NCoef="0" IVar="-1" Cut="0.0000000000000000e+00" cType="1" res="8.6171558359637856e-04" rms="4.6128106117248535e-01" purity="5.5255120992660522e-01" nType="-99"/>
        </Node>
      </Node>
    </BinaryTree>
    <BinaryTree type="DecisionTree" boostWeight="1.0000000000000000e+00" itree="411">
      <Node pos="s" depth="0" NCoef="0" IVar="9" Cut="7.1615040302276611e-02" cType="1" res="7.1561560034751892e-03" rms="4.6376544237136841e-01" purity="5.0134497880935669e-01" nType="0">
        <Node pos="l" depth="1" NCoef="0" IVar="3" Cut="3.1995749473571777e+00" cType="1" res="-1.3194146566092968e-02" rms="4.6501919627189636e-01" purity="4.6411573886871338e-01" nType="0">
          <Node pos="l" depth="2" NCoef="0" IVar="-1" Cut="0.0000000000000000e+00" cType="1" res="-1.2098932347726077e-04" rms="4.7002893686294556e-01" purity="4.8736763000488281e-01" nType="-99"/>
          <Node pos="r" depth="2" NCoef="0" IVar="-1" Cut="0.0000000000000000e+00" cType="1" res="-3.2871908042579889e-03" rms="4.1827845573425293e-01" purity="2.8501421213150024e-01" nType="-99"/>
        </Node>
        <Node pos="r" depth="1" NCoef="0" IVar="4" Cut="1.7385707092285156e+02" cType="1" res="2.4234050884842873e-02" rms="4.6201944351196289e-01" purity="5.3258758783340454e-01" nType="0">
          <Node pos="l" depth="2" NCoef="0" IVar="-1" Cut="0.0000000000000000e+00" cType="1" res="3.0119245639070868e-04" rms="4.6557286381721497e-01" purity="4.9034643173217773e-01" nType="-99"/>
          <Node pos="r" depth="2" NCoef="0" IVar="-1" Cut="0.0000000000000000e+00" cType="1" res="1.3280417770147324e-03" rms="4.5202890038490295e-01" purity="6.3161885738372803e-01" nType="-99"/>
        </Node>
      </Node>
    </BinaryTree>
    <BinaryTree type="DecisionTree" boostWeight="1.0000000000000000e+00" itree="412">
      <Node pos="s" depth="0" NCoef="0" IVar="3" Cut="8.1481891870498657e-01" cType="1" res="9.8862228915095329e-03" rms="4.6407204866409302e-01" purity="5.0527781248092651e-01" nType="0">
        <Node pos="l" depth="1" NCoef="0" IVar="-1" Cut="0.0000000000000000e+00" cType="1" res="1.7052412731572986e-03" rms="4.5323964953422546e-01" purity="6.3459426164627075e-01" nType="-99"/>
        <Node pos="r" depth="1" NCoef="0" IVar="1" Cut="-2.1283330917358398e+00" cType="1" res="5.1333792507648468e-03" rms="4.6450650691986084e-01" purity="4.9574524164199829e-01" nType="0">
          <Node pos="l" depth="2" NCoef="0" IVar="-1" Cut="0.0000000000000000e+00" cType="1" res="-3.7855640985071659e-03" rms="4.0350523591041565e-01" purity="2.1172717213630676e-01" nType="-99"/>
          <Node pos="r" depth="2" NCoef="0" IVar="-1" Cut="0.0000000000000000e+00" cType="1" res="2.5348170311190188e-04" rms="4.6758025884628296e-01" purity="5.1290029287338257e-01" nType="-99"/>
        </Node>
      </Node>
    </BinaryTree>
    <BinaryTree type="DecisionTree" boostWeight="1.0000000000000000e+00" itree="413">
      <Node pos="s" depth="0" NCoef="0" IVar="9" Cut="2.0974721014499664e-01" cType="1" res="1.5028612688183784e-03" rms="4.6435144543647766e-01" purity="4.9470657110214233e-01" nType="0">
        <Node pos="l" depth="1" NCoef="0" IVar="6" Cut="9.0022021532058716e-01" cType="1" res="-3.6007501184940338e-03" rms="4.6493932604789734e-01" purity="4.8536902666091919e-01" nType="0">
          <Node pos="l" depth="2" NCoef="0" IVar="-1" Cut="0.0000000000000000e+00" cType="1" res="-2.2374931722879410e-03" rms="4.5646589994430542e-01" purity="3.8389459252357483e-01" nType="-99"/>
          <Node pos="r" depth="2" NCoef="0" IVar="-1" Cut="0.0000000000000000e+00" cType="1" res="1.4492163245449774e-05" rms="4.6510851383209229e-01" purity="4.9137049913406372e-01" nType="-99"/>
        </Node>
        <Node pos="r" depth="1" NCoef="0" IVar="-1" Cut="0.0000000000000000e+00" cType="1" res="1.6278747934848070e-03" rms="4.5154106616973877e-01" purity="6.1527425050735474e-01" nType="-99"/>
      </Node>
    </BinaryTree>
    <BinaryTree type="DecisionTree" boostWeight="1.0000000000000000e+00" itree="414">
      <Node pos="s" depth="0" NCoef="0" IVar="8" Cut="3.7866491079330444e-01" cType="1" res="3.7295711226761341e-03" rms="4.6274429559707642e-01" purity="4.9884611368179321e-01" nType="0">
        <Node pos="l" depth="1" NCoef="0" IVar="4" Cut="3.3787680053710938e+02" cType="1" res="-2.7256904169917107e-02" rms="4.6079090237617493e-01" purity="4.4901326298713684e-01" nType="0">
          <Node pos="l" depth="2" NCoef="0" IVar="-1" Cut="0.0000000000000000e+00" cType="1" res="-1.3483451912179589e-03" rms="4.5932719111442566e-01" purity="4.1402140259742737e-01" nType="-99"/>
          <Node pos="r" depth="2" NCoef="0" IVar="-1" Cut="0.0000000000000000e+00" cType="1" res="9.5900817541405559e-04" rms="4.6082371473312378e-01" purity="5.9749776124954224e-01" nType="-99"/>
        </Node>
        <Node pos="r" depth="1" NCoef="0" IVar="4" Cut="8.7699645996093750e+01" cType="1" res="1.8271628767251968e-02" rms="4.6294364333152771e-01" purity="5.2223283052444458e-01" nType="0">
          <Node pos="l" depth="2" NCoef="0" IVar="-1" Cut="0.0000000000000000e+00" cType="1" res="-1.5511678066104650e-03" rms="4.5802366733551025e-01" purity="3.7083345651626587e-01" nType="-99"/>
          <Node pos="r" depth="2" NCoef="0" IVar="-1" Cut="0.0000000000000000e+00" cType="1" res="7.0474023232236505e-04" rms="4.6292018890380859e-01" purity="5.4317772388458252e-01" nType="-99"/>
        </Node>
      </Node>
    </BinaryTree>
    <BinaryTree type="DecisionTree" boostWeight="1.0000000000000000e+00" itree="415">
      <Node pos="s" depth="0" NCoef="0" IVar="4" Cut="9.6920761108398438e+01" cType="1" res="7.9977390123531222e-04" rms="4.5951703190803528e-01" purity="4.9912363290786743e-01" nType="0">
        <Node pos="l" depth="1" NCoef="0" IVar="3" Cut="1.9140324592590332e+00" cType="1" res="-4.9972787499427795e-02" rms="4.4855687022209167e-01" purity="3.6510723829269409e-01" nType="0">
          <Node pos="l" depth="2" NCoef="0" IVar="-1" Cut="0.0000000000000000e+00" cType="1" res="-2.9058351647108793e-03" rms="4.3838319182395935e-01" purity="3.7514439225196838e-01" nType="-99"/>
          <Node pos="r" depth="2" NCoef="0" IVar="-1" Cut="0.0000000000000000e+00" cType="1" res="-1.0066973045468330e-03" rms="4.5266720652580261e-01" purity="3.5952010750770569e-01" nType="-99"/>
        </Node>
        <Node pos="r" depth="1" NCoef="0" IVar="1" Cut="2.6159532070159912e+00" cType="1" res="9.3682492151856422e-03" rms="4.6078962087631226e-01" purity="5.2174049615859985e-01" nType="0">
          <Node pos="l" depth="2" NCoef="0" IVar="-1" Cut="0.0000000000000000e+00" cType="1" res="6.1722821556031704e-05" rms="4.6871349215507507e-01" purity="4.8578026890754700e-01" nType="-99"/>
          <Node pos="r" depth="2" NCoef="0" IVar="-1" Cut="0.0000000000000000e+00" cType="1" res="1.4854124747216702e-03" rms="3.8675686717033386e-01" purity="8.1024110317230225e-01" nType="-99"/>
        </Node>
      </Node>
    </BinaryTree>
    <BinaryTree type="DecisionTree" boostWeight="1.0000000000000000e+00" itree="416">
      <Node pos="s" depth="0" NCoef="0" IVar="0" Cut="6.7099548339843750e+01" cType="1" res="6.7563839256763458e-03" rms="4.6317392587661743e-01" purity="5.0047236680984497e-01" nType="0">
        <Node pos="l" depth="1" NCoef="0" IVar="-1" Cut="0.0000000000000000e+00" cType="1" res="-1.7983301077038050e-03" rms="4.5691764354705811e-01" purity="4.5502975583076477e-01" nType="-99"/>
        <Node pos="r" depth="1" NCoef="0" IVar="3" Cut="1.4282928705215454e+00" cType="1" res="1.2946940958499908e-02" rms="4.6321994066238403e-01" purity="5.0451356172561646e-01" nType="0">
          <Node pos="l" depth="2" NCoef="0" IVar="-1" Cut="0.0000000000000000e+00" cType="1" res="1.3881271006539464e-03" rms="4.5205169916152954e-01" purity="6.3915818929672241e-01" nType="-99"/>
          <Node pos="r" depth="2" NCoef="0" IVar="-1" Cut="0.0000000000000000e+00" cType="1" res="1.2349407188594341e-04" rms="4.6476259827613831e-01" purity="4.7945106029510498e-01" nType="-99"/>
        </Node>
      </Node>
    </BinaryTree>
    <BinaryTree type="DecisionTree" boostWeight="1.0000000000000000e+00" itree="417">
      <Node pos="s" depth="0" NCoef="0" IVar="1" Cut="2.6009943485260010e+00" cType="1" res="3.6628150846809149e-03" rms="4.6146157383918762e-01" purity="4.9999573826789856e-01" nType="0">
        <Node pos="l" depth="1" NCoef="0" IVar="8" Cut="3.7342879176139832e-01" cType="1" res="-2.8698747046291828e-03" rms="4.6860277652740479e-01" purity="4.6513080596923828e-01" nType="0">
          <Node pos="l" depth="2" NCoef="0" IVar="-1" Cut="0.0000000000000000e+00" cType="1" res="-1.0059326887130737e-03" rms="4.6535205841064453e-01" purity="4.1269356012344360e-01" nType="-99"/>
          <Node pos="r" depth="2" NCoef="0" IVar="-1" Cut="0.0000000000000000e+00" cType="1" res="2.1901792206335813e-04" rms="4.6927314996719360e-01" purity="4.8372411727905273e-01" nType="-99"/>
        </Node>
        <Node pos="r" depth="1" NCoef="0" IVar="-1" Cut="0.0000000000000000e+00" cType="1" res="1.3794817496091127e-03" rms="3.8855278491973877e-01" purity="8.0608189105987549e-01" nType="-99"/>
      </Node>
    </BinaryTree>
    <BinaryTree type="DecisionTree" boostWeight="1.0000000000000000e+00" itree="418">
      <Node pos="s" depth="0" NCoef="0" IVar="3" Cut="1.5042204856872559e+00" cType="1" res="8.2582868635654449e-03" rms="4.6240687370300293e-01" purity="5.0484317541122437e-01" nType="0">
        <Node pos="l" depth="1" NCoef="0" IVar="0" Cut="1.0881616973876953e+02" cType="1" res="3.7838153541088104e-02" rms="4.5686739683151245e-01" purity="5.9308546781539917e-01" nType="0">
          <Node pos="l" depth="2" NCoef="0" IVar="-1" Cut="0.0000000000000000e+00" cType="1" res="-1.5874599921517074e-04" rms="4.6408891677856445e-01" purity="5.2810233831405640e-01" nType="-99"/>
          <Node pos="r" depth="2" NCoef="0" IVar="-1" Cut="0.0000000000000000e+00" cType="1" res="2.8310788329690695e-03" rms="4.2646449804306030e-01" purity="7.3081046342849731e-01" nType="-99"/>
        </Node>
        <Node pos="r" depth="1" NCoef="0" IVar="7" Cut="-4.2155630886554718e-02" cType="1" res="-1.7862003296613693e-03" rms="4.6384406089782715e-01" purity="4.7487857937812805e-01" nType="0">
          <Node pos="l" depth="2" NCoef="0" IVar="-1" Cut="0.0000000000000000e+00" cType="1" res="1.2683294480666518e-03" rms="4.5343551039695740e-01" purity="5.7616198062896729e-01" nType="-99"/>
          <Node pos="r" depth="2" NCoef="0" IVar="-1" Cut="0.0000000000000000e+00" cType="1" res="-2.0963685528840870e-04" rms="4.6458768844604492e-01" purity="4.6422651410102844e-01" nType="-99"/>
        </Node>
      </Node>
    </BinaryTree>
    <BinaryTree type="DecisionTree" boostWeight="1.0000000000000000e+00" itree="419">
      <Node pos="s" depth="0" NCoef="0" IVar="6" Cut="9.4672346115112305e-01" cType="1" res="1.3698823750019073e-02" rms="4.6478983759880066e-01" purity="5.0928562879562378e-01" nType="0">
        <Node pos="l" depth="1" NCoef="0" IVar="5" Cut="-5.3998704999685287e-02" cType="1" res="-1.4233996160328388e-02" rms="4.6508523821830750e-01" purity="4.6348118782043457e-01" nType="0">
          <Node pos="l" depth="2" NCoef="0" IVar="-1" Cut="0.0000000000000000e+00" cType="1" res="-2.2518560290336609e-03" rms="4.4156786799430847e-01" purity="3.8404580950737000e-01" nType="-99"/>
          <Node pos="r" depth="2" NCoef="0" IVar="-1" Cut="0.0000000000000000e+00" cType="1" res="-1.3468344695866108e-04" rms="4.6831122040748596e-01" purity="4.7694215178489685e-01" nType="-99"/>
        </Node>
        <Node pos="r" depth="1" NCoef="0" IVar="4" Cut="1.6781391906738281e+02" cType="1" res="2.9286563396453857e-02" rms="4.6389430761337280e-01" purity="5.3484648466110229e-01" nType="0">
          <Node pos="l" depth="2" NCoef="0" IVar="-1" Cut="0.0000000000000000e+00" cType="1" res="2.7883259463123977e-04" rms="4.6287763118743896e-01" purity="4.8444086313247681e-01" nType="-99"/>
          <Node pos="r" depth="2" NCoef="0" IVar="-1" Cut="0.0000000000000000e+00" cType="1" res="1.3032124843448400e-03" rms="4.6402746438980103e-01" purity="5.9623438119888306e-01" nType="-99"/>
        </Node>
      </Node>
    </BinaryTree>
    <BinaryTree type="DecisionTree" boostWeight="1.0000000000000000e+00" itree="420">
      <Node pos="s" depth="0" NCoef="0" IVar="8" Cut="3.5636642575263977e-01" cType="1" res="-1.0438810568302870e-03" rms="4.6310141682624817e-01" purity="4.9134197831153870e-01" nType="0">
        <Node pos="l" depth="1" NCoef="0" IVar="5" Cut="1.4486070722341537e-03" cType="1" res="-5.4997455328702927e-02" rms="4.5888468623161316e-01" purity="4.0954598784446716e-01" nType="0">
          <Node pos="l" depth="2" NCoef="0" IVar="-1" Cut="0.0000000000000000e+00" cType="1" res="-2.6648873463273048e-03" rms="4.5134109258651733e-01" purity="3.7718668580055237e-01" nType="-99"/>
          <Node pos="r" depth="2" NCoef="0" IVar="-1" Cut="0.0000000000000000e+00" cType="1" res="-7.2059698868542910e-04" rms="4.6549463272094727e-01" purity="4.4641524553298950e-01" nType="-99"/>
        </Node>
        <Node pos="r" depth="1" NCoef="0" IVar="0" Cut="1.7887261962890625e+02" cType="1" res="7.7259922400116920e-03" rms="4.6318978071212769e-01" purity="5.0463747978210449e-01" nType="0">
          <Node pos="l" depth="2" NCoef="0" IVar="-1" Cut="0.0000000000000000e+00" cType="1" res="5.6556717026978731e-04" rms="4.6401187777519226e-01" purity="5.3261387348175049e-01" nType="-99"/>
          <Node pos="r" depth="2" NCoef="0" IVar="-1" Cut="0.0000000000000000e+00" cType="1" res="-5.5589200928807259e-04" rms="4.6045026183128357e-01" purity="4.5029458403587341e-01" nType="-99"/>
        </Node>
      </Node>
    </BinaryTree>
    <BinaryTree type="DecisionTree" boostWeight="1.0000000000000000e+00" itree="421">
      <Node pos="s" depth="0" NCoef="0" IVar="0" Cut="6.7178825378417969e+01" cType="1" res="1.2847199104726315e-02" rms="4.6343240141868591e-01" purity="5.0552088022232056e-01" nType="0">
        <Node pos="l" depth="1" NCoef="0" IVar="-1" Cut="0.0000000000000000e+00" cType="1" res="-1.4985087327659130e-03" rms="4.5788103342056274e-01" purity="4.6049049496650696e-01" nType="-99"/>
        <Node pos="r" depth="1" NCoef="0" IVar="3" Cut="1.3194202184677124e+00" cType="1" res="1.8634181469678879e-02" rms="4.6347802877426147e-01" purity="5.0951355695724487e-01" nType="0">
          <Node pos="l" depth="2" NCoef="0" IVar="-1" Cut="0.0000000000000000e+00" cType="1" res="2.1430531051009893e-03" rms="4.4271674752235413e-01" purity="6.7656606435775757e-01" nType="-99"/>
          <Node pos="r" depth="2" NCoef="0" IVar="-1" Cut="0.0000000000000000e+00" cType="1" res="2.1032101358287036e-04" rms="4.6545386314392090e-01" purity="4.8466020822525024e-01" nType="-99"/>
        </Node>
      </Node>
    </BinaryTree>
    <BinaryTree type="DecisionTree" boostWeight="1.0000000000000000e+00" itree="422">
      <Node pos="s" depth="0" NCoef="0" IVar="3" Cut="2.0538778305053711e+00" cType="1" res="-1.2826583406422287e-04" rms="4.6153753995895386e-01" purity="4.9214833974838257e-01" nType="0">
        <Node pos="l" depth="1" NCoef="0" IVar="0" Cut="8.2359329223632812e+01" cType="1" res="2.3480158299207687e-02" rms="4.6371209621429443e-01" purity="5.6380414962768555e-01" nType="0">
          <Node pos="l" depth="2" NCoef="0" IVar="-1" Cut="0.0000000000000000e+00" cType="1" res="-5.8855669340118766e-04" rms="4.7022256255149841e-01" purity="4.9568030238151550e-01" nType="-99"/>
          <Node pos="r" depth="2" NCoef="0" IVar="-1" Cut="0.0000000000000000e+00" cType="1" res="1.0885514784604311e-03" rms="4.5910423994064331e-01" purity="5.9563636779785156e-01" nType="-99"/>
        </Node>
        <Node pos="r" depth="1" NCoef="0" IVar="0" Cut="1.4616690063476562e+02" cType="1" res="-1.8301764503121376e-02" rms="4.5903024077415466e-01" purity="4.3698853254318237e-01" nType="0">
          <Node pos="l" depth="2" NCoef="0" IVar="-1" Cut="0.0000000000000000e+00" cType="1" res="3.0241796048358083e-04" rms="4.6371266245841980e-01" purity="4.7153025865554810e-01" nType="-99"/>
          <Node pos="r" depth="2" NCoef="0" IVar="-1" Cut="0.0000000000000000e+00" cType="1" res="-9.5192057779058814e-04" rms="4.5649775862693787e-01" purity="4.2246183753013611e-01" nType="-99"/>
        </Node>
      </Node>
    </BinaryTree>
    <BinaryTree type="DecisionTree" boostWeight="1.0000000000000000e+00" itree="423">
      <Node pos="s" depth="0" NCoef="0" IVar="2" Cut="8.3563184738159180e-01" cType="1" res="1.1135317385196686e-02" rms="4.6206939220428467e-01" purity="5.0669974088668823e-01" nType="0">
        <Node pos="l" depth="1" NCoef="0" IVar="4" Cut="3.3349969482421875e+02" cType="1" res="5.9934598393738270e-03" rms="4.6361058950424194e-01" purity="4.9550116062164307e-01" nType="0">
          <Node pos="l" depth="2" NCoef="0" IVar="-1" Cut="0.0000000000000000e+00" cType="1" res="2.5906101654982194e-06" rms="4.6367913484573364e-01" purity="4.8172712326049805e-01" nType="-99"/>
          <Node pos="r" depth="2" NCoef="0" IVar="-1" Cut="0.0000000000000000e+00" cType="1" res="1.3860211474820971e-03" rms="4.5944941043853760e-01" purity="6.2200289964675903e-01" nType="-99"/>
        </Node>
        <Node pos="r" depth="1" NCoef="0" IVar="-1" Cut="0.0000000000000000e+00" cType="1" res="2.0087722223252058e-03" rms="4.3222683668136597e-01" purity="6.6937983036041260e-01" nType="-99"/>
      </Node>
    </BinaryTree>
    <BinaryTree type="DecisionTree" boostWeight="1.0000000000000000e+00" itree="424">
      <Node pos="s" depth="0" NCoef="0" IVar="4" Cut="1.5675068664550781e+02" cType="1" res="-2.6018128264695406e-03" rms="4.6043676137924194e-01" purity="4.9301850795745850e-01" nType="0">
        <Node pos="l" depth="1" NCoef="0" IVar="9" Cut="1.2907460331916809e-01" cType="1" res="-2.2881422191858292e-02" rms="4.5759516954421997e-01" purity="4.3471381068229675e-01" nType="0">
          <Node pos="l" depth="2" NCoef="0" IVar="-1" Cut="0.0000000000000000e+00" cType="1" res="-1.3726517790928483e-03" rms="4.5286339521408081e-01" purity="3.9229550957679749e-01" nType="-99"/>
          <Node pos="r" depth="2" NCoef="0" IVar="-1" Cut="0.0000000000000000e+00" cType="1" res="3.3726257970556617e-04" rms="4.6387177705764771e-01" purity="5.1076596975326538e-01" nType="-99"/>
        </Node>
        <Node pos="r" depth="1" NCoef="0" IVar="1" Cut="-6.0587882995605469e-01" cType="1" res="1.7514560371637344e-02" rms="4.6236035227775574e-01" purity="5.5085396766662598e-01" nType="0">
          <Node pos="l" depth="2" NCoef="0" IVar="-1" Cut="0.0000000000000000e+00" cType="1" res="-6.5738492412492633e-04" rms="4.6227446198463440e-01" purity="3.3004167675971985e-01" nType="-99"/>
          <Node pos="r" depth="2" NCoef="0" IVar="-1" Cut="0.0000000000000000e+00" cType="1" res="6.8695715162903070e-04" rms="4.6177697181701660e-01" purity="6.2820041179656982e-01" nType="-99"/>
        </Node>
      </Node>
    </BinaryTree>
    <BinaryTree type="DecisionTree" boostWeight="1.0000000000000000e+00" itree="425">
      <Node pos="s" depth="0" NCoef="0" IVar="7" Cut="2.0493069663643837e-02" cType="1" res="7.0243394002318382e-03" rms="4.6307116746902466e-01" purity="5.0155049562454224e-01" nType="0">
        <Node pos="l" depth="1" NCoef="0" IVar="5" Cut="-2.9864253476262093e-02" cType="1" res="2.7304287999868393e-02" rms="4.6169331669807434e-01" purity="5.4958069324493408e-01" nType="0">
          <Node pos="l" depth="2" NCoef="0" IVar="-1" Cut="0.0000000000000000e+00" cType="1" res="1.8220227211713791e-03" rms="4.6088421344757080e-01" purity="5.8242708444595337e-01" nType="-99"/>
          <Node pos="r" depth="2" NCoef="0" IVar="-1" Cut="0.0000000000000000e+00" cType="1" res="2.0553187641780823e-04" rms="4.6062615513801575e-01" purity="5.3575611114501953e-01" nType="-99"/>
        </Node>
        <Node pos="r" depth="1" NCoef="0" IVar="4" Cut="2.0570547485351562e+02" cType="1" res="-7.6493937522172928e-03" rms="4.6351262927055359e-01" purity="4.6679785847663879e-01" nType="0">
          <Node pos="l" depth="2" NCoef="0" IVar="-1" Cut="0.0000000000000000e+00" cType="1" res="-7.6336105121299624e-04" rms="4.6007618308067322e-01" purity="4.2511004209518433e-01" nType="-99"/>
          <Node pos="r" depth="2" NCoef="0" IVar="-1" Cut="0.0000000000000000e+00" cType="1" res="7.3582981713116169e-04" rms="4.6862155199050903e-01" purity="5.5521857738494873e-01" nType="-99"/>
        </Node>
      </Node>
    </BinaryTree>
    <BinaryTree type="DecisionTree" boostWeight="1.0000000000000000e+00" itree="426">
      <Node pos="s" depth="0" NCoef="0" IVar="3" Cut="2.9961841106414795e+00" cType="1" res="3.3994803670793772e-03" rms="4.6291315555572510e-01" purity="4.9931159615516663e-01" nType="0">
        <Node pos="l" depth="1" NCoef="0" IVar="8" Cut="3.6891341209411621e-01" cType="1" res="1.1508665978908539e-02" rms="4.6493810415267944e-01" purity="5.2635908126831055e-01" nType="0">
          <Node pos="l" depth="2" NCoef="0" IVar="-1" Cut="0.0000000000000000e+00" cType="1" res="-7.7617855276912451e-04" rms="4.6706905961036682e-01" purity="4.6309927105903625e-01" nType="-99"/>
          <Node pos="r" depth="2" NCoef="0" IVar="-1" Cut="0.0000000000000000e+00" cType="1" res="5.7055446086451411e-04" rms="4.6378713846206665e-01" purity="5.4374438524246216e-01" nType="-99"/>
        </Node>
        <Node pos="r" depth="1" NCoef="0" IVar="4" Cut="2.0244036865234375e+02" cType="1" res="-3.4910541027784348e-02" rms="4.5125821232795715e-01" purity="3.7153166532516479e-01" nType="0">
          <Node pos="l" depth="2" NCoef="0" IVar="-1" Cut="0.0000000000000000e+00" cType="1" res="-1.8979802262037992e-03" rms="4.4217631220817566e-01" purity="3.3323317766189575e-01" nType="-99"/>
          <Node pos="r" depth="2" NCoef="0" IVar="-1" Cut="0.0000000000000000e+00" cType="1" res="7.5764255598187447e-05" rms="4.6983653306961060e-01" purity="4.6178933978080750e-01" nType="-99"/>
        </Node>
      </Node>
    </BinaryTree>
    <BinaryTree type="DecisionTree" boostWeight="1.0000000000000000e+00" itree="427">
      <Node pos="s" depth="0" NCoef="0" IVar="4" Cut="7.7859535217285156e+01" cType="1" res="2.5247090961784124e-03" rms="4.6176850795745850e-01" purity="5.0038313865661621e-01" nType="0">
        <Node pos="l" depth="1" NCoef="0" IVar="-1" Cut="0.0000000000000000e+00" cType="1" res="-2.9529894236475229e-03" rms="4.3726396560668945e-01" purity="3.2250642776489258e-01" nType="-99"/>
        <Node pos="r" depth="1" NCoef="0" IVar="8" Cut="3.4475100040435791e-01" cType="1" res="6.8443301133811474e-03" rms="4.6265947818756104e-01" purity="5.0997710227966309e-01" nType="0">
          <Node pos="l" depth="2" NCoef="0" IVar="-1" Cut="0.0000000000000000e+00" cType="1" res="-1.4346082461997867e-03" rms="4.6380704641342163e-01" purity="4.2367354035377502e-01" nType="-99"/>
          <Node pos="r" depth="2" NCoef="0" IVar="-1" Cut="0.0000000000000000e+00" cType="1" res="3.4149442217312753e-04" rms="4.6215429902076721e-01" purity="5.1935541629791260e-01" nType="-99"/>
        </Node>
      </Node>
    </BinaryTree>
    <BinaryTree type="DecisionTree" boostWeight="1.0000000000000000e+00" itree="428">
      <Node pos="s" depth="0" NCoef="0" IVar="2" Cut="7.9907977581024170e-01" cType="1" res="-9.8763091955333948e-04" rms="4.6323564648628235e-01" purity="4.9447062611579895e-01" nType="0">
        <Node pos="l" depth="1" NCoef="0" IVar="5" Cut="5.0918109714984894e-02" cType="1" res="-6.7829135805368423e-03" rms="4.6427294611930847e-01" purity="4.7939530014991760e-01" nType="0">
          <Node pos="l" depth="2" NCoef="0" IVar="-1" Cut="0.0000000000000000e+00" cType="1" res="-4.1802955092862248e-04" rms="4.6216753125190735e-01" purity="4.7316539287567139e-01" nType="-99"/>
          <Node pos="r" depth="2" NCoef="0" IVar="-1" Cut="0.0000000000000000e+00" cType="1" res="8.1852718722075224e-04" rms="4.7231599688529968e-01" purity="5.0881373882293701e-01" nType="-99"/>
        </Node>
        <Node pos="r" depth="1" NCoef="0" IVar="-1" Cut="0.0000000000000000e+00" cType="1" res="1.2018590932711959e-03" rms="4.5095071196556091e-01" purity="6.2587577104568481e-01" nType="-99"/>
      </Node>
    </BinaryTree>
    <BinaryTree type="DecisionTree" boostWeight="1.0000000000000000e+00" itree="429">
      <Node pos="s" depth="0" NCoef="0" IVar="3" Cut="3.0327973365783691e+00" cType="1" res="8.5979765281081200e-03" rms="4.6146669983863831e-01" purity="5.0479722023010254e-01" nType="0">
        <Node pos="l" depth="1" NCoef="0" IVar="1" Cut="-1.4877054691314697e+00" cType="1" res="1.6876168549060822e-02" rms="4.6326446533203125e-01" purity="5.3066849708557129e-01" nType="0">
          <Node pos="l" depth="2" NCoef="0" IVar="-1" Cut="0.0000000000000000e+00" cType="1" res="-1.8546484643593431e-03" rms="4.3569087982177734e-01" purity="2.6400172710418701e-01" nType="-99"/>
          <Node pos="r" depth="2" NCoef="0" IVar="-1" Cut="0.0000000000000000e+00" cType="1" res="6.2908569816499949e-04" rms="4.6682462096214294e-01" purity="5.7236295938491821e-01" nType="-99"/>
        </Node>
        <Node pos="r" depth="1" NCoef="0" IVar="3" Cut="3.4038336277008057e+00" cType="1" res="-3.4179005771875381e-02" rms="4.4964087009429932e-01" purity="3.7110909819602966e-01" nType="0">
          <Node pos="l" depth="2" NCoef="0" IVar="-1" Cut="0.0000000000000000e+00" cType="1" res="-5.0489534623920918e-04" rms="4.6463054418563843e-01" purity="4.1024079918861389e-01" nType="-99"/>
          <Node pos="r" depth="2" NCoef="0" IVar="-1" Cut="0.0000000000000000e+00" cType="1" res="-3.0672254506498575e-03" rms="4.1196706891059875e-01" purity="2.8527024388313293e-01" nType="-99"/>
        </Node>
      </Node>
    </BinaryTree>
    <BinaryTree type="DecisionTree" boostWeight="1.0000000000000000e+00" itree="430">
      <Node pos="s" depth="0" NCoef="0" IVar="1" Cut="2.5552651882171631e+00" cType="1" res="-3.1287216115742922e-03" rms="4.6178135275840759e-01" purity="4.9177658557891846e-01" nType="0">
        <Node pos="l" depth="1" NCoef="0" IVar="6" Cut="9.8065942525863647e-01" cType="1" res="-9.9664032459259033e-03" rms="4.6872743964195251e-01" purity="4.5513752102851868e-01" nType="0">
          <Node pos="l" depth="2" NCoef="0" IVar="-1" Cut="0.0000000000000000e+00" cType="1" res="-5.4982671281322837e-04" rms="4.6716788411140442e-01" purity="4.4010573625564575e-01" nType="-99"/>
          <Node pos="r" depth="2" NCoef="0" IVar="-1" Cut="0.0000000000000000e+00" cType="1" res="3.1466130167245865e-04" rms="4.7181558609008789e-01" purity="4.9174311757087708e-01" nType="-99"/>
        </Node>
        <Node pos="r" depth="1" NCoef="0" IVar="-1" Cut="0.0000000000000000e+00" cType="1" res="1.2268790742382407e-03" rms="3.9466336369514465e-01" purity="7.9702454805374146e-01" nType="-99"/>
      </Node>
    </BinaryTree>
    <BinaryTree type="DecisionTree" boostWeight="1.0000000000000000e+00" itree="431">
      <Node pos="s" depth="0" NCoef="0" IVar="8" Cut="4.0700632333755493e-01" cType="1" res="4.4336696155369282e-03" rms="4.6261829137802124e-01" purity="4.9865776300430298e-01" nType="0">
        <Node pos="l" depth="1" NCoef="0" IVar="1" Cut="2.4006247520446777e+00" cType="1" res="-1.8131966935470700e-03" rms="4.6272447705268860e-01" purity="4.8315256834030151e-01" nType="0">
          <Node pos="l" depth="2" NCoef="0" IVar="-1" Cut="0.0000000000000000e+00" cType="1" res="-2.3128742759581655e-04" rms="4.6909710764884949e-01" purity="4.4450438022613525e-01" nType="-99"/>
          <Node pos="r" depth="2" NCoef="0" IVar="-1" Cut="0.0000000000000000e+00" cType="1" res="1.0475792223587632e-03" rms="4.0697744488716125e-01" purity="7.8234708309173584e-01" nType="-99"/>
        </Node>
        <Node pos="r" depth="1" NCoef="0" IVar="0" Cut="1.4764370727539062e+02" cType="1" res="4.5491535216569901e-02" rms="4.5981246232986450e-01" purity="6.0056626796722412e-01" nType="0">
          <Node pos="l" depth="2" NCoef="0" IVar="-1" Cut="0.0000000000000000e+00" cType="1" res="1.6298908740282059e-03" rms="4.5658168196678162e-01" purity="6.4201289415359497e-01" nType="-99"/>
          <Node pos="r" depth="2" NCoef="0" IVar="-1" Cut="0.0000000000000000e+00" cType="1" res="4.8508864711038768e-04" rms="4.6184882521629333e-01" purity="5.5591464042663574e-01" nType="-99"/>
        </Node>
      </Node>
    </BinaryTree>
    <BinaryTree type="DecisionTree" boostWeight="1.0000000000000000e+00" itree="432">
      <Node pos="s" depth="0" NCoef="0" IVar="9" Cut="1.2500225007534027e-01" cType="1" res="1.9703167490661144e-03" rms="4.6374708414077759e-01" purity="4.9236145615577698e-01" nType="0">
        <Node pos="l" depth="1" NCoef="0" IVar="1" Cut="2.2391695976257324e+00" cType="1" res="-9.9131641909480095e-03" rms="4.6312242746353149e-01" purity="4.6880170702934265e-01" nType="0">
          <Node pos="l" depth="2" NCoef="0" IVar="-1" Cut="0.0000000000000000e+00" cType="1" res="-5.3060817299410701e-04" rms="4.6939888596534729e-01" purity="4.1994309425354004e-01" nType="-99"/>
          <Node pos="r" depth="2" NCoef="0" IVar="-1" Cut="0.0000000000000000e+00" cType="1" res="7.9979764996096492e-04" rms="4.2137107253074646e-01" purity="7.5695741176605225e-01" nType="-99"/>
        </Node>
        <Node pos="r" depth="1" NCoef="0" IVar="4" Cut="9.5962272644042969e+01" cType="1" res="3.3894743770360947e-02" rms="4.6391618251800537e-01" purity="5.5565357208251953e-01" nType="0">
          <Node pos="l" depth="2" NCoef="0" IVar="-1" Cut="0.0000000000000000e+00" cType="1" res="-7.1220834797713906e-05" rms="4.6147942543029785e-01" purity="4.5002841949462891e-01" nType="-99"/>
          <Node pos="r" depth="2" NCoef="0" IVar="-1" Cut="0.0000000000000000e+00" cType="1" res="1.1281158076599240e-03" rms="4.6409350633621216e-01" purity="5.8977746963500977e-01" nType="-99"/>
        </Node>
      </Node>
    </BinaryTree>
    <BinaryTree type="DecisionTree" boostWeight="1.0000000000000000e+00" itree="433">
      <Node pos="s" depth="0" NCoef="0" IVar="3" Cut="1.7939521074295044e+00" cType="1" res="1.0516322217881680e-02" rms="4.6202144026756287e-01" purity="5.0580823421478271e-01" nType="0">
        <Node pos="l" depth="1" NCoef="0" IVar="0" Cut="9.5352394104003906e+01" cType="1" res="3.5638358443975449e-02" rms="4.6064680814743042e-01" purity="5.8530479669570923e-01" nType="0">
          <Node pos="l" depth="2" NCoef="0" IVar="-1" Cut="0.0000000000000000e+00" cType="1" res="-8.8138622231781483e-05" rms="4.6758747100830078e-01" purity="5.1489126682281494e-01" nType="-99"/>
          <Node pos="r" depth="2" NCoef="0" IVar="-1" Cut="0.0000000000000000e+00" cType="1" res="1.6425299691036344e-03" rms="4.5119124650955200e-01" purity="6.5015935897827148e-01" nType="-99"/>
        </Node>
        <Node pos="r" depth="1" NCoef="0" IVar="9" Cut="4.5383065938949585e-02" cType="1" res="-2.7567853685468435e-03" rms="4.6219506859779358e-01" purity="4.6380659937858582e-01" nType="0">
          <Node pos="l" depth="2" NCoef="0" IVar="-1" Cut="0.0000000000000000e+00" cType="1" res="-9.4015360809862614e-04" rms="4.5774611830711365e-01" purity="4.0783563256263733e-01" nType="-99"/>
          <Node pos="r" depth="2" NCoef="0" IVar="-1" Cut="0.0000000000000000e+00" cType="1" res="2.0378921180963516e-04" rms="4.6334987878799438e-01" purity="4.8356217145919800e-01" nType="-99"/>
        </Node>
      </Node>
    </BinaryTree>
    <BinaryTree type="DecisionTree" boostWeight="1.0000000000000000e+00" itree="434">
      <Node pos="s" depth="0" NCoef="0" IVar="4" Cut="1.0095079040527344e+02" cType="1" res="5.2469815127551556e-03" rms="4.6014142036437988e-01" purity="5.0250595808029175e-01" nType="0">
        <Node pos="l" depth="1" NCoef="0" IVar="0" Cut="9.2605094909667969e+01" cType="1" res="-4.7907605767250061e-02" rms="4.4897893071174622e-01" purity="3.7118831276893616e-01" nType="0">
          <Node pos="l" depth="2" NCoef="0" IVar="-1" Cut="0.0000000000000000e+00" cType="1" res="-3.1375109683722258e-03" rms="4.4172814488410950e-01" purity="3.5398277640342712e-01" nType="-99"/>
          <Node pos="r" depth="2" NCoef="0" IVar="-1" Cut="0.0000000000000000e+00" cType="1" res="-9.3416415620595217e-04" rms="4.5081266760826111e-01" purity="3.7903413176536560e-01" nType="-99"/>
        </Node>
        <Node pos="r" depth="1" NCoef="0" IVar="9" Cut="6.8433597683906555e-02" cType="1" res="1.5730665996670723e-02" rms="4.6158906817436218e-01" purity="5.2840566635131836e-01" nType="0">
          <Node pos="l" depth="2" NCoef="0" IVar="-1" Cut="0.0000000000000000e+00" cType="1" res="-1.9672488269861788e-04" rms="4.6239590644836426e-01" purity="4.8455208539962769e-01" nType="-99"/>
          <Node pos="r" depth="2" NCoef="0" IVar="-1" Cut="0.0000000000000000e+00" cType="1" res="9.3283387832343578e-04" rms="4.5986431837081909e-01" purity="5.6840956211090088e-01" nType="-99"/>
        </Node>
      </Node>
    </BinaryTree>
    <BinaryTree type="DecisionTree" boostWeight="1.0000000000000000e+00" itree="435">
      <Node pos="s" depth="0" NCoef="0" IVar="7" Cut="1.0989712551236153e-02" cType="1" res="4.0753469802439213e-03" rms="4.6332943439483643e-01" purity="4.9893680214881897e-01" nType="0">
        <Node pos="l" depth="1" NCoef="0" IVar="8" Cut="3.9496588706970215e-01" cType="1" res="2.3415576666593552e-02" rms="4.6419230103492737e-01" purity="5.4596638679504395e-01" nType="0">
          <Node pos="l" depth="2" NCoef="0" IVar="-1" Cut="0.0000000000000000e+00" cType="1" res="1.9982483354397118e-04" rms="4.6831771731376648e-01" purity="5.1388508081436157e-01" nType="-99"/>
          <Node pos="r" depth="2" NCoef="0" IVar="-1" Cut="0.0000000000000000e+00" cType="1" res="1.1629241053014994e-03" rms="4.5723748207092285e-01" purity="5.9192883968353271e-01" nType="-99"/>
        </Node>
        <Node pos="r" depth="1" NCoef="0" IVar="5" Cut="5.0690532661974430e-03" cType="1" res="-7.1591772139072418e-03" rms="4.6245625615119934e-01" purity="4.7161781787872314e-01" nType="0">
          <Node pos="l" depth="2" NCoef="0" IVar="-1" Cut="0.0000000000000000e+00" cType="1" res="-7.1438436862081289e-04" rms="4.6060702204704285e-01" purity="4.5417404174804688e-01" nType="-99"/>
          <Node pos="r" depth="2" NCoef="0" IVar="-1" Cut="0.0000000000000000e+00" cType="1" res="4.4943147804588079e-04" rms="4.6394345164299011e-01" purity="4.9559730291366577e-01" nType="-99"/>
        </Node>
      </Node>
    </BinaryTree>
    <BinaryTree type="DecisionTree" boostWeight="1.0000000000000000e+00" itree="436">
      <Node pos="s" depth="0" NCoef="0" IVar="9" Cut="4.3937705457210541e-02" cType="1" res="-1.0396676370874047e-03" rms="4.6043971180915833e-01" purity="4.9434778094291687e-01" nType="0">
        <Node pos="l" depth="1" NCoef="0" IVar="0" Cut="1.3547207641601562e+02" cType="1" res="-3.4012682735919952e-02" rms="4.5839047431945801e-01" purity="4.3962401151657104e-01" nType="0">
          <Node pos="l" depth="2" NCoef="0" IVar="-1" Cut="0.0000000000000000e+00" cType="1" res="1.4241956523619592e-04" rms="4.6247932314872742e-01" purity="5.1025027036666870e-01" nType="-99"/>
          <Node pos="r" depth="2" NCoef="0" IVar="-1" Cut="0.0000000000000000e+00" cType="1" res="-2.0363172516226768e-03" rms="4.5308226346969604e-01" purity="3.8686910271644592e-01" nType="-99"/>
        </Node>
        <Node pos="r" depth="1" NCoef="0" IVar="4" Cut="8.8945953369140625e+01" cType="1" res="9.8904808983206749e-03" rms="4.6059635281562805e-01" purity="5.1248800754547119e-01" nType="0">
          <Node pos="l" depth="2" NCoef="0" IVar="-1" Cut="0.0000000000000000e+00" cType="1" res="-1.4871153980493546e-03" rms="4.4519463181495667e-01" purity="3.6953362822532654e-01" nType="-99"/>
          <Node pos="r" depth="2" NCoef="0" IVar="-1" Cut="0.0000000000000000e+00" cType="1" res="4.5854804920963943e-04" rms="4.6221247315406799e-01" purity="5.3237050771713257e-01" nType="-99"/>
        </Node>
      </Node>
    </BinaryTree>
    <BinaryTree type="DecisionTree" boostWeight="1.0000000000000000e+00" itree="437">
      <Node pos="s" depth="0" NCoef="0" IVar="8" Cut="4.0964725613594055e-01" cType="1" res="2.1260909270495176e-03" rms="4.6289339661598206e-01" purity="4.9434915184974670e-01" nType="0">
        <Node pos="l" depth="1" NCoef="0" IVar="4" Cut="9.5297004699707031e+01" cType="1" res="-4.2460341937839985e-03" rms="4.6253895759582520e-01" purity="4.7925794124603271e-01" nType="0">
          <Node pos="l" depth="2" NCoef="0" IVar="-1" Cut="0.0000000000000000e+00" cType="1" res="-1.8514746334403753e-03" rms="4.4110417366027832e-01" purity="3.5421335697174072e-01" nType="-99"/>
          <Node pos="r" depth="2" NCoef="0" IVar="-1" Cut="0.0000000000000000e+00" cType="1" res="9.5466595666948706e-05" rms="4.6534138917922974e-01" purity="4.9887740612030029e-01" nType="-99"/>
        </Node>
        <Node pos="r" depth="1" NCoef="0" IVar="-1" Cut="0.0000000000000000e+00" cType="1" res="1.3503547525033355e-03" rms="4.6226027607917786e-01" purity="6.2610208988189697e-01" nType="-99"/>
      </Node>
    </BinaryTree>
    <BinaryTree type="DecisionTree" boostWeight="1.0000000000000000e+00" itree="438">
      <Node pos="s" depth="0" NCoef="0" IVar="2" Cut="8.0648267269134521e-01" cType="1" res="3.4347313921898603e-03" rms="4.6264234185218811e-01" purity="4.9678426980972290e-01" nType="0">
        <Node pos="l" depth="1" NCoef="0" IVar="8" Cut="4.1087710857391357e-01" cType="1" res="-3.9049133192747831e-03" rms="4.6366542577743530e-01" purity="4.8067232966423035e-01" nType="0">
          <Node pos="l" depth="2" NCoef="0" IVar="-1" Cut="0.0000000000000000e+00" cType="1" res="-2.7277632034383714e-04" rms="4.6364057064056396e-01" purity="4.6615934371948242e-01" nType="-99"/>
          <Node pos="r" depth="2" NCoef="0" IVar="-1" Cut="0.0000000000000000e+00" cType="1" res="1.1960169067606330e-03" rms="4.6045529842376709e-01" purity="6.1950844526290894e-01" nType="-99"/>
        </Node>
        <Node pos="r" depth="1" NCoef="0" IVar="-1" Cut="0.0000000000000000e+00" cType="1" res="1.6801269957795739e-03" rms="4.4690907001495361e-01" purity="6.4932084083557129e-01" nType="-99"/>
      </Node>
    </BinaryTree>
    <BinaryTree type="DecisionTree" boostWeight="1.0000000000000000e+00" itree="439">
      <Node pos="s" depth="0" NCoef="0" IVar="0" Cut="2.0875930786132812e+02" cType="1" res="4.1161011904478073e-03" rms="4.6326467394828796e-01" purity="4.9840191006660461e-01" nType="0">
        <Node pos="l" depth="1" NCoef="0" IVar="0" Cut="7.9411521911621094e+01" cType="1" res="1.4530002139508724e-02" rms="4.6276417374610901e-01" purity="5.1931011676788330e-01" nType="0">
          <Node pos="l" depth="2" NCoef="0" IVar="-1" Cut="0.0000000000000000e+00" cType="1" res="-7.4022635817527771e-04" rms="4.6755629777908325e-01" purity="4.8514738678932190e-01" nType="-99"/>
          <Node pos="r" depth="2" NCoef="0" IVar="-1" Cut="0.0000000000000000e+00" cType="1" res="6.2496471218764782e-04" rms="4.6124461293220520e-01" purity="5.2665925025939941e-01" nType="-99"/>
        </Node>
        <Node pos="r" depth="1" NCoef="0" IVar="4" Cut="1.8063815307617188e+02" cType="1" res="-2.7023576200008392e-02" rms="4.6336385607719421e-01" purity="4.3588230013847351e-01" nType="0">
          <Node pos="l" depth="2" NCoef="0" IVar="-1" Cut="0.0000000000000000e+00" cType="1" res="-2.0403657108545303e-03" rms="4.5284071564674377e-01" purity="3.5567328333854675e-01" nType="-99"/>
          <Node pos="r" depth="2" NCoef="0" IVar="-1" Cut="0.0000000000000000e+00" cType="1" res="-8.5285260865930468e-05" rms="4.6992009878158569e-01" purity="4.9777680635452271e-01" nType="-99"/>
        </Node>
      </Node>
    </BinaryTree>
    <BinaryTree type="DecisionTree" boostWeight="1.0000000000000000e+00" itree="440">
      <Node pos="s" depth="0" NCoef="0" IVar="1" Cut="-2.0322935581207275e+00" cType="1" res="8.7450640276074409e-03" rms="4.6213525533676147e-01" purity="5.0148367881774902e-01" nType="0">
        <Node pos="l" depth="1" NCoef="0" IVar="-1" Cut="0.0000000000000000e+00" cType="1" res="-3.5815194714814425e-03" rms="4.0559941530227661e-01" purity="2.1472427248954773e-01" nType="-99"/>
        <Node pos="r" depth="1" NCoef="0" IVar="3" Cut="1.4324276447296143e+00" cType="1" res="1.4049546793103218e-02" rms="4.6565189957618713e-01" purity="5.2291977405548096e-01" nType="0">
          <Node pos="l" depth="2" NCoef="0" IVar="-1" Cut="0.0000000000000000e+00" cType="1" res="1.1167606571689248e-03" rms="4.5896252989768982e-01" purity="6.2003356218338013e-01" nType="-99"/>
          <Node pos="r" depth="2" NCoef="0" IVar="-1" Cut="0.0000000000000000e+00" cType="1" res="1.1423136311350390e-04" rms="4.6714821457862854e-01" purity="4.9429336190223694e-01" nType="-99"/>
        </Node>
      </Node>
    </BinaryTree>
    <BinaryTree type="DecisionTree" boostWeight="1.0000000000000000e+00" itree="441">
      <Node pos="s" depth="0" NCoef="0" IVar="5" Cut="-6.9447942078113556e-02" cType="1" res="-9.3557481886819005e-04" rms="4.6226984262466431e-01" purity="4.9506795406341553e-01" nType="0">
        <Node pos="l" depth="1" NCoef="0" IVar="-1" Cut="0.0000000000000000e+00" cType="1" res="-2.9811533167958260e-03" rms="4.4306957721710205e-01" purity="3.5731104016304016e-01" nType="-99"/>
        <Node pos="r" depth="1" NCoef="0" IVar="0" Cut="6.6735725402832031e+01" cType="1" res="5.1184515468776226e-03" rms="4.6297532320022583e-01" purity="5.0468981266021729e-01" nType="0">
          <Node pos="l" depth="2" NCoef="0" IVar="-1" Cut="0.0000000000000000e+00" cType="1" res="-1.3688682811334729e-03" rms="4.6398821473121643e-01" purity="4.6889123320579529e-01" nType="-99"/>
          <Node pos="r" depth="2" NCoef="0" IVar="-1" Cut="0.0000000000000000e+00" cType="1" res="2.6722182519733906e-04" rms="4.6259334683418274e-01" purity="5.0775676965713501e-01" nType="-99"/>
        </Node>
      </Node>
    </BinaryTree>
    <BinaryTree type="DecisionTree" boostWeight="1.0000000000000000e+00" itree="442">
      <Node pos="s" depth="0" NCoef="0" IVar="3" Cut="1.2258290052413940e+00" cType="1" res="6.4727454446256161e-03" rms="4.6317860484123230e-01" purity="5.0154578685760498e-01" nType="0">
        <Node pos="l" depth="1" NCoef="0" IVar="0" Cut="7.8002944946289062e+01" cType="1" res="4.0992040187120438e-02" rms="4.5213630795478821e-01" purity="6.0808485746383667e-01" nType="0">
          <Node pos="l" depth="2" NCoef="0" IVar="-1" Cut="0.0000000000000000e+00" cType="1" res="-2.3521632829215378e-04" rms="4.6358188986778259e-01" purity="5.1873761415481567e-01" nType="-99"/>
          <Node pos="r" depth="2" NCoef="0" IVar="-1" Cut="0.0000000000000000e+00" cType="1" res="2.2064629010856152e-03" rms="4.3115723133087158e-01" purity="7.1216130256652832e-01" nType="-99"/>
        </Node>
        <Node pos="r" depth="1" NCoef="0" IVar="6" Cut="9.4326359033584595e-01" cType="1" res="-7.9201231710612774e-04" rms="4.6514296531677246e-01" purity="4.7912412881851196e-01" nType="0">
          <Node pos="l" depth="2" NCoef="0" IVar="-1" Cut="0.0000000000000000e+00" cType="1" res="-6.3103873981162906e-04" rms="4.6723896265029907e-01" purity="4.3463116884231567e-01" nType="-99"/>
          <Node pos="r" depth="2" NCoef="0" IVar="-1" Cut="0.0000000000000000e+00" cType="1" res="2.5756203103810549e-04" rms="4.6380272507667542e-01" purity="5.0055664777755737e-01" nType="-99"/>
        </Node>
      </Node>
    </BinaryTree>
    <BinaryTree type="DecisionTree" boostWeight="1.0000000000000000e+00" itree="443">
      <Node pos="s" depth="0" NCoef="0" IVar="8" Cut="3.6468678712844849e-01" cType="1" res="1.0967243462800980e-02" rms="4.6108064055442810e-01" purity="5.0780874490737915e-01" nType="0">
        <Node pos="l" depth="1" NCoef="0" IVar="4" Cut="3.0244128417968750e+02" cType="1" res="-2.5765530765056610e-02" rms="4.6173745393753052e-01" purity="4.4306403398513794e-01" nType="0">
          <Node pos="l" depth="2" NCoef="0" IVar="-1" Cut="0.0000000000000000e+00" cType="1" res="-1.5028050402179360e-03" rms="4.5749711990356445e-01" purity="3.9422050118446350e-01" nType="-99"/>
          <Node pos="r" depth="2" NCoef="0" IVar="-1" Cut="0.0000000000000000e+00" cType="1" res="6.0604128520935774e-04" rms="4.6762162446975708e-01" purity="5.5697655677795410e-01" nType="-99"/>
        </Node>
        <Node pos="r" depth="1" NCoef="0" IVar="4" Cut="9.5095733642578125e+01" cType="1" res="1.9698642194271088e-02" rms="4.6049353480339050e-01" purity="5.2319860458374023e-01" nType="0">
          <Node pos="l" depth="2" NCoef="0" IVar="-1" Cut="0.0000000000000000e+00" cType="1" res="-1.0118036298081279e-03" rms="4.5186278223991394e-01" purity="3.8862219452857971e-01" nType="-99"/>
          <Node pos="r" depth="2" NCoef="0" IVar="-1" Cut="0.0000000000000000e+00" cType="1" res="7.4513879371806979e-04" rms="4.6142941713333130e-01" purity="5.4724282026290894e-01" nType="-99"/>
        </Node>
      </Node>
    </BinaryTree>
    <BinaryTree type="DecisionTree" boostWeight="1.0000000000000000e+00" itree="444">
      <Node pos="s" depth="0" NCoef="0" IVar="0" Cut="6.0082378387451172e+01" cType="1" res="1.4887111028656363e-03" rms="4.6089187264442444e-01" purity="4.9863499402999878e-01" nType="0">
        <Node pos="l" depth="1" NCoef="0" IVar="-1" Cut="0.0000000000000000e+00" cType="1" res="-1.9727267790585756e-03" rms="4.5919543504714966e-01" purity="4.4768336415290833e-01" nType="-99"/>
        <Node pos="r" depth="1" NCoef="0" IVar="1" Cut="9.8833370208740234e-01" cType="1" res="6.1093103140592575e-03" rms="4.6062576770782471e-01" purity="5.0197106599807739e-01" nType="0">
          <Node pos="l" depth="2" NCoef="0" IVar="-1" Cut="0.0000000000000000e+00" cType="1" res="-2.0991881319787353e-04" rms="4.6836739778518677e-01" purity="3.8876348733901978e-01" nType="-99"/>
          <Node pos="r" depth="2" NCoef="0" IVar="-1" Cut="0.0000000000000000e+00" cType="1" res="6.1765144346281886e-04" rms="4.4641849398612976e-01" purity="6.9332873821258545e-01" nType="-99"/>
        </Node>
      </Node>
    </BinaryTree>
    <BinaryTree type="DecisionTree" boostWeight="1.0000000000000000e+00" itree="445">
      <Node pos="s" depth="0" NCoef="0" IVar="4" Cut="2.7967340087890625e+02" cType="1" res="7.6602562330663204e-03" rms="4.6208047866821289e-01" purity="5.0458192825317383e-01" nType="0">
        <Node pos="l" depth="1" NCoef="0" IVar="9" Cut="2.8818683698773384e-02" cType="1" res="8.1452587619423866e-04" rms="4.6085181832313538e-01" purity="4.8803433775901794e-01" nType="0">
          <Node pos="l" depth="2" NCoef="0" IVar="-1" Cut="0.0000000000000000e+00" cType="1" res="-1.5492849051952362e-03" rms="4.5756736397743225e-01" purity="3.9487233757972717e-01" nType="-99"/>
          <Node pos="r" depth="2" NCoef="0" IVar="-1" Cut="0.0000000000000000e+00" cType="1" res="1.6522964870091528e-04" rms="4.6087834239006042e-01" purity="4.9758189916610718e-01" nType="-99"/>
        </Node>
        <Node pos="r" depth="1" NCoef="0" IVar="6" Cut="9.4743686914443970e-01" cType="1" res="4.6690694987773895e-02" rms="4.6711131930351257e-01" purity="5.9892702102661133e-01" nType="0">
          <Node pos="l" depth="2" NCoef="0" IVar="-1" Cut="0.0000000000000000e+00" cType="1" res="4.7406379599124193e-04" rms="4.7493138909339905e-01" purity="5.4184818267822266e-01" nType="-99"/>
          <Node pos="r" depth="2" NCoef="0" IVar="-1" Cut="0.0000000000000000e+00" cType="1" res="1.4722263440489769e-03" rms="4.6172615885734558e-01" purity="6.3215929269790649e-01" nType="-99"/>
        </Node>
      </Node>
    </BinaryTree>
    <BinaryTree type="DecisionTree" boostWeight="1.0000000000000000e+00" itree="446">
      <Node pos="s" depth="0" NCoef="0" IVar="1" Cut="-2.1988019943237305e+00" cType="1" res="8.6357733234763145e-03" rms="4.6088176965713501e-01" purity="5.0493824481964111e-01" nType="0">
        <Node pos="l" depth="1" NCoef="0" IVar="-1" Cut="0.0000000000000000e+00" cType="1" res="-3.4336680546402931e-03" rms="4.0720292925834656e-01" purity="2.1793739497661591e-01" nType="-99"/>
        <Node pos="r" depth="1" NCoef="0" IVar="7" Cut="-2.8833266347646713e-02" cType="1" res="1.2280909344553947e-02" rms="4.6324408054351807e-01" purity="5.2002298831939697e-01" nType="0">
          <Node pos="l" depth="2" NCoef="0" IVar="-1" Cut="0.0000000000000000e+00" cType="1" res="1.2189237168058753e-03" rms="4.5771947503089905e-01" purity="5.9898400306701660e-01" nType="-99"/>
          <Node pos="r" depth="2" NCoef="0" IVar="-1" Cut="0.0000000000000000e+00" cType="1" res="1.4952148194424808e-04" rms="4.6389099955558777e-01" purity="5.0603002309799194e-01" nType="-99"/>
        </Node>
      </Node>
    </BinaryTree>
    <BinaryTree type="DecisionTree" boostWeight="1.0000000000000000e+00" itree="447">
      <Node pos="s" depth="0" NCoef="0" IVar="6" Cut="9.6227747201919556e-01" cType="1" res="6.8738237023353577e-03" rms="4.6179372072219849e-01" purity="5.0310075283050537e-01" nType="0">
        <Node pos="l" depth="1" NCoef="0" IVar="9" Cut="2.6924325153231621e-02" cType="1" res="-1.2012778781354427e-02" rms="4.6299877762794495e-01" purity="4.6901339292526245e-01" nType="0">
          <Node pos="l" depth="2" NCoef="0" IVar="-1" Cut="0.0000000000000000e+00" cType="1" res="-2.6217056438326836e-03" rms="4.5952758193016052e-01" purity="3.7769043445587158e-01" nType="-99"/>
          <Node pos="r" depth="2" NCoef="0" IVar="-1" Cut="0.0000000000000000e+00" cType="1" res="-8.3190650912001729e-05" rms="4.6269509196281433e-01" purity="4.8095235228538513e-01" nType="-99"/>
        </Node>
        <Node pos="r" depth="1" NCoef="0" IVar="3" Cut="1.1296554803848267e+00" cType="1" res="2.6067579165101051e-02" rms="4.5977169275283813e-01" purity="5.3774249553680420e-01" nType="0">
          <Node pos="l" depth="2" NCoef="0" IVar="-1" Cut="0.0000000000000000e+00" cType="1" res="1.8668831326067448e-03" rms="4.3917733430862427e-01" purity="6.6005718708038330e-01" nType="-99"/>
          <Node pos="r" depth="2" NCoef="0" IVar="-1" Cut="0.0000000000000000e+00" cType="1" res="4.5828457223251462e-04" rms="4.6254676580429077e-01" purity="5.1688444614410400e-01" nType="-99"/>
        </Node>
      </Node>
    </BinaryTree>
    <BinaryTree type="DecisionTree" boostWeight="1.0000000000000000e+00" itree="448">
      <Node pos="s" depth="0" NCoef="0" IVar="4" Cut="1.0613439941406250e+02" cType="1" res="6.1963582411408424e-03" rms="4.6063095331192017e-01" purity="5.0165110826492310e-01" nType="0">
        <Node pos="l" depth="1" NCoef="0" IVar="5" Cut="2.3298719897866249e-02" cType="1" res="-2.7271062135696411e-02" rms="4.5329830050468445e-01" purity="3.9557111263275146e-01" nType="0">
          <Node pos="l" depth="2" NCoef="0" IVar="-1" Cut="0.0000000000000000e+00" cType="1" res="-1.4944894937798381e-03" rms="4.4762718677520752e-01" purity="3.8050538301467896e-01" nType="-99"/>
          <Node pos="r" depth="2" NCoef="0" IVar="-1" Cut="0.0000000000000000e+00" cType="1" res="5.7646509958431125e-04" rms="4.6510228514671326e-01" purity="4.3613475561141968e-01" nType="-99"/>
        </Node>
        <Node pos="r" depth="1" NCoef="0" IVar="0" Cut="1.7050942993164062e+02" cType="1" res="1.4863810501992702e-02" rms="4.6211606264114380e-01" purity="5.2912390232086182e-01" nType="0">
          <Node pos="l" depth="2" NCoef="0" IVar="-1" Cut="0.0000000000000000e+00" cType="1" res="7.8200182178989053e-04" rms="4.6164062619209290e-01" purity="5.7003051042556763e-01" nType="-99"/>
          <Node pos="r" depth="2" NCoef="0" IVar="-1" Cut="0.0000000000000000e+00" cType="1" res="-1.8083291070070118e-04" rms="4.6186608076095581e-01" purity="4.7635594010353088e-01" nType="-99"/>
        </Node>
      </Node>
    </BinaryTree>
    <BinaryTree type="DecisionTree" boostWeight="1.0000000000000000e+00" itree="449">
      <Node pos="s" depth="0" NCoef="0" IVar="8" Cut="4.0496909618377686e-01" cType="1" res="4.4516040943562984e-03" rms="4.6423724293708801e-01" purity="4.9854683876037598e-01" nType="0">
        <Node pos="l" depth="1" NCoef="0" IVar="2" Cut="8.0752623081207275e-01" cType="1" res="-4.7566997818648815e-03" rms="4.6268355846405029e-01" purity="4.7876182198524475e-01" nType="0">
          <Node pos="l" depth="2" NCoef="0" IVar="-1" Cut="0.0000000000000000e+00" cType="1" res="-2.9112782794982195e-04" rms="4.6388766169548035e-01" purity="4.6412083506584167e-01" nType="-99"/>
          <Node pos="r" depth="2" NCoef="0" IVar="-1" Cut="0.0000000000000000e+00" cType="1" res="1.1305252555757761e-03" rms="4.4773128628730774e-01" purity="6.1987453699111938e-01" nType="-99"/>
        </Node>
        <Node pos="r" depth="1" NCoef="0" IVar="1" Cut="5.3948479890823364e-01" cType="1" res="4.9795877188444138e-02" rms="4.6918463706970215e-01" purity="5.9597396850585938e-01" nType="0">
          <Node pos="l" depth="2" NCoef="0" IVar="-1" Cut="0.0000000000000000e+00" cType="1" res="2.2172194439917803e-03" rms="4.8589622974395752e-01" purity="5.0050979852676392e-01" nType="-99"/>
          <Node pos="r" depth="2" NCoef="0" IVar="-1" Cut="0.0000000000000000e+00" cType="1" res="3.8841876084916294e-04" rms="4.5071384310722351e-01" purity="6.8404030799865723e-01" nType="-99"/>
        </Node>
      </Node>
    </BinaryTree>
    <BinaryTree type="DecisionTree" boostWeight="1.0000000000000000e+00" itree="450">
      <Node pos="s" depth="0" NCoef="0" IVar="6" Cut="9.6820974349975586e-01" cType="1" res="3.9153015241026878e-03" rms="4.6201279759407043e-01" purity="4.9995699524879456e-01" nType="0">
        <Node pos="l" depth="1" NCoef="0" IVar="5" Cut="-5.0398230552673340e-02" cType="1" res="-1.0812888853251934e-02" rms="4.6383774280548096e-01" purity="4.7052463889122009e-01" nType="0">
          <Node pos="l" depth="2" NCoef="0" IVar="-1" Cut="0.0000000000000000e+00" cType="1" res="-1.5644709346815944e-03" rms="4.4022202491760254e-01" purity="4.0710783004760742e-01" nType="-99"/>
          <Node pos="r" depth="2" NCoef="0" IVar="-1" Cut="0.0000000000000000e+00" cType="1" res="-8.0966965469997376e-05" rms="4.6803376078605652e-01" purity="4.8325377702713013e-01" nType="-99"/>
        </Node>
        <Node pos="r" depth="1" NCoef="0" IVar="0" Cut="1.5380242919921875e+02" cType="1" res="2.3400377482175827e-02" rms="4.5886144042015076e-01" purity="5.3889542818069458e-01" nType="0">
          <Node pos="l" depth="2" NCoef="0" IVar="-1" Cut="0.0000000000000000e+00" cType="1" res="1.1161816073581576e-03" rms="4.5728421211242676e-01" purity="5.7477700710296631e-01" nType="-99"/>
          <Node pos="r" depth="2" NCoef="0" IVar="-1" Cut="0.0000000000000000e+00" cType="1" res="-4.8158522986341268e-05" rms="4.5967188477516174e-01" purity="4.9262598156929016e-01" nType="-99"/>
        </Node>
      </Node>
    </BinaryTree>
    <BinaryTree type="DecisionTree" boostWeight="1.0000000000000000e+00" itree="451">
      <Node pos="s" depth="0" NCoef="0" IVar="8" Cut="3.7076187133789062e-01" cType="1" res="6.7797903902828693e-03" rms="4.6163105964660645e-01" purity="5.0365895032882690e-01" nType="0">
        <Node pos="l" depth="1" NCoef="0" IVar="1" Cut="1.3199020624160767e+00" cType="1" res="-2.7207661420106888e-02" rms="4.5992812514305115e-01" purity="4.4399541616439819e-01" nType="0">
          <Node pos="l" depth="2" NCoef="0" IVar="-1" Cut="0.0000000000000000e+00" cType="1" res="-1.5148289967328310e-03" rms="4.5999115705490112e-01" purity="3.4658321738243103e-01" nType="-99"/>
          <Node pos="r" depth="2" NCoef="0" IVar="-1" Cut="0.0000000000000000e+00" cType="1" res="2.9072686447761953e-04" rms="4.5723569393157959e-01" purity="6.7271691560745239e-01" nType="-99"/>
        </Node>
        <Node pos="r" depth="1" NCoef="0" IVar="3" Cut="1.5081863403320312e+00" cType="1" res="1.7507448792457581e-02" rms="4.6164801716804504e-01" purity="5.2249091863632202e-01" nType="0">
          <Node pos="l" depth="2" NCoef="0" IVar="-1" Cut="0.0000000000000000e+00" cType="1" res="1.4232459943741560e-03" rms="4.5222812891006470e-01" purity="6.2348061800003052e-01" nType="-99"/>
          <Node pos="r" depth="2" NCoef="0" IVar="-1" Cut="0.0000000000000000e+00" cType="1" res="8.9291119365952909e-05" rms="4.6389442682266235e-01" purity="4.8852321505546570e-01" nType="-99"/>
        </Node>
      </Node>
    </BinaryTree>
    <BinaryTree type="DecisionTree" boostWeight="1.0000000000000000e+00" itree="452">
      <Node pos="s" depth="0" NCoef="0" IVar="9" Cut="1.1871220916509628e-01" cType="1" res="6.3282568007707596e-03" rms="4.6388587355613708e-01" purity="4.9991756677627563e-01" nType="0">
        <Node pos="l" depth="1" NCoef="0" IVar="5" Cut="8.8856130838394165e-02" cType="1" res="-3.1427305657416582e-03" rms="4.6486157178878784e-01" purity="4.7782149910926819e-01" nType="0">
          <Node pos="l" depth="2" NCoef="0" IVar="-1" Cut="0.0000000000000000e+00" cType="1" res="-2.6314964634366333e-04" rms="4.6291765570640564e-01" purity="4.7424882650375366e-01" nType="-99"/>
          <Node pos="r" depth="2" NCoef="0" IVar="-1" Cut="0.0000000000000000e+00" cType="1" res="1.7638382269069552e-03" rms="4.8103564977645874e-01" purity="5.1835685968399048e-01" nType="-99"/>
        </Node>
        <Node pos="r" depth="1" NCoef="0" IVar="4" Cut="1.0482220458984375e+02" cType="1" res="2.9692731797695160e-02" rms="4.6063807606697083e-01" purity="5.5442762374877930e-01" nType="0">
          <Node pos="l" depth="2" NCoef="0" IVar="-1" Cut="0.0000000000000000e+00" cType="1" res="-4.1268343920819461e-04" rms="4.6458327770233154e-01" purity="4.3992835283279419e-01" nType="-99"/>
          <Node pos="r" depth="2" NCoef="0" IVar="-1" Cut="0.0000000000000000e+00" cType="1" res="1.1781402863562107e-03" rms="4.5768320560455322e-01" purity="6.0362517833709717e-01" nType="-99"/>
        </Node>
      </Node>
    </BinaryTree>
    <BinaryTree type="DecisionTree" boostWeight="1.0000000000000000e+00" itree="453">
      <Node pos="s" depth="0" NCoef="0" IVar="4" Cut="3.7162194824218750e+02" cType="1" res="6.5388460643589497e-03" rms="4.6257731318473816e-01" purity="5.0320643186569214e-01" nType="0">
        <Node pos="l" depth="1" NCoef="0" IVar="8" Cut="4.1225546598434448e-01" cType="1" res="1.1160087306052446e-03" rms="4.6337652206420898e-01" purity="4.9144765734672546e-01" nType="0">
          <Node pos="l" depth="2" NCoef="0" IVar="-1" Cut="0.0000000000000000e+00" cType="1" res="-9.9705648608505726e-05" rms="4.6439924836158752e-01" purity="4.7863596677780151e-01" nType="-99"/>
          <Node pos="r" depth="2" NCoef="0" IVar="-1" Cut="0.0000000000000000e+00" cType="1" res="1.2435893295332789e-03" rms="4.4822341203689575e-01" purity="6.3751733303070068e-01" nType="-99"/>
        </Node>
        <Node pos="r" depth="1" NCoef="0" IVar="-1" Cut="0.0000000000000000e+00" cType="1" res="1.6671745106577873e-03" rms="4.4661498069763184e-01" purity="6.5252703428268433e-01" nType="-99"/>
      </Node>
    </BinaryTree>
    <BinaryTree type="DecisionTree" boostWeight="1.0000000000000000e+00" itree="454">
      <Node pos="s" depth="0" NCoef="0" IVar="9" Cut="5.2639901638031006e-02" cType="1" res="8.8014518842101097e-03" rms="4.6260395646095276e-01" purity="5.0540256500244141e-01" nType="0">
        <Node pos="l" depth="1" NCoef="0" IVar="5" Cut="2.3298013955354691e-02" cType="1" res="-1.7986418679356575e-02" rms="4.6359670162200928e-01" purity="4.5520552992820740e-01" nType="0">
          <Node pos="l" depth="2" NCoef="0" IVar="-1" Cut="0.0000000000000000e+00" cType="1" res="-1.1962626595050097e-03" rms="4.5925408601760864e-01" purity="4.3115237355232239e-01" nType="-99"/>
          <Node pos="r" depth="2" NCoef="0" IVar="-1" Cut="0.0000000000000000e+00" cType="1" res="5.9937790501862764e-04" rms="4.6899020671844482e-01" purity="5.0028634071350098e-01" nType="-99"/>
        </Node>
        <Node pos="r" depth="1" NCoef="0" IVar="1" Cut="1.6164361238479614e+00" cType="1" res="2.1271565929055214e-02" rms="4.6161112189292908e-01" purity="5.2876991033554077e-01" nType="0">
          <Node pos="l" depth="2" NCoef="0" IVar="-1" Cut="0.0000000000000000e+00" cType="1" res="3.3714235178194940e-04" rms="4.7527801990509033e-01" purity="4.5213368535041809e-01" nType="-99"/>
          <Node pos="r" depth="2" NCoef="0" IVar="-1" Cut="0.0000000000000000e+00" cType="1" res="1.1412460589781404e-03" rms="4.1472810506820679e-01" purity="7.6775127649307251e-01" nType="-99"/>
        </Node>
      </Node>
    </BinaryTree>
    <BinaryTree type="DecisionTree" boostWeight="1.0000000000000000e+00" itree="455">
      <Node pos="s" depth="0" NCoef="0" IVar="1" Cut="2.5294034481048584e+00" cType="1" res="-4.3854536488652229e-03" rms="4.6177604794502258e-01" purity="4.9094358086585999e-01" nType="0">
        <Node pos="l" depth="1" NCoef="0" IVar="8" Cut="4.0857937932014465e-01" cType="1" res="-9.9875843152403831e-03" rms="4.6806201338768005e-01" purity="4.5534586906433105e-01" nType="0">
          <Node pos="l" depth="2" NCoef="0" IVar="-1" Cut="0.0000000000000000e+00" cType="1" res="-4.6758135431446135e-04" rms="4.6743544936180115e-01" purity="4.4139114022254944e-01" nType="-99"/>
          <Node pos="r" depth="2" NCoef="0" IVar="-1" Cut="0.0000000000000000e+00" cType="1" res="9.5863122260197997e-04" rms="4.7036918997764587e-01" purity="5.7210576534271240e-01" nType="-99"/>
        </Node>
        <Node pos="r" depth="1" NCoef="0" IVar="-1" Cut="0.0000000000000000e+00" cType="1" res="9.7359163919463754e-04" rms="4.0273231267929077e-01" purity="7.8700834512710571e-01" nType="-99"/>
      </Node>
    </BinaryTree>
    <BinaryTree type="DecisionTree" boostWeight="1.0000000000000000e+00" itree="456">
      <Node pos="s" depth="0" NCoef="0" IVar="3" Cut="1.5162346363067627e+00" cType="1" res="6.4137149602174759e-03" rms="4.6196764707565308e-01" purity="5.0470775365829468e-01" nType="0">
        <Node pos="l" depth="1" NCoef="0" IVar="0" Cut="9.1391288757324219e+01" cType="1" res="3.3791221678256989e-02" rms="4.5896157622337341e-01" purity="5.9255915880203247e-01" nType="0">
          <Node pos="l" depth="2" NCoef="0" IVar="-1" Cut="0.0000000000000000e+00" cType="1" res="-2.2841435566078871e-04" rms="4.6594476699829102e-01" purity="5.2100020647048950e-01" nType="-99"/>
          <Node pos="r" depth="2" NCoef="0" IVar="-1" Cut="0.0000000000000000e+00" cType="1" res="1.9396384013816714e-03" rms="4.4494438171386719e-01" purity="6.7920756340026855e-01" nType="-99"/>
        </Node>
        <Node pos="r" depth="1" NCoef="0" IVar="4" Cut="2.5268305969238281e+02" cType="1" res="-2.8849849477410316e-03" rms="4.6261575818061829e-01" purity="4.7486925125122070e-01" nType="0">
          <Node pos="l" depth="2" NCoef="0" IVar="-1" Cut="0.0000000000000000e+00" cType="1" res="-3.3001374686136842e-04" rms="4.6042796969413757e-01" purity="4.5576763153076172e-01" nType="-99"/>
          <Node pos="r" depth="2" NCoef="0" IVar="-1" Cut="0.0000000000000000e+00" cType="1" res="8.8296673493459821e-04" rms="4.7066301107406616e-01" purity="5.6253057718276978e-01" nType="-99"/>
        </Node>
      </Node>
    </BinaryTree>
    <BinaryTree type="DecisionTree" boostWeight="1.0000000000000000e+00" itree="457">
      <Node pos="s" depth="0" NCoef="0" IVar="0" Cut="8.4500541687011719e+01" cType="1" res="9.4383852556347847e-03" rms="4.6080356836318970e-01" purity="5.0548273324966431e-01" nType="0">
        <Node pos="l" depth="1" NCoef="0" IVar="1" Cut="6.1415421962738037e-01" cType="1" res="-3.5048685967922211e-02" rms="4.6162053942680359e-01" purity="4.7902891039848328e-01" nType="0">
          <Node pos="l" depth="2" NCoef="0" IVar="-1" Cut="0.0000000000000000e+00" cType="1" res="-1.9671902991831303e-03" rms="4.5936185121536255e-01" purity="3.4534350037574768e-01" nType="-99"/>
          <Node pos="r" depth="2" NCoef="0" IVar="-1" Cut="0.0000000000000000e+00" cType="1" res="-1.4409510185942054e-04" rms="4.6281281113624573e-01" purity="6.4628827571868896e-01" nType="-99"/>
        </Node>
        <Node pos="r" depth="1" NCoef="0" IVar="3" Cut="1.2570600509643555e+00" cType="1" res="1.7421063035726547e-02" rms="4.6020197868347168e-01" purity="5.1022952795028687e-01" nType="0">
          <Node pos="l" depth="2" NCoef="0" IVar="-1" Cut="0.0000000000000000e+00" cType="1" res="2.2051527630537748e-03" rms="4.3864271044731140e-01" purity="7.0901364088058472e-01" nType="-99"/>
          <Node pos="r" depth="2" NCoef="0" IVar="-1" Cut="0.0000000000000000e+00" cType="1" res="2.7572395629249513e-04" rms="4.6140375733375549e-01" purity="4.9192127585411072e-01" nType="-99"/>
        </Node>
      </Node>
    </BinaryTree>
    <BinaryTree type="DecisionTree" boostWeight="1.0000000000000000e+00" itree="458">
      <Node pos="s" depth="0" NCoef="0" IVar="1" Cut="2.1250507831573486e+00" cType="1" res="-5.7111930800601840e-04" rms="4.6009424328804016e-01" purity="4.9404332041740417e-01" nType="0">
        <Node pos="l" depth="1" NCoef="0" IVar="5" Cut="-3.6506671458482742e-02" cType="1" res="-7.3363496921956539e-03" rms="4.6782404184341431e-01" purity="4.4465604424476624e-01" nType="0">
          <Node pos="l" depth="2" NCoef="0" IVar="-1" Cut="0.0000000000000000e+00" cType="1" res="-1.0382337495684624e-03" rms="4.6190810203552246e-01" purity="3.9978981018066406e-01" nType="-99"/>
          <Node pos="r" depth="2" NCoef="0" IVar="-1" Cut="0.0000000000000000e+00" cType="1" res="5.5012562370393425e-05" rms="4.6958661079406738e-01" purity="4.6078810095787048e-01" nType="-99"/>
        </Node>
        <Node pos="r" depth="1" NCoef="0" IVar="-1" Cut="0.0000000000000000e+00" cType="1" res="8.4307760698720813e-04" rms="4.1245779395103455e-01" purity="7.6874017715454102e-01" nType="-99"/>
      </Node>
    </BinaryTree>
    <BinaryTree type="DecisionTree" boostWeight="1.0000000000000000e+00" itree="459">
      <Node pos="s" depth="0" NCoef="0" IVar="6" Cut="9.4982558488845825e-01" cType="1" res="9.4828400760889053e-03" rms="4.6197846531867981e-01" purity="5.0644749402999878e-01" nType="0">
        <Node pos="l" depth="1" NCoef="0" IVar="4" Cut="1.1608245849609375e+02" cType="1" res="-1.3952243141829967e-02" rms="4.6496823430061340e-01" purity="4.6193838119506836e-01" nType="0">
          <Node pos="l" depth="2" NCoef="0" IVar="-1" Cut="0.0000000000000000e+00" cType="1" res="-1.4405919937416911e-03" rms="4.5240148901939392e-01" purity="3.6340469121932983e-01" nType="-99"/>
          <Node pos="r" depth="2" NCoef="0" IVar="-1" Cut="0.0000000000000000e+00" cType="1" res="-9.0065739641431719e-05" rms="4.6890187263488770e-01" purity="4.9700522422790527e-01" nType="-99"/>
        </Node>
        <Node pos="r" depth="1" NCoef="0" IVar="5" Cut="-3.1626161187887192e-02" cType="1" res="2.4066383019089699e-02" rms="4.5950523018836975e-01" purity="5.3414529561996460e-01" nType="0">
          <Node pos="l" depth="2" NCoef="0" IVar="-1" Cut="0.0000000000000000e+00" cType="1" res="-1.2305326526984572e-04" rms="4.5433938503265381e-01" purity="4.9339124560356140e-01" nType="-99"/>
          <Node pos="r" depth="2" NCoef="0" IVar="-1" Cut="0.0000000000000000e+00" cType="1" res="9.4752525910735130e-04" rms="4.6115502715110779e-01" purity="5.5145716667175293e-01" nType="-99"/>
        </Node>
      </Node>
    </BinaryTree>
    <BinaryTree type="DecisionTree" boostWeight="1.0000000000000000e+00" itree="460">
      <Node pos="s" depth="0" NCoef="0" IVar="4" Cut="9.7791610717773438e+01" cType="1" res="5.9405770152807236e-03" rms="4.6347475051879883e-01" purity="5.0099551677703857e-01" nType="0">
        <Node pos="l" depth="1" NCoef="0" IVar="4" Cut="7.8960983276367188e+01" cType="1" res="-3.0582988634705544e-02" rms="4.5140480995178223e-01" purity="3.8428640365600586e-01" nType="0">
          <Node pos="l" depth="2" NCoef="0" IVar="-1" Cut="0.0000000000000000e+00" cType="1" res="-3.1375226099044085e-03" rms="4.3526211380958557e-01" purity="3.1442314386367798e-01" nType="-99"/>
          <Node pos="r" depth="2" NCoef="0" IVar="-1" Cut="0.0000000000000000e+00" cType="1" res="2.1191350242588669e-05" rms="4.5779508352279663e-01" purity="4.2550861835479736e-01" nType="-99"/>
        </Node>
        <Node pos="r" depth="1" NCoef="0" IVar="8" Cut="3.6068028211593628e-01" cType="1" res="1.2409907765686512e-02" rms="4.6528124809265137e-01" purity="5.2166795730590820e-01" nType="0">
          <Node pos="l" depth="2" NCoef="0" IVar="-1" Cut="0.0000000000000000e+00" cType="1" res="-5.4273538989946246e-04" rms="4.6587723493576050e-01" purity="4.5255008339881897e-01" nType="-99"/>
          <Node pos="r" depth="2" NCoef="0" IVar="-1" Cut="0.0000000000000000e+00" cType="1" res="5.0900771748274565e-04" rms="4.6485701203346252e-01" purity="5.3731817007064819e-01" nType="-99"/>
        </Node>
      </Node>
    </BinaryTree>
    <BinaryTree type="DecisionTree" boostWeight="1.0000000000000000e+00" itree="461">
      <Node pos="s" depth="0" NCoef="0" IVar="9" Cut="1.1889857798814774e-01" cType="1" res="6.4501836895942688e-03" rms="4.6201318502426147e-01" purity="5.0022703409194946e-01" nType="0">
        <Node pos="l" depth="1" NCoef="0" IVar="4" Cut="2.3303054809570312e+02" cType="1" res="-3.8497294299304485e-03" rms="4.6177098155021667e-01" purity="4.7669482231140137e-01" nType="0">
          <Node pos="l" depth="2" NCoef="0" IVar="-1" Cut="0.0000000000000000e+00" cType="1" res="-4.8211254761554301e-04" rms="4.5965626835823059e-01" purity="4.4026997685432434e-01" nType="-99"/>
          <Node pos="r" depth="2" NCoef="0" IVar="-1" Cut="0.0000000000000000e+00" cType="1" res="6.6027021966874599e-04" rms="4.6551877260208130e-01" purity="5.6532603502273560e-01" nType="-99"/>
        </Node>
        <Node pos="r" depth="1" NCoef="0" IVar="0" Cut="9.1883384704589844e+01" cType="1" res="3.1534772366285324e-02" rms="4.6164217591285706e-01" purity="5.5753779411315918e-01" nType="0">
          <Node pos="l" depth="2" NCoef="0" IVar="-1" Cut="0.0000000000000000e+00" cType="1" res="-5.5176642490550876e-05" rms="4.5718142390251160e-01" purity="5.2291816473007202e-01" nType="-99"/>
          <Node pos="r" depth="2" NCoef="0" IVar="-1" Cut="0.0000000000000000e+00" cType="1" res="1.0363840265199542e-03" rms="4.6239420771598816e-01" purity="5.6651049852371216e-01" nType="-99"/>
        </Node>
      </Node>
    </BinaryTree>
    <BinaryTree type="DecisionTree" boostWeight="1.0000000000000000e+00" itree="462">
      <Node pos="s" depth="0" NCoef="0" IVar="0" Cut="1.5957073974609375e+02" cType="1" res="1.8415254307910800e-03" rms="4.6117016673088074e-01" purity="4.9829432368278503e-01" nType="0">
        <Node pos="l" depth="1" NCoef="0" IVar="0" Cut="9.2915527343750000e+01" cType="1" res="1.8918445333838463e-02" rms="4.6124765276908875e-01" purity="5.3382086753845215e-01" nType="0">
          <Node pos="l" depth="2" NCoef="0" IVar="-1" Cut="0.0000000000000000e+00" cType="1" res="-6.4747588476166129e-04" rms="4.6493053436279297e-01" purity="4.8786202073097229e-01" nType="-99"/>
          <Node pos="r" depth="2" NCoef="0" IVar="-1" Cut="0.0000000000000000e+00" cType="1" res="1.0298169218003750e-03" rms="4.5784577727317810e-01" purity="5.5717557668685913e-01" nType="-99"/>
        </Node>
        <Node pos="r" depth="1" NCoef="0" IVar="4" Cut="1.5572074890136719e+02" cType="1" res="-2.2819485515356064e-02" rms="4.5994064211845398e-01" purity="4.4698995351791382e-01" nType="0">
          <Node pos="l" depth="2" NCoef="0" IVar="-1" Cut="0.0000000000000000e+00" cType="1" res="-1.9972471054643393e-03" rms="4.4517615437507629e-01" purity="3.5512501001358032e-01" nType="-99"/>
          <Node pos="r" depth="2" NCoef="0" IVar="-1" Cut="0.0000000000000000e+00" cType="1" res="-6.7975546699017286e-05" rms="4.6733960509300232e-01" purity="5.0178241729736328e-01" nType="-99"/>
        </Node>
      </Node>
    </BinaryTree>
    <BinaryTree type="DecisionTree" boostWeight="1.0000000000000000e+00" itree="463">
      <Node pos="s" depth="0" NCoef="0" IVar="9" Cut="4.7337125986814499e-02" cType="1" res="4.1839522309601307e-03" rms="4.6426790952682495e-01" purity="4.9816983938217163e-01" nType="0">
        <Node pos="l" depth="1" NCoef="0" IVar="3" Cut="1.4385257959365845e+00" cType="1" res="-2.5568718090653419e-02" rms="4.6339806914329529e-01" purity="4.4695627689361572e-01" nType="0">
          <Node pos="l" depth="2" NCoef="0" IVar="-1" Cut="0.0000000000000000e+00" cType="1" res="6.4854853553697467e-04" rms="4.6281042695045471e-01" purity="5.7482826709747314e-01" nType="-99"/>
          <Node pos="r" depth="2" NCoef="0" IVar="-1" Cut="0.0000000000000000e+00" cType="1" res="-1.3376405695453286e-03" rms="4.6229180693626404e-01" purity="4.0528801083564758e-01" nType="-99"/>
        </Node>
        <Node pos="r" depth="1" NCoef="0" IVar="4" Cut="1.7223490905761719e+02" cType="1" res="1.5554003417491913e-02" rms="4.6409642696380615e-01" purity="5.1774114370346069e-01" nType="0">
          <Node pos="l" depth="2" NCoef="0" IVar="-1" Cut="0.0000000000000000e+00" cType="1" res="6.8924302468076348e-05" rms="4.6612274646759033e-01" purity="4.7196328639984131e-01" nType="-99"/>
          <Node pos="r" depth="2" NCoef="0" IVar="-1" Cut="0.0000000000000000e+00" cType="1" res="9.7750558052212000e-04" rms="4.5929893851280212e-01" purity="6.0302090644836426e-01" nType="-99"/>
        </Node>
      </Node>
    </BinaryTree>
    <BinaryTree type="DecisionTree" boostWeight="1.0000000000000000e+00" itree="464">
      <Node pos="s" depth="0" NCoef="0" IVar="3" Cut="1.4370360374450684e+00" cType="1" res="1.7923042178153992e-03" rms="4.6200379729270935e-01" purity="4.9799904227256775e-01" nType="0">
        <Node pos="l" depth="1" NCoef="0" IVar="0" Cut="8.9122962951660156e+01" cType="1" res="3.8929000496864319e-02" rms="4.5630869269371033e-01" purity="5.9708720445632935e-01" nType="0">
          <Node pos="l" depth="2" NCoef="0" IVar="-1" Cut="0.0000000000000000e+00" cType="1" res="-6.8075278250034899e-05" rms="4.6442818641662598e-01" purity="5.2000504732131958e-01" nType="-99"/>
          <Node pos="r" depth="2" NCoef="0" IVar="-1" Cut="0.0000000000000000e+00" cType="1" res="2.0307460799813271e-03" rms="4.4046327471733093e-01" purity="6.9354712963104248e-01" nType="-99"/>
        </Node>
        <Node pos="r" depth="1" NCoef="0" IVar="4" Cut="1.9258856201171875e+02" cType="1" res="-9.5100747421383858e-03" rms="4.6313253045082092e-01" purity="4.6784201264381409e-01" nType="0">
          <Node pos="l" depth="2" NCoef="0" IVar="-1" Cut="0.0000000000000000e+00" cType="1" res="-6.0409709112718701e-04" rms="4.5981261134147644e-01" purity="4.3571153283119202e-01" nType="-99"/>
          <Node pos="r" depth="2" NCoef="0" IVar="-1" Cut="0.0000000000000000e+00" cType="1" res="2.9649335192516446e-04" rms="4.6911332011222839e-01" purity="5.3312718868255615e-01" nType="-99"/>
        </Node>
      </Node>
    </BinaryTree>
    <BinaryTree type="DecisionTree" boostWeight="1.0000000000000000e+00" itree="465">
      <Node pos="s" depth="0" NCoef="0" IVar="1" Cut="2.6300184726715088e+00" cType="1" res="1.8671741709113121e-03" rms="4.6138429641723633e-01" purity="4.9966290593147278e-01" nType="0">
        <Node pos="l" depth="1" NCoef="0" IVar="3" Cut="1.3285564184188843e+00" cType="1" res="-4.5541883446276188e-03" rms="4.6818545460700989e-01" purity="4.6637648344039917e-01" nType="0">
          <Node pos="l" depth="2" NCoef="0" IVar="-1" Cut="0.0000000000000000e+00" cType="1" res="7.3644245276227593e-04" rms="4.6853998303413391e-01" purity="5.6718206405639648e-01" nType="-99"/>
          <Node pos="r" depth="2" NCoef="0" IVar="-1" Cut="0.0000000000000000e+00" cType="1" res="-3.7702976260334253e-04" rms="4.6772637963294983e-01" purity="4.4224625825881958e-01" nType="-99"/>
        </Node>
        <Node pos="r" depth="1" NCoef="0" IVar="-1" Cut="0.0000000000000000e+00" cType="1" res="1.4053105842322111e-03" rms="3.8773503899574280e-01" purity="8.0825179815292358e-01" nType="-99"/>
      </Node>
    </BinaryTree>
    <BinaryTree type="DecisionTree" boostWeight="1.0000000000000000e+00" itree="466">
      <Node pos="s" depth="0" NCoef="0" IVar="6" Cut="9.4374418258666992e-01" cType="1" res="-8.9599215425550938e-04" rms="4.6145212650299072e-01" purity="4.9658200144767761e-01" nType="0">
        <Node pos="l" depth="1" NCoef="0" IVar="9" Cut="1.3352669775485992e-01" cType="1" res="-2.6588495820760727e-02" rms="4.6305692195892334e-01" purity="4.4846296310424805e-01" nType="0">
          <Node pos="l" depth="2" NCoef="0" IVar="-1" Cut="0.0000000000000000e+00" cType="1" res="-1.1540170526131988e-03" rms="4.6073514223098755e-01" purity="4.2665588855743408e-01" nType="-99"/>
          <Node pos="r" depth="2" NCoef="0" IVar="-1" Cut="0.0000000000000000e+00" cType="1" res="3.5999770625494421e-04" rms="4.6846640110015869e-01" purity="5.2131682634353638e-01" nType="-99"/>
        </Node>
        <Node pos="r" depth="1" NCoef="0" IVar="4" Cut="1.0966556549072266e+02" cType="1" res="1.1828801594674587e-02" rms="4.6012431383132935e-01" purity="5.2041399478912354e-01" nType="0">
          <Node pos="l" depth="2" NCoef="0" IVar="-1" Cut="0.0000000000000000e+00" cType="1" res="-7.2853593155741692e-04" rms="4.5154267549514771e-01" purity="4.1524085402488708e-01" nType="-99"/>
          <Node pos="r" depth="2" NCoef="0" IVar="-1" Cut="0.0000000000000000e+00" cType="1" res="5.6842569028958678e-04" rms="4.6201550960540771e-01" purity="5.4974287748336792e-01" nType="-99"/>
        </Node>
      </Node>
    </BinaryTree>
    <BinaryTree type="DecisionTree" boostWeight="1.0000000000000000e+00" itree="467">
      <Node pos="s" depth="0" NCoef="0" IVar="1" Cut="2.6396126747131348e+00" cType="1" res="4.8123318701982498e-03" rms="4.6224051713943481e-01" purity="5.0058239698410034e-01" nType="0">
        <Node pos="l" depth="1" NCoef="0" IVar="0" Cut="8.9386528015136719e+01" cType="1" res="-4.0865971823222935e-04" rms="4.6876209974288940e-01" purity="4.6809428930282593e-01" nType="0">
          <Node pos="l" depth="2" NCoef="0" IVar="-1" Cut="0.0000000000000000e+00" cType="1" res="-9.8699377849698067e-04" rms="4.6779885888099670e-01" purity="4.5051759481430054e-01" nType="-99"/>
          <Node pos="r" depth="2" NCoef="0" IVar="-1" Cut="0.0000000000000000e+00" cType="1" res="2.0018780196551234e-04" rms="4.6863704919815063e-01" purity="4.7192552685737610e-01" nType="-99"/>
        </Node>
        <Node pos="r" depth="1" NCoef="0" IVar="-1" Cut="0.0000000000000000e+00" cType="1" res="1.2130218092352152e-03" rms="3.9405849575996399e-01" purity="7.9931300878524780e-01" nType="-99"/>
      </Node>
    </BinaryTree>
    <BinaryTree type="DecisionTree" boostWeight="1.0000000000000000e+00" itree="468">
      <Node pos="s" depth="0" NCoef="0" IVar="1" Cut="2.6022653579711914e+00" cType="1" res="4.7214128426276147e-04" rms="4.6157273650169373e-01" purity="4.9689036607742310e-01" nType="0">
        <Node pos="l" depth="1" NCoef="0" IVar="5" Cut="-7.0467516779899597e-02" cType="1" res="-5.0751082599163055e-03" rms="4.6813243627548218e-01" purity="4.6280387043952942e-01" nType="0">
          <Node pos="l" depth="2" NCoef="0" IVar="-1" Cut="0.0000000000000000e+00" cType="1" res="-2.0587304607033730e-03" rms="4.5273917913436890e-01" purity="3.4820398688316345e-01" nType="-99"/>
          <Node pos="r" depth="2" NCoef="0" IVar="-1" Cut="0.0000000000000000e+00" cType="1" res="-3.2403975637862459e-05" rms="4.6895357966423035e-01" purity="4.7090548276901245e-01" nType="-99"/>
        </Node>
        <Node pos="r" depth="1" NCoef="0" IVar="-1" Cut="0.0000000000000000e+00" cType="1" res="1.1620959267020226e-03" rms="3.9543575048446655e-01" purity="7.9868328571319580e-01" nType="-99"/>
      </Node>
    </BinaryTree>
    <BinaryTree type="DecisionTree" boostWeight="1.0000000000000000e+00" itree="469">
      <Node pos="s" depth="0" NCoef="0" IVar="1" Cut="2.7306170463562012e+00" cType="1" res="1.7299621831625700e-03" rms="4.6096938848495483e-01" purity="4.9986025691032410e-01" nType="0">
        <Node pos="l" depth="1" NCoef="0" IVar="3" Cut="1.5441696643829346e+00" cType="1" res="-4.2921374551951885e-03" rms="4.6754699945449829e-01" purity="4.6851694583892822e-01" nType="0">
          <Node pos="l" depth="2" NCoef="0" IVar="-1" Cut="0.0000000000000000e+00" cType="1" res="6.8636605283245444e-04" rms="4.7073176503181458e-01" purity="5.6435614824295044e-01" nType="-99"/>
          <Node pos="r" depth="2" NCoef="0" IVar="-1" Cut="0.0000000000000000e+00" cType="1" res="-4.6274001942947507e-04" rms="4.6590757369995117e-01" purity="4.3492239713668823e-01" nType="-99"/>
        </Node>
        <Node pos="r" depth="1" NCoef="0" IVar="-1" Cut="0.0000000000000000e+00" cType="1" res="1.4089629985392094e-03" rms="3.8417661190032959e-01" purity="8.1255185604095459e-01" nType="-99"/>
      </Node>
    </BinaryTree>
    <BinaryTree type="DecisionTree" boostWeight="1.0000000000000000e+00" itree="470">
      <Node pos="s" depth="0" NCoef="0" IVar="3" Cut="3.3362932205200195e+00" cType="1" res="-4.9730791943147779e-04" rms="4.5911428332328796e-01" purity="4.9346196651458740e-01" nType="0">
        <Node pos="l" depth="1" NCoef="0" IVar="6" Cut="9.3479853868484497e-01" cType="1" res="4.7015743330121040e-03" rms="4.6186694502830505e-01" purity="5.0762140750885010e-01" nType="0">
          <Node pos="l" depth="2" NCoef="0" IVar="-1" Cut="0.0000000000000000e+00" cType="1" res="-6.9616414839401841e-04" rms="4.6622821688652039e-01" purity="4.5445403456687927e-01" nType="-99"/>
          <Node pos="r" depth="2" NCoef="0" IVar="-1" Cut="0.0000000000000000e+00" cType="1" res="3.9002683479338884e-04" rms="4.5997911691665649e-01" purity="5.2545326948165894e-01" nType="-99"/>
        </Node>
        <Node pos="r" depth="1" NCoef="0" IVar="-1" Cut="0.0000000000000000e+00" cType="1" res="-3.4716683439910412e-03" rms="4.0448713302612305e-01" purity="2.6996594667434692e-01" nType="-99"/>
      </Node>
    </BinaryTree>
    <BinaryTree type="DecisionTree" boostWeight="1.0000000000000000e+00" itree="471">
      <Node pos="s" depth="0" NCoef="0" IVar="3" Cut="2.3271586894989014e+00" cType="1" res="8.7399326730519533e-04" rms="4.5962998270988464e-01" purity="4.9976232647895813e-01" nType="0">
        <Node pos="l" depth="1" NCoef="0" IVar="0" Cut="7.6848388671875000e+01" cType="1" res="1.9214486703276634e-02" rms="4.6265241503715515e-01" purity="5.5736637115478516e-01" nType="0">
          <Node pos="l" depth="2" NCoef="0" IVar="-1" Cut="0.0000000000000000e+00" cType="1" res="-5.8323331177234650e-04" rms="4.6506500244140625e-01" purity="4.9263802170753479e-01" nType="-99"/>
          <Node pos="r" depth="2" NCoef="0" IVar="-1" Cut="0.0000000000000000e+00" cType="1" res="7.7935348963364959e-04" rms="4.6129935979843140e-01" purity="5.7594048976898193e-01" nType="-99"/>
        </Node>
        <Node pos="r" depth="1" NCoef="0" IVar="6" Cut="9.9317377805709839e-01" cType="1" res="-2.0915828645229340e-02" rms="4.5505326986312866e-01" purity="4.3132454156875610e-01" nType="0">
          <Node pos="l" depth="2" NCoef="0" IVar="-1" Cut="0.0000000000000000e+00" cType="1" res="-8.4638927364721894e-04" rms="4.5511889457702637e-01" purity="4.2261400818824768e-01" nType="-99"/>
          <Node pos="r" depth="2" NCoef="0" IVar="-1" Cut="0.0000000000000000e+00" cType="1" res="9.3545240815728903e-04" rms="4.5090034604072571e-01" purity="5.0181931257247925e-01" nType="-99"/>
        </Node>
      </Node>
    </BinaryTree>
    <BinaryTree type="DecisionTree" boostWeight="1.0000000000000000e+00" itree="472">
      <Node pos="s" depth="0" NCoef="0" IVar="1" Cut="2.5222485065460205e+00" cType="1" res="2.0953522471245378e-04" rms="4.6179082989692688e-01" purity="4.9838757514953613e-01" nType="0">
        <Node pos="l" depth="1" NCoef="0" IVar="0" Cut="6.4206222534179688e+01" cType="1" res="-5.3472477011382580e-03" rms="4.6878027915954590e-01" purity="4.5999482274055481e-01" nType="0">
          <Node pos="l" depth="2" NCoef="0" IVar="-1" Cut="0.0000000000000000e+00" cType="1" res="-1.6935433959588408e-03" rms="4.5778256654739380e-01" purity="4.2760682106018066e-01" nType="-99"/>
          <Node pos="r" depth="2" NCoef="0" IVar="-1" Cut="0.0000000000000000e+00" cType="1" res="-3.3680451451800764e-05" rms="4.6938225626945496e-01" purity="4.6254682540893555e-01" nType="-99"/>
        </Node>
        <Node pos="r" depth="1" NCoef="0" IVar="-1" Cut="0.0000000000000000e+00" cType="1" res="9.7664375789463520e-04" rms="4.0247315168380737e-01" purity="7.8916531801223755e-01" nType="-99"/>
      </Node>
    </BinaryTree>
    <BinaryTree type="DecisionTree" boostWeight="1.0000000000000000e+00" itree="473">
      <Node pos="s" depth="0" NCoef="0" IVar="0" Cut="5.8161293029785156e+01" cType="1" res="2.5890686083585024e-03" rms="4.6110707521438599e-01" purity="4.9820345640182495e-01" nType="0">
        <Node pos="l" depth="1" NCoef="0" IVar="-1" Cut="0.0000000000000000e+00" cType="1" res="-2.0331328269094229e-03" rms="4.6265628933906555e-01" purity="4.2614790797233582e-01" nType="-99"/>
        <Node pos="r" depth="1" NCoef="0" IVar="3" Cut="1.1259721517562866e+00" cType="1" res="6.6553251817822456e-03" rms="4.6068835258483887e-01" purity="5.0235444307327271e-01" nType="0">
          <Node pos="l" depth="2" NCoef="0" IVar="-1" Cut="0.0000000000000000e+00" cType="1" res="1.5207321848720312e-03" rms="4.4252461194992065e-01" purity="6.5892541408538818e-01" nType="-99"/>
          <Node pos="r" depth="2" NCoef="0" IVar="-1" Cut="0.0000000000000000e+00" cType="1" res="2.1986093997838907e-05" rms="4.6209239959716797e-01" purity="4.8642757534980774e-01" nType="-99"/>
        </Node>
      </Node>
    </BinaryTree>
    <BinaryTree type="DecisionTree" boostWeight="1.0000000000000000e+00" itree="474">
      <Node pos="s" depth="0" NCoef="0" IVar="6" Cut="9.2773067951202393e-01" cType="1" res="2.4700539652258158e-03" rms="4.6303847432136536e-01" purity="4.9644824862480164e-01" nType="0">
        <Node pos="l" depth="1" NCoef="0" IVar="4" Cut="1.5384582519531250e+02" cType="1" res="-3.4375954419374466e-02" rms="4.6250203251838684e-01" purity="4.2825210094451904e-01" nType="0">
          <Node pos="l" depth="2" NCoef="0" IVar="-1" Cut="0.0000000000000000e+00" cType="1" res="-1.9162474200129509e-03" rms="4.5565190911293030e-01" purity="3.5593411326408386e-01" nType="-99"/>
          <Node pos="r" depth="2" NCoef="0" IVar="-1" Cut="0.0000000000000000e+00" cType="1" res="-4.0389178320765495e-04" rms="4.6729826927185059e-01" purity="4.8909133672714233e-01" nType="-99"/>
        </Node>
        <Node pos="r" depth="1" NCoef="0" IVar="9" Cut="1.2640291452407837e-01" cType="1" res="1.0674122720956802e-02" rms="4.6275866031646729e-01" purity="5.1163268089294434e-01" nType="0">
          <Node pos="l" depth="2" NCoef="0" IVar="-1" Cut="0.0000000000000000e+00" cType="1" res="2.3160790078691207e-05" rms="4.6450543403625488e-01" purity="4.8838827013969421e-01" nType="-99"/>
          <Node pos="r" depth="2" NCoef="0" IVar="-1" Cut="0.0000000000000000e+00" cType="1" res="9.5931073883548379e-04" rms="4.5696386694908142e-01" purity="5.7427394390106201e-01" nType="-99"/>
        </Node>
      </Node>
    </BinaryTree>
    <BinaryTree type="DecisionTree" boostWeight="1.0000000000000000e+00" itree="475">
      <Node pos="s" depth="0" NCoef="0" IVar="1" Cut="2.5836684703826904e+00" cType="1" res="5.7219206355512142e-03" rms="4.6164399385452271e-01" purity="5.0110250711441040e-01" nType="0">
        <Node pos="l" depth="1" NCoef="0" IVar="0" Cut="9.4076927185058594e+01" cType="1" res="1.0857312008738518e-04" rms="4.6874317526817322e-01" purity="4.6676972508430481e-01" nType="0">
          <Node pos="l" depth="2" NCoef="0" IVar="-1" Cut="0.0000000000000000e+00" cType="1" res="-9.0738729340955615e-04" rms="4.6817937493324280e-01" purity="4.5081764459609985e-01" nType="-99"/>
          <Node pos="r" depth="2" NCoef="0" IVar="-1" Cut="0.0000000000000000e+00" cType="1" res="2.3336778394877911e-04" rms="4.6853592991828918e-01" purity="4.7079491615295410e-01" nType="-99"/>
        </Node>
        <Node pos="r" depth="1" NCoef="0" IVar="-1" Cut="0.0000000000000000e+00" cType="1" res="1.2723986292257905e-03" rms="3.9018473029136658e-01" purity="8.0337339639663696e-01" nType="-99"/>
      </Node>
    </BinaryTree>
    <BinaryTree type="DecisionTree" boostWeight="1.0000000000000000e+00" itree="476">
      <Node pos="s" depth="0" NCoef="0" IVar="4" Cut="8.5666534423828125e+01" cType="1" res="9.8000159487128258e-03" rms="4.6172195672988892e-01" purity="5.0660771131515503e-01" nType="0">
        <Node pos="l" depth="1" NCoef="0" IVar="-1" Cut="0.0000000000000000e+00" cType="1" res="-1.4709059614688158e-03" rms="4.4649156928062439e-01" purity="3.6119312047958374e-01" nType="-99"/>
        <Node pos="r" depth="1" NCoef="0" IVar="9" Cut="1.1081921309232712e-01" cType="1" res="1.4679801650345325e-02" rms="4.6280682086944580e-01" purity="5.2009987831115723e-01" nType="0">
          <Node pos="l" depth="2" NCoef="0" IVar="-1" Cut="0.0000000000000000e+00" cType="1" res="9.2236070486251265e-05" rms="4.6384361386299133e-01" purity="4.9216043949127197e-01" nType="-99"/>
          <Node pos="r" depth="2" NCoef="0" IVar="-1" Cut="0.0000000000000000e+00" cType="1" res="9.9785067141056061e-04" rms="4.5950630307197571e-01" purity="5.8199107646942139e-01" nType="-99"/>
        </Node>
      </Node>
    </BinaryTree>
    <BinaryTree type="DecisionTree" boostWeight="1.0000000000000000e+00" itree="477">
      <Node pos="s" depth="0" NCoef="0" IVar="1" Cut="-2.8645142912864685e-01" cType="1" res="1.6071068239398301e-04" rms="4.6036612987518311e-01" purity="4.9490585923194885e-01" nType="0">
        <Node pos="l" depth="1" NCoef="0" IVar="0" Cut="9.0154228210449219e+01" cType="1" res="-2.3070443421602249e-02" rms="4.5028913021087646e-01" purity="3.0984735488891602e-01" nType="0">
          <Node pos="l" depth="2" NCoef="0" IVar="-1" Cut="0.0000000000000000e+00" cType="1" res="-3.0466644093394279e-03" rms="4.3716385960578918e-01" purity="2.7874928712844849e-01" nType="-99"/>
          <Node pos="r" depth="2" NCoef="0" IVar="-1" Cut="0.0000000000000000e+00" cType="1" res="-4.4940048246644437e-04" rms="4.5226460695266724e-01" purity="3.1659778952598572e-01" nType="-99"/>
        </Node>
        <Node pos="r" depth="1" NCoef="0" IVar="6" Cut="9.1280949115753174e-01" cType="1" res="1.3780873268842697e-02" rms="4.6563422679901123e-01" purity="6.0340356826782227e-01" nType="0">
          <Node pos="l" depth="2" NCoef="0" IVar="-1" Cut="0.0000000000000000e+00" cType="1" res="-1.2496829731389880e-03" rms="4.6935582160949707e-01" purity="5.0897914171218872e-01" nType="-99"/>
          <Node pos="r" depth="2" NCoef="0" IVar="-1" Cut="0.0000000000000000e+00" cType="1" res="4.6598882181569934e-04" rms="4.6483659744262695e-01" purity="6.1233520507812500e-01" nType="-99"/>
        </Node>
      </Node>
    </BinaryTree>
    <BinaryTree type="DecisionTree" boostWeight="1.0000000000000000e+00" itree="478">
      <Node pos="s" depth="0" NCoef="0" IVar="4" Cut="1.0069384765625000e+02" cType="1" res="-1.5310861635953188e-03" rms="4.5934817194938660e-01" purity="4.9370601773262024e-01" nType="0">
        <Node pos="l" depth="1" NCoef="0" IVar="4" Cut="8.1932380676269531e+01" cType="1" res="-4.0386356413364410e-02" rms="4.4726979732513428e-01" purity="3.7441307306289673e-01" nType="0">
          <Node pos="l" depth="2" NCoef="0" IVar="-1" Cut="0.0000000000000000e+00" cType="1" res="-3.1661360990256071e-03" rms="4.3258208036422729e-01" purity="3.1445467472076416e-01" nType="-99"/>
          <Node pos="r" depth="2" NCoef="0" IVar="-1" Cut="0.0000000000000000e+00" cType="1" res="-3.7948621320538223e-04" rms="4.5442759990692139e-01" purity="4.1372531652450562e-01" nType="-99"/>
        </Node>
        <Node pos="r" depth="1" NCoef="0" IVar="3" Cut="2.3536865711212158e+00" cType="1" res="6.0327760875225067e-03" rms="4.6128228306770325e-01" purity="5.1692849397659302e-01" nType="0">
          <Node pos="l" depth="2" NCoef="0" IVar="-1" Cut="0.0000000000000000e+00" cType="1" res="5.8209500275552273e-04" rms="4.6224609017372131e-01" purity="5.7482302188873291e-01" nType="-99"/>
          <Node pos="r" depth="2" NCoef="0" IVar="-1" Cut="0.0000000000000000e+00" cType="1" res="-4.6104917419143021e-04" rms="4.5917060971260071e-01" purity="4.4434171915054321e-01" nType="-99"/>
        </Node>
      </Node>
    </BinaryTree>
    <BinaryTree type="DecisionTree" boostWeight="1.0000000000000000e+00" itree="479">
      <Node pos="s" depth="0" NCoef="0" IVar="6" Cut="9.0953344106674194e-01" cType="1" res="4.5445770956575871e-03" rms="4.6163281798362732e-01" purity="5.0089406967163086e-01" nType="0">
        <Node pos="l" depth="1" NCoef="0" IVar="-1" Cut="0.0000000000000000e+00" cType="1" res="-1.5297716017812490e-03" rms="4.5749408006668091e-01" purity="4.0866389870643616e-01" nType="-99"/>
        <Node pos="r" depth="1" NCoef="0" IVar="3" Cut="1.7791754007339478e+00" cType="1" res="9.1836983337998390e-03" rms="4.6167054772377014e-01" purity="5.0854814052581787e-01" nType="0">
          <Node pos="l" depth="2" NCoef="0" IVar="-1" Cut="0.0000000000000000e+00" cType="1" res="7.6867762254551053e-04" rms="4.5755523443222046e-01" purity="5.8975422382354736e-01" nType="-99"/>
          <Node pos="r" depth="2" NCoef="0" IVar="-1" Cut="0.0000000000000000e+00" cType="1" res="-5.1848874136339873e-05" rms="4.6335837244987488e-01" purity="4.6734613180160522e-01" nType="-99"/>
        </Node>
      </Node>
    </BinaryTree>
    <BinaryTree type="DecisionTree" boostWeight="1.0000000000000000e+00" itree="480">
      <Node pos="s" depth="0" NCoef="0" IVar="8" Cut="4.1257774829864502e-01" cType="1" res="5.9864381328225136e-03" rms="4.6233263611793518e-01" purity="5.0236636400222778e-01" nType="0">
        <Node pos="l" depth="1" NCoef="0" IVar="4" Cut="1.0122396850585938e+02" cType="1" res="-7.1936991298571229e-04" rms="4.6323704719543457e-01" purity="4.8830261826515198e-01" nType="0">
          <Node pos="l" depth="2" NCoef="0" IVar="-1" Cut="0.0000000000000000e+00" cType="1" res="-1.3533168239519000e-03" rms="4.4543924927711487e-01" purity="3.6950358748435974e-01" nType="-99"/>
          <Node pos="r" depth="2" NCoef="0" IVar="-1" Cut="0.0000000000000000e+00" cType="1" res="2.0063151896465570e-04" rms="4.6644282341003418e-01" purity="5.1298642158508301e-01" nType="-99"/>
        </Node>
        <Node pos="r" depth="1" NCoef="0" IVar="-1" Cut="0.0000000000000000e+00" cType="1" res="1.9146283157169819e-03" rms="4.4394037127494812e-01" purity="6.6831016540527344e-01" nType="-99"/>
      </Node>
    </BinaryTree>
    <BinaryTree type="DecisionTree" boostWeight="1.0000000000000000e+00" itree="481">
      <Node pos="s" depth="0" NCoef="0" IVar="2" Cut="5.1021504402160645e-01" cType="1" res="1.2521048483904451e-04" rms="4.6250766515731812e-01" purity="4.9553695321083069e-01" nType="0">
        <Node pos="l" depth="1" NCoef="0" IVar="5" Cut="-4.3562315404415131e-02" cType="1" res="-2.8349483385682106e-02" rms="4.5822563767433167e-01" purity="4.1327413916587830e-01" nType="0">
          <Node pos="l" depth="2" NCoef="0" IVar="-1" Cut="0.0000000000000000e+00" cType="1" res="-3.0812032055109739e-03" rms="4.3715792894363403e-01" purity="3.3112299442291260e-01" nType="-99"/>
          <Node pos="r" depth="2" NCoef="0" IVar="-1" Cut="0.0000000000000000e+00" cType="1" res="-2.7672451687976718e-04" rms="4.6307221055030823e-01" purity="4.3920099735260010e-01" nType="-99"/>
        </Node>
        <Node pos="r" depth="1" NCoef="0" IVar="4" Cut="1.8835183715820312e+02" cType="1" res="1.2188084423542023e-02" rms="4.6378287672996521e-01" purity="5.3038638830184937e-01" nType="0">
          <Node pos="l" depth="2" NCoef="0" IVar="-1" Cut="0.0000000000000000e+00" cType="1" res="-3.4101452911272645e-05" rms="4.6309027075767517e-01" purity="4.9090242385864258e-01" nType="-99"/>
          <Node pos="r" depth="2" NCoef="0" IVar="-1" Cut="0.0000000000000000e+00" cType="1" res="8.3413108950480819e-04" rms="4.6408283710479736e-01" purity="5.9460157155990601e-01" nType="-99"/>
        </Node>
      </Node>
    </BinaryTree>
    <BinaryTree type="DecisionTree" boostWeight="1.0000000000000000e+00" itree="482">
      <Node pos="s" depth="0" NCoef="0" IVar="9" Cut="1.2616853415966034e-01" cType="1" res="3.6187302321195602e-03" rms="4.6144762635231018e-01" purity="5.0055658817291260e-01" nType="0">
        <Node pos="l" depth="1" NCoef="0" IVar="3" Cut="1.4381998777389526e+00" cType="1" res="-9.8554519936442375e-03" rms="4.6125170588493347e-01" purity="4.7518694400787354e-01" nType="0">
          <Node pos="l" depth="2" NCoef="0" IVar="-1" Cut="0.0000000000000000e+00" cType="1" res="6.1733607435598969e-04" rms="4.5776480436325073e-01" purity="5.8172565698623657e-01" nType="-99"/>
          <Node pos="r" depth="2" NCoef="0" IVar="-1" Cut="0.0000000000000000e+00" cType="1" res="-6.2592921312898397e-04" rms="4.6180871129035950e-01" purity="4.4145792722702026e-01" nType="-99"/>
        </Node>
        <Node pos="r" depth="1" NCoef="0" IVar="5" Cut="5.2101467736065388e-03" cType="1" res="3.9300356060266495e-02" rms="4.6006372570991516e-01" purity="5.6773918867111206e-01" nType="0">
          <Node pos="l" depth="2" NCoef="0" IVar="-1" Cut="0.0000000000000000e+00" cType="1" res="1.4141595456749201e-03" rms="4.5664033293724060e-01" purity="5.8206939697265625e-01" nType="-99"/>
          <Node pos="r" depth="2" NCoef="0" IVar="-1" Cut="0.0000000000000000e+00" cType="1" res="2.0276269060559571e-04" rms="4.6463724970817566e-01" purity="5.4132795333862305e-01" nType="-99"/>
        </Node>
      </Node>
    </BinaryTree>
    <BinaryTree type="DecisionTree" boostWeight="1.0000000000000000e+00" itree="483">
      <Node pos="s" depth="0" NCoef="0" IVar="0" Cut="1.4402645874023438e+02" cType="1" res="3.0586007051169872e-03" rms="4.6402788162231445e-01" purity="4.9677810072898865e-01" nType="0">
        <Node pos="l" depth="1" NCoef="0" IVar="0" Cut="8.7390472412109375e+01" cType="1" res="1.9059238955378532e-02" rms="4.6493706107139587e-01" purity="5.3206533193588257e-01" nType="0">
          <Node pos="l" depth="2" NCoef="0" IVar="-1" Cut="0.0000000000000000e+00" cType="1" res="-5.7524011936038733e-04" rms="4.6616333723068237e-01" purity="4.8820397257804871e-01" nType="-99"/>
          <Node pos="r" depth="2" NCoef="0" IVar="-1" Cut="0.0000000000000000e+00" cType="1" res="1.0217191884294152e-03" rms="4.6296581625938416e-01" purity="5.5454343557357788e-01" nType="-99"/>
        </Node>
        <Node pos="r" depth="1" NCoef="0" IVar="8" Cut="4.0775904059410095e-01" cType="1" res="-1.3731806538999081e-02" rms="4.6247705817222595e-01" purity="4.5974916219711304e-01" nType="0">
          <Node pos="l" depth="2" NCoef="0" IVar="-1" Cut="0.0000000000000000e+00" cType="1" res="-6.3640566077083349e-04" rms="4.6267363429069519e-01" purity="4.4184350967407227e-01" nType="-99"/>
          <Node pos="r" depth="2" NCoef="0" IVar="-1" Cut="0.0000000000000000e+00" cType="1" res="9.6377299632877111e-04" rms="4.5762395858764648e-01" purity="5.8772611618041992e-01" nType="-99"/>
        </Node>
      </Node>
    </BinaryTree>
    <BinaryTree type="DecisionTree" boostWeight="1.0000000000000000e+00" itree="484">
      <Node pos="s" depth="0" NCoef="0" IVar="1" Cut="2.6689615249633789e+00" cType="1" res="4.1388459503650665e-03" rms="4.5984885096549988e-01" purity="5.0324869155883789e-01" nType="0">
        <Node pos="l" depth="1" NCoef="0" IVar="6" Cut="9.3456989526748657e-01" cType="1" res="-1.5845904126763344e-03" rms="4.6661621332168579e-01" purity="4.7005844116210938e-01" nType="0">
          <Node pos="l" depth="2" NCoef="0" IVar="-1" Cut="0.0000000000000000e+00" cType="1" res="-8.6215836927294731e-04" rms="4.6292963624000549e-01" purity="4.1836014389991760e-01" nType="-99"/>
          <Node pos="r" depth="2" NCoef="0" IVar="-1" Cut="0.0000000000000000e+00" cType="1" res="2.0618621783796698e-04" rms="4.6746736764907837e-01" purity="4.8707243800163269e-01" nType="-99"/>
        </Node>
        <Node pos="r" depth="1" NCoef="0" IVar="-1" Cut="0.0000000000000000e+00" cType="1" res="1.3040850171819329e-03" rms="3.8834846019744873e-01" purity="8.0807495117187500e-01" nType="-99"/>
      </Node>
    </BinaryTree>
    <BinaryTree type="DecisionTree" boostWeight="1.0000000000000000e+00" itree="485">
      <Node pos="s" depth="0" NCoef="0" IVar="3" Cut="3.2798142433166504e+00" cType="1" res="3.9136298000812531e-03" rms="4.6179506182670593e-01" purity="5.0027257204055786e-01" nType="0">
        <Node pos="l" depth="1" NCoef="0" IVar="1" Cut="-1.1812548637390137e+00" cType="1" res="8.1082116812467575e-03" rms="4.6357107162475586e-01" purity="5.1466321945190430e-01" nType="0">
          <Node pos="l" depth="2" NCoef="0" IVar="-1" Cut="0.0000000000000000e+00" cType="1" res="-1.0643790010362864e-03" rms="4.4060277938842773e-01" purity="2.7859520912170410e-01" nType="-99"/>
          <Node pos="r" depth="2" NCoef="0" IVar="-1" Cut="0.0000000000000000e+00" cType="1" res="3.8228451739996672e-04" rms="4.6848425269126892e-01" purity="5.6998419761657715e-01" nType="-99"/>
        </Node>
        <Node pos="r" depth="1" NCoef="0" IVar="-1" Cut="0.0000000000000000e+00" cType="1" res="-2.0464749541133642e-03" rms="4.3348833918571472e-01" purity="3.0794364213943481e-01" nType="-99"/>
      </Node>
    </BinaryTree>
    <BinaryTree type="DecisionTree" boostWeight="1.0000000000000000e+00" itree="486">
      <Node pos="s" depth="0" NCoef="0" IVar="4" Cut="1.9189216613769531e+02" cType="1" res="2.9951112810522318e-04" rms="4.6008837223052979e-01" purity="4.9751946330070496e-01" nType="0">
        <Node pos="l" depth="1" NCoef="0" IVar="0" Cut="2.0754751586914062e+02" cType="1" res="-1.5274826437234879e-02" rms="4.5748499035835266e-01" purity="4.5604187250137329e-01" nType="0">
          <Node pos="l" depth="2" NCoef="0" IVar="-1" Cut="0.0000000000000000e+00" cType="1" res="-1.1990317580057308e-04" rms="4.6037006378173828e-01" purity="4.7892048954963684e-01" nType="-99"/>
          <Node pos="r" depth="2" NCoef="0" IVar="-1" Cut="0.0000000000000000e+00" cType="1" res="-2.1550988312810659e-03" rms="4.4222903251647949e-01" purity="3.6029246449470520e-01" nType="-99"/>
        </Node>
        <Node pos="r" depth="1" NCoef="0" IVar="5" Cut="-3.2296448945999146e-02" cType="1" res="2.8241418302059174e-02" rms="4.6341243386268616e-01" purity="5.7193440198898315e-01" nType="0">
          <Node pos="l" depth="2" NCoef="0" IVar="-1" Cut="0.0000000000000000e+00" cType="1" res="-3.5131638287566602e-04" rms="4.6316108107566833e-01" purity="5.1342052221298218e-01" nType="-99"/>
          <Node pos="r" depth="2" NCoef="0" IVar="-1" Cut="0.0000000000000000e+00" cType="1" res="1.0706462198868394e-03" rms="4.6252676844596863e-01" purity="5.9446966648101807e-01" nType="-99"/>
        </Node>
      </Node>
    </BinaryTree>
    <BinaryTree type="DecisionTree" boostWeight="1.0000000000000000e+00" itree="487">
      <Node pos="s" depth="0" NCoef="0" IVar="2" Cut="8.3403384685516357e-01" cType="1" res="4.2462958954274654e-03" rms="4.6084767580032349e-01" purity="5.0204980373382568e-01" nType="0">
        <Node pos="l" depth="1" NCoef="0" IVar="6" Cut="9.0641218423843384e-01" cType="1" res="3.2329731038771570e-04" rms="4.6249794960021973e-01" purity="4.9174207448959351e-01" nType="0">
          <Node pos="l" depth="2" NCoef="0" IVar="-1" Cut="0.0000000000000000e+00" cType="1" res="-1.8024583114311099e-03" rms="4.4653534889221191e-01" purity="3.9962056279182434e-01" nType="-99"/>
          <Node pos="r" depth="2" NCoef="0" IVar="-1" Cut="0.0000000000000000e+00" cType="1" res="1.3111150474287570e-04" rms="4.6335491538047791e-01" purity="4.9855992197990417e-01" nType="-99"/>
        </Node>
        <Node pos="r" depth="1" NCoef="0" IVar="-1" Cut="0.0000000000000000e+00" cType="1" res="1.4606750337406993e-03" rms="4.3291693925857544e-01" purity="6.4844113588333130e-01" nType="-99"/>
      </Node>
    </BinaryTree>
    <BinaryTree type="DecisionTree" boostWeight="1.0000000000000000e+00" itree="488">
      <Node pos="s" depth="0" NCoef="0" IVar="3" Cut="2.7791495323181152e+00" cType="1" res="3.5455273464322090e-03" rms="4.6028757095336914e-01" purity="5.0306099653244019e-01" nType="0">
        <Node pos="l" depth="1" NCoef="0" IVar="0" Cut="8.0764953613281250e+01" cType="1" res="1.5260236337780952e-02" rms="4.6230503916740417e-01" purity="5.4003816843032837e-01" nType="0">
          <Node pos="l" depth="2" NCoef="0" IVar="-1" Cut="0.0000000000000000e+00" cType="1" res="-6.9496291689574718e-04" rms="4.6137195825576782e-01" purity="4.9156105518341064e-01" nType="-99"/>
          <Node pos="r" depth="2" NCoef="0" IVar="-1" Cut="0.0000000000000000e+00" cType="1" res="6.4132554689422250e-04" rms="4.6201261878013611e-01" purity="5.5132085084915161e-01" nType="-99"/>
        </Node>
        <Node pos="r" depth="1" NCoef="0" IVar="7" Cut="7.2714336216449738e-02" cType="1" res="-2.8197418898344040e-02" rms="4.5325672626495361e-01" purity="4.0286505222320557e-01" nType="0">
          <Node pos="l" depth="2" NCoef="0" IVar="-1" Cut="0.0000000000000000e+00" cType="1" res="-1.9729307678062469e-04" rms="4.6190616488456726e-01" purity="4.4827809929847717e-01" nType="-99"/>
          <Node pos="r" depth="2" NCoef="0" IVar="-1" Cut="0.0000000000000000e+00" cType="1" res="-2.1572138648480177e-03" rms="4.3818986415863037e-01" purity="3.3564448356628418e-01" nType="-99"/>
        </Node>
      </Node>
    </BinaryTree>
    <BinaryTree type="DecisionTree" boostWeight="1.0000000000000000e+00" itree="489">
      <Node pos="s" depth="0" NCoef="0" IVar="1" Cut="2.4711561203002930e+00" cType="1" res="-1.9463537028059363e-03" rms="4.6196264028549194e-01" purity="4.9171042442321777e-01" nType="0">
        <Node pos="l" depth="1" NCoef="0" IVar="2" Cut="8.0169498920440674e-01" cType="1" res="-8.4532154724001884e-03" rms="4.6922102570533752e-01" purity="4.5287883281707764e-01" nType="0">
          <Node pos="l" depth="2" NCoef="0" IVar="-1" Cut="0.0000000000000000e+00" cType="1" res="-3.9660808397457004e-04" rms="4.7045505046844482e-01" purity="4.3674752116203308e-01" nType="-99"/>
          <Node pos="r" depth="2" NCoef="0" IVar="-1" Cut="0.0000000000000000e+00" cType="1" res="8.3051959518343210e-04" rms="4.5597824454307556e-01" purity="5.9465378522872925e-01" nType="-99"/>
        </Node>
        <Node pos="r" depth="1" NCoef="0" IVar="-1" Cut="0.0000000000000000e+00" cType="1" res="1.1290615657344460e-03" rms="3.9714524149894714e-01" purity="7.9490596055984497e-01" nType="-99"/>
      </Node>
    </BinaryTree>
    <BinaryTree type="DecisionTree" boostWeight="1.0000000000000000e+00" itree="490">
      <Node pos="s" depth="0" NCoef="0" IVar="1" Cut="-1.8232780694961548e+00" cType="1" res="-2.3729910608381033e-03" rms="4.6308127045631409e-01" purity="4.9162843823432922e-01" nType="0">
        <Node pos="l" depth="1" NCoef="0" IVar="-1" Cut="0.0000000000000000e+00" cType="1" res="-3.0434636864811182e-03" rms="4.1292858123779297e-01" purity="2.2270408272743225e-01" nType="-99"/>
        <Node pos="r" depth="1" NCoef="0" IVar="3" Cut="1.4253025054931641e+00" cType="1" res="3.0672091525048018e-03" rms="4.6765208244323730e-01" purity="5.1959204673767090e-01" nType="0">
          <Node pos="l" depth="2" NCoef="0" IVar="-1" Cut="0.0000000000000000e+00" cType="1" res="7.9821253893896937e-04" rms="4.5777854323387146e-01" purity="6.1089295148849487e-01" nType="-99"/>
          <Node pos="r" depth="2" NCoef="0" IVar="-1" Cut="0.0000000000000000e+00" cType="1" res="-1.5812106721568853e-04" rms="4.7014373540878296e-01" purity="4.9280157685279846e-01" nType="-99"/>
        </Node>
      </Node>
    </BinaryTree>
    <BinaryTree type="DecisionTree" boostWeight="1.0000000000000000e+00" itree="491">
      <Node pos="s" depth="0" NCoef="0" IVar="5" Cut="-7.0340268313884735e-02" cType="1" res="-5.7419519871473312e-03" rms="4.6113133430480957e-01" purity="4.8946318030357361e-01" nType="0">
        <Node pos="l" depth="1" NCoef="0" IVar="-1" Cut="0.0000000000000000e+00" cType="1" res="-2.6970596518367529e-03" rms="4.3847233057022095e-01" purity="3.6417305469512939e-01" nType="-99"/>
        <Node pos="r" depth="1" NCoef="0" IVar="1" Cut="2.4484233856201172e+00" cType="1" res="-6.4237415790557861e-04" rms="4.6222347021102905e-01" purity="4.9813157320022583e-01" nType="0">
          <Node pos="l" depth="2" NCoef="0" IVar="-1" Cut="0.0000000000000000e+00" cType="1" res="-1.8184455984737724e-04" rms="4.6927735209465027e-01" purity="4.5819601416587830e-01" nType="-99"/>
          <Node pos="r" depth="2" NCoef="0" IVar="-1" Cut="0.0000000000000000e+00" cType="1" res="9.4404135597869754e-04" rms="4.0549361705780029e-01" purity="7.8553587198257446e-01" nType="-99"/>
        </Node>
      </Node>
    </BinaryTree>
    <BinaryTree type="DecisionTree" boostWeight="1.0000000000000000e+00" itree="492">
      <Node pos="s" depth="0" NCoef="0" IVar="7" Cut="5.4240565747022629e-02" cType="1" res="8.8642798364162445e-03" rms="4.6112003922462463e-01" purity="5.0279444456100464e-01" nType="0">
        <Node pos="l" depth="1" NCoef="0" IVar="5" Cut="-7.9281814396381378e-03" cType="1" res="2.3751363158226013e-02" rms="4.6262764930725098e-01" purity="5.3883838653564453e-01" nType="0">
          <Node pos="l" depth="2" NCoef="0" IVar="-1" Cut="0.0000000000000000e+00" cType="1" res="1.1204534675925970e-03" rms="4.6031242609024048e-01" purity="5.5348455905914307e-01" nType="-99"/>
          <Node pos="r" depth="2" NCoef="0" IVar="-1" Cut="0.0000000000000000e+00" cType="1" res="8.8107182818930596e-05" rms="4.6417275071144104e-01" purity="5.2342581748962402e-01" nType="-99"/>
        </Node>
        <Node pos="r" depth="1" NCoef="0" IVar="5" Cut="-8.9873559772968292e-03" cType="1" res="-1.2053053826093674e-02" rms="4.5817679166793823e-01" purity="4.5215043425559998e-01" nType="0">
          <Node pos="l" depth="2" NCoef="0" IVar="-1" Cut="0.0000000000000000e+00" cType="1" res="-2.0941046532243490e-03" rms="4.4653508067131042e-01" purity="3.9184644818305969e-01" nType="-99"/>
          <Node pos="r" depth="2" NCoef="0" IVar="-1" Cut="0.0000000000000000e+00" cType="1" res="8.7540264939889312e-04" rms="4.6327641606330872e-01" purity="5.0373584032058716e-01" nType="-99"/>
        </Node>
      </Node>
    </BinaryTree>
    <BinaryTree type="DecisionTree" boostWeight="1.0000000000000000e+00" itree="493">
      <Node pos="s" depth="0" NCoef="0" IVar="4" Cut="7.8962875366210938e+01" cType="1" res="6.2901913188397884e-03" rms="4.6194884181022644e-01" purity="5.0248163938522339e-01" nType="0">
        <Node pos="l" depth="1" NCoef="0" IVar="-1" Cut="0.0000000000000000e+00" cType="1" res="-2.5032034609466791e-03" rms="4.2812868952751160e-01" purity="3.3273258805274963e-01" nType="-99"/>
        <Node pos="r" depth="1" NCoef="0" IVar="9" Cut="9.8909169435501099e-02" cType="1" res="1.0440438054502010e-02" rms="4.6343266963958740e-01" purity="5.1204562187194824e-01" nType="0">
          <Node pos="l" depth="2" NCoef="0" IVar="-1" Cut="0.0000000000000000e+00" cType="1" res="-8.0808800703380257e-05" rms="4.6531289815902710e-01" purity="4.7943800687789917e-01" nType="-99"/>
          <Node pos="r" depth="2" NCoef="0" IVar="-1" Cut="0.0000000000000000e+00" cType="1" res="8.5513159865513444e-04" rms="4.5929774641990662e-01" purity="5.6794679164886475e-01" nType="-99"/>
        </Node>
      </Node>
    </BinaryTree>
    <BinaryTree type="DecisionTree" boostWeight="1.0000000000000000e+00" itree="494">
      <Node pos="s" depth="0" NCoef="0" IVar="4" Cut="1.0672151947021484e+02" cType="1" res="6.2255677767097950e-03" rms="4.5873042941093445e-01" purity="5.0314104557037354e-01" nType="0">
        <Node pos="l" depth="1" NCoef="0" IVar="1" Cut="5.2904242277145386e-01" cType="1" res="-3.2142721116542816e-02" rms="4.4549840688705444e-01" purity="3.8709643483161926e-01" nType="0">
          <Node pos="l" depth="2" NCoef="0" IVar="-1" Cut="0.0000000000000000e+00" cType="1" res="-2.5388030335307121e-03" rms="4.2254948616027832e-01" purity="2.5317168235778809e-01" nType="-99"/>
          <Node pos="r" depth="2" NCoef="0" IVar="-1" Cut="0.0000000000000000e+00" cType="1" res="8.0064659414347261e-05" rms="4.7469443082809448e-01" purity="5.8203208446502686e-01" nType="-99"/>
        </Node>
        <Node pos="r" depth="1" NCoef="0" IVar="3" Cut="1.3853437900543213e+00" cType="1" res="1.5874786302447319e-02" rms="4.6149677038192749e-01" purity="5.3232496976852417e-01" nType="0">
          <Node pos="l" depth="2" NCoef="0" IVar="-1" Cut="0.0000000000000000e+00" cType="1" res="1.1352343717589974e-03" rms="4.5485782623291016e-01" purity="6.3543683290481567e-01" nType="-99"/>
          <Node pos="r" depth="2" NCoef="0" IVar="-1" Cut="0.0000000000000000e+00" cType="1" res="1.9430367683526129e-04" rms="4.6290206909179688e-01" purity="5.0422680377960205e-01" nType="-99"/>
        </Node>
      </Node>
    </BinaryTree>
    <BinaryTree type="DecisionTree" boostWeight="1.0000000000000000e+00" itree="495">
      <Node pos="s" depth="0" NCoef="0" IVar="1" Cut="2.1089546680450439e+00" cType="1" res="9.2589072883129120e-03" rms="4.5885071158409119e-01" purity="5.0856673717498779e-01" nType="0">
        <Node pos="l" depth="1" NCoef="0" IVar="0" Cut="6.8065017700195312e+01" cType="1" res="8.6102541536092758e-04" rms="4.6848645806312561e-01" purity="4.5324322581291199e-01" nType="0">
          <Node pos="l" depth="2" NCoef="0" IVar="-1" Cut="0.0000000000000000e+00" cType="1" res="-1.4710343675687909e-03" rms="4.6612408757209778e-01" purity="4.1710478067398071e-01" nType="-99"/>
          <Node pos="r" depth="2" NCoef="0" IVar="-1" Cut="0.0000000000000000e+00" cType="1" res="1.6128861170727760e-04" rms="4.6842309832572937e-01" purity="4.5664614439010620e-01" nType="-99"/>
        </Node>
        <Node pos="r" depth="1" NCoef="0" IVar="6" Cut="9.6364760398864746e-01" cType="1" res="5.1004495471715927e-02" rms="4.0500888228416443e-01" purity="7.8357809782028198e-01" nType="0">
          <Node pos="l" depth="2" NCoef="0" IVar="-1" Cut="0.0000000000000000e+00" cType="1" res="9.2628551647067070e-04" rms="4.2165467143058777e-01" purity="7.5949621200561523e-01" nType="-99"/>
          <Node pos="r" depth="2" NCoef="0" IVar="-1" Cut="0.0000000000000000e+00" cType="1" res="1.3666424201801419e-03" rms="3.8898563385009766e-01" purity="8.0558133125305176e-01" nType="-99"/>
        </Node>
      </Node>
    </BinaryTree>
    <BinaryTree type="DecisionTree" boostWeight="1.0000000000000000e+00" itree="496">
      <Node pos="s" depth="0" NCoef="0" IVar="6" Cut="9.8407840728759766e-01" cType="1" res="9.4417231157422066e-03" rms="4.6066498756408691e-01" purity="5.0609433650970459e-01" nType="0">
        <Node pos="l" depth="1" NCoef="0" IVar="4" Cut="1.0171350860595703e+02" cType="1" res="-1.0343843605369329e-03" rms="4.6228322386741638e-01" purity="4.8763629794120789e-01" nType="0">
          <Node pos="l" depth="2" NCoef="0" IVar="-1" Cut="0.0000000000000000e+00" cType="1" res="-1.3511735014617443e-03" rms="4.5666760206222534e-01" purity="3.5788774490356445e-01" nType="-99"/>
          <Node pos="r" depth="2" NCoef="0" IVar="-1" Cut="0.0000000000000000e+00" cType="1" res="1.7805040988605469e-04" rms="4.6304669976234436e-01" purity="5.1403331756591797e-01" nType="-99"/>
        </Node>
        <Node pos="r" depth="1" NCoef="0" IVar="7" Cut="4.0734726935625076e-03" cType="1" res="4.0611788630485535e-02" rms="4.5439007878303528e-01" purity="5.6101346015930176e-01" nType="0">
          <Node pos="l" depth="2" NCoef="0" IVar="-1" Cut="0.0000000000000000e+00" cType="1" res="1.6701300628483295e-03" rms="4.4738265872001648e-01" purity="6.2035918235778809e-01" nType="-99"/>
          <Node pos="r" depth="2" NCoef="0" IVar="-1" Cut="0.0000000000000000e+00" cType="1" res="6.8762985756620765e-04" rms="4.5720115303993225e-01" purity="5.3096020221710205e-01" nType="-99"/>
        </Node>
      </Node>
    </BinaryTree>
    <BinaryTree type="DecisionTree" boostWeight="1.0000000000000000e+00" itree="497">
      <Node pos="s" depth="0" NCoef="0" IVar="7" Cut="1.1668595485389233e-02" cType="1" res="5.1967985928058624e-03" rms="4.6022737026214600e-01" purity="5.0262737274169922e-01" nType="0">
        <Node pos="l" depth="1" NCoef="0" IVar="9" Cut="2.1549522876739502e-01" cType="1" res="2.9186222702264786e-02" rms="4.5836982131004333e-01" purity="5.5854243040084839e-01" nType="0">
          <Node pos="l" depth="2" NCoef="0" IVar="-1" Cut="0.0000000000000000e+00" cType="1" res="4.7470995923504233e-04" rms="4.5899131894111633e-01" purity="5.4578489065170288e-01" nType="-99"/>
          <Node pos="r" depth="2" NCoef="0" IVar="-1" Cut="0.0000000000000000e+00" cType="1" res="2.0447331480681896e-03" rms="4.5070055127143860e-01" purity="6.2486952543258667e-01" nType="-99"/>
        </Node>
        <Node pos="r" depth="1" NCoef="0" IVar="5" Cut="1.7809541895985603e-02" cType="1" res="-9.2378398403525352e-03" rms="4.6073997020721436e-01" purity="4.6898284554481506e-01" nType="0">
          <Node pos="l" depth="2" NCoef="0" IVar="-1" Cut="0.0000000000000000e+00" cType="1" res="-8.0174184404313564e-04" rms="4.5851415395736694e-01" purity="4.5071494579315186e-01" nType="-99"/>
          <Node pos="r" depth="2" NCoef="0" IVar="-1" Cut="0.0000000000000000e+00" cType="1" res="6.5233628265559673e-04" rms="4.6302127838134766e-01" purity="5.0287002325057983e-01" nType="-99"/>
        </Node>
      </Node>
    </BinaryTree>
    <BinaryTree type="DecisionTree" boostWeight="1.0000000000000000e+00" itree="498">
      <Node pos="s" depth="0" NCoef="0" IVar="6" Cut="9.9014055728912354e-01" cType="1" res="2.0294885616749525e-03" rms="4.5921415090560913e-01" purity="4.9968975782394409e-01" nType="0">
        <Node pos="l" depth="1" NCoef="0" IVar="8" Cut="4.0200889110565186e-01" cType="1" res="-6.2587084248661995e-03" rms="4.6036487817764282e-01" purity="4.8560655117034912e-01" nType="0">
          <Node pos="l" depth="2" NCoef="0" IVar="-1" Cut="0.0000000000000000e+00" cType="1" res="-4.4387378147803247e-04" rms="4.6080571413040161e-01" purity="4.6232879161834717e-01" nType="-99"/>
          <Node pos="r" depth="2" NCoef="0" IVar="-1" Cut="0.0000000000000000e+00" cType="1" res="6.2365276971831918e-04" rms="4.5753782987594604e-01" purity="5.6558734178543091e-01" nType="-99"/>
        </Node>
        <Node pos="r" depth="1" NCoef="0" IVar="2" Cut="6.6204488277435303e-01" cType="1" res="4.1947498917579651e-02" rms="4.5150515437126160e-01" purity="5.6751805543899536e-01" nType="0">
          <Node pos="l" depth="2" NCoef="0" IVar="-1" Cut="0.0000000000000000e+00" cType="1" res="5.3158565424382687e-04" rms="4.6069639921188354e-01" purity="5.0878357887268066e-01" nType="-99"/>
          <Node pos="r" depth="2" NCoef="0" IVar="-1" Cut="0.0000000000000000e+00" cType="1" res="1.7684177728369832e-03" rms="4.3462130427360535e-01" purity="6.5872901678085327e-01" nType="-99"/>
        </Node>
      </Node>
    </BinaryTree>
    <BinaryTree type="DecisionTree" boostWeight="1.0000000000000000e+00" itree="499">
      <Node pos="s" depth="0" NCoef="0" IVar="3" Cut="1.0008398294448853e+00" cType="1" res="4.1298633441329002e-03" rms="4.6492758393287659e-01" purity="4.9738362431526184e-01" nType="0">
        <Node pos="l" depth="1" NCoef="0" IVar="-1" Cut="0.0000000000000000e+00" cType="1" res="1.3610695023089647e-03" rms="4.5883202552795410e-01" purity="6.1492365598678589e-01" nType="-99"/>
        <Node pos="r" depth="1" NCoef="0" IVar="2" Cut="7.8261530399322510e-01" cType="1" res="-2.4104395415633917e-03" rms="4.6523952484130859e-01" purity="4.8309081792831421e-01" nType="0">
          <Node pos="l" depth="2" NCoef="0" IVar="-1" Cut="0.0000000000000000e+00" cType="1" res="-2.3425460676662624e-04" rms="4.6630799770355225e-01" purity="4.6445873379707336e-01" nType="-99"/>
          <Node pos="r" depth="2" NCoef="0" IVar="-1" Cut="0.0000000000000000e+00" cType="1" res="9.3281071167439222e-04" rms="4.5558387041091919e-01" purity="6.1523908376693726e-01" nType="-99"/>
        </Node>
      </Node>
    </BinaryTree>
    <BinaryTree type="DecisionTree" boostWeight="1.0000000000000000e+00" itree="500">
      <Node pos="s" depth="0" NCoef="0" IVar="6" Cut="9.5335406064987183e-01" cType="1" res="5.5777225643396378e-03" rms="4.6240755915641785e-01" purity="5.0241625308990479e-01" nType="0">
        <Node pos="l" depth="1" NCoef="0" IVar="5" Cut="6.2779933214187622e-02" cType="1" res="-1.3269921764731407e-02" rms="4.6679908037185669e-01" purity="4.6123722195625305e-01" nType="0">
          <Node pos="l" depth="2" NCoef="0" IVar="-1" Cut="0.0000000000000000e+00" cType="1" res="-5.4708519019186497e-04" rms="4.6626153588294983e-01" purity="4.5536768436431885e-01" nType="-99"/>
          <Node pos="r" depth="2" NCoef="0" IVar="-1" Cut="0.0000000000000000e+00" cType="1" res="6.6161545692011714e-04" rms="4.6858549118041992e-01" purity="5.0054305791854858e-01" nType="-99"/>
        </Node>
        <Node pos="r" depth="1" NCoef="0" IVar="8" Cut="3.5853850841522217e-01" cType="1" res="1.9089242443442345e-02" rms="4.5875725150108337e-01" purity="5.3193676471710205e-01" nType="0">
          <Node pos="l" depth="2" NCoef="0" IVar="-1" Cut="0.0000000000000000e+00" cType="1" res="-1.0210911277681589e-03" rms="4.6483942866325378e-01" purity="4.3478867411613464e-01" nType="-99"/>
          <Node pos="r" depth="2" NCoef="0" IVar="-1" Cut="0.0000000000000000e+00" cType="1" res="7.4493180727586150e-04" rms="4.5712676644325256e-01" purity="5.4843753576278687e-01" nType="-99"/>
        </Node>
      </Node>
    </BinaryTree>
    <BinaryTree type="DecisionTree" boostWeight="1.0000000000000000e+00" itree="501">
      <Node pos="s" depth="0" NCoef="0" IVar="4" Cut="2.2601893615722656e+02" cType="1" res="2.4427364114671946e-03" rms="4.6226397156715393e-01" purity="4.9771508574485779e-01" nType="0">
        <Node pos="l" depth="1" NCoef="0" IVar="5" Cut="5.9266485273838043e-02" cType="1" res="-1.0297564789652824e-02" rms="4.6127688884735107e-01" purity="4.6616747975349426e-01" nType="0">
          <Node pos="l" depth="2" NCoef="0" IVar="-1" Cut="0.0000000000000000e+00" cType="1" res="-5.1923521095886827e-04" rms="4.5921900868415833e-01" purity="4.6116000413894653e-01" nType="-99"/>
          <Node pos="r" depth="2" NCoef="0" IVar="-1" Cut="0.0000000000000000e+00" cType="1" res="1.0380692547187209e-03" rms="4.7158864140510559e-01" purity="4.9849197268486023e-01" nType="-99"/>
        </Node>
        <Node pos="r" depth="1" NCoef="0" IVar="4" Cut="3.2708538818359375e+02" cType="1" res="3.8825895637273788e-02" rms="4.6314582228660583e-01" purity="5.8780711889266968e-01" nType="0">
          <Node pos="l" depth="2" NCoef="0" IVar="-1" Cut="0.0000000000000000e+00" cType="1" res="6.7652919096872211e-04" rms="4.6869355440139771e-01" purity="5.6124395132064819e-01" nType="-99"/>
          <Node pos="r" depth="2" NCoef="0" IVar="-1" Cut="0.0000000000000000e+00" cType="1" res="1.3667243765667081e-03" rms="4.5407035946846008e-01" purity="6.2761712074279785e-01" nType="-99"/>
        </Node>
      </Node>
    </BinaryTree>
    <BinaryTree type="DecisionTree" boostWeight="1.0000000000000000e+00" itree="502">
      <Node pos="s" depth="0" NCoef="0" IVar="6" Cut="9.2211019992828369e-01" cType="1" res="7.4080348713323474e-04" rms="4.6334922313690186e-01" purity="4.9268785119056702e-01" nType="0">
        <Node pos="l" depth="1" NCoef="0" IVar="5" Cut="9.3224178999662399e-03" cType="1" res="-3.6621965467929840e-02" rms="4.6356561779975891e-01" purity="4.1992920637130737e-01" nType="0">
          <Node pos="l" depth="2" NCoef="0" IVar="-1" Cut="0.0000000000000000e+00" cType="1" res="-2.0413193851709366e-03" rms="4.5379912853240967e-01" purity="3.9216297864913940e-01" nType="-99"/>
          <Node pos="r" depth="2" NCoef="0" IVar="-1" Cut="0.0000000000000000e+00" cType="1" res="1.1686827929224819e-04" rms="4.7509866952896118e-01" purity="4.6201896667480469e-01" nType="-99"/>
        </Node>
        <Node pos="r" depth="1" NCoef="0" IVar="3" Cut="1.7044782638549805e+00" cType="1" res="6.3975593075156212e-03" rms="4.6305376291275024e-01" purity="5.0370353460311890e-01" nType="0">
          <Node pos="l" depth="2" NCoef="0" IVar="-1" Cut="0.0000000000000000e+00" cType="1" res="6.7074858816340566e-04" rms="4.6222800016403198e-01" purity="5.8422672748565674e-01" nType="-99"/>
          <Node pos="r" depth="2" NCoef="0" IVar="-1" Cut="0.0000000000000000e+00" cType="1" res="-8.7461761722806841e-05" rms="4.6313008666038513e-01" purity="4.6669360995292664e-01" nType="-99"/>
        </Node>
      </Node>
    </BinaryTree>
    <BinaryTree type="DecisionTree" boostWeight="1.0000000000000000e+00" itree="503">
      <Node pos="s" depth="0" NCoef="0" IVar="1" Cut="2.5891761779785156e+00" cType="1" res="-1.8913779640570283e-03" rms="4.6114218235015869e-01" purity="4.9450647830963135e-01" nType="0">
        <Node pos="l" depth="1" NCoef="0" IVar="9" Cut="1.5957984328269958e-01" cType="1" res="-7.6558506116271019e-03" rms="4.6751216053962708e-01" purity="4.6075707674026489e-01" nType="0">
          <Node pos="l" depth="2" NCoef="0" IVar="-1" Cut="0.0000000000000000e+00" cType="1" res="-4.3075083522126079e-04" rms="4.6717572212219238e-01" purity="4.4577485322952271e-01" nType="-99"/>
          <Node pos="r" depth="2" NCoef="0" IVar="-1" Cut="0.0000000000000000e+00" cType="1" res="7.5743178604170680e-04" rms="4.6756440401077271e-01" purity="5.3923171758651733e-01" nType="-99"/>
        </Node>
        <Node pos="r" depth="1" NCoef="0" IVar="-1" Cut="0.0000000000000000e+00" cType="1" res="1.1784563539549708e-03" rms="3.9497819542884827e-01" purity="8.0038529634475708e-01" nType="-99"/>
      </Node>
    </BinaryTree>
    <BinaryTree type="DecisionTree" boostWeight="1.0000000000000000e+00" itree="504">
      <Node pos="s" depth="0" NCoef="0" IVar="4" Cut="1.0011186981201172e+02" cType="1" res="-1.5145811485126615e-03" rms="4.6105763316154480e-01" purity="4.9407109618186951e-01" nType="0">
        <Node pos="l" depth="1" NCoef="0" IVar="4" Cut="8.2349449157714844e+01" cType="1" res="-4.8104062676429749e-02" rms="4.4810387492179871e-01" purity="3.5960134863853455e-01" nType="0">
          <Node pos="l" depth="2" NCoef="0" IVar="-1" Cut="0.0000000000000000e+00" cType="1" res="-3.0042636208236217e-03" rms="4.3528780341148376e-01" purity="3.1001967191696167e-01" nType="-99"/>
          <Node pos="r" depth="2" NCoef="0" IVar="-1" Cut="0.0000000000000000e+00" cType="1" res="-8.2109071081504226e-04" rms="4.5610541105270386e-01" purity="3.9651995897293091e-01" nType="-99"/>
        </Node>
        <Node pos="r" depth="1" NCoef="0" IVar="0" Cut="1.5510221862792969e+02" cType="1" res="7.5619304552674294e-03" rms="4.6299383044242859e-01" purity="5.2026838064193726e-01" nType="0">
          <Node pos="l" depth="2" NCoef="0" IVar="-1" Cut="0.0000000000000000e+00" cType="1" res="6.0312345158308744e-04" rms="4.6184790134429932e-01" purity="5.6643682718276978e-01" nType="-99"/>
          <Node pos="r" depth="2" NCoef="0" IVar="-1" Cut="0.0000000000000000e+00" cType="1" res="-2.6680796872824430e-04" rms="4.6359190344810486e-01" purity="4.7197693586349487e-01" nType="-99"/>
        </Node>
      </Node>
    </BinaryTree>
    <BinaryTree type="DecisionTree" boostWeight="1.0000000000000000e+00" itree="505">
      <Node pos="s" depth="0" NCoef="0" IVar="6" Cut="9.7757661342620850e-01" cType="1" res="4.9921195022761822e-03" rms="4.6090376377105713e-01" purity="5.0148332118988037e-01" nType="0">
        <Node pos="l" depth="1" NCoef="0" IVar="9" Cut="1.8693436682224274e-01" cType="1" res="-5.4915556684136391e-03" rms="4.6205547451972961e-01" purity="4.8113542795181274e-01" nType="0">
          <Node pos="l" depth="2" NCoef="0" IVar="-1" Cut="0.0000000000000000e+00" cType="1" res="-3.0639069154858589e-04" rms="4.6219646930694580e-01" purity="4.7145169973373413e-01" nType="-99"/>
          <Node pos="r" depth="2" NCoef="0" IVar="-1" Cut="0.0000000000000000e+00" cType="1" res="1.0975095210596919e-03" rms="4.5791596174240112e-01" purity="5.7084012031555176e-01" nType="-99"/>
        </Node>
        <Node pos="r" depth="1" NCoef="0" IVar="5" Cut="-3.6222159862518311e-02" cType="1" res="2.6364617049694061e-02" rms="4.5780384540557861e-01" purity="5.4296565055847168e-01" nType="0">
          <Node pos="l" depth="2" NCoef="0" IVar="-1" Cut="0.0000000000000000e+00" cType="1" res="-3.8136739749461412e-04" rms="4.6180769801139832e-01" purity="4.7803401947021484e-01" nType="-99"/>
          <Node pos="r" depth="2" NCoef="0" IVar="-1" Cut="0.0000000000000000e+00" cType="1" res="1.0381472529843450e-03" rms="4.5566457509994507e-01" purity="5.6507265567779541e-01" nType="-99"/>
        </Node>
      </Node>
    </BinaryTree>
    <BinaryTree type="DecisionTree" boostWeight="1.0000000000000000e+00" itree="506">
      <Node pos="s" depth="0" NCoef="0" IVar="7" Cut="-8.0871423706412315e-03" cType="1" res="5.7860617525875568e-03" rms="4.6340417861938477e-01" purity="5.0061470270156860e-01" nType="0">
        <Node pos="l" depth="1" NCoef="0" IVar="5" Cut="7.1032950654625893e-03" cType="1" res="2.9758870601654053e-02" rms="4.6042129397392273e-01" purity="5.6439393758773804e-01" nType="0">
          <Node pos="l" depth="2" NCoef="0" IVar="-1" Cut="0.0000000000000000e+00" cType="1" res="1.2104917550459504e-03" rms="4.5477107167243958e-01" purity="5.8111494779586792e-01" nType="-99"/>
          <Node pos="r" depth="2" NCoef="0" IVar="-1" Cut="0.0000000000000000e+00" cType="1" res="-3.3614898711675778e-05" rms="4.6837297081947327e-01" purity="5.3559488058090210e-01" nType="-99"/>
        </Node>
        <Node pos="r" depth="1" NCoef="0" IVar="5" Cut="-4.6721708029508591e-02" cType="1" res="-2.5346986949443817e-03" rms="4.6414566040039062e-01" purity="4.7847747802734375e-01" nType="0">
          <Node pos="l" depth="2" NCoef="0" IVar="-1" Cut="0.0000000000000000e+00" cType="1" res="-1.2904613977298141e-03" rms="4.5596402883529663e-01" purity="4.1475179791450500e-01" nType="-99"/>
          <Node pos="r" depth="2" NCoef="0" IVar="-1" Cut="0.0000000000000000e+00" cType="1" res="2.0427005074452609e-04" rms="4.6572825312614441e-01" purity="4.9501711130142212e-01" nType="-99"/>
        </Node>
      </Node>
    </BinaryTree>
    <BinaryTree type="DecisionTree" boostWeight="1.0000000000000000e+00" itree="507">
      <Node pos="s" depth="0" NCoef="0" IVar="6" Cut="9.2753106355667114e-01" cType="1" res="6.1227902770042419e-03" rms="4.6197912096977234e-01" purity="5.0193387269973755e-01" nType="0">
        <Node pos="l" depth="1" NCoef="0" IVar="0" Cut="1.8761993408203125e+02" cType="1" res="-2.6802970096468925e-02" rms="4.6322360634803772e-01" purity="4.3882575631141663e-01" nType="0">
          <Node pos="l" depth="2" NCoef="0" IVar="-1" Cut="0.0000000000000000e+00" cType="1" res="-2.5346071925014257e-04" rms="4.7191721200942993e-01" purity="4.6876624226570129e-01" nType="-99"/>
          <Node pos="r" depth="2" NCoef="0" IVar="-1" Cut="0.0000000000000000e+00" cType="1" res="-2.0892575848847628e-03" rms="4.4173312187194824e-01" purity="3.7485966086387634e-01" nType="-99"/>
        </Node>
        <Node pos="r" depth="1" NCoef="0" IVar="8" Cut="3.8999426364898682e-01" cType="1" res="1.3426489196717739e-02" rms="4.6138429641723633e-01" purity="5.1593273878097534e-01" nType="0">
          <Node pos="l" depth="2" NCoef="0" IVar="-1" Cut="0.0000000000000000e+00" cType="1" res="-6.8452689447440207e-05" rms="4.6295312047004700e-01" purity="4.8221316933631897e-01" nType="-99"/>
          <Node pos="r" depth="2" NCoef="0" IVar="-1" Cut="0.0000000000000000e+00" cType="1" res="7.7986787073314190e-04" rms="4.5921814441680908e-01" purity="5.5029982328414917e-01" nType="-99"/>
        </Node>
      </Node>
    </BinaryTree>
    <BinaryTree type="DecisionTree" boostWeight="1.0000000000000000e+00" itree="508">
      <Node pos="s" depth="0" NCoef="0" IVar="9" Cut="1.3104750216007233e-01" cType="1" res="5.9085618704557419e-03" rms="4.6272942423820496e-01" purity="5.0102859735488892e-01" nType="0">
        <Node pos="l" depth="1" NCoef="0" IVar="3" Cut="1.4413291215896606e+00" cType="1" res="-1.6042147763073444e-03" rms="4.6285352110862732e-01" purity="4.8148593306541443e-01" nType="0">
          <Node pos="l" depth="2" NCoef="0" IVar="-1" Cut="0.0000000000000000e+00" cType="1" res="6.0742167988792062e-04" rms="4.5933118462562561e-01" purity="5.8288639783859253e-01" nType="-99"/>
          <Node pos="r" depth="2" NCoef="0" IVar="-1" Cut="0.0000000000000000e+00" cType="1" res="-2.8201643726788461e-04" rms="4.6362882852554321e-01" purity="4.5069953799247742e-01" nType="-99"/>
        </Node>
        <Node pos="r" depth="1" NCoef="0" IVar="8" Cut="3.9520919322967529e-01" cType="1" res="2.8964653611183167e-02" rms="4.6158561110496521e-01" purity="5.6100338697433472e-01" nType="0">
          <Node pos="l" depth="2" NCoef="0" IVar="-1" Cut="0.0000000000000000e+00" cType="1" res="-1.1836593330372125e-04" rms="4.5945760607719421e-01" purity="5.1163160800933838e-01" nType="-99"/>
          <Node pos="r" depth="2" NCoef="0" IVar="-1" Cut="0.0000000000000000e+00" cType="1" res="1.1073591886088252e-03" rms="4.6175810694694519e-01" purity="5.8300936222076416e-01" nType="-99"/>
        </Node>
      </Node>
    </BinaryTree>
    <BinaryTree type="DecisionTree" boostWeight="1.0000000000000000e+00" itree="509">
      <Node pos="s" depth="0" NCoef="0" IVar="5" Cut="-7.0340268313884735e-02" cType="1" res="3.9381654933094978e-03" rms="4.6044793725013733e-01" purity="4.9927213788032532e-01" nType="0">
        <Node pos="l" depth="1" NCoef="0" IVar="-1" Cut="0.0000000000000000e+00" cType="1" res="-2.4057314731180668e-03" rms="4.4505223631858826e-01" purity="3.6068123579025269e-01" nType="-99"/>
        <Node pos="r" depth="1" NCoef="0" IVar="8" Cut="3.5557597875595093e-01" cType="1" res="8.9442767202854156e-03" rms="4.6104478836059570e-01" purity="5.0866490602493286e-01" nType="0">
          <Node pos="l" depth="2" NCoef="0" IVar="-1" Cut="0.0000000000000000e+00" cType="1" res="-8.6354959057644010e-04" rms="4.6638289093971252e-01" purity="4.3796432018280029e-01" nType="-99"/>
          <Node pos="r" depth="2" NCoef="0" IVar="-1" Cut="0.0000000000000000e+00" cType="1" res="3.9644754724577069e-04" rms="4.5997318625450134e-01" purity="5.1926046609878540e-01" nType="-99"/>
        </Node>
      </Node>
    </BinaryTree>
    <BinaryTree type="DecisionTree" boostWeight="1.0000000000000000e+00" itree="510">
      <Node pos="s" depth="0" NCoef="0" IVar="1" Cut="2.6266021728515625e+00" cType="1" res="1.2269275030121207e-03" rms="4.6225267648696899e-01" purity="4.9794045090675354e-01" nType="0">
        <Node pos="l" depth="1" NCoef="0" IVar="8" Cut="4.0448170900344849e-01" cType="1" res="-3.8923160172998905e-03" rms="4.6865862607955933e-01" purity="4.6417984366416931e-01" nType="0">
          <Node pos="l" depth="2" NCoef="0" IVar="-1" Cut="0.0000000000000000e+00" cType="1" res="-3.2252827077172697e-04" rms="4.6819385886192322e-01" purity="4.4550639390945435e-01" nType="-99"/>
          <Node pos="r" depth="2" NCoef="0" IVar="-1" Cut="0.0000000000000000e+00" cType="1" res="7.6196785084903240e-04" rms="4.6939274668693542e-01" purity="5.5427926778793335e-01" nType="-99"/>
        </Node>
        <Node pos="r" depth="1" NCoef="0" IVar="-1" Cut="0.0000000000000000e+00" cType="1" res="1.0828429367393255e-03" rms="3.9799949526786804e-01" purity="7.9783999919891357e-01" nType="-99"/>
      </Node>
    </BinaryTree>
    <BinaryTree type="DecisionTree" boostWeight="1.0000000000000000e+00" itree="511">
      <Node pos="s" depth="0" NCoef="0" IVar="6" Cut="9.6841251850128174e-01" cType="1" res="7.3751765303313732e-03" rms="4.6273711323738098e-01" purity="5.0200611352920532e-01" nType="0">
        <Node pos="l" depth="1" NCoef="0" IVar="4" Cut="2.8964071655273438e+02" cType="1" res="-1.0033706203103065e-02" rms="4.6105435490608215e-01" purity="4.7229894995689392e-01" nType="0">
          <Node pos="l" depth="2" NCoef="0" IVar="-1" Cut="0.0000000000000000e+00" cType="1" res="-4.9740611575543880e-04" rms="4.5869418978691101e-01" purity="4.5446145534515381e-01" nType="-99"/>
          <Node pos="r" depth="2" NCoef="0" IVar="-1" Cut="0.0000000000000000e+00" cType="1" res="7.3062698356807232e-04" rms="4.7222605347633362e-01" purity="5.7302159070968628e-01" nType="-99"/>
        </Node>
        <Node pos="r" depth="1" NCoef="0" IVar="5" Cut="2.3810602724552155e-02" cType="1" res="3.0632289126515388e-02" rms="4.6395748853683472e-01" purity="5.4169297218322754e-01" nType="0">
          <Node pos="l" depth="2" NCoef="0" IVar="-1" Cut="0.0000000000000000e+00" cType="1" res="5.4855336202308536e-04" rms="4.6210214495658875e-01" purity="5.3298825025558472e-01" nType="-99"/>
          <Node pos="r" depth="2" NCoef="0" IVar="-1" Cut="0.0000000000000000e+00" cType="1" res="1.4789258129894733e-03" rms="4.6751844882965088e-01" purity="5.6331896781921387e-01" nType="-99"/>
        </Node>
      </Node>
    </BinaryTree>
    <BinaryTree type="DecisionTree" boostWeight="1.0000000000000000e+00" itree="512">
      <Node pos="s" depth="0" NCoef="0" IVar="9" Cut="7.8793123364448547e-02" cType="1" res="2.8759506531059742e-03" rms="4.6321791410446167e-01" purity="4.9711969494819641e-01" nType="0">
        <Node pos="l" depth="1" NCoef="0" IVar="5" Cut="6.1513707041740417e-02" cType="1" res="-1.4297448098659515e-02" rms="4.6565517783164978e-01" purity="4.5897191762924194e-01" nType="0">
          <Node pos="l" depth="2" NCoef="0" IVar="-1" Cut="0.0000000000000000e+00" cType="1" res="-7.4048928217962384e-04" rms="4.6252647042274475e-01" purity="4.5000529289245605e-01" nType="-99"/>
          <Node pos="r" depth="2" NCoef="0" IVar="-1" Cut="0.0000000000000000e+00" cType="1" res="9.3170552281662822e-04" rms="4.7709900140762329e-01" purity="5.0119924545288086e-01" nType="-99"/>
        </Node>
        <Node pos="r" depth="1" NCoef="0" IVar="4" Cut="8.9779525756835938e+01" cType="1" res="2.0258275792002678e-02" rms="4.6008557081222534e-01" purity="5.3573149442672729e-01" nType="0">
          <Node pos="l" depth="2" NCoef="0" IVar="-1" Cut="0.0000000000000000e+00" cType="1" res="-1.0059401392936707e-03" rms="4.5239505171775818e-01" purity="3.8950598239898682e-01" nType="-99"/>
          <Node pos="r" depth="2" NCoef="0" IVar="-1" Cut="0.0000000000000000e+00" cType="1" res="7.4593542376533151e-04" rms="4.6082431077957153e-01" purity="5.6059962511062622e-01" nType="-99"/>
        </Node>
      </Node>
    </BinaryTree>
    <BinaryTree type="DecisionTree" boostWeight="1.0000000000000000e+00" itree="513">
      <Node pos="s" depth="0" NCoef="0" IVar="4" Cut="7.8634338378906250e+01" cType="1" res="2.7868577744811773e-03" rms="4.6379801630973816e-01" purity="4.9804908037185669e-01" nType="0">
        <Node pos="l" depth="1" NCoef="0" IVar="-1" Cut="0.0000000000000000e+00" cType="1" res="-2.6001585647463799e-03" rms="4.5147439837455750e-01" purity="3.1314140558242798e-01" nType="-99"/>
        <Node pos="r" depth="1" NCoef="0" IVar="8" Cut="3.5143616795539856e-01" cType="1" res="6.9217239506542683e-03" rms="4.6413499116897583e-01" purity="5.0844192504882812e-01" nType="0">
          <Node pos="l" depth="2" NCoef="0" IVar="-1" Cut="0.0000000000000000e+00" cType="1" res="-1.2495692353695631e-03" rms="4.6403342485427856e-01" purity="4.2108294367790222e-01" nType="-99"/>
          <Node pos="r" depth="2" NCoef="0" IVar="-1" Cut="0.0000000000000000e+00" cType="1" res="3.6537615233100951e-04" rms="4.6376365423202515e-01" purity="5.2068686485290527e-01" nType="-99"/>
        </Node>
      </Node>
    </BinaryTree>
    <BinaryTree type="DecisionTree" boostWeight="1.0000000000000000e+00" itree="514">
      <Node pos="s" depth="0" NCoef="0" IVar="3" Cut="1.1242984533309937e+00" cType="1" res="9.4368383288383484e-03" rms="4.6246489882469177e-01" purity="5.0630164146423340e-01" nType="0">
        <Node pos="l" depth="1" NCoef="0" IVar="0" Cut="6.2375988006591797e+01" cType="1" res="5.0928413867950439e-02" rms="4.6185541152954102e-01" purity="6.1053055524826050e-01" nType="0">
          <Node pos="l" depth="2" NCoef="0" IVar="-1" Cut="0.0000000000000000e+00" cType="1" res="-1.8958780856337398e-04" rms="4.8087823390960693e-01" purity="5.0011605024337769e-01" nType="-99"/>
          <Node pos="r" depth="2" NCoef="0" IVar="-1" Cut="0.0000000000000000e+00" cType="1" res="1.9491900457069278e-03" rms="4.4522988796234131e-01" purity="6.8154901266098022e-01" nType="-99"/>
        </Node>
        <Node pos="r" depth="1" NCoef="0" IVar="1" Cut="2.4056546688079834e+00" cType="1" res="2.3728054948151112e-03" rms="4.6219766139984131e-01" purity="4.8855644464492798e-01" nType="0">
          <Node pos="l" depth="2" NCoef="0" IVar="-1" Cut="0.0000000000000000e+00" cType="1" res="-1.4143575390335172e-04" rms="4.7027671337127686e-01" purity="4.4572857022285461e-01" nType="-99"/>
          <Node pos="r" depth="2" NCoef="0" IVar="-1" Cut="0.0000000000000000e+00" cType="1" res="1.2279053917154670e-03" rms="3.9547732472419739e-01" purity="7.9647547006607056e-01" nType="-99"/>
        </Node>
      </Node>
    </BinaryTree>
    <BinaryTree type="DecisionTree" boostWeight="1.0000000000000000e+00" itree="515">
      <Node pos="s" depth="0" NCoef="0" IVar="8" Cut="3.9594122767448425e-01" cType="1" res="-1.8880738934967667e-04" rms="4.6158125996589661e-01" purity="4.9522906541824341e-01" nType="0">
        <Node pos="l" depth="1" NCoef="0" IVar="4" Cut="3.8021606445312500e+02" cType="1" res="-1.1942381970584393e-02" rms="4.6175798773765564e-01" purity="4.6837270259857178e-01" nType="0">
          <Node pos="l" depth="2" NCoef="0" IVar="-1" Cut="0.0000000000000000e+00" cType="1" res="-5.6466559180989861e-04" rms="4.6160301566123962e-01" purity="4.5160767436027527e-01" nType="-99"/>
          <Node pos="r" depth="2" NCoef="0" IVar="-1" Cut="0.0000000000000000e+00" cType="1" res="1.2541945325210690e-03" rms="4.5815670490264893e-01" purity="6.2460833787918091e-01" nType="-99"/>
        </Node>
        <Node pos="r" depth="1" NCoef="0" IVar="0" Cut="1.9068646240234375e+02" cType="1" res="2.0325915887951851e-02" rms="4.6055448055267334e-01" purity="5.4210424423217773e-01" nType="0">
          <Node pos="l" depth="2" NCoef="0" IVar="-1" Cut="0.0000000000000000e+00" cType="1" res="8.8254699949175119e-04" rms="4.6024388074874878e-01" purity="5.6276011466979980e-01" nType="-99"/>
          <Node pos="r" depth="2" NCoef="0" IVar="-1" Cut="0.0000000000000000e+00" cType="1" res="-4.1018228512257338e-04" rms="4.5949327945709229e-01" purity="4.9036359786987305e-01" nType="-99"/>
        </Node>
      </Node>
    </BinaryTree>
    <BinaryTree type="DecisionTree" boostWeight="1.0000000000000000e+00" itree="516">
      <Node pos="s" depth="0" NCoef="0" IVar="4" Cut="1.9744729614257812e+02" cType="1" res="6.8525463575497270e-05" rms="4.5970657467842102e-01" purity="4.9715271592140198e-01" nType="0">
        <Node pos="l" depth="1" NCoef="0" IVar="9" Cut="5.6818678975105286e-02" cType="1" res="-1.3119288720190525e-02" rms="4.5931923389434814e-01" purity="4.5635420083999634e-01" nType="0">
          <Node pos="l" depth="2" NCoef="0" IVar="-1" Cut="0.0000000000000000e+00" cType="1" res="-1.4787612017244101e-03" rms="4.4959741830825806e-01" purity="3.7976369261741638e-01" nType="-99"/>
          <Node pos="r" depth="2" NCoef="0" IVar="-1" Cut="0.0000000000000000e+00" cType="1" res="-6.5665219153743237e-05" rms="4.6204644441604614e-01" purity="4.8215833306312561e-01" nType="-99"/>
        </Node>
        <Node pos="r" depth="1" NCoef="0" IVar="9" Cut="9.0684399008750916e-02" cType="1" res="2.5938201695680618e-02" rms="4.5936703681945801e-01" purity="5.7718443870544434e-01" nType="0">
          <Node pos="l" depth="2" NCoef="0" IVar="-1" Cut="0.0000000000000000e+00" cType="1" res="3.5846969694830477e-04" rms="4.6681144833564758e-01" purity="5.4557287693023682e-01" nType="-99"/>
          <Node pos="r" depth="2" NCoef="0" IVar="-1" Cut="0.0000000000000000e+00" cType="1" res="1.4738293830305338e-03" rms="4.3318060040473938e-01" purity="6.7595982551574707e-01" nType="-99"/>
        </Node>
      </Node>
    </BinaryTree>
    <BinaryTree type="DecisionTree" boostWeight="1.0000000000000000e+00" itree="517">
      <Node pos="s" depth="0" NCoef="0" IVar="2" Cut="7.3779052495956421e-01" cType="1" res="2.4032390210777521e-03" rms="4.6123704314231873e-01" purity="4.9799162149429321e-01" nType="0">
        <Node pos="l" depth="1" NCoef="0" IVar="3" Cut="1.0056685209274292e+00" cType="1" res="-7.4914544820785522e-03" rms="4.6269917488098145e-01" purity="4.6782296895980835e-01" nType="0">
          <Node pos="l" depth="2" NCoef="0" IVar="-1" Cut="0.0000000000000000e+00" cType="1" res="1.1750053381547332e-03" rms="4.6213647723197937e-01" purity="5.9175080060958862e-01" nType="-99"/>
          <Node pos="r" depth="2" NCoef="0" IVar="-1" Cut="0.0000000000000000e+00" cType="1" res="-4.1667581535875797e-04" rms="4.6230050921440125e-01" purity="4.5343819260597229e-01" nType="-99"/>
        </Node>
        <Node pos="r" depth="1" NCoef="0" IVar="4" Cut="1.6996888732910156e+02" cType="1" res="4.0603011846542358e-02" rms="4.5352739095687866e-01" purity="6.1446166038513184e-01" nType="0">
          <Node pos="l" depth="2" NCoef="0" IVar="-1" Cut="0.0000000000000000e+00" cType="1" res="5.4757547331973910e-04" rms="4.6975532174110413e-01" purity="5.5369389057159424e-01" nType="-99"/>
          <Node pos="r" depth="2" NCoef="0" IVar="-1" Cut="0.0000000000000000e+00" cType="1" res="1.3709526974707842e-03" rms="4.3765729665756226e-01" purity="6.6919493675231934e-01" nType="-99"/>
        </Node>
      </Node>
    </BinaryTree>
    <BinaryTree type="DecisionTree" boostWeight="1.0000000000000000e+00" itree="518">
      <Node pos="s" depth="0" NCoef="0" IVar="1" Cut="2.5011687278747559e+00" cType="1" res="8.0067245289683342e-03" rms="4.6025386452674866e-01" purity="5.0636404752731323e-01" nType="0">
        <Node pos="l" depth="1" NCoef="0" IVar="8" Cut="3.9098545908927917e-01" cType="1" res="1.9984685350209475e-03" rms="4.6877279877662659e-01" purity="4.6666416525840759e-01" nType="0">
          <Node pos="l" depth="2" NCoef="0" IVar="-1" Cut="0.0000000000000000e+00" cType="1" res="-4.0332417120225728e-04" rms="4.6667766571044922e-01" purity="4.3349847197532654e-01" nType="-99"/>
          <Node pos="r" depth="2" NCoef="0" IVar="-1" Cut="0.0000000000000000e+00" cType="1" res="5.1966495811939240e-04" rms="4.7046834230422974e-01" purity="5.0311434268951416e-01" nType="-99"/>
        </Node>
        <Node pos="r" depth="1" NCoef="0" IVar="-1" Cut="0.0000000000000000e+00" cType="1" res="1.2419789563864470e-03" rms="3.8656923174858093e-01" purity="8.0756735801696777e-01" nType="-99"/>
      </Node>
    </BinaryTree>
    <BinaryTree type="DecisionTree" boostWeight="1.0000000000000000e+00" itree="519">
      <Node pos="s" depth="0" NCoef="0" IVar="0" Cut="1.5841990661621094e+02" cType="1" res="1.0298353619873524e-02" rms="4.6106269955635071e-01" purity="5.0824916362762451e-01" nType="0">
        <Node pos="l" depth="1" NCoef="0" IVar="0" Cut="7.2990570068359375e+01" cType="1" res="2.4355359375476837e-02" rms="4.6021065115928650e-01" purity="5.4067987203598022e-01" nType="0">
          <Node pos="l" depth="2" NCoef="0" IVar="-1" Cut="0.0000000000000000e+00" cType="1" res="-8.5908995242789388e-04" rms="4.6245554089546204e-01" purity="4.7891995310783386e-01" nType="-99"/>
          <Node pos="r" depth="2" NCoef="0" IVar="-1" Cut="0.0000000000000000e+00" cType="1" res="9.4347301637753844e-04" rms="4.5883157849311829e-01" purity="5.5430662631988525e-01" nType="-99"/>
        </Node>
        <Node pos="r" depth="1" NCoef="0" IVar="4" Cut="2.2480169677734375e+02" cType="1" res="-8.9133391156792641e-03" rms="4.6153280138969421e-01" purity="4.6392607688903809e-01" nType="0">
          <Node pos="l" depth="2" NCoef="0" IVar="-1" Cut="0.0000000000000000e+00" cType="1" res="-7.0342194521799684e-04" rms="4.5801994204521179e-01" purity="4.2314571142196655e-01" nType="-99"/>
          <Node pos="r" depth="2" NCoef="0" IVar="-1" Cut="0.0000000000000000e+00" cType="1" res="4.8330935533158481e-04" rms="4.6749141812324524e-01" purity="5.4795426130294800e-01" nType="-99"/>
        </Node>
      </Node>
    </BinaryTree>
    <BinaryTree type="DecisionTree" boostWeight="1.0000000000000000e+00" itree="520">
      <Node pos="s" depth="0" NCoef="0" IVar="1" Cut="-2.1180739402770996e+00" cType="1" res="2.6312035042792559e-03" rms="4.6494612097740173e-01" purity="4.9601596593856812e-01" nType="0">
        <Node pos="l" depth="1" NCoef="0" IVar="-1" Cut="0.0000000000000000e+00" cType="1" res="-3.3042221330106258e-03" rms="4.0570491552352905e-01" purity="2.2060048580169678e-01" nType="-99"/>
        <Node pos="r" depth="1" NCoef="0" IVar="6" Cut="9.7774273157119751e-01" cType="1" res="6.6410508006811142e-03" rms="4.6824786067008972e-01" purity="5.1387816667556763e-01" nType="0">
          <Node pos="l" depth="2" NCoef="0" IVar="-1" Cut="0.0000000000000000e+00" cType="1" res="-1.2596270244102925e-04" rms="4.6896848082542419e-01" purity="4.9238410592079163e-01" nType="-99"/>
          <Node pos="r" depth="2" NCoef="0" IVar="-1" Cut="0.0000000000000000e+00" cType="1" res="7.7851471723988652e-04" rms="4.6585515141487122e-01" purity="5.5901843309402466e-01" nType="-99"/>
        </Node>
      </Node>
    </BinaryTree>
    <BinaryTree type="DecisionTree" boostWeight="1.0000000000000000e+00" itree="521">
      <Node pos="s" depth="0" NCoef="0" IVar="1" Cut="2.0625100135803223e+00" cType="1" res="-7.9286837717518210e-04" rms="4.6165266633033752e-01" purity="4.9357101321220398e-01" nType="0">
        <Node pos="l" depth="1" NCoef="0" IVar="9" Cut="3.7104513496160507e-02" cType="1" res="-7.8071053139865398e-03" rms="4.7019729018211365e-01" purity="4.3851891160011292e-01" nType="0">
          <Node pos="l" depth="2" NCoef="0" IVar="-1" Cut="0.0000000000000000e+00" cType="1" res="-1.0208425810560584e-03" rms="4.6114426851272583e-01" purity="3.8928288221359253e-01" nType="-99"/>
          <Node pos="r" depth="2" NCoef="0" IVar="-1" Cut="0.0000000000000000e+00" cType="1" res="-5.1694743888219818e-05" rms="4.7218847274780273e-01" purity="4.5055690407752991e-01" nType="-99"/>
        </Node>
        <Node pos="r" depth="1" NCoef="0" IVar="3" Cut="2.2435915470123291e+00" cType="1" res="3.3941175788640976e-02" rms="4.1502320766448975e-01" purity="7.6618510484695435e-01" nType="0">
          <Node pos="l" depth="2" NCoef="0" IVar="-1" Cut="0.0000000000000000e+00" cType="1" res="1.1171675287187099e-03" rms="3.9472725987434387e-01" purity="8.0006396770477295e-01" nType="-99"/>
          <Node pos="r" depth="2" NCoef="0" IVar="-1" Cut="0.0000000000000000e+00" cType="1" res="3.6480010021477938e-04" rms="4.3846496939659119e-01" purity="7.2371429204940796e-01" nType="-99"/>
        </Node>
      </Node>
    </BinaryTree>
    <BinaryTree type="DecisionTree" boostWeight="1.0000000000000000e+00" itree="522">
      <Node pos="s" depth="0" NCoef="0" IVar="4" Cut="1.9476647949218750e+02" cType="1" res="9.3988113803789020e-04" rms="4.6089163422584534e-01" purity="4.9772253632545471e-01" nType="0">
        <Node pos="l" depth="1" NCoef="0" IVar="8" Cut="3.9874714612960815e-01" cType="1" res="-1.2408676557242870e-02" rms="4.5978802442550659e-01" purity="4.5581084489822388e-01" nType="0">
          <Node pos="l" depth="2" NCoef="0" IVar="-1" Cut="0.0000000000000000e+00" cType="1" res="-8.8099326239898801e-04" rms="4.5366716384887695e-01" purity="4.1755372285842896e-01" nType="-99"/>
          <Node pos="r" depth="2" NCoef="0" IVar="-1" Cut="0.0000000000000000e+00" cType="1" res="4.2832500184886158e-04" rms="4.6923595666885376e-01" purity="5.2431809902191162e-01" nType="-99"/>
        </Node>
        <Node pos="r" depth="1" NCoef="0" IVar="1" Cut="-7.7466940879821777e-01" cType="1" res="2.5403497740626335e-02" rms="4.6190714836120605e-01" purity="5.7453334331512451e-01" nType="0">
          <Node pos="l" depth="2" NCoef="0" IVar="-1" Cut="0.0000000000000000e+00" cType="1" res="-1.4677784929517657e-04" rms="4.6458342671394348e-01" purity="3.4503155946731567e-01" nType="-99"/>
          <Node pos="r" depth="2" NCoef="0" IVar="-1" Cut="0.0000000000000000e+00" cType="1" res="7.8393804142251611e-04" rms="4.6080270409584045e-01" purity="6.3978284597396851e-01" nType="-99"/>
        </Node>
      </Node>
    </BinaryTree>
    <BinaryTree type="DecisionTree" boostWeight="1.0000000000000000e+00" itree="523">
      <Node pos="s" depth="0" NCoef="0" IVar="3" Cut="1.3288525342941284e+00" cType="1" res="5.9098410420119762e-03" rms="4.5947277545928955e-01" purity="5.0333672761917114e-01" nType="0">
        <Node pos="l" depth="1" NCoef="0" IVar="0" Cut="8.7104217529296875e+01" cType="1" res="3.6747243255376816e-02" rms="4.5120418071746826e-01" purity="6.0203582048416138e-01" nType="0">
          <Node pos="l" depth="2" NCoef="0" IVar="-1" Cut="0.0000000000000000e+00" cType="1" res="-1.4247273793444037e-04" rms="4.6040326356887817e-01" purity="5.2160227298736572e-01" nType="-99"/>
          <Node pos="r" depth="2" NCoef="0" IVar="-1" Cut="0.0000000000000000e+00" cType="1" res="2.0814412273466587e-03" rms="4.3244892358779907e-01" purity="7.0856732130050659e-01" nType="-99"/>
        </Node>
        <Node pos="r" depth="1" NCoef="0" IVar="9" Cut="2.0713385939598083e-01" cType="1" res="-1.3259380357339978e-03" rms="4.6109282970428467e-01" purity="4.8017770051956177e-01" nType="0">
          <Node pos="l" depth="2" NCoef="0" IVar="-1" Cut="0.0000000000000000e+00" cType="1" res="-1.7702965124044567e-04" rms="4.6219867467880249e-01" purity="4.6894383430480957e-01" nType="-99"/>
          <Node pos="r" depth="2" NCoef="0" IVar="-1" Cut="0.0000000000000000e+00" cType="1" res="1.3370057567954063e-03" rms="4.4427067041397095e-01" purity="6.1066347360610962e-01" nType="-99"/>
        </Node>
      </Node>
    </BinaryTree>
    <BinaryTree type="DecisionTree" boostWeight="1.0000000000000000e+00" itree="524">
      <Node pos="s" depth="0" NCoef="0" IVar="3" Cut="8.1822031736373901e-01" cType="1" res="4.4353348203003407e-03" rms="4.6156606078147888e-01" purity="5.0074011087417603e-01" nType="0">
        <Node pos="l" depth="1" NCoef="0" IVar="-1" Cut="0.0000000000000000e+00" cType="1" res="1.7431114101782441e-03" rms="4.4499325752258301e-01" purity="6.3967162370681763e-01" nType="-99"/>
        <Node pos="r" depth="1" NCoef="0" IVar="4" Cut="1.9696792602539062e+02" cType="1" res="-9.8900974262505770e-04" rms="4.6233156323432922e-01" purity="4.9030539393424988e-01" nType="0">
          <Node pos="l" depth="2" NCoef="0" IVar="-1" Cut="0.0000000000000000e+00" cType="1" res="-3.5543378908187151e-04" rms="4.6071475744247437e-01" purity="4.5541372895240784e-01" nType="-99"/>
          <Node pos="r" depth="2" NCoef="0" IVar="-1" Cut="0.0000000000000000e+00" cType="1" res="5.5304507259279490e-04" rms="4.6485134959220886e-01" purity="5.6263965368270874e-01" nType="-99"/>
        </Node>
      </Node>
    </BinaryTree>
    <BinaryTree type="DecisionTree" boostWeight="1.0000000000000000e+00" itree="525">
      <Node pos="s" depth="0" NCoef="0" IVar="1" Cut="-1.3871324062347412e+00" cType="1" res="-1.5866463072597980e-03" rms="4.6126562356948853e-01" purity="4.9424424767494202e-01" nType="0">
        <Node pos="l" depth="1" NCoef="0" IVar="3" Cut="1.8768147230148315e+00" cType="1" res="-3.7435375154018402e-02" rms="4.2105385661125183e-01" purity="2.4962295591831207e-01" nType="0">
          <Node pos="l" depth="2" NCoef="0" IVar="-1" Cut="0.0000000000000000e+00" cType="1" res="-1.0486367682460696e-04" rms="4.6495193243026733e-01" purity="3.3494853973388672e-01" nType="-99"/>
          <Node pos="r" depth="2" NCoef="0" IVar="-1" Cut="0.0000000000000000e+00" cType="1" res="-3.1806759070605040e-03" rms="3.9402967691421509e-01" purity="2.0350977778434753e-01" nType="-99"/>
        </Node>
        <Node pos="r" depth="1" NCoef="0" IVar="6" Cut="9.6511888504028320e-01" cType="1" res="5.1159039139747620e-03" rms="4.6809646487236023e-01" purity="5.3998047113418579e-01" nType="0">
          <Node pos="l" depth="2" NCoef="0" IVar="-1" Cut="0.0000000000000000e+00" cType="1" res="-3.4574378514662385e-04" rms="4.7053736448287964e-01" purity="5.0452381372451782e-01" nType="-99"/>
          <Node pos="r" depth="2" NCoef="0" IVar="-1" Cut="0.0000000000000000e+00" cType="1" res="6.5114779863506556e-04" rms="4.6440318226814270e-01" purity="5.8079463243484497e-01" nType="-99"/>
        </Node>
      </Node>
    </BinaryTree>
    <BinaryTree type="DecisionTree" boostWeight="1.0000000000000000e+00" itree="526">
      <Node pos="s" depth="0" NCoef="0" IVar="9" Cut="1.1868096143007278e-01" cType="1" res="-2.8116502799093723e-03" rms="4.6104696393013000e-01" purity="4.9498564004898071e-01" nType="0">
        <Node pos="l" depth="1" NCoef="0" IVar="4" Cut="2.7919247436523438e+02" cType="1" res="-1.1391201987862587e-02" rms="4.5911079645156860e-01" purity="4.7394347190856934e-01" nType="0">
          <Node pos="l" depth="2" NCoef="0" IVar="-1" Cut="0.0000000000000000e+00" cType="1" res="-6.3151202630251646e-04" rms="4.5817092061042786e-01" purity="4.4645795226097107e-01" nType="-99"/>
          <Node pos="r" depth="2" NCoef="0" IVar="-1" Cut="0.0000000000000000e+00" cType="1" res="7.0341065293177962e-04" rms="4.6078872680664062e-01" purity="5.8652228116989136e-01" nType="-99"/>
        </Node>
        <Node pos="r" depth="1" NCoef="0" IVar="5" Cut="2.6528321206569672e-02" cType="1" res="1.8598202615976334e-02" rms="4.6515384316444397e-01" purity="5.4749530553817749e-01" nType="0">
          <Node pos="l" depth="2" NCoef="0" IVar="-1" Cut="0.0000000000000000e+00" cType="1" res="7.7017548028379679e-04" rms="4.6440595388412476e-01" purity="5.5587136745452881e-01" nType="-99"/>
          <Node pos="r" depth="2" NCoef="0" IVar="-1" Cut="0.0000000000000000e+00" cType="1" res="-7.7953957952558994e-04" rms="4.6553322672843933e-01" purity="5.1152819395065308e-01" nType="-99"/>
        </Node>
      </Node>
    </BinaryTree>
    <BinaryTree type="DecisionTree" boostWeight="1.0000000000000000e+00" itree="527">
      <Node pos="s" depth="0" NCoef="0" IVar="4" Cut="2.8384597778320312e+02" cType="1" res="7.0508574135601521e-03" rms="4.6141278743743896e-01" purity="5.0306993722915649e-01" nType="0">
        <Node pos="l" depth="1" NCoef="0" IVar="4" Cut="7.9018211364746094e+01" cType="1" res="1.0357596911489964e-03" rms="4.6083512902259827e-01" purity="4.8470655083656311e-01" nType="0">
          <Node pos="l" depth="2" NCoef="0" IVar="-1" Cut="0.0000000000000000e+00" cType="1" res="-1.9434822024777532e-03" rms="4.5081472396850586e-01" purity="3.3060473203659058e-01" nType="-99"/>
          <Node pos="r" depth="2" NCoef="0" IVar="-1" Cut="0.0000000000000000e+00" cType="1" res="1.3331050286069512e-04" rms="4.6129083633422852e-01" purity="4.9544525146484375e-01" nType="-99"/>
        </Node>
        <Node pos="r" depth="1" NCoef="0" IVar="2" Cut="6.2566268444061279e-01" cType="1" res="4.1664447635412216e-02" rms="4.6320742368698120e-01" purity="6.0874146223068237e-01" nType="0">
          <Node pos="l" depth="2" NCoef="0" IVar="-1" Cut="0.0000000000000000e+00" cType="1" res="1.4702219050377607e-03" rms="4.6885666251182556e-01" purity="5.9132236242294312e-01" nType="-99"/>
          <Node pos="r" depth="2" NCoef="0" IVar="-1" Cut="0.0000000000000000e+00" cType="1" res="5.2937574218958616e-04" rms="4.5633918046951294e-01" purity="6.2702977657318115e-01" nType="-99"/>
        </Node>
      </Node>
    </BinaryTree>
    <BinaryTree type="DecisionTree" boostWeight="1.0000000000000000e+00" itree="528">
      <Node pos="s" depth="0" NCoef="0" IVar="0" Cut="8.8838523864746094e+01" cType="1" res="3.9647161029279232e-03" rms="4.6004766225814819e-01" purity="5.0108367204666138e-01" nType="0">
        <Node pos="l" depth="1" NCoef="0" IVar="1" Cut="-2.1835854649543762e-01" cType="1" res="-3.2689154148101807e-02" rms="4.6254166960716248e-01" purity="4.7709843516349792e-01" nType="0">
          <Node pos="l" depth="2" NCoef="0" IVar="-1" Cut="0.0000000000000000e+00" cType="1" res="-2.4720900692045689e-03" rms="4.4619715213775635e-01" purity="2.9201579093933105e-01" nType="-99"/>
          <Node pos="r" depth="2" NCoef="0" IVar="-1" Cut="0.0000000000000000e+00" cType="1" res="-3.4056176082231104e-04" rms="4.7127455472946167e-01" purity="5.8976680040359497e-01" nType="-99"/>
        </Node>
        <Node pos="r" depth="1" NCoef="0" IVar="2" Cut="7.7227377891540527e-01" cType="1" res="1.1761374771595001e-02" rms="4.5913815498352051e-01" purity="5.0618553161621094e-01" nType="0">
          <Node pos="l" depth="2" NCoef="0" IVar="-1" Cut="0.0000000000000000e+00" cType="1" res="1.3337217387743294e-04" rms="4.6114781498908997e-01" purity="4.8487317562103271e-01" nType="-99"/>
          <Node pos="r" depth="2" NCoef="0" IVar="-1" Cut="0.0000000000000000e+00" cType="1" res="1.3532624579966068e-03" rms="4.4410488009452820e-01" purity="6.3726276159286499e-01" nType="-99"/>
        </Node>
      </Node>
    </BinaryTree>
    <BinaryTree type="DecisionTree" boostWeight="1.0000000000000000e+00" itree="529">
      <Node pos="s" depth="0" NCoef="0" IVar="6" Cut="9.6225553750991821e-01" cType="1" res="-4.0621664375066757e-03" rms="4.6369487047195435e-01" purity="4.9091315269470215e-01" nType="0">
        <Node pos="l" depth="1" NCoef="0" IVar="0" Cut="2.6683813476562500e+02" cType="1" res="-2.0482055842876434e-02" rms="4.6547755599021912e-01" purity="4.5420345664024353e-01" nType="0">
          <Node pos="l" depth="2" NCoef="0" IVar="-1" Cut="0.0000000000000000e+00" cType="1" res="-3.9150356315076351e-04" rms="4.6697556972503662e-01" purity="4.6684646606445312e-01" nType="-99"/>
          <Node pos="r" depth="2" NCoef="0" IVar="-1" Cut="0.0000000000000000e+00" cType="1" res="-2.0050252787768841e-03" rms="4.5502847433090210e-01" purity="3.8254472613334656e-01" nType="-99"/>
        </Node>
        <Node pos="r" depth="1" NCoef="0" IVar="0" Cut="1.3385823059082031e+02" cType="1" res="1.2822812423110008e-02" rms="4.6124529838562012e-01" purity="5.2866262197494507e-01" nType="0">
          <Node pos="l" depth="2" NCoef="0" IVar="-1" Cut="0.0000000000000000e+00" cType="1" res="8.9998362818732858e-04" rms="4.5805972814559937e-01" purity="5.7117909193038940e-01" nType="-99"/>
          <Node pos="r" depth="2" NCoef="0" IVar="-1" Cut="0.0000000000000000e+00" cType="1" res="-1.5343532140832394e-04" rms="4.6309509873390198e-01" purity="4.9321794509887695e-01" nType="-99"/>
        </Node>
      </Node>
    </BinaryTree>
    <BinaryTree type="DecisionTree" boostWeight="1.0000000000000000e+00" itree="530">
      <Node pos="s" depth="0" NCoef="0" IVar="1" Cut="-2.0464444160461426e+00" cType="1" res="4.2468276806175709e-03" rms="4.6104565262794495e-01" purity="5.0157231092453003e-01" nType="0">
        <Node pos="l" depth="1" NCoef="0" IVar="-1" Cut="0.0000000000000000e+00" cType="1" res="-3.4130010753870010e-03" rms="3.9992749691009521e-01" purity="2.1526445448398590e-01" nType="-99"/>
        <Node pos="r" depth="1" NCoef="0" IVar="0" Cut="1.5954949951171875e+02" cType="1" res="8.8747926056385040e-03" rms="4.6481174230575562e-01" purity="5.2227252721786499e-01" nType="0">
          <Node pos="l" depth="2" NCoef="0" IVar="-1" Cut="0.0000000000000000e+00" cType="1" res="5.2437040721997619e-04" rms="4.6379894018173218e-01" purity="5.5193537473678589e-01" nType="-99"/>
          <Node pos="r" depth="2" NCoef="0" IVar="-1" Cut="0.0000000000000000e+00" cType="1" res="-2.1291885059326887e-04" rms="4.6573889255523682e-01" purity="4.8056003451347351e-01" nType="-99"/>
        </Node>
      </Node>
    </BinaryTree>
    <BinaryTree type="DecisionTree" boostWeight="1.0000000000000000e+00" itree="531">
      <Node pos="s" depth="0" NCoef="0" IVar="2" Cut="7.7755105495452881e-01" cType="1" res="-9.6398376626893878e-04" rms="4.6202298998832703e-01" purity="4.9630483984947205e-01" nType="0">
        <Node pos="l" depth="1" NCoef="0" IVar="0" Cut="1.2862269592285156e+02" cType="1" res="-8.2219541072845459e-03" rms="4.6322181820869446e-01" purity="4.7497925162315369e-01" nType="0">
          <Node pos="l" depth="2" NCoef="0" IVar="-1" Cut="0.0000000000000000e+00" cType="1" res="2.3552475613541901e-04" rms="4.6718263626098633e-01" purity="5.1357585191726685e-01" nType="-99"/>
          <Node pos="r" depth="2" NCoef="0" IVar="-1" Cut="0.0000000000000000e+00" cType="1" res="-6.1503634788095951e-04" rms="4.5999401807785034e-01" purity="4.4744181632995605e-01" nType="-99"/>
        </Node>
        <Node pos="r" depth="1" NCoef="0" IVar="6" Cut="9.5626038312911987e-01" cType="1" res="4.3640453368425369e-02" rms="4.5203459262847900e-01" purity="6.2736290693283081e-01" nType="0">
          <Node pos="l" depth="2" NCoef="0" IVar="-1" Cut="0.0000000000000000e+00" cType="1" res="3.2676526461727917e-04" rms="4.6067306399345398e-01" purity="5.8949178457260132e-01" nType="-99"/>
          <Node pos="r" depth="2" NCoef="0" IVar="-1" Cut="0.0000000000000000e+00" cType="1" res="1.5665098326280713e-03" rms="4.4445630908012390e-01" purity="6.5454989671707153e-01" nType="-99"/>
        </Node>
      </Node>
    </BinaryTree>
    <BinaryTree type="DecisionTree" boostWeight="1.0000000000000000e+00" itree="532">
      <Node pos="s" depth="0" NCoef="0" IVar="0" Cut="8.7378189086914062e+01" cType="1" res="4.0611089207231998e-03" rms="4.6010094881057739e-01" purity="5.0112920999526978e-01" nType="0">
        <Node pos="l" depth="1" NCoef="0" IVar="9" Cut="7.0466697216033936e-02" cType="1" res="-3.8670182228088379e-02" rms="4.5806282758712769e-01" purity="4.7467985749244690e-01" nType="0">
          <Node pos="l" depth="2" NCoef="0" IVar="-1" Cut="0.0000000000000000e+00" cType="1" res="-2.3082550615072250e-03" rms="4.5433166623115540e-01" purity="4.2911353707313538e-01" nType="-99"/>
          <Node pos="r" depth="2" NCoef="0" IVar="-1" Cut="0.0000000000000000e+00" cType="1" res="-3.4442596370354295e-04" rms="4.5889183878898621e-01" purity="5.0656592845916748e-01" nType="-99"/>
        </Node>
        <Node pos="r" depth="1" NCoef="0" IVar="3" Cut="1.3107829093933105e+00" cType="1" res="1.2507169507443905e-02" rms="4.6003314852714539e-01" purity="5.0635701417922974e-01" nType="0">
          <Node pos="l" depth="2" NCoef="0" IVar="-1" Cut="0.0000000000000000e+00" cType="1" res="1.7753042047843337e-03" rms="4.3645226955413818e-01" purity="7.0268207788467407e-01" nType="-99"/>
          <Node pos="r" depth="2" NCoef="0" IVar="-1" Cut="0.0000000000000000e+00" cType="1" res="1.7491778999101371e-04" rms="4.6179324388504028e-01" purity="4.8716840147972107e-01" nType="-99"/>
        </Node>
      </Node>
    </BinaryTree>
    <BinaryTree type="DecisionTree" boostWeight="1.0000000000000000e+00" itree="533">
      <Node pos="s" depth="0" NCoef="0" IVar="8" Cut="4.0851649641990662e-01" cType="1" res="9.9391574040055275e-03" rms="4.6133792400360107e-01" purity="5.0648647546768188e-01" nType="0">
        <Node pos="l" depth="1" NCoef="0" IVar="3" Cut="3.2957975864410400e+00" cType="1" res="5.2360938861966133e-03" rms="4.6183541417121887e-01" purity="4.9190384149551392e-01" nType="0">
          <Node pos="l" depth="2" NCoef="0" IVar="-1" Cut="0.0000000000000000e+00" cType="1" res="2.4227291578426957e-04" rms="4.6391457319259644e-01" purity="5.0588232278823853e-01" nType="-99"/>
          <Node pos="r" depth="2" NCoef="0" IVar="-1" Cut="0.0000000000000000e+00" cType="1" res="-1.7215481493622065e-03" rms="4.3001848459243774e-01" purity="3.0435726046562195e-01" nType="-99"/>
        </Node>
        <Node pos="r" depth="1" NCoef="0" IVar="-1" Cut="0.0000000000000000e+00" cType="1" res="1.1195752304047346e-03" rms="4.5598697662353516e-01" purity="6.1681956052780151e-01" nType="-99"/>
      </Node>
    </BinaryTree>
    <BinaryTree type="DecisionTree" boostWeight="1.0000000000000000e+00" itree="534">
      <Node pos="s" depth="0" NCoef="0" IVar="0" Cut="1.7771420288085938e+02" cType="1" res="-3.4635717747732997e-04" rms="4.5952078700065613e-01" purity="4.9731370806694031e-01" nType="0">
        <Node pos="l" depth="1" NCoef="0" IVar="0" Cut="9.4025962829589844e+01" cType="1" res="1.4536701142787933e-02" rms="4.6078237891197205e-01" purity="5.2851051092147827e-01" nType="0">
          <Node pos="l" depth="2" NCoef="0" IVar="-1" Cut="0.0000000000000000e+00" cType="1" res="-4.5385898556560278e-04" rms="4.5985129475593567e-01" purity="4.9766874313354492e-01" nType="-99"/>
          <Node pos="r" depth="2" NCoef="0" IVar="-1" Cut="0.0000000000000000e+00" cType="1" res="7.6531310332939029e-04" rms="4.6049302816390991e-01" purity="5.4276508092880249e-01" nType="-99"/>
        </Node>
        <Node pos="r" depth="1" NCoef="0" IVar="4" Cut="2.7649813842773438e+02" cType="1" res="-2.8451725840568542e-02" rms="4.5580548048019409e-01" purity="4.3840122222900391e-01" nType="0">
          <Node pos="l" depth="2" NCoef="0" IVar="-1" Cut="0.0000000000000000e+00" cType="1" res="-1.3256777310743928e-03" rms="4.5307892560958862e-01" purity="4.0565511584281921e-01" nType="-99"/>
          <Node pos="r" depth="2" NCoef="0" IVar="-1" Cut="0.0000000000000000e+00" cType="1" res="4.2331821168772876e-04" rms="4.6280094981193542e-01" purity="5.5733537673950195e-01" nType="-99"/>
        </Node>
      </Node>
    </BinaryTree>
    <BinaryTree type="DecisionTree" boostWeight="1.0000000000000000e+00" itree="535">
      <Node pos="s" depth="0" NCoef="0" IVar="4" Cut="1.3646400451660156e+02" cType="1" res="6.4824456349015236e-03" rms="4.6005886793136597e-01" purity="5.0537139177322388e-01" nType="0">
        <Node pos="l" depth="1" NCoef="0" IVar="0" Cut="7.2882858276367188e+01" cType="1" res="-1.7264207825064659e-02" rms="4.5834678411483765e-01" purity="4.2818048596382141e-01" nType="0">
          <Node pos="l" depth="2" NCoef="0" IVar="-1" Cut="0.0000000000000000e+00" cType="1" res="-2.3099323734641075e-03" rms="4.5122578740119934e-01" purity="3.9775240421295166e-01" nType="-99"/>
          <Node pos="r" depth="2" NCoef="0" IVar="-1" Cut="0.0000000000000000e+00" cType="1" res="-2.6277036522515118e-04" rms="4.5888283848762512e-01" purity="4.3305036425590515e-01" nType="-99"/>
        </Node>
        <Node pos="r" depth="1" NCoef="0" IVar="9" Cut="1.5028676390647888e-01" cType="1" res="2.1164936944842339e-02" rms="4.6050205826759338e-01" purity="5.5309832096099854e-01" nType="0">
          <Node pos="l" depth="2" NCoef="0" IVar="-1" Cut="0.0000000000000000e+00" cType="1" res="3.6991137312725186e-04" rms="4.6315300464630127e-01" purity="5.3643780946731567e-01" nType="-99"/>
          <Node pos="r" depth="2" NCoef="0" IVar="-1" Cut="0.0000000000000000e+00" cType="1" res="1.7607897752895951e-03" rms="4.3637597560882568e-01" purity="6.7859447002410889e-01" nType="-99"/>
        </Node>
      </Node>
    </BinaryTree>
    <BinaryTree type="DecisionTree" boostWeight="1.0000000000000000e+00" itree="536">
      <Node pos="s" depth="0" NCoef="0" IVar="1" Cut="2.7730402946472168e+00" cType="1" res="3.8829415570944548e-03" rms="4.6053338050842285e-01" purity="5.0211876630783081e-01" nType="0">
        <Node pos="l" depth="1" NCoef="0" IVar="5" Cut="-6.8050637841224670e-02" cType="1" res="-2.0677132997661829e-03" rms="4.6730339527130127e-01" purity="4.7071027755737305e-01" nType="0">
          <Node pos="l" depth="2" NCoef="0" IVar="-1" Cut="0.0000000000000000e+00" cType="1" res="-2.8176952619105577e-03" rms="4.5040827989578247e-01" purity="3.3019551634788513e-01" nType="-99"/>
          <Node pos="r" depth="2" NCoef="0" IVar="-1" Cut="0.0000000000000000e+00" cType="1" res="9.9592172773554921e-05" rms="4.6806517243385315e-01" purity="4.8129579424858093e-01" nType="-99"/>
        </Node>
        <Node pos="r" depth="1" NCoef="0" IVar="-1" Cut="0.0000000000000000e+00" cType="1" res="1.4778041513636708e-03" rms="3.8041931390762329e-01" purity="8.1916391849517822e-01" nType="-99"/>
      </Node>
    </BinaryTree>
    <BinaryTree type="DecisionTree" boostWeight="1.0000000000000000e+00" itree="537">
      <Node pos="s" depth="0" NCoef="0" IVar="9" Cut="2.1601228415966034e-01" cType="1" res="3.3728680573403835e-03" rms="4.6406048536300659e-01" purity="4.9680429697036743e-01" nType="0">
        <Node pos="l" depth="1" NCoef="0" IVar="5" Cut="9.2308185994625092e-02" cType="1" res="-3.9103659219108522e-04" rms="4.6400108933448792e-01" purity="4.8919245600700378e-01" nType="0">
          <Node pos="l" depth="2" NCoef="0" IVar="-1" Cut="0.0000000000000000e+00" cType="1" res="-1.1610162619035691e-04" rms="4.6334815025329590e-01" purity="4.8664635419845581e-01" nType="-99"/>
          <Node pos="r" depth="2" NCoef="0" IVar="-1" Cut="0.0000000000000000e+00" cType="1" res="1.5429239720106125e-03" rms="4.7043114900588989e-01" purity="5.3014010190963745e-01" nType="-99"/>
        </Node>
        <Node pos="r" depth="1" NCoef="0" IVar="-1" Cut="0.0000000000000000e+00" cType="1" res="1.4627492055296898e-03" rms="4.6132126450538635e-01" purity="6.1022043228149414e-01" nType="-99"/>
      </Node>
    </BinaryTree>
    <BinaryTree type="DecisionTree" boostWeight="1.0000000000000000e+00" itree="538">
      <Node pos="s" depth="0" NCoef="0" IVar="3" Cut="3.3741509914398193e+00" cType="1" res="5.2313846535980701e-03" rms="4.6106025576591492e-01" purity="5.0268381834030151e-01" nType="0">
        <Node pos="l" depth="1" NCoef="0" IVar="8" Cut="3.7580806016921997e-01" cType="1" res="9.2213852331042290e-03" rms="4.6323066949844360e-01" purity="5.1499688625335693e-01" nType="0">
          <Node pos="l" depth="2" NCoef="0" IVar="-1" Cut="0.0000000000000000e+00" cType="1" res="-4.1726807830855250e-04" rms="4.7167760133743286e-01" purity="4.6365678310394287e-01" nType="-99"/>
          <Node pos="r" depth="2" NCoef="0" IVar="-1" Cut="0.0000000000000000e+00" cType="1" res="4.9459928413853049e-04" rms="4.5949000120162964e-01" purity="5.3542321920394897e-01" nType="-99"/>
        </Node>
        <Node pos="r" depth="1" NCoef="0" IVar="-1" Cut="0.0000000000000000e+00" cType="1" res="-2.5889403186738491e-03" rms="4.1554635763168335e-01" purity="2.8894174098968506e-01" nType="-99"/>
      </Node>
    </BinaryTree>
    <BinaryTree type="DecisionTree" boostWeight="1.0000000000000000e+00" itree="539">
      <Node pos="s" depth="0" NCoef="0" IVar="8" Cut="4.0761539340019226e-01" cType="1" res="-2.9082875698804855e-03" rms="4.6404516696929932e-01" purity="4.8996534943580627e-01" nType="0">
        <Node pos="l" depth="1" NCoef="0" IVar="4" Cut="1.4685131835937500e+02" cType="1" res="-8.2025220617651939e-03" rms="4.6345114707946777e-01" purity="4.7460466623306274e-01" nType="0">
          <Node pos="l" depth="2" NCoef="0" IVar="-1" Cut="0.0000000000000000e+00" cType="1" res="-8.1547012086957693e-04" rms="4.5725312829017639e-01" purity="4.0788090229034424e-01" nType="-99"/>
          <Node pos="r" depth="2" NCoef="0" IVar="-1" Cut="0.0000000000000000e+00" cType="1" res="1.3635940558742732e-04" rms="4.6772840619087219e-01" purity="5.2592712640762329e-01" nType="-99"/>
        </Node>
        <Node pos="r" depth="1" NCoef="0" IVar="2" Cut="6.1825555562973022e-01" cType="1" res="3.4826036542654037e-02" rms="4.6652024984359741e-01" purity="5.9944754838943481e-01" nType="0">
          <Node pos="l" depth="2" NCoef="0" IVar="-1" Cut="0.0000000000000000e+00" cType="1" res="1.3337213313207030e-03" rms="4.6980062127113342e-01" purity="5.8272480964660645e-01" nType="-99"/>
          <Node pos="r" depth="2" NCoef="0" IVar="-1" Cut="0.0000000000000000e+00" cType="1" res="3.8253641105256975e-04" rms="4.6241879463195801e-01" purity="6.1611014604568481e-01" nType="-99"/>
        </Node>
      </Node>
    </BinaryTree>
    <BinaryTree type="DecisionTree" boostWeight="1.0000000000000000e+00" itree="540">
      <Node pos="s" depth="0" NCoef="0" IVar="1" Cut="2.4811182022094727e+00" cType="1" res="9.4162281602621078e-03" rms="4.6329382061958313e-01" purity="5.0549620389938354e-01" nType="0">
        <Node pos="l" depth="1" NCoef="0" IVar="6" Cut="9.2770880460739136e-01" cType="1" res="4.1068871505558491e-03" rms="4.7132259607315063e-01" purity="4.6751672029495239e-01" nType="0">
          <Node pos="l" depth="2" NCoef="0" IVar="-1" Cut="0.0000000000000000e+00" cType="1" res="-7.7018223237246275e-04" rms="4.6399894356727600e-01" purity="4.1553503274917603e-01" nType="-99"/>
          <Node pos="r" depth="2" NCoef="0" IVar="-1" Cut="0.0000000000000000e+00" cType="1" res="3.0976260313764215e-04" rms="4.7273623943328857e-01" purity="4.7960188984870911e-01" nType="-99"/>
        </Node>
        <Node pos="r" depth="1" NCoef="0" IVar="-1" Cut="0.0000000000000000e+00" cType="1" res="1.1792246950790286e-03" rms="3.9297351241111755e-01" purity="8.0053687095642090e-01" nType="-99"/>
      </Node>
    </BinaryTree>
    <BinaryTree type="DecisionTree" boostWeight="1.0000000000000000e+00" itree="541">
      <Node pos="s" depth="0" NCoef="0" IVar="4" Cut="2.0689430236816406e+02" cType="1" res="3.7246656138449907e-03" rms="4.6190807223320007e-01" purity="4.9896860122680664e-01" nType="0">
        <Node pos="l" depth="1" NCoef="0" IVar="0" Cut="1.7448316955566406e+02" cType="1" res="-6.1114616692066193e-03" rms="4.6082475781440735e-01" purity="4.6621480584144592e-01" nType="0">
          <Node pos="l" depth="2" NCoef="0" IVar="-1" Cut="0.0000000000000000e+00" cType="1" res="2.0604432211257517e-04" rms="4.6405595541000366e-01" purity="4.9908465147018433e-01" nType="-99"/>
          <Node pos="r" depth="2" NCoef="0" IVar="-1" Cut="0.0000000000000000e+00" cType="1" res="-1.1853354517370462e-03" rms="4.5212188363075256e-01" purity="3.9318898320198059e-01" nType="-99"/>
        </Node>
        <Node pos="r" depth="1" NCoef="0" IVar="7" Cut="1.2052380293607712e-01" cType="1" res="2.6538817211985588e-02" rms="4.6360832452774048e-01" purity="5.7493853569030762e-01" nType="0">
          <Node pos="l" depth="2" NCoef="0" IVar="-1" Cut="0.0000000000000000e+00" cType="1" res="9.1962434817105532e-04" rms="4.6451419591903687e-01" purity="5.9255057573318481e-01" nType="-99"/>
          <Node pos="r" depth="2" NCoef="0" IVar="-1" Cut="0.0000000000000000e+00" cType="1" res="-6.7156861769035459e-04" rms="4.5588275790214539e-01" purity="4.9135026335716248e-01" nType="-99"/>
        </Node>
      </Node>
    </BinaryTree>
    <BinaryTree type="DecisionTree" boostWeight="1.0000000000000000e+00" itree="542">
      <Node pos="s" depth="0" NCoef="0" IVar="9" Cut="1.9778209924697876e-01" cType="1" res="2.7237669564783573e-03" rms="4.6119144558906555e-01" purity="4.9898326396942139e-01" nType="0">
        <Node pos="l" depth="1" NCoef="0" IVar="5" Cut="-7.2132974863052368e-02" cType="1" res="-2.1393541246652603e-03" rms="4.6207690238952637e-01" purity="4.8840850591659546e-01" nType="0">
          <Node pos="l" depth="2" NCoef="0" IVar="-1" Cut="0.0000000000000000e+00" cType="1" res="-2.0508677698671818e-03" rms="4.4638812541961670e-01" purity="3.7012752890586853e-01" nType="-99"/>
          <Node pos="r" depth="2" NCoef="0" IVar="-1" Cut="0.0000000000000000e+00" cType="1" res="4.5715201849816367e-05" rms="4.6282097697257996e-01" purity="4.9606832861900330e-01" nType="-99"/>
        </Node>
        <Node pos="r" depth="1" NCoef="0" IVar="-1" Cut="0.0000000000000000e+00" cType="1" res="1.2800088152289391e-03" rms="4.4926443696022034e-01" purity="6.0539180040359497e-01" nType="-99"/>
      </Node>
    </BinaryTree>
    <BinaryTree type="DecisionTree" boostWeight="1.0000000000000000e+00" itree="543">
      <Node pos="s" depth="0" NCoef="0" IVar="4" Cut="1.7569277954101562e+02" cType="1" res="6.4345202408730984e-03" rms="4.6106421947479248e-01" purity="5.0097697973251343e-01" nType="0">
        <Node pos="l" depth="1" NCoef="0" IVar="9" Cut="7.4024945497512817e-02" cType="1" res="-4.8826783895492554e-03" rms="4.6009874343872070e-01" purity="4.5662254095077515e-01" nType="0">
          <Node pos="l" depth="2" NCoef="0" IVar="-1" Cut="0.0000000000000000e+00" cType="1" res="-9.3051674775779247e-04" rms="4.5432326197624207e-01" purity="3.9109951257705688e-01" nType="-99"/>
          <Node pos="r" depth="2" NCoef="0" IVar="-1" Cut="0.0000000000000000e+00" cType="1" res="2.3327104281634092e-04" rms="4.6277892589569092e-01" purity="4.9325516819953918e-01" nType="-99"/>
        </Node>
        <Node pos="r" depth="1" NCoef="0" IVar="1" Cut="-1.2438216209411621e+00" cType="1" res="2.2182179614901543e-02" rms="4.6194323897361755e-01" purity="5.6269532442092896e-01" nType="0">
          <Node pos="l" depth="2" NCoef="0" IVar="-1" Cut="0.0000000000000000e+00" cType="1" res="-7.4115023016929626e-04" rms="4.5065790414810181e-01" purity="3.0520245432853699e-01" nType="-99"/>
          <Node pos="r" depth="2" NCoef="0" IVar="-1" Cut="0.0000000000000000e+00" cType="1" res="7.1059574838727713e-04" rms="4.6364539861679077e-01" purity="6.1099374294281006e-01" nType="-99"/>
        </Node>
      </Node>
    </BinaryTree>
    <BinaryTree type="DecisionTree" boostWeight="1.0000000000000000e+00" itree="544">
      <Node pos="s" depth="0" NCoef="0" IVar="6" Cut="9.1215634346008301e-01" cType="1" res="-8.3665625425055623e-05" rms="4.5873987674713135e-01" purity="4.9779298901557922e-01" nType="0">
        <Node pos="l" depth="1" NCoef="0" IVar="-1" Cut="0.0000000000000000e+00" cType="1" res="-1.5433278167620301e-03" rms="4.5718741416931152e-01" purity="4.0555191040039062e-01" nType="-99"/>
        <Node pos="r" depth="1" NCoef="0" IVar="8" Cut="3.4557008743286133e-01" cType="1" res="4.7557344660162926e-03" rms="4.5858591794967651e-01" purity="5.0641143321990967e-01" nType="0">
          <Node pos="l" depth="2" NCoef="0" IVar="-1" Cut="0.0000000000000000e+00" cType="1" res="-1.4598582638427615e-03" rms="4.5156559348106384e-01" purity="4.2873883247375488e-01" nType="-99"/>
          <Node pos="r" depth="2" NCoef="0" IVar="-1" Cut="0.0000000000000000e+00" cType="1" res="2.8380515868775547e-04" rms="4.5896181464195251e-01" purity="5.1461714506149292e-01" nType="-99"/>
        </Node>
      </Node>
    </BinaryTree>
    <BinaryTree type="DecisionTree" boostWeight="1.0000000000000000e+00" itree="545">
      <Node pos="s" depth="0" NCoef="0" IVar="3" Cut="1.6358554363250732e+00" cType="1" res="2.6811815332621336e-03" rms="4.6224939823150635e-01" purity="4.9726447463035583e-01" nType="0">
        <Node pos="l" depth="1" NCoef="0" IVar="0" Cut="1.1057595062255859e+02" cType="1" res="2.6259697973728180e-02" rms="4.5477101206779480e-01" purity="5.8680909872055054e-01" nType="0">
          <Node pos="l" depth="2" NCoef="0" IVar="-1" Cut="0.0000000000000000e+00" cType="1" res="9.9687036708928645e-05" rms="4.5946723222732544e-01" purity="5.3958874940872192e-01" nType="-99"/>
          <Node pos="r" depth="2" NCoef="0" IVar="-1" Cut="0.0000000000000000e+00" cType="1" res="1.6737718833610415e-03" rms="4.4131302833557129e-01" purity="6.8438524007797241e-01" nType="-99"/>
        </Node>
        <Node pos="r" depth="1" NCoef="0" IVar="3" Cut="1.9446344375610352e+00" cType="1" res="-7.1861343458294868e-03" rms="4.6498861908912659e-01" purity="4.5979115366935730e-01" nType="0">
          <Node pos="l" depth="2" NCoef="0" IVar="-1" Cut="0.0000000000000000e+00" cType="1" res="-1.5744779957458377e-03" rms="4.6154171228408813e-01" purity="4.7375786304473877e-01" nType="-99"/>
          <Node pos="r" depth="2" NCoef="0" IVar="-1" Cut="0.0000000000000000e+00" cType="1" res="2.1867772375117056e-05" rms="4.6508839726448059e-01" purity="4.5746392011642456e-01" nType="-99"/>
        </Node>
      </Node>
    </BinaryTree>
    <BinaryTree type="DecisionTree" boostWeight="1.0000000000000000e+00" itree="546">
      <Node pos="s" depth="0" NCoef="0" IVar="6" Cut="9.6845227479934692e-01" cType="1" res="2.1313244942575693e-03" rms="4.6302762627601624e-01" purity="4.9667820334434509e-01" nType="0">
        <Node pos="l" depth="1" NCoef="0" IVar="9" Cut="4.5874632894992828e-02" cType="1" res="-9.5495898276567459e-03" rms="4.6473312377929688e-01" purity="4.6927201747894287e-01" nType="0">
          <Node pos="l" depth="2" NCoef="0" IVar="-1" Cut="0.0000000000000000e+00" cType="1" res="-1.1194689432159066e-03" rms="4.6251302957534790e-01" purity="4.1663259267807007e-01" nType="-99"/>
          <Node pos="r" depth="2" NCoef="0" IVar="-1" Cut="0.0000000000000000e+00" cType="1" res="2.3426233383361250e-05" rms="4.6514356136322021e-01" purity="4.8909810185432434e-01" nType="-99"/>
        </Node>
        <Node pos="r" depth="1" NCoef="0" IVar="0" Cut="1.5785826110839844e+02" cType="1" res="1.7726907506585121e-02" rms="4.6027886867523193e-01" purity="5.3326910734176636e-01" nType="0">
          <Node pos="l" depth="2" NCoef="0" IVar="-1" Cut="0.0000000000000000e+00" cType="1" res="9.2891987878829241e-04" rms="4.5877173542976379e-01" purity="5.6850874423980713e-01" nType="-99"/>
          <Node pos="r" depth="2" NCoef="0" IVar="-1" Cut="0.0000000000000000e+00" cType="1" res="-2.0000567019451410e-04" rms="4.6124544739723206e-01" purity="4.8400712013244629e-01" nType="-99"/>
        </Node>
      </Node>
    </BinaryTree>
    <BinaryTree type="DecisionTree" boostWeight="1.0000000000000000e+00" itree="547">
      <Node pos="s" depth="0" NCoef="0" IVar="0" Cut="9.1445007324218750e+01" cType="1" res="9.7731770947575569e-03" rms="4.6248430013656616e-01" purity="5.0584232807159424e-01" nType="0">
        <Node pos="l" depth="1" NCoef="0" IVar="0" Cut="7.9495338439941406e+01" cType="1" res="-2.2930400446057320e-02" rms="4.6686384081840515e-01" purity="4.8581641912460327e-01" nType="0">
          <Node pos="l" depth="2" NCoef="0" IVar="-1" Cut="0.0000000000000000e+00" cType="1" res="-1.1150561040267348e-03" rms="4.6595528721809387e-01" purity="4.6858552098274231e-01" nType="-99"/>
          <Node pos="r" depth="2" NCoef="0" IVar="-1" Cut="0.0000000000000000e+00" cType="1" res="3.5881745861843228e-04" rms="4.6679213643074036e-01" purity="5.2451068162918091e-01" nType="-99"/>
        </Node>
        <Node pos="r" depth="1" NCoef="0" IVar="0" Cut="1.6012937927246094e+02" cType="1" res="1.7284475266933441e-02" rms="4.6114516258239746e-01" purity="5.1044183969497681e-01" nType="0">
          <Node pos="l" depth="2" NCoef="0" IVar="-1" Cut="0.0000000000000000e+00" cType="1" res="1.0087401606142521e-03" rms="4.6455121040344238e-01" purity="5.5490505695343018e-01" nType="-99"/>
          <Node pos="r" depth="2" NCoef="0" IVar="-1" Cut="0.0000000000000000e+00" cType="1" res="-9.4903596618678421e-05" rms="4.5693576335906982e-01" purity="4.6812862157821655e-01" nType="-99"/>
        </Node>
      </Node>
    </BinaryTree>
    <BinaryTree type="DecisionTree" boostWeight="1.0000000000000000e+00" itree="548">
      <Node pos="s" depth="0" NCoef="0" IVar="4" Cut="2.0647500610351562e+02" cType="1" res="1.7825135961174965e-02" rms="4.6529138088226318e-01" purity="5.1208198070526123e-01" nType="0">
        <Node pos="l" depth="1" NCoef="0" IVar="0" Cut="2.1570033264160156e+02" cType="1" res="8.4174452349543571e-03" rms="4.6523427963256836e-01" purity="4.7756657004356384e-01" nType="0">
          <Node pos="l" depth="2" NCoef="0" IVar="-1" Cut="0.0000000000000000e+00" cType="1" res="4.9052888061851263e-04" rms="4.6811446547508240e-01" purity="4.9676081538200378e-01" nType="-99"/>
          <Node pos="r" depth="2" NCoef="0" IVar="-1" Cut="0.0000000000000000e+00" cType="1" res="-1.1048460146412253e-03" rms="4.4980615377426147e-01" purity="3.9158028364181519e-01" nType="-99"/>
        </Node>
        <Node pos="r" depth="1" NCoef="0" IVar="6" Cut="9.8378938436508179e-01" cType="1" res="3.8577768951654434e-02" rms="4.6474444866180420e-01" purity="5.8822011947631836e-01" nType="0">
          <Node pos="l" depth="2" NCoef="0" IVar="-1" Cut="0.0000000000000000e+00" cType="1" res="6.6848308779299259e-04" rms="4.6441921591758728e-01" purity="5.6985604763031006e-01" nType="-99"/>
          <Node pos="r" depth="2" NCoef="0" IVar="-1" Cut="0.0000000000000000e+00" cType="1" res="1.7769767437130213e-03" rms="4.6374255418777466e-01" purity="6.4425086975097656e-01" nType="-99"/>
        </Node>
      </Node>
    </BinaryTree>
    <BinaryTree type="DecisionTree" boostWeight="1.0000000000000000e+00" itree="549">
      <Node pos="s" depth="0" NCoef="0" IVar="5" Cut="8.8670685887336731e-02" cType="1" res="4.3572033755481243e-03" rms="4.6244785189628601e-01" purity="4.9954235553741455e-01" nType="0">
        <Node pos="l" depth="1" NCoef="0" IVar="2" Cut="5.1703369617462158e-01" cType="1" res="4.8453191993758082e-04" rms="4.6147176623344421e-01" purity="4.9723136425018311e-01" nType="0">
          <Node pos="l" depth="2" NCoef="0" IVar="-1" Cut="0.0000000000000000e+00" cType="1" res="-7.6912948861718178e-04" rms="4.5682701468467712e-01" purity="4.1442689299583435e-01" nType="-99"/>
          <Node pos="r" depth="2" NCoef="0" IVar="-1" Cut="0.0000000000000000e+00" cType="1" res="2.9289929079823196e-04" rms="4.6295404434204102e-01" purity="5.3103268146514893e-01" nType="-99"/>
        </Node>
        <Node pos="r" depth="1" NCoef="0" IVar="-1" Cut="0.0000000000000000e+00" cType="1" res="1.5612328425049782e-03" rms="4.7271016240119934e-01" purity="5.3250002861022949e-01" nType="-99"/>
      </Node>
    </BinaryTree>
    <BinaryTree type="DecisionTree" boostWeight="1.0000000000000000e+00" itree="550">
      <Node pos="s" depth="0" NCoef="0" IVar="5" Cut="7.2480745613574982e-02" cType="1" res="-1.0205097496509552e-03" rms="4.5969727635383606e-01" purity="4.9831503629684448e-01" nType="0">
        <Node pos="l" depth="1" NCoef="0" IVar="0" Cut="1.3356613159179688e+02" cType="1" res="-7.5686397030949593e-03" rms="4.5801365375518799e-01" purity="4.9313700199127197e-01" nType="0">
          <Node pos="l" depth="2" NCoef="0" IVar="-1" Cut="0.0000000000000000e+00" cType="1" res="3.2317114528268576e-04" rms="4.6129992604255676e-01" purity="5.3363513946533203e-01" nType="-99"/>
          <Node pos="r" depth="2" NCoef="0" IVar="-1" Cut="0.0000000000000000e+00" cType="1" res="-7.3339574737474322e-04" rms="4.5449951291084290e-01" purity="4.5843896269798279e-01" nType="-99"/>
        </Node>
        <Node pos="r" depth="1" NCoef="0" IVar="-1" Cut="0.0000000000000000e+00" cType="1" res="1.4788124244660139e-03" rms="4.7041130065917969e-01" purity="5.4434382915496826e-01" nType="-99"/>
      </Node>
    </BinaryTree>
    <BinaryTree type="DecisionTree" boostWeight="1.0000000000000000e+00" itree="551">
      <Node pos="s" depth="0" NCoef="0" IVar="0" Cut="8.2631736755371094e+01" cType="1" res="1.5781092224642634e-03" rms="4.6184143424034119e-01" purity="4.9726507067680359e-01" nType="0">
        <Node pos="l" depth="1" NCoef="0" IVar="1" Cut="-1.2020635604858398e-01" cType="1" res="-3.1188311055302620e-02" rms="4.5897385478019714e-01" purity="4.8342940211296082e-01" nType="0">
          <Node pos="l" depth="2" NCoef="0" IVar="-1" Cut="0.0000000000000000e+00" cType="1" res="-3.2362451311200857e-03" rms="4.3687340617179871e-01" purity="2.8231734037399292e-01" nType="-99"/>
          <Node pos="r" depth="2" NCoef="0" IVar="-1" Cut="0.0000000000000000e+00" cType="1" res="2.1041323634563014e-05" rms="4.6962842345237732e-01" purity="6.1088573932647705e-01" nType="-99"/>
        </Node>
        <Node pos="r" depth="1" NCoef="0" IVar="3" Cut="1.4468588829040527e+00" cType="1" res="7.3321848176419735e-03" rms="4.6210342645645142e-01" purity="4.9969479441642761e-01" nType="0">
          <Node pos="l" depth="2" NCoef="0" IVar="-1" Cut="0.0000000000000000e+00" cType="1" res="1.1997807305306196e-03" rms="4.4694727659225464e-01" purity="6.5871310234069824e-01" nType="-99"/>
          <Node pos="r" depth="2" NCoef="0" IVar="-1" Cut="0.0000000000000000e+00" cType="1" res="2.4030658096307889e-05" rms="4.6397611498832703e-01" purity="4.7592803835868835e-01" nType="-99"/>
        </Node>
      </Node>
    </BinaryTree>
    <BinaryTree type="DecisionTree" boostWeight="1.0000000000000000e+00" itree="552">
      <Node pos="s" depth="0" NCoef="0" IVar="0" Cut="5.8030193328857422e+01" cType="1" res="6.1691347509622574e-03" rms="4.6171543002128601e-01" purity="5.0268447399139404e-01" nType="0">
        <Node pos="l" depth="1" NCoef="0" IVar="-1" Cut="0.0000000000000000e+00" cType="1" res="-1.5266427071765065e-03" rms="4.6272364258766174e-01" purity="4.5203605294227600e-01" nType="-99"/>
        <Node pos="r" depth="1" NCoef="0" IVar="0" Cut="1.3262892150878906e+02" cType="1" res="9.6391560509800911e-03" rms="4.6142065525054932e-01" purity="5.0565290451049805e-01" nType="0">
          <Node pos="l" depth="2" NCoef="0" IVar="-1" Cut="0.0000000000000000e+00" cType="1" res="8.2856736844405532e-04" rms="4.6266543865203857e-01" purity="5.5023401975631714e-01" nType="-99"/>
          <Node pos="r" depth="2" NCoef="0" IVar="-1" Cut="0.0000000000000000e+00" cType="1" res="-1.8010087660513818e-04" rms="4.5988729596138000e-01" purity="4.7449076175689697e-01" nType="-99"/>
        </Node>
      </Node>
    </BinaryTree>
    <BinaryTree type="DecisionTree" boostWeight="1.0000000000000000e+00" itree="553">
      <Node pos="s" depth="0" NCoef="0" IVar="6" Cut="9.1210097074508667e-01" cType="1" res="4.2892107740044594e-03" rms="4.6151509881019592e-01" purity="5.0041288137435913e-01" nType="0">
        <Node pos="l" depth="1" NCoef="0" IVar="-1" Cut="0.0000000000000000e+00" cType="1" res="-1.4891785103827715e-03" rms="4.5299279689788818e-01" purity="4.1187289357185364e-01" nType="-99"/>
        <Node pos="r" depth="1" NCoef="0" IVar="9" Cut="2.0449040830135345e-01" cType="1" res="9.3334699049592018e-03" rms="4.6198982000350952e-01" purity="5.0875174999237061e-01" nType="0">
          <Node pos="l" depth="2" NCoef="0" IVar="-1" Cut="0.0000000000000000e+00" cType="1" res="1.2562162009999156e-04" rms="4.6254882216453552e-01" purity="4.9890193343162537e-01" nType="-99"/>
          <Node pos="r" depth="2" NCoef="0" IVar="-1" Cut="0.0000000000000000e+00" cType="1" res="1.6093900194391608e-03" rms="4.5176807045936584e-01" purity="6.2197047472000122e-01" nType="-99"/>
        </Node>
      </Node>
    </BinaryTree>
    <BinaryTree type="DecisionTree" boostWeight="1.0000000000000000e+00" itree="554">
      <Node pos="s" depth="0" NCoef="0" IVar="1" Cut="2.0573148727416992e+00" cType="1" res="3.8338392041623592e-03" rms="4.5928263664245605e-01" purity="5.0144362449645996e-01" nType="0">
        <Node pos="l" depth="1" NCoef="0" IVar="5" Cut="5.0967387855052948e-02" cType="1" res="-3.4480944741517305e-03" rms="4.6835815906524658e-01" purity="4.4551202654838562e-01" nType="0">
          <Node pos="l" depth="2" NCoef="0" IVar="-1" Cut="0.0000000000000000e+00" cType="1" res="-2.9461868689395487e-04" rms="4.6616172790527344e-01" purity="4.4077399373054504e-01" nType="-99"/>
          <Node pos="r" depth="2" NCoef="0" IVar="-1" Cut="0.0000000000000000e+00" cType="1" res="8.6020882008597255e-04" rms="4.7827714681625366e-01" purity="4.7046950459480286e-01" nType="-99"/>
        </Node>
        <Node pos="r" depth="1" NCoef="0" IVar="4" Cut="1.6707989501953125e+02" cType="1" res="3.9218015968799591e-02" rms="4.1051462292671204e-01" purity="7.7322477102279663e-01" nType="0">
          <Node pos="l" depth="2" NCoef="0" IVar="-1" Cut="0.0000000000000000e+00" cType="1" res="5.4053839994594455e-04" rms="4.2660862207412720e-01" purity="7.4223309755325317e-01" nType="-99"/>
          <Node pos="r" depth="2" NCoef="0" IVar="-1" Cut="0.0000000000000000e+00" cType="1" res="1.2305055279284716e-03" rms="3.9530512690544128e-01" purity="8.0042827129364014e-01" nType="-99"/>
        </Node>
      </Node>
    </BinaryTree>
    <BinaryTree type="DecisionTree" boostWeight="1.0000000000000000e+00" itree="555">
      <Node pos="s" depth="0" NCoef="0" IVar="8" Cut="4.0722551941871643e-01" cType="1" res="4.3536601588129997e-03" rms="4.6078631281852722e-01" purity="5.0192892551422119e-01" nType="0">
        <Node pos="l" depth="1" NCoef="0" IVar="0" Cut="8.0233444213867188e+01" cType="1" res="-1.9540889188647270e-03" rms="4.6171256899833679e-01" purity="4.8466303944587708e-01" nType="0">
          <Node pos="l" depth="2" NCoef="0" IVar="-1" Cut="0.0000000000000000e+00" cType="1" res="-1.1163238668814301e-03" rms="4.6143701672554016e-01" purity="4.6523734927177429e-01" nType="-99"/>
          <Node pos="r" depth="2" NCoef="0" IVar="-1" Cut="0.0000000000000000e+00" cType="1" res="1.1797125625889748e-04" rms="4.6146810054779053e-01" purity="4.8776921629905701e-01" nType="-99"/>
        </Node>
        <Node pos="r" depth="1" NCoef="0" IVar="6" Cut="9.5995521545410156e-01" cType="1" res="4.5846384018659592e-02" rms="4.5245987176895142e-01" purity="6.1550503969192505e-01" nType="0">
          <Node pos="l" depth="2" NCoef="0" IVar="-1" Cut="0.0000000000000000e+00" cType="1" res="1.5671995934098959e-03" rms="4.6098995208740234e-01" purity="6.1432194709777832e-01" nType="-99"/>
          <Node pos="r" depth="2" NCoef="0" IVar="-1" Cut="0.0000000000000000e+00" cType="1" res="6.5327703487128019e-04" rms="4.4263142347335815e-01" purity="6.1671930551528931e-01" nType="-99"/>
        </Node>
      </Node>
    </BinaryTree>
    <BinaryTree type="DecisionTree" boostWeight="1.0000000000000000e+00" itree="556">
      <Node pos="s" depth="0" NCoef="0" IVar="4" Cut="3.2111996459960938e+02" cType="1" res="-1.1953812791034579e-03" rms="4.6427538990974426e-01" purity="4.9399435520172119e-01" nType="0">
        <Node pos="l" depth="1" NCoef="0" IVar="5" Cut="6.1897117644548416e-02" cType="1" res="-6.3377358019351959e-03" rms="4.6353590488433838e-01" purity="4.8084747791290283e-01" nType="0">
          <Node pos="l" depth="2" NCoef="0" IVar="-1" Cut="0.0000000000000000e+00" cType="1" res="-3.3731517032720149e-04" rms="4.6118196845054626e-01" purity="4.7713345289230347e-01" nType="-99"/>
          <Node pos="r" depth="2" NCoef="0" IVar="-1" Cut="0.0000000000000000e+00" cType="1" res="8.4469211287796497e-04" rms="4.7783631086349487e-01" purity="5.0653976202011108e-01" nType="-99"/>
        </Node>
        <Node pos="r" depth="1" NCoef="0" IVar="-1" Cut="0.0000000000000000e+00" cType="1" res="1.0047033429145813e-03" rms="4.6820816397666931e-01" purity="6.0394793748855591e-01" nType="-99"/>
      </Node>
    </BinaryTree>
    <BinaryTree type="DecisionTree" boostWeight="1.0000000000000000e+00" itree="557">
      <Node pos="s" depth="0" NCoef="0" IVar="0" Cut="9.7674392700195312e+01" cType="1" res="2.3724173661321402e-04" rms="4.6134468913078308e-01" purity="4.9790951609611511e-01" nType="0">
        <Node pos="l" depth="1" NCoef="0" IVar="1" Cut="5.6665545701980591e-01" cType="1" res="-3.2162424176931381e-02" rms="4.6138596534729004e-01" purity="4.8136380314826965e-01" nType="0">
          <Node pos="l" depth="2" NCoef="0" IVar="-1" Cut="0.0000000000000000e+00" cType="1" res="-1.8678433261811733e-03" rms="4.6066686511039734e-01" purity="3.3950543403625488e-01" nType="-99"/>
          <Node pos="r" depth="2" NCoef="0" IVar="-1" Cut="0.0000000000000000e+00" cType="1" res="-1.4606997137889266e-04" rms="4.6089863777160645e-01" purity="6.4968377351760864e-01" nType="-99"/>
        </Node>
        <Node pos="r" depth="1" NCoef="0" IVar="0" Cut="1.3500280761718750e+02" cType="1" res="9.7624026238918304e-03" rms="4.6089956164360046e-01" purity="5.0277382135391235e-01" nType="0">
          <Node pos="l" depth="2" NCoef="0" IVar="-1" Cut="0.0000000000000000e+00" cType="1" res="9.5467735081911087e-04" rms="4.5406487584114075e-01" purity="5.6364428997039795e-01" nType="-99"/>
          <Node pos="r" depth="2" NCoef="0" IVar="-1" Cut="0.0000000000000000e+00" cType="1" res="-6.0476504586404189e-05" rms="4.6334886550903320e-01" purity="4.7623077034950256e-01" nType="-99"/>
        </Node>
      </Node>
    </BinaryTree>
    <BinaryTree type="DecisionTree" boostWeight="1.0000000000000000e+00" itree="558">
      <Node pos="s" depth="0" NCoef="0" IVar="6" Cut="9.4326108694076538e-01" cType="1" res="3.6223044153302908e-03" rms="4.6154582500457764e-01" purity="4.9936383962631226e-01" nType="0">
        <Node pos="l" depth="1" NCoef="0" IVar="5" Cut="5.0032563507556915e-02" cType="1" res="-2.4473456665873528e-02" rms="4.5881092548370361e-01" purity="4.4551327824592590e-01" nType="0">
          <Node pos="l" depth="2" NCoef="0" IVar="-1" Cut="0.0000000000000000e+00" cType="1" res="-1.0435536969453096e-03" rms="4.5487639307975769e-01" purity="4.3583205342292786e-01" nType="-99"/>
          <Node pos="r" depth="2" NCoef="0" IVar="-1" Cut="0.0000000000000000e+00" cType="1" res="7.5237679993733764e-04" rms="4.7399225831031799e-01" purity="4.9234399199485779e-01" nType="-99"/>
        </Node>
        <Node pos="r" depth="1" NCoef="0" IVar="3" Cut="1.4371433258056641e+00" cType="1" res="1.6825845465064049e-02" rms="4.6223601698875427e-01" purity="5.2467077970504761e-01" nType="0">
          <Node pos="l" depth="2" NCoef="0" IVar="-1" Cut="0.0000000000000000e+00" cType="1" res="1.1140421265736222e-03" rms="4.4730669260025024e-01" purity="6.2409353256225586e-01" nType="-99"/>
          <Node pos="r" depth="2" NCoef="0" IVar="-1" Cut="0.0000000000000000e+00" cType="1" res="2.3691481328569353e-04" rms="4.6616095304489136e-01" purity="4.9569535255432129e-01" nType="-99"/>
        </Node>
      </Node>
    </BinaryTree>
    <BinaryTree type="DecisionTree" boostWeight="1.0000000000000000e+00" itree="559">
      <Node pos="s" depth="0" NCoef="0" IVar="0" Cut="9.5899772644042969e+01" cType="1" res="6.8079479970037937e-03" rms="4.5866525173187256e-01" purity="5.0549572706222534e-01" nType="0">
        <Node pos="l" depth="1" NCoef="0" IVar="1" Cut="-2.3301364481449127e-01" cType="1" res="-2.4053193628787994e-02" rms="4.5807951688766479e-01" purity="4.8934048414230347e-01" nType="0">
          <Node pos="l" depth="2" NCoef="0" IVar="-1" Cut="0.0000000000000000e+00" cType="1" res="-2.2604372352361679e-03" rms="4.4333872199058533e-01" purity="2.9254430532455444e-01" nType="-99"/>
          <Node pos="r" depth="2" NCoef="0" IVar="-1" Cut="0.0000000000000000e+00" cType="1" res="-1.0949774150503799e-04" rms="4.6549519896507263e-01" purity="6.0585987567901611e-01" nType="-99"/>
        </Node>
        <Node pos="r" depth="1" NCoef="0" IVar="3" Cut="1.4243471622467041e+00" cType="1" res="1.5041884034872055e-02" rms="4.5847049355506897e-01" purity="5.0980603694915771e-01" nType="0">
          <Node pos="l" depth="2" NCoef="0" IVar="-1" Cut="0.0000000000000000e+00" cType="1" res="1.7137649701908231e-03" rms="4.3645760416984558e-01" purity="7.0624738931655884e-01" nType="-99"/>
          <Node pos="r" depth="2" NCoef="0" IVar="-1" Cut="0.0000000000000000e+00" cType="1" res="2.1357345394790173e-04" rms="4.6061909198760986e-01" purity="4.8510038852691650e-01" nType="-99"/>
        </Node>
      </Node>
    </BinaryTree>
    <BinaryTree type="DecisionTree" boostWeight="1.0000000000000000e+00" itree="560">
      <Node pos="s" depth="0" NCoef="0" IVar="4" Cut="1.9840052795410156e+02" cType="1" res="-8.2736433250829577e-04" rms="4.5925769209861755e-01" purity="4.9675199389457703e-01" nType="0">
        <Node pos="l" depth="1" NCoef="0" IVar="1" Cut="4.5016300678253174e-01" cType="1" res="-1.2896862812340260e-02" rms="4.5798170566558838e-01" purity="4.5761257410049438e-01" nType="0">
          <Node pos="l" depth="2" NCoef="0" IVar="-1" Cut="0.0000000000000000e+00" cType="1" res="-1.1167973279953003e-03" rms="4.5011144876480103e-01" purity="3.2132267951965332e-01" nType="-99"/>
          <Node pos="r" depth="2" NCoef="0" IVar="-1" Cut="0.0000000000000000e+00" cType="1" res="1.8414411169942468e-04" rms="4.6659973263740540e-01" purity="6.2451744079589844e-01" nType="-99"/>
        </Node>
        <Node pos="r" depth="1" NCoef="0" IVar="8" Cut="3.8262727856636047e-01" cType="1" res="2.3510143160820007e-02" rms="4.6085962653160095e-01" purity="5.7567453384399414e-01" nType="0">
          <Node pos="l" depth="2" NCoef="0" IVar="-1" Cut="0.0000000000000000e+00" cType="1" res="2.6365625672042370e-04" rms="4.6795576810836792e-01" purity="5.3601610660552979e-01" nType="-99"/>
          <Node pos="r" depth="2" NCoef="0" IVar="-1" Cut="0.0000000000000000e+00" cType="1" res="9.8263123072683811e-04" rms="4.5111429691314697e-01" purity="6.2601548433303833e-01" nType="-99"/>
        </Node>
      </Node>
    </BinaryTree>
    <BinaryTree type="DecisionTree" boostWeight="1.0000000000000000e+00" itree="561">
      <Node pos="s" depth="0" NCoef="0" IVar="0" Cut="6.6449226379394531e+01" cType="1" res="4.7844581422396004e-04" rms="4.6042457222938538e-01" purity="4.9646034836769104e-01" nType="0">
        <Node pos="l" depth="1" NCoef="0" IVar="-1" Cut="0.0000000000000000e+00" cType="1" res="-1.4419142389670014e-03" rms="4.6270111203193665e-01" purity="4.5592775940895081e-01" nType="-99"/>
        <Node pos="r" depth="1" NCoef="0" IVar="0" Cut="1.5753228759765625e+02" cType="1" res="4.7494801692664623e-03" rms="4.5997801423072815e-01" purity="4.9995419383049011e-01" nType="0">
          <Node pos="l" depth="2" NCoef="0" IVar="-1" Cut="0.0000000000000000e+00" cType="1" res="4.8526690807193518e-04" rms="4.6166157722473145e-01" purity="5.3572046756744385e-01" nType="-99"/>
          <Node pos="r" depth="2" NCoef="0" IVar="-1" Cut="0.0000000000000000e+00" cType="1" res="-3.1425635097548366e-04" rms="4.5756939053535461e-01" purity="4.5930051803588867e-01" nType="-99"/>
        </Node>
      </Node>
    </BinaryTree>
    <BinaryTree type="DecisionTree" boostWeight="1.0000000000000000e+00" itree="562">
      <Node pos="s" depth="0" NCoef="0" IVar="0" Cut="1.6890740966796875e+02" cType="1" res="-3.4473408013582230e-03" rms="4.5898818969726562e-01" purity="4.9489530920982361e-01" nType="0">
        <Node pos="l" depth="1" NCoef="0" IVar="8" Cut="3.8448241353034973e-01" cType="1" res="9.3493191525340080e-03" rms="4.6032503247261047e-01" purity="5.2636545896530151e-01" nType="0">
          <Node pos="l" depth="2" NCoef="0" IVar="-1" Cut="0.0000000000000000e+00" cType="1" res="-4.0804091258905828e-04" rms="4.6270468831062317e-01" purity="4.8117035627365112e-01" nType="-99"/>
          <Node pos="r" depth="2" NCoef="0" IVar="-1" Cut="0.0000000000000000e+00" cType="1" res="6.4922490855678916e-04" rms="4.5811504125595093e-01" purity="5.5572599172592163e-01" nType="-99"/>
        </Node>
        <Node pos="r" depth="1" NCoef="0" IVar="4" Cut="1.3180953979492188e+02" cType="1" res="-2.4382743984460831e-02" rms="4.5601898431777954e-01" purity="4.4340994954109192e-01" nType="0">
          <Node pos="l" depth="2" NCoef="0" IVar="-1" Cut="0.0000000000000000e+00" cType="1" res="-3.0786078423261642e-03" rms="4.1862037777900696e-01" purity="3.0025750398635864e-01" nType="-99"/>
          <Node pos="r" depth="2" NCoef="0" IVar="-1" Cut="0.0000000000000000e+00" cType="1" res="-2.7966260677203536e-04" rms="4.6450737118721008e-01" purity="4.8204576969146729e-01" nType="-99"/>
        </Node>
      </Node>
    </BinaryTree>
    <BinaryTree type="DecisionTree" boostWeight="1.0000000000000000e+00" itree="563">
      <Node pos="s" depth="0" NCoef="0" IVar="5" Cut="-4.3912269175052643e-02" cType="1" res="-1.8399861874058843e-03" rms="4.6152475476264954e-01" purity="4.9281340837478638e-01" nType="0">
        <Node pos="l" depth="1" NCoef="0" IVar="2" Cut="6.4986997842788696e-01" cType="1" res="-3.4651484340429306e-02" rms="4.4930902123451233e-01" purity="4.3731203675270081e-01" nType="0">
          <Node pos="l" depth="2" NCoef="0" IVar="-1" Cut="0.0000000000000000e+00" cType="1" res="-2.1042290609329939e-03" rms="4.4887310266494751e-01" purity="3.6760270595550537e-01" nType="-99"/>
          <Node pos="r" depth="2" NCoef="0" IVar="-1" Cut="0.0000000000000000e+00" cType="1" res="4.6645133988931775e-04" rms="4.4549804925918579e-01" purity="5.7331728935241699e-01" nType="-99"/>
        </Node>
        <Node pos="r" depth="1" NCoef="0" IVar="6" Cut="9.5880001783370972e-01" cType="1" res="6.8628974258899689e-03" rms="4.6432206034660339e-01" purity="5.0753450393676758e-01" nType="0">
          <Node pos="l" depth="2" NCoef="0" IVar="-1" Cut="0.0000000000000000e+00" cType="1" res="-2.2687150340061635e-04" rms="4.6671634912490845e-01" purity="4.7236710786819458e-01" nType="-99"/>
          <Node pos="r" depth="2" NCoef="0" IVar="-1" Cut="0.0000000000000000e+00" cType="1" res="5.4671667749062181e-04" rms="4.6176797151565552e-01" purity="5.3894168138504028e-01" nType="-99"/>
        </Node>
      </Node>
    </BinaryTree>
    <BinaryTree type="DecisionTree" boostWeight="1.0000000000000000e+00" itree="564">
      <Node pos="s" depth="0" NCoef="0" IVar="0" Cut="1.6919740295410156e+02" cType="1" res="3.4717114176601171e-03" rms="4.6286642551422119e-01" purity="5.0025761127471924e-01" nType="0">
        <Node pos="l" depth="1" NCoef="0" IVar="0" Cut="8.4531341552734375e+01" cType="1" res="1.3172405771911144e-02" rms="4.6335190534591675e-01" purity="5.2931606769561768e-01" nType="0">
          <Node pos="l" depth="2" NCoef="0" IVar="-1" Cut="0.0000000000000000e+00" cType="1" res="-8.5181515896692872e-04" rms="4.6210616827011108e-01" purity="4.8059591650962830e-01" nType="-99"/>
          <Node pos="r" depth="2" NCoef="0" IVar="-1" Cut="0.0000000000000000e+00" cType="1" res="7.2860374348238111e-04" rms="4.6285903453826904e-01" purity="5.4581981897354126e-01" nType="-99"/>
        </Node>
        <Node pos="r" depth="1" NCoef="0" IVar="4" Cut="2.0485643005371094e+02" cType="1" res="-1.2717449106276035e-02" rms="4.6160128712654114e-01" purity="4.5176279544830322e-01" nType="0">
          <Node pos="l" depth="2" NCoef="0" IVar="-1" Cut="0.0000000000000000e+00" cType="1" res="-8.4325211355462670e-04" rms="4.5358899235725403e-01" purity="4.0687215328216553e-01" nType="-99"/>
          <Node pos="r" depth="2" NCoef="0" IVar="-1" Cut="0.0000000000000000e+00" cType="1" res="2.0490049791987985e-04" rms="4.7276902198791504e-01" purity="5.1988071203231812e-01" nType="-99"/>
        </Node>
      </Node>
    </BinaryTree>
    <BinaryTree type="DecisionTree" boostWeight="1.0000000000000000e+00" itree="565">
      <Node pos="s" depth="0" NCoef="0" IVar="1" Cut="1.8487646579742432e+00" cType="1" res="5.2390052005648613e-03" rms="4.5912992954254150e-01" purity="5.0369912385940552e-01" nType="0">
        <Node pos="l" depth="1" NCoef="0" IVar="4" Cut="3.3660491943359375e+02" cType="1" res="-3.8383002392947674e-03" rms="4.6888604760169983e-01" purity="4.3502172827720642e-01" nType="0">
          <Node pos="l" depth="2" NCoef="0" IVar="-1" Cut="0.0000000000000000e+00" cType="1" res="-2.9838652699254453e-04" rms="4.6716892719268799e-01" purity="4.2252320051193237e-01" nType="-99"/>
          <Node pos="r" depth="2" NCoef="0" IVar="-1" Cut="0.0000000000000000e+00" cType="1" res="1.4130467316135764e-03" rms="4.8216080665588379e-01" purity="5.6686604022979736e-01" nType="-99"/>
        </Node>
        <Node pos="r" depth="1" NCoef="0" IVar="9" Cut="6.9340117275714874e-02" cType="1" res="3.9303880184888840e-02" rms="4.1875272989273071e-01" purity="7.6142835617065430e-01" nType="0">
          <Node pos="l" depth="2" NCoef="0" IVar="-1" Cut="0.0000000000000000e+00" cType="1" res="1.1359826894477010e-03" rms="4.2428514361381531e-01" purity="7.4947863817214966e-01" nType="-99"/>
          <Node pos="r" depth="2" NCoef="0" IVar="-1" Cut="0.0000000000000000e+00" cType="1" res="6.1298563377931714e-04" rms="4.1303271055221558e-01" purity="7.7266407012939453e-01" nType="-99"/>
        </Node>
      </Node>
    </BinaryTree>
    <BinaryTree type="DecisionTree" boostWeight="1.0000000000000000e+00" itree="566">
      <Node pos="s" depth="0" NCoef="0" IVar="6" Cut="9.7779750823974609e-01" cType="1" res="-1.4054710045456886e-03" rms="4.6076130867004395e-01" purity="4.9407210946083069e-01" nType="0">
        <Node pos="l" depth="1" NCoef="0" IVar="9" Cut="3.7869613617658615e-02" cType="1" res="-1.4062744565308094e-02" rms="4.6217676997184753e-01" purity="4.6816673874855042e-01" nType="0">
          <Node pos="l" depth="2" NCoef="0" IVar="-1" Cut="0.0000000000000000e+00" cType="1" res="-1.5126048820093274e-03" rms="4.5886340737342834e-01" purity="4.0462183952331543e-01" nType="-99"/>
          <Node pos="r" depth="2" NCoef="0" IVar="-1" Cut="0.0000000000000000e+00" cType="1" res="-1.4578584523405880e-04" rms="4.6264183521270752e-01" purity="4.8505795001983643e-01" nType="-99"/>
        </Node>
        <Node pos="r" depth="1" NCoef="0" IVar="7" Cut="-2.0492052659392357e-02" cType="1" res="2.4219624698162079e-02" rms="4.5680972933769226e-01" purity="5.4651850461959839e-01" nType="0">
          <Node pos="l" depth="2" NCoef="0" IVar="-1" Cut="0.0000000000000000e+00" cType="1" res="1.4290085528045893e-03" rms="4.5647197961807251e-01" purity="6.1017090082168579e-01" nType="-99"/>
          <Node pos="r" depth="2" NCoef="0" IVar="-1" Cut="0.0000000000000000e+00" cType="1" res="4.1334427078254521e-04" rms="4.5647332072257996e-01" purity="5.2947431802749634e-01" nType="-99"/>
        </Node>
      </Node>
    </BinaryTree>
    <BinaryTree type="DecisionTree" boostWeight="1.0000000000000000e+00" itree="567">
      <Node pos="s" depth="0" NCoef="0" IVar="0" Cut="8.4738708496093750e+01" cType="1" res="5.2791535854339600e-03" rms="4.6118697524070740e-01" purity="4.9769112467765808e-01" nType="0">
        <Node pos="l" depth="1" NCoef="0" IVar="1" Cut="3.8255196809768677e-01" cType="1" res="-4.8144634813070297e-02" rms="4.5469611883163452e-01" purity="4.6087557077407837e-01" nType="0">
          <Node pos="l" depth="2" NCoef="0" IVar="-1" Cut="0.0000000000000000e+00" cType="1" res="-3.2619561534374952e-03" rms="4.3745094537734985e-01" purity="2.9288929700851440e-01" nType="-99"/>
          <Node pos="r" depth="2" NCoef="0" IVar="-1" Cut="0.0000000000000000e+00" cType="1" res="-2.4627675884403288e-04" rms="4.6795722842216492e-01" purity="6.2559616565704346e-01" nType="-99"/>
        </Node>
        <Node pos="r" depth="1" NCoef="0" IVar="3" Cut="1.3231352567672729e+00" cType="1" res="1.4647684060037136e-02" rms="4.6167919039726257e-01" purity="5.0414723157882690e-01" nType="0">
          <Node pos="l" depth="2" NCoef="0" IVar="-1" Cut="0.0000000000000000e+00" cType="1" res="1.6086412360891700e-03" rms="4.4032028317451477e-01" purity="6.8713951110839844e-01" nType="-99"/>
          <Node pos="r" depth="2" NCoef="0" IVar="-1" Cut="0.0000000000000000e+00" cType="1" res="2.5747471954673529e-04" rms="4.6349126100540161e-01" purity="4.8508754372596741e-01" nType="-99"/>
        </Node>
      </Node>
    </BinaryTree>
    <BinaryTree type="DecisionTree" boostWeight="1.0000000000000000e+00" itree="568">
      <Node pos="s" depth="0" NCoef="0" IVar="5" Cut="-3.6676943302154541e-02" cType="1" res="2.4883631795091787e-06" rms="4.6119752526283264e-01" purity="4.9659499526023865e-01" nType="0">
        <Node pos="l" depth="1" NCoef="0" IVar="2" Cut="4.9905651807785034e-01" cType="1" res="-2.3044012486934662e-02" rms="4.5784926414489746e-01" purity="4.5205411314964294e-01" nType="0">
          <Node pos="l" depth="2" NCoef="0" IVar="-1" Cut="0.0000000000000000e+00" cType="1" res="-2.3679165169596672e-03" rms="4.4502314925193787e-01" purity="3.3993613719940186e-01" nType="-99"/>
          <Node pos="r" depth="2" NCoef="0" IVar="-1" Cut="0.0000000000000000e+00" cType="1" res="-1.5216275642160326e-04" rms="4.6155637502670288e-01" purity="4.9587002396583557e-01" nType="-99"/>
        </Node>
        <Node pos="r" depth="1" NCoef="0" IVar="1" Cut="-1.8345950841903687e+00" cType="1" res="8.1900246441364288e-03" rms="4.6210455894470215e-01" purity="5.1241868734359741e-01" nType="0">
          <Node pos="l" depth="2" NCoef="0" IVar="-1" Cut="0.0000000000000000e+00" cType="1" res="-2.1928930655121803e-03" rms="4.2109203338623047e-01" purity="2.3795318603515625e-01" nType="-99"/>
          <Node pos="r" depth="2" NCoef="0" IVar="-1" Cut="0.0000000000000000e+00" cType="1" res="3.3635710133239627e-04" rms="4.6554571390151978e-01" purity="5.3847604990005493e-01" nType="-99"/>
        </Node>
      </Node>
    </BinaryTree>
    <BinaryTree type="DecisionTree" boostWeight="1.0000000000000000e+00" itree="569">
      <Node pos="s" depth="0" NCoef="0" IVar="6" Cut="9.2766433954238892e-01" cType="1" res="9.2868460342288017e-03" rms="4.6063533425331116e-01" purity="5.0647187232971191e-01" nType="0">
        <Node pos="l" depth="1" NCoef="0" IVar="9" Cut="7.7655702829360962e-02" cType="1" res="-2.2837422788143158e-02" rms="4.5953914523124695e-01" purity="4.4020599126815796e-01" nType="0">
          <Node pos="l" depth="2" NCoef="0" IVar="-1" Cut="0.0000000000000000e+00" cType="1" res="-1.2465477921068668e-03" rms="4.5475333929061890e-01" purity="3.9907428622245789e-01" nType="-99"/>
          <Node pos="r" depth="2" NCoef="0" IVar="-1" Cut="0.0000000000000000e+00" cType="1" res="-7.6521806477103382e-05" rms="4.6384605765342712e-01" purity="4.8482689261436462e-01" nType="-99"/>
        </Node>
        <Node pos="r" depth="1" NCoef="0" IVar="4" Cut="1.4694143676757812e+02" cType="1" res="1.6441371291875839e-02" rms="4.6057415008544922e-01" purity="5.2123028039932251e-01" nType="0">
          <Node pos="l" depth="2" NCoef="0" IVar="-1" Cut="0.0000000000000000e+00" cType="1" res="-1.5628267647116445e-05" rms="4.5750615000724792e-01" purity="4.6034762263298035e-01" nType="-99"/>
          <Node pos="r" depth="2" NCoef="0" IVar="-1" Cut="0.0000000000000000e+00" cType="1" res="7.7192945173010230e-04" rms="4.6259024739265442e-01" purity="5.7059001922607422e-01" nType="-99"/>
        </Node>
      </Node>
    </BinaryTree>
    <BinaryTree type="DecisionTree" boostWeight="1.0000000000000000e+00" itree="570">
      <Node pos="s" depth="0" NCoef="0" IVar="8" Cut="4.1265642642974854e-01" cType="1" res="7.7965911477804184e-03" rms="4.6326959133148193e-01" purity="5.0583153963088989e-01" nType="0">
        <Node pos="l" depth="1" NCoef="0" IVar="6" Cut="9.0973985195159912e-01" cType="1" res="3.7009671796113253e-03" rms="4.6380189061164856e-01" purity="4.9490132927894592e-01" nType="0">
          <Node pos="l" depth="2" NCoef="0" IVar="-1" Cut="0.0000000000000000e+00" cType="1" res="-1.0434393770992756e-03" rms="4.6324011683464050e-01" purity="4.1591933369636536e-01" nType="-99"/>
          <Node pos="r" depth="2" NCoef="0" IVar="-1" Cut="0.0000000000000000e+00" cType="1" res="1.9403970509301871e-04" rms="4.6370458602905273e-01" purity="5.0160843133926392e-01" nType="-99"/>
        </Node>
        <Node pos="r" depth="1" NCoef="0" IVar="-1" Cut="0.0000000000000000e+00" cType="1" res="1.3963915407657623e-03" rms="4.5333439111709595e-01" purity="6.4372354745864868e-01" nType="-99"/>
      </Node>
    </BinaryTree>
    <BinaryTree type="DecisionTree" boostWeight="1.0000000000000000e+00" itree="571">
      <Node pos="s" depth="0" NCoef="0" IVar="3" Cut="1.5128630399703979e+00" cType="1" res="4.6570021659135818e-03" rms="4.5999094843864441e-01" purity="5.0155293941497803e-01" nType="0">
        <Node pos="l" depth="1" NCoef="0" IVar="0" Cut="1.1060860443115234e+02" cType="1" res="2.8560496866703033e-02" rms="4.5501419901847839e-01" purity="5.9326183795928955e-01" nType="0">
          <Node pos="l" depth="2" NCoef="0" IVar="-1" Cut="0.0000000000000000e+00" cType="1" res="1.9473255088087171e-04" rms="4.6237057447433472e-01" purity="5.4497474431991577e-01" nType="-99"/>
          <Node pos="r" depth="2" NCoef="0" IVar="-1" Cut="0.0000000000000000e+00" cType="1" res="1.8240298377349973e-03" rms="4.3231436610221863e-01" purity="7.1079874038696289e-01" nType="-99"/>
        </Node>
        <Node pos="r" depth="1" NCoef="0" IVar="7" Cut="-4.4829986989498138e-02" cType="1" res="-3.3416813239455223e-03" rms="4.6136784553527832e-01" purity="4.7086492180824280e-01" nType="0">
          <Node pos="l" depth="2" NCoef="0" IVar="-1" Cut="0.0000000000000000e+00" cType="1" res="1.0165872517973185e-03" rms="4.5712167024612427e-01" purity="5.6380128860473633e-01" nType="-99"/>
          <Node pos="r" depth="2" NCoef="0" IVar="-1" Cut="0.0000000000000000e+00" cType="1" res="-2.0859317737631500e-04" rms="4.6154448390007019e-01" purity="4.6274524927139282e-01" nType="-99"/>
        </Node>
      </Node>
    </BinaryTree>
    <BinaryTree type="DecisionTree" boostWeight="1.0000000000000000e+00" itree="572">
      <Node pos="s" depth="0" NCoef="0" IVar="3" Cut="8.1356847286224365e-01" cType="1" res="1.3500563800334930e-03" rms="4.6032947301864624e-01" purity="5.0006031990051270e-01" nType="0">
        <Node pos="l" depth="1" NCoef="0" IVar="-1" Cut="0.0000000000000000e+00" cType="1" res="1.3620901154354215e-03" rms="4.5041579008102417e-01" purity="6.2180656194686890e-01" nType="-99"/>
        <Node pos="r" depth="1" NCoef="0" IVar="0" Cut="1.6995745849609375e+02" cType="1" res="-2.7153126429766417e-03" rms="4.6075737476348877e-01" purity="4.9139264225959778e-01" nType="0">
          <Node pos="l" depth="2" NCoef="0" IVar="-1" Cut="0.0000000000000000e+00" cType="1" res="2.2874794376548380e-04" rms="4.6115025877952576e-01" purity="5.2163630723953247e-01" nType="-99"/>
          <Node pos="r" depth="2" NCoef="0" IVar="-1" Cut="0.0000000000000000e+00" cType="1" res="-5.9738126583397388e-04" rms="4.5964452624320984e-01" purity="4.4537648558616638e-01" nType="-99"/>
        </Node>
      </Node>
    </BinaryTree>
    <BinaryTree type="DecisionTree" boostWeight="1.0000000000000000e+00" itree="573">
      <Node pos="s" depth="0" NCoef="0" IVar="0" Cut="2.4304731750488281e+02" cType="1" res="4.6605970710515976e-03" rms="4.6321251988410950e-01" purity="4.9975776672363281e-01" nType="0">
        <Node pos="l" depth="1" NCoef="0" IVar="0" Cut="8.5009399414062500e+01" cType="1" res="1.0712206363677979e-02" rms="4.6443948149681091e-01" purity="5.1405423879623413e-01" nType="0">
          <Node pos="l" depth="2" NCoef="0" IVar="-1" Cut="0.0000000000000000e+00" cType="1" res="-6.6196877742186189e-04" rms="4.6963864564895630e-01" purity="4.8180419206619263e-01" nType="-99"/>
          <Node pos="r" depth="2" NCoef="0" IVar="-1" Cut="0.0000000000000000e+00" cType="1" res="5.1173887914046645e-04" rms="4.6280807256698608e-01" purity="5.2177679538726807e-01" nType="-99"/>
        </Node>
        <Node pos="r" depth="1" NCoef="0" IVar="4" Cut="1.8619116210937500e+02" cType="1" res="-2.3214343935251236e-02" rms="4.5648375153541565e-01" purity="4.3390524387359619e-01" nType="0">
          <Node pos="l" depth="2" NCoef="0" IVar="-1" Cut="0.0000000000000000e+00" cType="1" res="-2.2959713824093342e-03" rms="4.3213999271392822e-01" purity="3.3211621642112732e-01" nType="-99"/>
          <Node pos="r" depth="2" NCoef="0" IVar="-1" Cut="0.0000000000000000e+00" cType="1" res="1.8113383703166619e-05" rms="4.6905207633972168e-01" purity="4.9572163820266724e-01" nType="-99"/>
        </Node>
      </Node>
    </BinaryTree>
    <BinaryTree type="DecisionTree" boostWeight="1.0000000000000000e+00" itree="574">
      <Node pos="s" depth="0" NCoef="0" IVar="5" Cut="-3.7262294441461563e-02" cType="1" res="6.8938401527702808e-03" rms="4.6094897389411926e-01" purity="5.0398766994476318e-01" nType="0">
        <Node pos="l" depth="1" NCoef="0" IVar="7" Cut="2.9401183128356934e-02" cType="1" res="-1.8536679446697235e-02" rms="4.5238634943962097e-01" purity="4.5763537287712097e-01" nType="0">
          <Node pos="l" depth="2" NCoef="0" IVar="-1" Cut="0.0000000000000000e+00" cType="1" res="6.9529382744804025e-04" rms="4.5606678724288940e-01" purity="5.3466385602951050e-01" nType="-99"/>
          <Node pos="r" depth="2" NCoef="0" IVar="-1" Cut="0.0000000000000000e+00" cType="1" res="-1.5093667898327112e-03" rms="4.4770857691764832e-01" purity="4.0837046504020691e-01" nType="-99"/>
        </Node>
        <Node pos="r" depth="1" NCoef="0" IVar="7" Cut="7.9736895859241486e-02" cType="1" res="1.5503250993788242e-02" rms="4.6349596977233887e-01" purity="5.1968008279800415e-01" nType="0">
          <Node pos="l" depth="2" NCoef="0" IVar="-1" Cut="0.0000000000000000e+00" cType="1" res="1.2111413525417447e-04" rms="4.6264353394508362e-01" purity="5.2294820547103882e-01" nType="-99"/>
          <Node pos="r" depth="2" NCoef="0" IVar="-1" Cut="0.0000000000000000e+00" cType="1" res="1.1246684007346630e-03" rms="4.6446016430854797e-01" purity="5.1191520690917969e-01" nType="-99"/>
        </Node>
      </Node>
    </BinaryTree>
    <BinaryTree type="DecisionTree" boostWeight="1.0000000000000000e+00" itree="575">
      <Node pos="s" depth="0" NCoef="0" IVar="3" Cut="8.0555146932601929e-01" cType="1" res="1.4306904049590230e-03" rms="4.6195888519287109e-01" purity="4.9735733866691589e-01" nType="0">
        <Node pos="l" depth="1" NCoef="0" IVar="-1" Cut="0.0000000000000000e+00" cType="1" res="1.6657364321872592e-03" rms="4.5473799109458923e-01" purity="6.2606585025787354e-01" nType="-99"/>
        <Node pos="r" depth="1" NCoef="0" IVar="8" Cut="4.0460380911827087e-01" cType="1" res="-3.4951684065163136e-03" rms="4.6207618713378906e-01" purity="4.8816901445388794e-01" nType="0">
          <Node pos="l" depth="2" NCoef="0" IVar="-1" Cut="0.0000000000000000e+00" cType="1" res="-3.2657713745720685e-04" rms="4.6378558874130249e-01" purity="4.6543574333190918e-01" nType="-99"/>
          <Node pos="r" depth="2" NCoef="0" IVar="-1" Cut="0.0000000000000000e+00" cType="1" res="7.9542119055986404e-04" rms="4.5244824886322021e-01" purity="5.9288495779037476e-01" nType="-99"/>
        </Node>
      </Node>
    </BinaryTree>
    <BinaryTree type="DecisionTree" boostWeight="1.0000000000000000e+00" itree="576">
      <Node pos="s" depth="0" NCoef="0" IVar="0" Cut="1.7779461669921875e+02" cType="1" res="-2.4325207341462374e-03" rms="4.6346229314804077e-01" purity="4.9236342310905457e-01" nType="0">
        <Node pos="l" depth="1" NCoef="0" IVar="4" Cut="8.3991455078125000e+01" cType="1" res="7.9944152384996414e-03" rms="4.6369293332099915e-01" purity="5.2035135030746460e-01" nType="0">
          <Node pos="l" depth="2" NCoef="0" IVar="-1" Cut="0.0000000000000000e+00" cType="1" res="-1.4958381652832031e-03" rms="4.5162993669509888e-01" purity="3.5680875182151794e-01" nType="-99"/>
          <Node pos="r" depth="2" NCoef="0" IVar="-1" Cut="0.0000000000000000e+00" cType="1" res="3.7183714448474348e-04" rms="4.6478611230850220e-01" purity="5.4038298130035400e-01" nType="-99"/>
        </Node>
        <Node pos="r" depth="1" NCoef="0" IVar="4" Cut="2.1533912658691406e+02" cType="1" res="-2.1830778568983078e-02" rms="4.6240773797035217e-01" purity="4.4029465317726135e-01" nType="0">
          <Node pos="l" depth="2" NCoef="0" IVar="-1" Cut="0.0000000000000000e+00" cType="1" res="-1.4042593538761139e-03" rms="4.5353099703788757e-01" purity="3.8686445355415344e-01" nType="-99"/>
          <Node pos="r" depth="2" NCoef="0" IVar="-1" Cut="0.0000000000000000e+00" cType="1" res="2.9904741677455604e-04" rms="4.7461810708045959e-01" purity="5.2687156200408936e-01" nType="-99"/>
        </Node>
      </Node>
    </BinaryTree>
    <BinaryTree type="DecisionTree" boostWeight="1.0000000000000000e+00" itree="577">
      <Node pos="s" depth="0" NCoef="0" IVar="1" Cut="-1.2746186256408691e+00" cType="1" res="2.2076983004808426e-03" rms="4.5907148718833923e-01" purity="5.0089997053146362e-01" nType="0">
        <Node pos="l" depth="1" NCoef="0" IVar="8" Cut="3.8475942611694336e-01" cType="1" res="-2.6521015912294388e-02" rms="4.2893484234809875e-01" purity="2.5897336006164551e-01" nType="0">
          <Node pos="l" depth="2" NCoef="0" IVar="-1" Cut="0.0000000000000000e+00" cType="1" res="5.6013970606727526e-05" rms="4.3663826584815979e-01" purity="2.7406823635101318e-01" nType="-99"/>
          <Node pos="r" depth="2" NCoef="0" IVar="-1" Cut="0.0000000000000000e+00" cType="1" res="-2.4811241310089827e-03" rms="4.2100200057029724e-01" purity="2.4636727571487427e-01" nType="-99"/>
        </Node>
        <Node pos="r" depth="1" NCoef="0" IVar="2" Cut="7.3978489637374878e-01" cType="1" res="8.2878731191158295e-03" rms="4.6497187018394470e-01" purity="5.5210155248641968e-01" nType="0">
          <Node pos="l" depth="2" NCoef="0" IVar="-1" Cut="0.0000000000000000e+00" cType="1" res="5.3393996495287865e-05" rms="4.6969577670097351e-01" purity="5.2422291040420532e-01" nType="-99"/>
          <Node pos="r" depth="2" NCoef="0" IVar="-1" Cut="0.0000000000000000e+00" cType="1" res="8.6273608030751348e-04" rms="4.4147849082946777e-01" purity="6.8023222684860229e-01" nType="-99"/>
        </Node>
      </Node>
    </BinaryTree>
    <BinaryTree type="DecisionTree" boostWeight="1.0000000000000000e+00" itree="578">
      <Node pos="s" depth="0" NCoef="0" IVar="3" Cut="1.3494852781295776e+00" cType="1" res="8.0073839053511620e-03" rms="4.6205475926399231e-01" purity="5.0592249631881714e-01" nType="0">
        <Node pos="l" depth="1" NCoef="0" IVar="0" Cut="8.9618339538574219e+01" cType="1" res="3.7045639008283615e-02" rms="4.5653221011161804e-01" purity="6.0389900207519531e-01" nType="0">
          <Node pos="l" depth="2" NCoef="0" IVar="-1" Cut="0.0000000000000000e+00" cType="1" res="1.9853493722621351e-04" rms="4.6694651246070862e-01" purity="5.3335285186767578e-01" nType="-99"/>
          <Node pos="r" depth="2" NCoef="0" IVar="-1" Cut="0.0000000000000000e+00" cType="1" res="1.8270970322191715e-03" rms="4.3781700730323792e-01" purity="7.0473760366439819e-01" nType="-99"/>
        </Node>
        <Node pos="r" depth="1" NCoef="0" IVar="9" Cut="1.9124190509319305e-01" cType="1" res="6.4555415883660316e-04" rms="4.6315518021583557e-01" purity="4.8108333349227905e-01" nType="0">
          <Node pos="l" depth="2" NCoef="0" IVar="-1" Cut="0.0000000000000000e+00" cType="1" res="-9.4407128926832229e-05" rms="4.6361449360847473e-01" purity="4.7023603320121765e-01" nType="-99"/>
          <Node pos="r" depth="2" NCoef="0" IVar="-1" Cut="0.0000000000000000e+00" cType="1" res="9.6805056091398001e-04" rms="4.5725613832473755e-01" purity="5.8224606513977051e-01" nType="-99"/>
        </Node>
      </Node>
    </BinaryTree>
    <BinaryTree type="DecisionTree" boostWeight="1.0000000000000000e+00" itree="579">
      <Node pos="s" depth="0" NCoef="0" IVar="0" Cut="1.7444157409667969e+02" cType="1" res="-3.2613219227641821e-03" rms="4.5971366763114929e-01" purity="4.9394285678863525e-01" nType="0">
        <Node pos="l" depth="1" NCoef="0" IVar="0" Cut="1.0151644134521484e+02" cType="1" res="9.6688475459814072e-03" rms="4.6144697070121765e-01" purity="5.2469038963317871e-01" nType="0">
          <Node pos="l" depth="2" NCoef="0" IVar="-1" Cut="0.0000000000000000e+00" cType="1" res="-3.6162830656394362e-04" rms="4.6005788445472717e-01" purity="5.0268918275833130e-01" nType="-99"/>
          <Node pos="r" depth="2" NCoef="0" IVar="-1" Cut="0.0000000000000000e+00" cType="1" res="6.3915987266227603e-04" rms="4.6174705028533936e-01" purity="5.3865945339202881e-01" nType="-99"/>
        </Node>
        <Node pos="r" depth="1" NCoef="0" IVar="5" Cut="-6.8477354943752289e-03" cType="1" res="-2.6342734694480896e-02" rms="4.5569214224815369e-01" purity="4.3905600905418396e-01" nType="0">
          <Node pos="l" depth="2" NCoef="0" IVar="-1" Cut="0.0000000000000000e+00" cType="1" res="-1.7273820703849196e-03" rms="4.4638499617576599e-01" purity="4.0027281641960144e-01" nType="-99"/>
          <Node pos="r" depth="2" NCoef="0" IVar="-1" Cut="0.0000000000000000e+00" cType="1" res="-6.7684217356145382e-05" rms="4.6295124292373657e-01" purity="4.7536846995353699e-01" nType="-99"/>
        </Node>
      </Node>
    </BinaryTree>
    <BinaryTree type="DecisionTree" boostWeight="1.0000000000000000e+00" itree="580">
      <Node pos="s" depth="0" NCoef="0" IVar="1" Cut="1.6248171329498291e+00" cType="1" res="2.7728038839995861e-03" rms="4.5670887827873230e-01" purity="5.0230580568313599e-01" nType="0">
        <Node pos="l" depth="1" NCoef="0" IVar="7" Cut="1.3705596327781677e-01" cType="1" res="-7.4571520090103149e-03" rms="4.6768805384635925e-01" purity="4.2074340581893921e-01" nType="0">
          <Node pos="l" depth="2" NCoef="0" IVar="-1" Cut="0.0000000000000000e+00" cType="1" res="-3.7459012673934922e-05" rms="4.7043350338935852e-01" purity="4.3580505251884460e-01" nType="-99"/>
          <Node pos="r" depth="2" NCoef="0" IVar="-1" Cut="0.0000000000000000e+00" cType="1" res="-1.6891743289306760e-03" rms="4.4831237196922302e-01" purity="3.2704591751098633e-01" nType="-99"/>
        </Node>
        <Node pos="r" depth="1" NCoef="0" IVar="9" Cut="8.3692528307437897e-02" cType="1" res="3.3486369997262955e-02" rms="4.2054083943367004e-01" purity="7.4718201160430908e-01" nType="0">
          <Node pos="l" depth="2" NCoef="0" IVar="-1" Cut="0.0000000000000000e+00" cType="1" res="3.1510679400525987e-04" rms="4.4291299581527710e-01" purity="7.0350068807601929e-01" nType="-99"/>
          <Node pos="r" depth="2" NCoef="0" IVar="-1" Cut="0.0000000000000000e+00" cType="1" res="1.2895745458081365e-03" rms="3.9185586571693420e-01" purity="7.9769188165664673e-01" nType="-99"/>
        </Node>
      </Node>
    </BinaryTree>
    <BinaryTree type="DecisionTree" boostWeight="1.0000000000000000e+00" itree="581">
      <Node pos="s" depth="0" NCoef="0" IVar="8" Cut="3.7800312042236328e-01" cType="1" res="2.1931447554379702e-03" rms="4.5991310477256775e-01" purity="4.9881410598754883e-01" nType="0">
        <Node pos="l" depth="1" NCoef="0" IVar="8" Cut="3.5932463407516479e-01" cType="1" res="-2.6318352669477463e-02" rms="4.6217268705368042e-01" purity="4.4063380360603333e-01" nType="0">
          <Node pos="l" depth="2" NCoef="0" IVar="-1" Cut="0.0000000000000000e+00" cType="1" res="-2.6105600409209728e-04" rms="4.6625849604606628e-01" purity="4.5390167832374573e-01" nType="-99"/>
          <Node pos="r" depth="2" NCoef="0" IVar="-1" Cut="0.0000000000000000e+00" cType="1" res="-1.3948915293440223e-03" rms="4.5710161328315735e-01" purity="4.2662662267684937e-01" nType="-99"/>
        </Node>
        <Node pos="r" depth="1" NCoef="0" IVar="3" Cut="1.1008105278015137e+00" cType="1" res="1.4905334450304508e-02" rms="4.5833072066307068e-01" purity="5.2475452423095703e-01" nType="0">
          <Node pos="l" depth="2" NCoef="0" IVar="-1" Cut="0.0000000000000000e+00" cType="1" res="1.4504278078675270e-03" rms="4.4598224759101868e-01" purity="6.3341438770294189e-01" nType="-99"/>
          <Node pos="r" depth="2" NCoef="0" IVar="-1" Cut="0.0000000000000000e+00" cType="1" res="2.3168354528024793e-04" rms="4.5972415804862976e-01" purity="5.0899845361709595e-01" nType="-99"/>
        </Node>
      </Node>
    </BinaryTree>
    <BinaryTree type="DecisionTree" boostWeight="1.0000000000000000e+00" itree="582">
      <Node pos="s" depth="0" NCoef="0" IVar="4" Cut="1.1571286773681641e+02" cType="1" res="1.9992457237094641e-03" rms="4.6063384413719177e-01" purity="4.9805134534835815e-01" nType="0">
        <Node pos="l" depth="1" NCoef="0" IVar="4" Cut="7.8311782836914062e+01" cType="1" res="-2.9210377484560013e-02" rms="4.5415639877319336e-01" purity="3.9367815852165222e-01" nType="0">
          <Node pos="l" depth="2" NCoef="0" IVar="-1" Cut="0.0000000000000000e+00" cType="1" res="-2.9713206458836794e-03" rms="4.3351456522941589e-01" purity="3.1014639139175415e-01" nType="-99"/>
          <Node pos="r" depth="2" NCoef="0" IVar="-1" Cut="0.0000000000000000e+00" cType="1" res="-5.4588809143751860e-04" rms="4.5846509933471680e-01" purity="4.1485172510147095e-01" nType="-99"/>
        </Node>
        <Node pos="r" depth="1" NCoef="0" IVar="6" Cut="9.9020165205001831e-01" cType="1" res="1.2619265355169773e-02" rms="4.6233713626861572e-01" purity="5.3356754779815674e-01" nType="0">
          <Node pos="l" depth="2" NCoef="0" IVar="-1" Cut="0.0000000000000000e+00" cType="1" res="1.2556888395920396e-04" rms="4.6236154437065125e-01" purity="5.2133023738861084e-01" nType="-99"/>
          <Node pos="r" depth="2" NCoef="0" IVar="-1" Cut="0.0000000000000000e+00" cType="1" res="1.2898003915324807e-03" rms="4.6018001437187195e-01" purity="5.9418666362762451e-01" nType="-99"/>
        </Node>
      </Node>
    </BinaryTree>
    <BinaryTree type="DecisionTree" boostWeight="1.0000000000000000e+00" itree="583">
      <Node pos="s" depth="0" NCoef="0" IVar="1" Cut="-1.4571331739425659e+00" cType="1" res="4.3470142409205437e-03" rms="4.5969867706298828e-01" purity="5.0142639875411987e-01" nType="0">
        <Node pos="l" depth="1" NCoef="0" IVar="9" Cut="9.1544255614280701e-02" cType="1" res="-4.1712783277034760e-02" rms="4.1747328639030457e-01" purity="2.3715528845787048e-01" nType="0">
          <Node pos="l" depth="2" NCoef="0" IVar="-1" Cut="0.0000000000000000e+00" cType="1" res="-1.2929757358506322e-03" rms="4.1448631882667542e-01" purity="2.3758451640605927e-01" nType="-99"/>
          <Node pos="r" depth="2" NCoef="0" IVar="-1" Cut="0.0000000000000000e+00" cType="1" res="-3.1592291779816151e-03" rms="4.2002779245376587e-01" purity="2.3664301633834839e-01" nType="-99"/>
        </Node>
        <Node pos="r" depth="1" NCoef="0" IVar="0" Cut="1.6874974060058594e+02" cType="1" res="1.2061333283782005e-02" rms="4.6595227718353271e-01" purity="5.4568785429000854e-01" nType="0">
          <Node pos="l" depth="2" NCoef="0" IVar="-1" Cut="0.0000000000000000e+00" cType="1" res="5.4455775534734130e-04" rms="4.6260482072830200e-01" purity="5.7458186149597168e-01" nType="-99"/>
          <Node pos="r" depth="2" NCoef="0" IVar="-1" Cut="0.0000000000000000e+00" cType="1" res="-1.1343306687194854e-04" rms="4.7096914052963257e-01" purity="4.9808716773986816e-01" nType="-99"/>
        </Node>
      </Node>
    </BinaryTree>
    <BinaryTree type="DecisionTree" boostWeight="1.0000000000000000e+00" itree="584">
      <Node pos="s" depth="0" NCoef="0" IVar="4" Cut="2.7449517822265625e+02" cType="1" res="-4.8984829336404800e-03" rms="4.6123310923576355e-01" purity="4.9027115106582642e-01" nType="0">
        <Node pos="l" depth="1" NCoef="0" IVar="0" Cut="9.8642051696777344e+01" cType="1" res="-1.1898551136255264e-02" rms="4.6124276518821716e-01" purity="4.6977433562278748e-01" nType="0">
          <Node pos="l" depth="2" NCoef="0" IVar="-1" Cut="0.0000000000000000e+00" cType="1" res="-1.1077227536588907e-03" rms="4.6620601415634155e-01" purity="4.5310333371162415e-01" nType="-99"/>
          <Node pos="r" depth="2" NCoef="0" IVar="-1" Cut="0.0000000000000000e+00" cType="1" res="-1.1851213639602065e-04" rms="4.5943057537078857e-01" purity="4.7487404942512512e-01" nType="-99"/>
        </Node>
        <Node pos="r" depth="1" NCoef="0" IVar="9" Cut="2.9849631711840630e-02" cType="1" res="3.1795877963304520e-02" rms="4.5944094657897949e-01" purity="5.9771561622619629e-01" nType="0">
          <Node pos="l" depth="2" NCoef="0" IVar="-1" Cut="0.0000000000000000e+00" cType="1" res="-6.6852786403615028e-05" rms="4.6573236584663391e-01" purity="5.1857793331146240e-01" nType="-99"/>
          <Node pos="r" depth="2" NCoef="0" IVar="-1" Cut="0.0000000000000000e+00" cType="1" res="1.1994979577139020e-03" rms="4.5495620369911194e-01" purity="6.4018821716308594e-01" nType="-99"/>
        </Node>
      </Node>
    </BinaryTree>
    <BinaryTree type="DecisionTree" boostWeight="1.0000000000000000e+00" itree="585">
      <Node pos="s" depth="0" NCoef="0" IVar="1" Cut="2.5640499591827393e+00" cType="1" res="1.1185604147613049e-02" rms="4.6169388294219971e-01" purity="5.0554591417312622e-01" nType="0">
        <Node pos="l" depth="1" NCoef="0" IVar="6" Cut="9.1881394386291504e-01" cType="1" res="7.3108230717480183e-03" rms="4.6911299228668213e-01" purity="4.7082152962684631e-01" nType="0">
          <Node pos="l" depth="2" NCoef="0" IVar="-1" Cut="0.0000000000000000e+00" cType="1" res="-8.2152493996545672e-04" rms="4.6439102292060852e-01" purity="4.0048819780349731e-01" nType="-99"/>
          <Node pos="r" depth="2" NCoef="0" IVar="-1" Cut="0.0000000000000000e+00" cType="1" res="3.3194117713719606e-04" rms="4.6955597400665283e-01" purity="4.8027148842811584e-01" nType="-99"/>
        </Node>
        <Node pos="r" depth="1" NCoef="0" IVar="-1" Cut="0.0000000000000000e+00" cType="1" res="1.0464797960594296e-03" rms="3.9096873998641968e-01" purity="8.0260676145553589e-01" nType="-99"/>
      </Node>
    </BinaryTree>
    <BinaryTree type="DecisionTree" boostWeight="1.0000000000000000e+00" itree="586">
      <Node pos="s" depth="0" NCoef="0" IVar="6" Cut="9.9002504348754883e-01" cType="1" res="5.0340924644842744e-04" rms="4.6165642142295837e-01" purity="4.9612745642662048e-01" nType="0">
        <Node pos="l" depth="1" NCoef="0" IVar="8" Cut="4.0226206183433533e-01" cType="1" res="-4.8910398036241531e-03" rms="4.6212887763977051e-01" purity="4.8507875204086304e-01" nType="0">
          <Node pos="l" depth="2" NCoef="0" IVar="-1" Cut="0.0000000000000000e+00" cType="1" res="-3.2715225825086236e-04" rms="4.6262812614440918e-01" purity="4.6467393636703491e-01" nType="-99"/>
          <Node pos="r" depth="2" NCoef="0" IVar="-1" Cut="0.0000000000000000e+00" cType="1" res="4.7502311645075679e-04" rms="4.5953497290611267e-01" purity="5.6013834476470947e-01" nType="-99"/>
        </Node>
        <Node pos="r" depth="1" NCoef="0" IVar="3" Cut="1.9098845720291138e+00" cType="1" res="2.7530599385499954e-02" rms="4.5832705497741699e-01" purity="5.5148363113403320e-01" nType="0">
          <Node pos="l" depth="2" NCoef="0" IVar="-1" Cut="0.0000000000000000e+00" cType="1" res="1.4681941829621792e-03" rms="4.4747179746627808e-01" purity="6.3255226612091064e-01" nType="-99"/>
          <Node pos="r" depth="2" NCoef="0" IVar="-1" Cut="0.0000000000000000e+00" cType="1" res="9.6890515123959631e-05" rms="4.6433591842651367e-01" purity="4.9424463510513306e-01" nType="-99"/>
        </Node>
      </Node>
    </BinaryTree>
    <BinaryTree type="DecisionTree" boostWeight="1.0000000000000000e+00" itree="587">
      <Node pos="s" depth="0" NCoef="0" IVar="6" Cut="9.3439775705337524e-01" cType="1" res="5.6253089569509029e-03" rms="4.6258482336997986e-01" purity="5.0314831733703613e-01" nType="0">
        <Node pos="l" depth="1" NCoef="0" IVar="1" Cut="8.6144047975540161e-01" cType="1" res="-1.6011685132980347e-02" rms="4.6141919493675232e-01" purity="4.4911944866180420e-01" nType="0">
          <Node pos="l" depth="2" NCoef="0" IVar="-1" Cut="0.0000000000000000e+00" cType="1" res="-1.1627328349277377e-03" rms="4.5800924301147461e-01" purity="3.3199685811996460e-01" nType="-99"/>
          <Node pos="r" depth="2" NCoef="0" IVar="-1" Cut="0.0000000000000000e+00" cType="1" res="2.5450545945204794e-04" rms="4.6564561128616333e-01" purity="6.4134770631790161e-01" nType="-99"/>
        </Node>
        <Node pos="r" depth="1" NCoef="0" IVar="5" Cut="-5.9575360268354416e-02" cType="1" res="1.2646108865737915e-02" rms="4.6274504065513611e-01" purity="5.2067965269088745e-01" nType="0">
          <Node pos="l" depth="2" NCoef="0" IVar="-1" Cut="0.0000000000000000e+00" cType="1" res="-7.5583212310448289e-04" rms="4.5836409926414490e-01" purity="4.3497800827026367e-01" nType="-99"/>
          <Node pos="r" depth="2" NCoef="0" IVar="-1" Cut="0.0000000000000000e+00" cType="1" res="4.7291026567108929e-04" rms="4.6307814121246338e-01" purity="5.3131729364395142e-01" nType="-99"/>
        </Node>
      </Node>
    </BinaryTree>
    <BinaryTree type="DecisionTree" boostWeight="1.0000000000000000e+00" itree="588">
      <Node pos="s" depth="0" NCoef="0" IVar="1" Cut="9.1234862804412842e-01" cType="1" res="-7.9342134995386004e-04" rms="4.5889520645141602e-01" purity="4.9602815508842468e-01" nType="0">
        <Node pos="l" depth="1" NCoef="0" IVar="9" Cut="1.9421847164630890e-01" cType="1" res="-1.3803035020828247e-02" rms="4.6558213233947754e-01" purity="3.7560746073722839e-01" nType="0">
          <Node pos="l" depth="2" NCoef="0" IVar="-1" Cut="0.0000000000000000e+00" cType="1" res="-6.7656184546649456e-04" rms="4.6343320608139038e-01" purity="3.6346116662025452e-01" nType="-99"/>
          <Node pos="r" depth="2" NCoef="0" IVar="-1" Cut="0.0000000000000000e+00" cType="1" res="1.1890234891325235e-03" rms="4.8129984736442566e-01" purity="4.8877868056297302e-01" nType="-99"/>
        </Node>
        <Node pos="r" depth="1" NCoef="0" IVar="6" Cut="9.3540370464324951e-01" cType="1" res="1.9940475001931190e-02" rms="4.4725030660629272e-01" purity="6.8794697523117065e-01" nType="0">
          <Node pos="l" depth="2" NCoef="0" IVar="-1" Cut="0.0000000000000000e+00" cType="1" res="-1.8740416271612048e-04" rms="4.6782007813453674e-01" purity="6.2454366683959961e-01" nType="-99"/>
          <Node pos="r" depth="2" NCoef="0" IVar="-1" Cut="0.0000000000000000e+00" cType="1" res="6.5797043498605490e-04" rms="4.4019550085067749e-01" purity="7.0791804790496826e-01" nType="-99"/>
        </Node>
      </Node>
    </BinaryTree>
    <BinaryTree type="DecisionTree" boostWeight="1.0000000000000000e+00" itree="589">
      <Node pos="s" depth="0" NCoef="0" IVar="5" Cut="-4.9818452447652817e-02" cType="1" res="2.0299644675105810e-03" rms="4.6135252714157104e-01" purity="4.9804362654685974e-01" nType="0">
        <Node pos="l" depth="1" NCoef="0" IVar="7" Cut="5.8869976550340652e-02" cType="1" res="-4.2162790894508362e-02" rms="4.5103183388710022e-01" purity="4.1532826423645020e-01" nType="0">
          <Node pos="l" depth="2" NCoef="0" IVar="-1" Cut="0.0000000000000000e+00" cType="1" res="3.2403311342932284e-04" rms="4.5573821663856506e-01" purity="5.0007325410842896e-01" nType="-99"/>
          <Node pos="r" depth="2" NCoef="0" IVar="-1" Cut="0.0000000000000000e+00" cType="1" res="-3.1763620208948851e-03" rms="4.4206720590591431e-01" purity="3.4445005655288696e-01" nType="-99"/>
        </Node>
        <Node pos="r" depth="1" NCoef="0" IVar="5" Cut="8.7866038084030151e-02" cType="1" res="1.0936473496258259e-02" rms="4.6289414167404175e-01" purity="5.1471388339996338e-01" nType="0">
          <Node pos="l" depth="2" NCoef="0" IVar="-1" Cut="0.0000000000000000e+00" cType="1" res="1.8044437456410378e-04" rms="4.6184024214744568e-01" purity="5.1320236921310425e-01" nType="-99"/>
          <Node pos="r" depth="2" NCoef="0" IVar="-1" Cut="0.0000000000000000e+00" cType="1" res="1.6162508400157094e-03" rms="4.7189274430274963e-01" purity="5.3206545114517212e-01" nType="-99"/>
        </Node>
      </Node>
    </BinaryTree>
    <BinaryTree type="DecisionTree" boostWeight="1.0000000000000000e+00" itree="590">
      <Node pos="s" depth="0" NCoef="0" IVar="3" Cut="1.1276931762695312e+00" cType="1" res="5.1719015464186668e-03" rms="4.6155104041099548e-01" purity="4.9976894259452820e-01" nType="0">
        <Node pos="l" depth="1" NCoef="0" IVar="0" Cut="6.7529006958007812e+01" cType="1" res="4.0539864450693130e-02" rms="4.5643544197082520e-01" purity="6.0601383447647095e-01" nType="0">
          <Node pos="l" depth="2" NCoef="0" IVar="-1" Cut="0.0000000000000000e+00" cType="1" res="-3.6859323154203594e-04" rms="4.7113007307052612e-01" purity="4.9775239825248718e-01" nType="-99"/>
          <Node pos="r" depth="2" NCoef="0" IVar="-1" Cut="0.0000000000000000e+00" cType="1" res="2.0300489850342274e-03" rms="4.3772158026695251e-01" purity="7.0089352130889893e-01" nType="-99"/>
        </Node>
        <Node pos="r" depth="1" NCoef="0" IVar="3" Cut="2.3625633716583252e+00" cType="1" res="-4.9505644710734487e-04" rms="4.6211388707160950e-01" purity="4.8274546861648560e-01" nType="0">
          <Node pos="l" depth="2" NCoef="0" IVar="-1" Cut="0.0000000000000000e+00" cType="1" res="-4.1562868864275515e-04" rms="4.6348747611045837e-01" purity="5.1200807094573975e-01" nType="-99"/>
          <Node pos="r" depth="2" NCoef="0" IVar="-1" Cut="0.0000000000000000e+00" cType="1" res="3.7169770803302526e-04" rms="4.6051487326622009e-01" purity="4.5699992775917053e-01" nType="-99"/>
        </Node>
      </Node>
    </BinaryTree>
    <BinaryTree type="DecisionTree" boostWeight="1.0000000000000000e+00" itree="591">
      <Node pos="s" depth="0" NCoef="0" IVar="3" Cut="2.8847763538360596e+00" cType="1" res="7.4685937725007534e-03" rms="4.6017092466354370e-01" purity="5.0467276573181152e-01" nType="0">
        <Node pos="l" depth="1" NCoef="0" IVar="4" Cut="1.0956469726562500e+02" cType="1" res="1.5642456710338593e-02" rms="4.6316006779670715e-01" purity="5.3553086519241333e-01" nType="0">
          <Node pos="l" depth="2" NCoef="0" IVar="-1" Cut="0.0000000000000000e+00" cType="1" res="-5.3321651648730040e-04" rms="4.6326470375061035e-01" purity="4.2428827285766602e-01" nType="-99"/>
          <Node pos="r" depth="2" NCoef="0" IVar="-1" Cut="0.0000000000000000e+00" cType="1" res="6.3867180142551661e-04" rms="4.6271246671676636e-01" purity="5.6708431243896484e-01" nType="-99"/>
        </Node>
        <Node pos="r" depth="1" NCoef="0" IVar="5" Cut="6.4099305309355259e-03" cType="1" res="-2.1549807861447334e-02" rms="4.4819602370262146e-01" purity="3.9512196183204651e-01" nType="0">
          <Node pos="l" depth="2" NCoef="0" IVar="-1" Cut="0.0000000000000000e+00" cType="1" res="-1.5129691455513239e-03" rms="4.4031184911727905e-01" purity="3.7092640995979309e-01" nType="-99"/>
          <Node pos="r" depth="2" NCoef="0" IVar="-1" Cut="0.0000000000000000e+00" cType="1" res="3.5396037856116891e-04" rms="4.5769864320755005e-01" purity="4.3106627464294434e-01" nType="-99"/>
        </Node>
      </Node>
    </BinaryTree>
    <BinaryTree type="DecisionTree" boostWeight="1.0000000000000000e+00" itree="592">
      <Node pos="s" depth="0" NCoef="0" IVar="7" Cut="1.3282473385334015e-01" cType="1" res="9.5694391056895256e-03" rms="4.5930001139640808e-01" purity="5.0705140829086304e-01" nType="0">
        <Node pos="l" depth="1" NCoef="0" IVar="7" Cut="1.1134348064661026e-01" cType="1" res="1.5349672175943851e-02" rms="4.5972546935081482e-01" purity="5.2227282524108887e-01" nType="0">
          <Node pos="l" depth="2" NCoef="0" IVar="-1" Cut="0.0000000000000000e+00" cType="1" res="3.1237682560458779e-04" rms="4.5905458927154541e-01" purity="5.2177697420120239e-01" nType="-99"/>
          <Node pos="r" depth="2" NCoef="0" IVar="-1" Cut="0.0000000000000000e+00" cType="1" res="1.6338124405592680e-03" rms="4.6521896123886108e-01" purity="5.2835583686828613e-01" nType="-99"/>
        </Node>
        <Node pos="r" depth="1" NCoef="0" IVar="5" Cut="4.8513710498809814e-02" cType="1" res="-2.3338941857218742e-02" rms="4.5547473430633545e-01" purity="4.2039188742637634e-01" nType="0">
          <Node pos="l" depth="2" NCoef="0" IVar="-1" Cut="0.0000000000000000e+00" cType="1" res="-2.3874780163168907e-03" rms="4.4040831923484802e-01" purity="3.6693730950355530e-01" nType="-99"/>
          <Node pos="r" depth="2" NCoef="0" IVar="-1" Cut="0.0000000000000000e+00" cType="1" res="1.5617125900462270e-03" rms="4.6981328725814819e-01" purity="5.1479011774063110e-01" nType="-99"/>
        </Node>
      </Node>
    </BinaryTree>
    <BinaryTree type="DecisionTree" boostWeight="1.0000000000000000e+00" itree="593">
      <Node pos="s" depth="0" NCoef="0" IVar="1" Cut="2.6908206939697266e+00" cType="1" res="1.0035544633865356e-02" rms="4.5998752117156982e-01" purity="5.0824612379074097e-01" nType="0">
        <Node pos="l" depth="1" NCoef="0" IVar="7" Cut="1.1365256272256374e-02" cType="1" res="5.2301897667348385e-03" rms="4.6656754612922668e-01" purity="4.7704112529754639e-01" nType="0">
          <Node pos="l" depth="2" NCoef="0" IVar="-1" Cut="0.0000000000000000e+00" cType="1" res="5.3913937881588936e-04" rms="4.6720373630523682e-01" purity="5.2839666604995728e-01" nType="-99"/>
          <Node pos="r" depth="2" NCoef="0" IVar="-1" Cut="0.0000000000000000e+00" cType="1" res="-1.0585264681139961e-04" rms="4.6597015857696533e-01" purity="4.4747415184974670e-01" nType="-99"/>
        </Node>
        <Node pos="r" depth="1" NCoef="0" IVar="-1" Cut="0.0000000000000000e+00" cType="1" res="1.3024398358538747e-03" rms="3.8713634014129639e-01" purity="8.1178337335586548e-01" nType="-99"/>
      </Node>
    </BinaryTree>
    <BinaryTree type="DecisionTree" boostWeight="1.0000000000000000e+00" itree="594">
      <Node pos="s" depth="0" NCoef="0" IVar="6" Cut="9.6832162141799927e-01" cType="1" res="-4.1518416255712509e-03" rms="4.5833352208137512e-01" purity="4.9563300609588623e-01" nType="0">
        <Node pos="l" depth="1" NCoef="0" IVar="9" Cut="4.7412805259227753e-02" cType="1" res="-1.9488357007503510e-02" rms="4.5921629667282104e-01" purity="4.6261593699455261e-01" nType="0">
          <Node pos="l" depth="2" NCoef="0" IVar="-1" Cut="0.0000000000000000e+00" cType="1" res="-1.3946146937087178e-03" rms="4.5055365562438965e-01" purity="4.1034832596778870e-01" nType="-99"/>
          <Node pos="r" depth="2" NCoef="0" IVar="-1" Cut="0.0000000000000000e+00" cType="1" res="-2.5611047749407589e-04" rms="4.6225020289421082e-01" purity="4.8370215296745300e-01" nType="-99"/>
        </Node>
        <Node pos="r" depth="1" NCoef="0" IVar="1" Cut="8.7170630693435669e-02" cType="1" res="1.6066422685980797e-02" rms="4.5638030767440796e-01" purity="5.3915971517562866e-01" nType="0">
          <Node pos="l" depth="2" NCoef="0" IVar="-1" Cut="0.0000000000000000e+00" cType="1" res="-2.8731892234645784e-04" rms="4.6651586890220642e-01" purity="3.5557696223258972e-01" nType="-99"/>
          <Node pos="r" depth="2" NCoef="0" IVar="-1" Cut="0.0000000000000000e+00" cType="1" res="7.9966220073401928e-04" rms="4.4781678915023804e-01" purity="6.7608106136322021e-01" nType="-99"/>
        </Node>
      </Node>
    </BinaryTree>
    <BinaryTree type="DecisionTree" boostWeight="1.0000000000000000e+00" itree="595">
      <Node pos="s" depth="0" NCoef="0" IVar="4" Cut="1.3903448486328125e+02" cType="1" res="7.9802861437201500e-03" rms="4.6176066994667053e-01" purity="5.0394874811172485e-01" nType="0">
        <Node pos="l" depth="1" NCoef="0" IVar="2" Cut="6.6808938980102539e-01" cType="1" res="-7.3943459428846836e-03" rms="4.5422056317329407e-01" purity="4.3706214427947998e-01" nType="0">
          <Node pos="l" depth="2" NCoef="0" IVar="-1" Cut="0.0000000000000000e+00" cType="1" res="-7.6607364462688565e-04" rms="4.5066156983375549e-01" purity="3.8956096768379211e-01" nType="-99"/>
          <Node pos="r" depth="2" NCoef="0" IVar="-1" Cut="0.0000000000000000e+00" cType="1" res="7.5706292409449816e-04" rms="4.6023246645927429e-01" purity="5.4618597030639648e-01" nType="-99"/>
        </Node>
        <Node pos="r" depth="1" NCoef="0" IVar="8" Cut="3.2897222042083740e-01" cType="1" res="1.8179140985012054e-02" rms="4.6641573309898376e-01" purity="5.4831832647323608e-01" nType="0">
          <Node pos="l" depth="2" NCoef="0" IVar="-1" Cut="0.0000000000000000e+00" cType="1" res="-8.0689531750977039e-04" rms="4.6515464782714844e-01" purity="4.5566371083259583e-01" nType="-99"/>
          <Node pos="r" depth="2" NCoef="0" IVar="-1" Cut="0.0000000000000000e+00" cType="1" res="5.9359072474762797e-04" rms="4.6628400683403015e-01" purity="5.5803996324539185e-01" nType="-99"/>
        </Node>
      </Node>
    </BinaryTree>
    <BinaryTree type="DecisionTree" boostWeight="1.0000000000000000e+00" itree="596">
      <Node pos="s" depth="0" NCoef="0" IVar="4" Cut="3.2574484252929688e+02" cType="1" res="-1.1194312246516347e-03" rms="4.6239364147186279e-01" purity="4.9254164099693298e-01" nType="0">
        <Node pos="l" depth="1" NCoef="0" IVar="4" Cut="1.5091960144042969e+02" cType="1" res="-7.0813130587339401e-03" rms="4.6162271499633789e-01" purity="4.7844418883323669e-01" nType="0">
          <Node pos="l" depth="2" NCoef="0" IVar="-1" Cut="0.0000000000000000e+00" cType="1" res="-6.3216633861884475e-04" rms="4.5744296908378601e-01" purity="4.2806816101074219e-01" nType="-99"/>
          <Node pos="r" depth="2" NCoef="0" IVar="-1" Cut="0.0000000000000000e+00" cType="1" res="1.9881792832165956e-04" rms="4.6567288041114807e-01" purity="5.3298223018646240e-01" nType="-99"/>
        </Node>
        <Node pos="r" depth="1" NCoef="0" IVar="-1" Cut="0.0000000000000000e+00" cType="1" res="1.2307338183745742e-03" rms="4.6584296226501465e-01" purity="6.1613708734512329e-01" nType="-99"/>
      </Node>
    </BinaryTree>
    <BinaryTree type="DecisionTree" boostWeight="1.0000000000000000e+00" itree="597">
      <Node pos="s" depth="0" NCoef="0" IVar="6" Cut="9.5884072780609131e-01" cType="1" res="3.6995548289269209e-03" rms="4.6097415685653687e-01" purity="5.0022751092910767e-01" nType="0">
        <Node pos="l" depth="1" NCoef="0" IVar="8" Cut="3.5455220937728882e-01" cType="1" res="-9.5425108447670937e-03" rms="4.6414354443550110e-01" purity="4.6459931135177612e-01" nType="0">
          <Node pos="l" depth="2" NCoef="0" IVar="-1" Cut="0.0000000000000000e+00" cType="1" res="7.2474667103961110e-04" rms="4.6367952227592468e-01" purity="4.6935075521469116e-01" nType="-99"/>
          <Node pos="r" depth="2" NCoef="0" IVar="-1" Cut="0.0000000000000000e+00" cType="1" res="-4.5090142521075904e-04" rms="4.6394598484039307e-01" purity="4.6378067135810852e-01" nType="-99"/>
        </Node>
        <Node pos="r" depth="1" NCoef="0" IVar="8" Cut="3.9598605036735535e-01" cType="1" res="1.5688026323914528e-02" rms="4.5775559544563293e-01" purity="5.3248286247253418e-01" nType="0">
          <Node pos="l" depth="2" NCoef="0" IVar="-1" Cut="0.0000000000000000e+00" cType="1" res="7.2860035288613290e-05" rms="4.6081742644309998e-01" purity="4.9954211711883545e-01" nType="-99"/>
          <Node pos="r" depth="2" NCoef="0" IVar="-1" Cut="0.0000000000000000e+00" cType="1" res="9.7079144325107336e-04" rms="4.5172187685966492e-01" purity="5.8771270513534546e-01" nType="-99"/>
        </Node>
      </Node>
    </BinaryTree>
    <BinaryTree type="DecisionTree" boostWeight="1.0000000000000000e+00" itree="598">
      <Node pos="s" depth="0" NCoef="0" IVar="9" Cut="7.5775809586048126e-02" cType="1" res="3.3714650198817253e-03" rms="4.6105957031250000e-01" purity="5.0024461746215820e-01" nType="0">
        <Node pos="l" depth="1" NCoef="0" IVar="5" Cut="3.8614891469478607e-02" cType="1" res="-1.4999544247984886e-02" rms="4.5989525318145752e-01" purity="4.6190831065177917e-01" nType="0">
          <Node pos="l" depth="2" NCoef="0" IVar="-1" Cut="0.0000000000000000e+00" cType="1" res="-9.4297749456018209e-04" rms="4.5562615990638733e-01" purity="4.4445130228996277e-01" nType="-99"/>
          <Node pos="r" depth="2" NCoef="0" IVar="-1" Cut="0.0000000000000000e+00" cType="1" res="7.6040823478251696e-04" rms="4.6839767694473267e-01" purity="5.0852912664413452e-01" nType="-99"/>
        </Node>
        <Node pos="r" depth="1" NCoef="0" IVar="8" Cut="4.0926364064216614e-01" cType="1" res="2.0391356199979782e-02" rms="4.6148344874382019e-01" purity="5.3576141595840454e-01" nType="0">
          <Node pos="l" depth="2" NCoef="0" IVar="-1" Cut="0.0000000000000000e+00" cType="1" res="3.5551955807022750e-04" rms="4.6305298805236816e-01" purity="5.1435524225234985e-01" nType="-99"/>
          <Node pos="r" depth="2" NCoef="0" IVar="-1" Cut="0.0000000000000000e+00" cType="1" res="1.4140598941594362e-03" rms="4.5103991031646729e-01" purity="6.4838176965713501e-01" nType="-99"/>
        </Node>
      </Node>
    </BinaryTree>
    <BinaryTree type="DecisionTree" boostWeight="1.0000000000000000e+00" itree="599">
      <Node pos="s" depth="0" NCoef="0" IVar="0" Cut="1.3514216613769531e+02" cType="1" res="2.7655425947159529e-03" rms="4.5967644453048706e-01" purity="5.0080353021621704e-01" nType="0">
        <Node pos="l" depth="1" NCoef="0" IVar="0" Cut="8.6408210754394531e+01" cType="1" res="1.9247032701969147e-02" rms="4.6015340089797974e-01" purity="5.3997641801834106e-01" nType="0">
          <Node pos="l" depth="2" NCoef="0" IVar="-1" Cut="0.0000000000000000e+00" cType="1" res="-6.0660904273390770e-04" rms="4.6044924855232239e-01" purity="4.8593556880950928e-01" nType="-99"/>
          <Node pos="r" depth="2" NCoef="0" IVar="-1" Cut="0.0000000000000000e+00" cType="1" res="1.0655326768755913e-03" rms="4.5847806334495544e-01" purity="5.6932157278060913e-01" nType="-99"/>
        </Node>
        <Node pos="r" depth="1" NCoef="0" IVar="6" Cut="9.9317359924316406e-01" cType="1" res="-1.1432398110628128e-02" rms="4.5879071950912476e-01" purity="4.6705818176269531e-01" nType="0">
          <Node pos="l" depth="2" NCoef="0" IVar="-1" Cut="0.0000000000000000e+00" cType="1" res="-5.3533859318122268e-04" rms="4.5773541927337646e-01" purity="4.5862236618995667e-01" nType="-99"/>
          <Node pos="r" depth="2" NCoef="0" IVar="-1" Cut="0.0000000000000000e+00" cType="1" res="1.0278370464220643e-03" rms="4.6392813324928284e-01" purity="5.3442925214767456e-01" nType="-99"/>
        </Node>
      </Node>
    </BinaryTree>
    <BinaryTree type="DecisionTree" boostWeight="1.0000000000000000e+00" itree="600">
      <Node pos="s" depth="0" NCoef="0" IVar="3" Cut="8.1519198417663574e-01" cType="1" res="3.5944215487688780e-03" rms="4.6245440840721130e-01" purity="4.9841043353080750e-01" nType="0">
        <Node pos="l" depth="1" NCoef="0" IVar="-1" Cut="0.0000000000000000e+00" cType="1" res="1.3597913784906268e-03" rms="4.5674946904182434e-01" purity="6.1680734157562256e-01" nType="-99"/>
        <Node pos="r" depth="1" NCoef="0" IVar="8" Cut="3.9657872915267944e-01" cType="1" res="-2.8420801390893757e-04" rms="4.6263566613197327e-01" purity="4.8967942595481873e-01" nType="0">
          <Node pos="l" depth="2" NCoef="0" IVar="-1" Cut="0.0000000000000000e+00" cType="1" res="-2.8023772756569088e-04" rms="4.6225672960281372e-01" purity="4.6215179562568665e-01" nType="-99"/>
          <Node pos="r" depth="2" NCoef="0" IVar="-1" Cut="0.0000000000000000e+00" cType="1" res="4.4685637112706900e-04" rms="4.6284845471382141e-01" purity="5.4026550054550171e-01" nType="-99"/>
        </Node>
      </Node>
    </BinaryTree>
    <BinaryTree type="DecisionTree" boostWeight="1.0000000000000000e+00" itree="601">
      <Node pos="s" depth="0" NCoef="0" IVar="9" Cut="6.9349855184555054e-02" cType="1" res="7.1176439523696899e-03" rms="4.6024522185325623e-01" purity="5.0432598590850830e-01" nType="0">
        <Node pos="l" depth="1" NCoef="0" IVar="4" Cut="1.3511921691894531e+02" cType="1" res="-1.0185972787439823e-02" rms="4.6061426401138306e-01" purity="4.6548786759376526e-01" nType="0">
          <Node pos="l" depth="2" NCoef="0" IVar="-1" Cut="0.0000000000000000e+00" cType="1" res="-1.6443568747490644e-03" rms="4.4098478555679321e-01" purity="3.4450221061706543e-01" nType="-99"/>
          <Node pos="r" depth="2" NCoef="0" IVar="-1" Cut="0.0000000000000000e+00" cType="1" res="1.9915925804525614e-05" rms="4.6577060222625732e-01" purity="5.0167459249496460e-01" nType="-99"/>
        </Node>
        <Node pos="r" depth="1" NCoef="0" IVar="4" Cut="1.2533316040039062e+02" cType="1" res="2.0722700282931328e-02" rms="4.5949748158454895e-01" purity="5.3486269712448120e-01" nType="0">
          <Node pos="l" depth="2" NCoef="0" IVar="-1" Cut="0.0000000000000000e+00" cType="1" res="-1.1958182585658506e-04" rms="4.5744356513023376e-01" purity="4.4928911328315735e-01" nType="-99"/>
          <Node pos="r" depth="2" NCoef="0" IVar="-1" Cut="0.0000000000000000e+00" cType="1" res="9.7048096358776093e-04" rms="4.6014893054962158e-01" purity="5.9622585773468018e-01" nType="-99"/>
        </Node>
      </Node>
    </BinaryTree>
    <BinaryTree type="DecisionTree" boostWeight="1.0000000000000000e+00" itree="602">
      <Node pos="s" depth="0" NCoef="0" IVar="4" Cut="1.0076719665527344e+02" cType="1" res="6.1675021424889565e-03" rms="4.6066120266914368e-01" purity="5.0486499071121216e-01" nType="0">
        <Node pos="l" depth="1" NCoef="0" IVar="6" Cut="9.8097085952758789e-01" cType="1" res="-2.3066306486725807e-02" rms="4.5833313465118408e-01" purity="3.8756752014160156e-01" nType="0">
          <Node pos="l" depth="2" NCoef="0" IVar="-1" Cut="0.0000000000000000e+00" cType="1" res="-1.4934774953871965e-03" rms="4.5458105206489563e-01" purity="3.5610321164131165e-01" nType="-99"/>
          <Node pos="r" depth="2" NCoef="0" IVar="-1" Cut="0.0000000000000000e+00" cType="1" res="6.8952335277572274e-04" rms="4.6351608633995056e-01" purity="4.5910087227821350e-01" nType="-99"/>
        </Node>
        <Node pos="r" depth="1" NCoef="0" IVar="1" Cut="-1.8696334362030029e+00" cType="1" res="1.1868331581354141e-02" rms="4.6089783310890198e-01" purity="5.2773892879486084e-01" nType="0">
          <Node pos="l" depth="2" NCoef="0" IVar="-1" Cut="0.0000000000000000e+00" cType="1" res="-1.8411849159747362e-03" rms="4.2635363340377808e-01" purity="2.4713996052742004e-01" nType="-99"/>
          <Node pos="r" depth="2" NCoef="0" IVar="-1" Cut="0.0000000000000000e+00" cType="1" res="4.2012723861262202e-04" rms="4.6375718712806702e-01" purity="5.5405843257904053e-01" nType="-99"/>
        </Node>
      </Node>
    </BinaryTree>
    <BinaryTree type="DecisionTree" boostWeight="1.0000000000000000e+00" itree="603">
      <Node pos="s" depth="0" NCoef="0" IVar="4" Cut="2.0683634948730469e+02" cType="1" res="-2.2173293109517545e-04" rms="4.6326369047164917e-01" purity="4.9629366397857666e-01" nType="0">
        <Node pos="l" depth="1" NCoef="0" IVar="8" Cut="3.5362613201141357e-01" cType="1" res="-7.9636871814727783e-03" rms="4.6238979697227478e-01" purity="4.6215683221817017e-01" nType="0">
          <Node pos="l" depth="2" NCoef="0" IVar="-1" Cut="0.0000000000000000e+00" cType="1" res="-2.4675838649272919e-03" rms="4.4767376780509949e-01" purity="3.3867904543876648e-01" nType="-99"/>
          <Node pos="r" depth="2" NCoef="0" IVar="-1" Cut="0.0000000000000000e+00" cType="1" res="-8.7924257968552411e-05" rms="4.6320620179176331e-01" purity="4.7214648127555847e-01" nType="-99"/>
        </Node>
        <Node pos="r" depth="1" NCoef="0" IVar="0" Cut="1.5774664306640625e+02" cType="1" res="1.6895202919840813e-02" rms="4.6473240852355957e-01" purity="5.7176780700683594e-01" nType="0">
          <Node pos="l" depth="2" NCoef="0" IVar="-1" Cut="0.0000000000000000e+00" cType="1" res="8.1706349737942219e-04" rms="4.5911580324172974e-01" purity="6.2088316679000854e-01" nType="-99"/>
          <Node pos="r" depth="2" NCoef="0" IVar="-1" Cut="0.0000000000000000e+00" cType="1" res="4.9176673201145604e-05" rms="4.6921342611312866e-01" purity="5.2761292457580566e-01" nType="-99"/>
        </Node>
      </Node>
    </BinaryTree>
    <BinaryTree type="DecisionTree" boostWeight="1.0000000000000000e+00" itree="604">
      <Node pos="s" depth="0" NCoef="0" IVar="9" Cut="4.4186431914567947e-02" cType="1" res="6.5722875297069550e-03" rms="4.6138623356819153e-01" purity="5.0309014320373535e-01" nType="0">
        <Node pos="l" depth="1" NCoef="0" IVar="0" Cut="2.0192503356933594e+02" cType="1" res="-1.4027209021151066e-02" rms="4.6118149161338806e-01" purity="4.5501637458801270e-01" nType="0">
          <Node pos="l" depth="2" NCoef="0" IVar="-1" Cut="0.0000000000000000e+00" cType="1" res="5.4250580433290452e-05" rms="4.6911987662315369e-01" purity="4.9477544426918030e-01" nType="-99"/>
          <Node pos="r" depth="2" NCoef="0" IVar="-1" Cut="0.0000000000000000e+00" cType="1" res="-1.4743411447852850e-03" rms="4.4398668408393860e-01" purity="3.7892132997512817e-01" nType="-99"/>
        </Node>
        <Node pos="r" depth="1" NCoef="0" IVar="2" Cut="6.1829602718353271e-01" cType="1" res="1.3651106506586075e-02" rms="4.6124422550201416e-01" purity="5.1961022615432739e-01" nType="0">
          <Node pos="l" depth="2" NCoef="0" IVar="-1" Cut="0.0000000000000000e+00" cType="1" res="7.6839729445055127e-04" rms="4.6415182948112488e-01" purity="4.8191756010055542e-01" nType="-99"/>
          <Node pos="r" depth="2" NCoef="0" IVar="-1" Cut="0.0000000000000000e+00" cType="1" res="2.9422461011563428e-05" rms="4.5819970965385437e-01" purity="5.5421018600463867e-01" nType="-99"/>
        </Node>
      </Node>
    </BinaryTree>
    <BinaryTree type="DecisionTree" boostWeight="1.0000000000000000e+00" itree="605">
      <Node pos="s" depth="0" NCoef="0" IVar="6" Cut="9.8695218563079834e-01" cType="1" res="6.0782307991757989e-04" rms="4.6186289191246033e-01" purity="4.9720132350921631e-01" nType="0">
        <Node pos="l" depth="1" NCoef="0" IVar="1" Cut="2.4921443462371826e+00" cType="1" res="-5.3714509122073650e-03" rms="4.6159020066261292e-01" purity="4.8436868190765381e-01" nType="0">
          <Node pos="l" depth="2" NCoef="0" IVar="-1" Cut="0.0000000000000000e+00" cType="1" res="-2.8519748593680561e-04" rms="4.6788856387138367e-01" purity="4.4840678572654724e-01" nType="-99"/>
          <Node pos="r" depth="2" NCoef="0" IVar="-1" Cut="0.0000000000000000e+00" cType="1" res="7.3453073855489492e-04" rms="4.0385657548904419e-01" purity="7.8217923641204834e-01" nType="-99"/>
        </Node>
        <Node pos="r" depth="1" NCoef="0" IVar="3" Cut="2.8031537532806396e+00" cType="1" res="2.3689808323979378e-02" rms="4.6218904852867126e-01" purity="5.4673945903778076e-01" nType="0">
          <Node pos="l" depth="2" NCoef="0" IVar="-1" Cut="0.0000000000000000e+00" cType="1" res="3.0356072238646448e-04" rms="4.5992168784141541e-01" purity="5.5995315313339233e-01" nType="-99"/>
          <Node pos="r" depth="2" NCoef="0" IVar="-1" Cut="0.0000000000000000e+00" cType="1" res="1.5996113652363420e-03" rms="4.6691170334815979e-01" purity="5.0917905569076538e-01" nType="-99"/>
        </Node>
      </Node>
    </BinaryTree>
    <BinaryTree type="DecisionTree" boostWeight="1.0000000000000000e+00" itree="606">
      <Node pos="s" depth="0" NCoef="0" IVar="0" Cut="6.7761344909667969e+01" cType="1" res="4.3365717865526676e-03" rms="4.6127784252166748e-01" purity="4.9957025051116943e-01" nType="0">
        <Node pos="l" depth="1" NCoef="0" IVar="-1" Cut="0.0000000000000000e+00" cType="1" res="-1.4627666678279638e-03" rms="4.5506682991981506e-01" purity="4.5997101068496704e-01" nType="-99"/>
        <Node pos="r" depth="1" NCoef="0" IVar="3" Cut="1.1332404613494873e+00" cType="1" res="9.5690032467246056e-03" rms="4.6153339743614197e-01" purity="5.0338095426559448e-01" nType="0">
          <Node pos="l" depth="2" NCoef="0" IVar="-1" Cut="0.0000000000000000e+00" cType="1" res="1.6536053735762835e-03" rms="4.4651675224304199e-01" purity="6.7839515209197998e-01" nType="-99"/>
          <Node pos="r" depth="2" NCoef="0" IVar="-1" Cut="0.0000000000000000e+00" cType="1" res="1.1493107740534469e-04" rms="4.6242091059684753e-01" purity="4.8801061511039734e-01" nType="-99"/>
        </Node>
      </Node>
    </BinaryTree>
    <BinaryTree type="DecisionTree" boostWeight="1.0000000000000000e+00" itree="607">
      <Node pos="s" depth="0" NCoef="0" IVar="9" Cut="4.6480923891067505e-02" cType="1" res="8.1202862784266472e-03" rms="4.5867729187011719e-01" purity="5.0708496570587158e-01" nType="0">
        <Node pos="l" depth="1" NCoef="0" IVar="5" Cut="-1.6205212101340294e-02" cType="1" res="-2.0431606099009514e-02" rms="4.5639523863792419e-01" purity="4.5169475674629211e-01" nType="0">
          <Node pos="l" depth="2" NCoef="0" IVar="-1" Cut="0.0000000000000000e+00" cType="1" res="-1.9355124095454812e-03" rms="4.4228863716125488e-01" purity="3.9356219768524170e-01" nType="-99"/>
          <Node pos="r" depth="2" NCoef="0" IVar="-1" Cut="0.0000000000000000e+00" cType="1" res="2.6810311828739941e-04" rms="4.6413478255271912e-01" purity="4.9418213963508606e-01" nType="-99"/>
        </Node>
        <Node pos="r" depth="1" NCoef="0" IVar="8" Cut="4.1023385524749756e-01" cType="1" res="1.8897483125329018e-02" rms="4.5907431840896606e-01" purity="5.2799254655838013e-01" nType="0">
          <Node pos="l" depth="2" NCoef="0" IVar="-1" Cut="0.0000000000000000e+00" cType="1" res="3.4363806480541825e-04" rms="4.5966741442680359e-01" purity="5.1009100675582886e-01" nType="-99"/>
          <Node pos="r" depth="2" NCoef="0" IVar="-1" Cut="0.0000000000000000e+00" cType="1" res="1.5192501014098525e-03" rms="4.5207214355468750e-01" purity="6.5629804134368896e-01" nType="-99"/>
        </Node>
      </Node>
    </BinaryTree>
    <BinaryTree type="DecisionTree" boostWeight="1.0000000000000000e+00" itree="608">
      <Node pos="s" depth="0" NCoef="0" IVar="5" Cut="-7.1676760911941528e-02" cType="1" res="1.8203964282292873e-04" rms="4.6141195297241211e-01" purity="4.9640467762947083e-01" nType="0">
        <Node pos="l" depth="1" NCoef="0" IVar="-1" Cut="0.0000000000000000e+00" cType="1" res="-1.9884933717548847e-03" rms="4.4908037781715393e-01" purity="3.5884875059127808e-01" nType="-99"/>
        <Node pos="r" depth="1" NCoef="0" IVar="4" Cut="9.1142272949218750e+01" cType="1" res="3.9262082427740097e-03" rms="4.6193873882293701e-01" purity="5.0521665811538696e-01" nType="0">
          <Node pos="l" depth="2" NCoef="0" IVar="-1" Cut="0.0000000000000000e+00" cType="1" res="-1.0251821950078011e-03" rms="4.5513674616813660e-01" purity="3.7534618377685547e-01" nType="-99"/>
          <Node pos="r" depth="2" NCoef="0" IVar="-1" Cut="0.0000000000000000e+00" cType="1" res="2.2852547408547252e-04" rms="4.6262270212173462e-01" purity="5.2201688289642334e-01" nType="-99"/>
        </Node>
      </Node>
    </BinaryTree>
    <BinaryTree type="DecisionTree" boostWeight="1.0000000000000000e+00" itree="609">
      <Node pos="s" depth="0" NCoef="0" IVar="1" Cut="1.3736270666122437e+00" cType="1" res="-1.0685852612368762e-04" rms="4.5864275097846985e-01" purity="4.9933013319969177e-01" nType="0">
        <Node pos="l" depth="1" NCoef="0" IVar="7" Cut="-3.4613240510225296e-02" cType="1" res="-9.2726573348045349e-03" rms="4.6729326248168945e-01" purity="4.0756970643997192e-01" nType="0">
          <Node pos="l" depth="2" NCoef="0" IVar="-1" Cut="0.0000000000000000e+00" cType="1" res="8.1374426372349262e-04" rms="4.7381436824798584e-01" purity="4.9591287970542908e-01" nType="-99"/>
          <Node pos="r" depth="2" NCoef="0" IVar="-1" Cut="0.0000000000000000e+00" cType="1" res="-4.8371430602855980e-04" rms="4.6600681543350220e-01" purity="3.9421117305755615e-01" nType="-99"/>
        </Node>
        <Node pos="r" depth="1" NCoef="0" IVar="5" Cut="3.8750246167182922e-03" cType="1" res="2.1911900490522385e-02" rms="4.3637678027153015e-01" purity="7.1976393461227417e-01" nType="0">
          <Node pos="l" depth="2" NCoef="0" IVar="-1" Cut="0.0000000000000000e+00" cType="1" res="1.3293279334902763e-04" rms="4.3998807668685913e-01" purity="7.0411282777786255e-01" nType="-99"/>
          <Node pos="r" depth="2" NCoef="0" IVar="-1" Cut="0.0000000000000000e+00" cType="1" res="9.5102336490526795e-04" rms="4.3074998259544373e-01" purity="7.4001640081405640e-01" nType="-99"/>
        </Node>
      </Node>
    </BinaryTree>
    <BinaryTree type="DecisionTree" boostWeight="1.0000000000000000e+00" itree="610">
      <Node pos="s" depth="0" NCoef="0" IVar="0" Cut="1.5757710266113281e+02" cType="1" res="4.3458910658955574e-03" rms="4.5970237255096436e-01" purity="5.0318461656570435e-01" nType="0">
        <Node pos="l" depth="1" NCoef="0" IVar="8" Cut="3.5778543353080750e-01" cType="1" res="1.7542280256748199e-02" rms="4.6284565329551697e-01" purity="5.3619664907455444e-01" nType="0">
          <Node pos="l" depth="2" NCoef="0" IVar="-1" Cut="0.0000000000000000e+00" cType="1" res="-9.6054410096257925e-04" rms="4.6039599180221558e-01" purity="4.5893362164497375e-01" nType="-99"/>
          <Node pos="r" depth="2" NCoef="0" IVar="-1" Cut="0.0000000000000000e+00" cType="1" res="6.8961654324084520e-04" rms="4.6271339058876038e-01" purity="5.4954314231872559e-01" nType="-99"/>
        </Node>
        <Node pos="r" depth="1" NCoef="0" IVar="4" Cut="1.8269865417480469e+02" cType="1" res="-1.4469550922513008e-02" rms="4.5452100038528442e-01" purity="4.5611596107482910e-01" nType="0">
          <Node pos="l" depth="2" NCoef="0" IVar="-1" Cut="0.0000000000000000e+00" cType="1" res="-1.3029273832216859e-03" rms="4.4902431964874268e-01" purity="3.8386616110801697e-01" nType="-99"/>
          <Node pos="r" depth="2" NCoef="0" IVar="-1" Cut="0.0000000000000000e+00" cType="1" res="3.1981055508367717e-04" rms="4.5892891287803650e-01" purity="5.3423798084259033e-01" nType="-99"/>
        </Node>
      </Node>
    </BinaryTree>
    <BinaryTree type="DecisionTree" boostWeight="1.0000000000000000e+00" itree="611">
      <Node pos="s" depth="0" NCoef="0" IVar="6" Cut="9.1001820564270020e-01" cType="1" res="-1.9164101686328650e-03" rms="4.5825964212417603e-01" purity="4.9847909808158875e-01" nType="0">
        <Node pos="l" depth="1" NCoef="0" IVar="-1" Cut="0.0000000000000000e+00" cType="1" res="-1.7904057167470455e-03" rms="4.5555064082145691e-01" purity="3.9795985817909241e-01" nType="-99"/>
        <Node pos="r" depth="1" NCoef="0" IVar="9" Cut="6.4983181655406952e-02" cType="1" res="2.6833286974579096e-03" rms="4.5817244052886963e-01" purity="5.0665527582168579e-01" nType="0">
          <Node pos="l" depth="2" NCoef="0" IVar="-1" Cut="0.0000000000000000e+00" cType="1" res="-4.0539665496908128e-04" rms="4.6012464165687561e-01" purity="4.6150574088096619e-01" nType="-99"/>
          <Node pos="r" depth="2" NCoef="0" IVar="-1" Cut="0.0000000000000000e+00" cType="1" res="3.7920783506706357e-04" rms="4.5649281144142151e-01" purity="5.3742164373397827e-01" nType="-99"/>
        </Node>
      </Node>
    </BinaryTree>
    <BinaryTree type="DecisionTree" boostWeight="1.0000000000000000e+00" itree="612">
      <Node pos="s" depth="0" NCoef="0" IVar="0" Cut="2.0542585754394531e+02" cType="1" res="5.0662457942962646e-03" rms="4.5921570062637329e-01" purity="5.0527858734130859e-01" nType="0">
        <Node pos="l" depth="1" NCoef="0" IVar="0" Cut="8.9550384521484375e+01" cType="1" res="1.3574537821114063e-02" rms="4.5994573831558228e-01" purity="5.2654677629470825e-01" nType="0">
          <Node pos="l" depth="2" NCoef="0" IVar="-1" Cut="0.0000000000000000e+00" cType="1" res="-5.5957643780857325e-04" rms="4.5779278874397278e-01" purity="4.8987910151481628e-01" nType="-99"/>
          <Node pos="r" depth="2" NCoef="0" IVar="-1" Cut="0.0000000000000000e+00" cType="1" res="6.5062480280175805e-04" rms="4.6011722087860107e-01" purity="5.3823256492614746e-01" nType="-99"/>
        </Node>
        <Node pos="r" depth="1" NCoef="0" IVar="8" Cut="3.8044700026512146e-01" cType="1" res="-1.9391123205423355e-02" rms="4.5622801780700684e-01" purity="4.4414240121841431e-01" nType="0">
          <Node pos="l" depth="2" NCoef="0" IVar="-1" Cut="0.0000000000000000e+00" cType="1" res="2.0030756422784179e-04" rms="4.6840798854827881e-01" purity="4.3246465921401978e-01" nType="-99"/>
          <Node pos="r" depth="2" NCoef="0" IVar="-1" Cut="0.0000000000000000e+00" cType="1" res="-1.0738309938460588e-03" rms="4.4778183102607727e-01" purity="4.5136815309524536e-01" nType="-99"/>
        </Node>
      </Node>
    </BinaryTree>
    <BinaryTree type="DecisionTree" boostWeight="1.0000000000000000e+00" itree="613">
      <Node pos="s" depth="0" NCoef="0" IVar="7" Cut="-4.1796989738941193e-02" cType="1" res="-8.3455303683876991e-03" rms="4.5967689156532288e-01" purity="4.8746290802955627e-01" nType="0">
        <Node pos="l" depth="1" NCoef="0" IVar="-1" Cut="0.0000000000000000e+00" cType="1" res="8.6482940241694450e-04" rms="4.4714999198913574e-01" purity="5.8201646804809570e-01" nType="-99"/>
        <Node pos="r" depth="1" NCoef="0" IVar="5" Cut="9.0446166694164276e-02" cType="1" res="-1.2934672646224499e-02" rms="4.6078872680664062e-01" purity="4.7716051340103149e-01" nType="0">
          <Node pos="l" depth="2" NCoef="0" IVar="-1" Cut="0.0000000000000000e+00" cType="1" res="-4.9720815150067210e-04" rms="4.5912510156631470e-01" purity="4.7476625442504883e-01" nType="-99"/>
          <Node pos="r" depth="2" NCoef="0" IVar="-1" Cut="0.0000000000000000e+00" cType="1" res="1.1525314766913652e-03" rms="4.7964274883270264e-01" purity="5.1018828153610229e-01" nType="-99"/>
        </Node>
      </Node>
    </BinaryTree>
    <BinaryTree type="DecisionTree" boostWeight="1.0000000000000000e+00" itree="614">
      <Node pos="s" depth="0" NCoef="0" IVar="8" Cut="4.0310138463973999e-01" cType="1" res="3.3561140298843384e-03" rms="4.6152028441429138e-01" purity="4.9974486231803894e-01" nType="0">
        <Node pos="l" depth="1" NCoef="0" IVar="4" Cut="1.5618521118164062e+02" cType="1" res="-4.1009238921105862e-03" rms="4.6244034171104431e-01" purity="4.7890362143516541e-01" nType="0">
          <Node pos="l" depth="2" NCoef="0" IVar="-1" Cut="0.0000000000000000e+00" cType="1" res="-5.3899420890957117e-04" rms="4.5932129025459290e-01" purity="4.1453519463539124e-01" nType="-99"/>
          <Node pos="r" depth="2" NCoef="0" IVar="-1" Cut="0.0000000000000000e+00" cType="1" res="1.9429600797593594e-04" rms="4.6485555171966553e-01" purity="5.3524684906005859e-01" nType="-99"/>
        </Node>
        <Node pos="r" depth="1" NCoef="0" IVar="0" Cut="1.7516564941406250e+02" cType="1" res="3.3091694116592407e-02" rms="4.5662367343902588e-01" purity="5.8285117149353027e-01" nType="0">
          <Node pos="l" depth="2" NCoef="0" IVar="-1" Cut="0.0000000000000000e+00" cType="1" res="1.1648784857243299e-03" rms="4.5148503780364990e-01" purity="6.1093485355377197e-01" nType="-99"/>
          <Node pos="r" depth="2" NCoef="0" IVar="-1" Cut="0.0000000000000000e+00" cType="1" res="1.7938924429472536e-04" rms="4.6519860625267029e-01" purity="5.2887660264968872e-01" nType="-99"/>
        </Node>
      </Node>
    </BinaryTree>
    <BinaryTree type="DecisionTree" boostWeight="1.0000000000000000e+00" itree="615">
      <Node pos="s" depth="0" NCoef="0" IVar="4" Cut="1.9651039123535156e+02" cType="1" res="3.9970659418031573e-04" rms="4.5896252989768982e-01" purity="5.0031840801239014e-01" nType="0">
        <Node pos="l" depth="1" NCoef="0" IVar="8" Cut="4.0303263068199158e-01" cType="1" res="-9.5560634508728981e-03" rms="4.5771795511245728e-01" purity="4.6340858936309814e-01" nType="0">
          <Node pos="l" depth="2" NCoef="0" IVar="-1" Cut="0.0000000000000000e+00" cType="1" res="-6.1521609313786030e-04" rms="4.5680183172225952e-01" purity="4.3211901187896729e-01" nType="-99"/>
          <Node pos="r" depth="2" NCoef="0" IVar="-1" Cut="0.0000000000000000e+00" cType="1" res="5.8736873324960470e-04" rms="4.5905691385269165e-01" purity="5.6073504686355591e-01" nType="-99"/>
        </Node>
        <Node pos="r" depth="1" NCoef="0" IVar="3" Cut="1.2597432136535645e+00" cType="1" res="1.9724603742361069e-02" rms="4.6075507998466492e-01" purity="5.7196313142776489e-01" nType="0">
          <Node pos="l" depth="2" NCoef="0" IVar="-1" Cut="0.0000000000000000e+00" cType="1" res="1.2175290612503886e-03" rms="4.4327229261398315e-01" purity="6.7559540271759033e-01" nType="-99"/>
          <Node pos="r" depth="2" NCoef="0" IVar="-1" Cut="0.0000000000000000e+00" cType="1" res="2.9287609504535794e-04" rms="4.6498316526412964e-01" purity="5.4406899213790894e-01" nType="-99"/>
        </Node>
      </Node>
    </BinaryTree>
    <BinaryTree type="DecisionTree" boostWeight="1.0000000000000000e+00" itree="616">
      <Node pos="s" depth="0" NCoef="0" IVar="0" Cut="1.3274932861328125e+02" cType="1" res="1.1124485172331333e-02" rms="4.6341025829315186e-01" purity="5.0508093833923340e-01" nType="0">
        <Node pos="l" depth="1" NCoef="0" IVar="0" Cut="1.0218297576904297e+02" cType="1" res="2.6019366458058357e-02" rms="4.6232345700263977e-01" purity="5.4309278726577759e-01" nType="0">
          <Node pos="l" depth="2" NCoef="0" IVar="-1" Cut="0.0000000000000000e+00" cType="1" res="3.1026040232973173e-05" rms="4.6867069602012634e-01" purity="5.0927174091339111e-01" nType="-99"/>
          <Node pos="r" depth="2" NCoef="0" IVar="-1" Cut="0.0000000000000000e+00" cType="1" res="1.4721927000209689e-03" rms="4.5202609896659851e-01" purity="5.8656615018844604e-01" nType="-99"/>
        </Node>
        <Node pos="r" depth="1" NCoef="0" IVar="2" Cut="4.4519770145416260e-01" cType="1" res="-1.2769406894221902e-03" rms="4.6394851803779602e-01" purity="4.7343242168426514e-01" nType="0">
          <Node pos="l" depth="2" NCoef="0" IVar="-1" Cut="0.0000000000000000e+00" cType="1" res="9.5447059720754623e-04" rms="4.6886077523231506e-01" purity="4.3127724528312683e-01" nType="-99"/>
          <Node pos="r" depth="2" NCoef="0" IVar="-1" Cut="0.0000000000000000e+00" cType="1" res="-2.3444855469278991e-04" rms="4.6264055371284485e-01" purity="4.8212760686874390e-01" nType="-99"/>
        </Node>
      </Node>
    </BinaryTree>
    <BinaryTree type="DecisionTree" boostWeight="1.0000000000000000e+00" itree="617">
      <Node pos="s" depth="0" NCoef="0" IVar="7" Cut="-4.6880345791578293e-02" cType="1" res="2.0095603540539742e-03" rms="4.6256244182586670e-01" purity="4.9603688716888428e-01" nType="0">
        <Node pos="l" depth="1" NCoef="0" IVar="-1" Cut="0.0000000000000000e+00" cType="1" res="1.1185961775481701e-03" rms="4.6375036239624023e-01" purity="5.8173751831054688e-01" nType="-99"/>
        <Node pos="r" depth="1" NCoef="0" IVar="4" Cut="2.2568302917480469e+02" cType="1" res="-1.4034343184903264e-03" rms="4.6229830384254456e-01" purity="4.8905655741691589e-01" nType="0">
          <Node pos="l" depth="2" NCoef="0" IVar="-1" Cut="0.0000000000000000e+00" cType="1" res="-2.9988362803123891e-04" rms="4.6342584490776062e-01" purity="4.5711627602577209e-01" nType="-99"/>
          <Node pos="r" depth="2" NCoef="0" IVar="-1" Cut="0.0000000000000000e+00" cType="1" res="5.9079512720927596e-04" rms="4.5814719796180725e-01" purity="5.8080333471298218e-01" nType="-99"/>
        </Node>
      </Node>
    </BinaryTree>
    <BinaryTree type="DecisionTree" boostWeight="1.0000000000000000e+00" itree="618">
      <Node pos="s" depth="0" NCoef="0" IVar="3" Cut="1.9188576936721802e+00" cType="1" res="8.5441013798117638e-03" rms="4.6292158961296082e-01" purity="5.0593829154968262e-01" nType="0">
        <Node pos="l" depth="1" NCoef="0" IVar="0" Cut="9.4512550354003906e+01" cType="1" res="2.5517147034406662e-02" rms="4.6088030934333801e-01" purity="5.7941275835037231e-01" nType="0">
          <Node pos="l" depth="2" NCoef="0" IVar="-1" Cut="0.0000000000000000e+00" cType="1" res="-3.6671735870186239e-05" rms="4.7514921426773071e-01" purity="5.1092404127120972e-01" nType="-99"/>
          <Node pos="r" depth="2" NCoef="0" IVar="-1" Cut="0.0000000000000000e+00" cType="1" res="1.1580078862607479e-03" rms="4.4755119085311890e-01" purity="6.3592869043350220e-01" nType="-99"/>
        </Node>
        <Node pos="r" depth="1" NCoef="0" IVar="9" Cut="4.6775478869676590e-02" cType="1" res="-2.1494782995432615e-03" rms="4.6388429403305054e-01" purity="4.5964697003364563e-01" nType="0">
          <Node pos="l" depth="2" NCoef="0" IVar="-1" Cut="0.0000000000000000e+00" cType="1" res="-9.7385607659816742e-04" rms="4.5235902070999146e-01" purity="4.0368977189064026e-01" nType="-99"/>
          <Node pos="r" depth="2" NCoef="0" IVar="-1" Cut="0.0000000000000000e+00" cType="1" res="2.4444324662908912e-04" rms="4.6764668822288513e-01" purity="4.8045280575752258e-01" nType="-99"/>
        </Node>
      </Node>
    </BinaryTree>
    <BinaryTree type="DecisionTree" boostWeight="1.0000000000000000e+00" itree="619">
      <Node pos="s" depth="0" NCoef="0" IVar="1" Cut="-2.1409757137298584e+00" cType="1" res="-1.5529609518125653e-03" rms="4.5995503664016724e-01" purity="4.9711540341377258e-01" nType="0">
        <Node pos="l" depth="1" NCoef="0" IVar="-1" Cut="0.0000000000000000e+00" cType="1" res="-3.0954075045883656e-03" rms="4.0754002332687378e-01" purity="2.1583040058612823e-01" nType="-99"/>
        <Node pos="r" depth="1" NCoef="0" IVar="2" Cut="7.9582190513610840e-01" cType="1" res="1.5841936692595482e-03" rms="4.6276983618736267e-01" purity="5.1424342393875122e-01" nType="0">
          <Node pos="l" depth="2" NCoef="0" IVar="-1" Cut="0.0000000000000000e+00" cType="1" res="-7.2630107752047479e-05" rms="4.6367940306663513e-01" purity="4.9890226125717163e-01" nType="-99"/>
          <Node pos="r" depth="2" NCoef="0" IVar="-1" Cut="0.0000000000000000e+00" cType="1" res="9.1229105601087213e-04" rms="4.5323038101196289e-01" purity="6.4657944440841675e-01" nType="-99"/>
        </Node>
      </Node>
    </BinaryTree>
    <BinaryTree type="DecisionTree" boostWeight="1.0000000000000000e+00" itree="620">
      <Node pos="s" depth="0" NCoef="0" IVar="5" Cut="4.0117029129760340e-05" cType="1" res="-4.6461119200102985e-04" rms="4.6055552363395691e-01" purity="4.9431079626083374e-01" nType="0">
        <Node pos="l" depth="1" NCoef="0" IVar="2" Cut="4.4951081275939941e-01" cType="1" res="-1.2606812641024590e-02" rms="4.5574745535850525e-01" purity="4.7756466269493103e-01" nType="0">
          <Node pos="l" depth="2" NCoef="0" IVar="-1" Cut="0.0000000000000000e+00" cType="1" res="-2.7203885838389397e-03" rms="4.3866840004920959e-01" purity="3.3104389905929565e-01" nType="-99"/>
          <Node pos="r" depth="2" NCoef="0" IVar="-1" Cut="0.0000000000000000e+00" cType="1" res="-9.3067217676434666e-05" rms="4.5741420984268188e-01" purity="4.9875071644783020e-01" nType="-99"/>
        </Node>
        <Node pos="r" depth="1" NCoef="0" IVar="7" Cut="1.5772053599357605e-01" cType="1" res="1.4440934173762798e-02" rms="4.6595767140388489e-01" purity="5.1486796140670776e-01" nType="0">
          <Node pos="l" depth="2" NCoef="0" IVar="-1" Cut="0.0000000000000000e+00" cType="1" res="1.9100960344076157e-04" rms="4.6419113874435425e-01" purity="5.1395541429519653e-01" nType="-99"/>
          <Node pos="r" depth="2" NCoef="0" IVar="-1" Cut="0.0000000000000000e+00" cType="1" res="1.8568660598248243e-03" rms="4.7523871064186096e-01" purity="5.2177327871322632e-01" nType="-99"/>
        </Node>
      </Node>
    </BinaryTree>
    <BinaryTree type="DecisionTree" boostWeight="1.0000000000000000e+00" itree="621">
      <Node pos="s" depth="0" NCoef="0" IVar="6" Cut="9.9321407079696655e-01" cType="1" res="6.1704213730990887e-03" rms="4.5986023545265198e-01" purity="5.0438213348388672e-01" nType="0">
        <Node pos="l" depth="1" NCoef="0" IVar="5" Cut="2.5100132450461388e-02" cType="1" res="-1.3298768317326903e-04" rms="4.5995950698852539e-01" purity="4.9491211771965027e-01" nType="0">
          <Node pos="l" depth="2" NCoef="0" IVar="-1" Cut="0.0000000000000000e+00" cType="1" res="-2.8139233472757041e-04" rms="4.5972397923469543e-01" purity="4.8281970620155334e-01" nType="-99"/>
          <Node pos="r" depth="2" NCoef="0" IVar="-1" Cut="0.0000000000000000e+00" cType="1" res="6.4433313673362136e-04" rms="4.5965239405632019e-01" purity="5.2551877498626709e-01" nType="-99"/>
        </Node>
        <Node pos="r" depth="1" NCoef="0" IVar="3" Cut="2.2995321750640869e+00" cType="1" res="5.4215680807828903e-02" rms="4.5625036954879761e-01" purity="5.7656329870223999e-01" nType="0">
          <Node pos="l" depth="2" NCoef="0" IVar="-1" Cut="0.0000000000000000e+00" cType="1" res="1.7064897110685706e-03" rms="4.4496768712997437e-01" purity="6.3373786211013794e-01" nType="-99"/>
          <Node pos="r" depth="2" NCoef="0" IVar="-1" Cut="0.0000000000000000e+00" cType="1" res="7.8776921145617962e-04" rms="4.6895381808280945e-01" purity="5.0374984741210938e-01" nType="-99"/>
        </Node>
      </Node>
    </BinaryTree>
    <BinaryTree type="DecisionTree" boostWeight="1.0000000000000000e+00" itree="622">
      <Node pos="s" depth="0" NCoef="0" IVar="5" Cut="-6.9447942078113556e-02" cType="1" res="-6.2239990802481771e-04" rms="4.5999559760093689e-01" purity="4.9734872579574585e-01" nType="0">
        <Node pos="l" depth="1" NCoef="0" IVar="-1" Cut="0.0000000000000000e+00" cType="1" res="-1.9823829643428326e-03" rms="4.3877068161964417e-01" purity="3.7184619903564453e-01" nType="-99"/>
        <Node pos="r" depth="1" NCoef="0" IVar="1" Cut="2.6920118331909180e+00" cType="1" res="3.3334982581436634e-03" rms="4.6117752790451050e-01" purity="5.0609248876571655e-01" nType="0">
          <Node pos="l" depth="2" NCoef="0" IVar="-1" Cut="0.0000000000000000e+00" cType="1" res="-2.7726327971322462e-05" rms="4.6817812323570251e-01" purity="4.7379904985427856e-01" nType="-99"/>
          <Node pos="r" depth="2" NCoef="0" IVar="-1" Cut="0.0000000000000000e+00" cType="1" res="1.0536478366702795e-03" rms="3.8697704672813416e-01" purity="8.0946457386016846e-01" nType="-99"/>
        </Node>
      </Node>
    </BinaryTree>
    <BinaryTree type="DecisionTree" boostWeight="1.0000000000000000e+00" itree="623">
      <Node pos="s" depth="0" NCoef="0" IVar="6" Cut="9.0953087806701660e-01" cType="1" res="9.3334382399916649e-03" rms="4.6285939216613770e-01" purity="5.0659590959548950e-01" nType="0">
        <Node pos="l" depth="1" NCoef="0" IVar="-1" Cut="0.0000000000000000e+00" cType="1" res="-1.3224332360550761e-03" rms="4.6249869465827942e-01" purity="4.0947237610816956e-01" nType="-99"/>
        <Node pos="r" depth="1" NCoef="0" IVar="2" Cut="8.3229762315750122e-01" cType="1" res="1.3810573145747185e-02" rms="4.6261262893676758e-01" purity="5.1482367515563965e-01" nType="0">
          <Node pos="l" depth="2" NCoef="0" IVar="-1" Cut="0.0000000000000000e+00" cType="1" res="2.8133147861808538e-04" rms="4.6390870213508606e-01" purity="5.0394588708877563e-01" nType="-99"/>
          <Node pos="r" depth="2" NCoef="0" IVar="-1" Cut="0.0000000000000000e+00" cType="1" res="1.4900733949616551e-03" rms="4.4209915399551392e-01" purity="6.5946227312088013e-01" nType="-99"/>
        </Node>
      </Node>
    </BinaryTree>
    <BinaryTree type="DecisionTree" boostWeight="1.0000000000000000e+00" itree="624">
      <Node pos="s" depth="0" NCoef="0" IVar="8" Cut="4.1193878650665283e-01" cType="1" res="3.4428676590323448e-03" rms="4.6094930171966553e-01" purity="5.0111103057861328e-01" nType="0">
        <Node pos="l" depth="1" NCoef="0" IVar="3" Cut="8.0932182073593140e-01" cType="1" res="-5.9654691722244024e-04" rms="4.6168914437294006e-01" purity="4.8832038044929504e-01" nType="0">
          <Node pos="l" depth="2" NCoef="0" IVar="-1" Cut="0.0000000000000000e+00" cType="1" res="1.2103267945349216e-03" rms="4.5389589667320251e-01" purity="6.0116672515869141e-01" nType="-99"/>
          <Node pos="r" depth="2" NCoef="0" IVar="-1" Cut="0.0000000000000000e+00" cType="1" res="-1.2053421960445121e-04" rms="4.6202352643013000e-01" purity="4.8034608364105225e-01" nType="-99"/>
        </Node>
        <Node pos="r" depth="1" NCoef="0" IVar="-1" Cut="0.0000000000000000e+00" cType="1" res="1.1781968642026186e-03" rms="4.5012024044990540e-01" purity="6.4426159858703613e-01" nType="-99"/>
      </Node>
    </BinaryTree>
    <BinaryTree type="DecisionTree" boostWeight="1.0000000000000000e+00" itree="625">
      <Node pos="s" depth="0" NCoef="0" IVar="3" Cut="9.0561360120773315e-01" cType="1" res="2.3349057883024216e-03" rms="4.6179515123367310e-01" purity="4.9984252452850342e-01" nType="0">
        <Node pos="l" depth="1" NCoef="0" IVar="-1" Cut="0.0000000000000000e+00" cType="1" res="1.0247752070426941e-03" rms="4.6098655462265015e-01" purity="6.0377073287963867e-01" nType="-99"/>
        <Node pos="r" depth="1" NCoef="0" IVar="9" Cut="1.7542397975921631e-01" cType="1" res="-1.4199553988873959e-03" rms="4.6169316768646240e-01" purity="4.9008309841156006e-01" nType="0">
          <Node pos="l" depth="2" NCoef="0" IVar="-1" Cut="0.0000000000000000e+00" cType="1" res="-1.8119438027497381e-04" rms="4.6268916130065918e-01" purity="4.7638517618179321e-01" nType="-99"/>
          <Node pos="r" depth="2" NCoef="0" IVar="-1" Cut="0.0000000000000000e+00" cType="1" res="8.3155656466260552e-04" rms="4.5339554548263550e-01" purity="5.8414781093597412e-01" nType="-99"/>
        </Node>
      </Node>
    </BinaryTree>
    <BinaryTree type="DecisionTree" boostWeight="1.0000000000000000e+00" itree="626">
      <Node pos="s" depth="0" NCoef="0" IVar="1" Cut="2.6025273799896240e+00" cType="1" res="-1.7103341815527529e-04" rms="4.5805796980857849e-01" purity="4.9894699454307556e-01" nType="0">
        <Node pos="l" depth="1" NCoef="0" IVar="2" Cut="8.0577743053436279e-01" cType="1" res="-6.3362894579768181e-03" rms="4.6543225646018982e-01" purity="4.6260899305343628e-01" nType="0">
          <Node pos="l" depth="2" NCoef="0" IVar="-1" Cut="0.0000000000000000e+00" cType="1" res="-3.3793484908528626e-04" rms="4.6539160609245300e-01" purity="4.4757667183876038e-01" nType="-99"/>
          <Node pos="r" depth="2" NCoef="0" IVar="-1" Cut="0.0000000000000000e+00" cType="1" res="1.0192963527515531e-03" rms="4.6313273906707764e-01" purity="6.0137069225311279e-01" nType="-99"/>
        </Node>
        <Node pos="r" depth="1" NCoef="0" IVar="-1" Cut="0.0000000000000000e+00" cType="1" res="1.2437022523954511e-03" rms="3.8482031226158142e-01" purity="8.1157749891281128e-01" nType="-99"/>
      </Node>
    </BinaryTree>
    <BinaryTree type="DecisionTree" boostWeight="1.0000000000000000e+00" itree="627">
      <Node pos="s" depth="0" NCoef="0" IVar="4" Cut="1.0553046417236328e+02" cType="1" res="6.0766840761061758e-05" rms="4.5960086584091187e-01" purity="4.9672588706016541e-01" nType="0">
        <Node pos="l" depth="1" NCoef="0" IVar="6" Cut="9.6891158819198608e-01" cType="1" res="-2.4644507095217705e-02" rms="4.4628071784973145e-01" purity="3.9509621262550354e-01" nType="0">
          <Node pos="l" depth="2" NCoef="0" IVar="-1" Cut="0.0000000000000000e+00" cType="1" res="-1.7994919326156378e-03" rms="4.3660965561866760e-01" purity="3.5289257764816284e-01" nType="-99"/>
          <Node pos="r" depth="2" NCoef="0" IVar="-1" Cut="0.0000000000000000e+00" cType="1" res="3.0444611911661923e-04" rms="4.5621645450592041e-01" purity="4.4986885786056519e-01" nType="-99"/>
        </Node>
        <Node pos="r" depth="1" NCoef="0" IVar="9" Cut="1.2777982652187347e-01" cType="1" res="6.1173327267169952e-03" rms="4.6260651946067810e-01" purity="5.2164065837860107e-01" nType="0">
          <Node pos="l" depth="2" NCoef="0" IVar="-1" Cut="0.0000000000000000e+00" cType="1" res="-5.1945877203252167e-05" rms="4.6487262845039368e-01" purity="4.9824744462966919e-01" nType="-99"/>
          <Node pos="r" depth="2" NCoef="0" IVar="-1" Cut="0.0000000000000000e+00" cType="1" res="9.0037490008398890e-04" rms="4.5285418629646301e-01" purity="6.0859364271163940e-01" nType="-99"/>
        </Node>
      </Node>
    </BinaryTree>
    <BinaryTree type="DecisionTree" boostWeight="1.0000000000000000e+00" itree="628">
      <Node pos="s" depth="0" NCoef="0" IVar="9" Cut="3.6960221827030182e-02" cType="1" res="6.4598359167575836e-03" rms="4.6204584836959839e-01" purity="5.0231897830963135e-01" nType="0">
        <Node pos="l" depth="1" NCoef="0" IVar="5" Cut="4.0935702621936798e-02" cType="1" res="-1.9300468266010284e-02" rms="4.5608049631118774e-01" purity="4.4939672946929932e-01" nType="0">
          <Node pos="l" depth="2" NCoef="0" IVar="-1" Cut="0.0000000000000000e+00" cType="1" res="-1.2528629740700126e-03" rms="4.4825658202171326e-01" purity="4.2381161451339722e-01" nType="-99"/>
          <Node pos="r" depth="2" NCoef="0" IVar="-1" Cut="0.0000000000000000e+00" cType="1" res="9.8221155349165201e-04" rms="4.7083440423011780e-01" purity="5.1465386152267456e-01" nType="-99"/>
        </Node>
        <Node pos="r" depth="1" NCoef="0" IVar="2" Cut="6.5120106935501099e-01" cType="1" res="1.2762590311467648e-02" rms="4.6327564120292664e-01" purity="5.1526743173599243e-01" nType="0">
          <Node pos="l" depth="2" NCoef="0" IVar="-1" Cut="0.0000000000000000e+00" cType="1" res="6.3162716105580330e-04" rms="4.6880483627319336e-01" purity="4.8130345344543457e-01" nType="-99"/>
          <Node pos="r" depth="2" NCoef="0" IVar="-1" Cut="0.0000000000000000e+00" cType="1" res="-1.2526041246019304e-05" rms="4.5519885420799255e-01" purity="5.6216889619827271e-01" nType="-99"/>
        </Node>
      </Node>
    </BinaryTree>
    <BinaryTree type="DecisionTree" boostWeight="1.0000000000000000e+00" itree="629">
      <Node pos="s" depth="0" NCoef="0" IVar="9" Cut="2.0340004563331604e-01" cType="1" res="1.8628579564392567e-03" rms="4.6200349926948547e-01" purity="4.9700492620468140e-01" nType="0">
        <Node pos="l" depth="1" NCoef="0" IVar="6" Cut="9.9017816781997681e-01" cType="1" res="-2.4039898999035358e-03" rms="4.6204742789268494e-01" purity="4.8850011825561523e-01" nType="0">
          <Node pos="l" depth="2" NCoef="0" IVar="-1" Cut="0.0000000000000000e+00" cType="1" res="-2.3658642021473497e-04" rms="4.6370178461074829e-01" purity="4.7702780365943909e-01" nType="-99"/>
          <Node pos="r" depth="2" NCoef="0" IVar="-1" Cut="0.0000000000000000e+00" cType="1" res="7.3948618955910206e-04" rms="4.5202937722206116e-01" purity="5.4875808954238892e-01" nType="-99"/>
        </Node>
        <Node pos="r" depth="1" NCoef="0" IVar="-1" Cut="0.0000000000000000e+00" cType="1" res="1.3221930712461472e-03" rms="4.5848107337951660e-01" purity="5.9759730100631714e-01" nType="-99"/>
      </Node>
    </BinaryTree>
    <BinaryTree type="DecisionTree" boostWeight="1.0000000000000000e+00" itree="630">
      <Node pos="s" depth="0" NCoef="0" IVar="9" Cut="1.0905416309833527e-01" cType="1" res="6.0467463918030262e-03" rms="4.6111243963241577e-01" purity="5.0456029176712036e-01" nType="0">
        <Node pos="l" depth="1" NCoef="0" IVar="4" Cut="3.2132379150390625e+02" cType="1" res="-6.2777986750006676e-03" rms="4.6198081970214844e-01" purity="4.7538021206855774e-01" nType="0">
          <Node pos="l" depth="2" NCoef="0" IVar="-1" Cut="0.0000000000000000e+00" cType="1" res="-3.7503885687328875e-04" rms="4.6134912967681885e-01" purity="4.5299333333969116e-01" nType="-99"/>
          <Node pos="r" depth="2" NCoef="0" IVar="-1" Cut="0.0000000000000000e+00" cType="1" res="7.2689540684223175e-04" rms="4.6393939852714539e-01" purity="6.0364681482315063e-01" nType="-99"/>
        </Node>
        <Node pos="r" depth="1" NCoef="0" IVar="0" Cut="9.5685966491699219e+01" cType="1" res="3.0329287052154541e-02" rms="4.5842823386192322e-01" purity="5.6205278635025024e-01" nType="0">
          <Node pos="l" depth="2" NCoef="0" IVar="-1" Cut="0.0000000000000000e+00" cType="1" res="-2.1984662453178316e-04" rms="4.6417194604873657e-01" purity="5.1899659633636475e-01" nType="-99"/>
          <Node pos="r" depth="2" NCoef="0" IVar="-1" Cut="0.0000000000000000e+00" cType="1" res="1.0825134813785553e-03" rms="4.5604330301284790e-01" purity="5.7505589723587036e-01" nType="-99"/>
        </Node>
      </Node>
    </BinaryTree>
    <BinaryTree type="DecisionTree" boostWeight="1.0000000000000000e+00" itree="631">
      <Node pos="s" depth="0" NCoef="0" IVar="3" Cut="9.1790485382080078e-01" cType="1" res="1.0315607301890850e-02" rms="4.5825472474098206e-01" purity="5.0878983736038208e-01" nType="0">
        <Node pos="l" depth="1" NCoef="0" IVar="-1" Cut="0.0000000000000000e+00" cType="1" res="1.3893378200009465e-03" rms="4.4889411330223083e-01" purity="6.2642037868499756e-01" nType="-99"/>
        <Node pos="r" depth="1" NCoef="0" IVar="1" Cut="1.7199316024780273e+00" cType="1" res="5.9187440201640129e-03" rms="4.5887020230293274e-01" purity="4.9782869219779968e-01" nType="0">
          <Node pos="l" depth="2" NCoef="0" IVar="-1" Cut="0.0000000000000000e+00" cType="1" res="-6.6858054196927696e-05" rms="4.6898794174194336e-01" purity="4.2402610182762146e-01" nType="-99"/>
          <Node pos="r" depth="2" NCoef="0" IVar="-1" Cut="0.0000000000000000e+00" cType="1" res="7.8030821168795228e-04" rms="4.2106485366821289e-01" purity="7.5145119428634644e-01" nType="-99"/>
        </Node>
      </Node>
    </BinaryTree>
    <BinaryTree type="DecisionTree" boostWeight="1.0000000000000000e+00" itree="632">
      <Node pos="s" depth="0" NCoef="0" IVar="1" Cut="4.2981963604688644e-02" cType="1" res="3.6218960303813219e-04" rms="4.5984029769897461e-01" purity="4.9707359075546265e-01" nType="0">
        <Node pos="l" depth="1" NCoef="0" IVar="5" Cut="4.3896414339542389e-02" cType="1" res="-1.4088879339396954e-02" rms="4.5531076192855835e-01" purity="3.3157220482826233e-01" nType="0">
          <Node pos="l" depth="2" NCoef="0" IVar="-1" Cut="0.0000000000000000e+00" cType="1" res="-8.3641783567145467e-04" rms="4.5268020033836365e-01" purity="3.2395368814468384e-01" nType="-99"/>
          <Node pos="r" depth="2" NCoef="0" IVar="-1" Cut="0.0000000000000000e+00" cType="1" res="7.5983023270964622e-04" rms="4.6540877223014832e-01" purity="3.6637192964553833e-01" nType="-99"/>
        </Node>
        <Node pos="r" depth="1" NCoef="0" IVar="5" Cut="-5.6420292705297470e-02" cType="1" res="1.1327460408210754e-02" rms="4.6294677257537842e-01" purity="6.2265378236770630e-01" nType="0">
          <Node pos="l" depth="2" NCoef="0" IVar="-1" Cut="0.0000000000000000e+00" cType="1" res="-7.6253456063568592e-04" rms="4.7194060683250427e-01" purity="5.3203958272933960e-01" nType="-99"/>
          <Node pos="r" depth="2" NCoef="0" IVar="-1" Cut="0.0000000000000000e+00" cType="1" res="3.9781251689419150e-04" rms="4.6141362190246582e-01" purity="6.3509297370910645e-01" nType="-99"/>
        </Node>
      </Node>
    </BinaryTree>
    <BinaryTree type="DecisionTree" boostWeight="1.0000000000000000e+00" itree="633">
      <Node pos="s" depth="0" NCoef="0" IVar="1" Cut="2.5766978263854980e+00" cType="1" res="7.5102073606103659e-04" rms="4.6057689189910889e-01" purity="4.9875599145889282e-01" nType="0">
        <Node pos="l" depth="1" NCoef="0" IVar="3" Cut="8.1821650266647339e-01" cType="1" res="-4.3310681357979774e-03" rms="4.6814805269241333e-01" purity="4.6214798092842102e-01" nType="0">
          <Node pos="l" depth="2" NCoef="0" IVar="-1" Cut="0.0000000000000000e+00" cType="1" res="1.0443743085488677e-03" rms="4.7365844249725342e-01" purity="5.6505692005157471e-01" nType="-99"/>
          <Node pos="r" depth="2" NCoef="0" IVar="-1" Cut="0.0000000000000000e+00" cType="1" res="-2.1684284729417413e-04" rms="4.6760648488998413e-01" purity="4.5507743954658508e-01" nType="-99"/>
        </Node>
        <Node pos="r" depth="1" NCoef="0" IVar="-1" Cut="0.0000000000000000e+00" cType="1" res="1.0415755677968264e-03" rms="3.8847154378890991e-01" purity="8.0683332681655884e-01" nType="-99"/>
      </Node>
    </BinaryTree>
    <BinaryTree type="DecisionTree" boostWeight="1.0000000000000000e+00" itree="634">
      <Node pos="s" depth="0" NCoef="0" IVar="7" Cut="1.5634590387344360e-01" cType="1" res="1.0022441856563091e-02" rms="4.6090960502624512e-01" purity="5.0926548242568970e-01" nType="0">
        <Node pos="l" depth="1" NCoef="0" IVar="3" Cut="1.1129341125488281e+00" cType="1" res="1.4913008548319340e-02" rms="4.6098789572715759e-01" purity="5.2024644613265991e-01" nType="0">
          <Node pos="l" depth="2" NCoef="0" IVar="-1" Cut="0.0000000000000000e+00" cType="1" res="1.0744582396000624e-03" rms="4.5874807238578796e-01" purity="6.0886776447296143e-01" nType="-99"/>
          <Node pos="r" depth="2" NCoef="0" IVar="-1" Cut="0.0000000000000000e+00" cType="1" res="2.8918759198859334e-04" rms="4.6117526292800903e-01" purity="5.0637418031692505e-01" nType="-99"/>
        </Node>
        <Node pos="r" depth="1" NCoef="0" IVar="5" Cut="4.1515952907502651e-03" cType="1" res="-3.4001599997282028e-02" rms="4.5785868167877197e-01" purity="4.1041746735572815e-01" nType="0">
          <Node pos="l" depth="2" NCoef="0" IVar="-1" Cut="0.0000000000000000e+00" cType="1" res="-3.1686667352914810e-03" rms="4.3543046712875366e-01" purity="3.4447798132896423e-01" nType="-99"/>
          <Node pos="r" depth="2" NCoef="0" IVar="-1" Cut="0.0000000000000000e+00" cType="1" res="6.3369114650413394e-04" rms="4.7289386391639709e-01" purity="4.7725304961204529e-01" nType="-99"/>
        </Node>
      </Node>
    </BinaryTree>
    <BinaryTree type="DecisionTree" boostWeight="1.0000000000000000e+00" itree="635">
      <Node pos="s" depth="0" NCoef="0" IVar="4" Cut="1.0666955566406250e+02" cType="1" res="7.9672085121273994e-03" rms="4.6044847369194031e-01" purity="5.0406914949417114e-01" nType="0">
        <Node pos="l" depth="1" NCoef="0" IVar="1" Cut="-2.4295663833618164e-01" cType="1" res="-2.6071822270750999e-02" rms="4.4585594534873962e-01" purity="3.9251133799552917e-01" nType="0">
          <Node pos="l" depth="2" NCoef="0" IVar="-1" Cut="0.0000000000000000e+00" cType="1" res="-2.8986551333218813e-03" rms="4.0289148688316345e-01" purity="2.1590200066566467e-01" nType="-99"/>
          <Node pos="r" depth="2" NCoef="0" IVar="-1" Cut="0.0000000000000000e+00" cType="1" res="-1.4925484720151871e-04" rms="4.7408020496368408e-01" purity="5.2295362949371338e-01" nType="-99"/>
        </Node>
        <Node pos="r" depth="1" NCoef="0" IVar="3" Cut="2.3691649436950684e+00" cType="1" res="1.6509359702467918e-02" rms="4.6364638209342957e-01" purity="5.3206479549407959e-01" nType="0">
          <Node pos="l" depth="2" NCoef="0" IVar="-1" Cut="0.0000000000000000e+00" cType="1" res="7.1279268013313413e-04" rms="4.6343600749969482e-01" purity="5.8675062656402588e-01" nType="-99"/>
          <Node pos="r" depth="2" NCoef="0" IVar="-1" Cut="0.0000000000000000e+00" cType="1" res="3.5055472835665569e-05" rms="4.6345692873001099e-01" purity="4.6321997046470642e-01" nType="-99"/>
        </Node>
      </Node>
    </BinaryTree>
    <BinaryTree type="DecisionTree" boostWeight="1.0000000000000000e+00" itree="636">
      <Node pos="s" depth="0" NCoef="0" IVar="3" Cut="1.0041539669036865e+00" cType="1" res="9.2962402850389481e-03" rms="4.6203806996345520e-01" purity="5.0454151630401611e-01" nType="0">
        <Node pos="l" depth="1" NCoef="0" IVar="-1" Cut="0.0000000000000000e+00" cType="1" res="1.2718609068542719e-03" rms="4.5178073644638062e-01" purity="6.1716502904891968e-01" nType="-99"/>
        <Node pos="r" depth="1" NCoef="0" IVar="4" Cut="3.1958764648437500e+02" cType="1" res="4.2580338194966316e-03" rms="4.6298304200172424e-01" purity="4.9116560816764832e-01" nType="0">
          <Node pos="l" depth="2" NCoef="0" IVar="-1" Cut="0.0000000000000000e+00" cType="1" res="-2.0815652533201501e-05" rms="4.6266147494316101e-01" purity="4.7793778777122498e-01" nType="-99"/>
          <Node pos="r" depth="2" NCoef="0" IVar="-1" Cut="0.0000000000000000e+00" cType="1" res="1.1856552446261048e-03" rms="4.6345958113670349e-01" purity="6.1113780736923218e-01" nType="-99"/>
        </Node>
      </Node>
    </BinaryTree>
    <BinaryTree type="DecisionTree" boostWeight="1.0000000000000000e+00" itree="637">
      <Node pos="s" depth="0" NCoef="0" IVar="0" Cut="2.3762170410156250e+02" cType="1" res="3.8249492645263672e-03" rms="4.6047493815422058e-01" purity="5.0270426273345947e-01" nType="0">
        <Node pos="l" depth="1" NCoef="0" IVar="4" Cut="8.9801628112792969e+01" cType="1" res="1.0333556681871414e-02" rms="4.6026206016540527e-01" purity="5.1817798614501953e-01" nType="0">
          <Node pos="l" depth="2" NCoef="0" IVar="-1" Cut="0.0000000000000000e+00" cType="1" res="-1.2302676914259791e-03" rms="4.4794392585754395e-01" purity="3.6932727694511414e-01" nType="-99"/>
          <Node pos="r" depth="2" NCoef="0" IVar="-1" Cut="0.0000000000000000e+00" cType="1" res="4.4904806418344378e-04" rms="4.6162599325180054e-01" purity="5.3954631090164185e-01" nType="-99"/>
        </Node>
        <Node pos="r" depth="1" NCoef="0" IVar="3" Cut="2.6537885665893555e+00" cType="1" res="-2.4585919454693794e-02" rms="4.6032682061195374e-01" purity="4.3515962362289429e-01" nType="0">
          <Node pos="l" depth="2" NCoef="0" IVar="-1" Cut="0.0000000000000000e+00" cType="1" res="2.5670265313237906e-04" rms="4.7575464844703674e-01" purity="5.4635310173034668e-01" nType="-99"/>
          <Node pos="r" depth="2" NCoef="0" IVar="-1" Cut="0.0000000000000000e+00" cType="1" res="-1.3718616683036089e-03" rms="4.5203140377998352e-01" purity="3.8309028744697571e-01" nType="-99"/>
        </Node>
      </Node>
    </BinaryTree>
    <BinaryTree type="DecisionTree" boostWeight="1.0000000000000000e+00" itree="638">
      <Node pos="s" depth="0" NCoef="0" IVar="1" Cut="2.6954617500305176e+00" cType="1" res="2.8571314178407192e-03" rms="4.5997163653373718e-01" purity="4.9973204731941223e-01" nType="0">
        <Node pos="l" depth="1" NCoef="0" IVar="0" Cut="8.7363159179687500e+01" cType="1" res="-7.6523720053955913e-04" rms="4.6604010462760925e-01" purity="4.6928057074546814e-01" nType="0">
          <Node pos="l" depth="2" NCoef="0" IVar="-1" Cut="0.0000000000000000e+00" cType="1" res="-6.9930189056321979e-04" rms="4.6836882829666138e-01" purity="4.5481529831886292e-01" nType="-99"/>
          <Node pos="r" depth="2" NCoef="0" IVar="-1" Cut="0.0000000000000000e+00" cType="1" res="1.1597931006690487e-04" rms="4.6541869640350342e-01" purity="4.7222769260406494e-01" nType="-99"/>
        </Node>
        <Node pos="r" depth="1" NCoef="0" IVar="-1" Cut="0.0000000000000000e+00" cType="1" res="9.4405876006931067e-04" rms="3.9244860410690308e-01" purity="8.0383282899856567e-01" nType="-99"/>
      </Node>
    </BinaryTree>
    <BinaryTree type="DecisionTree" boostWeight="1.0000000000000000e+00" itree="639">
      <Node pos="s" depth="0" NCoef="0" IVar="6" Cut="9.0895330905914307e-01" cType="1" res="2.5897850282490253e-03" rms="4.5955896377563477e-01" purity="5.0110197067260742e-01" nType="0">
        <Node pos="l" depth="1" NCoef="0" IVar="-1" Cut="0.0000000000000000e+00" cType="1" res="-1.5155451837927103e-03" rms="4.5167329907417297e-01" purity="3.9858379960060120e-01" nType="-99"/>
        <Node pos="r" depth="1" NCoef="0" IVar="9" Cut="1.0995034873485565e-01" cType="1" res="6.6601345315575600e-03" rms="4.5991688966751099e-01" purity="5.0907355546951294e-01" nType="0">
          <Node pos="l" depth="2" NCoef="0" IVar="-1" Cut="0.0000000000000000e+00" cType="1" res="-7.1084999945014715e-05" rms="4.6130529046058655e-01" purity="4.8107624053955078e-01" nType="-99"/>
          <Node pos="r" depth="2" NCoef="0" IVar="-1" Cut="0.0000000000000000e+00" cType="1" res="6.4534944249317050e-04" rms="4.5663416385650635e-01" purity="5.6428140401840210e-01" nType="-99"/>
        </Node>
      </Node>
    </BinaryTree>
    <BinaryTree type="DecisionTree" boostWeight="1.0000000000000000e+00" itree="640">
      <Node pos="s" depth="0" NCoef="0" IVar="2" Cut="8.3206671476364136e-01" cType="1" res="4.1585131548345089e-03" rms="4.5926097035408020e-01" purity="5.0325131416320801e-01" nType="0">
        <Node pos="l" depth="1" NCoef="0" IVar="1" Cut="2.5574085712432861e+00" cType="1" res="-8.4961131506133825e-05" rms="4.6047315001487732e-01" purity="4.9202123284339905e-01" nType="0">
          <Node pos="l" depth="2" NCoef="0" IVar="-1" Cut="0.0000000000000000e+00" cType="1" res="-1.4990025374572724e-04" rms="4.6754550933837891e-01" purity="4.5543929934501648e-01" nType="-99"/>
          <Node pos="r" depth="2" NCoef="0" IVar="-1" Cut="0.0000000000000000e+00" cType="1" res="9.9586695432662964e-04" rms="3.9329725503921509e-01" purity="8.0026572942733765e-01" nType="-99"/>
        </Node>
        <Node pos="r" depth="1" NCoef="0" IVar="-1" Cut="0.0000000000000000e+00" cType="1" res="1.5292380703613162e-03" rms="4.3854692578315735e-01" purity="6.5500438213348389e-01" nType="-99"/>
      </Node>
    </BinaryTree>
    <BinaryTree type="DecisionTree" boostWeight="1.0000000000000000e+00" itree="641">
      <Node pos="s" depth="0" NCoef="0" IVar="1" Cut="2.6676778793334961e+00" cType="1" res="-8.2849111640825868e-04" rms="4.5966193079948425e-01" purity="4.9866878986358643e-01" nType="0">
        <Node pos="l" depth="1" NCoef="0" IVar="3" Cut="9.2108190059661865e-01" cType="1" res="-5.7414397597312927e-03" rms="4.6686625480651855e-01" purity="4.6551653742790222e-01" nType="0">
          <Node pos="l" depth="2" NCoef="0" IVar="-1" Cut="0.0000000000000000e+00" cType="1" res="8.6994684534147382e-04" rms="4.5664995908737183e-01" purity="5.8333122730255127e-01" nType="-99"/>
          <Node pos="r" depth="2" NCoef="0" IVar="-1" Cut="0.0000000000000000e+00" cType="1" res="-2.8166398988105357e-04" rms="4.6763294935226440e-01" purity="4.5434740185737610e-01" nType="-99"/>
        </Node>
        <Node pos="r" depth="1" NCoef="0" IVar="-1" Cut="0.0000000000000000e+00" cType="1" res="1.0952270822599530e-03" rms="3.8177776336669922e-01" purity="8.1229263544082642e-01" nType="-99"/>
      </Node>
    </BinaryTree>
    <BinaryTree type="DecisionTree" boostWeight="1.0000000000000000e+00" itree="642">
      <Node pos="s" depth="0" NCoef="0" IVar="8" Cut="3.8969004154205322e-01" cType="1" res="-4.8907002201303840e-04" rms="4.6359503269195557e-01" purity="4.9438005685806274e-01" nType="0">
        <Node pos="l" depth="1" NCoef="0" IVar="2" Cut="7.6218312978744507e-01" cType="1" res="-1.7452437430620193e-02" rms="4.6398940682411194e-01" purity="4.5490539073944092e-01" nType="0">
          <Node pos="l" depth="2" NCoef="0" IVar="-1" Cut="0.0000000000000000e+00" cType="1" res="-7.3201331542804837e-04" rms="4.6447890996932983e-01" purity="4.3346184492111206e-01" nType="-99"/>
          <Node pos="r" depth="2" NCoef="0" IVar="-1" Cut="0.0000000000000000e+00" cType="1" res="7.1412004763260484e-04" rms="4.5792824029922485e-01" purity="6.0610622167587280e-01" nType="-99"/>
        </Node>
        <Node pos="r" depth="1" NCoef="0" IVar="3" Cut="1.2929496765136719e+00" cType="1" res="1.6256846487522125e-02" rms="4.6259564161300659e-01" purity="5.3334867954254150e-01" nType="0">
          <Node pos="l" depth="2" NCoef="0" IVar="-1" Cut="0.0000000000000000e+00" cType="1" res="1.2556557776406407e-03" rms="4.4145715236663818e-01" purity="6.3913506269454956e-01" nType="-99"/>
          <Node pos="r" depth="2" NCoef="0" IVar="-1" Cut="0.0000000000000000e+00" cType="1" res="2.2591352171730250e-04" rms="4.6689626574516296e-01" purity="5.0924146175384521e-01" nType="-99"/>
        </Node>
      </Node>
    </BinaryTree>
    <BinaryTree type="DecisionTree" boostWeight="1.0000000000000000e+00" itree="643">
      <Node pos="s" depth="0" NCoef="0" IVar="6" Cut="9.6221548318862915e-01" cType="1" res="6.2415064312517643e-03" rms="4.6076053380966187e-01" purity="5.0403994321823120e-01" nType="0">
        <Node pos="l" depth="1" NCoef="0" IVar="5" Cut="8.8214026764035225e-03" cType="1" res="-1.0789457708597183e-02" rms="4.6339577436447144e-01" purity="4.6559917926788330e-01" nType="0">
          <Node pos="l" depth="2" NCoef="0" IVar="-1" Cut="0.0000000000000000e+00" cType="1" res="-7.2712235851213336e-04" rms="4.6090301871299744e-01" purity="4.4454169273376465e-01" nType="-99"/>
          <Node pos="r" depth="2" NCoef="0" IVar="-1" Cut="0.0000000000000000e+00" cType="1" res="3.0284764943644404e-04" rms="4.6648943424224854e-01" purity="4.9903306365013123e-01" nType="-99"/>
        </Node>
        <Node pos="r" depth="1" NCoef="0" IVar="4" Cut="1.5241574096679688e+02" cType="1" res="2.3625519126653671e-02" rms="4.5740148425102234e-01" purity="5.4327750205993652e-01" nType="0">
          <Node pos="l" depth="2" NCoef="0" IVar="-1" Cut="0.0000000000000000e+00" cType="1" res="1.3914436567574739e-04" rms="4.5976966619491577e-01" purity="4.7763365507125854e-01" nType="-99"/>
          <Node pos="r" depth="2" NCoef="0" IVar="-1" Cut="0.0000000000000000e+00" cType="1" res="1.0336827253922820e-03" rms="4.5453372597694397e-01" purity="6.0342377424240112e-01" nType="-99"/>
        </Node>
      </Node>
    </BinaryTree>
    <BinaryTree type="DecisionTree" boostWeight="1.0000000000000000e+00" itree="644">
      <Node pos="s" depth="0" NCoef="0" IVar="1" Cut="2.4759464263916016e+00" cType="1" res="7.4193454347550869e-03" rms="4.5834523439407349e-01" purity="5.0676101446151733e-01" nType="0">
        <Node pos="l" depth="1" NCoef="0" IVar="0" Cut="6.5537155151367188e+01" cType="1" res="2.2201677784323692e-03" rms="4.6607267856597900e-01" purity="4.6809419989585876e-01" nType="0">
          <Node pos="l" depth="2" NCoef="0" IVar="-1" Cut="0.0000000000000000e+00" cType="1" res="-1.3287591282278299e-03" rms="4.6433272957801819e-01" purity="4.3105968832969666e-01" nType="-99"/>
          <Node pos="r" depth="2" NCoef="0" IVar="-1" Cut="0.0000000000000000e+00" cType="1" res="1.7752220446709543e-04" rms="4.6599742770195007e-01" purity="4.7124040126800537e-01" nType="-99"/>
        </Node>
        <Node pos="r" depth="1" NCoef="0" IVar="-1" Cut="0.0000000000000000e+00" cType="1" res="1.1122693540528417e-03" rms="3.9173242449760437e-01" purity="8.0353236198425293e-01" nType="-99"/>
      </Node>
    </BinaryTree>
    <BinaryTree type="DecisionTree" boostWeight="1.0000000000000000e+00" itree="645">
      <Node pos="s" depth="0" NCoef="0" IVar="1" Cut="-1.4095195531845093e+00" cType="1" res="3.8810311816632748e-03" rms="4.5870363712310791e-01" purity="5.0437504053115845e-01" nType="0">
        <Node pos="l" depth="1" NCoef="0" IVar="5" Cut="-2.4864312727004290e-03" cType="1" res="-2.9928274452686310e-02" rms="4.2340466380119324e-01" purity="2.4886973202228546e-01" nType="0">
          <Node pos="l" depth="2" NCoef="0" IVar="-1" Cut="0.0000000000000000e+00" cType="1" res="-2.3496416397392750e-03" rms="4.1080704331398010e-01" purity="2.2933273017406464e-01" nType="-99"/>
          <Node pos="r" depth="2" NCoef="0" IVar="-1" Cut="0.0000000000000000e+00" cType="1" res="-5.6830921676009893e-04" rms="4.3812564015388489e-01" purity="2.7354702353477478e-01" nType="-99"/>
        </Node>
        <Node pos="r" depth="1" NCoef="0" IVar="2" Cut="7.7074766159057617e-01" cType="1" res="9.9679687991738319e-03" rms="4.6451276540756226e-01" purity="5.5037552118301392e-01" nType="0">
          <Node pos="l" depth="2" NCoef="0" IVar="-1" Cut="0.0000000000000000e+00" cType="1" res="7.8065218986012042e-05" rms="4.6946740150451660e-01" purity="5.2423632144927979e-01" nType="-99"/>
          <Node pos="r" depth="2" NCoef="0" IVar="-1" Cut="0.0000000000000000e+00" cType="1" res="1.1863779509440064e-03" rms="4.3256708979606628e-01" purity="7.0135313272476196e-01" nType="-99"/>
        </Node>
      </Node>
    </BinaryTree>
    <BinaryTree type="DecisionTree" boostWeight="1.0000000000000000e+00" itree="646">
      <Node pos="s" depth="0" NCoef="0" IVar="4" Cut="3.1863308715820312e+02" cType="1" res="2.7612920384854078e-03" rms="4.6021130681037903e-01" purity="4.9941089749336243e-01" nType="0">
        <Node pos="l" depth="1" NCoef="0" IVar="9" Cut="7.2687052190303802e-02" cType="1" res="-2.3328217212110758e-03" rms="4.5987880229949951e-01" purity="4.8503357172012329e-01" nType="0">
          <Node pos="l" depth="2" NCoef="0" IVar="-1" Cut="0.0000000000000000e+00" cType="1" res="-7.6171528780832887e-04" rms="4.5559296011924744e-01" purity="4.3189936876296997e-01" nType="-99"/>
          <Node pos="r" depth="2" NCoef="0" IVar="-1" Cut="0.0000000000000000e+00" cType="1" res="4.0354451630264521e-04" rms="4.6233603358268738e-01" purity="5.2481555938720703e-01" nType="-99"/>
        </Node>
        <Node pos="r" depth="1" NCoef="0" IVar="-1" Cut="0.0000000000000000e+00" cType="1" res="1.0915584862232208e-03" rms="4.6079930663108826e-01" purity="6.1823093891143799e-01" nType="-99"/>
      </Node>
    </BinaryTree>
    <BinaryTree type="DecisionTree" boostWeight="1.0000000000000000e+00" itree="647">
      <Node pos="s" depth="0" NCoef="0" IVar="5" Cut="9.4043843448162079e-02" cType="1" res="2.6825652457773685e-03" rms="4.6218544244766235e-01" purity="5.0053834915161133e-01" nType="0">
        <Node pos="l" depth="1" NCoef="0" IVar="2" Cut="4.0063416957855225e-01" cType="1" res="-1.1339265620335937e-03" rms="4.6219581365585327e-01" purity="4.9700778722763062e-01" nType="0">
          <Node pos="l" depth="2" NCoef="0" IVar="-1" Cut="0.0000000000000000e+00" cType="1" res="-2.4546992499381304e-03" rms="4.3894436955451965e-01" purity="3.5345521569252014e-01" nType="-99"/>
          <Node pos="r" depth="2" NCoef="0" IVar="-1" Cut="0.0000000000000000e+00" cType="1" res="1.0877907334361225e-04" rms="4.6340250968933105e-01" purity="5.0726121664047241e-01" nType="-99"/>
        </Node>
        <Node pos="r" depth="1" NCoef="0" IVar="-1" Cut="0.0000000000000000e+00" cType="1" res="1.6289972700178623e-03" rms="4.5751139521598816e-01" purity="5.5833411216735840e-01" nType="-99"/>
      </Node>
    </BinaryTree>
    <BinaryTree type="DecisionTree" boostWeight="1.0000000000000000e+00" itree="648">
      <Node pos="s" depth="0" NCoef="0" IVar="1" Cut="2.6412940025329590e+00" cType="1" res="-1.9687281455844641e-03" rms="4.6204838156700134e-01" purity="4.9527630209922791e-01" nType="0">
        <Node pos="l" depth="1" NCoef="0" IVar="5" Cut="-6.8966098129749298e-02" cType="1" res="-6.7982673645019531e-03" rms="4.6911239624023438e-01" purity="4.6039074659347534e-01" nType="0">
          <Node pos="l" depth="2" NCoef="0" IVar="-1" Cut="0.0000000000000000e+00" cType="1" res="-2.2727358154952526e-03" rms="4.4698518514633179e-01" purity="3.3727720379829407e-01" nType="-99"/>
          <Node pos="r" depth="2" NCoef="0" IVar="-1" Cut="0.0000000000000000e+00" cType="1" res="-8.0525722296442837e-05" rms="4.7040984034538269e-01" purity="4.6923029422760010e-01" nType="-99"/>
        </Node>
        <Node pos="r" depth="1" NCoef="0" IVar="-1" Cut="0.0000000000000000e+00" cType="1" res="9.7568862838670611e-04" rms="3.9122650027275085e-01" purity="8.0492931604385376e-01" nType="-99"/>
      </Node>
    </BinaryTree>
    <BinaryTree type="DecisionTree" boostWeight="1.0000000000000000e+00" itree="649">
      <Node pos="s" depth="0" NCoef="0" IVar="7" Cut="-4.7193832695484161e-02" cType="1" res="8.8941575959324837e-03" rms="4.6023514866828918e-01" purity="5.0814497470855713e-01" nType="0">
        <Node pos="l" depth="1" NCoef="0" IVar="-1" Cut="0.0000000000000000e+00" cType="1" res="1.3859025202691555e-03" rms="4.6237987279891968e-01" purity="5.9705829620361328e-01" nType="-99"/>
        <Node pos="r" depth="1" NCoef="0" IVar="6" Cut="9.8395395278930664e-01" cType="1" res="4.9477615393698215e-03" rms="4.5983624458312988e-01" purity="5.0059592723846436e-01" nType="0">
          <Node pos="l" depth="2" NCoef="0" IVar="-1" Cut="0.0000000000000000e+00" cType="1" res="-6.4013540395535529e-05" rms="4.6094569563865662e-01" purity="4.8448988795280457e-01" nType="-99"/>
          <Node pos="r" depth="2" NCoef="0" IVar="-1" Cut="0.0000000000000000e+00" cType="1" res="7.0353207411244512e-04" rms="4.5584639906883240e-01" purity="5.4855823516845703e-01" nType="-99"/>
        </Node>
      </Node>
    </BinaryTree>
    <BinaryTree type="DecisionTree" boostWeight="1.0000000000000000e+00" itree="650">
      <Node pos="s" depth="0" NCoef="0" IVar="8" Cut="4.0641799569129944e-01" cType="1" res="3.0212416313588619e-03" rms="4.6109056472778320e-01" purity="4.9997788667678833e-01" nType="0">
        <Node pos="l" depth="1" NCoef="0" IVar="2" Cut="4.1329160332679749e-01" cType="1" res="-3.7117041647434235e-03" rms="4.6173074841499329e-01" purity="4.8071703314781189e-01" nType="0">
          <Node pos="l" depth="2" NCoef="0" IVar="-1" Cut="0.0000000000000000e+00" cType="1" res="-1.5263959066942334e-03" rms="4.6081733703613281e-01" purity="3.7066331505775452e-01" nType="-99"/>
          <Node pos="r" depth="2" NCoef="0" IVar="-1" Cut="0.0000000000000000e+00" cType="1" res="4.2336916521890089e-05" rms="4.6158298850059509e-01" purity="4.9456176161766052e-01" nType="-99"/>
        </Node>
        <Node pos="r" depth="1" NCoef="0" IVar="2" Cut="5.9942382574081421e-01" cType="1" res="4.2965486645698547e-02" rms="4.5523089170455933e-01" purity="6.1424583196640015e-01" nType="0">
          <Node pos="l" depth="2" NCoef="0" IVar="-1" Cut="0.0000000000000000e+00" cType="1" res="1.5314330812543631e-03" rms="4.6823224425315857e-01" purity="5.8250987529754639e-01" nType="-99"/>
          <Node pos="r" depth="2" NCoef="0" IVar="-1" Cut="0.0000000000000000e+00" cType="1" res="6.6686578793451190e-04" rms="4.4432714581489563e-01" purity="6.3855689764022827e-01" nType="-99"/>
        </Node>
      </Node>
    </BinaryTree>
    <BinaryTree type="DecisionTree" boostWeight="1.0000000000000000e+00" itree="651">
      <Node pos="s" depth="0" NCoef="0" IVar="0" Cut="8.8831771850585938e+01" cType="1" res="4.5886924490332603e-03" rms="4.6032184362411499e-01" purity="5.0527369976043701e-01" nType="0">
        <Node pos="l" depth="1" NCoef="0" IVar="8" Cut="3.7867781519889832e-01" cType="1" res="-2.3886831477284431e-02" rms="4.6600088477134705e-01" purity="4.8287299275398254e-01" nType="0">
          <Node pos="l" depth="2" NCoef="0" IVar="-1" Cut="0.0000000000000000e+00" cType="1" res="-1.4785659732297063e-03" rms="4.5694905519485474e-01" purity="4.4092044234275818e-01" nType="-99"/>
          <Node pos="r" depth="2" NCoef="0" IVar="-1" Cut="0.0000000000000000e+00" cType="1" res="-2.7830473845824599e-04" rms="4.7003519535064697e-01" purity="5.0460469722747803e-01" nType="-99"/>
        </Node>
        <Node pos="r" depth="1" NCoef="0" IVar="9" Cut="4.6567950397729874e-02" cType="1" res="1.0714360512793064e-02" rms="4.5886006951332092e-01" purity="5.1009261608123779e-01" nType="0">
          <Node pos="l" depth="2" NCoef="0" IVar="-1" Cut="0.0000000000000000e+00" cType="1" res="-2.6181523571722209e-04" rms="4.5994874835014343e-01" purity="4.5871987938880920e-01" nType="-99"/>
          <Node pos="r" depth="2" NCoef="0" IVar="-1" Cut="0.0000000000000000e+00" cType="1" res="4.9994350410997868e-04" rms="4.5821920037269592e-01" purity="5.2979320287704468e-01" nType="-99"/>
        </Node>
      </Node>
    </BinaryTree>
    <BinaryTree type="DecisionTree" boostWeight="1.0000000000000000e+00" itree="652">
      <Node pos="s" depth="0" NCoef="0" IVar="1" Cut="-2.0525429248809814e+00" cType="1" res="3.6735581234097481e-03" rms="4.5997136831283569e-01" purity="5.0183230638504028e-01" nType="0">
        <Node pos="l" depth="1" NCoef="0" IVar="-1" Cut="0.0000000000000000e+00" cType="1" res="-3.3622111659497023e-03" rms="3.9949062466621399e-01" purity="2.0888981223106384e-01" nType="-99"/>
        <Node pos="r" depth="1" NCoef="0" IVar="0" Cut="5.7705642700195312e+01" cType="1" res="7.8774420544505119e-03" rms="4.6358323097229004e-01" purity="5.2216571569442749e-01" nType="0">
          <Node pos="l" depth="2" NCoef="0" IVar="-1" Cut="0.0000000000000000e+00" cType="1" res="-1.2431179638952017e-03" rms="4.6858420968055725e-01" purity="4.7343376278877258e-01" nType="-99"/>
          <Node pos="r" depth="2" NCoef="0" IVar="-1" Cut="0.0000000000000000e+00" cType="1" res="2.9173024813644588e-04" rms="4.6312731504440308e-01" purity="5.2494335174560547e-01" nType="-99"/>
        </Node>
      </Node>
    </BinaryTree>
    <BinaryTree type="DecisionTree" boostWeight="1.0000000000000000e+00" itree="653">
      <Node pos="s" depth="0" NCoef="0" IVar="3" Cut="1.1272014379501343e+00" cType="1" res="-3.7243086844682693e-03" rms="4.5963490009307861e-01" purity="4.9228051304817200e-01" nType="0">
        <Node pos="l" depth="1" NCoef="0" IVar="6" Cut="9.6231842041015625e-01" cType="1" res="2.6149813085794449e-02" rms="4.5311400294303894e-01" purity="5.9699136018753052e-01" nType="0">
          <Node pos="l" depth="2" NCoef="0" IVar="-1" Cut="0.0000000000000000e+00" cType="1" res="-2.3817883629817516e-04" rms="4.5889043807983398e-01" purity="5.4780942201614380e-01" nType="-99"/>
          <Node pos="r" depth="2" NCoef="0" IVar="-1" Cut="0.0000000000000000e+00" cType="1" res="1.5076540876179934e-03" rms="4.4445860385894775e-01" purity="6.4633494615554810e-01" nType="-99"/>
        </Node>
        <Node pos="r" depth="1" NCoef="0" IVar="1" Cut="-1.6742912530899048e+00" cType="1" res="-8.4047690033912659e-03" rms="4.6047261357307434e-01" purity="4.7587510943412781e-01" nType="0">
          <Node pos="l" depth="2" NCoef="0" IVar="-1" Cut="0.0000000000000000e+00" cType="1" res="-2.6225738693028688e-03" rms="4.0333864092826843e-01" purity="2.2003774344921112e-01" nType="-99"/>
          <Node pos="r" depth="2" NCoef="0" IVar="-1" Cut="0.0000000000000000e+00" cType="1" res="-9.0661342255771160e-05" rms="4.6734586358070374e-01" purity="5.1007217168807983e-01" nType="-99"/>
        </Node>
      </Node>
    </BinaryTree>
    <BinaryTree type="DecisionTree" boostWeight="1.0000000000000000e+00" itree="654">
      <Node pos="s" depth="0" NCoef="0" IVar="4" Cut="7.9040695190429688e+01" cType="1" res="-8.9182105148211122e-04" rms="4.6148860454559326e-01" purity="4.9703815579414368e-01" nType="0">
        <Node pos="l" depth="1" NCoef="0" IVar="-1" Cut="0.0000000000000000e+00" cType="1" res="-2.1980761084705591e-03" rms="4.2807272076606750e-01" purity="3.3661770820617676e-01" nType="-99"/>
        <Node pos="r" depth="1" NCoef="0" IVar="9" Cut="1.9783385097980499e-01" cType="1" res="2.7732667513191700e-03" rms="4.6316799521446228e-01" purity="5.0669521093368530e-01" nType="0">
          <Node pos="l" depth="2" NCoef="0" IVar="-1" Cut="0.0000000000000000e+00" cType="1" res="-6.2478626205120236e-05" rms="4.6334421634674072e-01" purity="4.9596431851387024e-01" nType="-99"/>
          <Node pos="r" depth="2" NCoef="0" IVar="-1" Cut="0.0000000000000000e+00" cType="1" res="1.3714123051613569e-03" rms="4.5772826671600342e-01" purity="6.2395310401916504e-01" nType="-99"/>
        </Node>
      </Node>
    </BinaryTree>
    <BinaryTree type="DecisionTree" boostWeight="1.0000000000000000e+00" itree="655">
      <Node pos="s" depth="0" NCoef="0" IVar="5" Cut="-4.1606616228818893e-02" cType="1" res="5.1147001795470715e-03" rms="4.6193811297416687e-01" purity="5.0242263078689575e-01" nType="0">
        <Node pos="l" depth="1" NCoef="0" IVar="7" Cut="5.8107607066631317e-02" cType="1" res="2.5669308379292488e-02" rms="4.6585494279861450e-01" purity="4.8730447888374329e-01" nType="0">
          <Node pos="l" depth="2" NCoef="0" IVar="-1" Cut="0.0000000000000000e+00" cType="1" res="1.7457660287618637e-03" rms="4.7179970145225525e-01" purity="5.5919009447097778e-01" nType="-99"/>
          <Node pos="r" depth="2" NCoef="0" IVar="-1" Cut="0.0000000000000000e+00" cType="1" res="-5.9114699251949787e-04" rms="4.5527386665344238e-01" purity="4.1043272614479065e-01" nType="-99"/>
        </Node>
        <Node pos="r" depth="1" NCoef="0" IVar="0" Cut="1.6354721069335938e+02" cType="1" res="-1.1675826972350478e-03" rms="4.6055135130882263e-01" purity="5.0704330205917358e-01" nType="0">
          <Node pos="l" depth="2" NCoef="0" IVar="-1" Cut="0.0000000000000000e+00" cType="1" res="2.4869127082638443e-04" rms="4.6083992719650269e-01" purity="5.3558850288391113e-01" nType="-99"/>
          <Node pos="r" depth="2" NCoef="0" IVar="-1" Cut="0.0000000000000000e+00" cType="1" res="-5.0471985014155507e-04" rms="4.5965734124183655e-01" purity="4.6349474787712097e-01" nType="-99"/>
        </Node>
      </Node>
    </BinaryTree>
    <BinaryTree type="DecisionTree" boostWeight="1.0000000000000000e+00" itree="656">
      <Node pos="s" depth="0" NCoef="0" IVar="0" Cut="2.0638858032226562e+02" cType="1" res="-2.9771348927170038e-03" rms="4.5801165699958801e-01" purity="4.9536177515983582e-01" nType="0">
        <Node pos="l" depth="1" NCoef="0" IVar="0" Cut="6.1322162628173828e+01" cType="1" res="6.6181523725390434e-03" rms="4.6075153350830078e-01" purity="5.1655411720275879e-01" nType="0">
          <Node pos="l" depth="2" NCoef="0" IVar="-1" Cut="0.0000000000000000e+00" cType="1" res="-1.4569855993613601e-03" rms="4.5504516363143921e-01" purity="4.5460066199302673e-01" nType="-99"/>
          <Node pos="r" depth="2" NCoef="0" IVar="-1" Cut="0.0000000000000000e+00" cType="1" res="3.2530975295230746e-04" rms="4.6092852950096130e-01" purity="5.2225393056869507e-01" nType="-99"/>
        </Node>
        <Node pos="r" depth="1" NCoef="0" IVar="4" Cut="1.9169367980957031e+02" cType="1" res="-3.0620675534009933e-02" rms="4.4887974858283997e-01" purity="4.3430781364440918e-01" nType="0">
          <Node pos="l" depth="2" NCoef="0" IVar="-1" Cut="0.0000000000000000e+00" cType="1" res="-2.2940884809941053e-03" rms="4.2944189906120300e-01" purity="3.5653087496757507e-01" nType="-99"/>
          <Node pos="r" depth="2" NCoef="0" IVar="-1" Cut="0.0000000000000000e+00" cType="1" res="2.1460216885316186e-05" rms="4.6403276920318604e-01" purity="5.0663864612579346e-01" nType="-99"/>
        </Node>
      </Node>
    </BinaryTree>
    <BinaryTree type="DecisionTree" boostWeight="1.0000000000000000e+00" itree="657">
      <Node pos="s" depth="0" NCoef="0" IVar="0" Cut="6.3614620208740234e+01" cType="1" res="4.0310388430953026e-04" rms="4.6174374222755432e-01" purity="4.9774995446205139e-01" nType="0">
        <Node pos="l" depth="1" NCoef="0" IVar="-1" Cut="0.0000000000000000e+00" cType="1" res="-1.6217704396694899e-03" rms="4.5649510622024536e-01" purity="4.5143818855285645e-01" nType="-99"/>
        <Node pos="r" depth="1" NCoef="0" IVar="2" Cut="8.1377464532852173e-01" cType="1" res="4.5738029293715954e-03" rms="4.6188277006149292e-01" purity="5.0131958723068237e-01" nType="0">
          <Node pos="l" depth="2" NCoef="0" IVar="-1" Cut="0.0000000000000000e+00" cType="1" res="1.0318622116756160e-05" rms="4.6271193027496338e-01" purity="4.8835998773574829e-01" nType="-99"/>
          <Node pos="r" depth="2" NCoef="0" IVar="-1" Cut="0.0000000000000000e+00" cType="1" res="1.2254110770300031e-03" rms="4.5057779550552368e-01" purity="6.3877290487289429e-01" nType="-99"/>
        </Node>
      </Node>
    </BinaryTree>
    <BinaryTree type="DecisionTree" boostWeight="1.0000000000000000e+00" itree="658">
      <Node pos="s" depth="0" NCoef="0" IVar="0" Cut="8.0866111755371094e+01" cType="1" res="-1.5301891835406423e-03" rms="4.6263164281845093e-01" purity="4.9273315072059631e-01" nType="0">
        <Node pos="l" depth="1" NCoef="0" IVar="1" Cut="-2.7813675999641418e-01" cType="1" res="-3.1309455633163452e-02" rms="4.6430903673171997e-01" purity="4.7349649667739868e-01" nType="0">
          <Node pos="l" depth="2" NCoef="0" IVar="-1" Cut="0.0000000000000000e+00" cType="1" res="-2.4034108500927687e-03" rms="4.4424477219581604e-01" purity="2.8307643532752991e-01" nType="-99"/>
          <Node pos="r" depth="2" NCoef="0" IVar="-1" Cut="0.0000000000000000e+00" cType="1" res="-3.7363305455073714e-04" rms="4.7486972808837891e-01" purity="5.8441829681396484e-01" nType="-99"/>
        </Node>
        <Node pos="r" depth="1" NCoef="0" IVar="3" Cut="1.3238657712936401e+00" cType="1" res="3.4272365737706423e-03" rms="4.6216556429862976e-01" purity="4.9593549966812134e-01" nType="0">
          <Node pos="l" depth="2" NCoef="0" IVar="-1" Cut="0.0000000000000000e+00" cType="1" res="1.1618649587035179e-03" rms="4.4447672367095947e-01" purity="6.7161244153976440e-01" nType="-99"/>
          <Node pos="r" depth="2" NCoef="0" IVar="-1" Cut="0.0000000000000000e+00" cType="1" res="-4.6575667511206120e-05" rms="4.6385911107063293e-01" purity="4.7602945566177368e-01" nType="-99"/>
        </Node>
      </Node>
    </BinaryTree>
    <BinaryTree type="DecisionTree" boostWeight="1.0000000000000000e+00" itree="659">
      <Node pos="s" depth="0" NCoef="0" IVar="6" Cut="9.4362580776214600e-01" cType="1" res="-4.8526250757277012e-03" rms="4.5858079195022583e-01" purity="4.9149334430694580e-01" nType="0">
        <Node pos="l" depth="1" NCoef="0" IVar="7" Cut="1.1249574273824692e-01" cType="1" res="-3.3076796680688858e-02" rms="4.5890143513679504e-01" purity="4.3599623441696167e-01" nType="0">
          <Node pos="l" depth="2" NCoef="0" IVar="-1" Cut="0.0000000000000000e+00" cType="1" res="-1.3030336704105139e-03" rms="4.5729458332061768e-01" purity="4.3873396515846252e-01" nType="-99"/>
          <Node pos="r" depth="2" NCoef="0" IVar="-1" Cut="0.0000000000000000e+00" cType="1" res="-1.0915959137491882e-05" rms="4.6247684955596924e-01" purity="4.2725810408592224e-01" nType="-99"/>
        </Node>
        <Node pos="r" depth="1" NCoef="0" IVar="4" Cut="2.1770948791503906e+02" cType="1" res="8.7305987253785133e-03" rms="4.5780658721923828e-01" purity="5.1820200681686401e-01" nType="0">
          <Node pos="l" depth="2" NCoef="0" IVar="-1" Cut="0.0000000000000000e+00" cType="1" res="-8.4627157775685191e-05" rms="4.5649427175521851e-01" purity="4.8486948013305664e-01" nType="-99"/>
          <Node pos="r" depth="2" NCoef="0" IVar="-1" Cut="0.0000000000000000e+00" cType="1" res="9.8856724798679352e-04" rms="4.5985546708106995e-01" purity="6.0795378684997559e-01" nType="-99"/>
        </Node>
      </Node>
    </BinaryTree>
    <BinaryTree type="DecisionTree" boostWeight="1.0000000000000000e+00" itree="660">
      <Node pos="s" depth="0" NCoef="0" IVar="1" Cut="2.2969751358032227e+00" cType="1" res="8.5912486538290977e-03" rms="4.5966571569442749e-01" purity="5.0782644748687744e-01" nType="0">
        <Node pos="l" depth="1" NCoef="0" IVar="6" Cut="9.9315011501312256e-01" cType="1" res="3.0562651809304953e-03" rms="4.6931061148643494e-01" purity="4.6014222502708435e-01" nType="0">
          <Node pos="l" depth="2" NCoef="0" IVar="-1" Cut="0.0000000000000000e+00" cType="1" res="-4.3803498556371778e-05" rms="4.7007718682289124e-01" purity="4.5027107000350952e-01" nType="-99"/>
          <Node pos="r" depth="2" NCoef="0" IVar="-1" Cut="0.0000000000000000e+00" cType="1" res="9.7668229136615992e-04" rms="4.6194574236869812e-01" purity="5.3542041778564453e-01" nType="-99"/>
        </Node>
        <Node pos="r" depth="1" NCoef="0" IVar="-1" Cut="0.0000000000000000e+00" cType="1" res="9.9880842026323080e-04" rms="3.9466208219528198e-01" purity="7.9642081260681152e-01" nType="-99"/>
      </Node>
    </BinaryTree>
    <BinaryTree type="DecisionTree" boostWeight="1.0000000000000000e+00" itree="661">
      <Node pos="s" depth="0" NCoef="0" IVar="1" Cut="2.4711561203002930e+00" cType="1" res="5.7165124453604221e-03" rms="4.6022433042526245e-01" purity="5.0174432992935181e-01" nType="0">
        <Node pos="l" depth="1" NCoef="0" IVar="3" Cut="1.3908619880676270e+00" cType="1" res="8.6531520355492830e-04" rms="4.6869349479675293e-01" purity="4.6097052097320557e-01" nType="0">
          <Node pos="l" depth="2" NCoef="0" IVar="-1" Cut="0.0000000000000000e+00" cType="1" res="5.6051573483273387e-04" rms="4.6743327379226685e-01" purity="5.5528962612152100e-01" nType="-99"/>
          <Node pos="r" depth="2" NCoef="0" IVar="-1" Cut="0.0000000000000000e+00" cType="1" res="-1.4133492368273437e-04" rms="4.6886014938354492e-01" purity="4.3631148338317871e-01" nType="-99"/>
        </Node>
        <Node pos="r" depth="1" NCoef="0" IVar="-1" Cut="0.0000000000000000e+00" cType="1" res="1.0109433205798268e-03" rms="3.8973665237426758e-01" purity="8.0461859703063965e-01" nType="-99"/>
      </Node>
    </BinaryTree>
    <BinaryTree type="DecisionTree" boostWeight="1.0000000000000000e+00" itree="662">
      <Node pos="s" depth="0" NCoef="0" IVar="1" Cut="-2.0278224945068359e+00" cType="1" res="-1.7259818268939853e-03" rms="4.5986682176589966e-01" purity="4.9676495790481567e-01" nType="0">
        <Node pos="l" depth="1" NCoef="0" IVar="-1" Cut="0.0000000000000000e+00" cType="1" res="-2.9898416250944138e-03" rms="3.9847403764724731e-01" purity="2.1480028331279755e-01" nType="-99"/>
        <Node pos="r" depth="1" NCoef="0" IVar="0" Cut="9.4401565551757812e+01" cType="1" res="2.0494570489972830e-03" rms="4.6383729577064514e-01" purity="5.1750254631042480e-01" nType="0">
          <Node pos="l" depth="2" NCoef="0" IVar="-1" Cut="0.0000000000000000e+00" cType="1" res="-6.7907571792602539e-04" rms="4.6656402945518494e-01" purity="4.9980962276458740e-01" nType="-99"/>
          <Node pos="r" depth="2" NCoef="0" IVar="-1" Cut="0.0000000000000000e+00" cType="1" res="2.4224791559390724e-04" rms="4.6288645267486572e-01" purity="5.2202194929122925e-01" nType="-99"/>
        </Node>
      </Node>
    </BinaryTree>
    <BinaryTree type="DecisionTree" boostWeight="1.0000000000000000e+00" itree="663">
      <Node pos="s" depth="0" NCoef="0" IVar="7" Cut="1.2418869882822037e-02" cType="1" res="8.5348205175250769e-04" rms="4.6242290735244751e-01" purity="4.9759283661842346e-01" nType="0">
        <Node pos="l" depth="1" NCoef="0" IVar="5" Cut="-1.2627989985048771e-02" cType="1" res="1.4058424159884453e-02" rms="4.6118694543838501e-01" purity="5.4764091968536377e-01" nType="0">
          <Node pos="l" depth="2" NCoef="0" IVar="-1" Cut="0.0000000000000000e+00" cType="1" res="1.1487865122035146e-03" rms="4.5943120121955872e-01" purity="5.6806677579879761e-01" nType="-99"/>
          <Node pos="r" depth="2" NCoef="0" IVar="-1" Cut="0.0000000000000000e+00" cType="1" res="-3.1189402216114104e-04" rms="4.6112248301506042e-01" purity="5.3050929307937622e-01" nType="-99"/>
        </Node>
        <Node pos="r" depth="1" NCoef="0" IVar="5" Cut="2.3754455149173737e-02" cType="1" res="-7.0700282230973244e-03" rms="4.6298220753669739e-01" purity="4.6756193041801453e-01" nType="0">
          <Node pos="l" depth="2" NCoef="0" IVar="-1" Cut="0.0000000000000000e+00" cType="1" res="-6.7263498203828931e-04" rms="4.6037247776985168e-01" purity="4.4865587353706360e-01" nType="-99"/>
          <Node pos="r" depth="2" NCoef="0" IVar="-1" Cut="0.0000000000000000e+00" cType="1" res="6.9432973396033049e-04" rms="4.6684077382087708e-01" purity="5.0804013013839722e-01" nType="-99"/>
        </Node>
      </Node>
    </BinaryTree>
    <BinaryTree type="DecisionTree" boostWeight="1.0000000000000000e+00" itree="664">
      <Node pos="s" depth="0" NCoef="0" IVar="4" Cut="1.1558438873291016e+02" cType="1" res="7.9558212310075760e-03" rms="4.5932900905609131e-01" purity="5.0626027584075928e-01" nType="0">
        <Node pos="l" depth="1" NCoef="0" IVar="8" Cut="3.9445909857749939e-01" cType="1" res="-2.0715061575174332e-02" rms="4.4720295071601868e-01" purity="4.0691491961479187e-01" nType="0">
          <Node pos="l" depth="2" NCoef="0" IVar="-1" Cut="0.0000000000000000e+00" cType="1" res="-1.8245984101668000e-03" rms="4.3273052573204041e-01" purity="3.3245983719825745e-01" nType="-99"/>
          <Node pos="r" depth="2" NCoef="0" IVar="-1" Cut="0.0000000000000000e+00" cType="1" res="4.2696712625911459e-05" rms="4.5718288421630859e-01" purity="4.6616938710212708e-01" nType="-99"/>
        </Node>
        <Node pos="r" depth="1" NCoef="0" IVar="0" Cut="1.9869143676757812e+02" cType="1" res="1.7738191410899162e-02" rms="4.6298772096633911e-01" purity="5.4015648365020752e-01" nType="0">
          <Node pos="l" depth="2" NCoef="0" IVar="-1" Cut="0.0000000000000000e+00" cType="1" res="7.4709422187879682e-04" rms="4.6254944801330566e-01" purity="5.7580572366714478e-01" nType="-99"/>
          <Node pos="r" depth="2" NCoef="0" IVar="-1" Cut="0.0000000000000000e+00" cType="1" res="-1.5431091014761478e-04" rms="4.6298295259475708e-01" purity="4.7060012817382812e-01" nType="-99"/>
        </Node>
      </Node>
    </BinaryTree>
    <BinaryTree type="DecisionTree" boostWeight="1.0000000000000000e+00" itree="665">
      <Node pos="s" depth="0" NCoef="0" IVar="9" Cut="1.2890857458114624e-01" cType="1" res="3.0168490484356880e-03" rms="4.5980441570281982e-01" purity="4.9998256564140320e-01" nType="0">
        <Node pos="l" depth="1" NCoef="0" IVar="6" Cut="9.7750276327133179e-01" cType="1" res="-5.3270193748176098e-03" rms="4.6049055457115173e-01" purity="4.7766152024269104e-01" nType="0">
          <Node pos="l" depth="2" NCoef="0" IVar="-1" Cut="0.0000000000000000e+00" cType="1" res="-4.7788314986974001e-04" rms="4.6192109584808350e-01" purity="4.5185652375221252e-01" nType="-99"/>
          <Node pos="r" depth="2" NCoef="0" IVar="-1" Cut="0.0000000000000000e+00" cType="1" res="4.4907291885465384e-04" rms="4.5681411027908325e-01" purity="5.2980554103851318e-01" nType="-99"/>
        </Node>
        <Node pos="r" depth="1" NCoef="0" IVar="5" Cut="1.1508408933877945e-03" cType="1" res="2.6821300387382507e-02" rms="4.5700469613075256e-01" purity="5.6366294622421265e-01" nType="0">
          <Node pos="l" depth="2" NCoef="0" IVar="-1" Cut="0.0000000000000000e+00" cType="1" res="1.2080996530130506e-03" rms="4.5395082235336304e-01" purity="5.8248275518417358e-01" nType="-99"/>
          <Node pos="r" depth="2" NCoef="0" IVar="-1" Cut="0.0000000000000000e+00" cType="1" res="-1.5220008208416402e-04" rms="4.6011850237846375e-01" purity="5.3295475244522095e-01" nType="-99"/>
        </Node>
      </Node>
    </BinaryTree>
    <BinaryTree type="DecisionTree" boostWeight="1.0000000000000000e+00" itree="666">
      <Node pos="s" depth="0" NCoef="0" IVar="4" Cut="1.2910998535156250e+02" cType="1" res="1.1039789766073227e-02" rms="4.6151143312454224e-01" purity="5.1031398773193359e-01" nType="0">
        <Node pos="l" depth="1" NCoef="0" IVar="4" Cut="1.1576228332519531e+02" cType="1" res="-6.0479068197309971e-03" rms="4.5476776361465454e-01" purity="4.3448320031166077e-01" nType="0">
          <Node pos="l" depth="2" NCoef="0" IVar="-1" Cut="0.0000000000000000e+00" cType="1" res="-4.4399735634215176e-04" rms="4.5145380496978760e-01" purity="4.1484323143959045e-01" nType="-99"/>
          <Node pos="r" depth="2" NCoef="0" IVar="-1" Cut="0.0000000000000000e+00" cType="1" res="4.8895674990490079e-04" rms="4.6390333771705627e-01" purity="4.9422478675842285e-01" nType="-99"/>
        </Node>
        <Node pos="r" depth="1" NCoef="0" IVar="2" Cut="5.3289127349853516e-01" cType="1" res="1.9763007760047913e-02" rms="4.6467414498329163e-01" purity="5.4902535676956177e-01" nType="0">
          <Node pos="l" depth="2" NCoef="0" IVar="-1" Cut="0.0000000000000000e+00" cType="1" res="1.0376534191891551e-03" rms="4.6997904777526855e-01" purity="5.1403522491455078e-01" nType="-99"/>
          <Node pos="r" depth="2" NCoef="0" IVar="-1" Cut="0.0000000000000000e+00" cType="1" res="2.4206213129218668e-04" rms="4.6143478155136108e-01" purity="5.6798183917999268e-01" nType="-99"/>
        </Node>
      </Node>
    </BinaryTree>
    <BinaryTree type="DecisionTree" boostWeight="1.0000000000000000e+00" itree="667">
      <Node pos="s" depth="0" NCoef="0" IVar="8" Cut="4.0102753043174744e-01" cType="1" res="5.0564124248921871e-03" rms="4.5977807044982910e-01" purity="5.0400626659393311e-01" nType="0">
        <Node pos="l" depth="1" NCoef="0" IVar="1" Cut="5.1010209321975708e-01" cType="1" res="-1.8453487427905202e-03" rms="4.6003559231758118e-01" purity="4.7982922196388245e-01" nType="0">
          <Node pos="l" depth="2" NCoef="0" IVar="-1" Cut="0.0000000000000000e+00" cType="1" res="-4.7970318701118231e-04" rms="4.5795851945877075e-01" purity="3.4873613715171814e-01" nType="-99"/>
          <Node pos="r" depth="2" NCoef="0" IVar="-1" Cut="0.0000000000000000e+00" cType="1" res="2.9768212698400021e-04" rms="4.6222341060638428e-01" purity="6.4484810829162598e-01" nType="-99"/>
        </Node>
        <Node pos="r" depth="1" NCoef="0" IVar="5" Cut="-6.0951597988605499e-03" cType="1" res="2.5826776400208473e-02" rms="4.5837572216987610e-01" purity="5.7676529884338379e-01" nType="0">
          <Node pos="l" depth="2" NCoef="0" IVar="-1" Cut="0.0000000000000000e+00" cType="1" res="2.0900652452837676e-04" rms="4.5361474156379700e-01" purity="5.5365800857543945e-01" nType="-99"/>
          <Node pos="r" depth="2" NCoef="0" IVar="-1" Cut="0.0000000000000000e+00" cType="1" res="1.1115719098597765e-03" rms="4.6248063445091248e-01" purity="6.0043025016784668e-01" nType="-99"/>
        </Node>
      </Node>
    </BinaryTree>
    <BinaryTree type="DecisionTree" boostWeight="1.0000000000000000e+00" itree="668">
      <Node pos="s" depth="0" NCoef="0" IVar="0" Cut="8.8838523864746094e+01" cType="1" res="3.1940403860062361e-03" rms="4.5873922109603882e-01" purity="5.0170296430587769e-01" nType="0">
        <Node pos="l" depth="1" NCoef="0" IVar="3" Cut="8.3445566892623901e-01" cType="1" res="-3.4605167806148529e-02" rms="4.5647534728050232e-01" purity="4.7174093127250671e-01" nType="0">
          <Node pos="l" depth="2" NCoef="0" IVar="-1" Cut="0.0000000000000000e+00" cType="1" res="7.1619299706071615e-04" rms="4.6036785840988159e-01" purity="5.6967210769653320e-01" nType="-99"/>
          <Node pos="r" depth="2" NCoef="0" IVar="-1" Cut="0.0000000000000000e+00" cType="1" res="-1.9726373720914125e-03" rms="4.5168435573577881e-01" purity="4.2618110775947571e-01" nType="-99"/>
        </Node>
        <Node pos="r" depth="1" NCoef="0" IVar="3" Cut="1.4347881078720093e+00" cType="1" res="1.1233735829591751e-02" rms="4.5881786942481995e-01" purity="5.0807577371597290e-01" nType="0">
          <Node pos="l" depth="2" NCoef="0" IVar="-1" Cut="0.0000000000000000e+00" cType="1" res="1.5543343033641577e-03" rms="4.3652227520942688e-01" purity="6.9700443744659424e-01" nType="-99"/>
          <Node pos="r" depth="2" NCoef="0" IVar="-1" Cut="0.0000000000000000e+00" cType="1" res="1.0412042320240289e-04" rms="4.6126139163970947e-01" purity="4.8223403096199036e-01" nType="-99"/>
        </Node>
      </Node>
    </BinaryTree>
    <BinaryTree type="DecisionTree" boostWeight="1.0000000000000000e+00" itree="669">
      <Node pos="s" depth="0" NCoef="0" IVar="8" Cut="4.1221499443054199e-01" cType="1" res="1.8898907583206892e-03" rms="4.5944887399673462e-01" purity="5.0162148475646973e-01" nType="0">
        <Node pos="l" depth="1" NCoef="0" IVar="6" Cut="9.5036399364471436e-01" cType="1" res="-2.0133578218519688e-03" rms="4.5982810854911804e-01" purity="4.8992541432380676e-01" nType="0">
          <Node pos="l" depth="2" NCoef="0" IVar="-1" Cut="0.0000000000000000e+00" cType="1" res="-5.7557778200134635e-04" rms="4.6146100759506226e-01" purity="4.4316640496253967e-01" nType="-99"/>
          <Node pos="r" depth="2" NCoef="0" IVar="-1" Cut="0.0000000000000000e+00" cType="1" res="2.5122033548541367e-04" rms="4.5844420790672302e-01" purity="5.1976037025451660e-01" nType="-99"/>
        </Node>
        <Node pos="r" depth="1" NCoef="0" IVar="-1" Cut="0.0000000000000000e+00" cType="1" res="1.1350975837558508e-03" rms="4.5235198736190796e-01" purity="6.4054065942764282e-01" nType="-99"/>
      </Node>
    </BinaryTree>
    <BinaryTree type="DecisionTree" boostWeight="1.0000000000000000e+00" itree="670">
      <Node pos="s" depth="0" NCoef="0" IVar="0" Cut="8.8428291320800781e+01" cType="1" res="8.0664651468396187e-03" rms="4.6138206124305725e-01" purity="5.0569337606430054e-01" nType="0">
        <Node pos="l" depth="1" NCoef="0" IVar="1" Cut="4.6885752677917480e-01" cType="1" res="-2.8526132926344872e-02" rms="4.5948874950408936e-01" purity="4.7719210386276245e-01" nType="0">
          <Node pos="l" depth="2" NCoef="0" IVar="-1" Cut="0.0000000000000000e+00" cType="1" res="-2.0888461731374264e-03" rms="4.5670503377914429e-01" purity="3.2221040129661560e-01" nType="-99"/>
          <Node pos="r" depth="2" NCoef="0" IVar="-1" Cut="0.0000000000000000e+00" cType="1" res="1.2551418330986053e-04" rms="4.6029597520828247e-01" purity="6.5388274192810059e-01" nType="-99"/>
        </Node>
        <Node pos="r" depth="1" NCoef="0" IVar="8" Cut="4.0617674589157104e-01" cType="1" res="1.5723889693617821e-02" rms="4.6141025424003601e-01" purity="5.1165753602981567e-01" nType="0">
          <Node pos="l" depth="2" NCoef="0" IVar="-1" Cut="0.0000000000000000e+00" cType="1" res="2.3922158288769424e-04" rms="4.6329560875892639e-01" purity="4.8916205763816833e-01" nType="-99"/>
          <Node pos="r" depth="2" NCoef="0" IVar="-1" Cut="0.0000000000000000e+00" cType="1" res="1.3431719271466136e-03" rms="4.4887059926986694e-01" purity="6.3456934690475464e-01" nType="-99"/>
        </Node>
      </Node>
    </BinaryTree>
    <BinaryTree type="DecisionTree" boostWeight="1.0000000000000000e+00" itree="671">
      <Node pos="s" depth="0" NCoef="0" IVar="7" Cut="3.4134946763515472e-03" cType="1" res="-6.9405978138092905e-05" rms="4.5902258157730103e-01" purity="4.9766725301742554e-01" nType="0">
        <Node pos="l" depth="1" NCoef="0" IVar="5" Cut="3.6261316388845444e-02" cType="1" res="2.2884819656610489e-02" rms="4.6137800812721252e-01" purity="5.5868852138519287e-01" nType="0">
          <Node pos="l" depth="2" NCoef="0" IVar="-1" Cut="0.0000000000000000e+00" cType="1" res="1.0084933601319790e-03" rms="4.5962455868721008e-01" purity="5.7311612367630005e-01" nType="-99"/>
          <Node pos="r" depth="2" NCoef="0" IVar="-1" Cut="0.0000000000000000e+00" cType="1" res="-1.8810919718816876e-03" rms="4.6119979023933411e-01" purity="4.8059216141700745e-01" nType="-99"/>
        </Node>
        <Node pos="r" depth="1" NCoef="0" IVar="4" Cut="1.3967262268066406e+02" cType="1" res="-1.1178812012076378e-02" rms="4.5746481418609619e-01" purity="4.6813410520553589e-01" nType="0">
          <Node pos="l" depth="2" NCoef="0" IVar="-1" Cut="0.0000000000000000e+00" cType="1" res="-1.0762127349153161e-03" rms="4.4944757223129272e-01" purity="3.8546657562255859e-01" nType="-99"/>
          <Node pos="r" depth="2" NCoef="0" IVar="-1" Cut="0.0000000000000000e+00" cType="1" res="7.0844689616933465e-05" rms="4.6201753616333008e-01" purity="5.2124196290969849e-01" nType="-99"/>
        </Node>
      </Node>
    </BinaryTree>
    <BinaryTree type="DecisionTree" boostWeight="1.0000000000000000e+00" itree="672">
      <Node pos="s" depth="0" NCoef="0" IVar="4" Cut="9.1456604003906250e+01" cType="1" res="1.0110781528055668e-02" rms="4.6075677871704102e-01" purity="5.0643914937973022e-01" nType="0">
        <Node pos="l" depth="1" NCoef="0" IVar="5" Cut="-1.1412645690143108e-02" cType="1" res="-2.5263056159019470e-02" rms="4.4959244132041931e-01" purity="3.7115752696990967e-01" nType="0">
          <Node pos="l" depth="2" NCoef="0" IVar="-1" Cut="0.0000000000000000e+00" cType="1" res="-2.2129565477371216e-03" rms="4.4555163383483887e-01" purity="3.2194510102272034e-01" nType="-99"/>
          <Node pos="r" depth="2" NCoef="0" IVar="-1" Cut="0.0000000000000000e+00" cType="1" res="1.2391680502332747e-04" rms="4.5109492540359497e-01" purity="4.1430389881134033e-01" nType="-99"/>
        </Node>
        <Node pos="r" depth="1" NCoef="0" IVar="1" Cut="-1.3476258516311646e+00" cType="1" res="1.4755649492144585e-02" rms="4.6200159192085266e-01" purity="5.2420276403427124e-01" nType="0">
          <Node pos="l" depth="2" NCoef="0" IVar="-1" Cut="0.0000000000000000e+00" cType="1" res="-4.8154930118471384e-04" rms="4.3676817417144775e-01" purity="2.7855113148689270e-01" nType="-99"/>
          <Node pos="r" depth="2" NCoef="0" IVar="-1" Cut="0.0000000000000000e+00" cType="1" res="4.8898410750553012e-04" rms="4.6639984846115112e-01" purity="5.6995487213134766e-01" nType="-99"/>
        </Node>
      </Node>
    </BinaryTree>
    <BinaryTree type="DecisionTree" boostWeight="1.0000000000000000e+00" itree="673">
      <Node pos="s" depth="0" NCoef="0" IVar="3" Cut="1.2119001150131226e+00" cType="1" res="5.1253042183816433e-03" rms="4.6051314473152161e-01" purity="5.0272840261459351e-01" nType="0">
        <Node pos="l" depth="1" NCoef="0" IVar="0" Cut="6.4542709350585938e+01" cType="1" res="3.4993868321180344e-02" rms="4.5318388938903809e-01" purity="6.0519361495971680e-01" nType="0">
          <Node pos="l" depth="2" NCoef="0" IVar="-1" Cut="0.0000000000000000e+00" cType="1" res="8.2727805420290679e-05" rms="4.6472540497779846e-01" purity="5.0698781013488770e-01" nType="-99"/>
          <Node pos="r" depth="2" NCoef="0" IVar="-1" Cut="0.0000000000000000e+00" cType="1" res="1.3570373412221670e-03" rms="4.4389367103576660e-01" purity="6.7170852422714233e-01" nType="-99"/>
        </Node>
        <Node pos="r" depth="1" NCoef="0" IVar="6" Cut="9.2566621303558350e-01" cType="1" res="-7.3553645052015781e-04" rms="4.6171092987060547e-01" purity="4.8262253403663635e-01" nType="0">
          <Node pos="l" depth="2" NCoef="0" IVar="-1" Cut="0.0000000000000000e+00" cType="1" res="-9.4583642203360796e-04" rms="4.5821839570999146e-01" purity="4.1408577561378479e-01" nType="-99"/>
          <Node pos="r" depth="2" NCoef="0" IVar="-1" Cut="0.0000000000000000e+00" cType="1" res="1.4435917546506971e-04" rms="4.6215432882308960e-01" purity="4.9579891562461853e-01" nType="-99"/>
        </Node>
      </Node>
    </BinaryTree>
    <BinaryTree type="DecisionTree" boostWeight="1.0000000000000000e+00" itree="674">
      <Node pos="s" depth="0" NCoef="0" IVar="1" Cut="-2.0518820285797119e+00" cType="1" res="2.5935100857168436e-03" rms="4.6069055795669556e-01" purity="5.0186383724212646e-01" nType="0">
        <Node pos="l" depth="1" NCoef="0" IVar="-1" Cut="0.0000000000000000e+00" cType="1" res="-2.7534482069313526e-03" rms="4.0042772889137268e-01" purity="2.1627606451511383e-01" nType="-99"/>
        <Node pos="r" depth="1" NCoef="0" IVar="3" Cut="1.4322668313980103e+00" cType="1" res="6.0601150617003441e-03" rms="4.6440440416336060e-01" purity="5.2178579568862915e-01" nType="0">
          <Node pos="l" depth="2" NCoef="0" IVar="-1" Cut="0.0000000000000000e+00" cType="1" res="6.5548153361305594e-04" rms="4.5314964652061462e-01" purity="6.1431676149368286e-01" nType="-99"/>
          <Node pos="r" depth="2" NCoef="0" IVar="-1" Cut="0.0000000000000000e+00" cType="1" res="1.8331406863580924e-06" rms="4.6756094694137573e-01" purity="4.9403160810470581e-01" nType="-99"/>
        </Node>
      </Node>
    </BinaryTree>
    <BinaryTree type="DecisionTree" boostWeight="1.0000000000000000e+00" itree="675">
      <Node pos="s" depth="0" NCoef="0" IVar="3" Cut="1.1032829284667969e+00" cType="1" res="1.5673278830945492e-03" rms="4.5941889286041260e-01" purity="4.9944174289703369e-01" nType="0">
        <Node pos="l" depth="1" NCoef="0" IVar="2" Cut="6.0552513599395752e-01" cType="1" res="3.5600844770669937e-02" rms="4.6332535147666931e-01" purity="5.9700155258178711e-01" nType="0">
          <Node pos="l" depth="2" NCoef="0" IVar="-1" Cut="0.0000000000000000e+00" cType="1" res="1.3855332508683205e-03" rms="4.7448790073394775e-01" purity="5.7028704881668091e-01" nType="-99"/>
          <Node pos="r" depth="2" NCoef="0" IVar="-1" Cut="0.0000000000000000e+00" cType="1" res="3.6031764466315508e-04" rms="4.5073866844177246e-01" purity="6.2395900487899780e-01" nType="-99"/>
        </Node>
        <Node pos="r" depth="1" NCoef="0" IVar="1" Cut="7.0859664678573608e-01" cType="1" res="-3.6766626872122288e-03" rms="4.5858949422836304e-01" purity="4.8440942168235779e-01" nType="0">
          <Node pos="l" depth="2" NCoef="0" IVar="-1" Cut="0.0000000000000000e+00" cType="1" res="-5.6312372907996178e-04" rms="4.5990604162216187e-01" purity="3.5441121459007263e-01" nType="-99"/>
          <Node pos="r" depth="2" NCoef="0" IVar="-1" Cut="0.0000000000000000e+00" cType="1" res="3.0313065508380532e-04" rms="4.5627111196517944e-01" purity="6.5971654653549194e-01" nType="-99"/>
        </Node>
      </Node>
    </BinaryTree>
    <BinaryTree type="DecisionTree" boostWeight="1.0000000000000000e+00" itree="676">
      <Node pos="s" depth="0" NCoef="0" IVar="5" Cut="3.6386836320161819e-02" cType="1" res="1.9579855725169182e-03" rms="4.6072581410408020e-01" purity="5.0097739696502686e-01" nType="0">
        <Node pos="l" depth="1" NCoef="0" IVar="7" Cut="1.3863685727119446e-01" cType="1" res="-4.1164732538163662e-03" rms="4.5851054787635803e-01" purity="4.9506488442420959e-01" nType="0">
          <Node pos="l" depth="2" NCoef="0" IVar="-1" Cut="0.0000000000000000e+00" cType="1" res="7.9409452155232430e-05" rms="4.5944389700889587e-01" purity="5.1005387306213379e-01" nType="-99"/>
          <Node pos="r" depth="2" NCoef="0" IVar="-1" Cut="0.0000000000000000e+00" cType="1" res="-2.1252022124826908e-03" rms="4.4631025195121765e-01" purity="3.6892944574356079e-01" nType="-99"/>
        </Node>
        <Node pos="r" depth="1" NCoef="0" IVar="2" Cut="4.5102483034133911e-01" cType="1" res="2.3309439420700073e-02" rms="4.6780374646186829e-01" purity="5.2175974845886230e-01" nType="0">
          <Node pos="l" depth="2" NCoef="0" IVar="-1" Cut="0.0000000000000000e+00" cType="1" res="1.6794042894616723e-03" rms="4.6604374051094055e-01" purity="5.2966493368148804e-01" nType="-99"/>
          <Node pos="r" depth="2" NCoef="0" IVar="-1" Cut="0.0000000000000000e+00" cType="1" res="2.6977781089954078e-05" rms="4.6712711453437805e-01" purity="5.1771509647369385e-01" nType="-99"/>
        </Node>
      </Node>
    </BinaryTree>
    <BinaryTree type="DecisionTree" boostWeight="1.0000000000000000e+00" itree="677">
      <Node pos="s" depth="0" NCoef="0" IVar="5" Cut="-6.9808036088943481e-02" cType="1" res="6.9282269105315208e-03" rms="4.5875617861747742e-01" purity="5.0709468126296997e-01" nType="0">
        <Node pos="l" depth="1" NCoef="0" IVar="-1" Cut="0.0000000000000000e+00" cType="1" res="-1.6715511446818709e-03" rms="4.4560721516609192e-01" purity="3.7487190961837769e-01" nType="-99"/>
        <Node pos="r" depth="1" NCoef="0" IVar="4" Cut="3.5438186645507812e+02" cType="1" res="1.0803195647895336e-02" rms="4.5941066741943359e-01" purity="5.1633298397064209e-01" nType="0">
          <Node pos="l" depth="2" NCoef="0" IVar="-1" Cut="0.0000000000000000e+00" cType="1" res="2.0018489158246666e-04" rms="4.5957165956497192e-01" purity="5.0568854808807373e-01" nType="-99"/>
          <Node pos="r" depth="2" NCoef="0" IVar="-1" Cut="0.0000000000000000e+00" cType="1" res="1.2739883968606591e-03" rms="4.5528915524482727e-01" purity="6.4321005344390869e-01" nType="-99"/>
        </Node>
      </Node>
    </BinaryTree>
    <BinaryTree type="DecisionTree" boostWeight="1.0000000000000000e+00" itree="678">
      <Node pos="s" depth="0" NCoef="0" IVar="9" Cut="1.2529470026493073e-01" cType="1" res="-1.4071355108171701e-03" rms="4.5748394727706909e-01" purity="4.9689543247222900e-01" nType="0">
        <Node pos="l" depth="1" NCoef="0" IVar="4" Cut="3.6917584228515625e+02" cType="1" res="-9.7782732918858528e-03" rms="4.5737257599830627e-01" purity="4.7275084257125854e-01" nType="0">
          <Node pos="l" depth="2" NCoef="0" IVar="-1" Cut="0.0000000000000000e+00" cType="1" res="-4.7021522186696529e-04" rms="4.5656636357307434e-01" purity="4.5618847012519836e-01" nType="-99"/>
          <Node pos="r" depth="2" NCoef="0" IVar="-1" Cut="0.0000000000000000e+00" cType="1" res="1.0653531644493341e-03" rms="4.6119230985641479e-01" purity="6.2530672550201416e-01" nType="-99"/>
        </Node>
        <Node pos="r" depth="1" NCoef="0" IVar="8" Cut="4.0589508414268494e-01" cType="1" res="2.1612076088786125e-02" rms="4.5700019598007202e-01" purity="5.6328904628753662e-01" nType="0">
          <Node pos="l" depth="2" NCoef="0" IVar="-1" Cut="0.0000000000000000e+00" cType="1" res="1.2092984252376482e-04" rms="4.6165469288825989e-01" purity="5.2196902036666870e-01" nType="-99"/>
          <Node pos="r" depth="2" NCoef="0" IVar="-1" Cut="0.0000000000000000e+00" cType="1" res="1.5664624515920877e-03" rms="4.4250547885894775e-01" purity="6.6492563486099243e-01" nType="-99"/>
        </Node>
      </Node>
    </BinaryTree>
    <BinaryTree type="DecisionTree" boostWeight="1.0000000000000000e+00" itree="679">
      <Node pos="s" depth="0" NCoef="0" IVar="3" Cut="9.8859053850173950e-01" cType="1" res="4.8044766299426556e-03" rms="4.6012747287750244e-01" purity="5.0286424160003662e-01" nType="0">
        <Node pos="l" depth="1" NCoef="0" IVar="-1" Cut="0.0000000000000000e+00" cType="1" res="9.1247860109433532e-04" rms="4.5163857936859131e-01" purity="6.0449379682540894e-01" nType="-99"/>
        <Node pos="r" depth="1" NCoef="0" IVar="7" Cut="8.1421807408332825e-02" cType="1" res="1.0771332308650017e-03" rms="4.6096664667129517e-01" purity="4.9097332358360291e-01" nType="0">
          <Node pos="l" depth="2" NCoef="0" IVar="-1" Cut="0.0000000000000000e+00" cType="1" res="-1.6667137970216572e-04" rms="4.6038958430290222e-01" purity="5.0462758541107178e-01" nType="-99"/>
          <Node pos="r" depth="2" NCoef="0" IVar="-1" Cut="0.0000000000000000e+00" cType="1" res="4.7610810725018382e-04" rms="4.6185192465782166e-01" purity="4.6124565601348877e-01" nType="-99"/>
        </Node>
      </Node>
    </BinaryTree>
    <BinaryTree type="DecisionTree" boostWeight="1.0000000000000000e+00" itree="680">
      <Node pos="s" depth="0" NCoef="0" IVar="6" Cut="9.0365880727767944e-01" cType="1" res="8.7095715571194887e-04" rms="4.6060192584991455e-01" purity="4.9790015816688538e-01" nType="0">
        <Node pos="l" depth="1" NCoef="0" IVar="-1" Cut="0.0000000000000000e+00" cType="1" res="-2.0629658829420805e-03" rms="4.5555880665779114e-01" purity="3.7557715177536011e-01" nType="-99"/>
        <Node pos="r" depth="1" NCoef="0" IVar="6" Cut="9.8342460393905640e-01" cType="1" res="4.7724773176014423e-03" rms="4.6061664819717407e-01" purity="5.0531268119812012e-01" nType="0">
          <Node pos="l" depth="2" NCoef="0" IVar="-1" Cut="0.0000000000000000e+00" cType="1" res="-9.9690980277955532e-05" rms="4.6199828386306763e-01" purity="4.8591735959053040e-01" nType="-99"/>
          <Node pos="r" depth="2" NCoef="0" IVar="-1" Cut="0.0000000000000000e+00" cType="1" res="6.7926704650744796e-04" rms="4.5641618967056274e-01" purity="5.5459672212600708e-01" nType="-99"/>
        </Node>
      </Node>
    </BinaryTree>
    <BinaryTree type="DecisionTree" boostWeight="1.0000000000000000e+00" itree="681">
      <Node pos="s" depth="0" NCoef="0" IVar="3" Cut="1.4343400001525879e+00" cType="1" res="-1.0676354868337512e-03" rms="4.5746335387229919e-01" purity="4.9702858924865723e-01" nType="0">
        <Node pos="l" depth="1" NCoef="0" IVar="0" Cut="9.4485969543457031e+01" cType="1" res="2.2482635453343391e-02" rms="4.5331439375877380e-01" purity="5.9327393770217896e-01" nType="0">
          <Node pos="l" depth="2" NCoef="0" IVar="-1" Cut="0.0000000000000000e+00" cType="1" res="-3.9403216214850545e-04" rms="4.6684014797210693e-01" purity="5.0951200723648071e-01" nType="-99"/>
          <Node pos="r" depth="2" NCoef="0" IVar="-1" Cut="0.0000000000000000e+00" cType="1" res="1.8217179458588362e-03" rms="4.2682504653930664e-01" purity="7.1666634082794189e-01" nType="-99"/>
        </Node>
        <Node pos="r" depth="1" NCoef="0" IVar="4" Cut="1.9787379455566406e+02" cType="1" res="-8.0215828493237495e-03" rms="4.5845001935958862e-01" purity="4.6860921382904053e-01" nType="0">
          <Node pos="l" depth="2" NCoef="0" IVar="-1" Cut="0.0000000000000000e+00" cType="1" res="-5.5006111506372690e-04" rms="4.5352640748023987e-01" purity="4.3586194515228271e-01" nType="-99"/>
          <Node pos="r" depth="2" NCoef="0" IVar="-1" Cut="0.0000000000000000e+00" cType="1" res="3.4887014771811664e-04" rms="4.6808159351348877e-01" purity="5.3851771354675293e-01" nType="-99"/>
        </Node>
      </Node>
    </BinaryTree>
    <BinaryTree type="DecisionTree" boostWeight="1.0000000000000000e+00" itree="682">
      <Node pos="s" depth="0" NCoef="0" IVar="8" Cut="3.8207447528839111e-01" cType="1" res="-6.9140456616878510e-05" rms="4.5895618200302124e-01" purity="4.9800798296928406e-01" nType="0">
        <Node pos="l" depth="1" NCoef="0" IVar="2" Cut="4.3964511156082153e-01" cType="1" res="-1.7814477905631065e-02" rms="4.5945057272911072e-01" purity="4.5453384518623352e-01" nType="0">
          <Node pos="l" depth="2" NCoef="0" IVar="-1" Cut="0.0000000000000000e+00" cType="1" res="2.9055614140816033e-04" rms="4.6608841419219971e-01" purity="4.3599462509155273e-01" nType="-99"/>
          <Node pos="r" depth="2" NCoef="0" IVar="-1" Cut="0.0000000000000000e+00" cType="1" res="-8.2211097469553351e-04" rms="4.5666161179542542e-01" purity="4.6113643050193787e-01" nType="-99"/>
        </Node>
        <Node pos="r" depth="1" NCoef="0" IVar="4" Cut="2.1470213317871094e+02" cType="1" res="9.8959039896726608e-03" rms="4.5837721228599548e-01" purity="5.2242124080657959e-01" nType="0">
          <Node pos="l" depth="2" NCoef="0" IVar="-1" Cut="0.0000000000000000e+00" cType="1" res="6.4854306401684880e-05" rms="4.5853257179260254e-01" purity="4.9691885709762573e-01" nType="-99"/>
          <Node pos="r" depth="2" NCoef="0" IVar="-1" Cut="0.0000000000000000e+00" cType="1" res="1.0461119236424565e-03" rms="4.5626875758171082e-01" purity="6.3198667764663696e-01" nType="-99"/>
        </Node>
      </Node>
    </BinaryTree>
    <BinaryTree type="DecisionTree" boostWeight="1.0000000000000000e+00" itree="683">
      <Node pos="s" depth="0" NCoef="0" IVar="8" Cut="4.0256193280220032e-01" cType="1" res="9.6358096925541759e-04" rms="4.5937466621398926e-01" purity="4.9803301692008972e-01" nType="0">
        <Node pos="l" depth="1" NCoef="0" IVar="7" Cut="3.4079540520906448e-02" cType="1" res="-7.2000813670456409e-03" rms="4.6049326658248901e-01" purity="4.7218418121337891e-01" nType="0">
          <Node pos="l" depth="2" NCoef="0" IVar="-1" Cut="0.0000000000000000e+00" cType="1" res="3.2866487163119018e-04" rms="4.6292409300804138e-01" purity="5.2131414413452148e-01" nType="-99"/>
          <Node pos="r" depth="2" NCoef="0" IVar="-1" Cut="0.0000000000000000e+00" cType="1" res="-7.7913637505844235e-04" rms="4.5747712254524231e-01" purity="4.2607301473617554e-01" nType="-99"/>
        </Node>
        <Node pos="r" depth="1" NCoef="0" IVar="0" Cut="1.3560656738281250e+02" cType="1" res="3.0466983094811440e-02" rms="4.5408719778060913e-01" purity="5.9145057201385498e-01" nType="0">
          <Node pos="l" depth="2" NCoef="0" IVar="-1" Cut="0.0000000000000000e+00" cType="1" res="1.2113573029637337e-03" rms="4.5058587193489075e-01" purity="6.3278877735137939e-01" nType="-99"/>
          <Node pos="r" depth="2" NCoef="0" IVar="-1" Cut="0.0000000000000000e+00" cType="1" res="3.3728915150277317e-04" rms="4.5645567774772644e-01" purity="5.5459380149841309e-01" nType="-99"/>
        </Node>
      </Node>
    </BinaryTree>
    <BinaryTree type="DecisionTree" boostWeight="1.0000000000000000e+00" itree="684">
      <Node pos="s" depth="0" NCoef="0" IVar="0" Cut="7.8799232482910156e+01" cType="1" res="4.8241708427667618e-03" rms="4.5880714058876038e-01" purity="5.0248813629150391e-01" nType="0">
        <Node pos="l" depth="1" NCoef="0" IVar="7" Cut="3.7579715251922607e-02" cType="1" res="-4.3326601386070251e-02" rms="4.5854887366294861e-01" purity="4.5741981267929077e-01" nType="0">
          <Node pos="l" depth="2" NCoef="0" IVar="-1" Cut="0.0000000000000000e+00" cType="1" res="-5.5893714306876063e-04" rms="4.6264290809631348e-01" purity="5.0146728754043579e-01" nType="-99"/>
          <Node pos="r" depth="2" NCoef="0" IVar="-1" Cut="0.0000000000000000e+00" cType="1" res="-2.1802550181746483e-03" rms="4.5244801044464111e-01" purity="4.0818765759468079e-01" nType="-99"/>
        </Node>
        <Node pos="r" depth="1" NCoef="0" IVar="1" Cut="-1.2327287197113037e+00" cType="1" res="1.1936449445784092e-02" rms="4.5841675996780396e-01" purity="5.0914508104324341e-01" nType="0">
          <Node pos="l" depth="2" NCoef="0" IVar="-1" Cut="0.0000000000000000e+00" cType="1" res="-9.6041400684043765e-04" rms="4.2920210957527161e-01" purity="2.6108962297439575e-01" nType="-99"/>
          <Node pos="r" depth="2" NCoef="0" IVar="-1" Cut="0.0000000000000000e+00" cType="1" res="4.7463830560445786e-04" rms="4.6426808834075928e-01" purity="5.6327557563781738e-01" nType="-99"/>
        </Node>
      </Node>
    </BinaryTree>
    <BinaryTree type="DecisionTree" boostWeight="1.0000000000000000e+00" itree="685">
      <Node pos="s" depth="0" NCoef="0" IVar="2" Cut="7.8920769691467285e-01" cType="1" res="2.6827498804777861e-03" rms="4.6058064699172974e-01" purity="4.9736675620079041e-01" nType="0">
        <Node pos="l" depth="1" NCoef="0" IVar="2" Cut="6.2777137756347656e-01" cType="1" res="-2.3423624224960804e-03" rms="4.6137765049934387e-01" purity="4.8108902573585510e-01" nType="0">
          <Node pos="l" depth="2" NCoef="0" IVar="-1" Cut="0.0000000000000000e+00" cType="1" res="2.3597886320203543e-04" rms="4.6235963702201843e-01" purity="4.5947340130805969e-01" nType="-99"/>
          <Node pos="r" depth="2" NCoef="0" IVar="-1" Cut="0.0000000000000000e+00" cType="1" res="-6.4184475922957063e-04" rms="4.5875129103660583e-01" purity="5.2372121810913086e-01" nType="-99"/>
        </Node>
        <Node pos="r" depth="1" NCoef="0" IVar="-1" Cut="0.0000000000000000e+00" cType="1" res="1.0353327961638570e-03" rms="4.5242559909820557e-01" purity="6.2406045198440552e-01" nType="-99"/>
      </Node>
    </BinaryTree>
    <BinaryTree type="DecisionTree" boostWeight="1.0000000000000000e+00" itree="686">
      <Node pos="s" depth="0" NCoef="0" IVar="4" Cut="1.2549196624755859e+02" cType="1" res="4.4508795253932476e-03" rms="4.5778253674507141e-01" purity="5.0521177053451538e-01" nType="0">
        <Node pos="l" depth="1" NCoef="0" IVar="4" Cut="8.0029067993164062e+01" cType="1" res="-1.7099376767873764e-02" rms="4.5238825678825378e-01" purity="4.1888406872749329e-01" nType="0">
          <Node pos="l" depth="2" NCoef="0" IVar="-1" Cut="0.0000000000000000e+00" cType="1" res="-2.7262496296316385e-03" rms="4.2352530360221863e-01" purity="3.1465423107147217e-01" nType="-99"/>
          <Node pos="r" depth="2" NCoef="0" IVar="-1" Cut="0.0000000000000000e+00" cType="1" res="-1.7647257482167333e-04" rms="4.5757615566253662e-01" purity="4.4133922457695007e-01" nType="-99"/>
        </Node>
        <Node pos="r" depth="1" NCoef="0" IVar="9" Cut="4.0939528495073318e-02" cType="1" res="1.4522376470267773e-02" rms="4.5993578433990479e-01" purity="5.4555696249008179e-01" nType="0">
          <Node pos="l" depth="2" NCoef="0" IVar="-1" Cut="0.0000000000000000e+00" cType="1" res="-2.2581599478144199e-04" rms="4.6031597256660461e-01" purity="4.7954311966896057e-01" nType="-99"/>
          <Node pos="r" depth="2" NCoef="0" IVar="-1" Cut="0.0000000000000000e+00" cType="1" res="6.2972528394311666e-04" rms="4.5942986011505127e-01" purity="5.7395273447036743e-01" nType="-99"/>
        </Node>
      </Node>
    </BinaryTree>
    <BinaryTree type="DecisionTree" boostWeight="1.0000000000000000e+00" itree="687">
      <Node pos="s" depth="0" NCoef="0" IVar="0" Cut="9.5876190185546875e+01" cType="1" res="-3.1565572135150433e-03" rms="4.6020969748497009e-01" purity="4.9355682730674744e-01" nType="0">
        <Node pos="l" depth="1" NCoef="0" IVar="1" Cut="3.8542151451110840e-01" cType="1" res="-2.8360759839415550e-02" rms="4.5890027284622192e-01" purity="4.8259398341178894e-01" nType="0">
          <Node pos="l" depth="2" NCoef="0" IVar="-1" Cut="0.0000000000000000e+00" cType="1" res="-1.9239666871726513e-03" rms="4.5286688208580017e-01" purity="3.2549610733985901e-01" nType="-99"/>
          <Node pos="r" depth="2" NCoef="0" IVar="-1" Cut="0.0000000000000000e+00" cType="1" res="-6.3660540035925806e-05" rms="4.6346372365951538e-01" purity="6.4042943716049194e-01" nType="-99"/>
        </Node>
        <Node pos="r" depth="1" NCoef="0" IVar="3" Cut="1.5084171295166016e+00" cType="1" res="3.5697037819772959e-03" rms="4.6032530069351196e-01" purity="4.9648249149322510e-01" nType="0">
          <Node pos="l" depth="2" NCoef="0" IVar="-1" Cut="0.0000000000000000e+00" cType="1" res="1.1595818214118481e-03" rms="4.4239452481269836e-01" purity="6.7952346801757812e-01" nType="-99"/>
          <Node pos="r" depth="2" NCoef="0" IVar="-1" Cut="0.0000000000000000e+00" cType="1" res="-8.1677826528903097e-05" rms="4.6253177523612976e-01" purity="4.6984720230102539e-01" nType="-99"/>
        </Node>
      </Node>
    </BinaryTree>
    <BinaryTree type="DecisionTree" boostWeight="1.0000000000000000e+00" itree="688">
      <Node pos="s" depth="0" NCoef="0" IVar="6" Cut="9.7757875919342041e-01" cType="1" res="5.1939510740339756e-03" rms="4.6124762296676636e-01" purity="5.0282961130142212e-01" nType="0">
        <Node pos="l" depth="1" NCoef="0" IVar="2" Cut="7.8784686326980591e-01" cType="1" res="-1.8759466474875808e-03" rms="4.6156319975852966e-01" purity="4.8393484950065613e-01" nType="0">
          <Node pos="l" depth="2" NCoef="0" IVar="-1" Cut="0.0000000000000000e+00" cType="1" res="-1.7846925766207278e-04" rms="4.6290567517280579e-01" purity="4.6692281961441040e-01" nType="-99"/>
          <Node pos="r" depth="2" NCoef="0" IVar="-1" Cut="0.0000000000000000e+00" cType="1" res="7.9339439980685711e-04" rms="4.4972169399261475e-01" purity="6.1494588851928711e-01" nType="-99"/>
        </Node>
        <Node pos="r" depth="1" NCoef="0" IVar="0" Cut="1.3669166564941406e+02" cType="1" res="1.9731447100639343e-02" rms="4.6025690436363220e-01" purity="5.4168200492858887e-01" nType="0">
          <Node pos="l" depth="2" NCoef="0" IVar="-1" Cut="0.0000000000000000e+00" cType="1" res="1.1450432939454913e-03" rms="4.5348063111305237e-01" purity="5.9028518199920654e-01" nType="-99"/>
          <Node pos="r" depth="2" NCoef="0" IVar="-1" Cut="0.0000000000000000e+00" cType="1" res="-6.2631472246721387e-05" rms="4.6519860625267029e-01" purity="4.9782764911651611e-01" nType="-99"/>
        </Node>
      </Node>
    </BinaryTree>
    <BinaryTree type="DecisionTree" boostWeight="1.0000000000000000e+00" itree="689">
      <Node pos="s" depth="0" NCoef="0" IVar="6" Cut="9.2821860313415527e-01" cType="1" res="-9.0027839178219438e-04" rms="4.6115159988403320e-01" purity="4.9659609794616699e-01" nType="0">
        <Node pos="l" depth="1" NCoef="0" IVar="9" Cut="5.9669192880392075e-02" cType="1" res="-2.6048853993415833e-02" rms="4.6057263016700745e-01" purity="4.3012365698814392e-01" nType="0">
          <Node pos="l" depth="2" NCoef="0" IVar="-1" Cut="0.0000000000000000e+00" cType="1" res="1.8592596461530775e-04" rms="4.6581983566284180e-01" purity="4.3508183956146240e-01" nType="-99"/>
          <Node pos="r" depth="2" NCoef="0" IVar="-1" Cut="0.0000000000000000e+00" cType="1" res="-1.5377153176814318e-03" rms="4.5531070232391357e-01" purity="4.2654287815093994e-01" nType="-99"/>
        </Node>
        <Node pos="r" depth="1" NCoef="0" IVar="0" Cut="1.3574009704589844e+02" cType="1" res="4.8848935402929783e-03" rms="4.6109065413475037e-01" purity="5.1188743114471436e-01" nType="0">
          <Node pos="l" depth="2" NCoef="0" IVar="-1" Cut="0.0000000000000000e+00" cType="1" res="5.6628702441230416e-04" rms="4.5814773440361023e-01" purity="5.5551630258560181e-01" nType="-99"/>
          <Node pos="r" depth="2" NCoef="0" IVar="-1" Cut="0.0000000000000000e+00" cType="1" res="-2.8093709261156619e-04" rms="4.6316340565681458e-01" purity="4.7382584214210510e-01" nType="-99"/>
        </Node>
      </Node>
    </BinaryTree>
    <BinaryTree type="DecisionTree" boostWeight="1.0000000000000000e+00" itree="690">
      <Node pos="s" depth="0" NCoef="0" IVar="5" Cut="2.3652814328670502e-02" cType="1" res="5.4487227462232113e-03" rms="4.6069765090942383e-01" purity="5.0210762023925781e-01" nType="0">
        <Node pos="l" depth="1" NCoef="0" IVar="2" Cut="4.4078031182289124e-01" cType="1" res="-4.1641490533947945e-03" rms="4.5758685469627380e-01" purity="4.9216410517692566e-01" nType="0">
          <Node pos="l" depth="2" NCoef="0" IVar="-1" Cut="0.0000000000000000e+00" cType="1" res="-2.7780800592154264e-03" rms="4.3978798389434814e-01" purity="3.3123230934143066e-01" nType="-99"/>
          <Node pos="r" depth="2" NCoef="0" IVar="-1" Cut="0.0000000000000000e+00" cType="1" res="1.4002958778291941e-04" rms="4.5894286036491394e-01" purity="5.1231086254119873e-01" nType="-99"/>
        </Node>
        <Node pos="r" depth="1" NCoef="0" IVar="7" Cut="1.1058846116065979e-01" cType="1" res="2.9082152992486954e-02" rms="4.6741807460784912e-01" purity="5.2655392885208130e-01" nType="0">
          <Node pos="l" depth="2" NCoef="0" IVar="-1" Cut="0.0000000000000000e+00" cType="1" res="1.4084739632380661e-05" rms="4.6701535582542419e-01" purity="5.1120603084564209e-01" nType="-99"/>
          <Node pos="r" depth="2" NCoef="0" IVar="-1" Cut="0.0000000000000000e+00" cType="1" res="2.2882544435560703e-03" rms="4.6221667528152466e-01" purity="5.5999481678009033e-01" nType="-99"/>
        </Node>
      </Node>
    </BinaryTree>
    <BinaryTree type="DecisionTree" boostWeight="1.0000000000000000e+00" itree="691">
      <Node pos="s" depth="0" NCoef="0" IVar="2" Cut="8.1999266147613525e-01" cType="1" res="5.6589916348457336e-03" rms="4.5994240045547485e-01" purity="5.0453519821166992e-01" nType="0">
        <Node pos="l" depth="1" NCoef="0" IVar="0" Cut="6.2706958770751953e+01" cType="1" res="3.0611039255745709e-04" rms="4.6137401461601257e-01" purity="4.9038997292518616e-01" nType="0">
          <Node pos="l" depth="2" NCoef="0" IVar="-1" Cut="0.0000000000000000e+00" cType="1" res="-1.9810774829238653e-03" rms="4.5126464962959290e-01" purity="4.3094924092292786e-01" nType="-99"/>
          <Node pos="r" depth="2" NCoef="0" IVar="-1" Cut="0.0000000000000000e+00" cType="1" res="1.3468203542288393e-04" rms="4.6172660589218140e-01" purity="4.9444773793220520e-01" nType="-99"/>
        </Node>
        <Node pos="r" depth="1" NCoef="0" IVar="-1" Cut="0.0000000000000000e+00" cType="1" res="1.5649894485250115e-03" rms="4.3918517231941223e-01" purity="6.6278958320617676e-01" nType="-99"/>
      </Node>
    </BinaryTree>
    <BinaryTree type="DecisionTree" boostWeight="1.0000000000000000e+00" itree="692">
      <Node pos="s" depth="0" NCoef="0" IVar="8" Cut="4.0885055065155029e-01" cType="1" res="2.7357847429811954e-03" rms="4.5950180292129517e-01" purity="5.0176763534545898e-01" nType="0">
        <Node pos="l" depth="1" NCoef="0" IVar="9" Cut="1.9884426891803741e-01" cType="1" res="-2.3036489728838205e-03" rms="4.5997709035873413e-01" purity="4.8529398441314697e-01" nType="0">
          <Node pos="l" depth="2" NCoef="0" IVar="-1" Cut="0.0000000000000000e+00" cType="1" res="-1.9306410104036331e-04" rms="4.5993530750274658e-01" purity="4.7646850347518921e-01" nType="-99"/>
          <Node pos="r" depth="2" NCoef="0" IVar="-1" Cut="0.0000000000000000e+00" cType="1" res="1.3223825953900814e-03" rms="4.5697712898254395e-01" purity="5.9604674577713013e-01" nType="-99"/>
        </Node>
        <Node pos="r" depth="1" NCoef="0" IVar="-1" Cut="0.0000000000000000e+00" cType="1" res="1.0467257816344500e-03" rms="4.5384341478347778e-01" purity="6.3057065010070801e-01" nType="-99"/>
      </Node>
    </BinaryTree>
    <BinaryTree type="DecisionTree" boostWeight="1.0000000000000000e+00" itree="693">
      <Node pos="s" depth="0" NCoef="0" IVar="9" Cut="1.2786322832107544e-01" cType="1" res="8.6908154189586639e-03" rms="4.6162647008895874e-01" purity="5.0562334060668945e-01" nType="0">
        <Node pos="l" depth="1" NCoef="0" IVar="4" Cut="3.2461904907226562e+02" cType="1" res="1.0626768926158547e-03" rms="4.6203842759132385e-01" purity="4.8340800404548645e-01" nType="0">
          <Node pos="l" depth="2" NCoef="0" IVar="-1" Cut="0.0000000000000000e+00" cType="1" res="-1.2906831398140639e-04" rms="4.6108072996139526e-01" purity="4.6508866548538208e-01" nType="-99"/>
          <Node pos="r" depth="2" NCoef="0" IVar="-1" Cut="0.0000000000000000e+00" cType="1" res="9.0903730597347021e-04" rms="4.6681079268455505e-01" purity="6.0755068063735962e-01" nType="-99"/>
        </Node>
        <Node pos="r" depth="1" NCoef="0" IVar="5" Cut="-1.4780946075916290e-02" cType="1" res="3.0520943924784660e-02" rms="4.5974668860435486e-01" purity="5.6919890642166138e-01" nType="0">
          <Node pos="l" depth="2" NCoef="0" IVar="-1" Cut="0.0000000000000000e+00" cType="1" res="1.4076437801122665e-03" rms="4.5432651042938232e-01" purity="5.8883428573608398e-01" nType="-99"/>
          <Node pos="r" depth="2" NCoef="0" IVar="-1" Cut="0.0000000000000000e+00" cType="1" res="2.4229599512182176e-04" rms="4.6351101994514465e-01" purity="5.5151140689849854e-01" nType="-99"/>
        </Node>
      </Node>
    </BinaryTree>
    <BinaryTree type="DecisionTree" boostWeight="1.0000000000000000e+00" itree="694">
      <Node pos="s" depth="0" NCoef="0" IVar="0" Cut="8.3070846557617188e+01" cType="1" res="8.0264331772923470e-03" rms="4.6055409312248230e-01" purity="5.0567120313644409e-01" nType="0">
        <Node pos="l" depth="1" NCoef="0" IVar="3" Cut="1.0020159482955933e+00" cType="1" res="-2.6082040742039680e-02" rms="4.6062585711479187e-01" purity="4.7637271881103516e-01" nType="0">
          <Node pos="l" depth="2" NCoef="0" IVar="-1" Cut="0.0000000000000000e+00" cType="1" res="-1.2138734018662944e-04" rms="4.6670365333557129e-01" purity="5.1896214485168457e-01" nType="-99"/>
          <Node pos="r" depth="2" NCoef="0" IVar="-1" Cut="0.0000000000000000e+00" cType="1" res="-1.4070873148739338e-03" rms="4.5390740036964417e-01" purity="4.3636098504066467e-01" nType="-99"/>
        </Node>
        <Node pos="r" depth="1" NCoef="0" IVar="3" Cut="1.4179699420928955e+00" cType="1" res="1.3892664574086666e-02" rms="4.6028706431388855e-01" purity="5.1071012020111084e-01" nType="0">
          <Node pos="l" depth="2" NCoef="0" IVar="-1" Cut="0.0000000000000000e+00" cType="1" res="1.3594949850812554e-03" rms="4.3628582358360291e-01" purity="6.8772506713867188e-01" nType="-99"/>
          <Node pos="r" depth="2" NCoef="0" IVar="-1" Cut="0.0000000000000000e+00" cType="1" res="2.2178607468958944e-04" rms="4.6334439516067505e-01" purity="4.8499840497970581e-01" nType="-99"/>
        </Node>
      </Node>
    </BinaryTree>
    <BinaryTree type="DecisionTree" boostWeight="1.0000000000000000e+00" itree="695">
      <Node pos="s" depth="0" NCoef="0" IVar="1" Cut="2.6051628589630127e+00" cType="1" res="-7.2222091257572174e-03" rms="4.5696601271629333e-01" purity="4.9390289187431335e-01" nType="0">
        <Node pos="l" depth="1" NCoef="0" IVar="4" Cut="3.0300897216796875e+02" cType="1" res="-1.2438163161277771e-02" rms="4.6350276470184326e-01" purity="4.5805439352989197e-01" nType="0">
          <Node pos="l" depth="2" NCoef="0" IVar="-1" Cut="0.0000000000000000e+00" cType="1" res="-5.4178381105884910e-04" rms="4.6175295114517212e-01" purity="4.4189292192459106e-01" nType="-99"/>
          <Node pos="r" depth="2" NCoef="0" IVar="-1" Cut="0.0000000000000000e+00" cType="1" res="6.9601857103407383e-04" rms="4.7373721003532410e-01" purity="5.7276302576065063e-01" nType="-99"/>
        </Node>
        <Node pos="r" depth="1" NCoef="0" IVar="-1" Cut="0.0000000000000000e+00" cType="1" res="8.9520338224247098e-04" rms="3.9400392770767212e-01" purity="7.9992979764938354e-01" nType="-99"/>
      </Node>
    </BinaryTree>
    <BinaryTree type="DecisionTree" boostWeight="1.0000000000000000e+00" itree="696">
      <Node pos="s" depth="0" NCoef="0" IVar="0" Cut="1.0544274139404297e+02" cType="1" res="-8.5433995991479605e-05" rms="4.6079346537590027e-01" purity="4.9918144941329956e-01" nType="0">
        <Node pos="l" depth="1" NCoef="0" IVar="1" Cut="6.6703580319881439e-02" cType="1" res="-2.5287492200732231e-02" rms="4.5879149436950684e-01" purity="4.9150899052619934e-01" nType="0">
          <Node pos="l" depth="2" NCoef="0" IVar="-1" Cut="0.0000000000000000e+00" cType="1" res="-1.9665695726871490e-03" rms="4.5047852396965027e-01" purity="3.1137728691101074e-01" nType="-99"/>
          <Node pos="r" depth="2" NCoef="0" IVar="-1" Cut="0.0000000000000000e+00" cType="1" res="-1.2377275561448187e-04" rms="4.6388939023017883e-01" purity="6.2609958648681641e-01" nType="-99"/>
        </Node>
        <Node pos="r" depth="1" NCoef="0" IVar="3" Cut="1.5629088878631592e+00" cType="1" res="9.1136414557695389e-03" rms="4.6117907762527466e-01" purity="5.0198197364807129e-01" nType="0">
          <Node pos="l" depth="2" NCoef="0" IVar="-1" Cut="0.0000000000000000e+00" cType="1" res="1.6676269005984068e-03" rms="4.4048640131950378e-01" purity="6.9852560758590698e-01" nType="-99"/>
          <Node pos="r" depth="2" NCoef="0" IVar="-1" Cut="0.0000000000000000e+00" cType="1" res="4.1206017158401664e-06" rms="4.6342271566390991e-01" purity="4.7344139218330383e-01" nType="-99"/>
        </Node>
      </Node>
    </BinaryTree>
    <BinaryTree type="DecisionTree" boostWeight="1.0000000000000000e+00" itree="697">
      <Node pos="s" depth="0" NCoef="0" IVar="2" Cut="5.5487722158432007e-01" cType="1" res="-1.9749084021896124e-03" rms="4.6056371927261353e-01" purity="4.9445366859436035e-01" nType="0">
        <Node pos="l" depth="1" NCoef="0" IVar="5" Cut="6.0511738993227482e-03" cType="1" res="1.5482873655855656e-02" rms="4.6580773591995239e-01" purity="4.5497313141822815e-01" nType="0">
          <Node pos="l" depth="2" NCoef="0" IVar="-1" Cut="0.0000000000000000e+00" cType="1" res="-4.5301040518097579e-04" rms="4.6124720573425293e-01" purity="4.1144752502441406e-01" nType="-99"/>
          <Node pos="r" depth="2" NCoef="0" IVar="-1" Cut="0.0000000000000000e+00" cType="1" res="1.3239803956821561e-03" rms="4.6858558058738708e-01" purity="5.0366961956024170e-01" nType="-99"/>
        </Node>
        <Node pos="r" depth="1" NCoef="0" IVar="1" Cut="8.4911078214645386e-01" cType="1" res="-1.4392320998013020e-02" rms="4.5639088749885559e-01" purity="5.2253544330596924e-01" nType="0">
          <Node pos="l" depth="2" NCoef="0" IVar="-1" Cut="0.0000000000000000e+00" cType="1" res="-1.0103329550474882e-03" rms="4.6778926253318787e-01" purity="3.9190778136253357e-01" nType="-99"/>
          <Node pos="r" depth="2" NCoef="0" IVar="-1" Cut="0.0000000000000000e+00" cType="1" res="3.0351110035553575e-04" rms="4.3679419159889221e-01" purity="7.2438991069793701e-01" nType="-99"/>
        </Node>
      </Node>
    </BinaryTree>
    <BinaryTree type="DecisionTree" boostWeight="1.0000000000000000e+00" itree="698">
      <Node pos="s" depth="0" NCoef="0" IVar="2" Cut="8.0873054265975952e-01" cType="1" res="2.4694902822375298e-03" rms="4.5891886949539185e-01" purity="4.9995511770248413e-01" nType="0">
        <Node pos="l" depth="1" NCoef="0" IVar="8" Cut="4.1290414333343506e-01" cType="1" res="-2.6822551153600216e-03" rms="4.6026825904846191e-01" purity="4.8487159609794617e-01" nType="0">
          <Node pos="l" depth="2" NCoef="0" IVar="-1" Cut="0.0000000000000000e+00" cType="1" res="-1.8119619926437736e-04" rms="4.6076425909996033e-01" purity="4.7341793775558472e-01" nType="-99"/>
          <Node pos="r" depth="2" NCoef="0" IVar="-1" Cut="0.0000000000000000e+00" cType="1" res="1.0246450547128916e-03" rms="4.5141816139221191e-01" purity="6.3190060853958130e-01" nType="-99"/>
        </Node>
        <Node pos="r" depth="1" NCoef="0" IVar="-1" Cut="0.0000000000000000e+00" cType="1" res="1.2609011027961969e-03" rms="4.4278401136398315e-01" purity="6.4425295591354370e-01" nType="-99"/>
      </Node>
    </BinaryTree>
    <BinaryTree type="DecisionTree" boostWeight="1.0000000000000000e+00" itree="699">
      <Node pos="s" depth="0" NCoef="0" IVar="4" Cut="9.3659950256347656e+01" cType="1" res="7.7256793156266212e-03" rms="4.6181339025497437e-01" purity="5.0575578212738037e-01" nType="0">
        <Node pos="l" depth="1" NCoef="0" IVar="4" Cut="8.2218215942382812e+01" cType="1" res="-2.0425718277692795e-02" rms="4.5238590240478516e-01" purity="3.8107275962829590e-01" nType="0">
          <Node pos="l" depth="2" NCoef="0" IVar="-1" Cut="0.0000000000000000e+00" cType="1" res="-1.5653483569622040e-03" rms="4.4453620910644531e-01" purity="3.4124985337257385e-01" nType="-99"/>
          <Node pos="r" depth="2" NCoef="0" IVar="-1" Cut="0.0000000000000000e+00" cType="1" res="2.1043956803623587e-04" rms="4.5969110727310181e-01" purity="4.2651492357254028e-01" nType="-99"/>
        </Node>
        <Node pos="r" depth="1" NCoef="0" IVar="0" Cut="7.7178268432617188e+01" cType="1" res="1.1920791119337082e-02" rms="4.6305534243583679e-01" purity="5.2433604001998901e-01" nType="0">
          <Node pos="l" depth="2" NCoef="0" IVar="-1" Cut="0.0000000000000000e+00" cType="1" res="-4.2322496301494539e-04" rms="4.5975658297538757e-01" purity="5.1437985897064209e-01" nType="-99"/>
          <Node pos="r" depth="2" NCoef="0" IVar="-1" Cut="0.0000000000000000e+00" cType="1" res="4.2144663166254759e-04" rms="4.6334630250930786e-01" purity="5.2557253837585449e-01" nType="-99"/>
        </Node>
      </Node>
    </BinaryTree>
    <BinaryTree type="DecisionTree" boostWeight="1.0000000000000000e+00" itree="700">
      <Node pos="s" depth="0" NCoef="0" IVar="2" Cut="8.0874979496002197e-01" cType="1" res="1.2000923743471503e-03" rms="4.6045508980751038e-01" purity="4.9921497702598572e-01" nType="0">
        <Node pos="l" depth="1" NCoef="0" IVar="7" Cut="-6.8678832612931728e-03" cType="1" res="-3.5296848509460688e-03" rms="4.6213367581367493e-01" purity="4.8329272866249084e-01" nType="0">
          <Node pos="l" depth="2" NCoef="0" IVar="-1" Cut="0.0000000000000000e+00" cType="1" res="4.3296191142871976e-04" rms="4.6419900655746460e-01" purity="5.4520529508590698e-01" nType="-99"/>
          <Node pos="r" depth="2" NCoef="0" IVar="-1" Cut="0.0000000000000000e+00" cType="1" res="-2.9706722125411034e-04" rms="4.6124401688575745e-01" purity="4.6232539415359497e-01" nType="-99"/>
        </Node>
        <Node pos="r" depth="1" NCoef="0" IVar="-1" Cut="0.0000000000000000e+00" cType="1" res="1.1012714821845293e-03" rms="4.4231984019279480e-01" purity="6.4590394496917725e-01" nType="-99"/>
      </Node>
    </BinaryTree>
    <BinaryTree type="DecisionTree" boostWeight="1.0000000000000000e+00" itree="701">
      <Node pos="s" depth="0" NCoef="0" IVar="8" Cut="3.4606051445007324e-01" cType="1" res="4.0709492750465870e-03" rms="4.5733401179313660e-01" purity="5.0408065319061279e-01" nType="0">
        <Node pos="l" depth="1" NCoef="0" IVar="-1" Cut="0.0000000000000000e+00" cType="1" res="-1.2284078402444720e-03" rms="4.5774778723716736e-01" purity="4.2315641045570374e-01" nType="-99"/>
        <Node pos="r" depth="1" NCoef="0" IVar="5" Cut="-6.0538310557603836e-02" cType="1" res="8.8943662121891975e-03" rms="4.5703187584877014e-01" purity="5.1299071311950684e-01" nType="0">
          <Node pos="l" depth="2" NCoef="0" IVar="-1" Cut="0.0000000000000000e+00" cType="1" res="-9.1906113084405661e-04" rms="4.4599404931068420e-01" purity="4.1594117879867554e-01" nType="-99"/>
          <Node pos="r" depth="2" NCoef="0" IVar="-1" Cut="0.0000000000000000e+00" cType="1" res="3.5332073457539082e-04" rms="4.5806041359901428e-01" purity="5.2381068468093872e-01" nType="-99"/>
        </Node>
      </Node>
    </BinaryTree>
    <BinaryTree type="DecisionTree" boostWeight="1.0000000000000000e+00" itree="702">
      <Node pos="s" depth="0" NCoef="0" IVar="8" Cut="3.2494714856147766e-01" cType="1" res="-1.4191220980137587e-03" rms="4.5886531472206116e-01" purity="4.9897751212120056e-01" nType="0">
        <Node pos="l" depth="1" NCoef="0" IVar="-1" Cut="0.0000000000000000e+00" cType="1" res="-1.9972834270447493e-03" rms="4.6026766300201416e-01" purity="4.0433770418167114e-01" nType="-99"/>
        <Node pos="r" depth="1" NCoef="0" IVar="3" Cut="1.4078699350357056e+00" cType="1" res="1.9793864339590073e-03" rms="4.5854458212852478e-01" purity="5.0411689281463623e-01" nType="0">
          <Node pos="l" depth="2" NCoef="0" IVar="-1" Cut="0.0000000000000000e+00" cType="1" res="6.0217839200049639e-04" rms="4.5689168572425842e-01" purity="5.9609657526016235e-01" nType="-99"/>
          <Node pos="r" depth="2" NCoef="0" IVar="-1" Cut="0.0000000000000000e+00" cType="1" res="-1.1668272782117128e-04" rms="4.5881548523902893e-01" purity="4.7887891530990601e-01" nType="-99"/>
        </Node>
      </Node>
    </BinaryTree>
    <BinaryTree type="DecisionTree" boostWeight="1.0000000000000000e+00" itree="703">
      <Node pos="s" depth="0" NCoef="0" IVar="9" Cut="2.7112651616334915e-02" cType="1" res="2.1713264286518097e-03" rms="4.5885473489761353e-01" purity="5.0203925371170044e-01" nType="0">
        <Node pos="l" depth="1" NCoef="0" IVar="5" Cut="-1.3555413112044334e-02" cType="1" res="-2.9993448406457901e-02" rms="4.5735368132591248e-01" purity="4.4280242919921875e-01" nType="0">
          <Node pos="l" depth="2" NCoef="0" IVar="-1" Cut="0.0000000000000000e+00" cType="1" res="-2.1749837324023247e-03" rms="4.5275965332984924e-01" purity="3.7975969910621643e-01" nType="-99"/>
          <Node pos="r" depth="2" NCoef="0" IVar="-1" Cut="0.0000000000000000e+00" cType="1" res="-5.8747235016198829e-05" rms="4.5914068818092346e-01" purity="4.9369105696678162e-01" nType="-99"/>
        </Node>
        <Node pos="r" depth="1" NCoef="0" IVar="1" Cut="1.3159354925155640e+00" cType="1" res="6.4188344404101372e-03" rms="4.5888409018516541e-01" purity="5.0986170768737793e-01" nType="0">
          <Node pos="l" depth="2" NCoef="0" IVar="-1" Cut="0.0000000000000000e+00" cType="1" res="-1.1825483852589969e-05" rms="4.6939694881439209e-01" purity="4.1658788919448853e-01" nType="-99"/>
          <Node pos="r" depth="2" NCoef="0" IVar="-1" Cut="0.0000000000000000e+00" cType="1" res="5.1705446094274521e-04" rms="4.3303212523460388e-01" purity="7.2682166099548340e-01" nType="-99"/>
        </Node>
      </Node>
    </BinaryTree>
    <BinaryTree type="DecisionTree" boostWeight="1.0000000000000000e+00" itree="704">
      <Node pos="s" depth="0" NCoef="0" IVar="4" Cut="1.0122396850585938e+02" cType="1" res="4.6247974969446659e-03" rms="4.6009272336959839e-01" purity="5.0267213582992554e-01" nType="0">
        <Node pos="l" depth="1" NCoef="0" IVar="3" Cut="1.7823947668075562e+00" cType="1" res="-2.4482768028974533e-02" rms="4.4977053999900818e-01" purity="3.8575524091720581e-01" nType="0">
          <Node pos="l" depth="2" NCoef="0" IVar="-1" Cut="0.0000000000000000e+00" cType="1" res="-2.4925104808062315e-03" rms="4.3850266933441162e-01" purity="3.7435179948806763e-01" nType="-99"/>
          <Node pos="r" depth="2" NCoef="0" IVar="-1" Cut="0.0000000000000000e+00" cType="1" res="-4.9351343477610499e-05" rms="4.5283403992652893e-01" purity="3.9085590839385986e-01" nType="-99"/>
        </Node>
        <Node pos="r" depth="1" NCoef="0" IVar="2" Cut="5.5109721422195435e-01" cType="1" res="1.0625443421304226e-02" rms="4.6196407079696655e-01" purity="5.2677506208419800e-01" nType="0">
          <Node pos="l" depth="2" NCoef="0" IVar="-1" Cut="0.0000000000000000e+00" cType="1" res="6.7951763048768044e-04" rms="4.6645638346672058e-01" purity="4.8760357499122620e-01" nType="-99"/>
          <Node pos="r" depth="2" NCoef="0" IVar="-1" Cut="0.0000000000000000e+00" cType="1" res="3.9828060835134238e-05" rms="4.5874920487403870e-01" purity="5.5259233713150024e-01" nType="-99"/>
        </Node>
      </Node>
    </BinaryTree>
    <BinaryTree type="DecisionTree" boostWeight="1.0000000000000000e+00" itree="705">
      <Node pos="s" depth="0" NCoef="0" IVar="8" Cut="3.9503133296966553e-01" cType="1" res="9.2081906041130424e-04" rms="4.5955622196197510e-01" purity="4.9774676561355591e-01" nType="0">
        <Node pos="l" depth="1" NCoef="0" IVar="1" Cut="-6.4150851964950562e-01" cType="1" res="-7.8772949054837227e-03" rms="4.5834943652153015e-01" purity="4.6861526370048523e-01" nType="0">
          <Node pos="l" depth="2" NCoef="0" IVar="-1" Cut="0.0000000000000000e+00" cType="1" res="-1.3646044535562396e-03" rms="4.3306532502174377e-01" purity="2.6807042956352234e-01" nType="-99"/>
          <Node pos="r" depth="2" NCoef="0" IVar="-1" Cut="0.0000000000000000e+00" cType="1" res="5.5059044825611636e-05" rms="4.6906128525733948e-01" purity="5.5988776683807373e-01" nType="-99"/>
        </Node>
        <Node pos="r" depth="1" NCoef="0" IVar="5" Cut="3.1054330989718437e-02" cType="1" res="1.5010348521173000e-02" rms="4.6113267540931702e-01" purity="5.4439872503280640e-01" nType="0">
          <Node pos="l" depth="2" NCoef="0" IVar="-1" Cut="0.0000000000000000e+00" cType="1" res="5.8056588750332594e-04" rms="4.5914214849472046e-01" purity="5.5212366580963135e-01" nType="-99"/>
          <Node pos="r" depth="2" NCoef="0" IVar="-1" Cut="0.0000000000000000e+00" cType="1" res="-3.6139023723080754e-04" rms="4.6818065643310547e-01" purity="5.1277768611907959e-01" nType="-99"/>
        </Node>
      </Node>
    </BinaryTree>
    <BinaryTree type="DecisionTree" boostWeight="1.0000000000000000e+00" itree="706">
      <Node pos="s" depth="0" NCoef="0" IVar="8" Cut="4.1040989756584167e-01" cType="1" res="6.5996631747111678e-04" rms="4.5878022909164429e-01" purity="5.0038218498229980e-01" nType="0">
        <Node pos="l" depth="1" NCoef="0" IVar="6" Cut="9.6845072507858276e-01" cType="1" res="-5.9863501228392124e-03" rms="4.5856007933616638e-01" purity="4.8436683416366577e-01" nType="0">
          <Node pos="l" depth="2" NCoef="0" IVar="-1" Cut="0.0000000000000000e+00" cType="1" res="-5.5994169088080525e-04" rms="4.5988094806671143e-01" purity="4.5327502489089966e-01" nType="-99"/>
          <Node pos="r" depth="2" NCoef="0" IVar="-1" Cut="0.0000000000000000e+00" cType="1" res="3.1716236844658852e-04" rms="4.5619866251945496e-01" purity="5.2628469467163086e-01" nType="-99"/>
        </Node>
        <Node pos="r" depth="1" NCoef="0" IVar="-1" Cut="0.0000000000000000e+00" cType="1" res="1.4762791106477380e-03" rms="4.5616471767425537e-01" purity="6.5027999877929688e-01" nType="-99"/>
      </Node>
    </BinaryTree>
    <BinaryTree type="DecisionTree" boostWeight="1.0000000000000000e+00" itree="707">
      <Node pos="s" depth="0" NCoef="0" IVar="2" Cut="7.7016246318817139e-01" cType="1" res="4.5970296487212181e-03" rms="4.6095445752143860e-01" purity="5.0404709577560425e-01" nType="0">
        <Node pos="l" depth="1" NCoef="0" IVar="2" Cut="6.6643691062927246e-01" cType="1" res="-6.4293987816199660e-04" rms="4.6308460831642151e-01" purity="4.8239669203758240e-01" nType="0">
          <Node pos="l" depth="2" NCoef="0" IVar="-1" Cut="0.0000000000000000e+00" cType="1" res="2.4632964050397277e-04" rms="4.6283748745918274e-01" purity="4.7418662905693054e-01" nType="-99"/>
          <Node pos="r" depth="2" NCoef="0" IVar="-1" Cut="0.0000000000000000e+00" cType="1" res="-9.9769921507686377e-04" rms="4.6241220831871033e-01" purity="5.1297003030776978e-01" nType="-99"/>
        </Node>
        <Node pos="r" depth="1" NCoef="0" IVar="8" Cut="3.9515158534049988e-01" cType="1" res="3.5339526832103729e-02" rms="4.4701763987541199e-01" purity="6.3106840848922729e-01" nType="0">
          <Node pos="l" depth="2" NCoef="0" IVar="-1" Cut="0.0000000000000000e+00" cType="1" res="3.7741591222584248e-04" rms="4.6121379733085632e-01" purity="6.0148376226425171e-01" nType="-99"/>
          <Node pos="r" depth="2" NCoef="0" IVar="-1" Cut="0.0000000000000000e+00" cType="1" res="1.3845316134393215e-03" rms="4.3095102906227112e-01" purity="6.6135913133621216e-01" nType="-99"/>
        </Node>
      </Node>
    </BinaryTree>
    <BinaryTree type="DecisionTree" boostWeight="1.0000000000000000e+00" itree="708">
      <Node pos="s" depth="0" NCoef="0" IVar="9" Cut="3.5480625927448273e-02" cType="1" res="5.2433842793107033e-03" rms="4.5990961790084839e-01" purity="5.0533205270767212e-01" nType="0">
        <Node pos="l" depth="1" NCoef="0" IVar="0" Cut="1.1915985107421875e+02" cType="1" res="-2.5990257039666176e-02" rms="4.5585939288139343e-01" purity="4.4813460111618042e-01" nType="0">
          <Node pos="l" depth="2" NCoef="0" IVar="-1" Cut="0.0000000000000000e+00" cType="1" res="8.7845422967802733e-05" rms="4.6545377373695374e-01" purity="5.0440573692321777e-01" nType="-99"/>
          <Node pos="r" depth="2" NCoef="0" IVar="-1" Cut="0.0000000000000000e+00" cType="1" res="-1.2903609313070774e-03" rms="4.5015788078308105e-01" purity="4.1945213079452515e-01" nType="-99"/>
        </Node>
        <Node pos="r" depth="1" NCoef="0" IVar="2" Cut="5.5618762969970703e-01" cType="1" res="1.2280119583010674e-02" rms="4.6052488684654236e-01" purity="5.1821833848953247e-01" nType="0">
          <Node pos="l" depth="2" NCoef="0" IVar="-1" Cut="0.0000000000000000e+00" cType="1" res="8.6462713079527020e-04" rms="4.6436759829521179e-01" purity="4.7279796004295349e-01" nType="-99"/>
          <Node pos="r" depth="2" NCoef="0" IVar="-1" Cut="0.0000000000000000e+00" cType="1" res="7.8999328252393752e-05" rms="4.5826745033264160e-01" purity="5.4139947891235352e-01" nType="-99"/>
        </Node>
      </Node>
    </BinaryTree>
    <BinaryTree type="DecisionTree" boostWeight="1.0000000000000000e+00" itree="709">
      <Node pos="s" depth="0" NCoef="0" IVar="8" Cut="4.0970590710639954e-01" cType="1" res="7.9243285581469536e-03" rms="4.5926532149314880e-01" purity="5.0743186473846436e-01" nType="0">
        <Node pos="l" depth="1" NCoef="0" IVar="4" Cut="2.4023815917968750e+02" cType="1" res="3.3147158101201057e-03" rms="4.5982590317726135e-01" purity="4.9221527576446533e-01" nType="0">
          <Node pos="l" depth="2" NCoef="0" IVar="-1" Cut="0.0000000000000000e+00" cType="1" res="-1.3545987894758582e-04" rms="4.5921412110328674e-01" purity="4.6165442466735840e-01" nType="-99"/>
          <Node pos="r" depth="2" NCoef="0" IVar="-1" Cut="0.0000000000000000e+00" cType="1" res="7.2782870847731829e-04" rms="4.6088361740112305e-01" purity="5.9234899282455444e-01" nType="-99"/>
        </Node>
        <Node pos="r" depth="1" NCoef="0" IVar="-1" Cut="0.0000000000000000e+00" cType="1" res="1.1464394629001617e-03" rms="4.5241561532020569e-01" purity="6.3929665088653564e-01" nType="-99"/>
      </Node>
    </BinaryTree>
    <BinaryTree type="DecisionTree" boostWeight="1.0000000000000000e+00" itree="710">
      <Node pos="s" depth="0" NCoef="0" IVar="6" Cut="9.8409563302993774e-01" cType="1" res="1.9020626787096262e-03" rms="4.6079391241073608e-01" purity="5.0092387199401855e-01" nType="0">
        <Node pos="l" depth="1" NCoef="0" IVar="3" Cut="1.4170143604278564e+00" cType="1" res="-4.6541057527065277e-03" rms="4.6126300096511841e-01" purity="4.8515775799751282e-01" nType="0">
          <Node pos="l" depth="2" NCoef="0" IVar="-1" Cut="0.0000000000000000e+00" cType="1" res="4.1006779065355659e-04" rms="4.5682957768440247e-01" purity="5.7791233062744141e-01" nType="-99"/>
          <Node pos="r" depth="2" NCoef="0" IVar="-1" Cut="0.0000000000000000e+00" cType="1" res="-3.1397808925248682e-04" rms="4.6235528588294983e-01" purity="4.5861244201660156e-01" nType="-99"/>
        </Node>
        <Node pos="r" depth="1" NCoef="0" IVar="2" Cut="5.1793950796127319e-01" cType="1" res="2.1770339459180832e-02" rms="4.5879760384559631e-01" purity="5.4870265722274780e-01" nType="0">
          <Node pos="l" depth="2" NCoef="0" IVar="-1" Cut="0.0000000000000000e+00" cType="1" res="1.3506767572835088e-03" rms="4.7040998935699463e-01" purity="5.1956874132156372e-01" nType="-99"/>
          <Node pos="r" depth="2" NCoef="0" IVar="-1" Cut="0.0000000000000000e+00" cType="1" res="2.3061895626597106e-04" rms="4.5282465219497681e-01" purity="5.6188136339187622e-01" nType="-99"/>
        </Node>
      </Node>
    </BinaryTree>
    <BinaryTree type="DecisionTree" boostWeight="1.0000000000000000e+00" itree="711">
      <Node pos="s" depth="0" NCoef="0" IVar="8" Cut="4.0066191554069519e-01" cType="1" res="8.5258204489946365e-03" rms="4.6164283156394958e-01" purity="5.0527471303939819e-01" nType="0">
        <Node pos="l" depth="1" NCoef="0" IVar="4" Cut="9.8852493286132812e+01" cType="1" res="-1.6370748926419765e-04" rms="4.6374371647834778e-01" purity="4.7873055934906006e-01" nType="0">
          <Node pos="l" depth="2" NCoef="0" IVar="-1" Cut="0.0000000000000000e+00" cType="1" res="-1.4352839207276702e-03" rms="4.4297987222671509e-01" purity="3.3776661753654480e-01" nType="-99"/>
          <Node pos="r" depth="2" NCoef="0" IVar="-1" Cut="0.0000000000000000e+00" cType="1" res="1.6777311975602061e-04" rms="4.6665000915527344e-01" purity="5.0106817483901978e-01" nType="-99"/>
        </Node>
        <Node pos="r" depth="1" NCoef="0" IVar="0" Cut="1.3674974060058594e+02" cType="1" res="3.3494837582111359e-02" rms="4.5462876558303833e-01" purity="5.8154821395874023e-01" nType="0">
          <Node pos="l" depth="2" NCoef="0" IVar="-1" Cut="0.0000000000000000e+00" cType="1" res="1.4066696166992188e-03" rms="4.5028221607208252e-01" purity="6.2537330389022827e-01" nType="-99"/>
          <Node pos="r" depth="2" NCoef="0" IVar="-1" Cut="0.0000000000000000e+00" cType="1" res="3.2885186374187469e-04" rms="4.5744827389717102e-01" purity="5.4218101501464844e-01" nType="-99"/>
        </Node>
      </Node>
    </BinaryTree>
    <BinaryTree type="DecisionTree" boostWeight="1.0000000000000000e+00" itree="712">
      <Node pos="s" depth="0" NCoef="0" IVar="3" Cut="1.2049481868743896e+00" cType="1" res="3.5118735395371914e-03" rms="4.6358737349510193e-01" purity="4.9963065981864929e-01" nType="0">
        <Node pos="l" depth="1" NCoef="0" IVar="0" Cut="6.1928417205810547e+01" cType="1" res="2.9948325827717781e-02" rms="4.5036423206329346e-01" purity="6.0672682523727417e-01" nType="0">
          <Node pos="l" depth="2" NCoef="0" IVar="-1" Cut="0.0000000000000000e+00" cType="1" res="-3.4750043414533138e-04" rms="4.5733895897865295e-01" purity="4.9723935127258301e-01" nType="-99"/>
          <Node pos="r" depth="2" NCoef="0" IVar="-1" Cut="0.0000000000000000e+00" cType="1" res="1.2767929583787918e-03" rms="4.4496104121208191e-01" purity="6.6495686769485474e-01" nType="-99"/>
        </Node>
        <Node pos="r" depth="1" NCoef="0" IVar="1" Cut="5.2356541156768799e-01" cType="1" res="-1.5395967056974769e-03" rms="4.6590068936347961e-01" purity="4.7916674613952637e-01" nType="0">
          <Node pos="l" depth="2" NCoef="0" IVar="-1" Cut="0.0000000000000000e+00" cType="1" res="3.8939822115935385e-04" rms="4.6556106209754944e-01" purity="3.6952024698257446e-01" nType="-99"/>
          <Node pos="r" depth="2" NCoef="0" IVar="-1" Cut="0.0000000000000000e+00" cType="1" res="-4.3337629176676273e-04" rms="4.6581825613975525e-01" purity="6.1837911605834961e-01" nType="-99"/>
        </Node>
      </Node>
    </BinaryTree>
    <BinaryTree type="DecisionTree" boostWeight="1.0000000000000000e+00" itree="713">
      <Node pos="s" depth="0" NCoef="0" IVar="5" Cut="8.5710078477859497e-02" cType="1" res="-3.9158132858574390e-03" rms="4.5954096317291260e-01" purity="4.9411904811859131e-01" nType="0">
        <Node pos="l" depth="1" NCoef="0" IVar="7" Cut="1.3881715945899487e-02" cType="1" res="-8.4700323641300201e-03" rms="4.5900243520736694e-01" purity="4.9049770832061768e-01" nType="0">
          <Node pos="l" depth="2" NCoef="0" IVar="-1" Cut="0.0000000000000000e+00" cType="1" res="2.4478271370753646e-04" rms="4.6135011315345764e-01" purity="5.4201966524124146e-01" nType="-99"/>
          <Node pos="r" depth="2" NCoef="0" IVar="-1" Cut="0.0000000000000000e+00" cType="1" res="-6.1016320250928402e-04" rms="4.5706039667129517e-01" purity="4.5616742968559265e-01" nType="-99"/>
        </Node>
        <Node pos="r" depth="1" NCoef="0" IVar="-1" Cut="0.0000000000000000e+00" cType="1" res="1.4620887814089656e-03" rms="4.6241325139999390e-01" purity="5.4161423444747925e-01" nType="-99"/>
      </Node>
    </BinaryTree>
    <BinaryTree type="DecisionTree" boostWeight="1.0000000000000000e+00" itree="714">
      <Node pos="s" depth="0" NCoef="0" IVar="5" Cut="8.8373824954032898e-02" cType="1" res="1.1834434699267149e-03" rms="4.6236175298690796e-01" purity="4.9698683619499207e-01" nType="0">
        <Node pos="l" depth="1" NCoef="0" IVar="9" Cut="1.6327367722988129e-01" cType="1" res="-2.5934418663382530e-03" rms="4.6095749735832214e-01" purity="4.9465459585189819e-01" nType="0">
          <Node pos="l" depth="2" NCoef="0" IVar="-1" Cut="0.0000000000000000e+00" cType="1" res="-2.5555631145834923e-04" rms="4.6024632453918457e-01" purity="4.7912496328353882e-01" nType="-99"/>
          <Node pos="r" depth="2" NCoef="0" IVar="-1" Cut="0.0000000000000000e+00" cType="1" res="7.8812299761921167e-04" rms="4.6332776546478271e-01" purity="5.7596981525421143e-01" nType="-99"/>
        </Node>
        <Node pos="r" depth="1" NCoef="0" IVar="-1" Cut="0.0000000000000000e+00" cType="1" res="1.4823561068624258e-03" rms="4.7876983880996704e-01" purity="5.3039711713790894e-01" nType="-99"/>
      </Node>
    </BinaryTree>
    <BinaryTree type="DecisionTree" boostWeight="1.0000000000000000e+00" itree="715">
      <Node pos="s" depth="0" NCoef="0" IVar="1" Cut="2.4686565399169922e+00" cType="1" res="-4.2762137018144131e-03" rms="4.5579418540000916e-01" purity="4.9531069397926331e-01" nType="0">
        <Node pos="l" depth="1" NCoef="0" IVar="7" Cut="-4.9271378666162491e-02" cType="1" res="-1.1993465013802052e-02" rms="4.6421959996223450e-01" purity="4.5155581831932068e-01" nType="0">
          <Node pos="l" depth="2" NCoef="0" IVar="-1" Cut="0.0000000000000000e+00" cType="1" res="9.1665802756324410e-04" rms="4.7335451841354370e-01" purity="5.4331219196319580e-01" nType="-99"/>
          <Node pos="r" depth="2" NCoef="0" IVar="-1" Cut="0.0000000000000000e+00" cType="1" res="-4.6153506264090538e-04" rms="4.6334135532379150e-01" purity="4.4479978084564209e-01" nType="-99"/>
        </Node>
        <Node pos="r" depth="1" NCoef="0" IVar="-1" Cut="0.0000000000000000e+00" cType="1" res="1.2248265556991100e-03" rms="3.8467183709144592e-01" purity="8.1261110305786133e-01" nType="-99"/>
      </Node>
    </BinaryTree>
    <BinaryTree type="DecisionTree" boostWeight="1.0000000000000000e+00" itree="716">
      <Node pos="s" depth="0" NCoef="0" IVar="0" Cut="1.2743227386474609e+02" cType="1" res="3.1337297987192869e-03" rms="4.5775306224822998e-01" purity="5.0499820709228516e-01" nType="0">
        <Node pos="l" depth="1" NCoef="0" IVar="0" Cut="8.4871940612792969e+01" cType="1" res="1.7080251127481461e-02" rms="4.5965224504470825e-01" purity="5.4150211811065674e-01" nType="0">
          <Node pos="l" depth="2" NCoef="0" IVar="-1" Cut="0.0000000000000000e+00" cType="1" res="-3.1713349744677544e-04" rms="4.6149984002113342e-01" purity="4.9867442250251770e-01" nType="-99"/>
          <Node pos="r" depth="2" NCoef="0" IVar="-1" Cut="0.0000000000000000e+00" cType="1" res="9.1150461230427027e-04" rms="4.5757225155830383e-01" purity="5.6840580701828003e-01" nType="-99"/>
        </Node>
        <Node pos="r" depth="1" NCoef="0" IVar="0" Cut="2.2821104431152344e+02" cType="1" res="-7.0086321793496609e-03" rms="4.5609918236732483e-01" purity="4.7845140099525452e-01" nType="0">
          <Node pos="l" depth="2" NCoef="0" IVar="-1" Cut="0.0000000000000000e+00" cType="1" res="-5.3841137560084462e-04" rms="4.5515397191047668e-01" purity="4.8031756281852722e-01" nType="-99"/>
          <Node pos="r" depth="2" NCoef="0" IVar="-1" Cut="0.0000000000000000e+00" cType="1" res="3.8117874646559358e-04" rms="4.5703408122062683e-01" purity="4.7525542974472046e-01" nType="-99"/>
        </Node>
      </Node>
    </BinaryTree>
    <BinaryTree type="DecisionTree" boostWeight="1.0000000000000000e+00" itree="717">
      <Node pos="s" depth="0" NCoef="0" IVar="6" Cut="9.2144316434860229e-01" cType="1" res="3.3149153459817171e-03" rms="4.6037203073501587e-01" purity="5.0335252285003662e-01" nType="0">
        <Node pos="l" depth="1" NCoef="0" IVar="5" Cut="4.9356282688677311e-03" cType="1" res="-2.3960338905453682e-02" rms="4.6344593167304993e-01" purity="4.2916548252105713e-01" nType="0">
          <Node pos="l" depth="2" NCoef="0" IVar="-1" Cut="0.0000000000000000e+00" cType="1" res="-1.3656649971380830e-03" rms="4.5217353105545044e-01" purity="4.0820458531379700e-01" nType="-99"/>
          <Node pos="r" depth="2" NCoef="0" IVar="-1" Cut="0.0000000000000000e+00" cType="1" res="7.5272626418154687e-05" rms="4.7687369585037231e-01" purity="4.5731303095817566e-01" nType="-99"/>
        </Node>
        <Node pos="r" depth="1" NCoef="0" IVar="8" Cut="4.0544033050537109e-01" cType="1" res="7.2748223319649696e-03" rms="4.5978957414627075e-01" purity="5.1412332057952881e-01" nType="0">
          <Node pos="l" depth="2" NCoef="0" IVar="-1" Cut="0.0000000000000000e+00" cType="1" res="7.1032023697625846e-05" rms="4.6122685074806213e-01" purity="4.9570843577384949e-01" nType="-99"/>
          <Node pos="r" depth="2" NCoef="0" IVar="-1" Cut="0.0000000000000000e+00" cType="1" res="8.0788461491465569e-04" rms="4.5135539770126343e-01" purity="6.1065602302551270e-01" nType="-99"/>
        </Node>
      </Node>
    </BinaryTree>
    <BinaryTree type="DecisionTree" boostWeight="1.0000000000000000e+00" itree="718">
      <Node pos="s" depth="0" NCoef="0" IVar="4" Cut="1.4927621459960938e+02" cType="1" res="5.5280802771449089e-03" rms="4.6045300364494324e-01" purity="5.0328731536865234e-01" nType="0">
        <Node pos="l" depth="1" NCoef="0" IVar="7" Cut="1.4113558828830719e-01" cType="1" res="-1.2486485764384270e-02" rms="4.6078830957412720e-01" purity="4.3616282939910889e-01" nType="0">
          <Node pos="l" depth="2" NCoef="0" IVar="-1" Cut="0.0000000000000000e+00" cType="1" res="-7.4431030952837318e-05" rms="4.6305644512176514e-01" purity="4.5472657680511475e-01" nType="-99"/>
          <Node pos="r" depth="2" NCoef="0" IVar="-1" Cut="0.0000000000000000e+00" cType="1" res="-3.2895568292587996e-03" rms="4.3787220120429993e-01" purity="3.0451792478561401e-01" nType="-99"/>
        </Node>
        <Node pos="r" depth="1" NCoef="0" IVar="8" Cut="3.8125553727149963e-01" cType="1" res="2.0539598539471626e-02" rms="4.5963442325592041e-01" purity="5.5922210216522217e-01" nType="0">
          <Node pos="l" depth="2" NCoef="0" IVar="-1" Cut="0.0000000000000000e+00" cType="1" res="1.1848965186800342e-05" rms="4.6334296464920044e-01" purity="5.0702148675918579e-01" nType="-99"/>
          <Node pos="r" depth="2" NCoef="0" IVar="-1" Cut="0.0000000000000000e+00" cType="1" res="9.4791781157255173e-04" rms="4.5566800236701965e-01" purity="6.0457599163055420e-01" nType="-99"/>
        </Node>
      </Node>
    </BinaryTree>
    <BinaryTree type="DecisionTree" boostWeight="1.0000000000000000e+00" itree="719">
      <Node pos="s" depth="0" NCoef="0" IVar="0" Cut="1.6973361206054688e+02" cType="1" res="-1.0511227883398533e-02" rms="4.5918136835098267e-01" purity="4.8555105924606323e-01" nType="0">
        <Node pos="l" depth="1" NCoef="0" IVar="8" Cut="3.4437340497970581e-01" cType="1" res="1.5100516611710191e-03" rms="4.5758163928985596e-01" purity="5.1893347501754761e-01" nType="0">
          <Node pos="l" depth="2" NCoef="0" IVar="-1" Cut="0.0000000000000000e+00" cType="1" res="-1.7997772665694356e-03" rms="4.4943365454673767e-01" purity="4.2910492420196533e-01" nType="-99"/>
          <Node pos="r" depth="2" NCoef="0" IVar="-1" Cut="0.0000000000000000e+00" cType="1" res="2.2548486595042050e-04" rms="4.5796504616737366e-01" purity="5.2878910303115845e-01" nType="-99"/>
        </Node>
        <Node pos="r" depth="1" NCoef="0" IVar="4" Cut="2.7260574340820312e+02" cType="1" res="-3.0868196859955788e-02" rms="4.6116364002227783e-01" purity="4.2902079224586487e-01" nType="0">
          <Node pos="l" depth="2" NCoef="0" IVar="-1" Cut="0.0000000000000000e+00" cType="1" res="-1.3790440279990435e-03" rms="4.5845770835876465e-01" purity="3.9755678176879883e-01" nType="-99"/>
          <Node pos="r" depth="2" NCoef="0" IVar="-1" Cut="0.0000000000000000e+00" cType="1" res="1.6412364493589848e-04" rms="4.6892514824867249e-01" purity="5.4250001907348633e-01" nType="-99"/>
        </Node>
      </Node>
    </BinaryTree>
    <BinaryTree type="DecisionTree" boostWeight="1.0000000000000000e+00" itree="720">
      <Node pos="s" depth="0" NCoef="0" IVar="6" Cut="9.0876585245132446e-01" cType="1" res="4.0220399387180805e-03" rms="4.6142849326133728e-01" purity="5.0163322687149048e-01" nType="0">
        <Node pos="l" depth="1" NCoef="0" IVar="-1" Cut="0.0000000000000000e+00" cType="1" res="-1.2849759077653289e-03" rms="4.6050357818603516e-01" purity="4.0797236561775208e-01" nType="-99"/>
        <Node pos="r" depth="1" NCoef="0" IVar="7" Cut="-2.9075039550662041e-02" cType="1" res="7.8104785643517971e-03" rms="4.6130320429801941e-01" purity="5.0943601131439209e-01" nType="0">
          <Node pos="l" depth="2" NCoef="0" IVar="-1" Cut="0.0000000000000000e+00" cType="1" res="-7.0301187224686146e-04" rms="4.5811384916305542e-01" purity="5.2157086133956909e-01" nType="-99"/>
          <Node pos="r" depth="2" NCoef="0" IVar="-1" Cut="0.0000000000000000e+00" cType="1" res="3.6197106237523258e-04" rms="4.6160206198692322e-01" purity="5.0749319791793823e-01" nType="-99"/>
        </Node>
      </Node>
    </BinaryTree>
    <BinaryTree type="DecisionTree" boostWeight="1.0000000000000000e+00" itree="721">
      <Node pos="s" depth="0" NCoef="0" IVar="4" Cut="2.7307675170898438e+02" cType="1" res="1.3884135987609625e-03" rms="4.6029081940650940e-01" purity="4.9906772375106812e-01" nType="0">
        <Node pos="l" depth="1" NCoef="0" IVar="9" Cut="6.7991405725479126e-02" cType="1" res="-4.3968716636300087e-03" rms="4.5992311835289001e-01" purity="4.7923162579536438e-01" nType="0">
          <Node pos="l" depth="2" NCoef="0" IVar="-1" Cut="0.0000000000000000e+00" cType="1" res="-5.6456279708072543e-04" rms="4.5701098442077637e-01" purity="4.2437344789505005e-01" nType="-99"/>
          <Node pos="r" depth="2" NCoef="0" IVar="-1" Cut="0.0000000000000000e+00" cType="1" res="1.1272186384303495e-04" rms="4.6148175001144409e-01" purity="5.1258891820907593e-01" nType="-99"/>
        </Node>
        <Node pos="r" depth="1" NCoef="0" IVar="3" Cut="2.1364693641662598e+00" cType="1" res="3.1544391065835953e-02" rms="4.6102872490882874e-01" purity="6.0246402025222778e-01" nType="0">
          <Node pos="l" depth="2" NCoef="0" IVar="-1" Cut="0.0000000000000000e+00" cType="1" res="3.0168416560627520e-04" rms="4.5746418833732605e-01" purity="6.2748157978057861e-01" nType="-99"/>
          <Node pos="r" depth="2" NCoef="0" IVar="-1" Cut="0.0000000000000000e+00" cType="1" res="1.2939380249008536e-03" rms="4.6398583054542542e-01" purity="5.7492160797119141e-01" nType="-99"/>
        </Node>
      </Node>
    </BinaryTree>
    <BinaryTree type="DecisionTree" boostWeight="1.0000000000000000e+00" itree="722">
      <Node pos="s" depth="0" NCoef="0" IVar="4" Cut="1.5541783142089844e+02" cType="1" res="4.5372350141406059e-03" rms="4.5822387933731079e-01" purity="5.0466942787170410e-01" nType="0">
        <Node pos="l" depth="1" NCoef="0" IVar="0" Cut="1.5465104675292969e+02" cType="1" res="-1.0870768688619137e-02" rms="4.5428130030632019e-01" purity="4.4632723927497864e-01" nType="0">
          <Node pos="l" depth="2" NCoef="0" IVar="-1" Cut="0.0000000000000000e+00" cType="1" res="8.2462802311056294e-06" rms="4.5804476737976074e-01" purity="4.8005717992782593e-01" nType="-99"/>
          <Node pos="r" depth="2" NCoef="0" IVar="-1" Cut="0.0000000000000000e+00" cType="1" res="-1.1260957689955831e-03" rms="4.4598028063774109e-01" purity="3.8003733754158020e-01" nType="-99"/>
        </Node>
        <Node pos="r" depth="1" NCoef="0" IVar="0" Cut="9.7034500122070312e+01" cType="1" res="1.9308693706989288e-02" rms="4.6148923039436340e-01" purity="5.6060135364532471e-01" nType="0">
          <Node pos="l" depth="2" NCoef="0" IVar="-1" Cut="0.0000000000000000e+00" cType="1" res="-3.0750266159884632e-04" rms="4.6557283401489258e-01" purity="5.5386179685592651e-01" nType="-99"/>
          <Node pos="r" depth="2" NCoef="0" IVar="-1" Cut="0.0000000000000000e+00" cType="1" res="6.6375406458973885e-04" rms="4.6042284369468689e-01" purity="5.6193631887435913e-01" nType="-99"/>
        </Node>
      </Node>
    </BinaryTree>
    <BinaryTree type="DecisionTree" boostWeight="1.0000000000000000e+00" itree="723">
      <Node pos="s" depth="0" NCoef="0" IVar="0" Cut="1.0411454772949219e+02" cType="1" res="9.8666967824101448e-03" rms="4.6226447820663452e-01" purity="5.0756317377090454e-01" nType="0">
        <Node pos="l" depth="1" NCoef="0" IVar="4" Cut="1.7055531311035156e+02" cType="1" res="-6.3326107338070869e-03" rms="4.6427726745605469e-01" purity="5.0713908672332764e-01" nType="0">
          <Node pos="l" depth="2" NCoef="0" IVar="-1" Cut="0.0000000000000000e+00" cType="1" res="2.8644807753153145e-04" rms="4.6175992488861084e-01" purity="4.9493849277496338e-01" nType="-99"/>
          <Node pos="r" depth="2" NCoef="0" IVar="-1" Cut="0.0000000000000000e+00" cType="1" res="-1.0838626185432076e-03" rms="4.6767416596412659e-01" purity="5.3303390741348267e-01" nType="-99"/>
        </Node>
        <Node pos="r" depth="1" NCoef="0" IVar="3" Cut="1.5211608409881592e+00" cType="1" res="1.5695035457611084e-02" rms="4.6139904856681824e-01" purity="5.0771570205688477e-01" nType="0">
          <Node pos="l" depth="2" NCoef="0" IVar="-1" Cut="0.0000000000000000e+00" cType="1" res="1.5059314901009202e-03" rms="4.3497955799102783e-01" purity="6.9966429471969604e-01" nType="-99"/>
          <Node pos="r" depth="2" NCoef="0" IVar="-1" Cut="0.0000000000000000e+00" cType="1" res="2.6959023671224713e-04" rms="4.6443817019462585e-01" purity="4.8209705948829651e-01" nType="-99"/>
        </Node>
      </Node>
    </BinaryTree>
    <BinaryTree type="DecisionTree" boostWeight="1.0000000000000000e+00" itree="724">
      <Node pos="s" depth="0" NCoef="0" IVar="3" Cut="8.1041526794433594e-01" cType="1" res="2.0726132206618786e-03" rms="4.5934802293777466e-01" purity="4.9962830543518066e-01" nType="0">
        <Node pos="l" depth="1" NCoef="0" IVar="-1" Cut="0.0000000000000000e+00" cType="1" res="1.6397414728999138e-03" rms="4.4346475601196289e-01" purity="6.3633751869201660e-01" nType="-99"/>
        <Node pos="r" depth="1" NCoef="0" IVar="0" Cut="1.6755899047851562e+02" cType="1" res="-2.7498342096805573e-03" rms="4.6010997891426086e-01" purity="4.8968052864074707e-01" nType="0">
          <Node pos="l" depth="2" NCoef="0" IVar="-1" Cut="0.0000000000000000e+00" cType="1" res="2.3590291675645858e-04" rms="4.6160590648651123e-01" purity="5.2073687314987183e-01" nType="-99"/>
          <Node pos="r" depth="2" NCoef="0" IVar="-1" Cut="0.0000000000000000e+00" cType="1" res="-5.8894290123134851e-04" rms="4.5743644237518311e-01" purity="4.4474402070045471e-01" nType="-99"/>
        </Node>
      </Node>
    </BinaryTree>
    <BinaryTree type="DecisionTree" boostWeight="1.0000000000000000e+00" itree="725">
      <Node pos="s" depth="0" NCoef="0" IVar="0" Cut="5.9368762969970703e+01" cType="1" res="-1.0491563007235527e-03" rms="4.6016505360603333e-01" purity="4.9793240427970886e-01" nType="0">
        <Node pos="l" depth="1" NCoef="0" IVar="-1" Cut="0.0000000000000000e+00" cType="1" res="-1.5487874625250697e-03" rms="4.6421417593955994e-01" purity="4.4252392649650574e-01" nType="-99"/>
        <Node pos="r" depth="1" NCoef="0" IVar="3" Cut="1.3631139993667603e+00" cType="1" res="2.1938767749816179e-03" rms="4.5971548557281494e-01" purity="5.0143831968307495e-01" nType="0">
          <Node pos="l" depth="2" NCoef="0" IVar="-1" Cut="0.0000000000000000e+00" cType="1" res="9.2782441060990095e-04" rms="4.4814437627792358e-01" purity="6.3725221157073975e-01" nType="-99"/>
          <Node pos="r" depth="2" NCoef="0" IVar="-1" Cut="0.0000000000000000e+00" cType="1" res="-1.3140076771378517e-04" rms="4.6157577633857727e-01" purity="4.7564539313316345e-01" nType="-99"/>
        </Node>
      </Node>
    </BinaryTree>
    <BinaryTree type="DecisionTree" boostWeight="1.0000000000000000e+00" itree="726">
      <Node pos="s" depth="0" NCoef="0" IVar="6" Cut="9.9316018819808960e-01" cType="1" res="3.6310830619186163e-03" rms="4.5910525321960449e-01" purity="5.0241845846176147e-01" nType="0">
        <Node pos="l" depth="1" NCoef="0" IVar="4" Cut="1.9733224487304688e+02" cType="1" res="-6.8367953645065427e-04" rms="4.5957779884338379e-01" purity="4.9364918470382690e-01" nType="0">
          <Node pos="l" depth="2" NCoef="0" IVar="-1" Cut="0.0000000000000000e+00" cType="1" res="-3.1972382566891611e-04" rms="4.5661142468452454e-01" purity="4.5520645380020142e-01" nType="-99"/>
          <Node pos="r" depth="2" NCoef="0" IVar="-1" Cut="0.0000000000000000e+00" cType="1" res="4.7380116302520037e-04" rms="4.6462211012840271e-01" purity="5.6734853982925415e-01" nType="-99"/>
        </Node>
        <Node pos="r" depth="1" NCoef="0" IVar="3" Cut="2.2063601016998291e+00" cType="1" res="3.5457924008369446e-02" rms="4.5434021949768066e-01" purity="5.6710273027420044e-01" nType="0">
          <Node pos="l" depth="2" NCoef="0" IVar="-1" Cut="0.0000000000000000e+00" cType="1" res="1.1952775530517101e-03" rms="4.5145925879478455e-01" purity="6.1955547332763672e-01" nType="-99"/>
          <Node pos="r" depth="2" NCoef="0" IVar="-1" Cut="0.0000000000000000e+00" cType="1" res="5.6399410823360085e-04" rms="4.5702475309371948e-01" purity="5.0954109430313110e-01" nType="-99"/>
        </Node>
      </Node>
    </BinaryTree>
    <BinaryTree type="DecisionTree" boostWeight="1.0000000000000000e+00" itree="727">
      <Node pos="s" depth="0" NCoef="0" IVar="7" Cut="8.4975399076938629e-02" cType="1" res="5.9230779297649860e-03" rms="4.6004873514175415e-01" purity="5.0447201728820801e-01" nType="0">
        <Node pos="l" depth="1" NCoef="0" IVar="5" Cut="2.5162562727928162e-02" cType="1" res="1.5087101608514786e-02" rms="4.6030583977699280e-01" purity="5.3213447332382202e-01" nType="0">
          <Node pos="l" depth="2" NCoef="0" IVar="-1" Cut="0.0000000000000000e+00" cType="1" res="6.9939141394570470e-04" rms="4.5953509211540222e-01" purity="5.4219383001327515e-01" nType="-99"/>
          <Node pos="r" depth="2" NCoef="0" IVar="-1" Cut="0.0000000000000000e+00" cType="1" res="-6.2400760361924767e-04" rms="4.6098279953002930e-01" purity="4.9850976467132568e-01" nType="-99"/>
        </Node>
        <Node pos="r" depth="1" NCoef="0" IVar="5" Cut="2.2861340548843145e-03" cType="1" res="-1.6200298443436623e-02" rms="4.5867353677749634e-01" purity="4.3769055604934692e-01" nType="0">
          <Node pos="l" depth="2" NCoef="0" IVar="-1" Cut="0.0000000000000000e+00" cType="1" res="-1.5995239373296499e-03" rms="4.5060729980468750e-01" purity="3.9307287335395813e-01" nType="-99"/>
          <Node pos="r" depth="2" NCoef="0" IVar="-1" Cut="0.0000000000000000e+00" cType="1" res="5.3608184680342674e-04" rms="4.6463856101036072e-01" purity="4.8582199215888977e-01" nType="-99"/>
        </Node>
      </Node>
    </BinaryTree>
    <BinaryTree type="DecisionTree" boostWeight="1.0000000000000000e+00" itree="728">
      <Node pos="s" depth="0" NCoef="0" IVar="9" Cut="7.2503708302974701e-02" cType="1" res="-3.4216959029436111e-03" rms="4.5805624127388000e-01" purity="4.9441742897033691e-01" nType="0">
        <Node pos="l" depth="1" NCoef="0" IVar="4" Cut="2.5329138183593750e+02" cType="1" res="-1.7203751951456070e-02" rms="4.5961481332778931e-01" purity="4.5499712228775024e-01" nType="0">
          <Node pos="l" depth="2" NCoef="0" IVar="-1" Cut="0.0000000000000000e+00" cType="1" res="-1.0583191178739071e-03" rms="4.5407998561859131e-01" purity="4.0548372268676758e-01" nType="-99"/>
          <Node pos="r" depth="2" NCoef="0" IVar="-1" Cut="0.0000000000000000e+00" cType="1" res="4.7022284707054496e-04" rms="4.6976134181022644e-01" purity="5.6531780958175659e-01" nType="-99"/>
        </Node>
        <Node pos="r" depth="1" NCoef="0" IVar="4" Cut="1.5415748596191406e+02" cType="1" res="8.3199134096503258e-03" rms="4.5639601349830627e-01" purity="5.2800154685974121e-01" nType="0">
          <Node pos="l" depth="2" NCoef="0" IVar="-1" Cut="0.0000000000000000e+00" cType="1" res="-1.5388538304250687e-04" rms="4.5637330412864685e-01" purity="4.7316631674766541e-01" nType="-99"/>
          <Node pos="r" depth="2" NCoef="0" IVar="-1" Cut="0.0000000000000000e+00" cType="1" res="7.3135265847668052e-04" rms="4.5565676689147949e-01" purity="6.1172217130661011e-01" nType="-99"/>
        </Node>
      </Node>
    </BinaryTree>
    <BinaryTree type="DecisionTree" boostWeight="1.0000000000000000e+00" itree="729">
      <Node pos="s" depth="0" NCoef="0" IVar="0" Cut="1.9936857604980469e+02" cType="1" res="5.1070679910480976e-03" rms="4.5629170536994934e-01" purity="5.0498938560485840e-01" nType="0">
        <Node pos="l" depth="1" NCoef="0" IVar="8" Cut="3.5911577939987183e-01" cType="1" res="1.4270012266933918e-02" rms="4.5775830745697021e-01" purity="5.2908557653427124e-01" nType="0">
          <Node pos="l" depth="2" NCoef="0" IVar="-1" Cut="0.0000000000000000e+00" cType="1" res="-7.4854330159723759e-04" rms="4.6793615818023682e-01" purity="4.5341673493385315e-01" nType="-99"/>
          <Node pos="r" depth="2" NCoef="0" IVar="-1" Cut="0.0000000000000000e+00" cType="1" res="5.6612794287502766e-04" rms="4.5562916994094849e-01" purity="5.4219061136245728e-01" nType="-99"/>
        </Node>
        <Node pos="r" depth="1" NCoef="0" IVar="4" Cut="2.1104411315917969e+02" cType="1" res="-1.8501888960599899e-02" rms="4.5163518190383911e-01" purity="4.4290390610694885e-01" nType="0">
          <Node pos="l" depth="2" NCoef="0" IVar="-1" Cut="0.0000000000000000e+00" cType="1" res="-1.3933808077126741e-03" rms="4.4552123546600342e-01" purity="3.8246482610702515e-01" nType="-99"/>
          <Node pos="r" depth="2" NCoef="0" IVar="-1" Cut="0.0000000000000000e+00" cType="1" res="3.2780662877485156e-04" rms="4.5822015404701233e-01" purity="5.2689844369888306e-01" nType="-99"/>
        </Node>
      </Node>
    </BinaryTree>
    <BinaryTree type="DecisionTree" boostWeight="1.0000000000000000e+00" itree="730">
      <Node pos="s" depth="0" NCoef="0" IVar="4" Cut="2.9178424072265625e+02" cType="1" res="-4.8513296060264111e-03" rms="4.6136674284934998e-01" purity="4.9218288064002991e-01" nType="0">
        <Node pos="l" depth="1" NCoef="0" IVar="0" Cut="1.4206813049316406e+02" cType="1" res="-9.7434883937239647e-03" rms="4.6055227518081665e-01" purity="4.7464776039123535e-01" nType="0">
          <Node pos="l" depth="2" NCoef="0" IVar="-1" Cut="0.0000000000000000e+00" cType="1" res="9.5018258434720337e-05" rms="4.6268963813781738e-01" purity="5.1196241378784180e-01" nType="-99"/>
          <Node pos="r" depth="2" NCoef="0" IVar="-1" Cut="0.0000000000000000e+00" cType="1" res="-7.3541578603908420e-04" rms="4.5792180299758911e-01" purity="4.3588289618492126e-01" nType="-99"/>
        </Node>
        <Node pos="r" depth="1" NCoef="0" IVar="3" Cut="2.1307899951934814e+00" cType="1" res="2.5216251611709595e-02" rms="4.6521276235580444e-01" purity="5.9995520114898682e-01" nType="0">
          <Node pos="l" depth="2" NCoef="0" IVar="-1" Cut="0.0000000000000000e+00" cType="1" res="-8.9438872237224132e-06" rms="4.6785697340965271e-01" purity="6.1201196908950806e-01" nType="-99"/>
          <Node pos="r" depth="2" NCoef="0" IVar="-1" Cut="0.0000000000000000e+00" cType="1" res="1.3162284158170223e-03" rms="4.6076864004135132e-01" purity="5.8698552846908569e-01" nType="-99"/>
        </Node>
      </Node>
    </BinaryTree>
    <BinaryTree type="DecisionTree" boostWeight="1.0000000000000000e+00" itree="731">
      <Node pos="s" depth="0" NCoef="0" IVar="8" Cut="3.7741732597351074e-01" cType="1" res="2.7231068816035986e-03" rms="4.6254804730415344e-01" purity="4.9681591987609863e-01" nType="0">
        <Node pos="l" depth="1" NCoef="0" IVar="1" Cut="-4.7400340437889099e-01" cType="1" res="-1.3732987456023693e-02" rms="4.6778488159179688e-01" purity="4.4678619503974915e-01" nType="0">
          <Node pos="l" depth="2" NCoef="0" IVar="-1" Cut="0.0000000000000000e+00" cType="1" res="5.1802920643240213e-04" rms="4.4930541515350342e-01" purity="3.0977597832679749e-01" nType="-99"/>
          <Node pos="r" depth="2" NCoef="0" IVar="-1" Cut="0.0000000000000000e+00" cType="1" res="-7.3934462852776051e-04" rms="4.7728520631790161e-01" purity="5.2425479888916016e-01" nType="-99"/>
        </Node>
        <Node pos="r" depth="1" NCoef="0" IVar="4" Cut="9.7515991210937500e+01" cType="1" res="9.9114766344428062e-03" rms="4.6005710959434509e-01" purity="5.1866996288299561e-01" nType="0">
          <Node pos="l" depth="2" NCoef="0" IVar="-1" Cut="0.0000000000000000e+00" cType="1" res="-6.2719261040911078e-04" rms="4.5746302604675293e-01" purity="3.9153391122817993e-01" nType="-99"/>
          <Node pos="r" depth="2" NCoef="0" IVar="-1" Cut="0.0000000000000000e+00" cType="1" res="4.3784035369753838e-04" rms="4.6039643883705139e-01" purity="5.4733258485794067e-01" nType="-99"/>
        </Node>
      </Node>
    </BinaryTree>
    <BinaryTree type="DecisionTree" boostWeight="1.0000000000000000e+00" itree="732">
      <Node pos="s" depth="0" NCoef="0" IVar="4" Cut="1.0777408599853516e+02" cType="1" res="2.3514502681791782e-03" rms="4.6155899763107300e-01" purity="4.9873256683349609e-01" nType="0">
        <Node pos="l" depth="1" NCoef="0" IVar="0" Cut="1.3489860534667969e+02" cType="1" res="-1.8665190786123276e-02" rms="4.5661368966102600e-01" purity="3.9103773236274719e-01" nType="0">
          <Node pos="l" depth="2" NCoef="0" IVar="-1" Cut="0.0000000000000000e+00" cType="1" res="-1.3229527394287288e-04" rms="4.6367040276527405e-01" purity="4.3024873733520508e-01" nType="-99"/>
          <Node pos="r" depth="2" NCoef="0" IVar="-1" Cut="0.0000000000000000e+00" cType="1" res="-1.9970897119492292e-03" rms="4.3996307253837585e-01" purity="3.0902266502380371e-01" nType="-99"/>
        </Node>
        <Node pos="r" depth="1" NCoef="0" IVar="6" Cut="9.1884857416152954e-01" cType="1" res="7.9338066279888153e-03" rms="4.6270322799682617e-01" purity="5.2733802795410156e-01" nType="0">
          <Node pos="l" depth="2" NCoef="0" IVar="-1" Cut="0.0000000000000000e+00" cType="1" res="-1.0450721019878983e-03" rms="4.6045106649398804e-01" purity="4.3910589814186096e-01" nType="-99"/>
          <Node pos="r" depth="2" NCoef="0" IVar="-1" Cut="0.0000000000000000e+00" cType="1" res="3.6235712468624115e-04" rms="4.6270221471786499e-01" purity="5.3869962692260742e-01" nType="-99"/>
        </Node>
      </Node>
    </BinaryTree>
    <BinaryTree type="DecisionTree" boostWeight="1.0000000000000000e+00" itree="733">
      <Node pos="s" depth="0" NCoef="0" IVar="3" Cut="8.1712216138839722e-01" cType="1" res="-3.9849551394581795e-03" rms="4.5930117368698120e-01" purity="4.9562126398086548e-01" nType="0">
        <Node pos="l" depth="1" NCoef="0" IVar="-1" Cut="0.0000000000000000e+00" cType="1" res="1.3016541488468647e-03" rms="4.4833093881607056e-01" purity="6.2296211719512939e-01" nType="-99"/>
        <Node pos="r" depth="1" NCoef="0" IVar="4" Cut="7.9441368103027344e+01" cType="1" res="-8.1870155408978462e-03" rms="4.5983141660690308e-01" purity="4.8613205552101135e-01" nType="0">
          <Node pos="l" depth="2" NCoef="0" IVar="-1" Cut="0.0000000000000000e+00" cType="1" res="-2.4191539268940687e-03" rms="4.2934337258338928e-01" purity="3.1599587202072144e-01" nType="-99"/>
          <Node pos="r" depth="2" NCoef="0" IVar="-1" Cut="0.0000000000000000e+00" cType="1" res="-1.3527230476029217e-04" rms="4.6146073937416077e-01" purity="4.9679988622665405e-01" nType="-99"/>
        </Node>
      </Node>
    </BinaryTree>
    <BinaryTree type="DecisionTree" boostWeight="1.0000000000000000e+00" itree="734">
      <Node pos="s" depth="0" NCoef="0" IVar="5" Cut="-5.3803317248821259e-02" cType="1" res="8.5293017327785492e-03" rms="4.6100682020187378e-01" purity="5.0761973857879639e-01" nType="0">
        <Node pos="l" depth="1" NCoef="0" IVar="2" Cut="5.5091011524200439e-01" cType="1" res="-2.2787362337112427e-02" rms="4.4861865043640137e-01" purity="4.3355268239974976e-01" nType="0">
          <Node pos="l" depth="2" NCoef="0" IVar="-1" Cut="0.0000000000000000e+00" cType="1" res="-1.8907000776380301e-03" rms="4.3824139237403870e-01" purity="3.4477749466896057e-01" nType="-99"/>
          <Node pos="r" depth="2" NCoef="0" IVar="-1" Cut="0.0000000000000000e+00" cType="1" res="1.2567323574330658e-04" rms="4.5600327849388123e-01" purity="5.1314568519592285e-01" nType="-99"/>
        </Node>
        <Node pos="r" depth="1" NCoef="0" IVar="7" Cut="1.5090386569499969e-01" cType="1" res="1.3932696543633938e-02" rms="4.6289649605751038e-01" purity="5.2039933204650879e-01" nType="0">
          <Node pos="l" depth="2" NCoef="0" IVar="-1" Cut="0.0000000000000000e+00" cType="1" res="2.5300277047790587e-04" rms="4.6226099133491516e-01" purity="5.2112591266632080e-01" nType="-99"/>
          <Node pos="r" depth="2" NCoef="0" IVar="-1" Cut="0.0000000000000000e+00" cType="1" res="1.5512838726863265e-03" rms="4.6645092964172363e-01" purity="5.1372861862182617e-01" nType="-99"/>
        </Node>
      </Node>
    </BinaryTree>
    <BinaryTree type="DecisionTree" boostWeight="1.0000000000000000e+00" itree="735">
      <Node pos="s" depth="0" NCoef="0" IVar="3" Cut="8.2034319639205933e-01" cType="1" res="9.5318187959492207e-04" rms="4.5918312668800354e-01" purity="4.9951270222663879e-01" nType="0">
        <Node pos="l" depth="1" NCoef="0" IVar="-1" Cut="0.0000000000000000e+00" cType="1" res="1.3336385600268841e-03" rms="4.4664719700813293e-01" purity="6.3173204660415649e-01" nType="-99"/>
        <Node pos="r" depth="1" NCoef="0" IVar="3" Cut="2.9767031669616699e+00" cType="1" res="-3.1797105912119150e-03" rms="4.5987135171890259e-01" purity="4.8935902118682861e-01" nType="0">
          <Node pos="l" depth="2" NCoef="0" IVar="-1" Cut="0.0000000000000000e+00" cType="1" res="8.8439992396160960e-05" rms="4.6406725049018860e-01" purity="5.1703792810440063e-01" nType="-99"/>
          <Node pos="r" depth="2" NCoef="0" IVar="-1" Cut="0.0000000000000000e+00" cType="1" res="-1.0061413049697876e-03" rms="4.4132062792778015e-01" purity="3.7606856226921082e-01" nType="-99"/>
        </Node>
      </Node>
    </BinaryTree>
    <BinaryTree type="DecisionTree" boostWeight="1.0000000000000000e+00" itree="736">
      <Node pos="s" depth="0" NCoef="0" IVar="3" Cut="1.2297191619873047e+00" cType="1" res="-1.0948880808427930e-03" rms="4.5902684330940247e-01" purity="4.9692103266716003e-01" nType="0">
        <Node pos="l" depth="1" NCoef="0" IVar="0" Cut="7.1665313720703125e+01" cType="1" res="2.5659440085291862e-02" rms="4.5767158269882202e-01" purity="5.9736394882202148e-01" nType="0">
          <Node pos="l" depth="2" NCoef="0" IVar="-1" Cut="0.0000000000000000e+00" cType="1" res="-9.7397831268608570e-05" rms="4.7081533074378967e-01" purity="5.0636494159698486e-01" nType="-99"/>
          <Node pos="r" depth="2" NCoef="0" IVar="-1" Cut="0.0000000000000000e+00" cType="1" res="1.2515237322077155e-03" rms="4.4353786110877991e-01" purity="6.8107569217681885e-01" nType="-99"/>
        </Node>
        <Node pos="r" depth="1" NCoef="0" IVar="1" Cut="6.0657811164855957e-01" cType="1" res="-6.3461968675255775e-03" rms="4.5910939574241638e-01" purity="4.7720620036125183e-01" nType="0">
          <Node pos="l" depth="2" NCoef="0" IVar="-1" Cut="0.0000000000000000e+00" cType="1" res="-7.2941766120493412e-04" rms="4.5710262656211853e-01" purity="3.3991453051567078e-01" nType="-99"/>
          <Node pos="r" depth="2" NCoef="0" IVar="-1" Cut="0.0000000000000000e+00" cType="1" res="2.4944619508460164e-04" rms="4.6105334162712097e-01" purity="6.5004527568817139e-01" nType="-99"/>
        </Node>
      </Node>
    </BinaryTree>
    <BinaryTree type="DecisionTree" boostWeight="1.0000000000000000e+00" itree="737">
      <Node pos="s" depth="0" NCoef="0" IVar="6" Cut="9.1840106248855591e-01" cType="1" res="1.5456237597391009e-03" rms="4.5955896377563477e-01" purity="5.0079393386840820e-01" nType="0">
        <Node pos="l" depth="1" NCoef="0" IVar="6" Cut="9.0125668048858643e-01" cType="1" res="-4.5693773776292801e-02" rms="4.5126110315322876e-01" purity="4.0718263387680054e-01" nType="0">
          <Node pos="l" depth="2" NCoef="0" IVar="-1" Cut="0.0000000000000000e+00" cType="1" res="-2.3335863370448351e-03" rms="4.4379878044128418e-01" purity="3.7692287564277649e-01" nType="-99"/>
          <Node pos="r" depth="2" NCoef="0" IVar="-1" Cut="0.0000000000000000e+00" cType="1" res="-7.4798415880650282e-04" rms="4.5651128888130188e-01" purity="4.3316775560379028e-01" nType="-99"/>
        </Node>
        <Node pos="r" depth="1" NCoef="0" IVar="6" Cut="9.5554500818252563e-01" cType="1" res="7.3282173834741116e-03" rms="4.6023145318031311e-01" purity="5.1225292682647705e-01" nType="0">
          <Node pos="l" depth="2" NCoef="0" IVar="-1" Cut="0.0000000000000000e+00" cType="1" res="5.6401378242298961e-04" rms="4.6454602479934692e-01" purity="4.9925193190574646e-01" nType="-99"/>
          <Node pos="r" depth="2" NCoef="0" IVar="-1" Cut="0.0000000000000000e+00" cType="1" res="-1.1896680007339455e-05" rms="4.5744228363037109e-01" purity="5.2007162570953369e-01" nType="-99"/>
        </Node>
      </Node>
    </BinaryTree>
    <BinaryTree type="DecisionTree" boostWeight="1.0000000000000000e+00" itree="738">
      <Node pos="s" depth="0" NCoef="0" IVar="3" Cut="1.1103723049163818e+00" cType="1" res="-9.8541658371686935e-04" rms="4.6102878451347351e-01" purity="4.9467214941978455e-01" nType="0">
        <Node pos="l" depth="1" NCoef="0" IVar="0" Cut="6.1754447937011719e+01" cType="1" res="4.0754199028015137e-02" rms="4.5413595438003540e-01" purity="6.1300545930862427e-01" nType="0">
          <Node pos="l" depth="2" NCoef="0" IVar="-1" Cut="0.0000000000000000e+00" cType="1" res="2.6922556571662426e-04" rms="4.6080109477043152e-01" purity="5.3021448850631714e-01" nType="-99"/>
          <Node pos="r" depth="2" NCoef="0" IVar="-1" Cut="0.0000000000000000e+00" cType="1" res="1.4924634015187621e-03" rms="4.4803270697593689e-01" purity="6.7237752676010132e-01" nType="-99"/>
        </Node>
        <Node pos="r" depth="1" NCoef="0" IVar="2" Cut="3.9160570502281189e-01" cType="1" res="-7.7890264801681042e-03" rms="4.6178510785102844e-01" purity="4.7538363933563232e-01" nType="0">
          <Node pos="l" depth="2" NCoef="0" IVar="-1" Cut="0.0000000000000000e+00" cType="1" res="-1.5454512322321534e-03" rms="4.4689172506332397e-01" purity="3.6674079298973083e-01" nType="-99"/>
          <Node pos="r" depth="2" NCoef="0" IVar="-1" Cut="0.0000000000000000e+00" cType="1" res="-1.3310296344570816e-04" rms="4.6284621953964233e-01" purity="4.8434564471244812e-01" nType="-99"/>
        </Node>
      </Node>
    </BinaryTree>
    <BinaryTree type="DecisionTree" boostWeight="1.0000000000000000e+00" itree="739">
      <Node pos="s" depth="0" NCoef="0" IVar="3" Cut="3.3525466918945312e+00" cType="1" res="-6.2938677147030830e-03" rms="4.6031737327575684e-01" purity="4.8841759562492371e-01" nType="0">
        <Node pos="l" depth="1" NCoef="0" IVar="7" Cut="1.5676128864288330e-01" cType="1" res="-2.7639260515570641e-03" rms="4.6323141455650330e-01" purity="5.0199294090270996e-01" nType="0">
          <Node pos="l" depth="2" NCoef="0" IVar="-1" Cut="0.0000000000000000e+00" cType="1" res="3.3859858376672491e-05" rms="4.6394675970077515e-01" purity="5.1090919971466064e-01" nType="-99"/>
          <Node pos="r" depth="2" NCoef="0" IVar="-1" Cut="0.0000000000000000e+00" cType="1" res="-1.3241841224953532e-03" rms="4.5402330160140991e-01" purity="4.1218408942222595e-01" nType="-99"/>
        </Node>
        <Node pos="r" depth="1" NCoef="0" IVar="-1" Cut="0.0000000000000000e+00" cType="1" res="-2.6765190996229649e-03" rms="4.0659460425376892e-01" purity="2.7067178487777710e-01" nType="-99"/>
      </Node>
    </BinaryTree>
    <BinaryTree type="DecisionTree" boostWeight="1.0000000000000000e+00" itree="740">
      <Node pos="s" depth="0" NCoef="0" IVar="1" Cut="-4.6365585923194885e-01" cType="1" res="-7.6873586513102055e-03" rms="4.5813444256782532e-01" purity="4.9082183837890625e-01" nType="0">
        <Node pos="l" depth="1" NCoef="0" IVar="6" Cut="9.3525749444961548e-01" cType="1" res="-2.4269640445709229e-02" rms="4.4225183129310608e-01" purity="2.9400387406349182e-01" nType="0">
          <Node pos="l" depth="2" NCoef="0" IVar="-1" Cut="0.0000000000000000e+00" cType="1" res="6.3917122315615416e-04" rms="4.5124182105064392e-01" purity="3.0687639117240906e-01" nType="-99"/>
          <Node pos="r" depth="2" NCoef="0" IVar="-1" Cut="0.0000000000000000e+00" cType="1" res="-1.6399698797613382e-03" rms="4.3795004487037659e-01" purity="2.8921219706535339e-01" nType="-99"/>
        </Node>
        <Node pos="r" depth="1" NCoef="0" IVar="9" Cut="1.5081255137920380e-01" cType="1" res="3.0772815807722509e-04" rms="4.6538758277893066e-01" purity="5.8571690320968628e-01" nType="0">
          <Node pos="l" depth="2" NCoef="0" IVar="-1" Cut="0.0000000000000000e+00" cType="1" res="-1.5740323578938842e-04" rms="4.6896344423294067e-01" purity="5.6609994173049927e-01" nType="-99"/>
          <Node pos="r" depth="2" NCoef="0" IVar="-1" Cut="0.0000000000000000e+00" cType="1" res="7.1963999653235078e-04" rms="4.4743698835372925e-01" purity="6.7544341087341309e-01" nType="-99"/>
        </Node>
      </Node>
    </BinaryTree>
    <BinaryTree type="DecisionTree" boostWeight="1.0000000000000000e+00" itree="741">
      <Node pos="s" depth="0" NCoef="0" IVar="0" Cut="8.7231880187988281e+01" cType="1" res="2.5157720665447414e-04" rms="4.6077871322631836e-01" purity="4.9926507472991943e-01" nType="0">
        <Node pos="l" depth="1" NCoef="0" IVar="2" Cut="6.8024408817291260e-01" cType="1" res="-2.7008637785911560e-02" rms="4.6633180975914001e-01" purity="4.7976282238960266e-01" nType="0">
          <Node pos="l" depth="2" NCoef="0" IVar="-1" Cut="0.0000000000000000e+00" cType="1" res="-2.9429365531541407e-04" rms="4.6926429867744446e-01" purity="4.6250739693641663e-01" nType="-99"/>
          <Node pos="r" depth="2" NCoef="0" IVar="-1" Cut="0.0000000000000000e+00" cType="1" res="-1.8364996649324894e-03" rms="4.5766669511795044e-01" purity="5.1766955852508545e-01" nType="-99"/>
        </Node>
        <Node pos="r" depth="1" NCoef="0" IVar="3" Cut="1.3292647600173950e+00" cType="1" res="5.7116625830531120e-03" rms="4.5946401357650757e-01" purity="5.0317126512527466e-01" nType="0">
          <Node pos="l" depth="2" NCoef="0" IVar="-1" Cut="0.0000000000000000e+00" cType="1" res="1.5384069411084056e-03" rms="4.3020600080490112e-01" purity="7.1164947748184204e-01" nType="-99"/>
          <Node pos="r" depth="2" NCoef="0" IVar="-1" Cut="0.0000000000000000e+00" cType="1" res="-2.1700474462704733e-05" rms="4.6202933788299561e-01" purity="4.8078277707099915e-01" nType="-99"/>
        </Node>
      </Node>
    </BinaryTree>
    <BinaryTree type="DecisionTree" boostWeight="1.0000000000000000e+00" itree="742">
      <Node pos="s" depth="0" NCoef="0" IVar="5" Cut="4.0589459240436554e-04" cType="1" res="2.1005442831665277e-03" rms="4.5956262946128845e-01" purity="5.0215536355972290e-01" nType="0">
        <Node pos="l" depth="1" NCoef="0" IVar="7" Cut="6.7082211375236511e-02" cType="1" res="-5.9894900768995285e-03" rms="4.5554259419441223e-01" purity="4.8905846476554871e-01" nType="0">
          <Node pos="l" depth="2" NCoef="0" IVar="-1" Cut="0.0000000000000000e+00" cType="1" res="3.9302167715504766e-04" rms="4.5357775688171387e-01" purity="5.3436142206192017e-01" nType="-99"/>
          <Node pos="r" depth="2" NCoef="0" IVar="-1" Cut="0.0000000000000000e+00" cType="1" res="-1.4931793557479978e-03" rms="4.5675408840179443e-01" purity="4.0152189135551453e-01" nType="-99"/>
        </Node>
        <Node pos="r" depth="1" NCoef="0" IVar="7" Cut="7.5468741357326508e-02" cType="1" res="1.2211259454488754e-02" rms="4.6433973312377930e-01" purity="5.1852351427078247e-01" nType="0">
          <Node pos="l" depth="2" NCoef="0" IVar="-1" Cut="0.0000000000000000e+00" cType="1" res="-4.1889274143613875e-04" rms="4.5835325121879578e-01" purity="5.1418960094451904e-01" nType="-99"/>
          <Node pos="r" depth="2" NCoef="0" IVar="-1" Cut="0.0000000000000000e+00" cType="1" res="1.5172208659350872e-03" rms="4.7070774435997009e-01" purity="5.2572357654571533e-01" nType="-99"/>
        </Node>
      </Node>
    </BinaryTree>
    <BinaryTree type="DecisionTree" boostWeight="1.0000000000000000e+00" itree="743">
      <Node pos="s" depth="0" NCoef="0" IVar="9" Cut="1.9084639847278595e-02" cType="1" res="6.0380673967301846e-03" rms="4.6131005883216858e-01" purity="5.0258535146713257e-01" nType="0">
        <Node pos="l" depth="1" NCoef="0" IVar="-1" Cut="0.0000000000000000e+00" cType="1" res="-8.1406859681010246e-04" rms="4.5695692300796509e-01" purity="4.4353079795837402e-01" nType="-99"/>
        <Node pos="r" depth="1" NCoef="0" IVar="2" Cut="5.3800594806671143e-01" cType="1" res="8.4426905959844589e-03" rms="4.6152943372726440e-01" purity="5.0684565305709839e-01" nType="0">
          <Node pos="l" depth="2" NCoef="0" IVar="-1" Cut="0.0000000000000000e+00" cType="1" res="6.7766831489279866e-04" rms="4.6212720870971680e-01" purity="4.6096444129943848e-01" nType="-99"/>
          <Node pos="r" depth="2" NCoef="0" IVar="-1" Cut="0.0000000000000000e+00" cType="1" res="2.4033517547650263e-05" rms="4.6103888750076294e-01" purity="5.3041732311248779e-01" nType="-99"/>
        </Node>
      </Node>
    </BinaryTree>
    <BinaryTree type="DecisionTree" boostWeight="1.0000000000000000e+00" itree="744">
      <Node pos="s" depth="0" NCoef="0" IVar="7" Cut="1.0531883686780930e-02" cType="1" res="1.2096167774870992e-03" rms="4.6012333035469055e-01" purity="4.9983415007591248e-01" nType="0">
        <Node pos="l" depth="1" NCoef="0" IVar="5" Cut="3.1192805618047714e-03" cType="1" res="1.6259966418147087e-02" rms="4.6317636966705322e-01" purity="5.5091935396194458e-01" nType="0">
          <Node pos="l" depth="2" NCoef="0" IVar="-1" Cut="0.0000000000000000e+00" cType="1" res="8.6197676137089729e-04" rms="4.5988592505455017e-01" purity="5.6148070096969604e-01" nType="-99"/>
          <Node pos="r" depth="2" NCoef="0" IVar="-1" Cut="0.0000000000000000e+00" cType="1" res="-2.5286327581852674e-04" rms="4.6707221865653992e-01" purity="5.3464055061340332e-01" nType="-99"/>
        </Node>
        <Node pos="r" depth="1" NCoef="0" IVar="4" Cut="1.5995578002929688e+02" cType="1" res="-7.5703156180679798e-03" rms="4.5810455083847046e-01" purity="4.7003257274627686e-01" nType="0">
          <Node pos="l" depth="2" NCoef="0" IVar="-1" Cut="0.0000000000000000e+00" cType="1" res="-8.2818523515015841e-04" rms="4.5599117875099182e-01" purity="4.0017727017402649e-01" nType="-99"/>
          <Node pos="r" depth="2" NCoef="0" IVar="-1" Cut="0.0000000000000000e+00" cType="1" res="2.6262301253154874e-04" rms="4.5947834849357605e-01" purity="5.3775513172149658e-01" nType="-99"/>
        </Node>
      </Node>
    </BinaryTree>
    <BinaryTree type="DecisionTree" boostWeight="1.0000000000000000e+00" itree="745">
      <Node pos="s" depth="0" NCoef="0" IVar="9" Cut="1.6039702296257019e-01" cType="1" res="3.3357108477503061e-03" rms="4.6154719591140747e-01" purity="4.9883207678794861e-01" nType="0">
        <Node pos="l" depth="1" NCoef="0" IVar="9" Cut="4.7645751386880875e-02" cType="1" res="-2.3235988337546587e-03" rms="4.6308922767639160e-01" purity="4.8274463415145874e-01" nType="0">
          <Node pos="l" depth="2" NCoef="0" IVar="-1" Cut="0.0000000000000000e+00" cType="1" res="4.2646925430744886e-04" rms="4.6509283781051636e-01" purity="4.8330593109130859e-01" nType="-99"/>
          <Node pos="r" depth="2" NCoef="0" IVar="-1" Cut="0.0000000000000000e+00" cType="1" res="-3.3683236688375473e-04" rms="4.6175372600555420e-01" purity="4.8244670033454895e-01" nType="-99"/>
        </Node>
        <Node pos="r" depth="1" NCoef="0" IVar="1" Cut="-4.6006837487220764e-01" cType="1" res="3.3847313374280930e-02" rms="4.5192360877990723e-01" purity="5.8556622266769409e-01" nType="0">
          <Node pos="l" depth="2" NCoef="0" IVar="-1" Cut="0.0000000000000000e+00" cType="1" res="3.2483186805620790e-04" rms="4.6534442901611328e-01" purity="3.7732160091400146e-01" nType="-99"/>
          <Node pos="r" depth="2" NCoef="0" IVar="-1" Cut="0.0000000000000000e+00" cType="1" res="1.0846744989976287e-03" rms="4.4426786899566650e-01" purity="6.9376999139785767e-01" nType="-99"/>
        </Node>
      </Node>
    </BinaryTree>
    <BinaryTree type="DecisionTree" boostWeight="1.0000000000000000e+00" itree="746">
      <Node pos="s" depth="0" NCoef="0" IVar="2" Cut="8.2550352811813354e-01" cType="1" res="3.1758800614625216e-03" rms="4.6273413300514221e-01" purity="5.0109177827835083e-01" nType="0">
        <Node pos="l" depth="1" NCoef="0" IVar="7" Cut="-1.8242996186017990e-02" cType="1" res="-1.3032698770985007e-03" rms="4.6386924386024475e-01" purity="4.8776751756668091e-01" nType="0">
          <Node pos="l" depth="2" NCoef="0" IVar="-1" Cut="0.0000000000000000e+00" cType="1" res="6.7229609703645110e-04" rms="4.6265625953674316e-01" purity="5.6298273801803589e-01" nType="-99"/>
          <Node pos="r" depth="2" NCoef="0" IVar="-1" Cut="0.0000000000000000e+00" cType="1" res="-2.3481901735067368e-04" rms="4.6392282843589783e-01" purity="4.6923595666885376e-01" nType="-99"/>
        </Node>
        <Node pos="r" depth="1" NCoef="0" IVar="-1" Cut="0.0000000000000000e+00" cType="1" res="1.3478120090439916e-03" rms="4.4580501317977905e-01" purity="6.5779501199722290e-01" nType="-99"/>
      </Node>
    </BinaryTree>
    <BinaryTree type="DecisionTree" boostWeight="1.0000000000000000e+00" itree="747">
      <Node pos="s" depth="0" NCoef="0" IVar="7" Cut="5.4369688034057617e-02" cType="1" res="7.3630143888294697e-03" rms="4.6106663346290588e-01" purity="5.0709462165832520e-01" nType="0">
        <Node pos="l" depth="1" NCoef="0" IVar="5" Cut="3.2253101468086243e-02" cType="1" res="1.7384778708219528e-02" rms="4.6178662776947021e-01" purity="5.4126763343811035e-01" nType="0">
          <Node pos="l" depth="2" NCoef="0" IVar="-1" Cut="0.0000000000000000e+00" cType="1" res="6.5776909468695521e-04" rms="4.6042177081108093e-01" purity="5.4727309942245483e-01" nType="-99"/>
          <Node pos="r" depth="2" NCoef="0" IVar="-1" Cut="0.0000000000000000e+00" cType="1" res="-3.9208753150887787e-04" rms="4.6652653813362122e-01" purity="5.1457375288009644e-01" nType="-99"/>
        </Node>
        <Node pos="r" depth="1" NCoef="0" IVar="5" Cut="2.6690695434808731e-02" cType="1" res="-6.8310769274830818e-03" rms="4.5967125892639160e-01" purity="4.5869454741477966e-01" nType="0">
          <Node pos="l" depth="2" NCoef="0" IVar="-1" Cut="0.0000000000000000e+00" cType="1" res="-7.9862662823870778e-04" rms="4.5720073580741882e-01" purity="4.3359258770942688e-01" nType="-99"/>
          <Node pos="r" depth="2" NCoef="0" IVar="-1" Cut="0.0000000000000000e+00" cType="1" res="8.7340304162353277e-04" rms="4.6214833855628967e-01" purity="5.0900423526763916e-01" nType="-99"/>
        </Node>
      </Node>
    </BinaryTree>
    <BinaryTree type="DecisionTree" boostWeight="1.0000000000000000e+00" itree="748">
      <Node pos="s" depth="0" NCoef="0" IVar="8" Cut="3.9419597387313843e-01" cType="1" res="1.2700232909992337e-03" rms="4.5987349748611450e-01" purity="4.9817883968353271e-01" nType="0">
        <Node pos="l" depth="1" NCoef="0" IVar="1" Cut="-6.5369874238967896e-01" cType="1" res="-9.1690421104431152e-03" rms="4.5924305915832520e-01" purity="4.6676126122474670e-01" nType="0">
          <Node pos="l" depth="2" NCoef="0" IVar="-1" Cut="0.0000000000000000e+00" cType="1" res="-1.4423998072743416e-03" rms="4.2820036411285400e-01" purity="2.6642912626266479e-01" nType="-99"/>
          <Node pos="r" depth="2" NCoef="0" IVar="-1" Cut="0.0000000000000000e+00" cType="1" res="1.3976729860587511e-05" rms="4.7208231687545776e-01" purity="5.5594569444656372e-01" nType="-99"/>
        </Node>
        <Node pos="r" depth="1" NCoef="0" IVar="2" Cut="4.7904270887374878e-01" cType="1" res="1.6494352370500565e-02" rms="4.6036726236343384e-01" purity="5.4399824142456055e-01" nType="0">
          <Node pos="l" depth="2" NCoef="0" IVar="-1" Cut="0.0000000000000000e+00" cType="1" res="1.5578670427203178e-03" rms="4.7614276409149170e-01" purity="5.1697897911071777e-01" nType="-99"/>
          <Node pos="r" depth="2" NCoef="0" IVar="-1" Cut="0.0000000000000000e+00" cType="1" res="2.4665874661877751e-04" rms="4.5708310604095459e-01" purity="5.4887098073959351e-01" nType="-99"/>
        </Node>
      </Node>
    </BinaryTree>
    <BinaryTree type="DecisionTree" boostWeight="1.0000000000000000e+00" itree="749">
      <Node pos="s" depth="0" NCoef="0" IVar="6" Cut="9.6829503774642944e-01" cType="1" res="8.6751882918179035e-04" rms="4.5941773056983948e-01" purity="4.9755430221557617e-01" nType="0">
        <Node pos="l" depth="1" NCoef="0" IVar="1" Cut="2.0806658267974854e+00" cType="1" res="-1.2473658658564091e-02" rms="4.5772656798362732e-01" purity="4.6802055835723877e-01" nType="0">
          <Node pos="l" depth="2" NCoef="0" IVar="-1" Cut="0.0000000000000000e+00" cType="1" res="-5.5000599240884185e-04" rms="4.6353575587272644e-01" purity="4.1459575295448303e-01" nType="-99"/>
          <Node pos="r" depth="2" NCoef="0" IVar="-1" Cut="0.0000000000000000e+00" cType="1" res="4.0207858546636999e-04" rms="4.2468032240867615e-01" purity="7.4876254796981812e-01" nType="-99"/>
        </Node>
        <Node pos="r" depth="1" NCoef="0" IVar="2" Cut="4.9665725231170654e-01" cType="1" res="1.8990084528923035e-02" rms="4.6108713746070862e-01" purity="5.3767269849777222e-01" nType="0">
          <Node pos="l" depth="2" NCoef="0" IVar="-1" Cut="0.0000000000000000e+00" cType="1" res="1.3370589585974813e-03" rms="4.6514013409614563e-01" purity="5.1148957014083862e-01" nType="-99"/>
          <Node pos="r" depth="2" NCoef="0" IVar="-1" Cut="0.0000000000000000e+00" cType="1" res="2.1716397895943373e-04" rms="4.5907679200172424e-01" purity="5.4742366075515747e-01" nType="-99"/>
        </Node>
      </Node>
    </BinaryTree>
    <BinaryTree type="DecisionTree" boostWeight="1.0000000000000000e+00" itree="750">
      <Node pos="s" depth="0" NCoef="0" IVar="0" Cut="8.8510635375976562e+01" cType="1" res="1.3695947127416730e-03" rms="4.6092519164085388e-01" purity="4.9996286630630493e-01" nType="0">
        <Node pos="l" depth="1" NCoef="0" IVar="9" Cut="8.4857530891895294e-02" cType="1" res="-2.5227524340152740e-02" rms="4.6221929788589478e-01" purity="4.7795504331588745e-01" nType="0">
          <Node pos="l" depth="2" NCoef="0" IVar="-1" Cut="0.0000000000000000e+00" cType="1" res="-1.2719110818579793e-03" rms="4.6066421270370483e-01" purity="4.3879151344299316e-01" nType="-99"/>
          <Node pos="r" depth="2" NCoef="0" IVar="-1" Cut="0.0000000000000000e+00" cType="1" res="-1.9884636276401579e-04" rms="4.6309357881546021e-01" purity="5.1785743236541748e-01" nType="-99"/>
        </Node>
        <Node pos="r" depth="1" NCoef="0" IVar="0" Cut="1.5591447448730469e+02" cType="1" res="6.8939565680921078e-03" rms="4.6046331524848938e-01" purity="5.0453400611877441e-01" nType="0">
          <Node pos="l" depth="2" NCoef="0" IVar="-1" Cut="0.0000000000000000e+00" cType="1" res="7.2567915776744485e-04" rms="4.5920065045356750e-01" purity="5.5491870641708374e-01" nType="-99"/>
          <Node pos="r" depth="2" NCoef="0" IVar="-1" Cut="0.0000000000000000e+00" cType="1" res="-3.4748821053653955e-04" rms="4.6083205938339233e-01" purity="4.5862519741058350e-01" nType="-99"/>
        </Node>
      </Node>
    </BinaryTree>
    <BinaryTree type="DecisionTree" boostWeight="1.0000000000000000e+00" itree="751">
      <Node pos="s" depth="0" NCoef="0" IVar="4" Cut="1.0401732635498047e+02" cType="1" res="-8.7493821047246456e-04" rms="4.6008405089378357e-01" purity="4.9889674782752991e-01" nType="0">
        <Node pos="l" depth="1" NCoef="0" IVar="0" Cut="1.0418040466308594e+02" cType="1" res="-3.1532883644104004e-02" rms="4.4721442461013794e-01" purity="3.7543341517448425e-01" nType="0">
          <Node pos="l" depth="2" NCoef="0" IVar="-1" Cut="0.0000000000000000e+00" cType="1" res="-3.8144513382576406e-04" rms="4.5459419488906860e-01" purity="4.1786384582519531e-01" nType="-99"/>
          <Node pos="r" depth="2" NCoef="0" IVar="-1" Cut="0.0000000000000000e+00" cType="1" res="-1.6119992360472679e-03" rms="4.4149979948997498e-01" purity="3.4593629837036133e-01" nType="-99"/>
        </Node>
        <Node pos="r" depth="1" NCoef="0" IVar="2" Cut="5.0264948606491089e-01" cType="1" res="5.8595091104507446e-03" rms="4.6259102225303650e-01" purity="5.2601718902587891e-01" nType="0">
          <Node pos="l" depth="2" NCoef="0" IVar="-1" Cut="0.0000000000000000e+00" cType="1" res="6.1471416847780347e-04" rms="4.6672427654266357e-01" purity="4.8678532242774963e-01" nType="-99"/>
          <Node pos="r" depth="2" NCoef="0" IVar="-1" Cut="0.0000000000000000e+00" cType="1" res="-1.5956760762492195e-05" rms="4.6079376339912415e-01" purity="5.4146170616149902e-01" nType="-99"/>
        </Node>
      </Node>
    </BinaryTree>
    <BinaryTree type="DecisionTree" boostWeight="1.0000000000000000e+00" itree="752">
      <Node pos="s" depth="0" NCoef="0" IVar="8" Cut="3.3516439795494080e-01" cType="1" res="3.8310599047690630e-03" rms="4.5799547433853149e-01" purity="5.0437098741531372e-01" nType="0">
        <Node pos="l" depth="1" NCoef="0" IVar="-1" Cut="0.0000000000000000e+00" cType="1" res="-1.5673970337957144e-03" rms="4.5694279670715332e-01" purity="4.1597914695739746e-01" nType="-99"/>
        <Node pos="r" depth="1" NCoef="0" IVar="0" Cut="1.5821214294433594e+02" cType="1" res="7.9866191372275352e-03" rms="4.5781004428863525e-01" purity="5.1112186908721924e-01" nType="0">
          <Node pos="l" depth="2" NCoef="0" IVar="-1" Cut="0.0000000000000000e+00" cType="1" res="5.5507110664620996e-04" rms="4.5565336942672729e-01" purity="5.4822117090225220e-01" nType="-99"/>
          <Node pos="r" depth="2" NCoef="0" IVar="-1" Cut="0.0000000000000000e+00" cType="1" res="-3.0372486799024045e-04" rms="4.6019181609153748e-01" purity="4.5947322249412537e-01" nType="-99"/>
        </Node>
      </Node>
    </BinaryTree>
    <BinaryTree type="DecisionTree" boostWeight="1.0000000000000000e+00" itree="753">
      <Node pos="s" depth="0" NCoef="0" IVar="6" Cut="9.4312644004821777e-01" cType="1" res="-5.8694547042250633e-03" rms="4.5990678668022156e-01" purity="4.9147847294807434e-01" nType="0">
        <Node pos="l" depth="1" NCoef="0" IVar="7" Cut="1.1245898157358170e-01" cType="1" res="-2.6653980836272240e-02" rms="4.6097457408905029e-01" purity="4.3714228272438049e-01" nType="0">
          <Node pos="l" depth="2" NCoef="0" IVar="-1" Cut="0.0000000000000000e+00" cType="1" res="-1.0839331662282348e-03" rms="4.6018147468566895e-01" purity="4.4031366705894470e-01" nType="-99"/>
          <Node pos="r" depth="2" NCoef="0" IVar="-1" Cut="0.0000000000000000e+00" cType="1" res="1.0137869685422629e-04" rms="4.6223208308219910e-01" purity="4.2694431543350220e-01" nType="-99"/>
        </Node>
        <Node pos="r" depth="1" NCoef="0" IVar="9" Cut="1.8236653506755829e-01" cType="1" res="3.9811832830309868e-03" rms="4.5907127857208252e-01" purity="5.1723062992095947e-01" nType="0">
          <Node pos="l" depth="2" NCoef="0" IVar="-1" Cut="0.0000000000000000e+00" cType="1" res="2.3713408154435456e-04" rms="4.5900472998619080e-01" purity="5.1561295986175537e-01" nType="-99"/>
          <Node pos="r" depth="2" NCoef="0" IVar="-1" Cut="0.0000000000000000e+00" cType="1" res="-1.0403614724054933e-03" rms="4.5774409174919128e-01" purity="5.3139060735702515e-01" nType="-99"/>
        </Node>
      </Node>
    </BinaryTree>
    <BinaryTree type="DecisionTree" boostWeight="1.0000000000000000e+00" itree="754">
      <Node pos="s" depth="0" NCoef="0" IVar="5" Cut="9.7683809697628021e-02" cType="1" res="4.9803797155618668e-03" rms="4.6244880557060242e-01" purity="4.9806937575340271e-01" nType="0">
        <Node pos="l" depth="1" NCoef="0" IVar="4" Cut="2.0569932556152344e+02" cType="1" res="2.3415465839207172e-03" rms="4.6188682317733765e-01" purity="4.9638429284095764e-01" nType="0">
          <Node pos="l" depth="2" NCoef="0" IVar="-1" Cut="0.0000000000000000e+00" cType="1" res="-1.9531640282366425e-04" rms="4.6130713820457458e-01" purity="4.6136015653610229e-01" nType="-99"/>
          <Node pos="r" depth="2" NCoef="0" IVar="-1" Cut="0.0000000000000000e+00" cType="1" res="5.7005370035767555e-04" rms="4.6255823969841003e-01" purity="5.7438462972640991e-01" nType="-99"/>
        </Node>
        <Node pos="r" depth="1" NCoef="0" IVar="-1" Cut="0.0000000000000000e+00" cType="1" res="1.3394886627793312e-03" rms="4.6987053751945496e-01" purity="5.2808356285095215e-01" nType="-99"/>
      </Node>
    </BinaryTree>
    <BinaryTree type="DecisionTree" boostWeight="1.0000000000000000e+00" itree="755">
      <Node pos="s" depth="0" NCoef="0" IVar="6" Cut="9.5292329788208008e-01" cType="1" res="3.5118225496262312e-03" rms="4.6128618717193604e-01" purity="4.9917176365852356e-01" nType="0">
        <Node pos="l" depth="1" NCoef="0" IVar="8" Cut="4.0370723605155945e-01" cType="1" res="-7.8516546636819839e-03" rms="4.6275627613067627e-01" purity="4.6097320318222046e-01" nType="0">
          <Node pos="l" depth="2" NCoef="0" IVar="-1" Cut="0.0000000000000000e+00" cType="1" res="-4.5131397200748324e-04" rms="4.6162360906600952e-01" purity="4.3958997726440430e-01" nType="-99"/>
          <Node pos="r" depth="2" NCoef="0" IVar="-1" Cut="0.0000000000000000e+00" cType="1" res="6.0956197557970881e-04" rms="4.6629092097282410e-01" purity="5.5350351333618164e-01" nType="-99"/>
        </Node>
        <Node pos="r" depth="1" NCoef="0" IVar="5" Cut="6.5202027559280396e-02" cType="1" res="1.1706558056175709e-02" rms="4.6004900336265564e-01" purity="5.2671855688095093e-01" nType="0">
          <Node pos="l" depth="2" NCoef="0" IVar="-1" Cut="0.0000000000000000e+00" cType="1" res="1.8826829909812659e-04" rms="4.5897412300109863e-01" purity="5.2247619628906250e-01" nType="-99"/>
          <Node pos="r" depth="2" NCoef="0" IVar="-1" Cut="0.0000000000000000e+00" cType="1" res="1.3252629432827234e-03" rms="4.6646636724472046e-01" purity="5.5959266424179077e-01" nType="-99"/>
        </Node>
      </Node>
    </BinaryTree>
    <BinaryTree type="DecisionTree" boostWeight="1.0000000000000000e+00" itree="756">
      <Node pos="s" depth="0" NCoef="0" IVar="6" Cut="9.5628786087036133e-01" cType="1" res="2.1918627899140120e-03" rms="4.5906710624694824e-01" purity="4.9998620152473450e-01" nType="0">
        <Node pos="l" depth="1" NCoef="0" IVar="5" Cut="3.3789254724979401e-02" cType="1" res="-1.0856351815164089e-02" rms="4.5960414409637451e-01" purity="4.6133705973625183e-01" nType="0">
          <Node pos="l" depth="2" NCoef="0" IVar="-1" Cut="0.0000000000000000e+00" cType="1" res="-5.5795830121496692e-05" rms="4.5893061161041260e-01" purity="4.7047883272171021e-01" nType="-99"/>
          <Node pos="r" depth="2" NCoef="0" IVar="-1" Cut="0.0000000000000000e+00" cType="1" res="-1.2041873997077346e-03" rms="4.6059307456016541e-01" purity="4.3140697479248047e-01" nType="-99"/>
        </Node>
        <Node pos="r" depth="1" NCoef="0" IVar="4" Cut="2.1494723510742188e+02" cType="1" res="1.2968071736395359e-02" rms="4.5834311842918396e-01" purity="5.3190559148788452e-01" nType="0">
          <Node pos="l" depth="2" NCoef="0" IVar="-1" Cut="0.0000000000000000e+00" cType="1" res="1.3486198440659791e-04" rms="4.5737606287002563e-01" purity="5.0206953287124634e-01" nType="-99"/>
          <Node pos="r" depth="2" NCoef="0" IVar="-1" Cut="0.0000000000000000e+00" cType="1" res="8.8930816855281591e-04" rms="4.6016538143157959e-01" purity="6.1045116186141968e-01" nType="-99"/>
        </Node>
      </Node>
    </BinaryTree>
    <BinaryTree type="DecisionTree" boostWeight="1.0000000000000000e+00" itree="757">
      <Node pos="s" depth="0" NCoef="0" IVar="3" Cut="1.7483787536621094e+00" cType="1" res="4.3818010017275810e-03" rms="4.5767840743064880e-01" purity="5.0411224365234375e-01" nType="0">
        <Node pos="l" depth="1" NCoef="0" IVar="0" Cut="1.1141857910156250e+02" cType="1" res="2.6454115286469460e-02" rms="4.5445612072944641e-01" purity="5.8979135751724243e-01" nType="0">
          <Node pos="l" depth="2" NCoef="0" IVar="-1" Cut="0.0000000000000000e+00" cType="1" res="3.2701704185456038e-04" rms="4.6164801716804504e-01" purity="5.4437237977981567e-01" nType="-99"/>
          <Node pos="r" depth="2" NCoef="0" IVar="-1" Cut="0.0000000000000000e+00" cType="1" res="1.2684215325862169e-03" rms="4.3932402133941650e-01" purity="6.7559641599655151e-01" nType="-99"/>
        </Node>
        <Node pos="r" depth="1" NCoef="0" IVar="4" Cut="1.8333412170410156e+02" cType="1" res="-6.6323466598987579e-03" rms="4.5888099074363708e-01" purity="4.6135810017585754e-01" nType="0">
          <Node pos="l" depth="2" NCoef="0" IVar="-1" Cut="0.0000000000000000e+00" cType="1" res="-5.7835498591884971e-04" rms="4.5663133263587952e-01" purity="4.1922721266746521e-01" nType="-99"/>
          <Node pos="r" depth="2" NCoef="0" IVar="-1" Cut="0.0000000000000000e+00" cType="1" res="3.5749888047575951e-04" rms="4.6204593777656555e-01" purity="5.3395187854766846e-01" nType="-99"/>
        </Node>
      </Node>
    </BinaryTree>
    <BinaryTree type="DecisionTree" boostWeight="1.0000000000000000e+00" itree="758">
      <Node pos="s" depth="0" NCoef="0" IVar="5" Cut="7.8533113002777100e-02" cType="1" res="6.0132574290037155e-03" rms="4.6132338047027588e-01" purity="5.0248926877975464e-01" nType="0">
        <Node pos="l" depth="1" NCoef="0" IVar="9" Cut="1.8937569111585617e-02" cType="1" res="9.4859478995203972e-03" rms="4.6123635768890381e-01" purity="5.0672960281372070e-01" nType="0">
          <Node pos="l" depth="2" NCoef="0" IVar="-1" Cut="0.0000000000000000e+00" cType="1" res="-1.2162221828475595e-03" rms="4.5399945974349976e-01" purity="4.3096542358398438e-01" nType="-99"/>
          <Node pos="r" depth="2" NCoef="0" IVar="-1" Cut="0.0000000000000000e+00" cType="1" res="3.5950008896179497e-04" rms="4.6152329444885254e-01" purity="5.1179713010787964e-01" nType="-99"/>
        </Node>
        <Node pos="r" depth="1" NCoef="0" IVar="-1" Cut="0.0000000000000000e+00" cType="1" res="-1.0575099149718881e-03" rms="4.6030813455581665e-01" purity="4.5126709342002869e-01" nType="-99"/>
      </Node>
    </BinaryTree>
    <BinaryTree type="DecisionTree" boostWeight="1.0000000000000000e+00" itree="759">
      <Node pos="s" depth="0" NCoef="0" IVar="8" Cut="3.5078346729278564e-01" cType="1" res="1.0770257795229554e-03" rms="4.6025130152702332e-01" purity="4.9933791160583496e-01" nType="0">
        <Node pos="l" depth="1" NCoef="0" IVar="8" Cut="3.2220658659934998e-01" cType="1" res="-4.3889280408620834e-02" rms="4.5549014210700989e-01" purity="4.2132678627967834e-01" nType="0">
          <Node pos="l" depth="2" NCoef="0" IVar="-1" Cut="0.0000000000000000e+00" cType="1" res="-6.3258665613830090e-04" rms="4.6575385332107544e-01" purity="4.3955841660499573e-01" nType="-99"/>
          <Node pos="r" depth="2" NCoef="0" IVar="-1" Cut="0.0000000000000000e+00" cType="1" res="-1.9756201654672623e-03" rms="4.4683885574340820e-01" purity="4.0760064125061035e-01" nType="-99"/>
        </Node>
        <Node pos="r" depth="1" NCoef="0" IVar="6" Cut="9.9324405193328857e-01" cType="1" res="7.0221424102783203e-03" rms="4.6054860949516296e-01" purity="5.0965189933776855e-01" nType="0">
          <Node pos="l" depth="2" NCoef="0" IVar="-1" Cut="0.0000000000000000e+00" cType="1" res="8.4904240793548524e-05" rms="4.6132394671440125e-01" purity="5.0091391801834106e-01" nType="-99"/>
          <Node pos="r" depth="2" NCoef="0" IVar="-1" Cut="0.0000000000000000e+00" cType="1" res="9.5489725936204195e-04" rms="4.5365965366363525e-01" purity="5.7419455051422119e-01" nType="-99"/>
        </Node>
      </Node>
    </BinaryTree>
    <BinaryTree type="DecisionTree" boostWeight="1.0000000000000000e+00" itree="760">
      <Node pos="s" depth="0" NCoef="0" IVar="6" Cut="9.1832959651947021e-01" cType="1" res="9.1504631564021111e-03" rms="4.6064034104347229e-01" purity="5.0483036041259766e-01" nType="0">
        <Node pos="l" depth="1" NCoef="0" IVar="2" Cut="5.8035308122634888e-01" cType="1" res="-1.9536215811967850e-02" rms="4.6289822459220886e-01" purity="4.2272245883941650e-01" nType="0">
          <Node pos="l" depth="2" NCoef="0" IVar="-1" Cut="0.0000000000000000e+00" cType="1" res="2.3007833806332201e-04" rms="4.6359124779701233e-01" purity="4.0245077013969421e-01" nType="-99"/>
          <Node pos="r" depth="2" NCoef="0" IVar="-1" Cut="0.0000000000000000e+00" cType="1" res="-1.4373945305123925e-03" rms="4.6033757925033569e-01" purity="4.4492930173873901e-01" nType="-99"/>
        </Node>
        <Node pos="r" depth="1" NCoef="0" IVar="4" Cut="3.1291436767578125e+02" cType="1" res="1.2733402661979198e-02" rms="4.6023195981979370e-01" purity="5.1508557796478271e-01" nType="0">
          <Node pos="l" depth="2" NCoef="0" IVar="-1" Cut="0.0000000000000000e+00" cType="1" res="2.5860365713015199e-04" rms="4.6080467104911804e-01" purity="5.0113755464553833e-01" nType="-99"/>
          <Node pos="r" depth="2" NCoef="0" IVar="-1" Cut="0.0000000000000000e+00" cType="1" res="1.0266319150105119e-03" rms="4.5460116863250732e-01" purity="6.2643611431121826e-01" nType="-99"/>
        </Node>
      </Node>
    </BinaryTree>
    <BinaryTree type="DecisionTree" boostWeight="1.0000000000000000e+00" itree="761">
      <Node pos="s" depth="0" NCoef="0" IVar="0" Cut="9.7095695495605469e+01" cType="1" res="1.9007982918992639e-03" rms="4.6055918931961060e-01" purity="5.0109261274337769e-01" nType="0">
        <Node pos="l" depth="1" NCoef="0" IVar="9" Cut="1.3923642039299011e-01" cType="1" res="-1.8945924937725067e-02" rms="4.6396869421005249e-01" purity="4.8844274878501892e-01" nType="0">
          <Node pos="l" depth="2" NCoef="0" IVar="-1" Cut="0.0000000000000000e+00" cType="1" res="-8.6754804942756891e-04" rms="4.6258804202079773e-01" purity="4.6549463272094727e-01" nType="-99"/>
          <Node pos="r" depth="2" NCoef="0" IVar="-1" Cut="0.0000000000000000e+00" cType="1" res="2.4364820274058729e-04" rms="4.6651476621627808e-01" purity="5.5059170722961426e-01" nType="-99"/>
        </Node>
        <Node pos="r" depth="1" NCoef="0" IVar="3" Cut="1.9761630296707153e+00" cType="1" res="7.7117779292166233e-03" rms="4.5943576097488403e-01" purity="5.0461870431900024e-01" nType="0">
          <Node pos="l" depth="2" NCoef="0" IVar="-1" Cut="0.0000000000000000e+00" cType="1" res="8.7604054715484381e-04" rms="4.5244464278221130e-01" purity="6.2646579742431641e-01" nType="-99"/>
          <Node pos="r" depth="2" NCoef="0" IVar="-1" Cut="0.0000000000000000e+00" cType="1" res="-1.0258027032250538e-04" rms="4.6176671981811523e-01" purity="4.5538967847824097e-01" nType="-99"/>
        </Node>
      </Node>
    </BinaryTree>
    <BinaryTree type="DecisionTree" boostWeight="1.0000000000000000e+00" itree="762">
      <Node pos="s" depth="0" NCoef="0" IVar="0" Cut="8.9370109558105469e+01" cType="1" res="6.5689808689057827e-03" rms="4.6038305759429932e-01" purity="5.0505250692367554e-01" nType="0">
        <Node pos="l" depth="1" NCoef="0" IVar="4" Cut="1.0570545959472656e+02" cType="1" res="-2.1706471219658852e-02" rms="4.6075731515884399e-01" purity="4.8056954145431519e-01" nType="0">
          <Node pos="l" depth="2" NCoef="0" IVar="-1" Cut="0.0000000000000000e+00" cType="1" res="-1.8423595465719700e-03" rms="4.5140668749809265e-01" purity="3.6786353588104248e-01" nType="-99"/>
          <Node pos="r" depth="2" NCoef="0" IVar="-1" Cut="0.0000000000000000e+00" cType="1" res="-1.8783455016091466e-04" rms="4.6417859196662903e-01" purity="5.3143864870071411e-01" nType="-99"/>
        </Node>
        <Node pos="r" depth="1" NCoef="0" IVar="3" Cut="1.4431213140487671e+00" cType="1" res="1.2685900554060936e-02" rms="4.6007347106933594e-01" purity="5.1034897565841675e-01" nType="0">
          <Node pos="l" depth="2" NCoef="0" IVar="-1" Cut="0.0000000000000000e+00" cType="1" res="1.1232772376388311e-03" rms="4.4404155015945435e-01" purity="6.8593561649322510e-01" nType="-99"/>
          <Node pos="r" depth="2" NCoef="0" IVar="-1" Cut="0.0000000000000000e+00" cType="1" res="2.2810546215623617e-04" rms="4.6210789680480957e-01" purity="4.8536124825477600e-01" nType="-99"/>
        </Node>
      </Node>
    </BinaryTree>
    <BinaryTree type="DecisionTree" boostWeight="1.0000000000000000e+00" itree="763">
      <Node pos="s" depth="0" NCoef="0" IVar="7" Cut="-2.6615723967552185e-02" cType="1" res="-4.1957856155931950e-03" rms="4.6034824848175049e-01" purity="4.9545112252235413e-01" nType="0">
        <Node pos="l" depth="1" NCoef="0" IVar="1" Cut="2.4444900453090668e-01" cType="1" res="-3.1037801876664162e-02" rms="4.5438051223754883e-01" purity="5.1964265108108521e-01" nType="0">
          <Node pos="l" depth="2" NCoef="0" IVar="-1" Cut="0.0000000000000000e+00" cType="1" res="-2.2352307569235563e-03" rms="4.6152189373970032e-01" purity="3.4221741557121277e-01" nType="-99"/>
          <Node pos="r" depth="2" NCoef="0" IVar="-1" Cut="0.0000000000000000e+00" cType="1" res="3.1958206818671897e-05" rms="4.4483238458633423e-01" purity="6.9540238380432129e-01" nType="-99"/>
        </Node>
        <Node pos="r" depth="1" NCoef="0" IVar="4" Cut="1.0696138763427734e+02" cType="1" res="6.7541142925620079e-04" rms="4.6125555038452148e-01" purity="4.9106094241142273e-01" nType="0">
          <Node pos="l" depth="2" NCoef="0" IVar="-1" Cut="0.0000000000000000e+00" cType="1" res="-7.8211375512182713e-04" rms="4.4627735018730164e-01" purity="3.7888744473457336e-01" nType="-99"/>
          <Node pos="r" depth="2" NCoef="0" IVar="-1" Cut="0.0000000000000000e+00" cType="1" res="1.7402610683348030e-04" rms="4.6466323733329773e-01" purity="5.1844859123229980e-01" nType="-99"/>
        </Node>
      </Node>
    </BinaryTree>
    <BinaryTree type="DecisionTree" boostWeight="1.0000000000000000e+00" itree="764">
      <Node pos="s" depth="0" NCoef="0" IVar="7" Cut="1.6903068125247955e-01" cType="1" res="-7.1232570335268974e-03" rms="4.6030724048614502e-01" purity="4.9173483252525330e-01" nType="0">
        <Node pos="l" depth="1" NCoef="0" IVar="5" Cut="7.4683256447315216e-02" cType="1" res="-1.0545453056693077e-02" rms="4.6060049533843994e-01" purity="4.9389261007308960e-01" nType="0">
          <Node pos="l" depth="2" NCoef="0" IVar="-1" Cut="0.0000000000000000e+00" cType="1" res="-2.0342494826763868e-04" rms="4.6045207977294922e-01" purity="4.9840170145034790e-01" nType="-99"/>
          <Node pos="r" depth="2" NCoef="0" IVar="-1" Cut="0.0000000000000000e+00" cType="1" res="-1.7873517936095595e-03" rms="4.6006906032562256e-01" purity="4.3194711208343506e-01" nType="-99"/>
        </Node>
        <Node pos="r" depth="1" NCoef="0" IVar="-1" Cut="0.0000000000000000e+00" cType="1" res="8.5044238949194551e-04" rms="4.5561963319778442e-01" purity="4.6890047192573547e-01" nType="-99"/>
      </Node>
    </BinaryTree>
    <BinaryTree type="DecisionTree" boostWeight="1.0000000000000000e+00" itree="765">
      <Node pos="s" depth="0" NCoef="0" IVar="1" Cut="-1.6589745283126831e+00" cType="1" res="-8.3635642658919096e-04" rms="4.5937642455101013e-01" purity="4.9872079491615295e-01" nType="0">
        <Node pos="l" depth="1" NCoef="0" IVar="2" Cut="6.1393600702285767e-01" cType="1" res="-2.9839826747775078e-02" rms="4.1603511571884155e-01" purity="2.3569910228252411e-01" nType="0">
          <Node pos="l" depth="2" NCoef="0" IVar="-1" Cut="0.0000000000000000e+00" cType="1" res="-3.1479966128244996e-04" rms="4.0173557400703430e-01" purity="2.1198220551013947e-01" nType="-99"/>
          <Node pos="r" depth="2" NCoef="0" IVar="-1" Cut="0.0000000000000000e+00" cType="1" res="-2.4679924827069044e-03" rms="4.2745494842529297e-01" purity="2.5749966502189636e-01" nType="-99"/>
        </Node>
        <Node pos="r" depth="1" NCoef="0" IVar="8" Cut="3.2913282513618469e-01" cType="1" res="2.8835576958954334e-03" rms="4.6451187133789062e-01" purity="5.3245526552200317e-01" nType="0">
          <Node pos="l" depth="2" NCoef="0" IVar="-1" Cut="0.0000000000000000e+00" cType="1" res="-1.2225063983350992e-03" rms="4.7128480672836304e-01" purity="4.4654241204261780e-01" nType="-99"/>
          <Node pos="r" depth="2" NCoef="0" IVar="-1" Cut="0.0000000000000000e+00" cType="1" res="1.5615342999808490e-04" rms="4.6391266584396362e-01" purity="5.3802675008773804e-01" nType="-99"/>
        </Node>
      </Node>
    </BinaryTree>
    <BinaryTree type="DecisionTree" boostWeight="1.0000000000000000e+00" itree="766">
      <Node pos="s" depth="0" NCoef="0" IVar="3" Cut="1.2388294935226440e+00" cType="1" res="2.1944359468761832e-04" rms="4.5545148849487305e-01" purity="5.0061994791030884e-01" nType="0">
        <Node pos="l" depth="1" NCoef="0" IVar="0" Cut="7.7730979919433594e+01" cType="1" res="3.3755399286746979e-02" rms="4.5025390386581421e-01" purity="6.0985559225082397e-01" nType="0">
          <Node pos="l" depth="2" NCoef="0" IVar="-1" Cut="0.0000000000000000e+00" cType="1" res="2.5677637313492596e-04" rms="4.5652589201927185e-01" purity="5.3687030076980591e-01" nType="-99"/>
          <Node pos="r" depth="2" NCoef="0" IVar="-1" Cut="0.0000000000000000e+00" cType="1" res="1.4083194546401501e-03" rms="4.4171243906021118e-01" purity="6.9064742326736450e-01" nType="-99"/>
        </Node>
        <Node pos="r" depth="1" NCoef="0" IVar="1" Cut="-2.7661362290382385e-01" cType="1" res="-6.5484754741191864e-03" rms="4.5619437098503113e-01" purity="4.7857496142387390e-01" nType="0">
          <Node pos="l" depth="2" NCoef="0" IVar="-1" Cut="0.0000000000000000e+00" cType="1" res="-1.1584318708628416e-03" rms="4.3887311220169067e-01" purity="2.8734162449836731e-01" nType="-99"/>
          <Node pos="r" depth="2" NCoef="0" IVar="-1" Cut="0.0000000000000000e+00" cType="1" res="1.3915293675381690e-04" rms="4.6562349796295166e-01" purity="5.9077715873718262e-01" nType="-99"/>
        </Node>
      </Node>
    </BinaryTree>
    <BinaryTree type="DecisionTree" boostWeight="1.0000000000000000e+00" itree="767">
      <Node pos="s" depth="0" NCoef="0" IVar="8" Cut="3.2811933755874634e-01" cType="1" res="-5.2124410867691040e-03" rms="4.5754265785217285e-01" purity="4.9249976873397827e-01" nType="0">
        <Node pos="l" depth="1" NCoef="0" IVar="-1" Cut="0.0000000000000000e+00" cType="1" res="-1.9730185158550739e-03" rms="4.5206859707832336e-01" purity="4.0641149878501892e-01" nType="-99"/>
        <Node pos="r" depth="1" NCoef="0" IVar="6" Cut="9.4015735387802124e-01" cType="1" res="-1.6082371585071087e-03" rms="4.5764046907424927e-01" purity="4.9787145853042603e-01" nType="0">
          <Node pos="l" depth="2" NCoef="0" IVar="-1" Cut="0.0000000000000000e+00" cType="1" res="-5.1781575893983245e-04" rms="4.5548102259635925e-01" purity="4.5044943690299988e-01" nType="-99"/>
          <Node pos="r" depth="2" NCoef="0" IVar="-1" Cut="0.0000000000000000e+00" cType="1" res="1.5187090320978314e-04" rms="4.5838895440101624e-01" purity="5.1824343204498291e-01" nType="-99"/>
        </Node>
      </Node>
    </BinaryTree>
    <BinaryTree type="DecisionTree" boostWeight="1.0000000000000000e+00" itree="768">
      <Node pos="s" depth="0" NCoef="0" IVar="0" Cut="2.3756803894042969e+02" cType="1" res="6.7571946419775486e-03" rms="4.5953938364982605e-01" purity="5.0687968730926514e-01" nType="0">
        <Node pos="l" depth="1" NCoef="0" IVar="0" Cut="7.9674972534179688e+01" cType="1" res="1.2093068100512028e-02" rms="4.5992022752761841e-01" purity="5.2263563871383667e-01" nType="0">
          <Node pos="l" depth="2" NCoef="0" IVar="-1" Cut="0.0000000000000000e+00" cType="1" res="-7.8690901864320040e-04" rms="4.6914511919021606e-01" purity="4.6979933977127075e-01" nType="-99"/>
          <Node pos="r" depth="2" NCoef="0" IVar="-1" Cut="0.0000000000000000e+00" cType="1" res="5.3245597518980503e-04" rms="4.5779928565025330e-01" purity="5.3252881765365601e-01" nType="-99"/>
        </Node>
        <Node pos="r" depth="1" NCoef="0" IVar="5" Cut="-9.3655660748481750e-05" cType="1" res="-1.6492476686835289e-02" rms="4.5714992284774780e-01" purity="4.3822705745697021e-01" nType="0">
          <Node pos="l" depth="2" NCoef="0" IVar="-1" Cut="0.0000000000000000e+00" cType="1" res="9.9394033895805478e-05" rms="4.5807731151580811e-01" purity="4.4506016373634338e-01" nType="-99"/>
          <Node pos="r" depth="2" NCoef="0" IVar="-1" Cut="0.0000000000000000e+00" cType="1" res="-1.2965420028194785e-03" rms="4.5485228300094604e-01" purity="4.2986285686492920e-01" nType="-99"/>
        </Node>
      </Node>
    </BinaryTree>
    <BinaryTree type="DecisionTree" boostWeight="1.0000000000000000e+00" itree="769">
      <Node pos="s" depth="0" NCoef="0" IVar="6" Cut="9.6198463439941406e-01" cType="1" res="4.7006602399051189e-03" rms="4.6186479926109314e-01" purity="5.0122338533401489e-01" nType="0">
        <Node pos="l" depth="1" NCoef="0" IVar="4" Cut="1.1970619964599609e+02" cType="1" res="-5.9839976020157337e-03" rms="4.6059003472328186e-01" purity="4.7073575854301453e-01" nType="0">
          <Node pos="l" depth="2" NCoef="0" IVar="-1" Cut="0.0000000000000000e+00" cType="1" res="-1.0456846794113517e-03" rms="4.4984969496726990e-01" purity="3.7664142251014709e-01" nType="-99"/>
          <Node pos="r" depth="2" NCoef="0" IVar="-1" Cut="0.0000000000000000e+00" cType="1" res="9.1825990239158273e-05" rms="4.6421098709106445e-01" purity="5.0602400302886963e-01" nType="-99"/>
        </Node>
        <Node pos="r" depth="1" NCoef="0" IVar="6" Cut="9.7212147712707520e-01" cType="1" res="1.5748649835586548e-02" rms="4.6291995048522949e-01" purity="5.3274780511856079e-01" nType="0">
          <Node pos="l" depth="2" NCoef="0" IVar="-1" Cut="0.0000000000000000e+00" cType="1" res="1.1317614698782563e-03" rms="4.6077737212181091e-01" purity="5.4985451698303223e-01" nType="-99"/>
          <Node pos="r" depth="2" NCoef="0" IVar="-1" Cut="0.0000000000000000e+00" cType="1" res="2.2778860875405371e-04" rms="4.6325331926345825e-01" purity="5.2787715196609497e-01" nType="-99"/>
        </Node>
      </Node>
    </BinaryTree>
    <BinaryTree type="DecisionTree" boostWeight="1.0000000000000000e+00" itree="770">
      <Node pos="s" depth="0" NCoef="0" IVar="5" Cut="7.2428919374942780e-02" cType="1" res="4.7208559699356556e-03" rms="4.5885106921195984e-01" purity="5.0193113088607788e-01" nType="0">
        <Node pos="l" depth="1" NCoef="0" IVar="7" Cut="-1.2811388820409775e-02" cType="1" res="-3.9385489799315110e-05" rms="4.5792415738105774e-01" purity="4.9810993671417236e-01" nType="0">
          <Node pos="l" depth="2" NCoef="0" IVar="-1" Cut="0.0000000000000000e+00" cType="1" res="6.1410083435475826e-04" rms="4.6196746826171875e-01" purity="5.6246405839920044e-01" nType="-99"/>
          <Node pos="r" depth="2" NCoef="0" IVar="-1" Cut="0.0000000000000000e+00" cType="1" res="-2.2893256391398609e-04" rms="4.5629417896270752e-01" purity="4.7649636864662170e-01" nType="-99"/>
        </Node>
        <Node pos="r" depth="1" NCoef="0" IVar="-1" Cut="0.0000000000000000e+00" cType="1" res="1.3000990729779005e-03" rms="4.6503153443336487e-01" purity="5.3725796937942505e-01" nType="-99"/>
      </Node>
    </BinaryTree>
    <BinaryTree type="DecisionTree" boostWeight="1.0000000000000000e+00" itree="771">
      <Node pos="s" depth="0" NCoef="0" IVar="7" Cut="-4.3410316109657288e-02" cType="1" res="1.1665553320199251e-03" rms="4.6109992265701294e-01" purity="4.9934637546539307e-01" nType="0">
        <Node pos="l" depth="1" NCoef="0" IVar="-1" Cut="0.0000000000000000e+00" cType="1" res="7.9905334860086441e-04" rms="4.6775171160697937e-01" purity="5.6357902288436890e-01" nType="-99"/>
        <Node pos="r" depth="1" NCoef="0" IVar="5" Cut="4.9859032034873962e-02" cType="1" res="-1.6754434909671545e-03" rms="4.6034976840019226e-01" purity="4.9310904741287231e-01" nType="0">
          <Node pos="l" depth="2" NCoef="0" IVar="-1" Cut="0.0000000000000000e+00" cType="1" res="-1.9036950834561139e-04" rms="4.5814800262451172e-01" purity="4.9003002047538757e-01" nType="-99"/>
          <Node pos="r" depth="2" NCoef="0" IVar="-1" Cut="0.0000000000000000e+00" cType="1" res="6.0826819390058517e-04" rms="4.7027471661567688e-01" purity="5.0820297002792358e-01" nType="-99"/>
        </Node>
      </Node>
    </BinaryTree>
    <BinaryTree type="DecisionTree" boostWeight="1.0000000000000000e+00" itree="772">
      <Node pos="s" depth="0" NCoef="0" IVar="0" Cut="3.2246615600585938e+02" cType="1" res="-1.6328890342265368e-03" rms="4.5967870950698853e-01" purity="4.9642452597618103e-01" nType="0">
        <Node pos="l" depth="1" NCoef="0" IVar="0" Cut="9.7096458435058594e+01" cType="1" res="1.3509808341041207e-03" rms="4.6077153086662292e-01" purity="5.0362294912338257e-01" nType="0">
          <Node pos="l" depth="2" NCoef="0" IVar="-1" Cut="0.0000000000000000e+00" cType="1" res="-5.5314879864454269e-04" rms="4.6204787492752075e-01" purity="4.9119833111763000e-01" nType="-99"/>
          <Node pos="r" depth="2" NCoef="0" IVar="-1" Cut="0.0000000000000000e+00" cType="1" res="2.2530286514665931e-04" rms="4.6016776561737061e-01" purity="5.0755453109741211e-01" nType="-99"/>
        </Node>
        <Node pos="r" depth="1" NCoef="0" IVar="-1" Cut="0.0000000000000000e+00" cType="1" res="-1.1501432163640857e-03" rms="4.4571653008460999e-01" purity="4.1486245393753052e-01" nType="-99"/>
      </Node>
    </BinaryTree>
    <BinaryTree type="DecisionTree" boostWeight="1.0000000000000000e+00" itree="773">
      <Node pos="s" depth="0" NCoef="0" IVar="0" Cut="9.7217918395996094e+01" cType="1" res="1.3113875174894929e-03" rms="4.5730555057525635e-01" purity="4.9911287426948547e-01" nType="0">
        <Node pos="l" depth="1" NCoef="0" IVar="3" Cut="8.5021716356277466e-01" cType="1" res="-2.6324175298213959e-02" rms="4.5964476466178894e-01" purity="4.8025450110435486e-01" nType="0">
          <Node pos="l" depth="2" NCoef="0" IVar="-1" Cut="0.0000000000000000e+00" cType="1" res="2.5684590218588710e-04" rms="4.6005401015281677e-01" purity="5.5595827102661133e-01" nType="-99"/>
          <Node pos="r" depth="2" NCoef="0" IVar="-1" Cut="0.0000000000000000e+00" cType="1" res="-1.1957840761169791e-03" rms="4.5881056785583496e-01" purity="4.5346882939338684e-01" nType="-99"/>
        </Node>
        <Node pos="r" depth="1" NCoef="0" IVar="0" Cut="1.3370782470703125e+02" cType="1" res="9.0754926204681396e-03" rms="4.5634517073631287e-01" purity="5.0441110134124756e-01" nType="0">
          <Node pos="l" depth="2" NCoef="0" IVar="-1" Cut="0.0000000000000000e+00" cType="1" res="1.0485382517799735e-03" rms="4.5507103204727173e-01" purity="5.7437556982040405e-01" nType="-99"/>
          <Node pos="r" depth="2" NCoef="0" IVar="-1" Cut="0.0000000000000000e+00" cType="1" res="-1.2347214214969426e-04" rms="4.5623761415481567e-01" purity="4.7478276491165161e-01" nType="-99"/>
        </Node>
      </Node>
    </BinaryTree>
    <BinaryTree type="DecisionTree" boostWeight="1.0000000000000000e+00" itree="774">
      <Node pos="s" depth="0" NCoef="0" IVar="9" Cut="1.4127843081951141e-01" cType="1" res="5.7765055680647492e-04" rms="4.6160662174224854e-01" purity="4.9713075160980225e-01" nType="0">
        <Node pos="l" depth="1" NCoef="0" IVar="4" Cut="1.4045024108886719e+02" cType="1" res="-3.9209742099046707e-03" rms="4.6098008751869202e-01" purity="4.8061919212341309e-01" nType="0">
          <Node pos="l" depth="2" NCoef="0" IVar="-1" Cut="0.0000000000000000e+00" cType="1" res="-7.2321761399507523e-04" rms="4.5449131727218628e-01" purity="3.8412520289421082e-01" nType="-99"/>
          <Node pos="r" depth="2" NCoef="0" IVar="-1" Cut="0.0000000000000000e+00" cType="1" res="1.4571544306818396e-04" rms="4.6408191323280334e-01" purity="5.3129780292510986e-01" nType="-99"/>
        </Node>
        <Node pos="r" depth="1" NCoef="0" IVar="2" Cut="6.3561356067657471e-01" cType="1" res="1.7796315252780914e-02" rms="4.6359375119209290e-01" purity="5.6032949686050415e-01" nType="0">
          <Node pos="l" depth="2" NCoef="0" IVar="-1" Cut="0.0000000000000000e+00" cType="1" res="1.5317987417802215e-03" rms="4.6148639917373657e-01" purity="5.4245680570602417e-01" nType="-99"/>
          <Node pos="r" depth="2" NCoef="0" IVar="-1" Cut="0.0000000000000000e+00" cType="1" res="7.1984097303356975e-05" rms="4.6345347166061401e-01" purity="5.6689363718032837e-01" nType="-99"/>
        </Node>
      </Node>
    </BinaryTree>
    <BinaryTree type="DecisionTree" boostWeight="1.0000000000000000e+00" itree="775">
      <Node pos="s" depth="0" NCoef="0" IVar="4" Cut="3.7290863037109375e+02" cType="1" res="-5.5715919006615877e-04" rms="4.6256327629089355e-01" purity="4.9553930759429932e-01" nType="0">
        <Node pos="l" depth="1" NCoef="0" IVar="6" Cut="9.1828656196594238e-01" cType="1" res="-3.6035915836691856e-03" rms="4.6301284432411194e-01" purity="4.8513165116310120e-01" nType="0">
          <Node pos="l" depth="2" NCoef="0" IVar="-1" Cut="0.0000000000000000e+00" cType="1" res="9.1862643603235483e-04" rms="4.6936035156250000e-01" purity="4.7887101769447327e-01" nType="-99"/>
          <Node pos="r" depth="2" NCoef="0" IVar="-1" Cut="0.0000000000000000e+00" cType="1" res="-2.5208547594957054e-04" rms="4.6190065145492554e-01" purity="4.8599371314048767e-01" nType="-99"/>
        </Node>
        <Node pos="r" depth="1" NCoef="0" IVar="-1" Cut="0.0000000000000000e+00" cType="1" res="9.2991685960441828e-04" rms="4.5489102602005005e-01" purity="6.2990921735763550e-01" nType="-99"/>
      </Node>
    </BinaryTree>
    <BinaryTree type="DecisionTree" boostWeight="1.0000000000000000e+00" itree="776">
      <Node pos="s" depth="0" NCoef="0" IVar="1" Cut="2.6103763580322266e+00" cType="1" res="-5.5295991478487849e-04" rms="4.5668825507164001e-01" purity="4.9876743555068970e-01" nType="0">
        <Node pos="l" depth="1" NCoef="0" IVar="9" Cut="1.4498646557331085e-01" cType="1" res="-6.1583770439028740e-03" rms="4.6396753191947937e-01" purity="4.6267715096473694e-01" nType="0">
          <Node pos="l" depth="2" NCoef="0" IVar="-1" Cut="0.0000000000000000e+00" cType="1" res="-3.7228141445666552e-04" rms="4.6392312645912170e-01" purity="4.4267505407333374e-01" nType="-99"/>
          <Node pos="r" depth="2" NCoef="0" IVar="-1" Cut="0.0000000000000000e+00" cType="1" res="4.9696379574015737e-04" rms="4.6330076456069946e-01" purity="5.4153490066528320e-01" nType="-99"/>
        </Node>
        <Node pos="r" depth="1" NCoef="0" IVar="-1" Cut="0.0000000000000000e+00" cType="1" res="1.1535715311765671e-03" rms="3.8370785117149353e-01" purity="8.1461501121520996e-01" nType="-99"/>
      </Node>
    </BinaryTree>
    <BinaryTree type="DecisionTree" boostWeight="1.0000000000000000e+00" itree="777">
      <Node pos="s" depth="0" NCoef="0" IVar="1" Cut="1.9441485404968262e+00" cType="1" res="1.0309786302968860e-03" rms="4.5729008316993713e-01" purity="4.9850463867187500e-01" nType="0">
        <Node pos="l" depth="1" NCoef="0" IVar="5" Cut="-4.4925000518560410e-02" cType="1" res="-6.7618261091411114e-03" rms="4.6688860654830933e-01" purity="4.3565353751182556e-01" nType="0">
          <Node pos="l" depth="2" NCoef="0" IVar="-1" Cut="0.0000000000000000e+00" cType="1" res="-1.3442062772810459e-03" rms="4.5270699262619019e-01" purity="3.6533695459365845e-01" nType="-99"/>
          <Node pos="r" depth="2" NCoef="0" IVar="-1" Cut="0.0000000000000000e+00" cType="1" res="3.6177367292111740e-05" rms="4.6994844079017639e-01" purity="4.5287123322486877e-01" nType="-99"/>
        </Node>
        <Node pos="r" depth="1" NCoef="0" IVar="7" Cut="3.9146348834037781e-02" cType="1" res="3.4772686660289764e-02" rms="4.1146531701087952e-01" purity="7.7064085006713867e-01" nType="0">
          <Node pos="l" depth="2" NCoef="0" IVar="-1" Cut="0.0000000000000000e+00" cType="1" res="1.1980000417679548e-03" rms="3.8164791464805603e-01" purity="8.1711977720260620e-01" nType="-99"/>
          <Node pos="r" depth="2" NCoef="0" IVar="-1" Cut="0.0000000000000000e+00" cType="1" res="4.6340454719029367e-04" rms="4.3843463063240051e-01" purity="7.2474861145019531e-01" nType="-99"/>
        </Node>
      </Node>
    </BinaryTree>
    <BinaryTree type="DecisionTree" boostWeight="1.0000000000000000e+00" itree="778">
      <Node pos="s" depth="0" NCoef="0" IVar="0" Cut="2.4895930480957031e+02" cType="1" res="1.8577637383714318e-03" rms="4.5885431766510010e-01" purity="4.9952581524848938e-01" nType="0">
        <Node pos="l" depth="1" NCoef="0" IVar="0" Cut="8.2786361694335938e+01" cType="1" res="7.2585758753120899e-03" rms="4.5908191800117493e-01" purity="5.1415896415710449e-01" nType="0">
          <Node pos="l" depth="2" NCoef="0" IVar="-1" Cut="0.0000000000000000e+00" cType="1" res="-5.9236155357211828e-04" rms="4.6455958485603333e-01" purity="4.7742044925689697e-01" nType="-99"/>
          <Node pos="r" depth="2" NCoef="0" IVar="-1" Cut="0.0000000000000000e+00" cType="1" res="3.6265599192120135e-04" rms="4.5770749449729919e-01" purity="5.2187937498092651e-01" nType="-99"/>
        </Node>
        <Node pos="r" depth="1" NCoef="0" IVar="7" Cut="4.6975553035736084e-02" cType="1" res="-2.5654997676610947e-02" rms="4.5670279860496521e-01" purity="4.2498144507408142e-01" nType="0">
          <Node pos="l" depth="2" NCoef="0" IVar="-1" Cut="0.0000000000000000e+00" cType="1" res="-1.4865973498672247e-03" rms="4.5160046219825745e-01" purity="4.5253923535346985e-01" nType="-99"/>
          <Node pos="r" depth="2" NCoef="0" IVar="-1" Cut="0.0000000000000000e+00" cType="1" res="-2.4089995713438839e-04" rms="4.5977574586868286e-01" purity="4.0364640951156616e-01" nType="-99"/>
        </Node>
      </Node>
    </BinaryTree>
    <BinaryTree type="DecisionTree" boostWeight="1.0000000000000000e+00" itree="779">
      <Node pos="s" depth="0" NCoef="0" IVar="8" Cut="3.2609552145004272e-01" cType="1" res="7.6806023716926575e-03" rms="4.6005132794380188e-01" purity="5.0587701797485352e-01" nType="0">
        <Node pos="l" depth="1" NCoef="0" IVar="-1" Cut="0.0000000000000000e+00" cType="1" res="-1.2508152285590768e-03" rms="4.5677572488784790e-01" purity="4.2139777541160583e-01" nType="-99"/>
        <Node pos="r" depth="1" NCoef="0" IVar="2" Cut="5.3352534770965576e-01" cType="1" res="1.0604237206280231e-02" rms="4.6008566021919250e-01" purity="5.1098382472991943e-01" nType="0">
          <Node pos="l" depth="2" NCoef="0" IVar="-1" Cut="0.0000000000000000e+00" cType="1" res="8.3350314525887370e-04" rms="4.6548077464103699e-01" purity="4.6437388658523560e-01" nType="-99"/>
          <Node pos="r" depth="2" NCoef="0" IVar="-1" Cut="0.0000000000000000e+00" cType="1" res="4.1721985326148570e-05" rms="4.5707955956459045e-01" purity="5.3441274166107178e-01" nType="-99"/>
        </Node>
      </Node>
    </BinaryTree>
    <BinaryTree type="DecisionTree" boostWeight="1.0000000000000000e+00" itree="780">
      <Node pos="s" depth="0" NCoef="0" IVar="9" Cut="5.5549807846546173e-02" cType="1" res="-5.2539613097906113e-03" rms="4.6017715334892273e-01" purity="4.9175116419792175e-01" nType="0">
        <Node pos="l" depth="1" NCoef="0" IVar="9" Cut="2.1540600806474686e-02" cType="1" res="-2.0244473591446877e-02" rms="4.5792046189308167e-01" purity="4.4876858592033386e-01" nType="0">
          <Node pos="l" depth="2" NCoef="0" IVar="-1" Cut="0.0000000000000000e+00" cType="1" res="5.5783521384000778e-04" rms="4.6635821461677551e-01" purity="4.8935699462890625e-01" nType="-99"/>
          <Node pos="r" depth="2" NCoef="0" IVar="-1" Cut="0.0000000000000000e+00" cType="1" res="-1.1037124786525965e-03" rms="4.5392400026321411e-01" purity="4.3403190374374390e-01" nType="-99"/>
        </Node>
        <Node pos="r" depth="1" NCoef="0" IVar="4" Cut="9.1845252990722656e+01" cType="1" res="2.4753988254815340e-03" rms="4.6114605665206909e-01" purity="5.1391369104385376e-01" nType="0">
          <Node pos="l" depth="2" NCoef="0" IVar="-1" Cut="0.0000000000000000e+00" cType="1" res="-1.1485252762213349e-03" rms="4.5037135481834412e-01" purity="3.7861749529838562e-01" nType="-99"/>
          <Node pos="r" depth="2" NCoef="0" IVar="-1" Cut="0.0000000000000000e+00" cType="1" res="2.4326090351678431e-04" rms="4.6277612447738647e-01" purity="5.3845369815826416e-01" nType="-99"/>
        </Node>
      </Node>
    </BinaryTree>
    <BinaryTree type="DecisionTree" boostWeight="1.0000000000000000e+00" itree="781">
      <Node pos="s" depth="0" NCoef="0" IVar="0" Cut="1.6747489929199219e+02" cType="1" res="1.6188938170671463e-03" rms="4.5862075686454773e-01" purity="5.0076526403427124e-01" nType="0">
        <Node pos="l" depth="1" NCoef="0" IVar="1" Cut="-7.5246967375278473e-02" cType="1" res="1.0281973518431187e-02" rms="4.5762348175048828e-01" purity="5.3165119886398315e-01" nType="0">
          <Node pos="l" depth="2" NCoef="0" IVar="-1" Cut="0.0000000000000000e+00" cType="1" res="-5.8170745614916086e-04" rms="4.5901292562484741e-01" purity="3.4029629826545715e-01" nType="-99"/>
          <Node pos="r" depth="2" NCoef="0" IVar="-1" Cut="0.0000000000000000e+00" cType="1" res="6.3453562324866652e-04" rms="4.5592817664146423e-01" purity="6.5566200017929077e-01" nType="-99"/>
        </Node>
        <Node pos="r" depth="1" NCoef="0" IVar="7" Cut="7.4414670467376709e-02" cType="1" res="-1.2421627528965473e-02" rms="4.5988607406616211e-01" purity="4.5070743560791016e-01" nType="0">
          <Node pos="l" depth="2" NCoef="0" IVar="-1" Cut="0.0000000000000000e+00" cType="1" res="-2.9526550861191936e-05" rms="4.6074414253234863e-01" purity="4.9363470077514648e-01" nType="-99"/>
          <Node pos="r" depth="2" NCoef="0" IVar="-1" Cut="0.0000000000000000e+00" cType="1" res="-1.1425091652199626e-03" rms="4.5757538080215454e-01" purity="3.7215062975883484e-01" nType="-99"/>
        </Node>
      </Node>
    </BinaryTree>
    <BinaryTree type="DecisionTree" boostWeight="1.0000000000000000e+00" itree="782">
      <Node pos="s" depth="0" NCoef="0" IVar="3" Cut="3.2998118400573730e+00" cType="1" res="5.6166681461036205e-03" rms="4.6013626456260681e-01" purity="5.0355881452560425e-01" nType="0">
        <Node pos="l" depth="1" NCoef="0" IVar="2" Cut="5.3499233722686768e-01" cType="1" res="7.9401116818189621e-03" rms="4.6188569068908691e-01" purity="5.1696550846099854e-01" nType="0">
          <Node pos="l" depth="2" NCoef="0" IVar="-1" Cut="0.0000000000000000e+00" cType="1" res="5.5506092030555010e-04" rms="4.6649813652038574e-01" purity="4.7489795088768005e-01" nType="-99"/>
          <Node pos="r" depth="2" NCoef="0" IVar="-1" Cut="0.0000000000000000e+00" cType="1" res="4.0983624785440043e-05" rms="4.5918065309524536e-01" purity="5.4029941558837891e-01" nType="-99"/>
        </Node>
        <Node pos="r" depth="1" NCoef="0" IVar="-1" Cut="0.0000000000000000e+00" cType="1" res="-1.0377934668213129e-03" rms="4.3313559889793396e-01" purity="3.1281107664108276e-01" nType="-99"/>
      </Node>
    </BinaryTree>
    <BinaryTree type="DecisionTree" boostWeight="1.0000000000000000e+00" itree="783">
      <Node pos="s" depth="0" NCoef="0" IVar="2" Cut="6.0208737850189209e-01" cType="1" res="-2.3310054093599319e-03" rms="4.6058502793312073e-01" purity="4.9527999758720398e-01" nType="0">
        <Node pos="l" depth="1" NCoef="0" IVar="4" Cut="8.9891830444335938e+01" cType="1" res="1.1062548495829105e-02" rms="4.6108359098434448e-01" purity="4.6278992295265198e-01" nType="0">
          <Node pos="l" depth="2" NCoef="0" IVar="-1" Cut="0.0000000000000000e+00" cType="1" res="-1.3394939014688134e-03" rms="4.3919160962104797e-01" purity="3.1249418854713440e-01" nType="-99"/>
          <Node pos="r" depth="2" NCoef="0" IVar="-1" Cut="0.0000000000000000e+00" cType="1" res="4.7831694246269763e-04" rms="4.6356534957885742e-01" purity="4.8255661129951477e-01" nType="-99"/>
        </Node>
        <Node pos="r" depth="1" NCoef="0" IVar="5" Cut="-2.9944103211164474e-02" cType="1" res="-1.7415186390280724e-02" rms="4.5955574512481689e-01" purity="5.3187119960784912e-01" nType="0">
          <Node pos="l" depth="2" NCoef="0" IVar="-1" Cut="0.0000000000000000e+00" cType="1" res="4.1063781827688217e-04" rms="4.5703580975532532e-01" purity="5.5409538745880127e-01" nType="-99"/>
          <Node pos="r" depth="2" NCoef="0" IVar="-1" Cut="0.0000000000000000e+00" cType="1" res="-9.5395446987822652e-04" rms="4.5995178818702698e-01" purity="5.2076053619384766e-01" nType="-99"/>
        </Node>
      </Node>
    </BinaryTree>
    <BinaryTree type="DecisionTree" boostWeight="1.0000000000000000e+00" itree="784">
      <Node pos="s" depth="0" NCoef="0" IVar="2" Cut="8.1543040275573730e-01" cType="1" res="6.2885438092052937e-03" rms="4.5954367518424988e-01" purity="5.0472527742385864e-01" nType="0">
        <Node pos="l" depth="1" NCoef="0" IVar="1" Cut="2.5877277851104736e+00" cType="1" res="1.3758307322859764e-03" rms="4.6068575978279114e-01" purity="4.9106043577194214e-01" nType="0">
          <Node pos="l" depth="2" NCoef="0" IVar="-1" Cut="0.0000000000000000e+00" cType="1" res="-7.6790813182014972e-05" rms="4.6758988499641418e-01" purity="4.5458033680915833e-01" nType="-99"/>
          <Node pos="r" depth="2" NCoef="0" IVar="-1" Cut="0.0000000000000000e+00" cType="1" res="8.4660149877890944e-04" rms="3.9629277586936951e-01" purity="7.9797935485839844e-01" nType="-99"/>
        </Node>
        <Node pos="r" depth="1" NCoef="0" IVar="-1" Cut="0.0000000000000000e+00" cType="1" res="1.4436695491895080e-03" rms="4.4370448589324951e-01" purity="6.5128237009048462e-01" nType="-99"/>
      </Node>
    </BinaryTree>
    <BinaryTree type="DecisionTree" boostWeight="1.0000000000000000e+00" itree="785">
      <Node pos="s" depth="0" NCoef="0" IVar="0" Cut="6.7035545349121094e+01" cType="1" res="-2.4643724318593740e-03" rms="4.5867124199867249e-01" purity="4.9724489450454712e-01" nType="0">
        <Node pos="l" depth="1" NCoef="0" IVar="-1" Cut="0.0000000000000000e+00" cType="1" res="-1.2793177738785744e-03" rms="4.6096217632293701e-01" purity="4.5831349492073059e-01" nType="-99"/>
        <Node pos="r" depth="1" NCoef="0" IVar="4" Cut="1.4681704711914062e+02" cType="1" res="1.1745119700208306e-03" rms="4.5828953385353088e-01" purity="5.0075203180313110e-01" nType="0">
          <Node pos="l" depth="2" NCoef="0" IVar="-1" Cut="0.0000000000000000e+00" cType="1" res="-4.1660305578261614e-04" rms="4.5569345355033875e-01" purity="4.3022724986076355e-01" nType="-99"/>
          <Node pos="r" depth="2" NCoef="0" IVar="-1" Cut="0.0000000000000000e+00" cType="1" res="3.1822308665141463e-04" rms="4.5991548895835876e-01" purity="5.5321836471557617e-01" nType="-99"/>
        </Node>
      </Node>
    </BinaryTree>
    <BinaryTree type="DecisionTree" boostWeight="1.0000000000000000e+00" itree="786">
      <Node pos="s" depth="0" NCoef="0" IVar="8" Cut="3.7099188566207886e-01" cType="1" res="-3.6083853337913752e-03" rms="4.6034094691276550e-01" purity="4.9463698267936707e-01" nType="0">
        <Node pos="l" depth="1" NCoef="0" IVar="9" Cut="3.3603575080633163e-02" cType="1" res="-2.9146013781428337e-02" rms="4.5836973190307617e-01" purity="4.3986201286315918e-01" nType="0">
          <Node pos="l" depth="2" NCoef="0" IVar="-1" Cut="0.0000000000000000e+00" cType="1" res="-1.8412737408652902e-03" rms="4.5055237412452698e-01" purity="4.1302460432052612e-01" nType="-99"/>
          <Node pos="r" depth="2" NCoef="0" IVar="-1" Cut="0.0000000000000000e+00" cType="1" res="-1.6464589862152934e-04" rms="4.6351370215415955e-01" purity="4.6241247653961182e-01" nType="-99"/>
        </Node>
        <Node pos="r" depth="1" NCoef="0" IVar="2" Cut="5.0579619407653809e-01" cType="1" res="4.3143429793417454e-03" rms="4.6066313982009888e-01" purity="5.1163029670715332e-01" nType="0">
          <Node pos="l" depth="2" NCoef="0" IVar="-1" Cut="0.0000000000000000e+00" cType="1" res="8.4699003491550684e-04" rms="4.6325093507766724e-01" purity="4.7058621048927307e-01" nType="-99"/>
          <Node pos="r" depth="2" NCoef="0" IVar="-1" Cut="0.0000000000000000e+00" cType="1" res="-1.0320509318262339e-04" rms="4.5955038070678711e-01" purity="5.2462553977966309e-01" nType="-99"/>
        </Node>
      </Node>
    </BinaryTree>
    <BinaryTree type="DecisionTree" boostWeight="1.0000000000000000e+00" itree="787">
      <Node pos="s" depth="0" NCoef="0" IVar="7" Cut="9.0529434382915497e-02" cType="1" res="1.4372485456988215e-03" rms="4.5933794975280762e-01" purity="4.9978750944137573e-01" nType="0">
        <Node pos="l" depth="1" NCoef="0" IVar="1" Cut="1.3283650875091553e+00" cType="1" res="-6.5002595074474812e-03" rms="4.5839950442314148e-01" purity="5.0808304548263550e-01" nType="0">
          <Node pos="l" depth="2" NCoef="0" IVar="-1" Cut="0.0000000000000000e+00" cType="1" res="-5.2681058878079057e-04" rms="4.7050398588180542e-01" purity="4.1042998433113098e-01" nType="-99"/>
          <Node pos="r" depth="2" NCoef="0" IVar="-1" Cut="0.0000000000000000e+00" cType="1" res="4.2715916060842574e-04" rms="4.2719900608062744e-01" purity="7.4057245254516602e-01" nType="-99"/>
        </Node>
        <Node pos="r" depth="1" NCoef="0" IVar="5" Cut="-4.4109281152486801e-03" cType="1" res="2.1529808640480042e-02" rms="4.6109458804130554e-01" purity="4.7878864407539368e-01" nType="0">
          <Node pos="l" depth="2" NCoef="0" IVar="-1" Cut="0.0000000000000000e+00" cType="1" res="-7.5831578578799963e-04" rms="4.5790860056877136e-01" purity="4.1223177313804626e-01" nType="-99"/>
          <Node pos="r" depth="2" NCoef="0" IVar="-1" Cut="0.0000000000000000e+00" cType="1" res="1.6123437089845538e-03" rms="4.6012082695960999e-01" purity="5.3882950544357300e-01" nType="-99"/>
        </Node>
      </Node>
    </BinaryTree>
    <BinaryTree type="DecisionTree" boostWeight="1.0000000000000000e+00" itree="788">
      <Node pos="s" depth="0" NCoef="0" IVar="8" Cut="4.0160968899726868e-01" cType="1" res="2.4665507953613997e-03" rms="4.5802727341651917e-01" purity="5.0064224004745483e-01" nType="0">
        <Node pos="l" depth="1" NCoef="0" IVar="4" Cut="3.5328491210937500e+02" cType="1" res="-4.6241255477070808e-03" rms="4.5770034193992615e-01" purity="4.7751641273498535e-01" nType="0">
          <Node pos="l" depth="2" NCoef="0" IVar="-1" Cut="0.0000000000000000e+00" cType="1" res="-2.6616998366080225e-04" rms="4.5819130539894104e-01" purity="4.6239447593688965e-01" nType="-99"/>
          <Node pos="r" depth="2" NCoef="0" IVar="-1" Cut="0.0000000000000000e+00" cType="1" res="8.3248101873323321e-04" rms="4.5135030150413513e-01" purity="6.1514836549758911e-01" nType="-99"/>
        </Node>
        <Node pos="r" depth="1" NCoef="0" IVar="3" Cut="2.0814800262451172e+00" cType="1" res="2.5582654401659966e-02" rms="4.5833039283752441e-01" purity="5.7603406906127930e-01" nType="0">
          <Node pos="l" depth="2" NCoef="0" IVar="-1" Cut="0.0000000000000000e+00" cType="1" res="2.7989567024633288e-04" rms="4.5047584176063538e-01" purity="6.1248743534088135e-01" nType="-99"/>
          <Node pos="r" depth="2" NCoef="0" IVar="-1" Cut="0.0000000000000000e+00" cType="1" res="9.7875541541725397e-04" rms="4.6400627493858337e-01" purity="5.4783082008361816e-01" nType="-99"/>
        </Node>
      </Node>
    </BinaryTree>
    <BinaryTree type="DecisionTree" boostWeight="1.0000000000000000e+00" itree="789">
      <Node pos="s" depth="0" NCoef="0" IVar="8" Cut="3.2544511556625366e-01" cType="1" res="3.8479565409943461e-04" rms="4.5989334583282471e-01" purity="4.9876093864440918e-01" nType="0">
        <Node pos="l" depth="1" NCoef="0" IVar="-1" Cut="0.0000000000000000e+00" cType="1" res="-1.8851293716579676e-03" rms="4.6145194768905640e-01" purity="4.0021869540214539e-01" nType="-99"/>
        <Node pos="r" depth="1" NCoef="0" IVar="4" Cut="1.8304304504394531e+02" cType="1" res="3.5956532228738070e-03" rms="4.5959046483039856e-01" purity="5.0409525632858276e-01" nType="0">
          <Node pos="l" depth="2" NCoef="0" IVar="-1" Cut="0.0000000000000000e+00" cType="1" res="-2.5176387862302363e-04" rms="4.5771354436874390e-01" purity="4.5723235607147217e-01" nType="-99"/>
          <Node pos="r" depth="2" NCoef="0" IVar="-1" Cut="0.0000000000000000e+00" cType="1" res="6.1106181237846613e-04" rms="4.6205353736877441e-01" purity="5.8355724811553955e-01" nType="-99"/>
        </Node>
      </Node>
    </BinaryTree>
    <BinaryTree type="DecisionTree" boostWeight="1.0000000000000000e+00" itree="790">
      <Node pos="s" depth="0" NCoef="0" IVar="4" Cut="1.1473565673828125e+02" cType="1" res="3.3649264369159937e-03" rms="4.5775204896926880e-01" purity="5.0372874736785889e-01" nType="0">
        <Node pos="l" depth="1" NCoef="0" IVar="4" Cut="8.0299858093261719e+01" cType="1" res="-1.6619360074400902e-02" rms="4.4936737418174744e-01" purity="4.1069686412811279e-01" nType="0">
          <Node pos="l" depth="2" NCoef="0" IVar="-1" Cut="0.0000000000000000e+00" cType="1" res="-1.9037367310374975e-03" rms="4.2660406231880188e-01" purity="3.3322152495384216e-01" nType="-99"/>
          <Node pos="r" depth="2" NCoef="0" IVar="-1" Cut="0.0000000000000000e+00" cType="1" res="-1.9538814376574010e-04" rms="4.5541039109230042e-01" purity="4.3376854062080383e-01" nType="-99"/>
        </Node>
        <Node pos="r" depth="1" NCoef="0" IVar="0" Cut="9.9031669616699219e+01" cType="1" res="1.0150047950446606e-02" rms="4.6036690473556519e-01" purity="5.3531521558761597e-01" nType="0">
          <Node pos="l" depth="2" NCoef="0" IVar="-1" Cut="0.0000000000000000e+00" cType="1" res="-4.7880152123980224e-04" rms="4.5668160915374756e-01" purity="5.4153341054916382e-01" nType="-99"/>
          <Node pos="r" depth="2" NCoef="0" IVar="-1" Cut="0.0000000000000000e+00" cType="1" res="4.5890951878391206e-04" rms="4.6097493171691895e-01" purity="5.3385895490646362e-01" nType="-99"/>
        </Node>
      </Node>
    </BinaryTree>
    <BinaryTree type="DecisionTree" boostWeight="1.0000000000000000e+00" itree="791">
      <Node pos="s" depth="0" NCoef="0" IVar="7" Cut="-4.1285358369350433e-02" cType="1" res="-5.9655850054696202e-04" rms="4.6079847216606140e-01" purity="4.9627971649169922e-01" nType="0">
        <Node pos="l" depth="1" NCoef="0" IVar="-1" Cut="0.0000000000000000e+00" cType="1" res="1.0369576048105955e-03" rms="4.5586618781089783e-01" purity="5.8273327350616455e-01" nType="-99"/>
        <Node pos="r" depth="1" NCoef="0" IVar="5" Cut="3.1933754682540894e-02" cType="1" res="-5.2355737425386906e-03" rms="4.6111884713172913e-01" purity="4.8656052350997925e-01" nType="0">
          <Node pos="l" depth="2" NCoef="0" IVar="-1" Cut="0.0000000000000000e+00" cType="1" res="-3.7505477666854858e-04" rms="4.6015334129333496e-01" purity="4.7732657194137573e-01" nType="-99"/>
          <Node pos="r" depth="2" NCoef="0" IVar="-1" Cut="0.0000000000000000e+00" cType="1" res="4.6042347094044089e-04" rms="4.6322503685951233e-01" purity="5.1351404190063477e-01" nType="-99"/>
        </Node>
      </Node>
    </BinaryTree>
    <BinaryTree type="DecisionTree" boostWeight="1.0000000000000000e+00" itree="792">
      <Node pos="s" depth="0" NCoef="0" IVar="7" Cut="1.9177000224590302e-01" cType="1" res="7.0019960403442383e-03" rms="4.6282726526260376e-01" purity="5.0228369235992432e-01" nType="0">
        <Node pos="l" depth="1" NCoef="0" IVar="6" Cut="9.3086671829223633e-01" cType="1" res="4.2526298202574253e-03" rms="4.6222954988479614e-01" purity="5.0292354822158813e-01" nType="0">
          <Node pos="l" depth="2" NCoef="0" IVar="-1" Cut="0.0000000000000000e+00" cType="1" res="-4.8292006249539554e-04" rms="4.6541315317153931e-01" purity="4.3832093477249146e-01" nType="-99"/>
          <Node pos="r" depth="2" NCoef="0" IVar="-1" Cut="0.0000000000000000e+00" cType="1" res="2.7139601297676563e-04" rms="4.6122199296951294e-01" purity="5.2013659477233887e-01" nType="-99"/>
        </Node>
        <Node pos="r" depth="1" NCoef="0" IVar="-1" Cut="0.0000000000000000e+00" cType="1" res="1.4995501842349768e-03" rms="4.7044909000396729e-01" purity="4.9134635925292969e-01" nType="-99"/>
      </Node>
    </BinaryTree>
    <BinaryTree type="DecisionTree" boostWeight="1.0000000000000000e+00" itree="793">
      <Node pos="s" depth="0" NCoef="0" IVar="6" Cut="9.0360933542251587e-01" cType="1" res="7.2498703375458717e-03" rms="4.6169319748878479e-01" purity="5.0241446495056152e-01" nType="0">
        <Node pos="l" depth="1" NCoef="0" IVar="-1" Cut="0.0000000000000000e+00" cType="1" res="-1.3176987413316965e-03" rms="4.5759856700897217e-01" purity="3.9597636461257935e-01" nType="-99"/>
        <Node pos="r" depth="1" NCoef="0" IVar="5" Cut="2.1080527454614639e-02" cType="1" res="1.0319905355572701e-02" rms="4.6176564693450928e-01" purity="5.0892817974090576e-01" nType="0">
          <Node pos="l" depth="2" NCoef="0" IVar="-1" Cut="0.0000000000000000e+00" cType="1" res="6.4620639022905380e-05" rms="4.5899912714958191e-01" purity="4.9826574325561523e-01" nType="-99"/>
          <Node pos="r" depth="2" NCoef="0" IVar="-1" Cut="0.0000000000000000e+00" cType="1" res="7.6831498881801963e-04" rms="4.6742454171180725e-01" purity="5.3293520212173462e-01" nType="-99"/>
        </Node>
      </Node>
    </BinaryTree>
    <BinaryTree type="DecisionTree" boostWeight="1.0000000000000000e+00" itree="794">
      <Node pos="s" depth="0" NCoef="0" IVar="1" Cut="6.1032670736312866e-01" cType="1" res="-6.0957850655540824e-04" rms="4.5747628808021545e-01" purity="4.9911767244338989e-01" nType="0">
        <Node pos="l" depth="1" NCoef="0" IVar="2" Cut="4.8471397161483765e-01" cType="1" res="-1.2086855247616768e-02" rms="4.6102884411811829e-01" purity="3.5906484723091125e-01" nType="0">
          <Node pos="l" depth="2" NCoef="0" IVar="-1" Cut="0.0000000000000000e+00" cType="1" res="6.8397301947697997e-04" rms="4.5185104012489319e-01" purity="3.2880777120590210e-01" nType="-99"/>
          <Node pos="r" depth="2" NCoef="0" IVar="-1" Cut="0.0000000000000000e+00" cType="1" res="-7.2819873457774520e-04" rms="4.6354600787162781e-01" purity="3.6887642741203308e-01" nType="-99"/>
        </Node>
        <Node pos="r" depth="1" NCoef="0" IVar="8" Cut="3.6107066273689270e-01" cType="1" res="1.3144182972609997e-02" rms="4.5279940962791443e-01" purity="6.6694957017898560e-01" nType="0">
          <Node pos="l" depth="2" NCoef="0" IVar="-1" Cut="0.0000000000000000e+00" cType="1" res="-6.4131547696888447e-04" rms="4.7647348046302795e-01" purity="5.8588749170303345e-01" nType="-99"/>
          <Node pos="r" depth="2" NCoef="0" IVar="-1" Cut="0.0000000000000000e+00" cType="1" res="4.7625895240344107e-04" rms="4.4780725240707397e-01" purity="6.8222916126251221e-01" nType="-99"/>
        </Node>
      </Node>
    </BinaryTree>
    <BinaryTree type="DecisionTree" boostWeight="1.0000000000000000e+00" itree="795">
      <Node pos="s" depth="0" NCoef="0" IVar="5" Cut="-5.1429115235805511e-02" cType="1" res="3.4847976639866829e-03" rms="4.5903903245925903e-01" purity="5.0292581319808960e-01" nType="0">
        <Node pos="l" depth="1" NCoef="0" IVar="7" Cut="4.0165409445762634e-02" cType="1" res="-2.0609429106116295e-02" rms="4.5613059401512146e-01" purity="4.2607501149177551e-01" nType="0">
          <Node pos="l" depth="2" NCoef="0" IVar="-1" Cut="0.0000000000000000e+00" cType="1" res="9.5994939329102635e-04" rms="4.5751810073852539e-01" purity="5.2777427434921265e-01" nType="-99"/>
          <Node pos="r" depth="2" NCoef="0" IVar="-1" Cut="0.0000000000000000e+00" cType="1" res="-1.8208802212029696e-03" rms="4.5236581563949585e-01" purity="3.6861124634742737e-01" nType="-99"/>
        </Node>
        <Node pos="r" depth="1" NCoef="0" IVar="0" Cut="1.3959028625488281e+02" cType="1" res="8.0213295295834541e-03" rms="4.5944324135780334e-01" purity="5.1739549636840820e-01" nType="0">
          <Node pos="l" depth="2" NCoef="0" IVar="-1" Cut="0.0000000000000000e+00" cType="1" res="5.6125759147107601e-04" rms="4.6087279915809631e-01" purity="5.5212277173995972e-01" nType="-99"/>
          <Node pos="r" depth="2" NCoef="0" IVar="-1" Cut="0.0000000000000000e+00" cType="1" res="-1.2201190838823095e-04" rms="4.5776522159576416e-01" purity="4.8486983776092529e-01" nType="-99"/>
        </Node>
      </Node>
    </BinaryTree>
    <BinaryTree type="DecisionTree" boostWeight="1.0000000000000000e+00" itree="796">
      <Node pos="s" depth="0" NCoef="0" IVar="9" Cut="2.0547007024288177e-01" cType="1" res="-7.8628165647387505e-03" rms="4.5855781435966492e-01" purity="4.9001413583755493e-01" nType="0">
        <Node pos="l" depth="1" NCoef="0" IVar="0" Cut="9.7424583435058594e+01" cType="1" res="-1.1374229565262794e-02" rms="4.5974087715148926e-01" purity="4.8016226291656494e-01" nType="0">
          <Node pos="l" depth="2" NCoef="0" IVar="-1" Cut="0.0000000000000000e+00" cType="1" res="-9.4328459817916155e-04" rms="4.6016088128089905e-01" purity="4.6724602580070496e-01" nType="-99"/>
          <Node pos="r" depth="2" NCoef="0" IVar="-1" Cut="0.0000000000000000e+00" cType="1" res="-1.6072762082330883e-04" rms="4.5945262908935547e-01" purity="4.8372718691825867e-01" nType="-99"/>
        </Node>
        <Node pos="r" depth="1" NCoef="0" IVar="-1" Cut="0.0000000000000000e+00" cType="1" res="8.7599968537688255e-04" rms="4.4169017672538757e-01" purity="6.0982131958007812e-01" nType="-99"/>
      </Node>
    </BinaryTree>
    <BinaryTree type="DecisionTree" boostWeight="1.0000000000000000e+00" itree="797">
      <Node pos="s" depth="0" NCoef="0" IVar="7" Cut="2.8384247794747353e-02" cType="1" res="2.7271136641502380e-03" rms="4.6108421683311462e-01" purity="4.9869769811630249e-01" nType="0">
        <Node pos="l" depth="1" NCoef="0" IVar="5" Cut="-3.3441074192523956e-02" cType="1" res="1.6834953799843788e-02" rms="4.6181839704513550e-01" purity="5.4420214891433716e-01" nType="0">
          <Node pos="l" depth="2" NCoef="0" IVar="-1" Cut="0.0000000000000000e+00" cType="1" res="1.1520613916218281e-03" rms="4.6213787794113159e-01" purity="5.4867655038833618e-01" nType="-99"/>
          <Node pos="r" depth="2" NCoef="0" IVar="-1" Cut="0.0000000000000000e+00" cType="1" res="2.1032044605817646e-04" rms="4.6135234832763672e-01" purity="5.4265522956848145e-01" nType="-99"/>
        </Node>
        <Node pos="r" depth="1" NCoef="0" IVar="8" Cut="3.6024641990661621e-01" cType="1" res="-9.2518748715519905e-03" rms="4.6012046933174133e-01" purity="4.6005976200103760e-01" nType="0">
          <Node pos="l" depth="2" NCoef="0" IVar="-1" Cut="0.0000000000000000e+00" cType="1" res="-1.5221430221572518e-03" rms="4.5224991440773010e-01" purity="4.0373757481575012e-01" nType="-99"/>
          <Node pos="r" depth="2" NCoef="0" IVar="-1" Cut="0.0000000000000000e+00" cType="1" res="-3.9447582821594551e-05" rms="4.6133005619049072e-01" purity="4.7167080640792847e-01" nType="-99"/>
        </Node>
      </Node>
    </BinaryTree>
    <BinaryTree type="DecisionTree" boostWeight="1.0000000000000000e+00" itree="798">
      <Node pos="s" depth="0" NCoef="0" IVar="8" Cut="3.2876056432723999e-01" cType="1" res="7.6657850295305252e-03" rms="4.6161010861396790e-01" purity="5.0486093759536743e-01" nType="0">
        <Node pos="l" depth="1" NCoef="0" IVar="-1" Cut="0.0000000000000000e+00" cType="1" res="-1.9160397350788116e-03" rms="4.5367649197578430e-01" purity="3.9844468235969543e-01" nType="-99"/>
        <Node pos="r" depth="1" NCoef="0" IVar="5" Cut="-3.9379235357046127e-02" cType="1" res="1.1762553825974464e-02" rms="4.6177592873573303e-01" purity="5.1137137413024902e-01" nType="0">
          <Node pos="l" depth="2" NCoef="0" IVar="-1" Cut="0.0000000000000000e+00" cType="1" res="-5.2061135647818446e-04" rms="4.5225450396537781e-01" purity="4.5835715532302856e-01" nType="-99"/>
          <Node pos="r" depth="2" NCoef="0" IVar="-1" Cut="0.0000000000000000e+00" cType="1" res="5.7328736875206232e-04" rms="4.6439853310585022e-01" purity="5.2831178903579712e-01" nType="-99"/>
        </Node>
      </Node>
    </BinaryTree>
    <BinaryTree type="DecisionTree" boostWeight="1.0000000000000000e+00" itree="799">
      <Node pos="s" depth="0" NCoef="0" IVar="0" Cut="1.0821272277832031e+02" cType="1" res="8.6333546787500381e-03" rms="4.6049058437347412e-01" purity="5.0645172595977783e-01" nType="0">
        <Node pos="l" depth="1" NCoef="0" IVar="8" Cut="3.9670500159263611e-01" cType="1" res="-1.1214719153940678e-02" rms="4.6213153004646301e-01" purity="5.0017917156219482e-01" nType="0">
          <Node pos="l" depth="2" NCoef="0" IVar="-1" Cut="0.0000000000000000e+00" cType="1" res="-7.0783594856038690e-04" rms="4.5933312177658081e-01" purity="4.7071656584739685e-01" nType="-99"/>
          <Node pos="r" depth="2" NCoef="0" IVar="-1" Cut="0.0000000000000000e+00" cType="1" res="3.4393966780044138e-04" rms="4.6627634763717651e-01" purity="5.5422657728195190e-01" nType="-99"/>
        </Node>
        <Node pos="r" depth="1" NCoef="0" IVar="3" Cut="1.5628790855407715e+00" cType="1" res="1.6467135399580002e-02" rms="4.5960548520088196e-01" purity="5.0892740488052368e-01" nType="0">
          <Node pos="l" depth="2" NCoef="0" IVar="-1" Cut="0.0000000000000000e+00" cType="1" res="1.3176179490983486e-03" rms="4.3487861752510071e-01" purity="7.0198923349380493e-01" nType="-99"/>
          <Node pos="r" depth="2" NCoef="0" IVar="-1" Cut="0.0000000000000000e+00" cType="1" res="3.2100724638439715e-04" rms="4.6257182955741882e-01" purity="4.8303276300430298e-01" nType="-99"/>
        </Node>
      </Node>
    </BinaryTree>
    <BinaryTree type="DecisionTree" boostWeight="1.0000000000000000e+00" itree="800">
      <Node pos="s" depth="0" NCoef="0" IVar="4" Cut="2.5455683898925781e+02" cType="1" res="3.6317133344709873e-03" rms="4.5917108654975891e-01" purity="5.0126409530639648e-01" nType="0">
        <Node pos="l" depth="1" NCoef="0" IVar="7" Cut="9.0961888432502747e-02" cType="1" res="-1.6649522585794330e-03" rms="4.5967453718185425e-01" purity="4.7839573025703430e-01" nType="0">
          <Node pos="l" depth="2" NCoef="0" IVar="-1" Cut="0.0000000000000000e+00" cType="1" res="1.6467236855532974e-04" rms="4.6006214618682861e-01" purity="5.0535243749618530e-01" nType="-99"/>
          <Node pos="r" depth="2" NCoef="0" IVar="-1" Cut="0.0000000000000000e+00" cType="1" res="-6.6706159850582480e-04" rms="4.5809626579284668e-01" purity="4.0830662846565247e-01" nType="-99"/>
        </Node>
        <Node pos="r" depth="1" NCoef="0" IVar="3" Cut="2.4624228477478027e+00" cType="1" res="2.6088733226060867e-02" rms="4.5634803175926208e-01" purity="5.9822231531143188e-01" nType="0">
          <Node pos="l" depth="2" NCoef="0" IVar="-1" Cut="0.0000000000000000e+00" cType="1" res="2.7385339490137994e-04" rms="4.5586282014846802e-01" purity="6.1255288124084473e-01" nType="-99"/>
          <Node pos="r" depth="2" NCoef="0" IVar="-1" Cut="0.0000000000000000e+00" cType="1" res="1.2882078299298882e-03" rms="4.5605352520942688e-01" purity="5.7496535778045654e-01" nType="-99"/>
        </Node>
      </Node>
    </BinaryTree>
    <BinaryTree type="DecisionTree" boostWeight="1.0000000000000000e+00" itree="801">
      <Node pos="s" depth="0" NCoef="0" IVar="6" Cut="9.9320256710052490e-01" cType="1" res="-2.3605849128216505e-03" rms="4.5982179045677185e-01" purity="4.9620437622070312e-01" nType="0">
        <Node pos="l" depth="1" NCoef="0" IVar="2" Cut="4.6004074811935425e-01" cType="1" res="-6.4934780821204185e-03" rms="4.6040874719619751e-01" purity="4.8770320415496826e-01" nType="0">
          <Node pos="l" depth="2" NCoef="0" IVar="-1" Cut="0.0000000000000000e+00" cType="1" res="4.0340144187211990e-04" rms="4.6670493483543396e-01" purity="4.4043102860450745e-01" nType="-99"/>
          <Node pos="r" depth="2" NCoef="0" IVar="-1" Cut="0.0000000000000000e+00" cType="1" res="-3.2951260800473392e-04" rms="4.5870146155357361e-01" purity="4.9941349029541016e-01" nType="-99"/>
        </Node>
        <Node pos="r" depth="1" NCoef="0" IVar="2" Cut="5.8910697698593140e-01" cType="1" res="2.9501041397452354e-02" rms="4.5401027798652649e-01" purity="5.6174194812774658e-01" nType="0">
          <Node pos="l" depth="2" NCoef="0" IVar="-1" Cut="0.0000000000000000e+00" cType="1" res="4.9975363072007895e-04" rms="4.5163184404373169e-01" purity="4.9290078878402710e-01" nType="-99"/>
          <Node pos="r" depth="2" NCoef="0" IVar="-1" Cut="0.0000000000000000e+00" cType="1" res="9.8479690495878458e-04" rms="4.5570269227027893e-01" purity="6.1792165040969849e-01" nType="-99"/>
        </Node>
      </Node>
    </BinaryTree>
    <BinaryTree type="DecisionTree" boostWeight="1.0000000000000000e+00" itree="802">
      <Node pos="s" depth="0" NCoef="0" IVar="0" Cut="1.3677635192871094e+02" cType="1" res="-2.0067450532224029e-04" rms="4.5932349562644958e-01" purity="4.9905014038085938e-01" nType="0">
        <Node pos="l" depth="1" NCoef="0" IVar="1" Cut="-1.5746539831161499e+00" cType="1" res="1.7167715355753899e-02" rms="4.5859488844871521e-01" purity="5.3900492191314697e-01" nType="0">
          <Node pos="l" depth="2" NCoef="0" IVar="-1" Cut="0.0000000000000000e+00" cType="1" res="-1.2160927290096879e-03" rms="4.3097257614135742e-01" purity="2.6429739594459534e-01" nType="-99"/>
          <Node pos="r" depth="2" NCoef="0" IVar="-1" Cut="0.0000000000000000e+00" cType="1" res="5.8184942463412881e-04" rms="4.6201938390731812e-01" purity="5.7742398977279663e-01" nType="-99"/>
        </Node>
        <Node pos="r" depth="1" NCoef="0" IVar="4" Cut="2.5581465148925781e+02" cType="1" res="-1.5794051811099052e-02" rms="4.5941761136054993e-01" purity="4.6317860484123230e-01" nType="0">
          <Node pos="l" depth="2" NCoef="0" IVar="-1" Cut="0.0000000000000000e+00" cType="1" res="-7.7667291043326259e-04" rms="4.5889329910278320e-01" purity="4.3045854568481445e-01" nType="-99"/>
          <Node pos="r" depth="2" NCoef="0" IVar="-1" Cut="0.0000000000000000e+00" cType="1" res="3.3768711728043854e-04" rms="4.5993319153785706e-01" purity="5.6940209865570068e-01" nType="-99"/>
        </Node>
      </Node>
    </BinaryTree>
    <BinaryTree type="DecisionTree" boostWeight="1.0000000000000000e+00" itree="803">
      <Node pos="s" depth="0" NCoef="0" IVar="1" Cut="2.4386417865753174e+00" cType="1" res="4.1961162351071835e-03" rms="4.5766863226890564e-01" purity="5.0358259677886963e-01" nType="0">
        <Node pos="l" depth="1" NCoef="0" IVar="0" Cut="2.0171730041503906e+02" cType="1" res="-8.3188363350927830e-04" rms="4.6632489562034607e-01" purity="4.6057346463203430e-01" nType="0">
          <Node pos="l" depth="2" NCoef="0" IVar="-1" Cut="0.0000000000000000e+00" cType="1" res="2.0626391051337123e-04" rms="4.6851626038551331e-01" purity="4.8452231287956238e-01" nType="-99"/>
          <Node pos="r" depth="2" NCoef="0" IVar="-1" Cut="0.0000000000000000e+00" cType="1" res="-7.4643600964918733e-04" rms="4.5965382456779480e-01" purity="3.9620381593704224e-01" nType="-99"/>
        </Node>
        <Node pos="r" depth="1" NCoef="0" IVar="-1" Cut="0.0000000000000000e+00" cType="1" res="9.3709240900352597e-04" rms="3.9044100046157837e-01" purity="8.0265629291534424e-01" nType="-99"/>
      </Node>
    </BinaryTree>
    <BinaryTree type="DecisionTree" boostWeight="1.0000000000000000e+00" itree="804">
      <Node pos="s" depth="0" NCoef="0" IVar="3" Cut="3.3126399517059326e+00" cType="1" res="3.7156932521611452e-03" rms="4.5644176006317139e-01" purity="5.0296550989151001e-01" nType="0">
        <Node pos="l" depth="1" NCoef="0" IVar="8" Cut="4.1086077690124512e-01" cType="1" res="7.2826319374144077e-03" rms="4.5880997180938721e-01" purity="5.1707315444946289e-01" nType="0">
          <Node pos="l" depth="2" NCoef="0" IVar="-1" Cut="0.0000000000000000e+00" cType="1" res="8.7715554400347173e-05" rms="4.5932507514953613e-01" purity="5.0346767902374268e-01" nType="-99"/>
          <Node pos="r" depth="2" NCoef="0" IVar="-1" Cut="0.0000000000000000e+00" cType="1" res="1.1667588260024786e-03" rms="4.5156598091125488e-01" purity="6.5266293287277222e-01" nType="-99"/>
        </Node>
        <Node pos="r" depth="1" NCoef="0" IVar="-1" Cut="0.0000000000000000e+00" cType="1" res="-1.9021634943783283e-03" rms="4.1735452413558960e-01" purity="2.9914578795433044e-01" nType="-99"/>
      </Node>
    </BinaryTree>
    <BinaryTree type="DecisionTree" boostWeight="1.0000000000000000e+00" itree="805">
      <Node pos="s" depth="0" NCoef="0" IVar="7" Cut="-6.4580114558339119e-03" cType="1" res="-6.2985057011246681e-03" rms="4.6093460917472839e-01" purity="4.8993346095085144e-01" nType="0">
        <Node pos="l" depth="1" NCoef="0" IVar="5" Cut="-2.1687755361199379e-02" cType="1" res="1.2478709220886230e-02" rms="4.6076977252960205e-01" purity="5.5385696887969971e-01" nType="0">
          <Node pos="l" depth="2" NCoef="0" IVar="-1" Cut="0.0000000000000000e+00" cType="1" res="1.0811847168952227e-03" rms="4.6041476726531982e-01" purity="5.6724774837493896e-01" nType="-99"/>
          <Node pos="r" depth="2" NCoef="0" IVar="-1" Cut="0.0000000000000000e+00" cType="1" res="-1.1580755381146446e-04" rms="4.6014866232872009e-01" purity="5.4611527919769287e-01" nType="-99"/>
        </Node>
        <Node pos="r" depth="1" NCoef="0" IVar="6" Cut="9.4952934980392456e-01" cType="1" res="-1.3290406204760075e-02" rms="4.6080049872398376e-01" purity="4.6613085269927979e-01" nType="0">
          <Node pos="l" depth="2" NCoef="0" IVar="-1" Cut="0.0000000000000000e+00" cType="1" res="-9.4408408040180802e-04" rms="4.5838409662246704e-01" purity="4.2236578464508057e-01" nType="-99"/>
          <Node pos="r" depth="2" NCoef="0" IVar="-1" Cut="0.0000000000000000e+00" cType="1" res="-6.4582214690744877e-05" rms="4.6201324462890625e-01" purity="4.9433934688568115e-01" nType="-99"/>
        </Node>
      </Node>
    </BinaryTree>
    <BinaryTree type="DecisionTree" boostWeight="1.0000000000000000e+00" itree="806">
      <Node pos="s" depth="0" NCoef="0" IVar="3" Cut="1.0219721794128418e+00" cType="1" res="-5.1768887788057327e-03" rms="4.5872619748115540e-01" purity="4.9385473132133484e-01" nType="0">
        <Node pos="l" depth="1" NCoef="0" IVar="-1" Cut="0.0000000000000000e+00" cType="1" res="8.0239126691594720e-04" rms="4.4367137551307678e-01" purity="6.0646885633468628e-01" nType="-99"/>
        <Node pos="r" depth="1" NCoef="0" IVar="1" Cut="2.6252419948577881e+00" cType="1" res="-1.0061119683086872e-02" rms="4.6044200658798218e-01" purity="4.7907695174217224e-01" nType="0">
          <Node pos="l" depth="2" NCoef="0" IVar="-1" Cut="0.0000000000000000e+00" cType="1" res="-4.0715679642744362e-04" rms="4.6613824367523193e-01" purity="4.4593673944473267e-01" nType="-99"/>
          <Node pos="r" depth="2" NCoef="0" IVar="-1" Cut="0.0000000000000000e+00" cType="1" res="5.8199936756864190e-04" rms="4.0188440680503845e-01" purity="7.8828692436218262e-01" nType="-99"/>
        </Node>
      </Node>
    </BinaryTree>
    <BinaryTree type="DecisionTree" boostWeight="1.0000000000000000e+00" itree="807">
      <Node pos="s" depth="0" NCoef="0" IVar="0" Cut="9.1739585876464844e+01" cType="1" res="1.2385232839733362e-03" rms="4.5882865786552429e-01" purity="4.9883830547332764e-01" nType="0">
        <Node pos="l" depth="1" NCoef="0" IVar="0" Cut="6.9808547973632812e+01" cType="1" res="-2.5067729875445366e-02" rms="4.6298462152481079e-01" purity="4.7671616077423096e-01" nType="0">
          <Node pos="l" depth="2" NCoef="0" IVar="-1" Cut="0.0000000000000000e+00" cType="1" res="-1.4615984400734305e-03" rms="4.5285674929618835e-01" purity="4.5906445384025574e-01" nType="-99"/>
          <Node pos="r" depth="2" NCoef="0" IVar="-1" Cut="0.0000000000000000e+00" cType="1" res="-5.9279853303451091e-05" rms="4.7132077813148499e-01" purity="4.9358803033828735e-01" nType="-99"/>
        </Node>
        <Node pos="r" depth="1" NCoef="0" IVar="2" Cut="7.8914940357208252e-01" cType="1" res="7.3530306108295918e-03" rms="4.5764070749282837e-01" purity="5.0398027896881104e-01" nType="0">
          <Node pos="l" depth="2" NCoef="0" IVar="-1" Cut="0.0000000000000000e+00" cType="1" res="7.4763782322406769e-05" rms="4.5902281999588013e-01" purity="4.8493981361389160e-01" nType="-99"/>
          <Node pos="r" depth="2" NCoef="0" IVar="-1" Cut="0.0000000000000000e+00" cType="1" res="1.0996116325259209e-03" rms="4.4555550813674927e-01" purity="6.4626276493072510e-01" nType="-99"/>
        </Node>
      </Node>
    </BinaryTree>
    <BinaryTree type="DecisionTree" boostWeight="1.0000000000000000e+00" itree="808">
      <Node pos="s" depth="0" NCoef="0" IVar="1" Cut="-1.0263144969940186e+00" cType="1" res="5.1842476241290569e-03" rms="4.5916101336479187e-01" purity="5.0211554765701294e-01" nType="0">
        <Node pos="l" depth="1" NCoef="0" IVar="0" Cut="1.0938579559326172e+02" cType="1" res="-1.5391152352094650e-02" rms="4.3525475263595581e-01" purity="2.7441266179084778e-01" nType="0">
          <Node pos="l" depth="2" NCoef="0" IVar="-1" Cut="0.0000000000000000e+00" cType="1" res="-2.8016888536512852e-03" rms="4.2151015996932983e-01" purity="2.4744701385498047e-01" nType="-99"/>
          <Node pos="r" depth="2" NCoef="0" IVar="-1" Cut="0.0000000000000000e+00" cType="1" res="1.3313791714608669e-04" rms="4.3935534358024597e-01" purity="2.8529608249664307e-01" nType="-99"/>
        </Node>
        <Node pos="r" depth="1" NCoef="0" IVar="3" Cut="2.9747738838195801e+00" cType="1" res="1.1064834892749786e-02" rms="4.6560114622116089e-01" purity="5.6719452142715454e-01" nType="0">
          <Node pos="l" depth="2" NCoef="0" IVar="-1" Cut="0.0000000000000000e+00" cType="1" res="4.2735293391160667e-04" rms="4.6434348821640015e-01" purity="5.9420949220657349e-01" nType="-99"/>
          <Node pos="r" depth="2" NCoef="0" IVar="-1" Cut="0.0000000000000000e+00" cType="1" res="-5.3475587628781796e-04" rms="4.7020751237869263e-01" purity="4.4374707341194153e-01" nType="-99"/>
        </Node>
      </Node>
    </BinaryTree>
    <BinaryTree type="DecisionTree" boostWeight="1.0000000000000000e+00" itree="809">
      <Node pos="s" depth="0" NCoef="0" IVar="0" Cut="1.7050942993164062e+02" cType="1" res="-5.4354495368897915e-03" rms="4.5618310570716858e-01" purity="4.9346992373466492e-01" nType="0">
        <Node pos="l" depth="1" NCoef="0" IVar="0" Cut="8.5813591003417969e+01" cType="1" res="7.6446719467639923e-03" rms="4.5769256353378296e-01" purity="5.2663832902908325e-01" nType="0">
          <Node pos="l" depth="2" NCoef="0" IVar="-1" Cut="0.0000000000000000e+00" cType="1" res="-1.0144405532628298e-03" rms="4.5577719807624817e-01" purity="4.6718144416809082e-01" nType="-99"/>
          <Node pos="r" depth="2" NCoef="0" IVar="-1" Cut="0.0000000000000000e+00" cType="1" res="5.9387530200183392e-04" rms="4.5743975043296814e-01" purity="5.4692566394805908e-01" nType="-99"/>
        </Node>
        <Node pos="r" depth="1" NCoef="0" IVar="4" Cut="1.8814616394042969e+02" cType="1" res="-2.7797369286417961e-02" rms="4.5271635055541992e-01" purity="4.3676486611366272e-01" nType="0">
          <Node pos="l" depth="2" NCoef="0" IVar="-1" Cut="0.0000000000000000e+00" cType="1" res="-1.8332779873162508e-03" rms="4.4266641139984131e-01" purity="3.6250901222229004e-01" nType="-99"/>
          <Node pos="r" depth="2" NCoef="0" IVar="-1" Cut="0.0000000000000000e+00" cType="1" res="-8.1460726505611092e-05" rms="4.6179607510566711e-01" purity="5.1521295309066772e-01" nType="-99"/>
        </Node>
      </Node>
    </BinaryTree>
    <BinaryTree type="DecisionTree" boostWeight="1.0000000000000000e+00" itree="810">
      <Node pos="s" depth="0" NCoef="0" IVar="6" Cut="9.1574215888977051e-01" cType="1" res="1.6663670539855957e-03" rms="4.6095132827758789e-01" purity="4.9919667840003967e-01" nType="0">
        <Node pos="l" depth="1" NCoef="0" IVar="9" Cut="7.1204215288162231e-02" cType="1" res="-3.2782308757305145e-02" rms="4.5581775903701782e-01" purity="4.2218226194381714e-01" nType="0">
          <Node pos="l" depth="2" NCoef="0" IVar="-1" Cut="0.0000000000000000e+00" cType="1" res="-1.3745896285399795e-03" rms="4.5135718584060669e-01" purity="3.9088052511215210e-01" nType="-99"/>
          <Node pos="r" depth="2" NCoef="0" IVar="-1" Cut="0.0000000000000000e+00" cType="1" res="-6.1302847461774945e-04" rms="4.5977169275283813e-01" purity="4.5238864421844482e-01" nType="-99"/>
        </Node>
        <Node pos="r" depth="1" NCoef="0" IVar="7" Cut="4.7052405774593353e-02" cType="1" res="5.7112923823297024e-03" rms="4.6138164401054382e-01" purity="5.0823962688446045e-01" nType="0">
          <Node pos="l" depth="2" NCoef="0" IVar="-1" Cut="0.0000000000000000e+00" cType="1" res="-1.1037292279070243e-04" rms="4.6006399393081665e-01" purity="5.2408385276794434e-01" nType="-99"/>
          <Node pos="r" depth="2" NCoef="0" IVar="-1" Cut="0.0000000000000000e+00" cType="1" res="4.9441074952483177e-04" rms="4.6268686652183533e-01" purity="4.8932743072509766e-01" nType="-99"/>
        </Node>
      </Node>
    </BinaryTree>
    <BinaryTree type="DecisionTree" boostWeight="1.0000000000000000e+00" itree="811">
      <Node pos="s" depth="0" NCoef="0" IVar="4" Cut="1.3869142150878906e+02" cType="1" res="7.4285888113081455e-03" rms="4.6173444390296936e-01" purity="5.0487285852432251e-01" nType="0">
        <Node pos="l" depth="1" NCoef="0" IVar="4" Cut="8.0402870178222656e+01" cType="1" res="-6.0363723896443844e-03" rms="4.5739066600799561e-01" purity="4.3702527880668640e-01" nType="0">
          <Node pos="l" depth="2" NCoef="0" IVar="-1" Cut="0.0000000000000000e+00" cType="1" res="-1.8997836159542203e-03" rms="4.3832492828369141e-01" purity="3.1606757640838623e-01" nType="-99"/>
          <Node pos="r" depth="2" NCoef="0" IVar="-1" Cut="0.0000000000000000e+00" cType="1" res="5.1637583965202793e-05" rms="4.6021658182144165e-01" purity="4.5823979377746582e-01" nType="-99"/>
        </Node>
        <Node pos="r" depth="1" NCoef="0" IVar="1" Cut="-1.8610385656356812e+00" cType="1" res="1.6540285199880600e-02" rms="4.6442940831184387e-01" purity="5.5078518390655518e-01" nType="0">
          <Node pos="l" depth="2" NCoef="0" IVar="-1" Cut="0.0000000000000000e+00" cType="1" res="3.0238751787692308e-03" rms="4.7214254736900330e-01" purity="3.6919504404067993e-01" nType="-99"/>
          <Node pos="r" depth="2" NCoef="0" IVar="-1" Cut="0.0000000000000000e+00" cType="1" res="2.7474758098833263e-04" rms="4.6326461434364319e-01" purity="5.6853640079498291e-01" nType="-99"/>
        </Node>
      </Node>
    </BinaryTree>
    <BinaryTree type="DecisionTree" boostWeight="1.0000000000000000e+00" itree="812">
      <Node pos="s" depth="0" NCoef="0" IVar="8" Cut="4.1274887323379517e-01" cType="1" res="-3.7852665409445763e-03" rms="4.5922219753265381e-01" purity="4.9378246068954468e-01" nType="0">
        <Node pos="l" depth="1" NCoef="0" IVar="3" Cut="8.1765896081924438e-01" cType="1" res="-8.8899368420243263e-03" rms="4.5967671275138855e-01" purity="4.8043259978294373e-01" nType="0">
          <Node pos="l" depth="2" NCoef="0" IVar="-1" Cut="0.0000000000000000e+00" cType="1" res="8.6410908261314034e-04" rms="4.5673981308937073e-01" purity="5.9027308225631714e-01" nType="-99"/>
          <Node pos="r" depth="2" NCoef="0" IVar="-1" Cut="0.0000000000000000e+00" cType="1" res="-3.5445526009425521e-04" rms="4.5973587036132812e-01" purity="4.7240465879440308e-01" nType="-99"/>
        </Node>
        <Node pos="r" depth="1" NCoef="0" IVar="-1" Cut="0.0000000000000000e+00" cType="1" res="1.3783676549792290e-03" rms="4.4904220104217529e-01" purity="6.5608918666839600e-01" nType="-99"/>
      </Node>
    </BinaryTree>
    <BinaryTree type="DecisionTree" boostWeight="1.0000000000000000e+00" itree="813">
      <Node pos="s" depth="0" NCoef="0" IVar="1" Cut="9.6744447946548462e-01" cType="1" res="-6.1292541213333607e-03" rms="4.5618954300880432e-01" purity="4.9302005767822266e-01" nType="0">
        <Node pos="l" depth="1" NCoef="0" IVar="3" Cut="3.2104551792144775e+00" cType="1" res="-1.6898948699235916e-02" rms="4.6350964903831482e-01" purity="3.7304553389549255e-01" nType="0">
          <Node pos="l" depth="2" NCoef="0" IVar="-1" Cut="0.0000000000000000e+00" cType="1" res="-6.8981113145127892e-04" rms="4.6622163057327271e-01" purity="3.8420623540878296e-01" nType="-99"/>
          <Node pos="r" depth="2" NCoef="0" IVar="-1" Cut="0.0000000000000000e+00" cType="1" res="1.0372282704338431e-03" rms="4.3688899278640747e-01" purity="2.7425500750541687e-01" nType="-99"/>
        </Node>
        <Node pos="r" depth="1" NCoef="0" IVar="6" Cut="9.5330470800399780e-01" cType="1" res="1.1834196746349335e-02" rms="4.4312924146652222e-01" purity="6.9313305616378784e-01" nType="0">
          <Node pos="l" depth="2" NCoef="0" IVar="-1" Cut="0.0000000000000000e+00" cType="1" res="-2.6197740226052701e-04" rms="4.6033692359924316e-01" purity="6.4370542764663696e-01" nType="-99"/>
          <Node pos="r" depth="2" NCoef="0" IVar="-1" Cut="0.0000000000000000e+00" cType="1" res="6.4330804161727428e-04" rms="4.3055310845375061e-01" purity="7.2618126869201660e-01" nType="-99"/>
        </Node>
      </Node>
    </BinaryTree>
    <BinaryTree type="DecisionTree" boostWeight="1.0000000000000000e+00" itree="814">
      <Node pos="s" depth="0" NCoef="0" IVar="2" Cut="4.6450954675674438e-01" cType="1" res="-1.1907729785889387e-03" rms="4.6064081788063049e-01" purity="4.9487531185150146e-01" nType="0">
        <Node pos="l" depth="1" NCoef="0" IVar="5" Cut="4.5127268880605698e-02" cType="1" res="-2.9148643836379051e-02" rms="4.5503914356231689e-01" purity="3.9712965488433838e-01" nType="0">
          <Node pos="l" depth="2" NCoef="0" IVar="-1" Cut="0.0000000000000000e+00" cType="1" res="-1.7865722766146064e-03" rms="4.4926032423973083e-01" purity="3.5791420936584473e-01" nType="-99"/>
          <Node pos="r" depth="2" NCoef="0" IVar="-1" Cut="0.0000000000000000e+00" cType="1" res="3.1514084548689425e-04" rms="4.6265453100204468e-01" purity="4.6840235590934753e-01" nType="-99"/>
        </Node>
        <Node pos="r" depth="1" NCoef="0" IVar="3" Cut="2.4015963077545166e+00" cType="1" res="5.4598404094576836e-03" rms="4.6171414852142334e-01" purity="5.1812702417373657e-01" nType="0">
          <Node pos="l" depth="2" NCoef="0" IVar="-1" Cut="0.0000000000000000e+00" cType="1" res="-2.3406952095683664e-04" rms="4.6137410402297974e-01" purity="5.4304295778274536e-01" nType="-99"/>
          <Node pos="r" depth="2" NCoef="0" IVar="-1" Cut="0.0000000000000000e+00" cType="1" res="6.6755147418007255e-04" rms="4.6153071522712708e-01" purity="4.8650243878364563e-01" nType="-99"/>
        </Node>
      </Node>
    </BinaryTree>
    <BinaryTree type="DecisionTree" boostWeight="1.0000000000000000e+00" itree="815">
      <Node pos="s" depth="0" NCoef="0" IVar="0" Cut="1.3471270751953125e+02" cType="1" res="-1.7777832908905111e-05" rms="4.6124050021171570e-01" purity="4.9305248260498047e-01" nType="0">
        <Node pos="l" depth="1" NCoef="0" IVar="3" Cut="2.4533138275146484e+00" cType="1" res="1.0638995096087456e-02" rms="4.6247744560241699e-01" purity="5.2910709381103516e-01" nType="0">
          <Node pos="l" depth="2" NCoef="0" IVar="-1" Cut="0.0000000000000000e+00" cType="1" res="-2.6268423880537739e-06" rms="4.5912736654281616e-01" purity="5.3323125839233398e-01" nType="-99"/>
          <Node pos="r" depth="2" NCoef="0" IVar="-1" Cut="0.0000000000000000e+00" cType="1" res="1.6092137666419148e-03" rms="4.7411537170410156e-01" purity="5.1084893941879272e-01" nType="-99"/>
        </Node>
        <Node pos="r" depth="1" NCoef="0" IVar="4" Cut="1.1417413330078125e+02" cType="1" res="-9.0476237237453461e-03" rms="4.5999661087989807e-01" purity="4.6250221133232117e-01" nType="0">
          <Node pos="l" depth="2" NCoef="0" IVar="-1" Cut="0.0000000000000000e+00" cType="1" res="-1.3944556703791022e-03" rms="4.4367364048957825e-01" purity="3.3591088652610779e-01" nType="-99"/>
          <Node pos="r" depth="2" NCoef="0" IVar="-1" Cut="0.0000000000000000e+00" cType="1" res="-9.7306408861186355e-05" rms="4.6308806538581848e-01" purity="4.8861157894134521e-01" nType="-99"/>
        </Node>
      </Node>
    </BinaryTree>
    <BinaryTree type="DecisionTree" boostWeight="1.0000000000000000e+00" itree="816">
      <Node pos="s" depth="0" NCoef="0" IVar="6" Cut="9.8392933607101440e-01" cType="1" res="-8.4874924505129457e-04" rms="4.5757526159286499e-01" purity="4.9758309125900269e-01" nType="0">
        <Node pos="l" depth="1" NCoef="0" IVar="1" Cut="-1.1618784666061401e+00" cType="1" res="-7.5796064920723438e-03" rms="4.5724254846572876e-01" purity="4.8149704933166504e-01" nType="0">
          <Node pos="l" depth="2" NCoef="0" IVar="-1" Cut="0.0000000000000000e+00" cType="1" res="-1.7782241338863969e-03" rms="4.1373139619827271e-01" purity="2.4048738181591034e-01" nType="-99"/>
          <Node pos="r" depth="2" NCoef="0" IVar="-1" Cut="0.0000000000000000e+00" cType="1" res="-3.4274769859621301e-05" rms="4.6655726432800293e-01" purity="5.3755313158035278e-01" nType="-99"/>
        </Node>
        <Node pos="r" depth="1" NCoef="0" IVar="9" Cut="7.2923548519611359e-02" cType="1" res="1.8517093732953072e-02" rms="4.5797982811927795e-01" purity="5.4386544227600098e-01" nType="0">
          <Node pos="l" depth="2" NCoef="0" IVar="-1" Cut="0.0000000000000000e+00" cType="1" res="1.0136592900380492e-03" rms="4.5791372656822205e-01" purity="5.4469114542007446e-01" nType="-99"/>
          <Node pos="r" depth="2" NCoef="0" IVar="-1" Cut="0.0000000000000000e+00" cType="1" res="2.1142463083378971e-05" rms="4.5729821920394897e-01" purity="5.4314523935317993e-01" nType="-99"/>
        </Node>
      </Node>
    </BinaryTree>
    <BinaryTree type="DecisionTree" boostWeight="1.0000000000000000e+00" itree="817">
      <Node pos="s" depth="0" NCoef="0" IVar="3" Cut="3.0921654701232910e+00" cType="1" res="6.6656265407800674e-03" rms="4.6094626188278198e-01" purity="5.0201612710952759e-01" nType="0">
        <Node pos="l" depth="1" NCoef="0" IVar="3" Cut="2.0862731933593750e+00" cType="1" res="1.1427606455981731e-02" rms="4.6399161219596863e-01" purity="5.2403283119201660e-01" nType="0">
          <Node pos="l" depth="2" NCoef="0" IVar="-1" Cut="0.0000000000000000e+00" cType="1" res="3.4006046917056665e-05" rms="4.5742210745811462e-01" purity="5.5249249935150146e-01" nType="-99"/>
          <Node pos="r" depth="2" NCoef="0" IVar="-1" Cut="0.0000000000000000e+00" cType="1" res="6.1645242385566235e-04" rms="4.7038933634757996e-01" purity="4.9492281675338745e-01" nType="-99"/>
        </Node>
        <Node pos="r" depth="1" NCoef="0" IVar="0" Cut="2.1717779541015625e+02" cType="1" res="-2.4005027487874031e-02" rms="4.3959379196166992e-01" purity="3.6021193861961365e-01" nType="0">
          <Node pos="l" depth="2" NCoef="0" IVar="-1" Cut="0.0000000000000000e+00" cType="1" res="1.1979962437180802e-05" rms="4.5092749595642090e-01" purity="4.0161654353141785e-01" nType="-99"/>
          <Node pos="r" depth="2" NCoef="0" IVar="-1" Cut="0.0000000000000000e+00" cType="1" res="-1.5932222595438361e-03" rms="4.3045443296432495e-01" purity="3.3058053255081177e-01" nType="-99"/>
        </Node>
      </Node>
    </BinaryTree>
    <BinaryTree type="DecisionTree" boostWeight="1.0000000000000000e+00" itree="818">
      <Node pos="s" depth="0" NCoef="0" IVar="5" Cut="-2.1167673170566559e-02" cType="1" res="4.3676947243511677e-03" rms="4.6118855476379395e-01" purity="4.9988090991973877e-01" nType="0">
        <Node pos="l" depth="1" NCoef="0" IVar="2" Cut="4.7113713622093201e-01" cType="1" res="-1.1589062400162220e-02" rms="4.5423707365989685e-01" purity="4.6652597188949585e-01" nType="0">
          <Node pos="l" depth="2" NCoef="0" IVar="-1" Cut="0.0000000000000000e+00" cType="1" res="-2.8486591763794422e-03" rms="4.3070647120475769e-01" purity="3.1650575995445251e-01" nType="-99"/>
          <Node pos="r" depth="2" NCoef="0" IVar="-1" Cut="0.0000000000000000e+00" cType="1" res="1.0160076635656878e-04" rms="4.5808696746826172e-01" purity="5.0072717666625977e-01" nType="-99"/>
        </Node>
        <Node pos="r" depth="1" NCoef="0" IVar="2" Cut="4.8762598633766174e-01" cType="1" res="1.4365448616445065e-02" rms="4.6521234512329102e-01" purity="5.2077960968017578e-01" nType="0">
          <Node pos="l" depth="2" NCoef="0" IVar="-1" Cut="0.0000000000000000e+00" cType="1" res="1.2928009964525700e-03" rms="4.7000050544738770e-01" purity="4.9576655030250549e-01" nType="-99"/>
          <Node pos="r" depth="2" NCoef="0" IVar="-1" Cut="0.0000000000000000e+00" cType="1" res="5.9823189076269045e-05" rms="4.6280524134635925e-01" purity="5.3022164106369019e-01" nType="-99"/>
        </Node>
      </Node>
    </BinaryTree>
    <BinaryTree type="DecisionTree" boostWeight="1.0000000000000000e+00" itree="819">
      <Node pos="s" depth="0" NCoef="0" IVar="4" Cut="3.7873245239257812e+02" cType="1" res="3.4353858791291714e-03" rms="4.5949357748031616e-01" purity="5.0129204988479614e-01" nType="0">
        <Node pos="l" depth="1" NCoef="0" IVar="8" Cut="3.5922777652740479e-01" cType="1" res="-6.6820401116274297e-05" rms="4.5845848321914673e-01" purity="4.9210500717163086e-01" nType="0">
          <Node pos="l" depth="2" NCoef="0" IVar="-1" Cut="0.0000000000000000e+00" cType="1" res="-1.0863009374588728e-03" rms="4.5419552922248840e-01" purity="4.0957167744636536e-01" nType="-99"/>
          <Node pos="r" depth="2" NCoef="0" IVar="-1" Cut="0.0000000000000000e+00" cType="1" res="1.5192387218121439e-04" rms="4.5890042185783386e-01" purity="5.0532811880111694e-01" nType="-99"/>
        </Node>
        <Node pos="r" depth="1" NCoef="0" IVar="-1" Cut="0.0000000000000000e+00" cType="1" res="1.2626604875549674e-03" rms="4.7091823816299438e-01" purity="6.2841504812240601e-01" nType="-99"/>
      </Node>
    </BinaryTree>
    <BinaryTree type="DecisionTree" boostWeight="1.0000000000000000e+00" itree="820">
      <Node pos="s" depth="0" NCoef="0" IVar="3" Cut="9.2412334680557251e-01" cType="1" res="5.0569362938404083e-03" rms="4.6062788367271423e-01" purity="5.0010961294174194e-01" nType="0">
        <Node pos="l" depth="1" NCoef="0" IVar="-1" Cut="0.0000000000000000e+00" cType="1" res="1.1647650972008705e-03" rms="4.4932398200035095e-01" purity="6.1987906694412231e-01" nType="-99"/>
        <Node pos="r" depth="1" NCoef="0" IVar="8" Cut="4.0340763330459595e-01" cType="1" res="9.7127392655238509e-04" rms="4.6151933073997498e-01" purity="4.8836174607276917e-01" nType="0">
          <Node pos="l" depth="2" NCoef="0" IVar="-1" Cut="0.0000000000000000e+00" cType="1" res="-1.5812661149539053e-04" rms="4.6007287502288818e-01" purity="4.6597570180892944e-01" nType="-99"/>
          <Node pos="r" depth="2" NCoef="0" IVar="-1" Cut="0.0000000000000000e+00" cType="1" res="6.9273868575692177e-04" rms="4.6645271778106689e-01" purity="5.7905656099319458e-01" nType="-99"/>
        </Node>
      </Node>
    </BinaryTree>
    <BinaryTree type="DecisionTree" boostWeight="1.0000000000000000e+00" itree="821">
      <Node pos="s" depth="0" NCoef="0" IVar="3" Cut="8.1815397739410400e-01" cType="1" res="3.0312375165522099e-03" rms="4.5865687727928162e-01" purity="5.0110310316085815e-01" nType="0">
        <Node pos="l" depth="1" NCoef="0" IVar="-1" Cut="0.0000000000000000e+00" cType="1" res="1.0982424719259143e-03" rms="4.4158750772476196e-01" purity="6.2353712320327759e-01" nType="-99"/>
        <Node pos="r" depth="1" NCoef="0" IVar="5" Cut="7.3807737790048122e-03" cType="1" res="-2.5696948796394281e-05" rms="4.5975109934806824e-01" purity="4.9201840162277222e-01" nType="0">
          <Node pos="l" depth="2" NCoef="0" IVar="-1" Cut="0.0000000000000000e+00" cType="1" res="-2.6943755801767111e-04" rms="4.5743811130523682e-01" purity="4.7783082723617554e-01" nType="-99"/>
          <Node pos="r" depth="2" NCoef="0" IVar="-1" Cut="0.0000000000000000e+00" cType="1" res="3.8780516479164362e-04" rms="4.6295887231826782e-01" purity="5.1400196552276611e-01" nType="-99"/>
        </Node>
      </Node>
    </BinaryTree>
    <BinaryTree type="DecisionTree" boostWeight="1.0000000000000000e+00" itree="822">
      <Node pos="s" depth="0" NCoef="0" IVar="0" Cut="8.7629280090332031e+01" cType="1" res="6.1642639338970184e-03" rms="4.6228390932083130e-01" purity="5.0069272518157959e-01" nType="0">
        <Node pos="l" depth="1" NCoef="0" IVar="9" Cut="5.8877117931842804e-02" cType="1" res="-1.7248833552002907e-02" rms="4.6211102604866028e-01" purity="4.7894540429115295e-01" nType="0">
          <Node pos="l" depth="2" NCoef="0" IVar="-1" Cut="0.0000000000000000e+00" cType="1" res="-1.7667193897068501e-03" rms="4.6206611394882202e-01" purity="4.1319185495376587e-01" nType="-99"/>
          <Node pos="r" depth="2" NCoef="0" IVar="-1" Cut="0.0000000000000000e+00" cType="1" res="1.2861224604421295e-05" rms="4.6102035045623779e-01" purity="5.0795805454254150e-01" nType="-99"/>
        </Node>
        <Node pos="r" depth="1" NCoef="0" IVar="3" Cut="1.2945202589035034e+00" cType="1" res="1.0917133651673794e-02" rms="4.6217417716979980e-01" purity="5.0510746240615845e-01" nType="0">
          <Node pos="l" depth="2" NCoef="0" IVar="-1" Cut="0.0000000000000000e+00" cType="1" res="1.3963512610644102e-03" rms="4.3741157650947571e-01" purity="7.0049339532852173e-01" nType="-99"/>
          <Node pos="r" depth="2" NCoef="0" IVar="-1" Cut="0.0000000000000000e+00" cType="1" res="1.9336899276822805e-04" rms="4.6411177515983582e-01" purity="4.8744875192642212e-01" nType="-99"/>
        </Node>
      </Node>
    </BinaryTree>
    <BinaryTree type="DecisionTree" boostWeight="1.0000000000000000e+00" itree="823">
      <Node pos="s" depth="0" NCoef="0" IVar="0" Cut="1.7119245910644531e+02" cType="1" res="-7.7097392932046205e-06" rms="4.6033814549446106e-01" purity="4.9748325347900391e-01" nType="0">
        <Node pos="l" depth="1" NCoef="0" IVar="0" Cut="8.6519157409667969e+01" cType="1" res="1.0167353786528111e-02" rms="4.6209666132926941e-01" purity="5.2673780918121338e-01" nType="0">
          <Node pos="l" depth="2" NCoef="0" IVar="-1" Cut="0.0000000000000000e+00" cType="1" res="-4.9916125135496259e-04" rms="4.6107172966003418e-01" purity="4.8372137546539307e-01" nType="-99"/>
          <Node pos="r" depth="2" NCoef="0" IVar="-1" Cut="0.0000000000000000e+00" cType="1" res="5.4612860549241304e-04" rms="4.6206223964691162e-01" purity="5.4216229915618896e-01" nType="-99"/>
        </Node>
        <Node pos="r" depth="1" NCoef="0" IVar="6" Cut="9.8380726575851440e-01" cType="1" res="-1.7472103238105774e-02" rms="4.5677602291107178e-01" purity="4.4727101922035217e-01" nType="0">
          <Node pos="l" depth="2" NCoef="0" IVar="-1" Cut="0.0000000000000000e+00" cType="1" res="-9.5072755357250571e-04" rms="4.5519793033599854e-01" purity="4.2389005422592163e-01" nType="-99"/>
          <Node pos="r" depth="2" NCoef="0" IVar="-1" Cut="0.0000000000000000e+00" cType="1" res="5.1916972734034061e-04" rms="4.5940607786178589e-01" purity="5.1513600349426270e-01" nType="-99"/>
        </Node>
      </Node>
    </BinaryTree>
    <BinaryTree type="DecisionTree" boostWeight="1.0000000000000000e+00" itree="824">
      <Node pos="s" depth="0" NCoef="0" IVar="8" Cut="3.2690647244453430e-01" cType="1" res="6.6543919965624809e-03" rms="4.6110394597053528e-01" purity="5.0377923250198364e-01" nType="0">
        <Node pos="l" depth="1" NCoef="0" IVar="-1" Cut="0.0000000000000000e+00" cType="1" res="-1.4389223651960492e-03" rms="4.6656730771064758e-01" purity="4.1184398531913757e-01" nType="-99"/>
        <Node pos="r" depth="1" NCoef="0" IVar="5" Cut="7.4131049215793610e-02" cType="1" res="9.7863627597689629e-03" rms="4.6058768033981323e-01" purity="5.0923317670822144e-01" nType="0">
          <Node pos="l" depth="2" NCoef="0" IVar="-1" Cut="0.0000000000000000e+00" cType="1" res="1.5363942657131702e-04" rms="4.5979693531990051e-01" purity="5.0566303730010986e-01" nType="-99"/>
          <Node pos="r" depth="2" NCoef="0" IVar="-1" Cut="0.0000000000000000e+00" cType="1" res="1.3383250916376710e-03" rms="4.6592926979064941e-01" purity="5.4247486591339111e-01" nType="-99"/>
        </Node>
      </Node>
    </BinaryTree>
    <BinaryTree type="DecisionTree" boostWeight="1.0000000000000000e+00" itree="825">
      <Node pos="s" depth="0" NCoef="0" IVar="6" Cut="9.5600354671478271e-01" cType="1" res="2.3946261499077082e-03" rms="4.5875117182731628e-01" purity="5.0060117244720459e-01" nType="0">
        <Node pos="l" depth="1" NCoef="0" IVar="5" Cut="5.2286010235548019e-02" cType="1" res="1.9078493118286133e-02" rms="4.6279430389404297e-01" purity="4.9020674824714661e-01" nType="0">
          <Node pos="l" depth="2" NCoef="0" IVar="-1" Cut="0.0000000000000000e+00" cType="1" res="3.7300022086128592e-04" rms="4.6009460091590881e-01" purity="4.8345878720283508e-01" nType="-99"/>
          <Node pos="r" depth="2" NCoef="0" IVar="-1" Cut="0.0000000000000000e+00" cType="1" res="1.2566063087433577e-03" rms="4.7499465942382812e-01" purity="5.2409613132476807e-01" nType="-99"/>
        </Node>
        <Node pos="r" depth="1" NCoef="0" IVar="6" Cut="9.6865963935852051e-01" cType="1" res="-1.1861060746014118e-02" rms="4.5478340983390808e-01" purity="5.0948268175125122e-01" nType="0">
          <Node pos="l" depth="2" NCoef="0" IVar="-1" Cut="0.0000000000000000e+00" cType="1" res="-1.7018873477354646e-03" rms="4.5441374182701111e-01" purity="4.4904798269271851e-01" nType="-99"/>
          <Node pos="r" depth="2" NCoef="0" IVar="-1" Cut="0.0000000000000000e+00" cType="1" res="-1.4115448720986024e-05" rms="4.5422703027725220e-01" purity="5.2610552310943604e-01" nType="-99"/>
        </Node>
      </Node>
    </BinaryTree>
    <BinaryTree type="DecisionTree" boostWeight="1.0000000000000000e+00" itree="826">
      <Node pos="s" depth="0" NCoef="0" IVar="4" Cut="1.1567221069335938e+02" cType="1" res="4.5812004245817661e-03" rms="4.6156564354896545e-01" purity="5.0156855583190918e-01" nType="0">
        <Node pos="l" depth="1" NCoef="0" IVar="8" Cut="3.8373792171478271e-01" cType="1" res="-1.1612970381975174e-02" rms="4.5837876200675964e-01" purity="4.0199977159500122e-01" nType="0">
          <Node pos="l" depth="2" NCoef="0" IVar="-1" Cut="0.0000000000000000e+00" cType="1" res="-2.1522834431380033e-03" rms="4.2049413919448853e-01" purity="3.0174404382705688e-01" nType="-99"/>
          <Node pos="r" depth="2" NCoef="0" IVar="-1" Cut="0.0000000000000000e+00" cType="1" res="2.1454318357427837e-06" rms="4.6784421801567078e-01" purity="4.3026649951934814e-01" nType="-99"/>
        </Node>
        <Node pos="r" depth="1" NCoef="0" IVar="7" Cut="7.9736895859241486e-02" cType="1" res="1.0147958993911743e-02" rms="4.6252509951591492e-01" purity="5.3579539060592651e-01" nType="0">
          <Node pos="l" depth="2" NCoef="0" IVar="-1" Cut="0.0000000000000000e+00" cType="1" res="1.0876025044126436e-04" rms="4.5985391736030579e-01" purity="5.4782438278198242e-01" nType="-99"/>
          <Node pos="r" depth="2" NCoef="0" IVar="-1" Cut="0.0000000000000000e+00" cType="1" res="6.2483799410983920e-04" rms="4.6782475709915161e-01" purity="5.1052898168563843e-01" nType="-99"/>
        </Node>
      </Node>
    </BinaryTree>
    <BinaryTree type="DecisionTree" boostWeight="1.0000000000000000e+00" itree="827">
      <Node pos="s" depth="0" NCoef="0" IVar="6" Cut="9.1663229465484619e-01" cType="1" res="3.1965472735464573e-03" rms="4.5765146613121033e-01" purity="5.0182008743286133e-01" nType="0">
        <Node pos="l" depth="1" NCoef="0" IVar="9" Cut="6.7800953984260559e-02" cType="1" res="-4.0908876806497574e-02" rms="4.5116189122200012e-01" purity="4.0520849823951721e-01" nType="0">
          <Node pos="l" depth="2" NCoef="0" IVar="-1" Cut="0.0000000000000000e+00" cType="1" res="-2.4938714341260493e-04" rms="4.5617493987083435e-01" purity="4.2170214653015137e-01" nType="-99"/>
          <Node pos="r" depth="2" NCoef="0" IVar="-1" Cut="0.0000000000000000e+00" cType="1" res="-2.3402760270982981e-03" rms="4.4393157958984375e-01" purity="3.8911628723144531e-01" nType="-99"/>
        </Node>
        <Node pos="r" depth="1" NCoef="0" IVar="3" Cut="1.2274930477142334e+00" cType="1" res="8.3480691537261009e-03" rms="4.5812657475471497e-01" purity="5.1310431957244873e-01" nType="0">
          <Node pos="l" depth="2" NCoef="0" IVar="-1" Cut="0.0000000000000000e+00" cType="1" res="9.7055546939373016e-04" rms="4.4856527447700500e-01" purity="6.1981999874114990e-01" nType="-99"/>
          <Node pos="r" depth="2" NCoef="0" IVar="-1" Cut="0.0000000000000000e+00" cType="1" res="6.6694643464870751e-05" rms="4.5979061722755432e-01" purity="4.9163141846656799e-01" nType="-99"/>
        </Node>
      </Node>
    </BinaryTree>
    <BinaryTree type="DecisionTree" boostWeight="1.0000000000000000e+00" itree="828">
      <Node pos="s" depth="0" NCoef="0" IVar="3" Cut="1.5875312089920044e+00" cType="1" res="8.1625524908304214e-03" rms="4.6009269356727600e-01" purity="5.0644689798355103e-01" nType="0">
        <Node pos="l" depth="1" NCoef="0" IVar="0" Cut="1.0471221160888672e+02" cType="1" res="3.0524579808115959e-02" rms="4.5284545421600342e-01" purity="6.0170954465866089e-01" nType="0">
          <Node pos="l" depth="2" NCoef="0" IVar="-1" Cut="0.0000000000000000e+00" cType="1" res="9.4022238044999540e-05" rms="4.5869535207748413e-01" purity="5.4038375616073608e-01" nType="-99"/>
          <Node pos="r" depth="2" NCoef="0" IVar="-1" Cut="0.0000000000000000e+00" cType="1" res="1.8017481779679656e-03" rms="4.3850225210189819e-01" purity="7.0861995220184326e-01" nType="-99"/>
        </Node>
        <Node pos="r" depth="1" NCoef="0" IVar="6" Cut="9.4072872400283813e-01" cType="1" res="-5.1150529179722071e-04" rms="4.6258240938186646e-01" purity="4.6949529647827148e-01" nType="0">
          <Node pos="l" depth="2" NCoef="0" IVar="-1" Cut="0.0000000000000000e+00" cType="1" res="6.4088799990713596e-04" rms="4.6543854475021362e-01" purity="4.6095815300941467e-01" nType="-99"/>
          <Node pos="r" depth="2" NCoef="0" IVar="-1" Cut="0.0000000000000000e+00" cType="1" res="-3.3116806298494339e-04" rms="4.6085223555564880e-01" purity="4.7348943352699280e-01" nType="-99"/>
        </Node>
      </Node>
    </BinaryTree>
    <BinaryTree type="DecisionTree" boostWeight="1.0000000000000000e+00" itree="829">
      <Node pos="s" depth="0" NCoef="0" IVar="6" Cut="9.9010354280471802e-01" cType="1" res="8.1972908228635788e-03" rms="4.6109652519226074e-01" purity="5.0570261478424072e-01" nType="0">
        <Node pos="l" depth="1" NCoef="0" IVar="0" Cut="2.9529287719726562e+02" cType="1" res="1.8702775705605745e-03" rms="4.6147137880325317e-01" purity="4.9309763312339783e-01" nType="0">
          <Node pos="l" depth="2" NCoef="0" IVar="-1" Cut="0.0000000000000000e+00" cType="1" res="1.7131413915194571e-04" rms="4.6312731504440308e-01" purity="5.0234168767929077e-01" nType="-99"/>
          <Node pos="r" depth="2" NCoef="0" IVar="-1" Cut="0.0000000000000000e+00" cType="1" res="-1.0416299337521195e-03" rms="4.4657105207443237e-01" purity="4.1919603943824768e-01" nType="-99"/>
        </Node>
        <Node pos="r" depth="1" NCoef="0" IVar="8" Cut="3.7954980134963989e-01" cType="1" res="4.0195040404796600e-02" rms="4.5785883069038391e-01" purity="5.6945031881332397e-01" nType="0">
          <Node pos="l" depth="2" NCoef="0" IVar="-1" Cut="0.0000000000000000e+00" cType="1" res="2.5295972591266036e-04" rms="4.7294199466705322e-01" purity="5.0534385442733765e-01" nType="-99"/>
          <Node pos="r" depth="2" NCoef="0" IVar="-1" Cut="0.0000000000000000e+00" cType="1" res="1.3553203316405416e-03" rms="4.5028477907180786e-01" purity="5.9800010919570923e-01" nType="-99"/>
        </Node>
      </Node>
    </BinaryTree>
    <BinaryTree type="DecisionTree" boostWeight="1.0000000000000000e+00" itree="830">
      <Node pos="s" depth="0" NCoef="0" IVar="7" Cut="-4.5147750526666641e-02" cType="1" res="-2.2358757269103080e-04" rms="4.5791488885879517e-01" purity="4.9886819720268250e-01" nType="0">
        <Node pos="l" depth="1" NCoef="0" IVar="-1" Cut="0.0000000000000000e+00" cType="1" res="1.0270704515278339e-03" rms="4.5535245537757874e-01" purity="5.8511453866958618e-01" nType="-99"/>
        <Node pos="r" depth="1" NCoef="0" IVar="2" Cut="3.7432143092155457e-01" cType="1" res="-3.8341439794749022e-03" rms="4.5797529816627502e-01" purity="4.9104899168014526e-01" nType="0">
          <Node pos="l" depth="2" NCoef="0" IVar="-1" Cut="0.0000000000000000e+00" cType="1" res="-1.5235729515552521e-03" rms="4.4475263357162476e-01" purity="3.8660719990730286e-01" nType="-99"/>
          <Node pos="r" depth="2" NCoef="0" IVar="-1" Cut="0.0000000000000000e+00" cType="1" res="-3.2563075365033001e-05" rms="4.5867025852203369e-01" purity="4.9769109487533569e-01" nType="-99"/>
        </Node>
      </Node>
    </BinaryTree>
    <BinaryTree type="DecisionTree" boostWeight="1.0000000000000000e+00" itree="831">
      <Node pos="s" depth="0" NCoef="0" IVar="2" Cut="3.8647001981735229e-01" cType="1" res="-4.9189822748303413e-03" rms="4.5911467075347900e-01" purity="4.9260580539703369e-01" nType="0">
        <Node pos="l" depth="1" NCoef="0" IVar="-1" Cut="0.0000000000000000e+00" cType="1" res="-1.6780565492808819e-03" rms="4.4577381014823914e-01" purity="3.8132220506668091e-01" nType="-99"/>
        <Node pos="r" depth="1" NCoef="0" IVar="0" Cut="7.1795944213867188e+01" cType="1" res="-1.4583584852516651e-03" rms="4.5993408560752869e-01" purity="5.0110399723052979e-01" nType="0">
          <Node pos="l" depth="2" NCoef="0" IVar="-1" Cut="0.0000000000000000e+00" cType="1" res="-1.0612788610160351e-03" rms="4.6270230412483215e-01" purity="4.6240922808647156e-01" nType="-99"/>
          <Node pos="r" depth="2" NCoef="0" IVar="-1" Cut="0.0000000000000000e+00" cType="1" res="6.9220513978507370e-05" rms="4.5946177840232849e-01" purity="5.0542438030242920e-01" nType="-99"/>
        </Node>
      </Node>
    </BinaryTree>
    <BinaryTree type="DecisionTree" boostWeight="1.0000000000000000e+00" itree="832">
      <Node pos="s" depth="0" NCoef="0" IVar="1" Cut="7.3637962341308594e-01" cType="1" res="-4.2295351158827543e-04" rms="4.6210920810699463e-01" purity="4.9622213840484619e-01" nType="0">
        <Node pos="l" depth="1" NCoef="0" IVar="9" Cut="4.6445868909358978e-02" cType="1" res="9.4107072800397873e-03" rms="4.6655896306037903e-01" purity="3.8913157582283020e-01" nType="0">
          <Node pos="l" depth="2" NCoef="0" IVar="-1" Cut="0.0000000000000000e+00" cType="1" res="1.1582425795495510e-03" rms="4.6636089682579041e-01" purity="3.8049748539924622e-01" nType="-99"/>
          <Node pos="r" depth="2" NCoef="0" IVar="-1" Cut="0.0000000000000000e+00" cType="1" res="9.2414611572166905e-06" rms="4.6630495786666870e-01" purity="3.9236015081405640e-01" nType="-99"/>
        </Node>
        <Node pos="r" depth="1" NCoef="0" IVar="4" Cut="1.1844134521484375e+02" cType="1" res="-1.4710671268403530e-02" rms="4.5518806576728821e-01" purity="6.5181821584701538e-01" nType="0">
          <Node pos="l" depth="2" NCoef="0" IVar="-1" Cut="0.0000000000000000e+00" cType="1" res="-1.2248265556991100e-03" rms="4.7204032540321350e-01" purity="5.6363177299499512e-01" nType="-99"/>
          <Node pos="r" depth="2" NCoef="0" IVar="-1" Cut="0.0000000000000000e+00" cType="1" res="-1.2467261694837362e-04" rms="4.4982659816741943e-01" purity="6.7689013481140137e-01" nType="-99"/>
        </Node>
      </Node>
    </BinaryTree>
    <BinaryTree type="DecisionTree" boostWeight="1.0000000000000000e+00" itree="833">
      <Node pos="s" depth="0" NCoef="0" IVar="0" Cut="9.3550895690917969e+01" cType="1" res="1.3340503210201859e-03" rms="4.5859968662261963e-01" purity="4.9756535887718201e-01" nType="0">
        <Node pos="l" depth="1" NCoef="0" IVar="5" Cut="-3.7849821150302887e-02" cType="1" res="-2.1744677796959877e-02" rms="4.5878267288208008e-01" purity="4.8461928963661194e-01" nType="0">
          <Node pos="l" depth="2" NCoef="0" IVar="-1" Cut="0.0000000000000000e+00" cType="1" res="6.3421769300475717e-04" rms="4.5586439967155457e-01" purity="5.0745731592178345e-01" nType="-99"/>
          <Node pos="r" depth="2" NCoef="0" IVar="-1" Cut="0.0000000000000000e+00" cType="1" res="-1.1167246848344803e-03" rms="4.5874044299125671e-01" purity="4.7576677799224854e-01" nType="-99"/>
        </Node>
        <Node pos="r" depth="1" NCoef="0" IVar="7" Cut="-3.9054974913597107e-02" cType="1" res="7.0519549772143364e-03" rms="4.5837476849555969e-01" purity="5.0077283382415771e-01" nType="0">
          <Node pos="l" depth="2" NCoef="0" IVar="-1" Cut="0.0000000000000000e+00" cType="1" res="1.1228636140003800e-03" rms="4.5875945687294006e-01" purity="5.8481824398040771e-01" nType="-99"/>
          <Node pos="r" depth="2" NCoef="0" IVar="-1" Cut="0.0000000000000000e+00" cType="1" res="8.7222928414121270e-05" rms="4.5815578103065491e-01" purity="4.9122545123100281e-01" nType="-99"/>
        </Node>
      </Node>
    </BinaryTree>
    <BinaryTree type="DecisionTree" boostWeight="1.0000000000000000e+00" itree="834">
      <Node pos="s" depth="0" NCoef="0" IVar="3" Cut="2.2655849456787109e+00" cType="1" res="3.1427529174834490e-03" rms="4.6190235018730164e-01" purity="4.9936866760253906e-01" nType="0">
        <Node pos="l" depth="1" NCoef="0" IVar="6" Cut="9.1816848516464233e-01" cType="1" res="-9.6406508237123489e-03" rms="4.5935130119323730e-01" purity="5.3775626420974731e-01" nType="0">
          <Node pos="l" depth="2" NCoef="0" IVar="-1" Cut="0.0000000000000000e+00" cType="1" res="-1.6068487893790007e-03" rms="4.6012717485427856e-01" purity="4.3870341777801514e-01" nType="-99"/>
          <Node pos="r" depth="2" NCoef="0" IVar="-1" Cut="0.0000000000000000e+00" cType="1" res="-1.0389779345132411e-04" rms="4.5893114805221558e-01" purity="5.5035644769668579e-01" nType="-99"/>
        </Node>
        <Node pos="r" depth="1" NCoef="0" IVar="0" Cut="1.3340602111816406e+02" cType="1" res="1.5821436420083046e-02" rms="4.6407094597816467e-01" purity="4.6129554510116577e-01" nType="0">
          <Node pos="l" depth="2" NCoef="0" IVar="-1" Cut="0.0000000000000000e+00" cType="1" res="1.7237899592146277e-03" rms="4.6793469786643982e-01" purity="5.2755343914031982e-01" nType="-99"/>
          <Node pos="r" depth="2" NCoef="0" IVar="-1" Cut="0.0000000000000000e+00" cType="1" res="8.2065766036976129e-05" rms="4.6214038133621216e-01" purity="4.4325825572013855e-01" nType="-99"/>
        </Node>
      </Node>
    </BinaryTree>
    <BinaryTree type="DecisionTree" boostWeight="1.0000000000000000e+00" itree="835">
      <Node pos="s" depth="0" NCoef="0" IVar="0" Cut="1.5784434509277344e+02" cType="1" res="4.2610522359609604e-03" rms="4.6158528327941895e-01" purity="5.0032526254653931e-01" nType="0">
        <Node pos="l" depth="1" NCoef="0" IVar="0" Cut="1.0086436462402344e+02" cType="1" res="1.5648074448108673e-02" rms="4.6204593777656555e-01" purity="5.3383654356002808e-01" nType="0">
          <Node pos="l" depth="2" NCoef="0" IVar="-1" Cut="0.0000000000000000e+00" cType="1" res="-1.3135696644894779e-04" rms="4.6508067846298218e-01" purity="4.9965140223503113e-01" nType="-99"/>
          <Node pos="r" depth="2" NCoef="0" IVar="-1" Cut="0.0000000000000000e+00" cType="1" res="8.0203602556139231e-04" rms="4.5930254459381104e-01" purity="5.5834519863128662e-01" nType="-99"/>
        </Node>
        <Node pos="r" depth="1" NCoef="0" IVar="4" Cut="3.0443469238281250e+02" cType="1" res="-1.0909502394497395e-02" rms="4.6053364872932434e-01" purity="4.5567926764488220e-01" nType="0">
          <Node pos="l" depth="2" NCoef="0" IVar="-1" Cut="0.0000000000000000e+00" cType="1" res="-6.3829548889771104e-04" rms="4.5721942186355591e-01" purity="4.3066224455833435e-01" nType="-99"/>
          <Node pos="r" depth="2" NCoef="0" IVar="-1" Cut="0.0000000000000000e+00" cType="1" res="8.4460410289466381e-04" rms="4.7398203611373901e-01" purity="5.7934713363647461e-01" nType="-99"/>
        </Node>
      </Node>
    </BinaryTree>
    <BinaryTree type="DecisionTree" boostWeight="1.0000000000000000e+00" itree="836">
      <Node pos="s" depth="0" NCoef="0" IVar="3" Cut="2.9885354042053223e+00" cType="1" res="-4.0083234198391438e-03" rms="4.5938426256179810e-01" purity="4.9293625354766846e-01" nType="0">
        <Node pos="l" depth="1" NCoef="0" IVar="2" Cut="6.2766790390014648e-01" cType="1" res="2.4772395845502615e-03" rms="4.6317666769027710e-01" purity="5.2063387632369995e-01" nType="0">
          <Node pos="l" depth="2" NCoef="0" IVar="-1" Cut="0.0000000000000000e+00" cType="1" res="4.2394758202135563e-04" rms="4.6724042296409607e-01" purity="4.9072405695915222e-01" nType="-99"/>
          <Node pos="r" depth="2" NCoef="0" IVar="-1" Cut="0.0000000000000000e+00" cType="1" res="-4.0062502375803888e-04" rms="4.5711004734039307e-01" purity="5.6078481674194336e-01" nType="-99"/>
        </Node>
        <Node pos="r" depth="1" NCoef="0" IVar="9" Cut="5.1871575415134430e-02" cType="1" res="-3.4317154437303543e-02" rms="4.3996378779411316e-01" purity="3.6349788308143616e-01" nType="0">
          <Node pos="l" depth="2" NCoef="0" IVar="-1" Cut="0.0000000000000000e+00" cType="1" res="-2.7621167246252298e-03" rms="4.2938423156738281e-01" purity="2.9682743549346924e-01" nType="-99"/>
          <Node pos="r" depth="2" NCoef="0" IVar="-1" Cut="0.0000000000000000e+00" cType="1" res="-5.0435628509148955e-04" rms="4.4507205486297607e-01" purity="4.0346816182136536e-01" nType="-99"/>
        </Node>
      </Node>
    </BinaryTree>
    <BinaryTree type="DecisionTree" boostWeight="1.0000000000000000e+00" itree="837">
      <Node pos="s" depth="0" NCoef="0" IVar="9" Cut="2.0063608884811401e-01" cType="1" res="-6.7856645910069346e-04" rms="4.5865198969841003e-01" purity="4.9644559621810913e-01" nType="0">
        <Node pos="l" depth="1" NCoef="0" IVar="5" Cut="1.1010582558810711e-02" cType="1" res="-4.9280752427875996e-03" rms="4.5890226960182190e-01" purity="4.8508810997009277e-01" nType="0">
          <Node pos="l" depth="2" NCoef="0" IVar="-1" Cut="0.0000000000000000e+00" cType="1" res="-4.3525770888663828e-04" rms="4.5441952347755432e-01" purity="4.7021153569221497e-01" nType="-99"/>
          <Node pos="r" depth="2" NCoef="0" IVar="-1" Cut="0.0000000000000000e+00" cType="1" res="3.2213606755249202e-04" rms="4.6590557694435120e-01" purity="5.1018887758255005e-01" nType="-99"/>
        </Node>
        <Node pos="r" depth="1" NCoef="0" IVar="-1" Cut="0.0000000000000000e+00" cType="1" res="1.0940899373963475e-03" rms="4.5382660627365112e-01" purity="6.1224943399429321e-01" nType="-99"/>
      </Node>
    </BinaryTree>
    <BinaryTree type="DecisionTree" boostWeight="1.0000000000000000e+00" itree="838">
      <Node pos="s" depth="0" NCoef="0" IVar="8" Cut="3.6619299650192261e-01" cType="1" res="2.5329510681331158e-03" rms="4.6114340424537659e-01" purity="4.9969384074211121e-01" nType="0">
        <Node pos="l" depth="1" NCoef="0" IVar="3" Cut="2.2589836120605469e+00" cType="1" res="-2.3097028955817223e-02" rms="4.6042042970657349e-01" purity="4.4113451242446899e-01" nType="0">
          <Node pos="l" depth="2" NCoef="0" IVar="-1" Cut="0.0000000000000000e+00" cType="1" res="-1.1434291955083609e-03" rms="4.6210378408432007e-01" purity="4.7324118018150330e-01" nType="-99"/>
          <Node pos="r" depth="2" NCoef="0" IVar="-1" Cut="0.0000000000000000e+00" cType="1" res="-1.5403654833789915e-04" rms="4.5784553885459900e-01" purity="4.0549838542938232e-01" nType="-99"/>
        </Node>
        <Node pos="r" depth="1" NCoef="0" IVar="0" Cut="1.5672309875488281e+02" cType="1" res="9.0341428294777870e-03" rms="4.6110016107559204e-01" purity="5.1454776525497437e-01" nType="0">
          <Node pos="l" depth="2" NCoef="0" IVar="-1" Cut="0.0000000000000000e+00" cType="1" res="5.8711838210001588e-04" rms="4.5992514491081238e-01" purity="5.5100715160369873e-01" nType="-99"/>
          <Node pos="r" depth="2" NCoef="0" IVar="-1" Cut="0.0000000000000000e+00" cType="1" res="-2.5106937391683459e-04" rms="4.6210664510726929e-01" purity="4.6533080935478210e-01" nType="-99"/>
        </Node>
      </Node>
    </BinaryTree>
    <BinaryTree type="DecisionTree" boostWeight="1.0000000000000000e+00" itree="839">
      <Node pos="s" depth="0" NCoef="0" IVar="3" Cut="8.1631338596343994e-01" cType="1" res="-3.6397757939994335e-03" rms="4.6051910519599915e-01" purity="4.9252176284790039e-01" nType="0">
        <Node pos="l" depth="1" NCoef="0" IVar="-1" Cut="0.0000000000000000e+00" cType="1" res="1.0357501450926065e-03" rms="4.6161720156669617e-01" purity="6.0854071378707886e-01" nType="-99"/>
        <Node pos="r" depth="1" NCoef="0" IVar="7" Cut="4.4024903327226639e-02" cType="1" res="-6.6186310723423958e-03" rms="4.6029213070869446e-01" purity="4.8472714424133301e-01" nType="0">
          <Node pos="l" depth="2" NCoef="0" IVar="-1" Cut="0.0000000000000000e+00" cType="1" res="-5.0189654575660825e-04" rms="4.6113535761833191e-01" purity="5.0139319896697998e-01" nType="-99"/>
          <Node pos="r" depth="2" NCoef="0" IVar="-1" Cut="0.0000000000000000e+00" cType="1" res="1.5180527407210320e-04" rms="4.5906847715377808e-01" purity="4.6628972887992859e-01" nType="-99"/>
        </Node>
      </Node>
    </BinaryTree>
    <BinaryTree type="DecisionTree" boostWeight="1.0000000000000000e+00" itree="840">
      <Node pos="s" depth="0" NCoef="0" IVar="5" Cut="8.9593321084976196e-02" cType="1" res="-4.3901554308831692e-03" rms="4.5771619677543640e-01" purity="4.9618569016456604e-01" nType="0">
        <Node pos="l" depth="1" NCoef="0" IVar="1" Cut="2.6149234771728516e+00" cType="1" res="-7.4850148521363735e-03" rms="4.5673352479934692e-01" purity="4.9459999799728394e-01" nType="0">
          <Node pos="l" depth="2" NCoef="0" IVar="-1" Cut="0.0000000000000000e+00" cType="1" res="-3.4627519198693335e-04" rms="4.6409451961517334e-01" purity="4.5789864659309387e-01" nType="-99"/>
          <Node pos="r" depth="2" NCoef="0" IVar="-1" Cut="0.0000000000000000e+00" cType="1" res="7.3049741331487894e-04" rms="3.8701590895652771e-01" purity="8.0519586801528931e-01" nType="-99"/>
        </Node>
        <Node pos="r" depth="1" NCoef="0" IVar="-1" Cut="0.0000000000000000e+00" cType="1" res="1.0809131199494004e-03" rms="4.6950504183769226e-01" purity="5.1931881904602051e-01" nType="-99"/>
      </Node>
    </BinaryTree>
    <BinaryTree type="DecisionTree" boostWeight="1.0000000000000000e+00" itree="841">
      <Node pos="s" depth="0" NCoef="0" IVar="0" Cut="9.7674392700195312e+01" cType="1" res="6.0761710628867149e-03" rms="4.5906394720077515e-01" purity="5.0607317686080933e-01" nType="0">
        <Node pos="l" depth="1" NCoef="0" IVar="7" Cut="9.0801447629928589e-02" cType="1" res="-1.9422197714447975e-02" rms="4.6250036358833313e-01" purity="4.8712813854217529e-01" nType="0">
          <Node pos="l" depth="2" NCoef="0" IVar="-1" Cut="0.0000000000000000e+00" cType="1" res="-9.4817217905074358e-04" rms="4.6231472492218018e-01" purity="4.8590514063835144e-01" nType="-99"/>
          <Node pos="r" depth="2" NCoef="0" IVar="-1" Cut="0.0000000000000000e+00" cType="1" res="4.2342353845015168e-04" rms="4.6109339594841003e-01" purity="4.9021920561790466e-01" nType="-99"/>
        </Node>
        <Node pos="r" depth="1" NCoef="0" IVar="0" Cut="1.3502645874023438e+02" cType="1" res="1.3276466168463230e-02" rms="4.5783182978630066e-01" purity="5.1142293214797974e-01" nType="0">
          <Node pos="l" depth="2" NCoef="0" IVar="-1" Cut="0.0000000000000000e+00" cType="1" res="1.1081749107688665e-03" rms="4.5264419913291931e-01" purity="5.8978724479675293e-01" nType="-99"/>
          <Node pos="r" depth="2" NCoef="0" IVar="-1" Cut="0.0000000000000000e+00" cType="1" res="-8.2343594840494916e-06" rms="4.5953094959259033e-01" purity="4.7580721974372864e-01" nType="-99"/>
        </Node>
      </Node>
    </BinaryTree>
    <BinaryTree type="DecisionTree" boostWeight="1.0000000000000000e+00" itree="842">
      <Node pos="s" depth="0" NCoef="0" IVar="9" Cut="2.9019933193922043e-02" cType="1" res="1.7873715842142701e-03" rms="4.5944112539291382e-01" purity="5.0060921907424927e-01" nType="0">
        <Node pos="l" depth="1" NCoef="0" IVar="5" Cut="8.8127786293625832e-03" cType="1" res="-4.3345700949430466e-02" rms="4.5105034112930298e-01" purity="4.2991891503334045e-01" nType="0">
          <Node pos="l" depth="2" NCoef="0" IVar="-1" Cut="0.0000000000000000e+00" cType="1" res="-2.3874449543654919e-03" rms="4.4348299503326416e-01" purity="3.7999609112739563e-01" nType="-99"/>
          <Node pos="r" depth="2" NCoef="0" IVar="-1" Cut="0.0000000000000000e+00" cType="1" res="-2.2831506794318557e-04" rms="4.5796957612037659e-01" purity="4.9273920059204102e-01" nType="-99"/>
        </Node>
        <Node pos="r" depth="1" NCoef="0" IVar="8" Cut="3.7794852256774902e-01" cType="1" res="8.9319208636879921e-03" rms="4.6034988760948181e-01" purity="5.1179945468902588e-01" nType="0">
          <Node pos="l" depth="2" NCoef="0" IVar="-1" Cut="0.0000000000000000e+00" cType="1" res="7.7057367889210582e-04" rms="4.6779444813728333e-01" purity="4.9424961209297180e-01" nType="-99"/>
          <Node pos="r" depth="2" NCoef="0" IVar="-1" Cut="0.0000000000000000e+00" cType="1" res="7.4374336691107601e-05" rms="4.5761469006538391e-01" purity="5.1778036355972290e-01" nType="-99"/>
        </Node>
      </Node>
    </BinaryTree>
    <BinaryTree type="DecisionTree" boostWeight="1.0000000000000000e+00" itree="843">
      <Node pos="s" depth="0" NCoef="0" IVar="0" Cut="1.0137241363525391e+02" cType="1" res="-4.7942699166014791e-04" rms="4.5819365978240967e-01" purity="4.9874663352966309e-01" nType="0">
        <Node pos="l" depth="1" NCoef="0" IVar="8" Cut="3.9711716771125793e-01" cType="1" res="-2.0081311464309692e-02" rms="4.6127119660377502e-01" purity="4.8774784803390503e-01" nType="0">
          <Node pos="l" depth="2" NCoef="0" IVar="-1" Cut="0.0000000000000000e+00" cType="1" res="-1.1582936858758330e-03" rms="4.5604661107063293e-01" purity="4.5394027233123779e-01" nType="-99"/>
          <Node pos="r" depth="2" NCoef="0" IVar="-1" Cut="0.0000000000000000e+00" cType="1" res="3.6311431904323399e-04" rms="4.6903258562088013e-01" purity="5.5087107419967651e-01" nType="-99"/>
        </Node>
        <Node pos="r" depth="1" NCoef="0" IVar="3" Cut="1.4366910457611084e+00" cType="1" res="5.6940694339573383e-03" rms="4.5704606175422668e-01" purity="5.0221055746078491e-01" nType="0">
          <Node pos="l" depth="2" NCoef="0" IVar="-1" Cut="0.0000000000000000e+00" cType="1" res="1.3234351063147187e-03" rms="4.3388977646827698e-01" purity="7.0990103483200073e-01" nType="-99"/>
          <Node pos="r" depth="2" NCoef="0" IVar="-1" Cut="0.0000000000000000e+00" cType="1" res="3.7326080928323790e-06" rms="4.5923048257827759e-01" purity="4.7896343469619751e-01" nType="-99"/>
        </Node>
      </Node>
    </BinaryTree>
    <BinaryTree type="DecisionTree" boostWeight="1.0000000000000000e+00" itree="844">
      <Node pos="s" depth="0" NCoef="0" IVar="1" Cut="-1.9411978721618652e+00" cType="1" res="-1.8909787759184837e-03" rms="4.5941945910453796e-01" purity="4.9601501226425171e-01" nType="0">
        <Node pos="l" depth="1" NCoef="0" IVar="-1" Cut="0.0000000000000000e+00" cType="1" res="-2.5844792835414410e-03" rms="4.0780073404312134e-01" purity="2.1326336264610291e-01" nType="-99"/>
        <Node pos="r" depth="1" NCoef="0" IVar="2" Cut="7.7574330568313599e-01" cType="1" res="1.4314497821033001e-03" rms="4.6321719884872437e-01" purity="5.1907199621200562e-01" nType="0">
          <Node pos="l" depth="2" NCoef="0" IVar="-1" Cut="0.0000000000000000e+00" cType="1" res="-1.0915968596236780e-04" rms="4.6581697463989258e-01" purity="4.9656242132186890e-01" nType="-99"/>
          <Node pos="r" depth="2" NCoef="0" IVar="-1" Cut="0.0000000000000000e+00" cType="1" res="8.4347469964995980e-04" rms="4.4501224160194397e-01" purity="6.6103816032409668e-01" nType="-99"/>
        </Node>
      </Node>
    </BinaryTree>
    <BinaryTree type="DecisionTree" boostWeight="1.0000000000000000e+00" itree="845">
      <Node pos="s" depth="0" NCoef="0" IVar="9" Cut="2.7736445888876915e-02" cType="1" res="-1.2309477897360921e-03" rms="4.5972180366516113e-01" purity="4.9887448549270630e-01" nType="0">
        <Node pos="l" depth="1" NCoef="0" IVar="8" Cut="3.6224198341369629e-01" cType="1" res="-3.0967287719249725e-02" rms="4.5606788992881775e-01" purity="4.3220341205596924e-01" nType="0">
          <Node pos="l" depth="2" NCoef="0" IVar="-1" Cut="0.0000000000000000e+00" cType="1" res="-1.6695270314812660e-03" rms="4.5304280519485474e-01" purity="4.0628921985626221e-01" nType="-99"/>
          <Node pos="r" depth="2" NCoef="0" IVar="-1" Cut="0.0000000000000000e+00" cType="1" res="3.8168182072695345e-06" rms="4.5866695046424866e-01" purity="4.6997547149658203e-01" nType="-99"/>
        </Node>
        <Node pos="r" depth="1" NCoef="0" IVar="2" Cut="4.6149298548698425e-01" cType="1" res="3.0473724473267794e-03" rms="4.6008700132369995e-01" purity="5.0846683979034424e-01" nType="0">
          <Node pos="l" depth="2" NCoef="0" IVar="-1" Cut="0.0000000000000000e+00" cType="1" res="1.0194306960329413e-03" rms="4.6173441410064697e-01" purity="4.6882480382919312e-01" nType="-99"/>
          <Node pos="r" depth="2" NCoef="0" IVar="-1" Cut="0.0000000000000000e+00" cType="1" res="-7.9590616223867983e-05" rms="4.5954501628875732e-01" purity="5.1559633016586304e-01" nType="-99"/>
        </Node>
      </Node>
    </BinaryTree>
    <BinaryTree type="DecisionTree" boostWeight="1.0000000000000000e+00" itree="846">
      <Node pos="s" depth="0" NCoef="0" IVar="0" Cut="1.5682652282714844e+02" cType="1" res="9.9200999829918146e-04" rms="4.5874449610710144e-01" purity="4.9869638681411743e-01" nType="0">
        <Node pos="l" depth="1" NCoef="0" IVar="0" Cut="1.1122840881347656e+02" cType="1" res="1.1451474390923977e-02" rms="4.5777666568756104e-01" purity="5.3423917293548584e-01" nType="0">
          <Node pos="l" depth="2" NCoef="0" IVar="-1" Cut="0.0000000000000000e+00" cType="1" res="-2.8066232334822416e-04" rms="4.5628568530082703e-01" purity="5.0590801239013672e-01" nType="-99"/>
          <Node pos="r" depth="2" NCoef="0" IVar="-1" Cut="0.0000000000000000e+00" cType="1" res="9.4933580840006471e-04" rms="4.5824474096298218e-01" purity="5.6674677133560181e-01" nType="-99"/>
        </Node>
        <Node pos="r" depth="1" NCoef="0" IVar="3" Cut="3.0467722415924072e+00" cType="1" res="-1.3436546549201012e-02" rms="4.5968577265739441e-01" purity="4.4966605305671692e-01" nType="0">
          <Node pos="l" depth="2" NCoef="0" IVar="-1" Cut="0.0000000000000000e+00" cType="1" res="-7.2605378227308393e-04" rms="4.6404081583023071e-01" purity="4.7458669543266296e-01" nType="-99"/>
          <Node pos="r" depth="2" NCoef="0" IVar="-1" Cut="0.0000000000000000e+00" cType="1" res="4.3220096267759800e-04" rms="4.4833153486251831e-01" purity="3.9180526137351990e-01" nType="-99"/>
        </Node>
      </Node>
    </BinaryTree>
    <BinaryTree type="DecisionTree" boostWeight="1.0000000000000000e+00" itree="847">
      <Node pos="s" depth="0" NCoef="0" IVar="8" Cut="3.8652750849723816e-01" cType="1" res="-3.6533939419314265e-04" rms="4.6204599738121033e-01" purity="4.9546277523040771e-01" nType="0">
        <Node pos="l" depth="1" NCoef="0" IVar="8" Cut="3.7648862600326538e-01" cType="1" res="1.9653029739856720e-02" rms="4.6492275595664978e-01" purity="4.8957657814025879e-01" nType="0">
          <Node pos="l" depth="2" NCoef="0" IVar="-1" Cut="0.0000000000000000e+00" cType="1" res="2.0435162878129631e-04" rms="4.6674260497093201e-01" purity="4.6707630157470703e-01" nType="-99"/>
          <Node pos="r" depth="2" NCoef="0" IVar="-1" Cut="0.0000000000000000e+00" cType="1" res="1.1669780360534787e-03" rms="4.6046558022499084e-01" purity="5.3241872787475586e-01" nType="-99"/>
        </Node>
        <Node pos="r" depth="1" NCoef="0" IVar="9" Cut="2.0957189798355103e-01" cType="1" res="-1.7086392268538475e-02" rms="4.5896050333976746e-01" purity="5.0037938356399536e-01" nType="0">
          <Node pos="l" depth="2" NCoef="0" IVar="-1" Cut="0.0000000000000000e+00" cType="1" res="-6.5939477644860744e-04" rms="4.6003410220146179e-01" purity="4.8721069097518921e-01" nType="-99"/>
          <Node pos="r" depth="2" NCoef="0" IVar="-1" Cut="0.0000000000000000e+00" cType="1" res="5.7046959409490228e-04" rms="4.4930329918861389e-01" purity="5.9406989812850952e-01" nType="-99"/>
        </Node>
      </Node>
    </BinaryTree>
    <BinaryTree type="DecisionTree" boostWeight="1.0000000000000000e+00" itree="848">
      <Node pos="s" depth="0" NCoef="0" IVar="9" Cut="1.5223483741283417e-01" cType="1" res="6.2337657436728477e-03" rms="4.6058315038681030e-01" purity="5.0418174266815186e-01" nType="0">
        <Node pos="l" depth="1" NCoef="0" IVar="6" Cut="9.1281157732009888e-01" cType="1" res="1.0151537135243416e-03" rms="4.6117863059043884e-01" purity="4.8815229535102844e-01" nType="0">
          <Node pos="l" depth="2" NCoef="0" IVar="-1" Cut="0.0000000000000000e+00" cType="1" res="-9.5721113029867411e-04" rms="4.4510105252265930e-01" purity="4.1285416483879089e-01" nType="-99"/>
          <Node pos="r" depth="2" NCoef="0" IVar="-1" Cut="0.0000000000000000e+00" cType="1" res="1.2392492499202490e-04" rms="4.6264067292213440e-01" purity="4.9575638771057129e-01" nType="-99"/>
        </Node>
        <Node pos="r" depth="1" NCoef="0" IVar="5" Cut="-8.8910078629851341e-03" cType="1" res="3.0093083158135414e-02" rms="4.5709252357482910e-01" purity="5.7746791839599609e-01" nType="0">
          <Node pos="l" depth="2" NCoef="0" IVar="-1" Cut="0.0000000000000000e+00" cType="1" res="1.6028964892029762e-03" rms="4.6121758222579956e-01" purity="5.9637928009033203e-01" nType="-99"/>
          <Node pos="r" depth="2" NCoef="0" IVar="-1" Cut="0.0000000000000000e+00" cType="1" res="-1.7937217489816248e-04" rms="4.4965282082557678e-01" purity="5.5648136138916016e-01" nType="-99"/>
        </Node>
      </Node>
    </BinaryTree>
    <BinaryTree type="DecisionTree" boostWeight="1.0000000000000000e+00" itree="849">
      <Node pos="s" depth="0" NCoef="0" IVar="3" Cut="1.1297984123229980e+00" cType="1" res="9.4970520585775375e-03" rms="4.6008247137069702e-01" purity="5.0621950626373291e-01" nType="0">
        <Node pos="l" depth="1" NCoef="0" IVar="0" Cut="6.4305435180664062e+01" cType="1" res="5.3289093077182770e-02" rms="4.4676503539085388e-01" purity="6.2760233879089355e-01" nType="0">
          <Node pos="l" depth="2" NCoef="0" IVar="-1" Cut="0.0000000000000000e+00" cType="1" res="6.2886206433176994e-04" rms="4.6308615803718567e-01" purity="5.2879524230957031e-01" nType="-99"/>
          <Node pos="r" depth="2" NCoef="0" IVar="-1" Cut="0.0000000000000000e+00" cType="1" res="1.7793788574635983e-03" rms="4.3325644731521606e-01" purity="6.9935816526412964e-01" nType="-99"/>
        </Node>
        <Node pos="r" depth="1" NCoef="0" IVar="4" Cut="3.0190258789062500e+02" cType="1" res="2.0779229234904051e-03" rms="4.6188956499099731e-01" purity="4.8565518856048584e-01" nType="0">
          <Node pos="l" depth="2" NCoef="0" IVar="-1" Cut="0.0000000000000000e+00" cType="1" res="-7.8789998951833695e-05" rms="4.6189948916435242e-01" purity="4.6989488601684570e-01" nType="-99"/>
          <Node pos="r" depth="2" NCoef="0" IVar="-1" Cut="0.0000000000000000e+00" cType="1" res="9.2412100639194250e-04" rms="4.6028375625610352e-01" purity="6.0269618034362793e-01" nType="-99"/>
        </Node>
      </Node>
    </BinaryTree>
    <BinaryTree type="DecisionTree" boostWeight="1.0000000000000000e+00" itree="850">
      <Node pos="s" depth="0" NCoef="0" IVar="0" Cut="2.4988464355468750e+02" cType="1" res="7.9976599663496017e-03" rms="4.5911124348640442e-01" purity="5.0661885738372803e-01" nType="0">
        <Node pos="l" depth="1" NCoef="0" IVar="2" Cut="7.4203103780746460e-01" cType="1" res="1.3862270861864090e-02" rms="4.5958390831947327e-01" purity="5.2162617444992065e-01" nType="0">
          <Node pos="l" depth="2" NCoef="0" IVar="-1" Cut="0.0000000000000000e+00" cType="1" res="2.3697075084783137e-04" rms="4.6321424841880798e-01" purity="4.9439257383346558e-01" nType="-99"/>
          <Node pos="r" depth="2" NCoef="0" IVar="-1" Cut="0.0000000000000000e+00" cType="1" res="9.1407960280776024e-04" rms="4.4378617405891418e-01" purity="6.3259690999984741e-01" nType="-99"/>
        </Node>
        <Node pos="r" depth="1" NCoef="0" IVar="6" Cut="9.6468490362167358e-01" cType="1" res="-2.2649245336651802e-02" rms="4.5540624856948853e-01" purity="4.2819446325302124e-01" nType="0">
          <Node pos="l" depth="2" NCoef="0" IVar="-1" Cut="0.0000000000000000e+00" cType="1" res="-1.4426010602619499e-04" rms="4.5976600050926208e-01" purity="4.2599570751190186e-01" nType="-99"/>
          <Node pos="r" depth="2" NCoef="0" IVar="-1" Cut="0.0000000000000000e+00" cType="1" res="-1.5287491260096431e-03" rms="4.4836524128913879e-01" purity="4.3114024400711060e-01" nType="-99"/>
        </Node>
      </Node>
    </BinaryTree>
    <BinaryTree type="DecisionTree" boostWeight="1.0000000000000000e+00" itree="851">
      <Node pos="s" depth="0" NCoef="0" IVar="4" Cut="7.9310173034667969e+01" cType="1" res="-3.7938111927360296e-03" rms="4.5676583051681519e-01" purity="4.9687653779983521e-01" nType="0">
        <Node pos="l" depth="1" NCoef="0" IVar="-1" Cut="0.0000000000000000e+00" cType="1" res="-2.2275845985859632e-03" rms="4.3288120627403259e-01" purity="3.1976297497749329e-01" nType="-99"/>
        <Node pos="r" depth="1" NCoef="0" IVar="9" Cut="1.9779895246028900e-01" cType="1" res="-4.4640424312092364e-04" rms="4.5796701312065125e-01" purity="5.0766205787658691e-01" nType="0">
          <Node pos="l" depth="2" NCoef="0" IVar="-1" Cut="0.0000000000000000e+00" cType="1" res="-1.1817505583167076e-04" rms="4.5885092020034790e-01" purity="4.9675956368446350e-01" nType="-99"/>
          <Node pos="r" depth="2" NCoef="0" IVar="-1" Cut="0.0000000000000000e+00" cType="1" res="9.9443329963833094e-04" rms="4.4641193747520447e-01" purity="6.2506872415542603e-01" nType="-99"/>
        </Node>
      </Node>
    </BinaryTree>
    <BinaryTree type="DecisionTree" boostWeight="1.0000000000000000e+00" itree="852">
      <Node pos="s" depth="0" NCoef="0" IVar="8" Cut="3.7343442440032959e-01" cType="1" res="7.3349648155272007e-03" rms="4.5957884192466736e-01" purity="5.0302678346633911e-01" nType="0">
        <Node pos="l" depth="1" NCoef="0" IVar="1" Cut="-1.0798331499099731e+00" cType="1" res="-1.0016252286732197e-02" rms="4.5867747068405151e-01" purity="4.5256140828132629e-01" nType="0">
          <Node pos="l" depth="2" NCoef="0" IVar="-1" Cut="0.0000000000000000e+00" cType="1" res="-2.1882471628487110e-03" rms="4.0764227509498596e-01" purity="2.2302605211734772e-01" nType="-99"/>
          <Node pos="r" depth="2" NCoef="0" IVar="-1" Cut="0.0000000000000000e+00" cType="1" res="-4.1173563658958301e-05" rms="4.7175425291061401e-01" purity="5.1741796731948853e-01" nType="-99"/>
        </Node>
        <Node pos="r" depth="1" NCoef="0" IVar="9" Cut="1.1372257024049759e-01" cType="1" res="1.3414749875664711e-02" rms="4.5973935723304749e-01" purity="5.2070963382720947e-01" nType="0">
          <Node pos="l" depth="2" NCoef="0" IVar="-1" Cut="0.0000000000000000e+00" cType="1" res="5.9077754849568009e-04" rms="4.6338123083114624e-01" purity="5.0697833299636841e-01" nType="-99"/>
          <Node pos="r" depth="2" NCoef="0" IVar="-1" Cut="0.0000000000000000e+00" cType="1" res="4.7048455598996952e-05" rms="4.5391952991485596e-01" purity="5.4149597883224487e-01" nType="-99"/>
        </Node>
      </Node>
    </BinaryTree>
    <BinaryTree type="DecisionTree" boostWeight="1.0000000000000000e+00" itree="853">
      <Node pos="s" depth="0" NCoef="0" IVar="3" Cut="1.1264237165451050e+00" cType="1" res="1.0228043538518250e-04" rms="4.6032485365867615e-01" purity="4.9695336818695068e-01" nType="0">
        <Node pos="l" depth="1" NCoef="0" IVar="1" Cut="2.9959702491760254e-01" cType="1" res="3.0106009915471077e-02" rms="4.5982572436332703e-01" purity="5.9833854436874390e-01" nType="0">
          <Node pos="l" depth="2" NCoef="0" IVar="-1" Cut="0.0000000000000000e+00" cType="1" res="1.5218937769532204e-03" rms="4.7747978568077087e-01" purity="4.8775532841682434e-01" nType="-99"/>
          <Node pos="r" depth="2" NCoef="0" IVar="-1" Cut="0.0000000000000000e+00" cType="1" res="1.5541468746960163e-04" rms="4.4190657138824463e-01" purity="6.9846183061599731e-01" nType="-99"/>
        </Node>
        <Node pos="r" depth="1" NCoef="0" IVar="2" Cut="4.0010145306587219e-01" cType="1" res="-4.7524627298116684e-03" rms="4.6022173762321472e-01" purity="4.8054879903793335e-01" nType="0">
          <Node pos="l" depth="2" NCoef="0" IVar="-1" Cut="0.0000000000000000e+00" cType="1" res="1.1921081459149718e-03" rms="4.6124663949012756e-01" purity="4.6300101280212402e-01" nType="-99"/>
          <Node pos="r" depth="2" NCoef="0" IVar="-1" Cut="0.0000000000000000e+00" cType="1" res="-2.7908498304896057e-04" rms="4.5985087752342224e-01" purity="4.8237088322639465e-01" nType="-99"/>
        </Node>
      </Node>
    </BinaryTree>
    <BinaryTree type="DecisionTree" boostWeight="1.0000000000000000e+00" itree="854">
      <Node pos="s" depth="0" NCoef="0" IVar="0" Cut="9.5221405029296875e+01" cType="1" res="-2.2392338141798973e-03" rms="4.5805114507675171e-01" purity="4.9759390950202942e-01" nType="0">
        <Node pos="l" depth="1" NCoef="0" IVar="4" Cut="1.0493493652343750e+02" cType="1" res="-2.0588388666510582e-02" rms="4.5837381482124329e-01" purity="4.8806327581405640e-01" nType="0">
          <Node pos="l" depth="2" NCoef="0" IVar="-1" Cut="0.0000000000000000e+00" cType="1" res="-1.6857677837833762e-03" rms="4.3988144397735596e-01" purity="3.7990701198577881e-01" nType="-99"/>
          <Node pos="r" depth="2" NCoef="0" IVar="-1" Cut="0.0000000000000000e+00" cType="1" res="-2.0433067402336746e-04" rms="4.6571630239486694e-01" purity="5.3581160306930542e-01" nType="-99"/>
        </Node>
        <Node pos="r" depth="1" NCoef="0" IVar="3" Cut="1.4905414581298828e+00" cType="1" res="2.6825387030839920e-03" rms="4.5783948898315430e-01" purity="5.0015032291412354e-01" nType="0">
          <Node pos="l" depth="2" NCoef="0" IVar="-1" Cut="0.0000000000000000e+00" cType="1" res="1.3372328830882907e-03" rms="4.3610781431198120e-01" purity="6.9737678766250610e-01" nType="-99"/>
          <Node pos="r" depth="2" NCoef="0" IVar="-1" Cut="0.0000000000000000e+00" cType="1" res="-1.5568683738820255e-04" rms="4.6050104498863220e-01" purity="4.7041472792625427e-01" nType="-99"/>
        </Node>
      </Node>
    </BinaryTree>
    <BinaryTree type="DecisionTree" boostWeight="1.0000000000000000e+00" itree="855">
      <Node pos="s" depth="0" NCoef="0" IVar="6" Cut="9.9321722984313965e-01" cType="1" res="7.0439167320728302e-03" rms="4.6378821134567261e-01" purity="5.0292730331420898e-01" nType="0">
        <Node pos="l" depth="1" NCoef="0" IVar="7" Cut="-4.1032787412405014e-02" cType="1" res="2.9189444612711668e-03" rms="4.6384626626968384e-01" purity="4.9526447057723999e-01" nType="0">
          <Node pos="l" depth="2" NCoef="0" IVar="-1" Cut="0.0000000000000000e+00" cType="1" res="1.0108207352459431e-03" rms="4.4724959135055542e-01" purity="5.8183616399765015e-01" nType="-99"/>
          <Node pos="r" depth="2" NCoef="0" IVar="-1" Cut="0.0000000000000000e+00" cType="1" res="-2.4749753720243461e-05" rms="4.6534565091133118e-01" purity="4.8640933632850647e-01" nType="-99"/>
        </Node>
        <Node pos="r" depth="1" NCoef="0" IVar="9" Cut="8.1184893846511841e-02" cType="1" res="3.9287168532609940e-02" rms="4.6206685900688171e-01" purity="5.6282430887222290e-01" nType="0">
          <Node pos="l" depth="2" NCoef="0" IVar="-1" Cut="0.0000000000000000e+00" cType="1" res="1.6983514651656151e-03" rms="4.6470877528190613e-01" purity="5.6777489185333252e-01" nType="-99"/>
          <Node pos="r" depth="2" NCoef="0" IVar="-1" Cut="0.0000000000000000e+00" cType="1" res="2.8592839953489602e-04" rms="4.5760387182235718e-01" purity="5.5775660276412964e-01" nType="-99"/>
        </Node>
      </Node>
    </BinaryTree>
    <BinaryTree type="DecisionTree" boostWeight="1.0000000000000000e+00" itree="856">
      <Node pos="s" depth="0" NCoef="0" IVar="0" Cut="2.2618695068359375e+02" cType="1" res="3.0417400412261486e-03" rms="4.6057552099227905e-01" purity="5.0049585103988647e-01" nType="0">
        <Node pos="l" depth="1" NCoef="0" IVar="8" Cut="3.9874979853630066e-01" cType="1" res="-3.7611057050526142e-03" rms="4.5943430066108704e-01" purity="5.0595647096633911e-01" nType="0">
          <Node pos="l" depth="2" NCoef="0" IVar="-1" Cut="0.0000000000000000e+00" cType="1" res="-3.3631210681051016e-04" rms="4.5961380004882812e-01" purity="4.8113775253295898e-01" nType="-99"/>
          <Node pos="r" depth="2" NCoef="0" IVar="-1" Cut="0.0000000000000000e+00" cType="1" res="3.7842046003788710e-04" rms="4.5852196216583252e-01" purity="5.6304752826690674e-01" nType="-99"/>
        </Node>
        <Node pos="r" depth="1" NCoef="0" IVar="1" Cut="-3.9783832430839539e-01" cType="1" res="2.7226969599723816e-02" rms="4.6380284428596497e-01" purity="4.8108249902725220e-01" nType="0">
          <Node pos="l" depth="2" NCoef="0" IVar="-1" Cut="0.0000000000000000e+00" cType="1" res="2.4660436902195215e-03" rms="4.5559653639793396e-01" purity="3.3825042843818665e-01" nType="-99"/>
          <Node pos="r" depth="2" NCoef="0" IVar="-1" Cut="0.0000000000000000e+00" cType="1" res="2.4197626044042408e-04" rms="4.6721005439758301e-01" purity="5.5804049968719482e-01" nType="-99"/>
        </Node>
      </Node>
    </BinaryTree>
    <BinaryTree type="DecisionTree" boostWeight="1.0000000000000000e+00" itree="857">
      <Node pos="s" depth="0" NCoef="0" IVar="1" Cut="2.4308764934539795e+00" cType="1" res="9.6286125481128693e-03" rms="4.5843324065208435e-01" purity="5.1020389795303345e-01" nType="0">
        <Node pos="l" depth="1" NCoef="0" IVar="2" Cut="8.0349582433700562e-01" cType="1" res="4.7475523315370083e-03" rms="4.6798059344291687e-01" purity="4.6697336435317993e-01" nType="0">
          <Node pos="l" depth="2" NCoef="0" IVar="-1" Cut="0.0000000000000000e+00" cType="1" res="2.6088961021741852e-05" rms="4.6792349219322205e-01" purity="4.5138436555862427e-01" nType="-99"/>
          <Node pos="r" depth="2" NCoef="0" IVar="-1" Cut="0.0000000000000000e+00" cType="1" res="9.4254483701661229e-04" rms="4.6709546446800232e-01" purity="6.0506337881088257e-01" nType="-99"/>
        </Node>
        <Node pos="r" depth="1" NCoef="0" IVar="-1" Cut="0.0000000000000000e+00" cType="1" res="1.0596887441352010e-03" rms="3.8418439030647278e-01" purity="8.0960094928741455e-01" nType="-99"/>
      </Node>
    </BinaryTree>
    <BinaryTree type="DecisionTree" boostWeight="1.0000000000000000e+00" itree="858">
      <Node pos="s" depth="0" NCoef="0" IVar="6" Cut="9.7154623270034790e-01" cType="1" res="-4.4081793166697025e-03" rms="4.5800152420997620e-01" purity="4.9296107888221741e-01" nType="0">
        <Node pos="l" depth="1" NCoef="0" IVar="7" Cut="-1.3117656111717224e-02" cType="1" res="-1.4124244451522827e-02" rms="4.5854353904724121e-01" purity="4.6305164694786072e-01" nType="0">
          <Node pos="l" depth="2" NCoef="0" IVar="-1" Cut="0.0000000000000000e+00" cType="1" res="3.8260413566604257e-04" rms="4.6398454904556274e-01" purity="5.3369539976119995e-01" nType="-99"/>
          <Node pos="r" depth="2" NCoef="0" IVar="-1" Cut="0.0000000000000000e+00" cType="1" res="-6.6757533932104707e-04" rms="4.5669251680374146e-01" purity="4.4323983788490295e-01" nType="-99"/>
        </Node>
        <Node pos="r" depth="1" NCoef="0" IVar="8" Cut="3.9031240344047546e-01" cType="1" res="1.0199517011642456e-02" rms="4.5679664611816406e-01" purity="5.3792870044708252e-01" nType="0">
          <Node pos="l" depth="2" NCoef="0" IVar="-1" Cut="0.0000000000000000e+00" cType="1" res="-5.4859548981767148e-05" rms="4.5614024996757507e-01" purity="5.0661277770996094e-01" nType="-99"/>
          <Node pos="r" depth="2" NCoef="0" IVar="-1" Cut="0.0000000000000000e+00" cType="1" res="6.0213205870240927e-04" rms="4.5713260769844055e-01" purity="5.6944203376770020e-01" nType="-99"/>
        </Node>
      </Node>
    </BinaryTree>
    <BinaryTree type="DecisionTree" boostWeight="1.0000000000000000e+00" itree="859">
      <Node pos="s" depth="0" NCoef="0" IVar="1" Cut="1.7161520719528198e+00" cType="1" res="4.0907096117734909e-03" rms="4.5603060722351074e-01" purity="5.0612461566925049e-01" nType="0">
        <Node pos="l" depth="1" NCoef="0" IVar="4" Cut="2.9214755249023438e+02" cType="1" res="-1.7037913203239441e-03" rms="4.6674889326095581e-01" purity="4.3304473161697388e-01" nType="0">
          <Node pos="l" depth="2" NCoef="0" IVar="-1" Cut="0.0000000000000000e+00" cType="1" res="-2.0013205357827246e-04" rms="4.6483504772186279e-01" purity="4.1793960332870483e-01" nType="-99"/>
          <Node pos="r" depth="2" NCoef="0" IVar="-1" Cut="0.0000000000000000e+00" cType="1" res="8.2030508201569319e-04" rms="4.7870090603828430e-01" purity="5.3984773159027100e-01" nType="-99"/>
        </Node>
        <Node pos="r" depth="1" NCoef="0" IVar="9" Cut="6.2649808824062347e-02" cType="1" res="2.3810403421521187e-02" rms="4.1689488291740417e-01" purity="7.5482809543609619e-01" nType="0">
          <Node pos="l" depth="2" NCoef="0" IVar="-1" Cut="0.0000000000000000e+00" cType="1" res="9.1382593382149935e-05" rms="4.3988588452339172e-01" purity="7.0568001270294189e-01" nType="-99"/>
          <Node pos="r" depth="2" NCoef="0" IVar="-1" Cut="0.0000000000000000e+00" cType="1" res="8.7445374811068177e-04" rms="4.0084666013717651e-01" purity="7.8652334213256836e-01" nType="-99"/>
        </Node>
      </Node>
    </BinaryTree>
    <BinaryTree type="DecisionTree" boostWeight="1.0000000000000000e+00" itree="860">
      <Node pos="s" depth="0" NCoef="0" IVar="2" Cut="7.8628331422805786e-01" cType="1" res="5.5798785760998726e-03" rms="4.6137237548828125e-01" purity="5.0328904390335083e-01" nType="0">
        <Node pos="l" depth="1" NCoef="0" IVar="6" Cut="9.2509478330612183e-01" cType="1" res="1.2613303260877728e-03" rms="4.6400129795074463e-01" purity="4.8386067152023315e-01" nType="0">
          <Node pos="l" depth="2" NCoef="0" IVar="-1" Cut="0.0000000000000000e+00" cType="1" res="7.5373437721282244e-04" rms="4.5917353034019470e-01" purity="4.7377917170524597e-01" nType="-99"/>
          <Node pos="r" depth="2" NCoef="0" IVar="-1" Cut="0.0000000000000000e+00" cType="1" res="-1.1519551480887458e-04" rms="4.6479606628417969e-01" purity="4.8590084910392761e-01" nType="-99"/>
        </Node>
        <Node pos="r" depth="1" NCoef="0" IVar="3" Cut="2.1558401584625244e+00" cType="1" res="3.5694643855094910e-02" rms="4.4143319129943848e-01" purity="6.3877046108245850e-01" nType="0">
          <Node pos="l" depth="2" NCoef="0" IVar="-1" Cut="0.0000000000000000e+00" cType="1" res="5.1459285896271467e-04" rms="4.3134906888008118e-01" purity="6.6279643774032593e-01" nType="-99"/>
          <Node pos="r" depth="2" NCoef="0" IVar="-1" Cut="0.0000000000000000e+00" cType="1" res="1.2910973746329546e-03" rms="4.5119234919548035e-01" purity="6.1358410120010376e-01" nType="-99"/>
        </Node>
      </Node>
    </BinaryTree>
    <BinaryTree type="DecisionTree" boostWeight="1.0000000000000000e+00" itree="861">
      <Node pos="s" depth="0" NCoef="0" IVar="0" Cut="1.2936134338378906e+02" cType="1" res="3.7987553514540195e-03" rms="4.6134504675865173e-01" purity="5.0135189294815063e-01" nType="0">
        <Node pos="l" depth="1" NCoef="0" IVar="0" Cut="1.1131549835205078e+02" cType="1" res="2.3441677913069725e-02" rms="4.5908361673355103e-01" purity="5.4689431190490723e-01" nType="0">
          <Node pos="l" depth="2" NCoef="0" IVar="-1" Cut="0.0000000000000000e+00" cType="1" res="2.6214917306788266e-04" rms="4.5919772982597351e-01" purity="5.2807468175888062e-01" nType="-99"/>
          <Node pos="r" depth="2" NCoef="0" IVar="-1" Cut="0.0000000000000000e+00" cType="1" res="1.5117395669221878e-03" rms="4.5697024464607239e-01" purity="5.9426051378250122e-01" nType="-99"/>
        </Node>
        <Node pos="r" depth="1" NCoef="0" IVar="1" Cut="1.4123688638210297e-01" cType="1" res="-1.1670632287859917e-02" rms="4.6253141760826111e-01" purity="4.6548578143119812e-01" nType="0">
          <Node pos="l" depth="2" NCoef="0" IVar="-1" Cut="0.0000000000000000e+00" cType="1" res="1.2049925135215744e-04" rms="4.5485770702362061e-01" purity="3.3425021171569824e-01" nType="-99"/>
          <Node pos="r" depth="2" NCoef="0" IVar="-1" Cut="0.0000000000000000e+00" cType="1" res="-6.3684786437079310e-04" rms="4.6895396709442139e-01" purity="5.8408093452453613e-01" nType="-99"/>
        </Node>
      </Node>
    </BinaryTree>
    <BinaryTree type="DecisionTree" boostWeight="1.0000000000000000e+00" itree="862">
      <Node pos="s" depth="0" NCoef="0" IVar="2" Cut="5.4990273714065552e-01" cType="1" res="-1.1451648315414786e-03" rms="4.6051591634750366e-01" purity="4.9546709656715393e-01" nType="0">
        <Node pos="l" depth="1" NCoef="0" IVar="9" Cut="5.3950890898704529e-02" cType="1" res="1.2963703833520412e-02" rms="4.6122443675994873e-01" purity="4.5416045188903809e-01" nType="0">
          <Node pos="l" depth="2" NCoef="0" IVar="-1" Cut="0.0000000000000000e+00" cType="1" res="-1.4814219321124256e-04" rms="4.6109971404075623e-01" purity="4.3457302451133728e-01" nType="-99"/>
          <Node pos="r" depth="2" NCoef="0" IVar="-1" Cut="0.0000000000000000e+00" cType="1" res="9.7541342256590724e-04" rms="4.6046403050422668e-01" purity="4.7769728302955627e-01" nType="-99"/>
        </Node>
        <Node pos="r" depth="1" NCoef="0" IVar="0" Cut="8.7702827453613281e+01" cType="1" res="-1.0880094021558762e-02" rms="4.5977404713630676e-01" purity="5.2396810054779053e-01" nType="0">
          <Node pos="l" depth="2" NCoef="0" IVar="-1" Cut="0.0000000000000000e+00" cType="1" res="-1.1965327430516481e-03" rms="4.5917740464210510e-01" purity="4.9000978469848633e-01" nType="-99"/>
          <Node pos="r" depth="2" NCoef="0" IVar="-1" Cut="0.0000000000000000e+00" cType="1" res="-1.3074440357740968e-04" rms="4.5964273810386658e-01" purity="5.3081309795379639e-01" nType="-99"/>
        </Node>
      </Node>
    </BinaryTree>
    <BinaryTree type="DecisionTree" boostWeight="1.0000000000000000e+00" itree="863">
      <Node pos="s" depth="0" NCoef="0" IVar="5" Cut="-1.6536286100745201e-02" cType="1" res="2.3034334299154580e-04" rms="4.5911335945129395e-01" purity="4.9832394719123840e-01" nType="0">
        <Node pos="l" depth="1" NCoef="0" IVar="2" Cut="4.5720592141151428e-01" cType="1" res="1.2270528823137283e-02" rms="4.5611742138862610e-01" purity="4.9640429019927979e-01" nType="0">
          <Node pos="l" depth="2" NCoef="0" IVar="-1" Cut="0.0000000000000000e+00" cType="1" res="-1.6480663325637579e-03" rms="4.4137069582939148e-01" purity="3.4402537345886230e-01" nType="-99"/>
          <Node pos="r" depth="2" NCoef="0" IVar="-1" Cut="0.0000000000000000e+00" cType="1" res="6.3416158081963658e-04" rms="4.5786818861961365e-01" purity="5.2307063341140747e-01" nType="-99"/>
        </Node>
        <Node pos="r" depth="1" NCoef="0" IVar="7" Cut="8.7616637349128723e-02" cType="1" res="-8.9157475158572197e-03" rms="4.6116614341735840e-01" purity="4.9978214502334595e-01" nType="0">
          <Node pos="l" depth="2" NCoef="0" IVar="-1" Cut="0.0000000000000000e+00" cType="1" res="-6.1111757531762123e-04" rms="4.6005609631538391e-01" purity="5.0170761346817017e-01" nType="-99"/>
          <Node pos="r" depth="2" NCoef="0" IVar="-1" Cut="0.0000000000000000e+00" cType="1" res="6.0587213374674320e-04" rms="4.6250587701797485e-01" purity="4.9498239159584045e-01" nType="-99"/>
        </Node>
      </Node>
    </BinaryTree>
    <BinaryTree type="DecisionTree" boostWeight="1.0000000000000000e+00" itree="864">
      <Node pos="s" depth="0" NCoef="0" IVar="4" Cut="1.0045272064208984e+02" cType="1" res="-3.4793189261108637e-03" rms="4.5945087075233459e-01" purity="4.9552196264266968e-01" nType="0">
        <Node pos="l" depth="1" NCoef="0" IVar="3" Cut="1.9219758510589600e+00" cType="1" res="-3.9914999157190323e-02" rms="4.4659847021102905e-01" purity="3.5827100276947021e-01" nType="0">
          <Node pos="l" depth="2" NCoef="0" IVar="-1" Cut="0.0000000000000000e+00" cType="1" res="-2.7501583099365234e-03" rms="4.3914833664894104e-01" purity="3.6680704355239868e-01" nType="-99"/>
          <Node pos="r" depth="2" NCoef="0" IVar="-1" Cut="0.0000000000000000e+00" cType="1" res="-6.6754344152286649e-04" rms="4.4937017560005188e-01" purity="3.5337534546852112e-01" nType="-99"/>
        </Node>
        <Node pos="r" depth="1" NCoef="0" IVar="9" Cut="1.1682092398405075e-01" cType="1" res="3.5532561596482992e-03" rms="4.6155932545661926e-01" purity="5.2201324701309204e-01" nType="0">
          <Node pos="l" depth="2" NCoef="0" IVar="-1" Cut="0.0000000000000000e+00" cType="1" res="-2.0873152243439108e-04" rms="4.6143251657485962e-01" purity="4.9251303076744080e-01" nType="-99"/>
          <Node pos="r" depth="2" NCoef="0" IVar="-1" Cut="0.0000000000000000e+00" cType="1" res="8.4356847219169140e-04" rms="4.6062111854553223e-01" purity="6.0169768333435059e-01" nType="-99"/>
        </Node>
      </Node>
    </BinaryTree>
    <BinaryTree type="DecisionTree" boostWeight="1.0000000000000000e+00" itree="865">
      <Node pos="s" depth="0" NCoef="0" IVar="7" Cut="-6.9991569034755230e-03" cType="1" res="3.8949181325733662e-03" rms="4.6082583069801331e-01" purity="5.0020372867584229e-01" nType="0">
        <Node pos="l" depth="1" NCoef="0" IVar="1" Cut="1.1361877918243408e+00" cType="1" res="-2.2866679355502129e-02" rms="4.5908045768737793e-01" purity="5.1919370889663696e-01" nType="0">
          <Node pos="l" depth="2" NCoef="0" IVar="-1" Cut="0.0000000000000000e+00" cType="1" res="-1.0286663891747594e-03" rms="4.7031611204147339e-01" purity="4.1372108459472656e-01" nType="-99"/>
          <Node pos="r" depth="2" NCoef="0" IVar="-1" Cut="0.0000000000000000e+00" cType="1" res="-1.9304236047901213e-05" rms="4.3389686942100525e-01" purity="7.3906064033508301e-01" nType="-99"/>
        </Node>
        <Node pos="r" depth="1" NCoef="0" IVar="6" Cut="9.7148185968399048e-01" cType="1" res="1.3097249902784824e-02" rms="4.6106570959091187e-01" purity="4.9367383122444153e-01" nType="0">
          <Node pos="l" depth="2" NCoef="0" IVar="-1" Cut="0.0000000000000000e+00" cType="1" res="6.6768574470188469e-05" rms="4.6062177419662476e-01" purity="4.6529999375343323e-01" nType="-99"/>
          <Node pos="r" depth="2" NCoef="0" IVar="-1" Cut="0.0000000000000000e+00" cType="1" res="8.0579007044434547e-04" rms="4.6125516295433044e-01" purity="5.3641790151596069e-01" nType="-99"/>
        </Node>
      </Node>
    </BinaryTree>
    <BinaryTree type="DecisionTree" boostWeight="1.0000000000000000e+00" itree="866">
      <Node pos="s" depth="0" NCoef="0" IVar="3" Cut="1.0276105403900146e+00" cType="1" res="4.5015695504844189e-03" rms="4.5985051989555359e-01" purity="5.0189101696014404e-01" nType="0">
        <Node pos="l" depth="1" NCoef="0" IVar="-1" Cut="0.0000000000000000e+00" cType="1" res="1.0066953254863620e-03" rms="4.5338249206542969e-01" purity="6.0969507694244385e-01" nType="-99"/>
        <Node pos="r" depth="1" NCoef="0" IVar="9" Cut="1.9150143861770630e-01" cType="1" res="-2.7164994389750063e-04" rms="4.6049782633781433e-01" purity="4.8748967051506042e-01" nType="0">
          <Node pos="l" depth="2" NCoef="0" IVar="-1" Cut="0.0000000000000000e+00" cType="1" res="-1.4601142902392894e-04" rms="4.6134305000305176e-01" purity="4.7471916675567627e-01" nType="-99"/>
          <Node pos="r" depth="2" NCoef="0" IVar="-1" Cut="0.0000000000000000e+00" cType="1" res="1.0948932031169534e-03" rms="4.5052668452262878e-01" purity="6.0329329967498779e-01" nType="-99"/>
        </Node>
      </Node>
    </BinaryTree>
    <BinaryTree type="DecisionTree" boostWeight="1.0000000000000000e+00" itree="867">
      <Node pos="s" depth="0" NCoef="0" IVar="0" Cut="1.5776966857910156e+02" cType="1" res="3.0724029056727886e-03" rms="4.6199572086334229e-01" purity="4.9679771065711975e-01" nType="0">
        <Node pos="l" depth="1" NCoef="0" IVar="0" Cut="1.3211247253417969e+02" cType="1" res="1.1756747029721737e-02" rms="4.6155026555061340e-01" purity="5.2867895364761353e-01" nType="0">
          <Node pos="l" depth="2" NCoef="0" IVar="-1" Cut="0.0000000000000000e+00" cType="1" res="5.2123912610113621e-04" rms="4.6266841888427734e-01" purity="5.3582262992858887e-01" nType="-99"/>
          <Node pos="r" depth="2" NCoef="0" IVar="-1" Cut="0.0000000000000000e+00" cType="1" res="-4.2146976920776069e-04" rms="4.5669868588447571e-01" purity="5.0411897897720337e-01" nType="-99"/>
        </Node>
        <Node pos="r" depth="1" NCoef="0" IVar="0" Cut="2.4324995422363281e+02" cType="1" res="-8.8202999904751778e-03" rms="4.6234047412872314e-01" purity="4.5313826203346252e-01" nType="0">
          <Node pos="l" depth="2" NCoef="0" IVar="-1" Cut="0.0000000000000000e+00" cType="1" res="-7.0949207292869687e-04" rms="4.5995375514030457e-01" purity="4.4963103532791138e-01" nType="-99"/>
          <Node pos="r" depth="2" NCoef="0" IVar="-1" Cut="0.0000000000000000e+00" cType="1" res="2.9697583522647619e-04" rms="4.6477064490318298e-01" purity="4.5769292116165161e-01" nType="-99"/>
        </Node>
      </Node>
    </BinaryTree>
    <BinaryTree type="DecisionTree" boostWeight="1.0000000000000000e+00" itree="868">
      <Node pos="s" depth="0" NCoef="0" IVar="0" Cut="9.1393356323242188e+01" cType="1" res="-4.3401680886745453e-04" rms="4.5758876204490662e-01" purity="4.9855148792266846e-01" nType="0">
        <Node pos="l" depth="1" NCoef="0" IVar="3" Cut="1.1419088840484619e+00" cType="1" res="-3.2643254846334457e-02" rms="4.5478254556655884e-01" purity="4.7280886769294739e-01" nType="0">
          <Node pos="l" depth="2" NCoef="0" IVar="-1" Cut="0.0000000000000000e+00" cType="1" res="-1.3882739585824311e-04" rms="4.6011215448379517e-01" purity="5.2348339557647705e-01" nType="-99"/>
          <Node pos="r" depth="2" NCoef="0" IVar="-1" Cut="0.0000000000000000e+00" cType="1" res="-1.9797242712229490e-03" rms="4.4701412320137024e-01" purity="4.1783004999160767e-01" nType="-99"/>
        </Node>
        <Node pos="r" depth="1" NCoef="0" IVar="3" Cut="1.5042204856872559e+00" cType="1" res="7.0033669471740723e-03" rms="4.5791244506835938e-01" purity="5.0449573993682861e-01" nType="0">
          <Node pos="l" depth="2" NCoef="0" IVar="-1" Cut="0.0000000000000000e+00" cType="1" res="1.0674668010324240e-03" rms="4.4169148802757263e-01" purity="6.7890560626983643e-01" nType="-99"/>
          <Node pos="r" depth="2" NCoef="0" IVar="-1" Cut="0.0000000000000000e+00" cType="1" res="3.6048782931175083e-05" rms="4.6018198132514954e-01" purity="4.7670301795005798e-01" nType="-99"/>
        </Node>
      </Node>
    </BinaryTree>
    <BinaryTree type="DecisionTree" boostWeight="1.0000000000000000e+00" itree="869">
      <Node pos="s" depth="0" NCoef="0" IVar="6" Cut="9.0586161613464355e-01" cType="1" res="6.4231567084789276e-03" rms="4.5842114090919495e-01" purity="5.0739884376525879e-01" nType="0">
        <Node pos="l" depth="1" NCoef="0" IVar="-1" Cut="0.0000000000000000e+00" cType="1" res="-1.0695183882489800e-03" rms="4.4300776720046997e-01" purity="4.2044281959533691e-01" nType="-99"/>
        <Node pos="r" depth="1" NCoef="0" IVar="8" Cut="4.0749222040176392e-01" cType="1" res="9.2065762728452682e-03" rms="4.5932388305664062e-01" purity="5.1334178447723389e-01" nType="0">
          <Node pos="l" depth="2" NCoef="0" IVar="-1" Cut="0.0000000000000000e+00" cType="1" res="1.4485753490589559e-04" rms="4.5872974395751953e-01" purity="4.9685096740722656e-01" nType="-99"/>
          <Node pos="r" depth="2" NCoef="0" IVar="-1" Cut="0.0000000000000000e+00" cType="1" res="9.2262763064354658e-04" rms="4.6231052279472351e-01" purity="6.2300556898117065e-01" nType="-99"/>
        </Node>
      </Node>
    </BinaryTree>
    <BinaryTree type="DecisionTree" boostWeight="1.0000000000000000e+00" itree="870">
      <Node pos="s" depth="0" NCoef="0" IVar="1" Cut="2.6735198497772217e+00" cType="1" res="3.7029583472758532e-03" rms="4.5940634608268738e-01" purity="5.0331920385360718e-01" nType="0">
        <Node pos="l" depth="1" NCoef="0" IVar="3" Cut="1.1280282735824585e+00" cType="1" res="-1.0849181853700429e-04" rms="4.6666586399078369e-01" purity="4.6984380483627319e-01" nType="0">
          <Node pos="l" depth="2" NCoef="0" IVar="-1" Cut="0.0000000000000000e+00" cType="1" res="6.1397976242005825e-04" rms="4.6123316884040833e-01" purity="5.6583219766616821e-01" nType="-99"/>
          <Node pos="r" depth="2" NCoef="0" IVar="-1" Cut="0.0000000000000000e+00" cType="1" res="-1.1203450412722304e-04" rms="4.6739611029624939e-01" purity="4.5489469170570374e-01" nType="-99"/>
        </Node>
        <Node pos="r" depth="1" NCoef="0" IVar="-1" Cut="0.0000000000000000e+00" cType="1" res="9.6180377295240760e-04" rms="3.8415968418121338e-01" purity="8.1254625320434570e-01" nType="-99"/>
      </Node>
    </BinaryTree>
    <BinaryTree type="DecisionTree" boostWeight="1.0000000000000000e+00" itree="871">
      <Node pos="s" depth="0" NCoef="0" IVar="3" Cut="3.4023990631103516e+00" cType="1" res="3.7632617168128490e-03" rms="4.5997387170791626e-01" purity="5.0061559677124023e-01" nType="0">
        <Node pos="l" depth="1" NCoef="0" IVar="2" Cut="6.8890124559402466e-01" cType="1" res="6.4090075902640820e-03" rms="4.6256384253501892e-01" purity="5.1197749376296997e-01" nType="0">
          <Node pos="l" depth="2" NCoef="0" IVar="-1" Cut="0.0000000000000000e+00" cType="1" res="3.9230598486028612e-04" rms="4.6583533287048340e-01" purity="4.9086600542068481e-01" nType="-99"/>
          <Node pos="r" depth="2" NCoef="0" IVar="-1" Cut="0.0000000000000000e+00" cType="1" res="-3.4708817838691175e-04" rms="4.5358926057815552e-01" purity="5.6562632322311401e-01" nType="-99"/>
        </Node>
        <Node pos="r" depth="1" NCoef="0" IVar="-1" Cut="0.0000000000000000e+00" cType="1" res="-1.7755060689523816e-03" rms="4.0624731779098511e-01" purity="2.9122990369796753e-01" nType="-99"/>
      </Node>
    </BinaryTree>
    <BinaryTree type="DecisionTree" boostWeight="1.0000000000000000e+00" itree="872">
      <Node pos="s" depth="0" NCoef="0" IVar="2" Cut="3.9902785420417786e-01" cType="1" res="-2.0143437723163515e-04" rms="4.5786070823669434e-01" purity="5.0166761875152588e-01" nType="0">
        <Node pos="l" depth="1" NCoef="0" IVar="-1" Cut="0.0000000000000000e+00" cType="1" res="-1.9378006691113114e-03" rms="4.4144114851951599e-01" purity="3.7161701917648315e-01" nType="-99"/>
        <Node pos="r" depth="1" NCoef="0" IVar="1" Cut="2.6618556976318359e+00" cType="1" res="4.9703037366271019e-03" rms="4.5890778303146362e-01" purity="5.1304918527603149e-01" nType="0">
          <Node pos="l" depth="2" NCoef="0" IVar="-1" Cut="0.0000000000000000e+00" cType="1" res="1.3025834959989879e-05" rms="4.6695610880851746e-01" purity="4.7827744483947754e-01" nType="-99"/>
          <Node pos="r" depth="2" NCoef="0" IVar="-1" Cut="0.0000000000000000e+00" cType="1" res="1.0965545661747456e-03" rms="3.7740936875343323e-01" purity="8.2271420955657959e-01" nType="-99"/>
        </Node>
      </Node>
    </BinaryTree>
    <BinaryTree type="DecisionTree" boostWeight="1.0000000000000000e+00" itree="873">
      <Node pos="s" depth="0" NCoef="0" IVar="0" Cut="5.7287109375000000e+01" cType="1" res="6.2545351684093475e-03" rms="4.5818352699279785e-01" purity="5.0606697797775269e-01" nType="0">
        <Node pos="l" depth="1" NCoef="0" IVar="-1" Cut="0.0000000000000000e+00" cType="1" res="-1.4330261619761586e-03" rms="4.4719943404197693e-01" purity="4.5272737741470337e-01" nType="-99"/>
        <Node pos="r" depth="1" NCoef="0" IVar="3" Cut="1.3404519557952881e+00" cType="1" res="9.2498948797583580e-03" rms="4.5859518647193909e-01" purity="5.0901114940643311e-01" nType="0">
          <Node pos="l" depth="2" NCoef="0" IVar="-1" Cut="0.0000000000000000e+00" cType="1" res="1.3129814760759473e-03" rms="4.4671255350112915e-01" purity="6.5875411033630371e-01" nType="-99"/>
          <Node pos="r" depth="2" NCoef="0" IVar="-1" Cut="0.0000000000000000e+00" cType="1" res="2.0578470866894349e-05" rms="4.6032372117042542e-01" purity="4.8054224252700806e-01" nType="-99"/>
        </Node>
      </Node>
    </BinaryTree>
    <BinaryTree type="DecisionTree" boostWeight="1.0000000000000000e+00" itree="874">
      <Node pos="s" depth="0" NCoef="0" IVar="3" Cut="2.3719892501831055e+00" cType="1" res="3.6083245649933815e-03" rms="4.6114501357078552e-01" purity="5.0214523077011108e-01" nType="0">
        <Node pos="l" depth="1" NCoef="0" IVar="0" Cut="8.8234825134277344e+01" cType="1" res="-9.6391951665282249e-03" rms="4.6074518561363220e-01" purity="5.3438353538513184e-01" nType="0">
          <Node pos="l" depth="2" NCoef="0" IVar="-1" Cut="0.0000000000000000e+00" cType="1" res="-1.1481861583888531e-03" rms="4.6189692616462708e-01" purity="4.6390816569328308e-01" nType="-99"/>
          <Node pos="r" depth="2" NCoef="0" IVar="-1" Cut="0.0000000000000000e+00" cType="1" res="7.9826895671430975e-05" rms="4.5967659354209900e-01" purity="5.6401205062866211e-01" nType="-99"/>
        </Node>
        <Node pos="r" depth="1" NCoef="0" IVar="0" Cut="1.4713764953613281e+02" cType="1" res="1.9465897232294083e-02" rms="4.6112295985221863e-01" purity="4.6355533599853516e-01" nType="0">
          <Node pos="l" depth="2" NCoef="0" IVar="-1" Cut="0.0000000000000000e+00" cType="1" res="1.4417638303712010e-03" rms="4.6070638298988342e-01" purity="5.1975625753402710e-01" nType="-99"/>
          <Node pos="r" depth="2" NCoef="0" IVar="-1" Cut="0.0000000000000000e+00" cType="1" res="2.0977293024770916e-04" rms="4.6064800024032593e-01" purity="4.4199776649475098e-01" nType="-99"/>
        </Node>
      </Node>
    </BinaryTree>
    <BinaryTree type="DecisionTree" boostWeight="1.0000000000000000e+00" itree="875">
      <Node pos="s" depth="0" NCoef="0" IVar="0" Cut="3.8115377807617188e+02" cType="1" res="9.2100650072097778e-03" rms="4.6009394526481628e-01" purity="5.0682431459426880e-01" nType="0">
        <Node pos="l" depth="1" NCoef="0" IVar="3" Cut="8.1233465671539307e-01" cType="1" res="6.3444557599723339e-03" rms="4.6030238270759583e-01" purity="5.0632131099700928e-01" nType="0">
          <Node pos="l" depth="2" NCoef="0" IVar="-1" Cut="0.0000000000000000e+00" cType="1" res="1.1594775132834911e-03" rms="4.5593568682670593e-01" purity="6.1578333377838135e-01" nType="-99"/>
          <Node pos="r" depth="2" NCoef="0" IVar="-1" Cut="0.0000000000000000e+00" cType="1" res="9.1879715910181403e-05" rms="4.6048769354820251e-01" purity="4.9795091152191162e-01" nType="-99"/>
        </Node>
        <Node pos="r" depth="1" NCoef="0" IVar="-1" Cut="0.0000000000000000e+00" cType="1" res="1.6279874835163355e-03" rms="4.5345452427864075e-01" purity="5.1567685604095459e-01" nType="-99"/>
      </Node>
    </BinaryTree>
    <BinaryTree type="DecisionTree" boostWeight="1.0000000000000000e+00" itree="876">
      <Node pos="s" depth="0" NCoef="0" IVar="6" Cut="9.6528369188308716e-01" cType="1" res="5.6363940238952637e-03" rms="4.5880600810050964e-01" purity="5.0629651546478271e-01" nType="0">
        <Node pos="l" depth="1" NCoef="0" IVar="7" Cut="7.5687970966100693e-03" cType="1" res="1.9555622711777687e-02" rms="4.6265745162963867e-01" purity="4.9805063009262085e-01" nType="0">
          <Node pos="l" depth="2" NCoef="0" IVar="-1" Cut="0.0000000000000000e+00" cType="1" res="1.1041536927223206e-03" rms="4.6202361583709717e-01" purity="5.5537402629852295e-01" nType="-99"/>
          <Node pos="r" depth="2" NCoef="0" IVar="-1" Cut="0.0000000000000000e+00" cType="1" res="2.3232425155583769e-04" rms="4.6255540847778320e-01" purity="4.6892657876014709e-01" nType="-99"/>
        </Node>
        <Node pos="r" depth="1" NCoef="0" IVar="1" Cut="-2.0441800355911255e-01" cType="1" res="-1.1536492034792900e-02" rms="4.5342084765434265e-01" purity="5.1646983623504639e-01" nType="0">
          <Node pos="l" depth="2" NCoef="0" IVar="-1" Cut="0.0000000000000000e+00" cType="1" res="-1.2684323592111468e-03" rms="4.5407727360725403e-01" purity="3.1322398781776428e-01" nType="-99"/>
          <Node pos="r" depth="2" NCoef="0" IVar="-1" Cut="0.0000000000000000e+00" cType="1" res="2.6222041924484074e-05" rms="4.5255991816520691e-01" purity="6.3805449008941650e-01" nType="-99"/>
        </Node>
      </Node>
    </BinaryTree>
    <BinaryTree type="DecisionTree" boostWeight="1.0000000000000000e+00" itree="877">
      <Node pos="s" depth="0" NCoef="0" IVar="4" Cut="1.8311705017089844e+02" cType="1" res="3.2876918558031321e-03" rms="4.5921823382377625e-01" purity="5.0224679708480835e-01" nType="0">
        <Node pos="l" depth="1" NCoef="0" IVar="0" Cut="1.4427803039550781e+02" cType="1" res="-5.2964100614190102e-03" rms="4.5684942603111267e-01" purity="4.5949354767799377e-01" nType="0">
          <Node pos="l" depth="2" NCoef="0" IVar="-1" Cut="0.0000000000000000e+00" cType="1" res="2.4331345048267394e-04" rms="4.6227598190307617e-01" purity="4.9999412894248962e-01" nType="-99"/>
          <Node pos="r" depth="2" NCoef="0" IVar="-1" Cut="0.0000000000000000e+00" cType="1" res="-7.9128512879833579e-04" rms="4.4877928495407104e-01" purity="4.0506970882415771e-01" nType="-99"/>
        </Node>
        <Node pos="r" depth="1" NCoef="0" IVar="8" Cut="3.9523431658744812e-01" cType="1" res="1.6818614676594734e-02" rms="4.6260425448417664e-01" purity="5.6963777542114258e-01" nType="0">
          <Node pos="l" depth="2" NCoef="0" IVar="-1" Cut="0.0000000000000000e+00" cType="1" res="2.3218746355269104e-04" rms="4.6298334002494812e-01" purity="5.4379683732986450e-01" nType="-99"/>
          <Node pos="r" depth="2" NCoef="0" IVar="-1" Cut="0.0000000000000000e+00" cType="1" res="9.9212804343551397e-04" rms="4.6066609025001526e-01" purity="6.4499855041503906e-01" nType="-99"/>
        </Node>
      </Node>
    </BinaryTree>
    <BinaryTree type="DecisionTree" boostWeight="1.0000000000000000e+00" itree="878">
      <Node pos="s" depth="0" NCoef="0" IVar="6" Cut="9.8381567001342773e-01" cType="1" res="2.7840598486363888e-03" rms="4.5995384454727173e-01" purity="5.0196474790573120e-01" nType="0">
        <Node pos="l" depth="1" NCoef="0" IVar="8" Cut="3.8915687799453735e-01" cType="1" res="-5.0911270081996918e-03" rms="4.6107998490333557e-01" purity="4.8340383172035217e-01" nType="0">
          <Node pos="l" depth="2" NCoef="0" IVar="-1" Cut="0.0000000000000000e+00" cType="1" res="-5.3714110981673002e-04" rms="4.5835155248641968e-01" purity="4.4729164242744446e-01" nType="-99"/>
          <Node pos="r" depth="2" NCoef="0" IVar="-1" Cut="0.0000000000000000e+00" cType="1" res="1.8841412384063005e-04" rms="4.6334525942802429e-01" purity="5.1769399642944336e-01" nType="-99"/>
        </Node>
        <Node pos="r" depth="1" NCoef="0" IVar="8" Cut="3.7471112608909607e-01" cType="1" res="2.5458013638854027e-02" rms="4.5593705773353577e-01" purity="5.5540484189987183e-01" nType="0">
          <Node pos="l" depth="2" NCoef="0" IVar="-1" Cut="0.0000000000000000e+00" cType="1" res="-4.0254521991300862e-06" rms="4.6133312582969666e-01" purity="4.9777308106422424e-01" nType="-99"/>
          <Node pos="r" depth="2" NCoef="0" IVar="-1" Cut="0.0000000000000000e+00" cType="1" res="9.1248541139066219e-04" rms="4.5365685224533081e-01" purity="5.7588040828704834e-01" nType="-99"/>
        </Node>
      </Node>
    </BinaryTree>
    <BinaryTree type="DecisionTree" boostWeight="1.0000000000000000e+00" itree="879">
      <Node pos="s" depth="0" NCoef="0" IVar="0" Cut="9.6354782104492188e+01" cType="1" res="9.4423326663672924e-04" rms="4.5988422632217407e-01" purity="4.9947094917297363e-01" nType="0">
        <Node pos="l" depth="1" NCoef="0" IVar="1" Cut="4.5383629202842712e-01" cType="1" res="-2.2832773625850677e-02" rms="4.6183183789253235e-01" purity="4.8226931691169739e-01" nType="0">
          <Node pos="l" depth="2" NCoef="0" IVar="-1" Cut="0.0000000000000000e+00" cType="1" res="-1.7075173091143370e-03" rms="4.5873096585273743e-01" purity="3.2563954591751099e-01" nType="-99"/>
          <Node pos="r" depth="2" NCoef="0" IVar="-1" Cut="0.0000000000000000e+00" cType="1" res="6.6574662923812866e-05" rms="4.6364435553550720e-01" purity="6.4531886577606201e-01" nType="-99"/>
        </Node>
        <Node pos="r" depth="1" NCoef="0" IVar="9" Cut="1.7245428264141083e-01" cType="1" res="7.6103298924863338e-03" rms="4.5911577343940735e-01" purity="5.0429356098175049e-01" nType="0">
          <Node pos="l" depth="2" NCoef="0" IVar="-1" Cut="0.0000000000000000e+00" cType="1" res="5.4263760830508545e-05" rms="4.6006989479064941e-01" purity="4.8846581578254700e-01" nType="-99"/>
          <Node pos="r" depth="2" NCoef="0" IVar="-1" Cut="0.0000000000000000e+00" cType="1" res="1.1904683196917176e-03" rms="4.5066109299659729e-01" purity="6.1163723468780518e-01" nType="-99"/>
        </Node>
      </Node>
    </BinaryTree>
    <BinaryTree type="DecisionTree" boostWeight="1.0000000000000000e+00" itree="880">
      <Node pos="s" depth="0" NCoef="0" IVar="6" Cut="9.5887029170989990e-01" cType="1" res="1.4021879760548472e-03" rms="4.6046635508537292e-01" purity="5.0011384487152100e-01" nType="0">
        <Node pos="l" depth="1" NCoef="0" IVar="9" Cut="1.7354983091354370e-01" cType="1" res="-8.6106359958648682e-03" rms="4.6062085032463074e-01" purity="4.6799412369728088e-01" nType="0">
          <Node pos="l" depth="2" NCoef="0" IVar="-1" Cut="0.0000000000000000e+00" cType="1" res="-4.1824590880423784e-04" rms="4.5959177613258362e-01" purity="4.5429533720016479e-01" nType="-99"/>
          <Node pos="r" depth="2" NCoef="0" IVar="-1" Cut="0.0000000000000000e+00" cType="1" res="7.7389436773955822e-04" rms="4.6608918905258179e-01" purity="5.6683188676834106e-01" nType="-99"/>
        </Node>
        <Node pos="r" depth="1" NCoef="0" IVar="0" Cut="1.7256272888183594e+02" cType="1" res="1.0421679355204105e-02" rms="4.6014067530632019e-01" purity="5.2904707193374634e-01" nType="0">
          <Node pos="l" depth="2" NCoef="0" IVar="-1" Cut="0.0000000000000000e+00" cType="1" res="5.1447877194732428e-04" rms="4.5877772569656372e-01" purity="5.5739742517471313e-01" nType="-99"/>
          <Node pos="r" depth="2" NCoef="0" IVar="-1" Cut="0.0000000000000000e+00" cType="1" res="-1.3092800509184599e-04" rms="4.6215280890464783e-01" purity="4.7924754023551941e-01" nType="-99"/>
        </Node>
      </Node>
    </BinaryTree>
    <BinaryTree type="DecisionTree" boostWeight="1.0000000000000000e+00" itree="881">
      <Node pos="s" depth="0" NCoef="0" IVar="8" Cut="3.3899503946304321e-01" cType="1" res="4.5462711714208126e-03" rms="4.6010830998420715e-01" purity="5.0426352024078369e-01" nType="0">
        <Node pos="l" depth="1" NCoef="0" IVar="-1" Cut="0.0000000000000000e+00" cType="1" res="1.1524757137522101e-03" rms="4.7298732399940491e-01" purity="4.9664229154586792e-01" nType="-99"/>
        <Node pos="r" depth="1" NCoef="0" IVar="3" Cut="1.1154458522796631e+00" cType="1" res="8.6323788855224848e-04" rms="4.5863267779350281e-01" purity="5.0502908229827881e-01" nType="0">
          <Node pos="l" depth="2" NCoef="0" IVar="-1" Cut="0.0000000000000000e+00" cType="1" res="8.7895570322871208e-04" rms="4.4467952847480774e-01" purity="6.1793750524520874e-01" nType="-99"/>
          <Node pos="r" depth="2" NCoef="0" IVar="-1" Cut="0.0000000000000000e+00" cType="1" res="-1.2797632371075451e-04" rms="4.6056482195854187e-01" purity="4.8729023337364197e-01" nType="-99"/>
        </Node>
      </Node>
    </BinaryTree>
    <BinaryTree type="DecisionTree" boostWeight="1.0000000000000000e+00" itree="882">
      <Node pos="s" depth="0" NCoef="0" IVar="2" Cut="8.3430457115173340e-01" cType="1" res="-5.6273476220667362e-03" rms="4.5591086149215698e-01" purity="4.9702101945877075e-01" nType="0">
        <Node pos="l" depth="1" NCoef="0" IVar="0" Cut="1.6431129455566406e+02" cType="1" res="-9.4676306471228600e-03" rms="4.5693796873092651e-01" purity="4.8584100604057312e-01" nType="0">
          <Node pos="l" depth="2" NCoef="0" IVar="-1" Cut="0.0000000000000000e+00" cType="1" res="9.6622272394597530e-05" rms="4.5949876308441162e-01" purity="5.2091348171234131e-01" nType="-99"/>
          <Node pos="r" depth="2" NCoef="0" IVar="-1" Cut="0.0000000000000000e+00" cType="1" res="-9.2361151473596692e-04" rms="4.5227354764938354e-01" purity="4.3216133117675781e-01" nType="-99"/>
        </Node>
        <Node pos="r" depth="1" NCoef="0" IVar="-1" Cut="0.0000000000000000e+00" cType="1" res="1.2435425305739045e-03" rms="4.3709564208984375e-01" purity="6.5825819969177246e-01" nType="-99"/>
      </Node>
    </BinaryTree>
    <BinaryTree type="DecisionTree" boostWeight="1.0000000000000000e+00" itree="883">
      <Node pos="s" depth="0" NCoef="0" IVar="6" Cut="9.4641733169555664e-01" cType="1" res="-4.2444816790521145e-03" rms="4.6187615394592285e-01" purity="4.9207055568695068e-01" nType="0">
        <Node pos="l" depth="1" NCoef="0" IVar="2" Cut="4.6805527806282043e-01" cType="1" res="-2.1004160866141319e-02" rms="4.6124199032783508e-01" purity="4.4372719526290894e-01" nType="0">
          <Node pos="l" depth="2" NCoef="0" IVar="-1" Cut="0.0000000000000000e+00" cType="1" res="6.6977104870602489e-04" rms="4.6135479211807251e-01" purity="4.3024212121963501e-01" nType="-99"/>
          <Node pos="r" depth="2" NCoef="0" IVar="-1" Cut="0.0000000000000000e+00" cType="1" res="-1.0239591356366873e-03" rms="4.6039319038391113e-01" purity="4.4782626628875732e-01" nType="-99"/>
        </Node>
        <Node pos="r" depth="1" NCoef="0" IVar="1" Cut="-9.8745632171630859e-01" cType="1" res="4.8664668574929237e-03" rms="4.6196550130844116e-01" purity="5.1835113763809204e-01" nType="0">
          <Node pos="l" depth="2" NCoef="0" IVar="-1" Cut="0.0000000000000000e+00" cType="1" res="1.2252052547410131e-03" rms="4.6154901385307312e-01" purity="3.3059439063072205e-01" nType="-99"/>
          <Node pos="r" depth="2" NCoef="0" IVar="-1" Cut="0.0000000000000000e+00" cType="1" res="-8.0569705460220575e-05" rms="4.6181121468544006e-01" purity="5.7787245512008667e-01" nType="-99"/>
        </Node>
      </Node>
    </BinaryTree>
    <BinaryTree type="DecisionTree" boostWeight="1.0000000000000000e+00" itree="884">
      <Node pos="s" depth="0" NCoef="0" IVar="6" Cut="9.3063908815383911e-01" cType="1" res="2.4110816884785891e-03" rms="4.5645856857299805e-01" purity="5.0433737039566040e-01" nType="0">
        <Node pos="l" depth="1" NCoef="0" IVar="5" Cut="-1.0599090717732906e-02" cType="1" res="-2.7414493262767792e-02" rms="4.5517680048942566e-01" purity="4.2980474233627319e-01" nType="0">
          <Node pos="l" depth="2" NCoef="0" IVar="-1" Cut="0.0000000000000000e+00" cType="1" res="-1.9893909338861704e-03" rms="4.4340151548385620e-01" purity="3.8577190041542053e-01" nType="-99"/>
          <Node pos="r" depth="2" NCoef="0" IVar="-1" Cut="0.0000000000000000e+00" cType="1" res="-7.2774578256940003e-06" rms="4.6306240558624268e-01" purity="4.6667045354843140e-01" nType="-99"/>
        </Node>
        <Node pos="r" depth="1" NCoef="0" IVar="2" Cut="5.4088610410690308e-01" cType="1" res="9.9197849631309509e-03" rms="4.5647370815277100e-01" purity="5.2310127019882202e-01" nType="0">
          <Node pos="l" depth="2" NCoef="0" IVar="-1" Cut="0.0000000000000000e+00" cType="1" res="6.9004244869574904e-04" rms="4.5828276872634888e-01" purity="4.8161545395851135e-01" nType="-99"/>
          <Node pos="r" depth="2" NCoef="0" IVar="-1" Cut="0.0000000000000000e+00" cType="1" res="4.2778927308972925e-05" rms="4.5520710945129395e-01" purity="5.4726892709732056e-01" nType="-99"/>
        </Node>
      </Node>
    </BinaryTree>
    <BinaryTree type="DecisionTree" boostWeight="1.0000000000000000e+00" itree="885">
      <Node pos="s" depth="0" NCoef="0" IVar="1" Cut="-2.1174764633178711e+00" cType="1" res="6.3982885330915451e-03" rms="4.5974317193031311e-01" purity="5.0659918785095215e-01" nType="0">
        <Node pos="l" depth="1" NCoef="0" IVar="-1" Cut="0.0000000000000000e+00" cType="1" res="-2.2716142702847719e-03" rms="4.0378367900848389e-01" purity="2.1754486858844757e-01" nType="-99"/>
        <Node pos="r" depth="1" NCoef="0" IVar="3" Cut="2.4260034561157227e+00" cType="1" res="9.0717487037181854e-03" rms="4.6284356713294983e-01" purity="5.2444458007812500e-01" nType="0">
          <Node pos="l" depth="2" NCoef="0" IVar="-1" Cut="0.0000000000000000e+00" cType="1" res="-7.4795789259951562e-06" rms="4.6388095617294312e-01" purity="5.5528718233108521e-01" nType="-99"/>
          <Node pos="r" depth="2" NCoef="0" IVar="-1" Cut="0.0000000000000000e+00" cType="1" res="6.1367818852886558e-04" rms="4.6114966273307800e-01" purity="4.8305290937423706e-01" nType="-99"/>
        </Node>
      </Node>
    </BinaryTree>
    <BinaryTree type="DecisionTree" boostWeight="1.0000000000000000e+00" itree="886">
      <Node pos="s" depth="0" NCoef="0" IVar="9" Cut="6.2439400702714920e-02" cType="1" res="-1.7862871754914522e-03" rms="4.6015316247940063e-01" purity="4.9603256583213806e-01" nType="0">
        <Node pos="l" depth="1" NCoef="0" IVar="5" Cut="6.3200078904628754e-02" cType="1" res="-1.8823694437742233e-02" rms="4.6025797724723816e-01" purity="4.4950464367866516e-01" nType="0">
          <Node pos="l" depth="2" NCoef="0" IVar="-1" Cut="0.0000000000000000e+00" cType="1" res="-8.2288455450907350e-04" rms="4.5844224095344543e-01" purity="4.3771329522132874e-01" nType="-99"/>
          <Node pos="r" depth="2" NCoef="0" IVar="-1" Cut="0.0000000000000000e+00" cType="1" res="4.5674093416891992e-04" rms="4.6668496727943420e-01" purity="5.0232231616973877e-01" nType="-99"/>
        </Node>
        <Node pos="r" depth="1" NCoef="0" IVar="2" Cut="4.9816939234733582e-01" cType="1" res="8.7938271462917328e-03" rms="4.5977044105529785e-01" purity="5.2492606639862061e-01" nType="0">
          <Node pos="l" depth="2" NCoef="0" IVar="-1" Cut="0.0000000000000000e+00" cType="1" res="1.5915578696876764e-03" rms="4.5926448702812195e-01" purity="4.9922326207160950e-01" nType="-99"/>
          <Node pos="r" depth="2" NCoef="0" IVar="-1" Cut="0.0000000000000000e+00" cType="1" res="2.5800049115787260e-05" rms="4.5935660600662231e-01" purity="5.2899730205535889e-01" nType="-99"/>
        </Node>
      </Node>
    </BinaryTree>
    <BinaryTree type="DecisionTree" boostWeight="1.0000000000000000e+00" itree="887">
      <Node pos="s" depth="0" NCoef="0" IVar="2" Cut="8.0478525161743164e-01" cType="1" res="-1.3113026507198811e-03" rms="4.6116933226585388e-01" purity="4.9613434076309204e-01" nType="0">
        <Node pos="l" depth="1" NCoef="0" IVar="6" Cut="9.9327039718627930e-01" cType="1" res="-5.1023974083364010e-03" rms="4.6226966381072998e-01" purity="4.8151111602783203e-01" nType="0">
          <Node pos="l" depth="2" NCoef="0" IVar="-1" Cut="0.0000000000000000e+00" cType="1" res="-2.5172933237627149e-04" rms="4.6167829632759094e-01" purity="4.7463873028755188e-01" nType="-99"/>
          <Node pos="r" depth="2" NCoef="0" IVar="-1" Cut="0.0000000000000000e+00" cType="1" res="6.1595841543748975e-04" rms="4.6611192822456360e-01" purity="5.3731524944305420e-01" nType="-99"/>
        </Node>
        <Node pos="r" depth="1" NCoef="0" IVar="-1" Cut="0.0000000000000000e+00" cType="1" res="8.7257026461884379e-04" rms="4.4904014468193054e-01" purity="6.3453358411788940e-01" nType="-99"/>
      </Node>
    </BinaryTree>
    <BinaryTree type="DecisionTree" boostWeight="1.0000000000000000e+00" itree="888">
      <Node pos="s" depth="0" NCoef="0" IVar="4" Cut="3.3633590698242188e+02" cType="1" res="-2.4059973657131195e-03" rms="4.5892447233200073e-01" purity="4.9449265003204346e-01" nType="0">
        <Node pos="l" depth="1" NCoef="0" IVar="3" Cut="1.1896510124206543e+00" cType="1" res="-6.8321069702506065e-03" rms="4.5922735333442688e-01" purity="4.8036828637123108e-01" nType="0">
          <Node pos="l" depth="2" NCoef="0" IVar="-1" Cut="0.0000000000000000e+00" cType="1" res="7.1701448177918792e-04" rms="4.5261865854263306e-01" purity="5.9541398286819458e-01" nType="-99"/>
          <Node pos="r" depth="2" NCoef="0" IVar="-1" Cut="0.0000000000000000e+00" cType="1" res="-4.0020662709139287e-04" rms="4.6014338731765747e-01" purity="4.5916140079498291e-01" nType="-99"/>
        </Node>
        <Node pos="r" depth="1" NCoef="0" IVar="-1" Cut="0.0000000000000000e+00" cType="1" res="8.9683401165530086e-04" rms="4.5409154891967773e-01" purity="6.2477278709411621e-01" nType="-99"/>
      </Node>
    </BinaryTree>
    <BinaryTree type="DecisionTree" boostWeight="1.0000000000000000e+00" itree="889">
      <Node pos="s" depth="0" NCoef="0" IVar="0" Cut="1.6323141479492188e+02" cType="1" res="-5.7049524039030075e-03" rms="4.5902287960052490e-01" purity="4.9270370602607727e-01" nType="0">
        <Node pos="l" depth="1" NCoef="0" IVar="0" Cut="8.1914878845214844e+01" cType="1" res="3.1189515721052885e-03" rms="4.5811250805854797e-01" purity="5.2582812309265137e-01" nType="0">
          <Node pos="l" depth="2" NCoef="0" IVar="-1" Cut="0.0000000000000000e+00" cType="1" res="-9.9216087255626917e-04" rms="4.5779177546501160e-01" purity="4.7161909937858582e-01" nType="-99"/>
          <Node pos="r" depth="2" NCoef="0" IVar="-1" Cut="0.0000000000000000e+00" cType="1" res="4.0102412458509207e-04" rms="4.5759698748588562e-01" purity="5.4277992248535156e-01" nType="-99"/>
        </Node>
        <Node pos="r" depth="1" NCoef="0" IVar="1" Cut="5.8097279071807861e-01" cType="1" res="-1.8871858716011047e-02" rms="4.6006336808204651e-01" purity="4.4327595829963684e-01" nType="0">
          <Node pos="l" depth="2" NCoef="0" IVar="-1" Cut="0.0000000000000000e+00" cType="1" res="-1.6608896839898080e-04" rms="4.5348894596099854e-01" purity="3.3598634600639343e-01" nType="-99"/>
          <Node pos="r" depth="2" NCoef="0" IVar="-1" Cut="0.0000000000000000e+00" cType="1" res="-9.7286392701789737e-04" rms="4.6808597445487976e-01" purity="5.8808988332748413e-01" nType="-99"/>
        </Node>
      </Node>
    </BinaryTree>
    <BinaryTree type="DecisionTree" boostWeight="1.0000000000000000e+00" itree="890">
      <Node pos="s" depth="0" NCoef="0" IVar="1" Cut="-1.7245534658432007e+00" cType="1" res="3.8965579587966204e-03" rms="4.6304574608802795e-01" purity="5.0163584947586060e-01" nType="0">
        <Node pos="l" depth="1" NCoef="0" IVar="2" Cut="6.1931997537612915e-01" cType="1" res="3.9287935942411423e-02" rms="4.5286920666694641e-01" purity="3.0072888731956482e-01" nType="0">
          <Node pos="l" depth="2" NCoef="0" IVar="-1" Cut="0.0000000000000000e+00" cType="1" res="4.0112622082233429e-03" rms="4.4093760848045349e-01" purity="2.9107019305229187e-01" nType="-99"/>
          <Node pos="r" depth="2" NCoef="0" IVar="-1" Cut="0.0000000000000000e+00" cType="1" res="2.2650035680271685e-04" rms="4.6187436580657959e-01" purity="3.1029215455055237e-01" nType="-99"/>
        </Node>
        <Node pos="r" depth="1" NCoef="0" IVar="8" Cut="4.0226206183433533e-01" cType="1" res="-5.3937843767926097e-04" rms="4.6411526203155518e-01" purity="5.2681744098663330e-01" nType="0">
          <Node pos="l" depth="2" NCoef="0" IVar="-1" Cut="0.0000000000000000e+00" cType="1" res="-2.1234055748209357e-04" rms="4.6461999416351318e-01" purity="5.0629699230194092e-01" nType="-99"/>
          <Node pos="r" depth="2" NCoef="0" IVar="-1" Cut="0.0000000000000000e+00" cType="1" res="5.7814951287582517e-04" rms="4.6169027686119080e-01" purity="5.9414708614349365e-01" nType="-99"/>
        </Node>
      </Node>
    </BinaryTree>
    <BinaryTree type="DecisionTree" boostWeight="1.0000000000000000e+00" itree="891">
      <Node pos="s" depth="0" NCoef="0" IVar="7" Cut="6.9705672562122345e-02" cType="1" res="4.2630424723029137e-03" rms="4.6029701828956604e-01" purity="5.0510996580123901e-01" nType="0">
        <Node pos="l" depth="1" NCoef="0" IVar="5" Cut="-1.2804314494132996e-02" cType="1" res="1.5009715221822262e-02" rms="4.6093377470970154e-01" purity="5.3748148679733276e-01" nType="0">
          <Node pos="l" depth="2" NCoef="0" IVar="-1" Cut="0.0000000000000000e+00" cType="1" res="8.3223968977108598e-04" rms="4.5622080564498901e-01" purity="5.4913890361785889e-01" nType="-99"/>
          <Node pos="r" depth="2" NCoef="0" IVar="-1" Cut="0.0000000000000000e+00" cType="1" res="4.6370980271603912e-05" rms="4.6449372172355652e-01" purity="5.2755558490753174e-01" nType="-99"/>
        </Node>
        <Node pos="r" depth="1" NCoef="0" IVar="5" Cut="8.4289595484733582e-02" cType="1" res="-1.5666738152503967e-02" rms="4.5844748616218567e-01" purity="4.4507664442062378e-01" nType="0">
          <Node pos="l" depth="2" NCoef="0" IVar="-1" Cut="0.0000000000000000e+00" cType="1" res="-8.6631870362907648e-04" rms="4.5626071095466614e-01" purity="4.2952439188957214e-01" nType="-99"/>
          <Node pos="r" depth="2" NCoef="0" IVar="-1" Cut="0.0000000000000000e+00" cType="1" res="1.3524903915822506e-03" rms="4.6463561058044434e-01" purity="5.3240031003952026e-01" nType="-99"/>
        </Node>
      </Node>
    </BinaryTree>
    <BinaryTree type="DecisionTree" boostWeight="1.0000000000000000e+00" itree="892">
      <Node pos="s" depth="0" NCoef="0" IVar="8" Cut="4.0872725844383240e-01" cType="1" res="-4.3854960240423679e-03" rms="4.5986723899841309e-01" purity="4.9423855543136597e-01" nType="0">
        <Node pos="l" depth="1" NCoef="0" IVar="2" Cut="5.5498856306076050e-01" cType="1" res="-8.8636474683880806e-03" rms="4.5988741517066956e-01" purity="4.7757083177566528e-01" nType="0">
          <Node pos="l" depth="2" NCoef="0" IVar="-1" Cut="0.0000000000000000e+00" cType="1" res="1.2577183952089399e-04" rms="4.6100062131881714e-01" purity="4.3847173452377319e-01" nType="-99"/>
          <Node pos="r" depth="2" NCoef="0" IVar="-1" Cut="0.0000000000000000e+00" cType="1" res="-5.3680461132898927e-04" rms="4.5880666375160217e-01" purity="5.0694108009338379e-01" nType="-99"/>
        </Node>
        <Node pos="r" depth="1" NCoef="0" IVar="-1" Cut="0.0000000000000000e+00" cType="1" res="7.4868695810437202e-04" rms="4.5824098587036133e-01" purity="6.2290292978286743e-01" nType="-99"/>
      </Node>
    </BinaryTree>
  </Weights>
</MethodSetup>
