<?xml version="1.0"?>
<MethodSetup Method="BDT::BDTG">
  <GeneralInfo>
    <Info name="TMVA Release" value="4.2.1 [262657]"/>
    <Info name="ROOT Release" value="6.06/01 [394753]"/>
    <Info name="Creator" value="kelmorab"/>
    <Info name="Date" value="Sun Oct  8 20:43:24 2017"/>
    <Info name="Host" value="Linux vocms0301.cern.ch 2.6.32-642.11.1.el6.x86_64 #1 SMP Wed Nov 16 09:40:09 CET 2016 x86_64 x86_64 x86_64 GNU/Linux"/>
    <Info name="Dir" value="/nfs/dust/cms/user/kelmorab/Spring17Training/3makeHistosAndCards"/>
    <Info name="Training events" value="173219"/>
    <Info name="TrainingTime" value="3.80665122e+02"/>
    <Info name="AnalysisType" value="Classification"/>
  </GeneralInfo>
  <Options>
    <Option name="V" modified="Yes">False</Option>
    <Option name="VerbosityLevel" modified="No">Default</Option>
    <Option name="VarTransform" modified="No">None</Option>
    <Option name="H" modified="Yes">False</Option>
    <Option name="CreateMVAPdfs" modified="No">False</Option>
    <Option name="IgnoreNegWeightsInTraining" modified="No">False</Option>
    <Option name="NTrees" modified="Yes">853</Option>
    <Option name="MaxDepth" modified="Yes">2</Option>
    <Option name="MinNodeSize" modified="No">5%</Option>
    <Option name="nCuts" modified="Yes">31</Option>
    <Option name="BoostType" modified="Yes">Grad</Option>
    <Option name="AdaBoostR2Loss" modified="No">quadratic</Option>
    <Option name="UseBaggedBoost" modified="Yes">True</Option>
    <Option name="Shrinkage" modified="Yes">2.900000e-02</Option>
    <Option name="AdaBoostBeta" modified="No">5.000000e-01</Option>
    <Option name="UseRandomisedTrees" modified="No">False</Option>
    <Option name="UseNvars" modified="No">3</Option>
    <Option name="UsePoissonNvars" modified="No">True</Option>
    <Option name="BaggedSampleFraction" modified="No">4.900000e-01</Option>
    <Option name="UseYesNoLeaf" modified="No">True</Option>
    <Option name="NegWeightTreatment" modified="Yes">ignorenegweightsintraining</Option>
    <Option name="Css" modified="No">1.000000e+00</Option>
    <Option name="Cts_sb" modified="No">1.000000e+00</Option>
    <Option name="Ctb_ss" modified="No">1.000000e+00</Option>
    <Option name="Cbb" modified="No">1.000000e+00</Option>
    <Option name="NodePurityLimit" modified="No">5.000000e-01</Option>
    <Option name="SeparationType" modified="No">giniindex</Option>
    <Option name="DoBoostMonitor" modified="No">False</Option>
    <Option name="UseFisherCuts" modified="No">False</Option>
    <Option name="MinLinCorrForFisher" modified="No">8.000000e-01</Option>
    <Option name="UseExclusiveVars" modified="No">False</Option>
    <Option name="DoPreselection" modified="No">False</Option>
    <Option name="SigToBkgFraction" modified="No">1.000000e+00</Option>
    <Option name="PruneMethod" modified="No">nopruning</Option>
    <Option name="PruneStrength" modified="No">0.000000e+00</Option>
    <Option name="PruningValFraction" modified="No">5.000000e-01</Option>
    <Option name="nEventsMin" modified="No">0</Option>
    <Option name="UseBaggedGrad" modified="No">False</Option>
    <Option name="GradBaggingFraction" modified="Yes">4.900000e-01</Option>
    <Option name="UseNTrainEvents" modified="No">0</Option>
    <Option name="NNodesMax" modified="No">0</Option>
  </Options>
  <Variables NVar="9">
    <Variable VarIndex="0" Expression="h1" Label="h1" Title="h1" Unit="" Internal="h1" Type="F" Min="-2.07107201e-01" Max="3.68088394e-01"/>
    <Variable VarIndex="1" Expression="pt_all_jets_over_E_all_jets" Label="pt_all_jets_over_E_all_jets" Title="pt_all_jets_over_E_all_jets" Unit="" Internal="pt_all_jets_over_E_all_jets" Type="F" Min="2.16377333e-01" Max="9.87898231e-01"/>
    <Variable VarIndex="2" Expression="all_sum_pt_with_met" Label="all_sum_pt_with_met" Title="all_sum_pt_with_met" Unit="" Internal="all_sum_pt_with_met" Type="F" Min="2.16433228e+02" Max="3.54102002e+03"/>
    <Variable VarIndex="3" Expression="Mlb" Label="Mlb" Title="Mlb" Unit="" Internal="Mlb" Type="F" Min="1.44790173e+01" Max="9.70376587e+02"/>
    <Variable VarIndex="4" Expression="avg_btag_disc_btags" Label="avg_btag_disc_btags" Title="avg_btag_disc_btags" Unit="" Internal="avg_btag_disc_btags" Type="F" Min="8.53239536e-01" Max="9.99254644e-01"/>
    <Variable VarIndex="5" Expression="sphericity" Label="sphericity" Title="sphericity" Unit="" Internal="sphericity" Type="F" Min="7.58711016e-03" Max="9.61016297e-01"/>
    <Variable VarIndex="6" Expression="aplanarity" Label="aplanarity" Title="aplanarity" Unit="" Internal="aplanarity" Type="F" Min="6.01083215e-04" Max="4.54421997e-01"/>
    <Variable VarIndex="7" Expression="closest_tagged_dijet_mass" Label="closest_tagged_dijet_mass" Title="closest_tagged_dijet_mass" Unit="" Internal="closest_tagged_dijet_mass" Type="F" Min="1.54973154e+01" Max="1.62611401e+03"/>
    <Variable VarIndex="8" Expression="dr_between_lep_and_closest_jet" Label="dr_between_lep_and_closest_jet" Title="dr_between_lep_and_closest_jet" Unit="" Internal="dr_between_lep_and_closest_jet" Type="F" Min="4.00006503e-01" Max="3.48353934e+00"/>
  </Variables>
  <Spectators NSpec="0"/>
  <Classes NClass="2">
    <Class Name="Signal" Index="0"/>
    <Class Name="Background" Index="1"/>
  </Classes>
  <Transformations NTransformations="0"/>
  <MVAPdfs/>
  <Weights NTrees="853" AnalysisType="1">
    <BinaryTree type="DecisionTree" boostWeight="1.0000000000000000e+00" itree="0">
      <Node pos="s" depth="0" NCoef="0" IVar="4" Cut="9.6788626909255981e-01" cType="1" res="1.3208083109930158e-03" rms="4.9999824166297913e-01" purity="5.0132083892822266e-01" nType="0">
        <Node pos="l" depth="1" NCoef="0" IVar="2" Cut="4.3639715576171875e+02" cType="1" res="-5.7130254805088043e-02" rms="4.9672541022300720e-01" purity="4.4286975264549255e-01" nType="0">
          <Node pos="l" depth="2" NCoef="0" IVar="-1" Cut="0.0000000000000000e+00" cType="1" res="-6.8517462350428104e-03" rms="4.6221435070037842e-01" purity="3.0932256579399109e-01" nType="-99"/>
          <Node pos="r" depth="2" NCoef="0" IVar="-1" Cut="0.0000000000000000e+00" cType="1" res="-3.3487650216557086e-04" rms="4.9985513091087341e-01" purity="4.8796460032463074e-01" nType="-99"/>
        </Node>
        <Node pos="r" depth="1" NCoef="0" IVar="1" Cut="6.5196931362152100e-01" cType="1" res="1.5746763348579407e-01" rms="4.7455656528472900e-01" purity="6.5746766328811646e-01" nType="0">
          <Node pos="l" depth="2" NCoef="0" IVar="-1" Cut="0.0000000000000000e+00" cType="1" res="2.0936354994773865e-03" rms="4.9263426661491394e-01" purity="5.8550721406936646e-01" nType="-99"/>
          <Node pos="r" depth="2" NCoef="0" IVar="-1" Cut="0.0000000000000000e+00" cType="1" res="4.6949777752161026e-03" rms="4.4617980718612671e-01" purity="7.2566252946853638e-01" nType="-99"/>
        </Node>
      </Node>
    </BinaryTree>
    <BinaryTree type="DecisionTree" boostWeight="1.0000000000000000e+00" itree="1">
      <Node pos="s" depth="0" NCoef="0" IVar="4" Cut="9.6338897943496704e-01" cType="1" res="1.5647907275706530e-03" rms="4.9960631132125854e-01" purity="5.0130397081375122e-01" nType="0">
        <Node pos="l" depth="1" NCoef="0" IVar="2" Cut="4.8217663574218750e+02" cType="1" res="-6.3595592975616455e-02" rms="4.9559739232063293e-01" purity="4.3540677428245544e-01" nType="0">
          <Node pos="l" depth="2" NCoef="0" IVar="-1" Cut="0.0000000000000000e+00" cType="1" res="-5.5539272725582123e-03" rms="4.7244307398796082e-01" purity="3.3668065071105957e-01" nType="-99"/>
          <Node pos="r" depth="2" NCoef="0" IVar="-1" Cut="0.0000000000000000e+00" cType="1" res="-5.8064812037628144e-05" rms="4.9999487400054932e-01" purity="4.9773383140563965e-01" nType="-99"/>
        </Node>
        <Node pos="r" depth="1" NCoef="0" IVar="4" Cut="9.8132216930389404e-01" cType="1" res="1.3399828970432281e-01" rms="4.8119348287582397e-01" purity="6.3523495197296143e-01" nType="0">
          <Node pos="l" depth="2" NCoef="0" IVar="-1" Cut="0.0000000000000000e+00" cType="1" res="1.9646636210381985e-03" rms="4.9344933032989502e-01" purity="5.7977700233459473e-01" nType="-99"/>
          <Node pos="r" depth="2" NCoef="0" IVar="-1" Cut="0.0000000000000000e+00" cType="1" res="4.4599911198019981e-03" rms="4.5095974206924438e-01" purity="7.1580654382705688e-01" nType="-99"/>
        </Node>
      </Node>
    </BinaryTree>
    <BinaryTree type="DecisionTree" boostWeight="1.0000000000000000e+00" itree="2">
      <Node pos="s" depth="0" NCoef="0" IVar="4" Cut="9.6735966205596924e-01" cType="1" res="4.4776315917260945e-04" rms="4.9916985630989075e-01" purity="4.9996152520179749e-01" nType="0">
        <Node pos="l" depth="1" NCoef="0" IVar="2" Cut="5.1185928344726562e+02" cType="1" res="-6.3051357865333557e-02" rms="4.9531787633895874e-01" purity="4.3498381972312927e-01" nType="0">
          <Node pos="l" depth="2" NCoef="0" IVar="-1" Cut="0.0000000000000000e+00" cType="1" res="-4.9442062154412270e-03" rms="4.7647657990455627e-01" purity="3.4925737977027893e-01" nType="-99"/>
          <Node pos="r" depth="2" NCoef="0" IVar="-1" Cut="0.0000000000000000e+00" cType="1" res="2.6636951952241361e-04" rms="4.9989354610443115e-01" purity="5.0969547033309937e-01" nType="-99"/>
        </Node>
        <Node pos="r" depth="1" NCoef="0" IVar="2" Cut="4.5818914794921875e+02" cType="1" res="1.5912878513336182e-01" rms="4.7274473309516907e-01" purity="6.6233754158020020e-01" nType="0">
          <Node pos="l" depth="2" NCoef="0" IVar="-1" Cut="0.0000000000000000e+00" cType="1" res="1.1905962601304054e-03" rms="4.9737969040870667e-01" purity="5.4927963018417358e-01" nType="-99"/>
          <Node pos="r" depth="2" NCoef="0" IVar="-1" Cut="0.0000000000000000e+00" cType="1" res="4.2925649322569370e-03" rms="4.5534396171569824e-01" purity="7.0622849464416504e-01" nType="-99"/>
        </Node>
      </Node>
    </BinaryTree>
    <BinaryTree type="DecisionTree" boostWeight="1.0000000000000000e+00" itree="3">
      <Node pos="s" depth="0" NCoef="0" IVar="4" Cut="9.5857459306716919e-01" cType="1" res="5.4119820706546307e-03" rms="4.9879106879234314e-01" purity="5.0462913513183594e-01" nType="0">
        <Node pos="l" depth="1" NCoef="0" IVar="2" Cut="5.3797827148437500e+02" cType="1" res="-7.2920203208923340e-02" rms="4.9358990788459778e-01" purity="4.2386317253112793e-01" nType="0">
          <Node pos="l" depth="2" NCoef="0" IVar="-1" Cut="0.0000000000000000e+00" cType="1" res="-4.5288931578397751e-03" rms="4.7891461849212646e-01" purity="3.5738909244537354e-01" nType="-99"/>
          <Node pos="r" depth="2" NCoef="0" IVar="-1" Cut="0.0000000000000000e+00" cType="1" res="-8.4629455443518964e-08" rms="5.0000000000000000e-01" purity="4.9993366003036499e-01" nType="-99"/>
        </Node>
        <Node pos="r" depth="1" NCoef="0" IVar="2" Cut="4.4832229614257812e+02" cType="1" res="1.2188281118869781e-01" rms="4.8350623250007629e-01" purity="6.2471872568130493e-01" nType="0">
          <Node pos="l" depth="2" NCoef="0" IVar="-1" Cut="0.0000000000000000e+00" cType="1" res="-1.3531591321225278e-05" rms="4.9929752945899963e-01" purity="4.9993202090263367e-01" nType="-99"/>
          <Node pos="r" depth="2" NCoef="0" IVar="-1" Cut="0.0000000000000000e+00" cType="1" res="3.6368884611874819e-03" rms="4.7076371312141418e-01" purity="6.6732841730117798e-01" nType="-99"/>
        </Node>
      </Node>
    </BinaryTree>
    <BinaryTree type="DecisionTree" boostWeight="1.0000000000000000e+00" itree="4">
      <Node pos="s" depth="0" NCoef="0" IVar="4" Cut="9.6275085210800171e-01" cType="1" res="1.6116190236061811e-03" rms="4.9845501780509949e-01" purity="5.0064331293106079e-01" nType="0">
        <Node pos="l" depth="1" NCoef="0" IVar="2" Cut="5.1182489013671875e+02" cType="1" res="-6.5555609762668610e-02" rms="4.9435335397720337e-01" purity="4.3026626110076904e-01" nType="0">
          <Node pos="l" depth="2" NCoef="0" IVar="-1" Cut="0.0000000000000000e+00" cType="1" res="-4.5807044953107834e-03" rms="4.7783431410789490e-01" purity="3.5367032885551453e-01" nType="-99"/>
          <Node pos="r" depth="2" NCoef="0" IVar="-1" Cut="0.0000000000000000e+00" cType="1" res="-6.4854160882532597e-05" rms="4.9993330240249634e-01" purity="4.9749359488487244e-01" nType="-99"/>
        </Node>
        <Node pos="r" depth="1" NCoef="0" IVar="1" Cut="6.8103802204132080e-01" cType="1" res="1.3036647439002991e-01" rms="4.8066365718841553e-01" purity="6.3555109500885010e-01" nType="0">
          <Node pos="l" depth="2" NCoef="0" IVar="-1" Cut="0.0000000000000000e+00" cType="1" res="1.7310463590547442e-03" rms="4.9397024512290955e-01" purity="5.7388913631439209e-01" nType="-99"/>
          <Node pos="r" depth="2" NCoef="0" IVar="-1" Cut="0.0000000000000000e+00" cType="1" res="4.3698344379663467e-03" rms="4.5176607370376587e-01" purity="7.1322268247604370e-01" nType="-99"/>
        </Node>
      </Node>
    </BinaryTree>
    <BinaryTree type="DecisionTree" boostWeight="1.0000000000000000e+00" itree="5">
      <Node pos="s" depth="0" NCoef="0" IVar="4" Cut="9.7182619571685791e-01" cType="1" res="-7.5386697426438332e-04" rms="4.9803900718688965e-01" purity="4.9805095791816711e-01" nType="0">
        <Node pos="l" depth="1" NCoef="0" IVar="2" Cut="4.9565457153320312e+02" cType="1" res="-5.3652737289667130e-02" rms="4.9550035595893860e-01" purity="4.4239863753318787e-01" nType="0">
          <Node pos="l" depth="2" NCoef="0" IVar="-1" Cut="0.0000000000000000e+00" cType="1" res="-4.5881071127951145e-03" rms="4.7738486528396606e-01" purity="3.5333240032196045e-01" nType="-99"/>
          <Node pos="r" depth="2" NCoef="0" IVar="-1" Cut="0.0000000000000000e+00" cType="1" res="2.1710220607928932e-04" rms="4.9961689114570618e-01" purity="5.0826925039291382e-01" nType="-99"/>
        </Node>
        <Node pos="r" depth="1" NCoef="0" IVar="1" Cut="6.3199901580810547e-01" cType="1" res="1.7357003688812256e-01" rms="4.6555817127227783e-01" purity="6.8144875764846802e-01" nType="0">
          <Node pos="l" depth="2" NCoef="0" IVar="-1" Cut="0.0000000000000000e+00" cType="1" res="2.7600051835179329e-03" rms="4.8391392827033997e-01" purity="6.2500685453414917e-01" nType="-99"/>
          <Node pos="r" depth="2" NCoef="0" IVar="-1" Cut="0.0000000000000000e+00" cType="1" res="4.5678867027163506e-03" rms="4.4457301497459412e-01" purity="7.2834610939025879e-01" nType="-99"/>
        </Node>
      </Node>
    </BinaryTree>
    <BinaryTree type="DecisionTree" boostWeight="1.0000000000000000e+00" itree="6">
      <Node pos="s" depth="0" NCoef="0" IVar="4" Cut="9.6759885549545288e-01" cType="1" res="-2.5660428218543530e-04" rms="4.9768403172492981e-01" purity="4.9827238917350769e-01" nType="0">
        <Node pos="l" depth="1" NCoef="0" IVar="2" Cut="5.2811322021484375e+02" cType="1" res="-5.6437797844409943e-02" rms="4.9488452076911926e-01" purity="4.3799096345901489e-01" nType="0">
          <Node pos="l" depth="2" NCoef="0" IVar="-1" Cut="0.0000000000000000e+00" cType="1" res="-4.2665377259254456e-03" rms="4.7934582829475403e-01" purity="3.5978654026985168e-01" nType="-99"/>
          <Node pos="r" depth="2" NCoef="0" IVar="-1" Cut="0.0000000000000000e+00" cType="1" res="4.5428753946907818e-04" rms="4.9959462881088257e-01" purity="5.1729148626327515e-01" nType="-99"/>
        </Node>
        <Node pos="r" depth="1" NCoef="0" IVar="4" Cut="9.8435974121093750e-01" cType="1" res="1.4592683315277100e-01" rms="4.7469702363014221e-01" purity="6.5512460470199585e-01" nType="0">
          <Node pos="l" depth="2" NCoef="0" IVar="-1" Cut="0.0000000000000000e+00" cType="1" res="2.3088813759386539e-03" rms="4.8854088783264160e-01" purity="6.0372871160507202e-01" nType="-99"/>
          <Node pos="r" depth="2" NCoef="0" IVar="-1" Cut="0.0000000000000000e+00" cType="1" res="4.6568140387535095e-03" rms="4.3834277987480164e-01" purity="7.3987394571304321e-01" nType="-99"/>
        </Node>
      </Node>
    </BinaryTree>
    <BinaryTree type="DecisionTree" boostWeight="1.0000000000000000e+00" itree="7">
      <Node pos="s" depth="0" NCoef="0" IVar="4" Cut="9.7188615798950195e-01" cType="1" res="2.0057379733771086e-03" rms="4.9734762310981750e-01" purity="5.0037473440170288e-01" nType="0">
        <Node pos="l" depth="1" NCoef="0" IVar="2" Cut="4.2421990966796875e+02" cType="1" res="-4.8457264900207520e-02" rms="4.9556270241737366e-01" purity="4.4590386748313904e-01" nType="0">
          <Node pos="l" depth="2" NCoef="0" IVar="-1" Cut="0.0000000000000000e+00" cType="1" res="-6.5307975746691227e-03" rms="4.5950251817703247e-01" purity="3.0371418595314026e-01" nType="-99"/>
          <Node pos="r" depth="2" NCoef="0" IVar="-1" Cut="0.0000000000000000e+00" cType="1" res="-3.2457025372423232e-04" rms="4.9895420670509338e-01" purity="4.8552706837654114e-01" nType="-99"/>
        </Node>
        <Node pos="r" depth="1" NCoef="0" IVar="4" Cut="9.8466300964355469e-01" cType="1" res="1.6820129752159119e-01" rms="4.6602979302406311e-01" purity="6.7976993322372437e-01" nType="0">
          <Node pos="l" depth="2" NCoef="0" IVar="-1" Cut="0.0000000000000000e+00" cType="1" res="2.6642722077667713e-03" rms="4.8405286669731140e-01" purity="6.2352740764617920e-01" nType="-99"/>
          <Node pos="r" depth="2" NCoef="0" IVar="-1" Cut="0.0000000000000000e+00" cType="1" res="4.6983803622424603e-03" rms="4.3544408679008484e-01" purity="7.4516421556472778e-01" nType="-99"/>
        </Node>
      </Node>
    </BinaryTree>
    <BinaryTree type="DecisionTree" boostWeight="1.0000000000000000e+00" itree="8">
      <Node pos="s" depth="0" NCoef="0" IVar="4" Cut="9.7227436304092407e-01" cType="1" res="3.9901891723275185e-03" rms="4.9707567691802979e-01" purity="5.0203371047973633e-01" nType="0">
        <Node pos="l" depth="1" NCoef="0" IVar="2" Cut="5.1020779418945312e+02" cType="1" res="-4.0913060307502747e-02" rms="4.9602019786834717e-01" purity="4.5275837182998657e-01" nType="0">
          <Node pos="l" depth="2" NCoef="0" IVar="-1" Cut="0.0000000000000000e+00" cType="1" res="-4.0619326755404472e-03" rms="4.7980940341949463e-01" purity="3.6222088336944580e-01" nType="-99"/>
          <Node pos="r" depth="2" NCoef="0" IVar="-1" Cut="0.0000000000000000e+00" cType="1" res="7.2243291651830077e-04" rms="4.9895665049552917e-01" purity="5.2806681394577026e-01" nType="-99"/>
        </Node>
        <Node pos="r" depth="1" NCoef="0" IVar="1" Cut="7.2400689125061035e-01" cType="1" res="1.6109453141689301e-01" rms="4.6799066662788391e-01" purity="6.7443478107452393e-01" nType="0">
          <Node pos="l" depth="2" NCoef="0" IVar="-1" Cut="0.0000000000000000e+00" cType="1" res="2.7245013043284416e-03" rms="4.8249477148056030e-01" purity="6.2961751222610474e-01" nType="-99"/>
          <Node pos="r" depth="2" NCoef="0" IVar="-1" Cut="0.0000000000000000e+00" cType="1" res="4.8256600275635719e-03" rms="4.2999348044395447e-01" purity="7.5451159477233887e-01" nType="-99"/>
        </Node>
      </Node>
    </BinaryTree>
    <BinaryTree type="DecisionTree" boostWeight="1.0000000000000000e+00" itree="9">
      <Node pos="s" depth="0" NCoef="0" IVar="4" Cut="9.6275085210800171e-01" cType="1" res="2.2540770005434752e-03" rms="4.9686062335968018e-01" purity="5.0005304813385010e-01" nType="0">
        <Node pos="l" depth="1" NCoef="0" IVar="2" Cut="5.2139953613281250e+02" cType="1" res="-5.8785587549209595e-02" rms="4.9387136101722717e-01" purity="4.3242105841636658e-01" nType="0">
          <Node pos="l" depth="2" NCoef="0" IVar="-1" Cut="0.0000000000000000e+00" cType="1" res="-4.0617417544126511e-03" rms="4.7932195663452148e-01" purity="3.5953998565673828e-01" nType="-99"/>
          <Node pos="r" depth="2" NCoef="0" IVar="-1" Cut="0.0000000000000000e+00" cType="1" res="7.8998375101946294e-05" rms="4.9994897842407227e-01" purity="5.0321751832962036e-01" nType="-99"/>
        </Node>
        <Node pos="r" depth="1" NCoef="0" IVar="4" Cut="9.8100328445434570e-01" cType="1" res="1.1964792013168335e-01" rms="4.8126840591430664e-01" purity="6.3012552261352539e-01" nType="0">
          <Node pos="l" depth="2" NCoef="0" IVar="-1" Cut="0.0000000000000000e+00" cType="1" res="1.6869684914126992e-03" rms="4.9338471889495850e-01" purity="5.7423186302185059e-01" nType="-99"/>
          <Node pos="r" depth="2" NCoef="0" IVar="-1" Cut="0.0000000000000000e+00" cType="1" res="4.1536097414791584e-03" rms="4.5090264081954956e-01" purity="7.1499335765838623e-01" nType="-99"/>
        </Node>
      </Node>
    </BinaryTree>
    <BinaryTree type="DecisionTree" boostWeight="1.0000000000000000e+00" itree="10">
      <Node pos="s" depth="0" NCoef="0" IVar="4" Cut="9.6709406375885010e-01" cType="1" res="1.7094544600695372e-03" rms="4.9639114737510681e-01" purity="4.9953252077102661e-01" nType="0">
        <Node pos="l" depth="1" NCoef="0" IVar="2" Cut="5.1411663818359375e+02" cType="1" res="-5.3972966969013214e-02" rms="4.9416479468345642e-01" purity="4.3713787198066711e-01" nType="0">
          <Node pos="l" depth="2" NCoef="0" IVar="-1" Cut="0.0000000000000000e+00" cType="1" res="-4.1854861192405224e-03" rms="4.7783917188644409e-01" purity="3.5504227876663208e-01" nType="-99"/>
          <Node pos="r" depth="2" NCoef="0" IVar="-1" Cut="0.0000000000000000e+00" cType="1" res="2.1481959265656769e-04" rms="4.9976450204849243e-01" purity="5.0852638483047485e-01" nType="-99"/>
        </Node>
        <Node pos="r" depth="1" NCoef="0" IVar="2" Cut="4.9482949829101562e+02" cType="1" res="1.4064578711986542e-01" rms="4.7420158982276917e-01" purity="6.5521699190139771e-01" nType="0">
          <Node pos="l" depth="2" NCoef="0" IVar="-1" Cut="0.0000000000000000e+00" cType="1" res="1.7300450708717108e-03" rms="4.9176061153411865e-01" purity="5.8277410268783569e-01" nType="-99"/>
          <Node pos="r" depth="2" NCoef="0" IVar="-1" Cut="0.0000000000000000e+00" cType="1" res="3.9807395078241825e-03" rms="4.5708477497100830e-01" purity="7.0141005516052246e-01" nType="-99"/>
        </Node>
      </Node>
    </BinaryTree>
    <BinaryTree type="DecisionTree" boostWeight="1.0000000000000000e+00" itree="11">
      <Node pos="s" depth="0" NCoef="0" IVar="4" Cut="9.6780675649642944e-01" cType="1" res="-2.1888322662562132e-03" rms="4.9588245153427124e-01" purity="4.9531581997871399e-01" nType="0">
        <Node pos="l" depth="1" NCoef="0" IVar="2" Cut="4.2421990966796875e+02" cType="1" res="-5.7916257530450821e-02" rms="4.9325409531593323e-01" purity="4.3228188157081604e-01" nType="0">
          <Node pos="l" depth="2" NCoef="0" IVar="-1" Cut="0.0000000000000000e+00" cType="1" res="-6.8215704523026943e-03" rms="4.5339772105216980e-01" purity="2.8989738225936890e-01" nType="-99"/>
          <Node pos="r" depth="2" NCoef="0" IVar="-1" Cut="0.0000000000000000e+00" cType="1" res="-6.2348716892302036e-04" rms="4.9819976091384888e-01" purity="4.7284254431724548e-01" nType="-99"/>
        </Node>
        <Node pos="r" depth="1" NCoef="0" IVar="1" Cut="6.9750022888183594e-01" cType="1" res="1.4216986298561096e-01" rms="4.7302210330963135e-01" purity="6.5860164165496826e-01" nType="0">
          <Node pos="l" depth="2" NCoef="0" IVar="-1" Cut="0.0000000000000000e+00" cType="1" res="2.2012819536030293e-03" rms="4.8766508698463440e-01" purity="6.0667163133621216e-01" nType="-99"/>
          <Node pos="r" depth="2" NCoef="0" IVar="-1" Cut="0.0000000000000000e+00" cType="1" res="4.4340267777442932e-03" rms="4.4081827998161316e-01" purity="7.3415410518646240e-01" nType="-99"/>
        </Node>
      </Node>
    </BinaryTree>
    <BinaryTree type="DecisionTree" boostWeight="1.0000000000000000e+00" itree="12">
      <Node pos="s" depth="0" NCoef="0" IVar="4" Cut="9.5857977867126465e-01" cType="1" res="4.4217961840331554e-03" rms="4.9581432342529297e-01" purity="5.0159496068954468e-01" nType="0">
        <Node pos="l" depth="1" NCoef="0" IVar="2" Cut="4.0237567138671875e+02" cType="1" res="-6.2403813004493713e-02" rms="4.9234646558761597e-01" purity="4.2572993040084839e-01" nType="0">
          <Node pos="l" depth="2" NCoef="0" IVar="-1" Cut="0.0000000000000000e+00" cType="1" res="-8.2393130287528038e-03" rms="4.3891903758049011e-01" purity="2.6052039861679077e-01" nType="-99"/>
          <Node pos="r" depth="2" NCoef="0" IVar="-1" Cut="0.0000000000000000e+00" cType="1" res="-9.7946904134005308e-04" rms="4.9708816409111023e-01" purity="4.5793941617012024e-01" nType="-99"/>
        </Node>
        <Node pos="r" depth="1" NCoef="0" IVar="2" Cut="4.3639715576171875e+02" cType="1" res="1.0603135079145432e-01" rms="4.8366072773933411e-01" purity="6.1694902181625366e-01" nType="0">
          <Node pos="l" depth="2" NCoef="0" IVar="-1" Cut="0.0000000000000000e+00" cType="1" res="-3.8560712710022926e-04" rms="4.9727287888526917e-01" purity="4.8841390013694763e-01" nType="-99"/>
          <Node pos="r" depth="2" NCoef="0" IVar="-1" Cut="0.0000000000000000e+00" cType="1" res="3.1786486506462097e-03" rms="4.7418165206909180e-01" purity="6.5357649326324463e-01" nType="-99"/>
        </Node>
      </Node>
    </BinaryTree>
    <BinaryTree type="DecisionTree" boostWeight="1.0000000000000000e+00" itree="13">
      <Node pos="s" depth="0" NCoef="0" IVar="4" Cut="9.6275085210800171e-01" cType="1" res="4.5997714623808861e-03" rms="4.9553385376930237e-01" purity="5.0156778097152710e-01" nType="0">
        <Node pos="l" depth="1" NCoef="0" IVar="2" Cut="4.0258078002929688e+02" cType="1" res="-5.5552002042531967e-02" rms="4.9322727322578430e-01" purity="4.3191891908645630e-01" nType="0">
          <Node pos="l" depth="2" NCoef="0" IVar="-1" Cut="0.0000000000000000e+00" cType="1" res="-7.2264736518263817e-03" rms="4.4678184390068054e-01" purity="2.7564615011215210e-01" nType="-99"/>
          <Node pos="r" depth="2" NCoef="0" IVar="-1" Cut="0.0000000000000000e+00" cType="1" res="-8.5424212738871574e-04" rms="4.9751460552215576e-01" purity="4.6209642291069031e-01" nType="-99"/>
        </Node>
        <Node pos="r" depth="1" NCoef="0" IVar="2" Cut="4.8332617187500000e+02" cType="1" res="1.2070912867784500e-01" rms="4.7905170917510986e-01" purity="6.3600909709930420e-01" nType="0">
          <Node pos="l" depth="2" NCoef="0" IVar="-1" Cut="0.0000000000000000e+00" cType="1" res="7.4300268897786736e-04" rms="4.9645107984542847e-01" purity="5.3767198324203491e-01" nType="-99"/>
          <Node pos="r" depth="2" NCoef="0" IVar="-1" Cut="0.0000000000000000e+00" cType="1" res="3.7030105013400316e-03" rms="4.6159470081329346e-01" purity="6.8956446647644043e-01" nType="-99"/>
        </Node>
      </Node>
    </BinaryTree>
    <BinaryTree type="DecisionTree" boostWeight="1.0000000000000000e+00" itree="14">
      <Node pos="s" depth="0" NCoef="0" IVar="4" Cut="9.6331423521041870e-01" cType="1" res="1.2317645596340299e-03" rms="4.9513918161392212e-01" purity="4.9810513854026794e-01" nType="0">
        <Node pos="l" depth="1" NCoef="0" IVar="2" Cut="5.1411663818359375e+02" cType="1" res="-5.7812113314867020e-02" rms="4.9248394370079041e-01" purity="4.2879086732864380e-01" nType="0">
          <Node pos="l" depth="2" NCoef="0" IVar="-1" Cut="0.0000000000000000e+00" cType="1" res="-4.1924463585019112e-03" rms="4.7546890377998352e-01" purity="3.4839192032814026e-01" nType="-99"/>
          <Node pos="r" depth="2" NCoef="0" IVar="-1" Cut="0.0000000000000000e+00" cType="1" res="5.0270027713850141e-05" rms="4.9986237287521362e-01" purity="5.0117713212966919e-01" nType="-99"/>
        </Node>
        <Node pos="r" depth="1" NCoef="0" IVar="4" Cut="9.8353081941604614e-01" cType="1" res="1.1802417039871216e-01" rms="4.7938889265060425e-01" purity="6.3521301746368408e-01" nType="0">
          <Node pos="l" depth="2" NCoef="0" IVar="-1" Cut="0.0000000000000000e+00" cType="1" res="1.8260885262861848e-03" rms="4.9065980315208435e-01" purity="5.8800327777862549e-01" nType="-99"/>
          <Node pos="r" depth="2" NCoef="0" IVar="-1" Cut="0.0000000000000000e+00" cType="1" res="4.2122798040509224e-03" rms="4.4433140754699707e-01" purity="7.2777652740478516e-01" nType="-99"/>
        </Node>
      </Node>
    </BinaryTree>
    <BinaryTree type="DecisionTree" boostWeight="1.0000000000000000e+00" itree="15">
      <Node pos="s" depth="0" NCoef="0" IVar="4" Cut="9.5432913303375244e-01" cType="1" res="-7.4270437471568584e-04" rms="4.9470123648643494e-01" purity="4.9586614966392517e-01" nType="0">
        <Node pos="l" depth="1" NCoef="0" IVar="2" Cut="4.3175469970703125e+02" cType="1" res="-7.9336687922477722e-02" rms="4.8848769068717957e-01" purity="4.0566405653953552e-01" nType="0">
          <Node pos="l" depth="2" NCoef="0" IVar="-1" Cut="0.0000000000000000e+00" cType="1" res="-7.2406767867505550e-03" rms="4.4525086879730225e-01" purity="2.7297487854957581e-01" nType="-99"/>
          <Node pos="r" depth="2" NCoef="0" IVar="-1" Cut="0.0000000000000000e+00" cType="1" res="-1.2720839586108923e-03" rms="4.9658778309822083e-01" purity="4.4930565357208252e-01" nType="-99"/>
        </Node>
        <Node pos="r" depth="1" NCoef="0" IVar="4" Cut="9.8100441694259644e-01" cType="1" res="9.0608395636081696e-02" rms="4.8611250519752502e-01" purity="6.0070955753326416e-01" nType="0">
          <Node pos="l" depth="2" NCoef="0" IVar="-1" Cut="0.0000000000000000e+00" cType="1" res="1.1748959077522159e-03" rms="4.9505132436752319e-01" purity="5.4875093698501587e-01" nType="-99"/>
          <Node pos="r" depth="2" NCoef="0" IVar="-1" Cut="0.0000000000000000e+00" cType="1" res="4.0736668743193150e-03" rms="4.4750279188156128e-01" purity="7.2131562232971191e-01" nType="-99"/>
        </Node>
      </Node>
    </BinaryTree>
    <BinaryTree type="DecisionTree" boostWeight="1.0000000000000000e+00" itree="16">
      <Node pos="s" depth="0" NCoef="0" IVar="4" Cut="9.6766996383666992e-01" cType="1" res="2.9899703804403543e-03" rms="4.9459415674209595e-01" purity="4.9933901429176331e-01" nType="0">
        <Node pos="l" depth="1" NCoef="0" IVar="2" Cut="4.3639715576171875e+02" cType="1" res="-4.7447312623262405e-02" rms="4.9334639310836792e-01" purity="4.3856477737426758e-01" nType="0">
          <Node pos="l" depth="2" NCoef="0" IVar="-1" Cut="0.0000000000000000e+00" cType="1" res="-5.6070946156978607e-03" rms="4.6043109893798828e-01" purity="3.0628773570060730e-01" nType="-99"/>
          <Node pos="r" depth="2" NCoef="0" IVar="-1" Cut="0.0000000000000000e+00" cType="1" res="-2.8679025126621127e-04" rms="4.9869138002395630e-01" purity="4.8380193114280701e-01" nType="-99"/>
        </Node>
        <Node pos="r" depth="1" NCoef="0" IVar="1" Cut="6.2937635183334351e-01" cType="1" res="1.3313947618007660e-01" rms="4.7360432147979736e-01" purity="6.5616214275360107e-01" nType="0">
          <Node pos="l" depth="2" NCoef="0" IVar="-1" Cut="0.0000000000000000e+00" cType="1" res="1.7297891899943352e-03" rms="4.9061611294746399e-01" purity="5.9091067314147949e-01" nType="-99"/>
          <Node pos="r" depth="2" NCoef="0" IVar="-1" Cut="0.0000000000000000e+00" cType="1" res="3.9117457345128059e-03" rms="4.5248714089393616e-01" purity="7.1039402484893799e-01" nType="-99"/>
        </Node>
      </Node>
    </BinaryTree>
    <BinaryTree type="DecisionTree" boostWeight="1.0000000000000000e+00" itree="17">
      <Node pos="s" depth="0" NCoef="0" IVar="4" Cut="9.6280705928802490e-01" cType="1" res="3.5658229608088732e-03" rms="4.9427738785743713e-01" purity="4.9958795309066772e-01" nType="0">
        <Node pos="l" depth="1" NCoef="0" IVar="1" Cut="5.8126789331436157e-01" cType="1" res="-5.5167771875858307e-02" rms="4.9213802814483643e-01" purity="4.2840740084648132e-01" nType="0">
          <Node pos="l" depth="2" NCoef="0" IVar="-1" Cut="0.0000000000000000e+00" cType="1" res="-4.1404352523386478e-03" rms="4.7757500410079956e-01" purity="3.5987147688865662e-01" nType="-99"/>
          <Node pos="r" depth="2" NCoef="0" IVar="-1" Cut="0.0000000000000000e+00" cType="1" res="-2.1877465769648552e-04" rms="4.9679481983184814e-01" purity="4.7698506712913513e-01" nType="-99"/>
        </Node>
        <Node pos="r" depth="1" NCoef="0" IVar="2" Cut="4.6226296997070312e+02" cType="1" res="1.1750993132591248e-01" rms="4.7825571894645691e-01" purity="6.3767939805984497e-01" nType="0">
          <Node pos="l" depth="2" NCoef="0" IVar="-1" Cut="0.0000000000000000e+00" cType="1" res="6.1183806974440813e-04" rms="4.9609968066215515e-01" purity="5.3569895029067993e-01" nType="-99"/>
          <Node pos="r" depth="2" NCoef="0" IVar="-1" Cut="0.0000000000000000e+00" cType="1" res="3.4487901721149683e-03" rms="4.6472775936126709e-01" purity="6.8106836080551147e-01" nType="-99"/>
        </Node>
      </Node>
    </BinaryTree>
    <BinaryTree type="DecisionTree" boostWeight="1.0000000000000000e+00" itree="18">
      <Node pos="s" depth="0" NCoef="0" IVar="4" Cut="9.6265947818756104e-01" cType="1" res="2.1786666475236416e-03" rms="4.9382421374320984e-01" purity="4.9815776944160461e-01" nType="0">
        <Node pos="l" depth="1" NCoef="0" IVar="2" Cut="4.3647204589843750e+02" cType="1" res="-5.8274682611227036e-02" rms="4.9128621816635132e-01" purity="4.2432779073715210e-01" nType="0">
          <Node pos="l" depth="2" NCoef="0" IVar="-1" Cut="0.0000000000000000e+00" cType="1" res="-5.8291745372116566e-03" rms="4.5673072338104248e-01" purity="2.9790908098220825e-01" nType="-99"/>
          <Node pos="r" depth="2" NCoef="0" IVar="-1" Cut="0.0000000000000000e+00" cType="1" res="-6.3925056019797921e-04" rms="4.9815344810485840e-01" purity="4.6955859661102295e-01" nType="-99"/>
        </Node>
        <Node pos="r" depth="1" NCoef="0" IVar="2" Cut="4.5512332153320312e+02" cType="1" res="1.1666417121887207e-01" rms="4.7808912396430969e-01" purity="6.3797581195831299e-01" nType="0">
          <Node pos="l" depth="2" NCoef="0" IVar="-1" Cut="0.0000000000000000e+00" cType="1" res="4.5756442705169320e-04" rms="4.9651187658309937e-01" purity="5.2943688631057739e-01" nType="-99"/>
          <Node pos="r" depth="2" NCoef="0" IVar="-1" Cut="0.0000000000000000e+00" cType="1" res="3.3831002656370401e-03" rms="4.6539041399955750e-01" purity="6.7919027805328369e-01" nType="-99"/>
        </Node>
      </Node>
    </BinaryTree>
    <BinaryTree type="DecisionTree" boostWeight="1.0000000000000000e+00" itree="19">
      <Node pos="s" depth="0" NCoef="0" IVar="4" Cut="9.5835453271865845e-01" cType="1" res="2.6148948818445206e-03" rms="4.9380046129226685e-01" purity="4.9826896190643311e-01" nType="0">
        <Node pos="l" depth="1" NCoef="0" IVar="1" Cut="6.7261660099029541e-01" cType="1" res="-6.2496621161699295e-02" rms="4.9042430520057678e-01" purity="4.1853415966033936e-01" nType="0">
          <Node pos="l" depth="2" NCoef="0" IVar="-1" Cut="0.0000000000000000e+00" cType="1" res="-3.6462042480707169e-03" rms="4.8034337162971497e-01" purity="3.6977341771125793e-01" nType="-99"/>
          <Node pos="r" depth="2" NCoef="0" IVar="-1" Cut="0.0000000000000000e+00" cType="1" res="2.4483230663463473e-04" rms="4.9697452783584595e-01" purity="4.9290579557418823e-01" nType="-99"/>
        </Node>
        <Node pos="r" depth="1" NCoef="0" IVar="4" Cut="9.8264002799987793e-01" cType="1" res="9.9432885646820068e-02" rms="4.8280662298202515e-01" purity="6.1683118343353271e-01" nType="0">
          <Node pos="l" depth="2" NCoef="0" IVar="-1" Cut="0.0000000000000000e+00" cType="1" res="1.4487502630800009e-03" rms="4.9288472533226013e-01" purity="5.6855458021163940e-01" nType="-99"/>
          <Node pos="r" depth="2" NCoef="0" IVar="-1" Cut="0.0000000000000000e+00" cType="1" res="4.0271868929266930e-03" rms="4.4408136606216431e-01" purity="7.2793006896972656e-01" nType="-99"/>
        </Node>
      </Node>
    </BinaryTree>
    <BinaryTree type="DecisionTree" boostWeight="1.0000000000000000e+00" itree="20">
      <Node pos="s" depth="0" NCoef="0" IVar="4" Cut="9.4898670911788940e-01" cType="1" res="7.6308622956275940e-03" rms="4.9370843172073364e-01" purity="5.0302654504776001e-01" nType="0">
        <Node pos="l" depth="1" NCoef="0" IVar="2" Cut="6.2739581298828125e+02" cType="1" res="-7.4939936399459839e-02" rms="4.8797875642776489e-01" purity="4.0467631816864014e-01" nType="0">
          <Node pos="l" depth="2" NCoef="0" IVar="-1" Cut="0.0000000000000000e+00" cType="1" res="-3.6550369113683701e-03" rms="4.7847673296928406e-01" purity="3.6202326416969299e-01" nType="-99"/>
          <Node pos="r" depth="2" NCoef="0" IVar="-1" Cut="0.0000000000000000e+00" cType="1" res="2.3474422050639987e-04" rms="4.9979582428932190e-01" purity="5.0496566295623779e-01" nType="-99"/>
        </Node>
        <Node pos="r" depth="1" NCoef="0" IVar="4" Cut="9.7876560688018799e-01" cType="1" res="7.6192639768123627e-02" rms="4.8791038990020752e-01" purity="5.8469057083129883e-01" nType="0">
          <Node pos="l" depth="2" NCoef="0" IVar="-1" Cut="0.0000000000000000e+00" cType="1" res="9.8585220985114574e-04" rms="4.9533089995384216e-01" purity="5.3648734092712402e-01" nType="-99"/>
          <Node pos="r" depth="2" NCoef="0" IVar="-1" Cut="0.0000000000000000e+00" cType="1" res="3.6549833603203297e-03" rms="4.5521298050880432e-01" purity="7.0430302619934082e-01" nType="-99"/>
        </Node>
      </Node>
    </BinaryTree>
    <BinaryTree type="DecisionTree" boostWeight="1.0000000000000000e+00" itree="21">
      <Node pos="s" depth="0" NCoef="0" IVar="4" Cut="9.7187680006027222e-01" cType="1" res="6.9817975163459778e-03" rms="4.9333423376083374e-01" purity="5.0248801708221436e-01" nType="0">
        <Node pos="l" depth="1" NCoef="0" IVar="1" Cut="6.5269541740417480e-01" cType="1" res="-3.5106658935546875e-02" rms="4.9373221397399902e-01" purity="4.4953045248985291e-01" nType="0">
          <Node pos="l" depth="2" NCoef="0" IVar="-1" Cut="0.0000000000000000e+00" cType="1" res="-2.8403680771589279e-03" rms="4.8516732454299927e-01" purity="3.9290636777877808e-01" nType="-99"/>
          <Node pos="r" depth="2" NCoef="0" IVar="-1" Cut="0.0000000000000000e+00" cType="1" res="8.3309313049539924e-04" rms="4.9619689583778381e-01" purity="5.2029943466186523e-01" nType="-99"/>
        </Node>
        <Node pos="r" depth="1" NCoef="0" IVar="2" Cut="5.3116925048828125e+02" cType="1" res="1.4811357855796814e-01" rms="4.6497657895088196e-01" purity="6.8006646633148193e-01" nType="0">
          <Node pos="l" depth="2" NCoef="0" IVar="-1" Cut="0.0000000000000000e+00" cType="1" res="2.1766466088593006e-03" rms="4.8360008001327515e-01" purity="6.2171423435211182e-01" nType="-99"/>
          <Node pos="r" depth="2" NCoef="0" IVar="-1" Cut="0.0000000000000000e+00" cType="1" res="4.1710357181727886e-03" rms="4.3966853618621826e-01" purity="7.3669451475143433e-01" nType="-99"/>
        </Node>
      </Node>
    </BinaryTree>
    <BinaryTree type="DecisionTree" boostWeight="1.0000000000000000e+00" itree="22">
      <Node pos="s" depth="0" NCoef="0" IVar="4" Cut="9.4897711277008057e-01" cType="1" res="6.2241298146545887e-03" rms="4.9289801716804504e-01" purity="5.0164890289306641e-01" nType="0">
        <Node pos="l" depth="1" NCoef="0" IVar="2" Cut="5.3595275878906250e+02" cType="1" res="-8.0815069377422333e-02" rms="4.8619192838668823e-01" purity="3.9697173237800598e-01" nType="0">
          <Node pos="l" depth="2" NCoef="0" IVar="-1" Cut="0.0000000000000000e+00" cType="1" res="-4.4658076949417591e-03" rms="4.6962606906890869e-01" purity="3.3330056071281433e-01" nType="-99"/>
          <Node pos="r" depth="2" NCoef="0" IVar="-1" Cut="0.0000000000000000e+00" cType="1" res="-7.6468143379315734e-04" rms="4.9867072701454163e-01" purity="4.6896523237228394e-01" nType="-99"/>
        </Node>
        <Node pos="r" depth="1" NCoef="0" IVar="2" Cut="4.3642230224609375e+02" cType="1" res="7.7436156570911407e-02" rms="4.8687884211540222e-01" purity="5.8729165792465210e-01" nType="0">
          <Node pos="l" depth="2" NCoef="0" IVar="-1" Cut="0.0000000000000000e+00" cType="1" res="-1.2727206340059638e-03" rms="4.9159452319145203e-01" purity="4.4826850295066833e-01" nType="-99"/>
          <Node pos="r" depth="2" NCoef="0" IVar="-1" Cut="0.0000000000000000e+00" cType="1" res="2.6245398912578821e-03" rms="4.7979974746704102e-01" purity="6.2813174724578857e-01" nType="-99"/>
        </Node>
      </Node>
    </BinaryTree>
    <BinaryTree type="DecisionTree" boostWeight="1.0000000000000000e+00" itree="23">
      <Node pos="s" depth="0" NCoef="0" IVar="4" Cut="9.6280705928802490e-01" cType="1" res="6.3037415966391563e-03" rms="4.9248078465461731e-01" purity="5.0177872180938721e-01" nType="0">
        <Node pos="l" depth="1" NCoef="0" IVar="2" Cut="5.5135345458984375e+02" cType="1" res="-5.3953506052494049e-02" rms="4.9094197154045105e-01" purity="4.2479771375656128e-01" nType="0">
          <Node pos="l" depth="2" NCoef="0" IVar="-1" Cut="0.0000000000000000e+00" cType="1" res="-3.3313636668026447e-03" rms="4.7898614406585693e-01" purity="3.6401194334030151e-01" nType="-99"/>
          <Node pos="r" depth="2" NCoef="0" IVar="-1" Cut="0.0000000000000000e+00" cType="1" res="1.7251551616936922e-04" rms="4.9947187304496765e-01" purity="5.0288438796997070e-01" nType="-99"/>
        </Node>
        <Node pos="r" depth="1" NCoef="0" IVar="4" Cut="9.7984218597412109e-01" cType="1" res="1.1915044486522675e-01" rms="4.7522330284118652e-01" purity="6.4594489336013794e-01" nType="0">
          <Node pos="l" depth="2" NCoef="0" IVar="-1" Cut="0.0000000000000000e+00" cType="1" res="1.6336395638063550e-03" rms="4.9068859219551086e-01" purity="5.8505654335021973e-01" nType="-99"/>
          <Node pos="r" depth="2" NCoef="0" IVar="-1" Cut="0.0000000000000000e+00" cType="1" res="3.9241411723196507e-03" rms="4.4481638073921204e-01" purity="7.2580403089523315e-01" nType="-99"/>
        </Node>
      </Node>
    </BinaryTree>
    <BinaryTree type="DecisionTree" boostWeight="1.0000000000000000e+00" itree="24">
      <Node pos="s" depth="0" NCoef="0" IVar="4" Cut="9.6279615163803101e-01" cType="1" res="4.7272127121686935e-03" rms="4.9226149916648865e-01" purity="5.0001895427703857e-01" nType="0">
        <Node pos="l" depth="1" NCoef="0" IVar="2" Cut="4.6609100341796875e+02" cType="1" res="-5.2116815000772476e-02" rms="4.9080836772918701e-01" purity="4.2591652274131775e-01" nType="0">
          <Node pos="l" depth="2" NCoef="0" IVar="-1" Cut="0.0000000000000000e+00" cType="1" res="-4.8798150382936001e-03" rms="4.6382623910903931e-01" purity="3.1669050455093384e-01" nType="-99"/>
          <Node pos="r" depth="2" NCoef="0" IVar="-1" Cut="0.0000000000000000e+00" cType="1" res="-2.3963731655385345e-04" rms="4.9862748384475708e-01" purity="4.8238030076026917e-01" nType="-99"/>
        </Node>
        <Node pos="r" depth="1" NCoef="0" IVar="1" Cut="6.5413993597030640e-01" cType="1" res="1.1283957213163376e-01" rms="4.7665974497795105e-01" purity="6.4095526933670044e-01" nType="0">
          <Node pos="l" depth="2" NCoef="0" IVar="-1" Cut="0.0000000000000000e+00" cType="1" res="1.2456264812499285e-03" rms="4.9200841784477234e-01" purity="5.7416683435440063e-01" nType="-99"/>
          <Node pos="r" depth="2" NCoef="0" IVar="-1" Cut="0.0000000000000000e+00" cType="1" res="3.7600996438413858e-03" rms="4.5190599560737610e-01" purity="7.0832014083862305e-01" nType="-99"/>
        </Node>
      </Node>
    </BinaryTree>
    <BinaryTree type="DecisionTree" boostWeight="1.0000000000000000e+00" itree="25">
      <Node pos="s" depth="0" NCoef="0" IVar="4" Cut="9.7188615798950195e-01" cType="1" res="3.5980539396405220e-03" rms="4.9210330843925476e-01" purity="4.9849569797515869e-01" nType="0">
        <Node pos="l" depth="1" NCoef="0" IVar="2" Cut="5.3595275878906250e+02" cType="1" res="-3.7365961819887161e-02" rms="4.9241557717323303e-01" purity="4.4492772221565247e-01" nType="0">
          <Node pos="l" depth="2" NCoef="0" IVar="-1" Cut="0.0000000000000000e+00" cType="1" res="-3.1652827747166157e-03" rms="4.7960636019706726e-01" purity="3.6933085322380066e-01" nType="-99"/>
          <Node pos="r" depth="2" NCoef="0" IVar="-1" Cut="0.0000000000000000e+00" cType="1" res="7.2786054806783795e-04" rms="4.9807736277580261e-01" purity="5.2764642238616943e-01" nType="-99"/>
        </Node>
        <Node pos="r" depth="1" NCoef="0" IVar="0" Cut="-3.3598706126213074e-02" cType="1" res="1.4127582311630249e-01" rms="4.6533584594726562e-01" purity="6.7853468656539917e-01" nType="0">
          <Node pos="l" depth="2" NCoef="0" IVar="-1" Cut="0.0000000000000000e+00" cType="1" res="1.7610912909731269e-03" rms="4.8508796095848083e-01" purity="6.1170166730880737e-01" nType="-99"/>
          <Node pos="r" depth="2" NCoef="0" IVar="-1" Cut="0.0000000000000000e+00" cType="1" res="3.8378783501684666e-03" rms="4.4764703512191772e-01" purity="7.1964275836944580e-01" nType="-99"/>
        </Node>
      </Node>
    </BinaryTree>
    <BinaryTree type="DecisionTree" boostWeight="1.0000000000000000e+00" itree="26">
      <Node pos="s" depth="0" NCoef="0" IVar="4" Cut="9.5379573106765747e-01" cType="1" res="3.5210014320909977e-03" rms="4.9199309945106506e-01" purity="4.9828091263771057e-01" nType="0">
        <Node pos="l" depth="1" NCoef="0" IVar="2" Cut="4.3479916381835938e+02" cType="1" res="-6.4888603985309601e-02" rms="4.8797130584716797e-01" purity="4.0989422798156738e-01" nType="0">
          <Node pos="l" depth="2" NCoef="0" IVar="-1" Cut="0.0000000000000000e+00" cType="1" res="-6.1483699828386307e-03" rms="4.4906583428382874e-01" purity="2.8129020333290100e-01" nType="-99"/>
          <Node pos="r" depth="2" NCoef="0" IVar="-1" Cut="0.0000000000000000e+00" cType="1" res="-9.4458245439454913e-04" rms="4.9638560414314270e-01" purity="4.5386904478073120e-01" nType="-99"/>
        </Node>
        <Node pos="r" depth="1" NCoef="0" IVar="4" Cut="9.8220801353454590e-01" cType="1" res="8.0518886446952820e-02" rms="4.8507437109947205e-01" purity="5.9776383638381958e-01" nType="0">
          <Node pos="l" depth="2" NCoef="0" IVar="-1" Cut="0.0000000000000000e+00" cType="1" res="1.1667778016999364e-03" rms="4.9337092041969299e-01" purity="5.5314135551452637e-01" nType="-99"/>
          <Node pos="r" depth="2" NCoef="0" IVar="-1" Cut="0.0000000000000000e+00" cType="1" res="3.7129437550902367e-03" rms="4.4758695363998413e-01" purity="7.2034901380538940e-01" nType="-99"/>
        </Node>
      </Node>
    </BinaryTree>
    <BinaryTree type="DecisionTree" boostWeight="1.0000000000000000e+00" itree="27">
      <Node pos="s" depth="0" NCoef="0" IVar="4" Cut="9.5381009578704834e-01" cType="1" res="3.8182092830538750e-03" rms="4.9169799685478210e-01" purity="4.9833723902702332e-01" nType="0">
        <Node pos="l" depth="1" NCoef="0" IVar="2" Cut="4.3647204589843750e+02" cType="1" res="-6.7014284431934357e-02" rms="4.8713776469230652e-01" purity="4.0653795003890991e-01" nType="0">
          <Node pos="l" depth="2" NCoef="0" IVar="-1" Cut="0.0000000000000000e+00" cType="1" res="-6.2718749977648258e-03" rms="4.4659405946731567e-01" purity="2.7646961808204651e-01" nType="-99"/>
          <Node pos="r" depth="2" NCoef="0" IVar="-1" Cut="0.0000000000000000e+00" cType="1" res="-9.6285378094762564e-04" rms="4.9641725420951843e-01" purity="4.5314246416091919e-01" nType="-99"/>
        </Node>
        <Node pos="r" depth="1" NCoef="0" IVar="1" Cut="6.5009969472885132e-01" cType="1" res="8.3545312285423279e-02" rms="4.8454871773719788e-01" purity="6.0166394710540771e-01" nType="0">
          <Node pos="l" depth="2" NCoef="0" IVar="-1" Cut="0.0000000000000000e+00" cType="1" res="6.2676507513970137e-04" rms="4.9434342980384827e-01" purity="5.3706461191177368e-01" nType="-99"/>
          <Node pos="r" depth="2" NCoef="0" IVar="-1" Cut="0.0000000000000000e+00" cType="1" res="3.2022993545979261e-03" rms="4.6632286906242371e-01" purity="6.6824263334274292e-01" nType="-99"/>
        </Node>
      </Node>
    </BinaryTree>
    <BinaryTree type="DecisionTree" boostWeight="1.0000000000000000e+00" itree="28">
      <Node pos="s" depth="0" NCoef="0" IVar="4" Cut="9.5818787813186646e-01" cType="1" res="5.9956507757306099e-03" rms="4.9147105216979980e-01" purity="5.0052970647811890e-01" nType="0">
        <Node pos="l" depth="1" NCoef="0" IVar="1" Cut="6.5127235651016235e-01" cType="1" res="-5.8012910187244415e-02" rms="4.8913431167602539e-01" purity="4.1510426998138428e-01" nType="0">
          <Node pos="l" depth="2" NCoef="0" IVar="-1" Cut="0.0000000000000000e+00" cType="1" res="-3.4668478183448315e-03" rms="4.7867736220359802e-01" purity="3.6604487895965576e-01" nType="-99"/>
          <Node pos="r" depth="2" NCoef="0" IVar="-1" Cut="0.0000000000000000e+00" cType="1" res="2.2253163479035720e-05" rms="4.9636724591255188e-01" purity="4.7924411296844482e-01" nType="-99"/>
        </Node>
        <Node pos="r" depth="1" NCoef="0" IVar="2" Cut="4.6145230102539062e+02" cType="1" res="9.8103158175945282e-02" rms="4.8006421327590942e-01" purity="6.2345576286315918e-01" nType="0">
          <Node pos="l" depth="2" NCoef="0" IVar="-1" Cut="0.0000000000000000e+00" cType="1" res="2.5569627177901566e-04" rms="4.9589329957962036e-01" purity="5.1994597911834717e-01" nType="-99"/>
          <Node pos="r" depth="2" NCoef="0" IVar="-1" Cut="0.0000000000000000e+00" cType="1" res="3.0286405235528946e-03" rms="4.6793118119239807e-01" purity="6.6810423135757446e-01" nType="-99"/>
        </Node>
      </Node>
    </BinaryTree>
    <BinaryTree type="DecisionTree" boostWeight="1.0000000000000000e+00" itree="29">
      <Node pos="s" depth="0" NCoef="0" IVar="4" Cut="9.4917941093444824e-01" cType="1" res="5.7462616823613644e-03" rms="4.9126237630844116e-01" purity="5.0033706426620483e-01" nType="0">
        <Node pos="l" depth="1" NCoef="0" IVar="2" Cut="5.3325061035156250e+02" cType="1" res="-7.0719256997108459e-02" rms="4.8564627766609192e-01" purity="4.0046778321266174e-01" nType="0">
          <Node pos="l" depth="2" NCoef="0" IVar="-1" Cut="0.0000000000000000e+00" cType="1" res="-4.4803880155086517e-03" rms="4.6568974852561951e-01" purity="3.2404261827468872e-01" nType="-99"/>
          <Node pos="r" depth="2" NCoef="0" IVar="-1" Cut="0.0000000000000000e+00" cType="1" res="-3.4175161272287369e-04" rms="4.9916404485702515e-01" purity="4.8107758164405823e-01" nType="-99"/>
        </Node>
        <Node pos="r" depth="1" NCoef="0" IVar="2" Cut="4.4098339843750000e+02" cType="1" res="6.8540118634700775e-02" rms="4.8692873120307922e-01" purity="5.8235019445419312e-01" nType="0">
          <Node pos="l" depth="2" NCoef="0" IVar="-1" Cut="0.0000000000000000e+00" cType="1" res="-1.1971191270276904e-03" rms="4.9151077866554260e-01" purity="4.4988551735877991e-01" nType="-99"/>
          <Node pos="r" depth="2" NCoef="0" IVar="-1" Cut="0.0000000000000000e+00" cType="1" res="2.4184831418097019e-03" rms="4.8028010129928589e-01" purity="6.2446814775466919e-01" nType="-99"/>
        </Node>
      </Node>
    </BinaryTree>
    <BinaryTree type="DecisionTree" boostWeight="1.0000000000000000e+00" itree="30">
      <Node pos="s" depth="0" NCoef="0" IVar="4" Cut="9.7197932004928589e-01" cType="1" res="7.4276840314269066e-03" rms="4.9060523509979248e-01" purity="5.0191318988800049e-01" nType="0">
        <Node pos="l" depth="1" NCoef="0" IVar="2" Cut="5.2811322021484375e+02" cType="1" res="-3.2826360315084457e-02" rms="4.9160784482955933e-01" purity="4.4709396362304688e-01" nType="0">
          <Node pos="l" depth="2" NCoef="0" IVar="-1" Cut="0.0000000000000000e+00" cType="1" res="-3.1381847802549601e-03" rms="4.7762516140937805e-01" purity="3.6474978923797607e-01" nType="-99"/>
          <Node pos="r" depth="2" NCoef="0" IVar="-1" Cut="0.0000000000000000e+00" cType="1" res="7.6111120870336890e-04" rms="4.9757853150367737e-01" purity="5.2878302335739136e-01" nType="-99"/>
        </Node>
        <Node pos="r" depth="1" NCoef="0" IVar="4" Cut="9.8732203245162964e-01" cType="1" res="1.4146898686885834e-01" rms="4.6265709400177002e-01" purity="6.8445473909378052e-01" nType="0">
          <Node pos="l" depth="2" NCoef="0" IVar="-1" Cut="0.0000000000000000e+00" cType="1" res="2.3392492439597845e-03" rms="4.7821909189224243e-01" purity="6.4025700092315674e-01" nType="-99"/>
          <Node pos="r" depth="2" NCoef="0" IVar="-1" Cut="0.0000000000000000e+00" cType="1" res="4.2606634087860584e-03" rms="4.2318090796470642e-01" purity="7.6429510116577148e-01" nType="-99"/>
        </Node>
      </Node>
    </BinaryTree>
    <BinaryTree type="DecisionTree" boostWeight="1.0000000000000000e+00" itree="31">
      <Node pos="s" depth="0" NCoef="0" IVar="4" Cut="9.6289902925491333e-01" cType="1" res="3.0638363678008318e-03" rms="4.9047219753265381e-01" purity="4.9733787775039673e-01" nType="0">
        <Node pos="l" depth="1" NCoef="0" IVar="2" Cut="4.3479916381835938e+02" cType="1" res="-4.8512216657400131e-02" rms="4.8940941691398621e-01" purity="4.2466872930526733e-01" nType="0">
          <Node pos="l" depth="2" NCoef="0" IVar="-1" Cut="0.0000000000000000e+00" cType="1" res="-5.5838604457676411e-03" rms="4.5135572552680969e-01" purity="2.8766283392906189e-01" nType="-99"/>
          <Node pos="r" depth="2" NCoef="0" IVar="-1" Cut="0.0000000000000000e+00" cType="1" res="-4.4523796532303095e-04" rms="4.9712836742401123e-01" purity="4.7042763233184814e-01" nType="-99"/>
        </Node>
        <Node pos="r" depth="1" NCoef="0" IVar="4" Cut="9.7994083166122437e-01" cType="1" res="1.0247422754764557e-01" rms="4.7703310847282410e-01" purity="6.3740414381027222e-01" nType="0">
          <Node pos="l" depth="2" NCoef="0" IVar="-1" Cut="0.0000000000000000e+00" cType="1" res="1.2887092307209969e-03" rms="4.9157553911209106e-01" purity="5.7618349790573120e-01" nType="-99"/>
          <Node pos="r" depth="2" NCoef="0" IVar="-1" Cut="0.0000000000000000e+00" cType="1" res="3.5389491822570562e-03" rms="4.4925928115844727e-01" purity="7.1627742052078247e-01" nType="-99"/>
        </Node>
      </Node>
    </BinaryTree>
    <BinaryTree type="DecisionTree" boostWeight="1.0000000000000000e+00" itree="32">
      <Node pos="s" depth="0" NCoef="0" IVar="4" Cut="9.4956636428833008e-01" cType="1" res="2.2190506570041180e-03" rms="4.9059101939201355e-01" purity="4.9597135186195374e-01" nType="0">
        <Node pos="l" depth="1" NCoef="0" IVar="2" Cut="4.9534689331054688e+02" cType="1" res="-7.2133146226406097e-02" rms="4.8469778895378113e-01" purity="3.9600181579589844e-01" nType="0">
          <Node pos="l" depth="2" NCoef="0" IVar="-1" Cut="0.0000000000000000e+00" cType="1" res="-4.7468706034123898e-03" rms="4.6046102046966553e-01" purity="3.0926302075386047e-01" nType="-99"/>
          <Node pos="r" depth="2" NCoef="0" IVar="-1" Cut="0.0000000000000000e+00" cType="1" res="-8.2617462612688541e-04" rms="4.9771091341972351e-01" purity="4.6133744716644287e-01" nType="-99"/>
        </Node>
        <Node pos="r" depth="1" NCoef="0" IVar="1" Cut="6.5196931362152100e-01" cType="1" res="6.6096536815166473e-02" rms="4.8660832643508911e-01" purity="5.8185714483261108e-01" nType="0">
          <Node pos="l" depth="2" NCoef="0" IVar="-1" Cut="0.0000000000000000e+00" cType="1" res="2.0930386381223798e-04" rms="4.9381461739540100e-01" purity="5.1769006252288818e-01" nType="-99"/>
          <Node pos="r" depth="2" NCoef="0" IVar="-1" Cut="0.0000000000000000e+00" cType="1" res="2.8940543998032808e-03" rms="4.7126528620719910e-01" purity="6.4912009239196777e-01" nType="-99"/>
        </Node>
      </Node>
    </BinaryTree>
    <BinaryTree type="DecisionTree" boostWeight="1.0000000000000000e+00" itree="33">
      <Node pos="s" depth="0" NCoef="0" IVar="4" Cut="9.6751427650451660e-01" cType="1" res="4.8313187435269356e-03" rms="4.9052223563194275e-01" purity="4.9827072024345398e-01" nType="0">
        <Node pos="l" depth="1" NCoef="0" IVar="1" Cut="7.2310972213745117e-01" cType="1" res="-3.6614678800106049e-02" rms="4.9100545048713684e-01" purity="4.3798893690109253e-01" nType="0">
          <Node pos="l" depth="2" NCoef="0" IVar="-1" Cut="0.0000000000000000e+00" cType="1" res="-2.3446935229003429e-03" rms="4.8502475023269653e-01" purity="3.9756330847740173e-01" nType="-99"/>
          <Node pos="r" depth="2" NCoef="0" IVar="-1" Cut="0.0000000000000000e+00" cType="1" res="1.3119304785504937e-03" rms="4.9405932426452637e-01" purity="5.3322070837020874e-01" nType="-99"/>
        </Node>
        <Node pos="r" depth="1" NCoef="0" IVar="2" Cut="4.3238934326171875e+02" cType="1" res="1.1262466758489609e-01" rms="4.7253730893135071e-01" purity="6.5505254268646240e-01" nType="0">
          <Node pos="l" depth="2" NCoef="0" IVar="-1" Cut="0.0000000000000000e+00" cType="1" res="4.5220174797577783e-05" rms="4.9704080820083618e-01" purity="5.2973562479019165e-01" nType="-99"/>
          <Node pos="r" depth="2" NCoef="0" IVar="-1" Cut="0.0000000000000000e+00" cType="1" res="3.1153019517660141e-03" rms="4.6139979362487793e-01" purity="6.8820434808731079e-01" nType="-99"/>
        </Node>
      </Node>
    </BinaryTree>
    <BinaryTree type="DecisionTree" boostWeight="1.0000000000000000e+00" itree="34">
      <Node pos="s" depth="0" NCoef="0" IVar="4" Cut="9.7178369760513306e-01" cType="1" res="6.0421838425099850e-03" rms="4.9006000161170959e-01" purity="4.9965929985046387e-01" nType="0">
        <Node pos="l" depth="1" NCoef="0" IVar="2" Cut="4.3647204589843750e+02" cType="1" res="-3.1080998480319977e-02" rms="4.9120742082595825e-01" purity="4.4635486602783203e-01" nType="0">
          <Node pos="l" depth="2" NCoef="0" IVar="-1" Cut="0.0000000000000000e+00" cType="1" res="-4.9898466095328331e-03" rms="4.5806851983070374e-01" purity="3.0327779054641724e-01" nType="-99"/>
          <Node pos="r" depth="2" NCoef="0" IVar="-1" Cut="0.0000000000000000e+00" cType="1" res="9.2466594651341438e-05" rms="4.9703833460807800e-01" purity="4.9410137534141541e-01" nType="-99"/>
        </Node>
        <Node pos="r" depth="1" NCoef="0" IVar="1" Cut="6.7487353086471558e-01" cType="1" res="1.3010384142398834e-01" rms="4.6518725156784058e-01" purity="6.7779690027236938e-01" nType="0">
          <Node pos="l" depth="2" NCoef="0" IVar="-1" Cut="0.0000000000000000e+00" cType="1" res="1.9199009984731674e-03" rms="4.8317745327949524e-01" purity="6.2372928857803345e-01" nType="-99"/>
          <Node pos="r" depth="2" NCoef="0" IVar="-1" Cut="0.0000000000000000e+00" cType="1" res="3.8476258050650358e-03" rms="4.3721547722816467e-01" purity="7.3943477869033813e-01" nType="-99"/>
        </Node>
      </Node>
    </BinaryTree>
    <BinaryTree type="DecisionTree" boostWeight="1.0000000000000000e+00" itree="35">
      <Node pos="s" depth="0" NCoef="0" IVar="4" Cut="9.5827746391296387e-01" cType="1" res="9.1832429170608521e-03" rms="4.9006384611129761e-01" purity="5.0261962413787842e-01" nType="0">
        <Node pos="l" depth="1" NCoef="0" IVar="1" Cut="6.5428769588470459e-01" cType="1" res="-4.5338600873947144e-02" rms="4.8920273780822754e-01" purity="4.2284032702445984e-01" nType="0">
          <Node pos="l" depth="2" NCoef="0" IVar="-1" Cut="0.0000000000000000e+00" cType="1" res="-3.0314833857119083e-03" rms="4.7928029298782349e-01" purity="3.7140631675720215e-01" nType="-99"/>
          <Node pos="r" depth="2" NCoef="0" IVar="-1" Cut="0.0000000000000000e+00" cType="1" res="4.0921964682638645e-04" rms="4.9559003114700317e-01" purity="4.9061763286590576e-01" nType="-99"/>
        </Node>
        <Node pos="r" depth="1" NCoef="0" IVar="4" Cut="9.7998988628387451e-01" cType="1" res="8.9279532432556152e-02" rms="4.8022803664207458e-01" purity="6.1982089281082153e-01" nType="0">
          <Node pos="l" depth="2" NCoef="0" IVar="-1" Cut="0.0000000000000000e+00" cType="1" res="1.2037946144118905e-03" rms="4.9199837446212769e-01" purity="5.6559175252914429e-01" nType="-99"/>
          <Node pos="r" depth="2" NCoef="0" IVar="-1" Cut="0.0000000000000000e+00" cType="1" res="3.4603837411850691e-03" rms="4.4922429323196411e-01" purity="7.1640783548355103e-01" nType="-99"/>
        </Node>
      </Node>
    </BinaryTree>
    <BinaryTree type="DecisionTree" boostWeight="1.0000000000000000e+00" itree="36">
      <Node pos="s" depth="0" NCoef="0" IVar="4" Cut="9.7198790311813354e-01" cType="1" res="3.6861824337393045e-03" rms="4.8984268307685852e-01" purity="4.9712541699409485e-01" nType="0">
        <Node pos="l" depth="1" NCoef="0" IVar="2" Cut="4.8217663574218750e+02" cType="1" res="-3.0769137665629387e-02" rms="4.9105861783027649e-01" purity="4.4605427980422974e-01" nType="0">
          <Node pos="l" depth="2" NCoef="0" IVar="-1" Cut="0.0000000000000000e+00" cType="1" res="-3.4943763166666031e-03" rms="4.7195923328399658e-01" purity="3.4442561864852905e-01" nType="-99"/>
          <Node pos="r" depth="2" NCoef="0" IVar="-1" Cut="0.0000000000000000e+00" cType="1" res="3.5182829014956951e-04" rms="4.9746704101562500e-01" purity="5.0869095325469971e-01" nType="-99"/>
        </Node>
        <Node pos="r" depth="1" NCoef="0" IVar="2" Cut="4.5818914794921875e+02" cType="1" res="1.2213786691427231e-01" rms="4.6661919355392456e-01" purity="6.7269963026046753e-01" nType="0">
          <Node pos="l" depth="2" NCoef="0" IVar="-1" Cut="0.0000000000000000e+00" cType="1" res="6.2749261269345880e-04" rms="4.9417284131050110e-01" purity="5.6302517652511597e-01" nType="-99"/>
          <Node pos="r" depth="2" NCoef="0" IVar="-1" Cut="0.0000000000000000e+00" cType="1" res="3.4032720141112804e-03" rms="4.4995594024658203e-01" purity="7.1500295400619507e-01" nType="-99"/>
        </Node>
      </Node>
    </BinaryTree>
    <BinaryTree type="DecisionTree" boostWeight="1.0000000000000000e+00" itree="37">
      <Node pos="s" depth="0" NCoef="0" IVar="4" Cut="9.5443278551101685e-01" cType="1" res="8.2510160282254219e-03" rms="4.8957306146621704e-01" purity="5.0166678428649902e-01" nType="0">
        <Node pos="l" depth="1" NCoef="0" IVar="1" Cut="6.5127235651016235e-01" cType="1" res="-5.2635565400123596e-02" rms="4.8757851123809814e-01" purity="4.1270917654037476e-01" nType="0">
          <Node pos="l" depth="2" NCoef="0" IVar="-1" Cut="0.0000000000000000e+00" cType="1" res="-3.3638761378824711e-03" rms="4.7636780142784119e-01" purity="3.6021173000335693e-01" nType="-99"/>
          <Node pos="r" depth="2" NCoef="0" IVar="-1" Cut="0.0000000000000000e+00" cType="1" res="2.1289293363224715e-04" rms="4.9549305438995361e-01" purity="4.8159754276275635e-01" nType="-99"/>
        </Node>
        <Node pos="r" depth="1" NCoef="0" IVar="4" Cut="9.8104578256607056e-01" cType="1" res="7.8558750450611115e-02" rms="4.8239856958389282e-01" purity="6.0438913106918335e-01" nType="0">
          <Node pos="l" depth="2" NCoef="0" IVar="-1" Cut="0.0000000000000000e+00" cType="1" res="1.0323564056307077e-03" rms="4.9285221099853516e-01" purity="5.5253314971923828e-01" nType="-99"/>
          <Node pos="r" depth="2" NCoef="0" IVar="-1" Cut="0.0000000000000000e+00" cType="1" res="3.5339745227247477e-03" rms="4.4396770000457764e-01" purity="7.2649455070495605e-01" nType="-99"/>
        </Node>
      </Node>
    </BinaryTree>
    <BinaryTree type="DecisionTree" boostWeight="1.0000000000000000e+00" itree="38">
      <Node pos="s" depth="0" NCoef="0" IVar="4" Cut="9.4898670911788940e-01" cType="1" res="6.4227795228362083e-03" rms="4.8907783627510071e-01" purity="4.9984461069107056e-01" nType="0">
        <Node pos="l" depth="1" NCoef="0" IVar="2" Cut="5.2139953613281250e+02" cType="1" res="-6.9724738597869873e-02" rms="4.8327299952507019e-01" purity="3.9369851350784302e-01" nType="0">
          <Node pos="l" depth="2" NCoef="0" IVar="-1" Cut="0.0000000000000000e+00" cType="1" res="-4.5885285362601280e-03" rms="4.6037775278091431e-01" purity="3.1028348207473755e-01" nType="-99"/>
          <Node pos="r" depth="2" NCoef="0" IVar="-1" Cut="0.0000000000000000e+00" cType="1" res="-4.5392659376375377e-04" rms="4.9849382042884827e-01" purity="4.7426876425743103e-01" nType="-99"/>
        </Node>
        <Node pos="r" depth="1" NCoef="0" IVar="2" Cut="4.4985134887695312e+02" cType="1" res="6.7905485630035400e-02" rms="4.8506966233253479e-01" purity="5.8554857969284058e-01" nType="0">
          <Node pos="l" depth="2" NCoef="0" IVar="-1" Cut="0.0000000000000000e+00" cType="1" res="-8.7436859030276537e-04" rms="4.9190318584442139e-01" purity="4.5972803235054016e-01" nType="-99"/>
          <Node pos="r" depth="2" NCoef="0" IVar="-1" Cut="0.0000000000000000e+00" cType="1" res="2.4175872094929218e-03" rms="4.7761142253875732e-01" purity="6.3124740123748779e-01" nType="-99"/>
        </Node>
      </Node>
    </BinaryTree>
    <BinaryTree type="DecisionTree" boostWeight="1.0000000000000000e+00" itree="39">
      <Node pos="s" depth="0" NCoef="0" IVar="4" Cut="9.5825922489166260e-01" cType="1" res="8.5026649758219719e-03" rms="4.8918712139129639e-01" purity="5.0155073404312134e-01" nType="0">
        <Node pos="l" depth="1" NCoef="0" IVar="1" Cut="6.7446786165237427e-01" cType="1" res="-4.3827172368764877e-02" rms="4.8867857456207275e-01" purity="4.2154482007026672e-01" nType="0">
          <Node pos="l" depth="2" NCoef="0" IVar="-1" Cut="0.0000000000000000e+00" cType="1" res="-2.9620116110891104e-03" rms="4.7872787714004517e-01" purity="3.6997899413108826e-01" nType="-99"/>
          <Node pos="r" depth="2" NCoef="0" IVar="-1" Cut="0.0000000000000000e+00" cType="1" res="6.9325580261647701e-04" rms="4.9583426117897034e-01" purity="5.0152808427810669e-01" nType="-99"/>
        </Node>
        <Node pos="r" depth="1" NCoef="0" IVar="2" Cut="4.9482949829101562e+02" cType="1" res="8.5826680064201355e-02" rms="4.7959724068641663e-01" purity="6.1976969242095947e-01" nType="0">
          <Node pos="l" depth="2" NCoef="0" IVar="-1" Cut="0.0000000000000000e+00" cType="1" res="4.0449172956869006e-04" rms="4.9258527159690857e-01" purity="5.3386265039443970e-01" nType="-99"/>
          <Node pos="r" depth="2" NCoef="0" IVar="-1" Cut="0.0000000000000000e+00" cType="1" res="2.9109457973390818e-03" rms="4.6535027027130127e-01" purity="6.7537987232208252e-01" nType="-99"/>
        </Node>
      </Node>
    </BinaryTree>
    <BinaryTree type="DecisionTree" boostWeight="1.0000000000000000e+00" itree="40">
      <Node pos="s" depth="0" NCoef="0" IVar="4" Cut="9.5355117321014404e-01" cType="1" res="8.2376468926668167e-03" rms="4.8857009410858154e-01" purity="5.0161629915237427e-01" nType="0">
        <Node pos="l" depth="1" NCoef="0" IVar="2" Cut="4.1974411010742188e+02" cType="1" res="-5.6562438607215881e-02" rms="4.8526787757873535e-01" purity="4.0656048059463501e-01" nType="0">
          <Node pos="l" depth="2" NCoef="0" IVar="-1" Cut="0.0000000000000000e+00" cType="1" res="-6.7257871851325035e-03" rms="4.3354997038841248e-01" purity="2.5172841548919678e-01" nType="-99"/>
          <Node pos="r" depth="2" NCoef="0" IVar="-1" Cut="0.0000000000000000e+00" cType="1" res="-8.3175243344157934e-04" rms="4.9433386325836182e-01" purity="4.4799184799194336e-01" nType="-99"/>
        </Node>
        <Node pos="r" depth="1" NCoef="0" IVar="2" Cut="4.3639715576171875e+02" cType="1" res="7.7832184731960297e-02" rms="4.8249495029449463e-01" purity="6.0370510816574097e-01" nType="0">
          <Node pos="l" depth="2" NCoef="0" IVar="-1" Cut="0.0000000000000000e+00" cType="1" res="-5.7946075685322285e-04" rms="4.9396345019340515e-01" purity="4.7668549418449402e-01" nType="-99"/>
          <Node pos="r" depth="2" NCoef="0" IVar="-1" Cut="0.0000000000000000e+00" cType="1" res="2.4770963937044144e-03" rms="4.7491911053657532e-01" purity="6.4239925146102905e-01" nType="-99"/>
        </Node>
      </Node>
    </BinaryTree>
    <BinaryTree type="DecisionTree" boostWeight="1.0000000000000000e+00" itree="41">
      <Node pos="s" depth="0" NCoef="0" IVar="4" Cut="9.7197932004928589e-01" cType="1" res="5.9925462119281292e-03" rms="4.8877704143524170e-01" purity="4.9911242723464966e-01" nType="0">
        <Node pos="l" depth="1" NCoef="0" IVar="2" Cut="4.3192135620117188e+02" cType="1" res="-2.7563491836190224e-02" rms="4.9047285318374634e-01" purity="4.4694402813911438e-01" nType="0">
          <Node pos="l" depth="2" NCoef="0" IVar="-1" Cut="0.0000000000000000e+00" cType="1" res="-4.2698448523879051e-03" rms="4.6065625548362732e-01" purity="3.1206390261650085e-01" nType="-99"/>
          <Node pos="r" depth="2" NCoef="0" IVar="-1" Cut="0.0000000000000000e+00" cType="1" res="1.3806504284730181e-05" rms="4.9627149105072021e-01" purity="4.8971062898635864e-01" nType="-99"/>
        </Node>
        <Node pos="r" depth="1" NCoef="0" IVar="1" Cut="6.7956596612930298e-01" cType="1" res="1.1905827373266220e-01" rms="4.6554237604141235e-01" purity="6.7489171028137207e-01" nType="0">
          <Node pos="l" depth="2" NCoef="0" IVar="-1" Cut="0.0000000000000000e+00" cType="1" res="1.5369934262707829e-03" rms="4.8462384939193726e-01" purity="6.1440706253051758e-01" nType="-99"/>
          <Node pos="r" depth="2" NCoef="0" IVar="-1" Cut="0.0000000000000000e+00" cType="1" res="3.7249526940286160e-03" rms="4.3441727757453918e-01" purity="7.4392545223236084e-01" nType="-99"/>
        </Node>
      </Node>
    </BinaryTree>
    <BinaryTree type="DecisionTree" boostWeight="1.0000000000000000e+00" itree="42">
      <Node pos="s" depth="0" NCoef="0" IVar="4" Cut="9.3993598222732544e-01" cType="1" res="3.6627354566007853e-03" rms="4.8838403820991516e-01" purity="4.9664294719696045e-01" nType="0">
        <Node pos="l" depth="1" NCoef="0" IVar="1" Cut="6.5888017416000366e-01" cType="1" res="-8.5756950080394745e-02" rms="4.7819542884826660e-01" purity="3.7395617365837097e-01" nType="0">
          <Node pos="l" depth="2" NCoef="0" IVar="-1" Cut="0.0000000000000000e+00" cType="1" res="-4.7582909464836121e-03" rms="4.6242141723632812e-01" purity="3.2141348719596863e-01" nType="-99"/>
          <Node pos="r" depth="2" NCoef="0" IVar="-1" Cut="0.0000000000000000e+00" cType="1" res="-6.1503058532252908e-04" rms="4.9283772706985474e-01" purity="4.4942942261695862e-01" nType="-99"/>
        </Node>
        <Node pos="r" depth="1" NCoef="0" IVar="2" Cut="4.0183804321289062e+02" cType="1" res="4.5900899916887283e-02" rms="4.8745238780975342e-01" purity="5.5459505319595337e-01" nType="0">
          <Node pos="l" depth="2" NCoef="0" IVar="-1" Cut="0.0000000000000000e+00" cType="1" res="-3.1241858378052711e-03" rms="4.7486299276351929e-01" purity="3.7574207782745361e-01" nType="-99"/>
          <Node pos="r" depth="2" NCoef="0" IVar="-1" Cut="0.0000000000000000e+00" cType="1" res="1.6997271450236440e-03" rms="4.8567861318588257e-01" purity="5.8390986919403076e-01" nType="-99"/>
        </Node>
      </Node>
    </BinaryTree>
    <BinaryTree type="DecisionTree" boostWeight="1.0000000000000000e+00" itree="43">
      <Node pos="s" depth="0" NCoef="0" IVar="4" Cut="9.4534403085708618e-01" cType="1" res="1.0066837072372437e-02" rms="4.8841151595115662e-01" purity="5.0264918804168701e-01" nType="0">
        <Node pos="l" depth="1" NCoef="0" IVar="1" Cut="6.5370607376098633e-01" cType="1" res="-6.5276324748992920e-02" rms="4.8270398378372192e-01" purity="3.9378923177719116e-01" nType="0">
          <Node pos="l" depth="2" NCoef="0" IVar="-1" Cut="0.0000000000000000e+00" cType="1" res="-3.8888086564838886e-03" rms="4.6911895275115967e-01" purity="3.4003087878227234e-01" nType="-99"/>
          <Node pos="r" depth="2" NCoef="0" IVar="-1" Cut="0.0000000000000000e+00" cType="1" res="-1.2694497127085924e-04" rms="4.9398460984230042e-01" purity="4.6638566255569458e-01" nType="-99"/>
        </Node>
        <Node pos="r" depth="1" NCoef="0" IVar="2" Cut="4.7786233520507812e+02" cType="1" res="5.8947622776031494e-02" rms="4.8586991429328918e-01" purity="5.7327479124069214e-01" nType="0">
          <Node pos="l" depth="2" NCoef="0" IVar="-1" Cut="0.0000000000000000e+00" cType="1" res="-3.1827011844143271e-04" rms="4.9137684702873230e-01" purity="4.7604927420616150e-01" nType="-99"/>
          <Node pos="r" depth="2" NCoef="0" IVar="-1" Cut="0.0000000000000000e+00" cType="1" res="2.2979187779128551e-03" rms="4.7844353318214417e-01" purity="6.2677425146102905e-01" nType="-99"/>
        </Node>
      </Node>
    </BinaryTree>
    <BinaryTree type="DecisionTree" boostWeight="1.0000000000000000e+00" itree="44">
      <Node pos="s" depth="0" NCoef="0" IVar="4" Cut="9.7187680006027222e-01" cType="1" res="7.5953495688736439e-03" rms="4.8826104402542114e-01" purity="5.0021916627883911e-01" nType="0">
        <Node pos="l" depth="1" NCoef="0" IVar="2" Cut="5.3028692626953125e+02" cType="1" res="-2.5334747508168221e-02" rms="4.9024295806884766e-01" purity="4.4779679179191589e-01" nType="0">
          <Node pos="l" depth="2" NCoef="0" IVar="-1" Cut="0.0000000000000000e+00" cType="1" res="-2.5111678987741470e-03" rms="4.7833827137947083e-01" purity="3.7085849046707153e-01" nType="-99"/>
          <Node pos="r" depth="2" NCoef="0" IVar="-1" Cut="0.0000000000000000e+00" cType="1" res="7.1539601776748896e-04" rms="4.9675947427749634e-01" purity="5.2662652730941772e-01" nType="-99"/>
        </Node>
        <Node pos="r" depth="1" NCoef="0" IVar="1" Cut="6.5196931362152100e-01" cType="1" res="1.1823905259370804e-01" rms="4.6475514769554138e-01" purity="6.7635613679885864e-01" nType="0">
          <Node pos="l" depth="2" NCoef="0" IVar="-1" Cut="0.0000000000000000e+00" cType="1" res="1.3019618345424533e-03" rms="4.8669373989105225e-01" purity="6.0501521825790405e-01" nType="-99"/>
          <Node pos="r" depth="2" NCoef="0" IVar="-1" Cut="0.0000000000000000e+00" cType="1" res="3.6958407144993544e-03" rms="4.3445202708244324e-01" purity="7.4361175298690796e-01" nType="-99"/>
        </Node>
      </Node>
    </BinaryTree>
    <BinaryTree type="DecisionTree" boostWeight="1.0000000000000000e+00" itree="45">
      <Node pos="s" depth="0" NCoef="0" IVar="4" Cut="9.6267038583755493e-01" cType="1" res="5.2698343060910702e-03" rms="4.8806047439575195e-01" purity="4.9778971076011658e-01" nType="0">
        <Node pos="l" depth="1" NCoef="0" IVar="1" Cut="6.9857788085937500e-01" cType="1" res="-3.7535645067691803e-02" rms="4.8845955729484558e-01" purity="4.2690765857696533e-01" nType="0">
          <Node pos="l" depth="2" NCoef="0" IVar="-1" Cut="0.0000000000000000e+00" cType="1" res="-2.4193827994167805e-03" rms="4.8103189468383789e-01" purity="3.8385730981826782e-01" nType="-99"/>
          <Node pos="r" depth="2" NCoef="0" IVar="-1" Cut="0.0000000000000000e+00" cType="1" res="8.5547729395329952e-04" rms="4.9509179592132568e-01" purity="5.0972735881805420e-01" nType="-99"/>
        </Node>
        <Node pos="r" depth="1" NCoef="0" IVar="2" Cut="4.3639715576171875e+02" cType="1" res="8.7125398218631744e-02" rms="4.7671121358871460e-01" purity="6.3333517313003540e-01" nType="0">
          <Node pos="l" depth="2" NCoef="0" IVar="-1" Cut="0.0000000000000000e+00" cType="1" res="-5.4396496852859855e-04" rms="4.9492725729942322e-01" purity="5.0097924470901489e-01" nType="-99"/>
          <Node pos="r" depth="2" NCoef="0" IVar="-1" Cut="0.0000000000000000e+00" cType="1" res="2.6266484055668116e-03" rms="4.6704539656639099e-01" purity="6.7069530487060547e-01" nType="-99"/>
        </Node>
      </Node>
    </BinaryTree>
    <BinaryTree type="DecisionTree" boostWeight="1.0000000000000000e+00" itree="46">
      <Node pos="s" depth="0" NCoef="0" IVar="4" Cut="9.8097652196884155e-01" cType="1" res="4.9048382788896561e-03" rms="4.8770108819007874e-01" purity="4.9762302637100220e-01" nType="0">
        <Node pos="l" depth="1" NCoef="0" IVar="2" Cut="5.2139953613281250e+02" cType="1" res="-2.0118687301874161e-02" rms="4.8986494541168213e-01" purity="4.6050763130187988e-01" nType="0">
          <Node pos="l" depth="2" NCoef="0" IVar="-1" Cut="0.0000000000000000e+00" cType="1" res="-2.3685377091169357e-03" rms="4.7822463512420654e-01" purity="3.8147482275962830e-01" nType="-99"/>
          <Node pos="r" depth="2" NCoef="0" IVar="-1" Cut="0.0000000000000000e+00" cType="1" res="7.6553731923922896e-04" rms="4.9553382396697998e-01" purity="5.3444850444793701e-01" nType="-99"/>
        </Node>
        <Node pos="r" depth="1" NCoef="0" IVar="-1" Cut="0.0000000000000000e+00" cType="1" res="3.3337431959807873e-03" rms="4.4478562474250793e-01" purity="7.2400933504104614e-01" nType="-99"/>
      </Node>
    </BinaryTree>
    <BinaryTree type="DecisionTree" boostWeight="1.0000000000000000e+00" itree="47">
      <Node pos="s" depth="0" NCoef="0" IVar="4" Cut="9.5379573106765747e-01" cType="1" res="1.1073046363890171e-02" rms="4.8750728368759155e-01" purity="5.0357878208160400e-01" nType="0">
        <Node pos="l" depth="1" NCoef="0" IVar="1" Cut="6.7122524976730347e-01" cType="1" res="-4.6670962125062943e-02" rms="4.8567315936088562e-01" purity="4.1213095188140869e-01" nType="0">
          <Node pos="l" depth="2" NCoef="0" IVar="-1" Cut="0.0000000000000000e+00" cType="1" res="-3.0005897860974073e-03" rms="4.7488677501678467e-01" purity="3.6132732033729553e-01" nType="-99"/>
          <Node pos="r" depth="2" NCoef="0" IVar="-1" Cut="0.0000000000000000e+00" cType="1" res="4.5773544115945697e-04" rms="4.9504652619361877e-01" purity="4.8961016535758972e-01" nType="-99"/>
        </Node>
        <Node pos="r" depth="1" NCoef="0" IVar="1" Cut="7.5034368038177490e-01" cType="1" res="7.5339384377002716e-02" rms="4.8146522045135498e-01" purity="6.0535585880279541e-01" nType="0">
          <Node pos="l" depth="2" NCoef="0" IVar="-1" Cut="0.0000000000000000e+00" cType="1" res="1.0304243769496679e-03" rms="4.8908042907714844e-01" purity="5.6603831052780151e-01" nType="-99"/>
          <Node pos="r" depth="2" NCoef="0" IVar="-1" Cut="0.0000000000000000e+00" cType="1" res="3.4522949717938900e-03" rms="4.5096388459205627e-01" purity="7.0204120874404907e-01" nType="-99"/>
        </Node>
      </Node>
    </BinaryTree>
    <BinaryTree type="DecisionTree" boostWeight="1.0000000000000000e+00" itree="48">
      <Node pos="s" depth="0" NCoef="0" IVar="4" Cut="9.7188270092010498e-01" cType="1" res="8.2459142431616783e-03" rms="4.8746836185455322e-01" purity="5.0093150138854980e-01" nType="0">
        <Node pos="l" depth="1" NCoef="0" IVar="1" Cut="6.5035784244537354e-01" cType="1" res="-2.4697959423065186e-02" rms="4.8974514007568359e-01" purity="4.4723320007324219e-01" nType="0">
          <Node pos="l" depth="2" NCoef="0" IVar="-1" Cut="0.0000000000000000e+00" cType="1" res="-2.2683276329189539e-03" rms="4.8163169622421265e-01" purity="3.9170593023300171e-01" nType="-99"/>
          <Node pos="r" depth="2" NCoef="0" IVar="-1" Cut="0.0000000000000000e+00" cType="1" res="8.2401244435459375e-04" rms="4.9391362071037292e-01" purity="5.1537835597991943e-01" nType="-99"/>
        </Node>
        <Node pos="r" depth="1" NCoef="0" IVar="1" Cut="6.8093091249465942e-01" cType="1" res="1.1823725700378418e-01" rms="4.6311491727828979e-01" purity="6.8021672964096069e-01" nType="0">
          <Node pos="l" depth="2" NCoef="0" IVar="-1" Cut="0.0000000000000000e+00" cType="1" res="1.5957287978380919e-03" rms="4.8267570137977600e-01" purity="6.2164556980133057e-01" nType="-99"/>
          <Node pos="r" depth="2" NCoef="0" IVar="-1" Cut="0.0000000000000000e+00" cType="1" res="3.7049057427793741e-03" rms="4.3132191896438599e-01" purity="7.4893873929977417e-01" nType="-99"/>
        </Node>
      </Node>
    </BinaryTree>
    <BinaryTree type="DecisionTree" boostWeight="1.0000000000000000e+00" itree="49">
      <Node pos="s" depth="0" NCoef="0" IVar="4" Cut="9.7189211845397949e-01" cType="1" res="9.4486912712454796e-03" rms="4.8742416501045227e-01" purity="5.0181800127029419e-01" nType="0">
        <Node pos="l" depth="1" NCoef="0" IVar="0" Cut="1.5039189159870148e-01" cType="1" res="-2.3297486826777458e-02" rms="4.9000227451324463e-01" purity="4.4774499535560608e-01" nType="0">
          <Node pos="l" depth="2" NCoef="0" IVar="-1" Cut="0.0000000000000000e+00" cType="1" res="-1.4061798574402928e-03" rms="4.8682948946952820e-01" purity="4.2665907740592957e-01" nType="-99"/>
          <Node pos="r" depth="2" NCoef="0" IVar="-1" Cut="0.0000000000000000e+00" cType="1" res="2.0815264433622360e-03" rms="4.9101191759109497e-01" purity="5.4366320371627808e-01" nType="-99"/>
        </Node>
        <Node pos="r" depth="1" NCoef="0" IVar="1" Cut="7.0168870687484741e-01" cType="1" res="1.1821493506431580e-01" rms="4.6240743994712830e-01" purity="6.8142116069793701e-01" nType="0">
          <Node pos="l" depth="2" NCoef="0" IVar="-1" Cut="0.0000000000000000e+00" cType="1" res="1.7794510349631310e-03" rms="4.7982004284858704e-01" purity="6.3189101219177246e-01" nType="-99"/>
          <Node pos="r" depth="2" NCoef="0" IVar="-1" Cut="0.0000000000000000e+00" cType="1" res="3.7215596530586481e-03" rms="4.2789182066917419e-01" purity="7.5417393445968628e-01" nType="-99"/>
        </Node>
      </Node>
    </BinaryTree>
    <BinaryTree type="DecisionTree" boostWeight="1.0000000000000000e+00" itree="50">
      <Node pos="s" depth="0" NCoef="0" IVar="4" Cut="9.4919043779373169e-01" cType="1" res="4.3044714257121086e-03" rms="4.8702514171600342e-01" purity="4.9645373225212097e-01" nType="0">
        <Node pos="l" depth="1" NCoef="0" IVar="1" Cut="7.2064179182052612e-01" cType="1" res="-6.5057091414928436e-02" rms="4.8219555616378784e-01" purity="3.8907513022422791e-01" nType="0">
          <Node pos="l" depth="2" NCoef="0" IVar="-1" Cut="0.0000000000000000e+00" cType="1" res="-3.1796786934137344e-03" rms="4.7413697838783264e-01" purity="3.5456198453903198e-01" nType="-99"/>
          <Node pos="r" depth="2" NCoef="0" IVar="-1" Cut="0.0000000000000000e+00" cType="1" res="8.4343795606400818e-05" rms="4.9524208903312683e-01" purity="4.7521960735321045e-01" nType="-99"/>
        </Node>
        <Node pos="r" depth="1" NCoef="0" IVar="2" Cut="4.7786233520507812e+02" cType="1" res="6.1431705951690674e-02" rms="4.8355227708816528e-01" purity="5.8489239215850830e-01" nType="0">
          <Node pos="l" depth="2" NCoef="0" IVar="-1" Cut="0.0000000000000000e+00" cType="1" res="-3.8798587047494948e-04" rms="4.9129775166511536e-01" purity="4.8115858435630798e-01" nType="-99"/>
          <Node pos="r" depth="2" NCoef="0" IVar="-1" Cut="0.0000000000000000e+00" cType="1" res="2.3556260857731104e-03" rms="4.7457394003868103e-01" purity="6.3984906673431396e-01" nType="-99"/>
        </Node>
      </Node>
    </BinaryTree>
    <BinaryTree type="DecisionTree" boostWeight="1.0000000000000000e+00" itree="51">
      <Node pos="s" depth="0" NCoef="0" IVar="4" Cut="9.7189480066299438e-01" cType="1" res="5.7796156033873558e-03" rms="4.8664960265159607e-01" purity="4.9849393963813782e-01" nType="0">
        <Node pos="l" depth="1" NCoef="0" IVar="2" Cut="4.3479916381835938e+02" cType="1" res="-2.6814408600330353e-02" rms="4.8873195052146912e-01" purity="4.4380980730056763e-01" nType="0">
          <Node pos="l" depth="2" NCoef="0" IVar="-1" Cut="0.0000000000000000e+00" cType="1" res="-4.2920080013573170e-03" rms="4.5726051926612854e-01" purity="3.0468872189521790e-01" nType="-99"/>
          <Node pos="r" depth="2" NCoef="0" IVar="-1" Cut="0.0000000000000000e+00" cType="1" res="5.6943634263006970e-05" rms="4.9524146318435669e-01" purity="4.8947873711585999e-01" nType="-99"/>
        </Node>
        <Node pos="r" depth="1" NCoef="0" IVar="1" Cut="6.2987506389617920e-01" cType="1" res="1.1259140819311142e-01" rms="4.6398460865020752e-01" purity="6.7769593000411987e-01" nType="0">
          <Node pos="l" depth="2" NCoef="0" IVar="-1" Cut="0.0000000000000000e+00" cType="1" res="1.2634296435862780e-03" rms="4.8584461212158203e-01" purity="6.0849344730377197e-01" nType="-99"/>
          <Node pos="r" depth="2" NCoef="0" IVar="-1" Cut="0.0000000000000000e+00" cType="1" res="3.3657015301287174e-03" rms="4.3981403112411499e-01" purity="7.3315882682800293e-01" nType="-99"/>
        </Node>
      </Node>
    </BinaryTree>
    <BinaryTree type="DecisionTree" boostWeight="1.0000000000000000e+00" itree="52">
      <Node pos="s" depth="0" NCoef="0" IVar="4" Cut="9.7655022144317627e-01" cType="1" res="6.6127460449934006e-03" rms="4.8696011304855347e-01" purity="4.9892634153366089e-01" nType="0">
        <Node pos="l" depth="1" NCoef="0" IVar="2" Cut="4.8608374023437500e+02" cType="1" res="-1.9802624359726906e-02" rms="4.8937639594078064e-01" purity="4.5560091733932495e-01" nType="0">
          <Node pos="l" depth="2" NCoef="0" IVar="-1" Cut="0.0000000000000000e+00" cType="1" res="-2.7783098630607128e-03" rms="4.7326669096946716e-01" purity="3.5739472508430481e-01" nType="-99"/>
          <Node pos="r" depth="2" NCoef="0" IVar="-1" Cut="0.0000000000000000e+00" cType="1" res="5.4076843662187457e-04" rms="4.9539858102798462e-01" purity="5.1891529560089111e-01" nType="-99"/>
        </Node>
        <Node pos="r" depth="1" NCoef="0" IVar="1" Cut="6.7700898647308350e-01" cType="1" res="1.2702718377113342e-01" rms="4.5683231949806213e-01" purity="6.9642508029937744e-01" nType="0">
          <Node pos="l" depth="2" NCoef="0" IVar="-1" Cut="0.0000000000000000e+00" cType="1" res="1.9423076882958412e-03" rms="4.7662079334259033e-01" purity="6.4476233720779419e-01" nType="-99"/>
          <Node pos="r" depth="2" NCoef="0" IVar="-1" Cut="0.0000000000000000e+00" cType="1" res="3.6226403899490833e-03" rms="4.2769339680671692e-01" purity="7.5565379858016968e-01" nType="-99"/>
        </Node>
      </Node>
    </BinaryTree>
    <BinaryTree type="DecisionTree" boostWeight="1.0000000000000000e+00" itree="53">
      <Node pos="s" depth="0" NCoef="0" IVar="4" Cut="9.3986797332763672e-01" cType="1" res="8.9888991788029671e-03" rms="4.8666617274284363e-01" purity="5.0134646892547607e-01" nType="0">
        <Node pos="l" depth="1" NCoef="0" IVar="0" Cut="-7.4079697951674461e-03" cType="1" res="-7.3612414300441742e-02" rms="4.7844040393829346e-01" purity="3.7837630510330200e-01" nType="0">
          <Node pos="l" depth="2" NCoef="0" IVar="-1" Cut="0.0000000000000000e+00" cType="1" res="-4.5124585740268230e-03" rms="4.6253550052642822e-01" purity="3.3001092076301575e-01" nType="-99"/>
          <Node pos="r" depth="2" NCoef="0" IVar="-1" Cut="0.0000000000000000e+00" cType="1" res="-8.8405300630256534e-04" rms="4.8745143413543701e-01" purity="4.2039358615875244e-01" nType="-99"/>
        </Node>
        <Node pos="r" depth="1" NCoef="0" IVar="4" Cut="9.8247069120407104e-01" cType="1" res="4.7453306615352631e-02" rms="4.8567894101142883e-01" purity="5.5860924720764160e-01" nType="0">
          <Node pos="l" depth="2" NCoef="0" IVar="-1" Cut="0.0000000000000000e+00" cType="1" res="6.3792872242629528e-04" rms="4.9185159802436829e-01" purity="5.2056747674942017e-01" nType="-99"/>
          <Node pos="r" depth="2" NCoef="0" IVar="-1" Cut="0.0000000000000000e+00" cType="1" res="3.2590446062386036e-03" rms="4.4124481081962585e-01" purity="7.3022860288619995e-01" nType="-99"/>
        </Node>
      </Node>
    </BinaryTree>
    <BinaryTree type="DecisionTree" boostWeight="1.0000000000000000e+00" itree="54">
      <Node pos="s" depth="0" NCoef="0" IVar="4" Cut="9.4899153709411621e-01" cType="1" res="8.6672753095626831e-03" rms="4.8601689934730530e-01" purity="5.0087976455688477e-01" nType="0">
        <Node pos="l" depth="1" NCoef="0" IVar="1" Cut="6.2961316108703613e-01" cType="1" res="-6.0539294034242630e-02" rms="4.8111081123352051e-01" purity="3.9150995016098022e-01" nType="0">
          <Node pos="l" depth="2" NCoef="0" IVar="-1" Cut="0.0000000000000000e+00" cType="1" res="-4.0861633606255054e-03" rms="4.6414399147033691e-01" purity="3.2686534523963928e-01" nType="-99"/>
          <Node pos="r" depth="2" NCoef="0" IVar="-1" Cut="0.0000000000000000e+00" cType="1" res="-9.9994889751542360e-05" rms="4.9258434772491455e-01" purity="4.6176600456237793e-01" nType="-99"/>
        </Node>
        <Node pos="r" depth="1" NCoef="0" IVar="2" Cut="5.2452978515625000e+02" cType="1" res="6.3825756311416626e-02" rms="4.8283985257148743e-01" purity="5.8804887533187866e-01" nType="0">
          <Node pos="l" depth="2" NCoef="0" IVar="-1" Cut="0.0000000000000000e+00" cType="1" res="3.1799692078493536e-04" rms="4.9108508229255676e-01" purity="5.1416337490081787e-01" nType="-99"/>
          <Node pos="r" depth="2" NCoef="0" IVar="-1" Cut="0.0000000000000000e+00" cType="1" res="2.5363902095705271e-03" rms="4.7038006782531738e-01" purity="6.5458822250366211e-01" nType="-99"/>
        </Node>
      </Node>
    </BinaryTree>
    <BinaryTree type="DecisionTree" boostWeight="1.0000000000000000e+00" itree="55">
      <Node pos="s" depth="0" NCoef="0" IVar="4" Cut="9.4009435176849365e-01" cType="1" res="9.8401410505175591e-03" rms="4.8620578646659851e-01" purity="5.0189977884292603e-01" nType="0">
        <Node pos="l" depth="1" NCoef="0" IVar="2" Cut="4.3793447875976562e+02" cType="1" res="-7.2414286434650421e-02" rms="4.7780227661132812e-01" purity="3.7743845582008362e-01" nType="0">
          <Node pos="l" depth="2" NCoef="0" IVar="-1" Cut="0.0000000000000000e+00" cType="1" res="-6.5561323426663876e-03" rms="4.2663541436195374e-01" purity="2.4199563264846802e-01" nType="-99"/>
          <Node pos="r" depth="2" NCoef="0" IVar="-1" Cut="0.0000000000000000e+00" cType="1" res="-1.3093308079987764e-03" rms="4.9158343672752380e-01" purity="4.2627656459808350e-01" nType="-99"/>
        </Node>
        <Node pos="r" depth="1" NCoef="0" IVar="1" Cut="6.7672514915466309e-01" cType="1" res="4.9020357429981232e-02" rms="4.8528036475181580e-01" purity="5.6118434667587280e-01" nType="0">
          <Node pos="l" depth="2" NCoef="0" IVar="-1" Cut="0.0000000000000000e+00" cType="1" res="2.1902073058299720e-04" rms="4.9069797992706299e-01" purity="5.0947433710098267e-01" nType="-99"/>
          <Node pos="r" depth="2" NCoef="0" IVar="-1" Cut="0.0000000000000000e+00" cType="1" res="2.4499103892594576e-03" rms="4.7202908992767334e-01" purity="6.3197338581085205e-01" nType="-99"/>
        </Node>
      </Node>
    </BinaryTree>
    <BinaryTree type="DecisionTree" boostWeight="1.0000000000000000e+00" itree="56">
      <Node pos="s" depth="0" NCoef="0" IVar="4" Cut="9.7652518749237061e-01" cType="1" res="5.4975375533103943e-03" rms="4.8653063178062439e-01" purity="4.9702271819114685e-01" nType="0">
        <Node pos="l" depth="1" NCoef="0" IVar="1" Cut="6.9769114255905151e-01" cType="1" res="-2.0103225484490395e-02" rms="4.8905822634696960e-01" purity="4.5384109020233154e-01" nType="0">
          <Node pos="l" depth="2" NCoef="0" IVar="-1" Cut="0.0000000000000000e+00" cType="1" res="-1.7524235881865025e-03" rms="4.8364934325218201e-01" purity="4.0884894132614136e-01" nType="-99"/>
          <Node pos="r" depth="2" NCoef="0" IVar="-1" Cut="0.0000000000000000e+00" cType="1" res="1.2043630704283714e-03" rms="4.9215379357337952e-01" purity="5.3702449798583984e-01" nType="-99"/>
        </Node>
        <Node pos="r" depth="1" NCoef="0" IVar="0" Cut="-8.2564912736415863e-04" cType="1" res="1.2465752661228180e-01" rms="4.5605337619781494e-01" purity="6.9801402091979980e-01" nType="0">
          <Node pos="l" depth="2" NCoef="0" IVar="-1" Cut="0.0000000000000000e+00" cType="1" res="1.7523345304653049e-03" rms="4.7250390052795410e-01" purity="6.5136617422103882e-01" nType="-99"/>
          <Node pos="r" depth="2" NCoef="0" IVar="-1" Cut="0.0000000000000000e+00" cType="1" res="3.6294213496148586e-03" rms="4.3323227763175964e-01" purity="7.4515229463577271e-01" nType="-99"/>
        </Node>
      </Node>
    </BinaryTree>
    <BinaryTree type="DecisionTree" boostWeight="1.0000000000000000e+00" itree="57">
      <Node pos="s" depth="0" NCoef="0" IVar="4" Cut="9.7197932004928589e-01" cType="1" res="6.7581343464553356e-03" rms="4.8619130253791809e-01" purity="4.9841523170471191e-01" nType="0">
        <Node pos="l" depth="1" NCoef="0" IVar="0" Cut="9.6767030656337738e-02" cType="1" res="-2.3713504895567894e-02" rms="4.8874145746231079e-01" purity="4.4442257285118103e-01" nType="0">
          <Node pos="l" depth="2" NCoef="0" IVar="-1" Cut="0.0000000000000000e+00" cType="1" res="-1.7245629569515586e-03" rms="4.8378363251686096e-01" purity="4.1545525193214417e-01" nType="-99"/>
          <Node pos="r" depth="2" NCoef="0" IVar="-1" Cut="0.0000000000000000e+00" cType="1" res="1.5441433060914278e-03" rms="4.9207687377929688e-01" purity="5.1899325847625732e-01" nType="-99"/>
        </Node>
        <Node pos="r" depth="1" NCoef="0" IVar="2" Cut="5.2515942382812500e+02" cType="1" res="1.0898242145776749e-01" rms="4.6311613917350769e-01" purity="6.7954623699188232e-01" nType="0">
          <Node pos="l" depth="2" NCoef="0" IVar="-1" Cut="0.0000000000000000e+00" cType="1" res="1.4324574731290340e-03" rms="4.8241487145423889e-01" purity="6.1954373121261597e-01" nType="-99"/>
          <Node pos="r" depth="2" NCoef="0" IVar="-1" Cut="0.0000000000000000e+00" cType="1" res="3.2319712918251753e-03" rms="4.4070604443550110e-01" purity="7.3289895057678223e-01" nType="-99"/>
        </Node>
      </Node>
    </BinaryTree>
    <BinaryTree type="DecisionTree" boostWeight="1.0000000000000000e+00" itree="58">
      <Node pos="s" depth="0" NCoef="0" IVar="4" Cut="9.7219300270080566e-01" cType="1" res="6.9752247072756290e-03" rms="4.8666527867317200e-01" purity="4.9819806218147278e-01" nType="0">
        <Node pos="l" depth="1" NCoef="0" IVar="0" Cut="6.4962916076183319e-02" cType="1" res="-2.0386602729558945e-02" rms="4.8923787474632263e-01" purity="4.4747111201286316e-01" nType="0">
          <Node pos="l" depth="2" NCoef="0" IVar="-1" Cut="0.0000000000000000e+00" cType="1" res="-1.6691804630681872e-03" rms="4.8427894711494446e-01" purity="4.1625103354454041e-01" nType="-99"/>
          <Node pos="r" depth="2" NCoef="0" IVar="-1" Cut="0.0000000000000000e+00" cType="1" res="1.1817157501354814e-03" rms="4.9227833747863770e-01" purity="5.0666308403015137e-01" nType="-99"/>
        </Node>
        <Node pos="r" depth="1" NCoef="0" IVar="1" Cut="6.3090765476226807e-01" cType="1" res="1.0113537311553955e-01" rms="4.6557578444480896e-01" purity="6.7276459932327271e-01" nType="0">
          <Node pos="l" depth="2" NCoef="0" IVar="-1" Cut="0.0000000000000000e+00" cType="1" res="1.1479102540761232e-03" rms="4.8597255349159241e-01" purity="6.0787236690521240e-01" nType="-99"/>
          <Node pos="r" depth="2" NCoef="0" IVar="-1" Cut="0.0000000000000000e+00" cType="1" res="3.1029996462166309e-03" rms="4.4300860166549683e-01" purity="7.2658252716064453e-01" nType="-99"/>
        </Node>
      </Node>
    </BinaryTree>
    <BinaryTree type="DecisionTree" boostWeight="1.0000000000000000e+00" itree="59">
      <Node pos="s" depth="0" NCoef="0" IVar="4" Cut="9.4917941093444824e-01" cType="1" res="5.7849874719977379e-03" rms="4.8641207814216614e-01" purity="4.9712505936622620e-01" nType="0">
        <Node pos="l" depth="1" NCoef="0" IVar="2" Cut="5.3797827148437500e+02" cType="1" res="-4.8720508813858032e-02" rms="4.8329088091850281e-01" purity="4.0033188462257385e-01" nType="0">
          <Node pos="l" depth="2" NCoef="0" IVar="-1" Cut="0.0000000000000000e+00" cType="1" res="-3.2185364980250597e-03" rms="4.6603575348854065e-01" purity="3.2959365844726562e-01" nType="-99"/>
          <Node pos="r" depth="2" NCoef="0" IVar="-1" Cut="0.0000000000000000e+00" cType="1" res="-3.4359596611466259e-05" rms="4.9806931614875793e-01" purity="4.8123356699943542e-01" nType="-99"/>
        </Node>
        <Node pos="r" depth="1" NCoef="0" IVar="0" Cut="4.8457905650138855e-02" cType="1" res="5.1145970821380615e-02" rms="4.8434028029441833e-01" purity="5.7767903804779053e-01" nType="0">
          <Node pos="l" depth="2" NCoef="0" IVar="-1" Cut="0.0000000000000000e+00" cType="1" res="3.1437503639608622e-04" rms="4.8736396431922913e-01" purity="5.4107445478439331e-01" nType="-99"/>
          <Node pos="r" depth="2" NCoef="0" IVar="-1" Cut="0.0000000000000000e+00" cType="1" res="2.6784024666994810e-03" rms="4.7259601950645447e-01" purity="6.3688385486602783e-01" nType="-99"/>
        </Node>
      </Node>
    </BinaryTree>
    <BinaryTree type="DecisionTree" boostWeight="1.0000000000000000e+00" itree="60">
      <Node pos="s" depth="0" NCoef="0" IVar="4" Cut="9.4491994380950928e-01" cType="1" res="7.7274623326957226e-03" rms="4.8581770062446594e-01" purity="4.9889865517616272e-01" nType="0">
        <Node pos="l" depth="1" NCoef="0" IVar="0" Cut="1.3277195394039154e-01" cType="1" res="-5.8811392635107040e-02" rms="4.8082512617111206e-01" purity="3.8806891441345215e-01" nType="0">
          <Node pos="l" depth="2" NCoef="0" IVar="-1" Cut="0.0000000000000000e+00" cType="1" res="-2.7402457781136036e-03" rms="4.7441154718399048e-01" purity="3.6750233173370361e-01" nType="-99"/>
          <Node pos="r" depth="2" NCoef="0" IVar="-1" Cut="0.0000000000000000e+00" cType="1" res="7.3989888187497854e-04" rms="4.9491283297538757e-01" purity="4.6444183588027954e-01" nType="-99"/>
        </Node>
        <Node pos="r" depth="1" NCoef="0" IVar="1" Cut="6.2847298383712769e-01" cType="1" res="5.0252664834260941e-02" rms="4.8421606421470642e-01" purity="5.6973028182983398e-01" nType="0">
          <Node pos="l" depth="2" NCoef="0" IVar="-1" Cut="0.0000000000000000e+00" cType="1" res="-1.4125634334050119e-04" rms="4.9032020568847656e-01" purity="5.0175613164901733e-01" nType="-99"/>
          <Node pos="r" depth="2" NCoef="0" IVar="-1" Cut="0.0000000000000000e+00" cType="1" res="2.3460029624402523e-03" rms="4.7319135069847107e-01" purity="6.3073277473449707e-01" nType="-99"/>
        </Node>
      </Node>
    </BinaryTree>
    <BinaryTree type="DecisionTree" boostWeight="1.0000000000000000e+00" itree="61">
      <Node pos="s" depth="0" NCoef="0" IVar="4" Cut="9.8097717761993408e-01" cType="1" res="4.5426702126860619e-03" rms="4.8571470379829407e-01" purity="4.9598687887191772e-01" nType="0">
        <Node pos="l" depth="1" NCoef="0" IVar="1" Cut="6.0518729686737061e-01" cType="1" res="-1.6439521685242653e-02" rms="4.8837739229202271e-01" purity="4.6071410179138184e-01" nType="0">
          <Node pos="l" depth="2" NCoef="0" IVar="-1" Cut="0.0000000000000000e+00" cType="1" res="-2.2137023042887449e-03" rms="4.8026371002197266e-01" purity="3.9530038833618164e-01" nType="-99"/>
          <Node pos="r" depth="2" NCoef="0" IVar="-1" Cut="0.0000000000000000e+00" cType="1" res="7.2510220343247056e-04" rms="4.9085560441017151e-01" purity="5.1530551910400391e-01" nType="-99"/>
        </Node>
        <Node pos="r" depth="1" NCoef="0" IVar="-1" Cut="0.0000000000000000e+00" cType="1" res="2.9698840808123350e-03" rms="4.4607824087142944e-01" purity="7.1962219476699829e-01" nType="-99"/>
      </Node>
    </BinaryTree>
    <BinaryTree type="DecisionTree" boostWeight="1.0000000000000000e+00" itree="62">
      <Node pos="s" depth="0" NCoef="0" IVar="1" Cut="7.7101993560791016e-01" cType="1" res="1.1099430732429028e-02" rms="4.8592206835746765e-01" purity="5.0229251384735107e-01" nType="0">
        <Node pos="l" depth="1" NCoef="0" IVar="0" Cut="6.2200352549552917e-02" cType="1" res="-1.5591681934893131e-02" rms="4.8598471283912659e-01" purity="4.6904465556144714e-01" nType="0">
          <Node pos="l" depth="2" NCoef="0" IVar="-1" Cut="0.0000000000000000e+00" cType="1" res="-2.4522852618247271e-03" rms="4.7743973135948181e-01" purity="4.0771684050559998e-01" nType="-99"/>
          <Node pos="r" depth="2" NCoef="0" IVar="-1" Cut="0.0000000000000000e+00" cType="1" res="1.7350373091176152e-03" rms="4.8515856266021729e-01" purity="5.5172234773635864e-01" nType="-99"/>
        </Node>
        <Node pos="r" depth="1" NCoef="0" IVar="2" Cut="5.2382031250000000e+02" cType="1" res="1.0335801541805267e-01" rms="4.7427386045455933e-01" purity="6.1721444129943848e-01" nType="0">
          <Node pos="l" depth="2" NCoef="0" IVar="-1" Cut="0.0000000000000000e+00" cType="1" res="9.4008818268775940e-04" rms="4.8896881937980652e-01" purity="5.1832872629165649e-01" nType="-99"/>
          <Node pos="r" depth="2" NCoef="0" IVar="-1" Cut="0.0000000000000000e+00" cType="1" res="3.2664360478520393e-03" rms="4.5886108279228210e-01" purity="6.8227368593215942e-01" nType="-99"/>
        </Node>
      </Node>
    </BinaryTree>
    <BinaryTree type="DecisionTree" boostWeight="1.0000000000000000e+00" itree="63">
      <Node pos="s" depth="0" NCoef="0" IVar="4" Cut="9.7212535142898560e-01" cType="1" res="9.5387250185012817e-03" rms="4.8524615168571472e-01" purity="5.0126951932907104e-01" nType="0">
        <Node pos="l" depth="1" NCoef="0" IVar="1" Cut="6.2459141016006470e-01" cType="1" res="-1.9634310156106949e-02" rms="4.8831486701965332e-01" purity="4.4736197590827942e-01" nType="0">
          <Node pos="l" depth="2" NCoef="0" IVar="-1" Cut="0.0000000000000000e+00" cType="1" res="-2.2168187424540520e-03" rms="4.7880735993385315e-01" purity="3.8661563396453857e-01" nType="-99"/>
          <Node pos="r" depth="2" NCoef="0" IVar="-1" Cut="0.0000000000000000e+00" cType="1" res="7.4566755210980773e-04" rms="4.9302974343299866e-01" purity="5.0738221406936646e-01" nType="-99"/>
        </Node>
        <Node pos="r" depth="1" NCoef="0" IVar="1" Cut="6.5042746067047119e-01" cType="1" res="1.0747316479682922e-01" rms="4.6150434017181396e-01" purity="6.8223810195922852e-01" nType="0">
          <Node pos="l" depth="2" NCoef="0" IVar="-1" Cut="0.0000000000000000e+00" cType="1" res="1.2839270057156682e-03" rms="4.8318445682525635e-01" purity="6.1688518524169922e-01" nType="-99"/>
          <Node pos="r" depth="2" NCoef="0" IVar="-1" Cut="0.0000000000000000e+00" cType="1" res="3.3079492859542370e-03" rms="4.3418535590171814e-01" purity="7.4349957704544067e-01" nType="-99"/>
        </Node>
      </Node>
    </BinaryTree>
    <BinaryTree type="DecisionTree" boostWeight="1.0000000000000000e+00" itree="64">
      <Node pos="s" depth="0" NCoef="0" IVar="4" Cut="9.7628080844879150e-01" cType="1" res="1.1334831826388836e-02" rms="4.8477819561958313e-01" purity="5.0339108705520630e-01" nType="0">
        <Node pos="l" depth="1" NCoef="0" IVar="2" Cut="6.1334442138671875e+02" cType="1" res="-1.4711238443851471e-02" rms="4.8820272088050842e-01" purity="4.5725822448730469e-01" nType="0">
          <Node pos="l" depth="2" NCoef="0" IVar="-1" Cut="0.0000000000000000e+00" cType="1" res="-1.4403938548639417e-03" rms="4.8281246423721313e-01" purity="4.1080760955810547e-01" nType="-99"/>
          <Node pos="r" depth="2" NCoef="0" IVar="-1" Cut="0.0000000000000000e+00" cType="1" res="1.3235836522653699e-03" rms="4.9283662438392639e-01" purity="5.5427557229995728e-01" nType="-99"/>
        </Node>
        <Node pos="r" depth="1" NCoef="0" IVar="2" Cut="4.8617947387695312e+02" cType="1" res="1.2532885372638702e-01" rms="4.5217609405517578e-01" purity="7.0529782772064209e-01" nType="0">
          <Node pos="l" depth="2" NCoef="0" IVar="-1" Cut="0.0000000000000000e+00" cType="1" res="1.5534030972048640e-03" rms="4.8021277785301208e-01" purity="6.2872123718261719e-01" nType="-99"/>
          <Node pos="r" depth="2" NCoef="0" IVar="-1" Cut="0.0000000000000000e+00" cType="1" res="3.3264853991568089e-03" rms="4.3263995647430420e-01" purity="7.4713742733001709e-01" nType="-99"/>
        </Node>
      </Node>
    </BinaryTree>
    <BinaryTree type="DecisionTree" boostWeight="1.0000000000000000e+00" itree="65">
      <Node pos="s" depth="0" NCoef="0" IVar="4" Cut="9.7653239965438843e-01" cType="1" res="7.5513194315135479e-03" rms="4.8482167720794678e-01" purity="4.9938604235649109e-01" nType="0">
        <Node pos="l" depth="1" NCoef="0" IVar="2" Cut="5.8872833251953125e+02" cType="1" res="-1.7494857311248779e-02" rms="4.8800936341285706e-01" purity="4.5450064539909363e-01" nType="0">
          <Node pos="l" depth="2" NCoef="0" IVar="-1" Cut="0.0000000000000000e+00" cType="1" res="-1.6982894157990813e-03" rms="4.8125126957893372e-01" purity="3.9995649456977844e-01" nType="-99"/>
          <Node pos="r" depth="2" NCoef="0" IVar="-1" Cut="0.0000000000000000e+00" cType="1" res="1.1428004363551736e-03" rms="4.9331495165824890e-01" purity="5.4741603136062622e-01" nType="-99"/>
        </Node>
        <Node pos="r" depth="1" NCoef="0" IVar="1" Cut="6.2719047069549561e-01" cType="1" res="1.2116570770740509e-01" rms="4.5302441716194153e-01" purity="7.0299500226974487e-01" nType="0">
          <Node pos="l" depth="2" NCoef="0" IVar="-1" Cut="0.0000000000000000e+00" cType="1" res="1.4820185024291277e-03" rms="4.7973752021789551e-01" purity="6.3237053155899048e-01" nType="-99"/>
          <Node pos="r" depth="2" NCoef="0" IVar="-1" Cut="0.0000000000000000e+00" cType="1" res="3.4128518309444189e-03" rms="4.2659139633178711e-01" purity="7.5621730089187622e-01" nType="-99"/>
        </Node>
      </Node>
    </BinaryTree>
    <BinaryTree type="DecisionTree" boostWeight="1.0000000000000000e+00" itree="66">
      <Node pos="s" depth="0" NCoef="0" IVar="4" Cut="9.6780675649642944e-01" cType="1" res="8.7693538516759872e-03" rms="4.8503318428993225e-01" purity="5.0044977664947510e-01" nType="0">
        <Node pos="l" depth="1" NCoef="0" IVar="0" Cut="9.7634851932525635e-02" cType="1" res="-2.3561747744679451e-02" rms="4.8784294724464417e-01" purity="4.3787252902984619e-01" nType="0">
          <Node pos="l" depth="2" NCoef="0" IVar="-1" Cut="0.0000000000000000e+00" cType="1" res="-1.7457861686125398e-03" rms="4.8206681013107300e-01" purity="4.0795123577117920e-01" nType="-99"/>
          <Node pos="r" depth="2" NCoef="0" IVar="-1" Cut="0.0000000000000000e+00" cType="1" res="1.5716450288891792e-03" rms="4.9307304620742798e-01" purity="5.1484471559524536e-01" nType="-99"/>
        </Node>
        <Node pos="r" depth="1" NCoef="0" IVar="1" Cut="6.3179284334182739e-01" cType="1" res="9.1905407607555389e-02" rms="4.6757742762565613e-01" purity="6.6136062145233154e-01" nType="0">
          <Node pos="l" depth="2" NCoef="0" IVar="-1" Cut="0.0000000000000000e+00" cType="1" res="9.4951834762468934e-04" rms="4.8625504970550537e-01" purity="5.9540653228759766e-01" nType="-99"/>
          <Node pos="r" depth="2" NCoef="0" IVar="-1" Cut="0.0000000000000000e+00" cType="1" res="2.9670479707419872e-03" rms="4.4634157419204712e-01" purity="7.1680051088333130e-01" nType="-99"/>
        </Node>
      </Node>
    </BinaryTree>
    <BinaryTree type="DecisionTree" boostWeight="1.0000000000000000e+00" itree="67">
      <Node pos="s" depth="0" NCoef="0" IVar="1" Cut="6.5129077434539795e-01" cType="1" res="4.9605830572545528e-03" rms="4.8498627543449402e-01" purity="4.9645957350730896e-01" nType="0">
        <Node pos="l" depth="1" NCoef="0" IVar="0" Cut="6.3779681921005249e-02" cType="1" res="-4.1536316275596619e-02" rms="4.8259830474853516e-01" purity="4.3427580595016479e-01" nType="0">
          <Node pos="l" depth="2" NCoef="0" IVar="-1" Cut="0.0000000000000000e+00" cType="1" res="-4.9626631662249565e-03" rms="4.5969003438949585e-01" purity="3.3295962214469910e-01" nType="-99"/>
          <Node pos="r" depth="2" NCoef="0" IVar="-1" Cut="0.0000000000000000e+00" cType="1" res="1.3218581443652511e-03" rms="4.8639383912086487e-01" purity="5.3120607137680054e-01" nType="-99"/>
        </Node>
        <Node pos="r" depth="1" NCoef="0" IVar="4" Cut="9.4997346401214600e-01" cType="1" res="5.9601876884698868e-02" rms="4.8207950592041016e-01" purity="5.6953537464141846e-01" nType="0">
          <Node pos="l" depth="2" NCoef="0" IVar="-1" Cut="0.0000000000000000e+00" cType="1" res="1.1619917131611146e-05" rms="4.9368041753768921e-01" purity="4.6436804533004761e-01" nType="-99"/>
          <Node pos="r" depth="2" NCoef="0" IVar="-1" Cut="0.0000000000000000e+00" cType="1" res="2.4220696650445461e-03" rms="4.6768671274185181e-01" purity="6.5143686532974243e-01" nType="-99"/>
        </Node>
      </Node>
    </BinaryTree>
    <BinaryTree type="DecisionTree" boostWeight="1.0000000000000000e+00" itree="68">
      <Node pos="s" depth="0" NCoef="0" IVar="4" Cut="9.5355117321014404e-01" cType="1" res="2.5560208596289158e-03" rms="4.8472577333450317e-01" purity="4.9348697066307068e-01" nType="0">
        <Node pos="l" depth="1" NCoef="0" IVar="0" Cut="6.2200352549552917e-02" cType="1" res="-4.7292113304138184e-02" rms="4.8256158828735352e-01" purity="4.0047192573547363e-01" nType="0">
          <Node pos="l" depth="2" NCoef="0" IVar="-1" Cut="0.0000000000000000e+00" cType="1" res="-2.7183077763766050e-03" rms="4.7347712516784668e-01" purity="3.6791867017745972e-01" nType="-99"/>
          <Node pos="r" depth="2" NCoef="0" IVar="-1" Cut="0.0000000000000000e+00" cType="1" res="4.1529684676788747e-04" rms="4.9299955368041992e-01" purity="4.6047437191009521e-01" nType="-99"/>
        </Node>
        <Node pos="r" depth="1" NCoef="0" IVar="1" Cut="7.2255653142929077e-01" cType="1" res="5.7426199316978455e-02" rms="4.8116257786750793e-01" purity="5.9587305784225464e-01" nType="0">
          <Node pos="l" depth="2" NCoef="0" IVar="-1" Cut="0.0000000000000000e+00" cType="1" res="6.2854925636202097e-04" rms="4.8852244019508362e-01" purity="5.5366230010986328e-01" nType="-99"/>
          <Node pos="r" depth="2" NCoef="0" IVar="-1" Cut="0.0000000000000000e+00" cType="1" res="2.7365130372345448e-03" rms="4.5933863520622253e-01" purity="6.7930305004119873e-01" nType="-99"/>
        </Node>
      </Node>
    </BinaryTree>
    <BinaryTree type="DecisionTree" boostWeight="1.0000000000000000e+00" itree="69">
      <Node pos="s" depth="0" NCoef="0" IVar="4" Cut="9.4008129835128784e-01" cType="1" res="1.0360459797084332e-02" rms="4.8489230871200562e-01" purity="5.0148254632949829e-01" nType="0">
        <Node pos="l" depth="1" NCoef="0" IVar="1" Cut="6.7487442493438721e-01" cType="1" res="-5.9780802577733994e-02" rms="4.7887453436851501e-01" purity="3.8267579674720764e-01" nType="0">
          <Node pos="l" depth="2" NCoef="0" IVar="-1" Cut="0.0000000000000000e+00" cType="1" res="-3.4293700009584427e-03" rms="4.6610501408576965e-01" purity="3.3509099483489990e-01" nType="-99"/>
          <Node pos="r" depth="2" NCoef="0" IVar="-1" Cut="0.0000000000000000e+00" cType="1" res="-6.7681961809284985e-05" rms="4.9346986413002014e-01" purity="4.5969548821449280e-01" nType="-99"/>
        </Node>
        <Node pos="r" depth="1" NCoef="0" IVar="1" Cut="7.4467694759368896e-01" cType="1" res="4.4025715440511703e-02" rms="4.8415857553482056e-01" purity="5.5850547552108765e-01" nType="0">
          <Node pos="l" depth="2" NCoef="0" IVar="-1" Cut="0.0000000000000000e+00" cType="1" res="3.9520164136774838e-04" rms="4.8847901821136475e-01" purity="5.2037864923477173e-01" nType="-99"/>
          <Node pos="r" depth="2" NCoef="0" IVar="-1" Cut="0.0000000000000000e+00" cType="1" res="2.6956046931445599e-03" rms="4.6498116850852966e-01" purity="6.5447759628295898e-01" nType="-99"/>
        </Node>
      </Node>
    </BinaryTree>
    <BinaryTree type="DecisionTree" boostWeight="1.0000000000000000e+00" itree="70">
      <Node pos="s" depth="0" NCoef="0" IVar="4" Cut="9.6289902925491333e-01" cType="1" res="1.0233412496745586e-02" rms="4.8435986042022705e-01" purity="5.0165444612503052e-01" nType="0">
        <Node pos="l" depth="1" NCoef="0" IVar="0" Cut="2.9380246996879578e-02" cType="1" res="-2.6055593043565750e-02" rms="4.8660328984260559e-01" purity="4.2888903617858887e-01" nType="0">
          <Node pos="l" depth="2" NCoef="0" IVar="-1" Cut="0.0000000000000000e+00" cType="1" res="-2.1197071764618158e-03" rms="4.7800451517105103e-01" purity="3.9056903123855591e-01" nType="-99"/>
          <Node pos="r" depth="2" NCoef="0" IVar="-1" Cut="0.0000000000000000e+00" cType="1" res="7.5513491174206138e-04" rms="4.9299100041389465e-01" purity="4.8023933172225952e-01" nType="-99"/>
        </Node>
        <Node pos="r" depth="1" NCoef="0" IVar="2" Cut="5.3988458251953125e+02" cType="1" res="7.9694204032421112e-02" rms="4.7232353687286377e-01" purity="6.4093476533889771e-01" nType="0">
          <Node pos="l" depth="2" NCoef="0" IVar="-1" Cut="0.0000000000000000e+00" cType="1" res="8.0059579340741038e-04" rms="4.8631048202514648e-01" purity="5.7914310693740845e-01" nType="-99"/>
          <Node pos="r" depth="2" NCoef="0" IVar="-1" Cut="0.0000000000000000e+00" cType="1" res="2.8274341020733118e-03" rms="4.5233249664306641e-01" purity="7.0442062616348267e-01" nType="-99"/>
        </Node>
      </Node>
    </BinaryTree>
    <BinaryTree type="DecisionTree" boostWeight="1.0000000000000000e+00" itree="71">
      <Node pos="s" depth="0" NCoef="0" IVar="4" Cut="9.3530619144439697e-01" cType="1" res="1.3153802603483200e-02" rms="4.8403412103652954e-01" purity="5.0487530231475830e-01" nType="0">
        <Node pos="l" depth="1" NCoef="0" IVar="1" Cut="6.5613317489624023e-01" cType="1" res="-7.2693258523941040e-02" rms="4.7528389096260071e-01" purity="3.6731567978858948e-01" nType="0">
          <Node pos="l" depth="2" NCoef="0" IVar="-1" Cut="0.0000000000000000e+00" cType="1" res="-4.0236026979982853e-03" rms="4.6028101444244385e-01" purity="3.1814432144165039e-01" nType="-99"/>
          <Node pos="r" depth="2" NCoef="0" IVar="-1" Cut="0.0000000000000000e+00" cType="1" res="-6.3902646070346236e-04" rms="4.9143630266189575e-01" purity="4.3775883316993713e-01" nType="-99"/>
        </Node>
        <Node pos="r" depth="1" NCoef="0" IVar="1" Cut="6.7349356412887573e-01" cType="1" res="4.4008370488882065e-02" rms="4.8343071341514587e-01" purity="5.5431610345840454e-01" nType="0">
          <Node pos="l" depth="2" NCoef="0" IVar="-1" Cut="0.0000000000000000e+00" cType="1" res="3.7893296394031495e-05" rms="4.8774206638336182e-01" purity="4.9671384692192078e-01" nType="-99"/>
          <Node pos="r" depth="2" NCoef="0" IVar="-1" Cut="0.0000000000000000e+00" cType="1" res="2.3563813883811235e-03" rms="4.7193723917007446e-01" purity="6.2972897291183472e-01" nType="-99"/>
        </Node>
      </Node>
    </BinaryTree>
    <BinaryTree type="DecisionTree" boostWeight="1.0000000000000000e+00" itree="72">
      <Node pos="s" depth="0" NCoef="0" IVar="4" Cut="9.4449895620346069e-01" cType="1" res="7.3714908212423325e-03" rms="4.8376265168190002e-01" purity="4.9847280979156494e-01" nType="0">
        <Node pos="l" depth="1" NCoef="0" IVar="0" Cut="1.3395693898200989e-01" cType="1" res="-5.7013172656297684e-02" rms="4.7810721397399902e-01" purity="3.8413804769515991e-01" nType="0">
          <Node pos="l" depth="2" NCoef="0" IVar="-1" Cut="0.0000000000000000e+00" cType="1" res="-2.7852125931531191e-03" rms="4.7098180651664734e-01" purity="3.6028423905372620e-01" nType="-99"/>
          <Node pos="r" depth="2" NCoef="0" IVar="-1" Cut="0.0000000000000000e+00" cType="1" res="1.0185646824538708e-03" rms="4.9318671226501465e-01" purity="4.7373154759407043e-01" nType="-99"/>
        </Node>
        <Node pos="r" depth="1" NCoef="0" IVar="0" Cut="-1.8012053333222866e-03" cType="1" res="4.6924889087677002e-02" rms="4.8296689987182617e-01" purity="5.6871205568313599e-01" nType="0">
          <Node pos="l" depth="2" NCoef="0" IVar="-1" Cut="0.0000000000000000e+00" cType="1" res="-5.7585193644626997e-06" rms="4.8632422089576721e-01" purity="5.2284348011016846e-01" nType="-99"/>
          <Node pos="r" depth="2" NCoef="0" IVar="-1" Cut="0.0000000000000000e+00" cType="1" res="2.2042926866561174e-03" rms="4.7547101974487305e-01" purity="6.1217665672302246e-01" nType="-99"/>
        </Node>
      </Node>
    </BinaryTree>
    <BinaryTree type="DecisionTree" boostWeight="1.0000000000000000e+00" itree="73">
      <Node pos="s" depth="0" NCoef="0" IVar="4" Cut="9.7670322656631470e-01" cType="1" res="6.8878694437444210e-03" rms="4.8445633053779602e-01" purity="4.9785137176513672e-01" nType="0">
        <Node pos="l" depth="1" NCoef="0" IVar="0" Cut="4.2426038533449173e-02" cType="1" res="-1.4504921622574329e-02" rms="4.8753303289413452e-01" purity="4.5605522394180298e-01" nType="0">
          <Node pos="l" depth="2" NCoef="0" IVar="-1" Cut="0.0000000000000000e+00" cType="1" res="-1.5752315521240234e-03" rms="4.8216989636421204e-01" purity="4.2010468244552612e-01" nType="-99"/>
          <Node pos="r" depth="2" NCoef="0" IVar="-1" Cut="0.0000000000000000e+00" cType="1" res="1.1113494401797652e-03" rms="4.9052676558494568e-01" purity="5.1130157709121704e-01" nType="-99"/>
        </Node>
        <Node pos="r" depth="1" NCoef="0" IVar="1" Cut="5.7859635353088379e-01" cType="1" res="1.0773412138223648e-01" rms="4.5636969804763794e-01" purity="6.9487953186035156e-01" nType="0">
          <Node pos="l" depth="2" NCoef="0" IVar="-1" Cut="0.0000000000000000e+00" cType="1" res="1.0481601348146796e-03" rms="4.8385962843894958e-01" purity="6.1542308330535889e-01" nType="-99"/>
          <Node pos="r" depth="2" NCoef="0" IVar="-1" Cut="0.0000000000000000e+00" cType="1" res="3.0173596460372210e-03" rms="4.3808591365814209e-01" purity="7.3540681600570679e-01" nType="-99"/>
        </Node>
      </Node>
    </BinaryTree>
    <BinaryTree type="DecisionTree" boostWeight="1.0000000000000000e+00" itree="74">
      <Node pos="s" depth="0" NCoef="0" IVar="4" Cut="9.7643977403640747e-01" cType="1" res="1.0673295706510544e-02" rms="4.8363751173019409e-01" purity="5.0227290391921997e-01" nType="0">
        <Node pos="l" depth="1" NCoef="0" IVar="2" Cut="5.4428356933593750e+02" cType="1" res="-1.2294978834688663e-02" rms="4.8729664087295532e-01" purity="4.5766043663024902e-01" nType="0">
          <Node pos="l" depth="2" NCoef="0" IVar="-1" Cut="0.0000000000000000e+00" cType="1" res="-1.8166941590607166e-03" rms="4.7818094491958618e-01" purity="3.8674294948577881e-01" nType="-99"/>
          <Node pos="r" depth="2" NCoef="0" IVar="-1" Cut="0.0000000000000000e+00" cType="1" res="1.0068102274090052e-03" rms="4.9292194843292236e-01" purity="5.4036647081375122e-01" nType="-99"/>
        </Node>
        <Node pos="r" depth="1" NCoef="0" IVar="2" Cut="4.7900613403320312e+02" cType="1" res="1.1362892389297485e-01" rms="4.5278614759445190e-01" purity="7.0224893093109131e-01" nType="0">
          <Node pos="l" depth="2" NCoef="0" IVar="-1" Cut="0.0000000000000000e+00" cType="1" res="1.2366455048322678e-03" rms="4.8111531138420105e-01" purity="6.2203568220138550e-01" nType="-99"/>
          <Node pos="r" depth="2" NCoef="0" IVar="-1" Cut="0.0000000000000000e+00" cType="1" res="3.0665621161460876e-03" rms="4.3431586027145386e-01" purity="7.4309080839157104e-01" nType="-99"/>
        </Node>
      </Node>
    </BinaryTree>
    <BinaryTree type="DecisionTree" boostWeight="1.0000000000000000e+00" itree="75">
      <Node pos="s" depth="0" NCoef="0" IVar="4" Cut="9.3100154399871826e-01" cType="1" res="1.4361051842570305e-02" rms="4.8387983441352844e-01" purity="5.0561213493347168e-01" nType="0">
        <Node pos="l" depth="1" NCoef="0" IVar="1" Cut="6.1043614149093628e-01" cType="1" res="-7.7519096434116364e-02" rms="4.7258508205413818e-01" purity="3.5940915346145630e-01" nType="0">
          <Node pos="l" depth="2" NCoef="0" IVar="-1" Cut="0.0000000000000000e+00" cType="1" res="-4.9425843171775341e-03" rms="4.4973662495613098e-01" purity="2.9609432816505432e-01" nType="-99"/>
          <Node pos="r" depth="2" NCoef="0" IVar="-1" Cut="0.0000000000000000e+00" cType="1" res="-8.7050843285396695e-04" rms="4.8922032117843628e-01" purity="4.2193818092346191e-01" nType="-99"/>
        </Node>
        <Node pos="r" depth="1" NCoef="0" IVar="2" Cut="5.4678552246093750e+02" cType="1" res="4.0302243083715439e-02" rms="4.8387330770492554e-01" purity="5.4689067602157593e-01" nType="0">
          <Node pos="l" depth="2" NCoef="0" IVar="-1" Cut="0.0000000000000000e+00" cType="1" res="-1.2724184489343315e-04" rms="4.8624449968338013e-01" purity="4.7860494256019592e-01" nType="-99"/>
          <Node pos="r" depth="2" NCoef="0" IVar="-1" Cut="0.0000000000000000e+00" cType="1" res="2.1858215332031250e-03" rms="4.7594040632247925e-01" purity="6.2553364038467407e-01" nType="-99"/>
        </Node>
      </Node>
    </BinaryTree>
    <BinaryTree type="DecisionTree" boostWeight="1.0000000000000000e+00" itree="76">
      <Node pos="s" depth="0" NCoef="0" IVar="4" Cut="9.4055730104446411e-01" cType="1" res="6.7007336765527725e-03" rms="4.8361814022064209e-01" purity="4.9784505367279053e-01" nType="0">
        <Node pos="l" depth="1" NCoef="0" IVar="0" Cut="1.3538195192813873e-01" cType="1" res="-6.1639860272407532e-02" rms="4.7666656970977783e-01" purity="3.7554708123207092e-01" nType="0">
          <Node pos="l" depth="2" NCoef="0" IVar="-1" Cut="0.0000000000000000e+00" cType="1" res="-2.9950519092381001e-03" rms="4.6918073296546936e-01" purity="3.5122886300086975e-01" nType="-99"/>
          <Node pos="r" depth="2" NCoef="0" IVar="-1" Cut="0.0000000000000000e+00" cType="1" res="8.5250305710360408e-04" rms="4.9316763877868652e-01" purity="4.6678224205970764e-01" nType="-99"/>
        </Node>
        <Node pos="r" depth="1" NCoef="0" IVar="2" Cut="4.3639715576171875e+02" cType="1" res="3.9973031729459763e-02" rms="4.8348280787467957e-01" purity="5.5738699436187744e-01" nType="0">
          <Node pos="l" depth="2" NCoef="0" IVar="-1" Cut="0.0000000000000000e+00" cType="1" res="-1.3418922899290919e-03" rms="4.8378831148147583e-01" purity="4.2391026020050049e-01" nType="-99"/>
          <Node pos="r" depth="2" NCoef="0" IVar="-1" Cut="0.0000000000000000e+00" cType="1" res="1.6100502107292414e-03" rms="4.8045185208320618e-01" purity="5.9875631332397461e-01" nType="-99"/>
        </Node>
      </Node>
    </BinaryTree>
    <BinaryTree type="DecisionTree" boostWeight="1.0000000000000000e+00" itree="77">
      <Node pos="s" depth="0" NCoef="0" IVar="1" Cut="7.2385907173156738e-01" cType="1" res="5.9065730310976505e-03" rms="4.8362243175506592e-01" purity="4.9645724892616272e-01" nType="0">
        <Node pos="l" depth="1" NCoef="0" IVar="0" Cut="6.5223194658756256e-02" cType="1" res="-2.6972888037562370e-02" rms="4.8306417465209961e-01" purity="4.5190975069999695e-01" nType="0">
          <Node pos="l" depth="2" NCoef="0" IVar="-1" Cut="0.0000000000000000e+00" cType="1" res="-3.3449237234890461e-03" rms="4.6944230794906616e-01" purity="3.7401321530342102e-01" nType="-99"/>
          <Node pos="r" depth="2" NCoef="0" IVar="-1" Cut="0.0000000000000000e+00" cType="1" res="1.5127114020287991e-03" rms="4.8520648479461670e-01" purity="5.4391014575958252e-01" nType="-99"/>
        </Node>
        <Node pos="r" depth="1" NCoef="0" IVar="4" Cut="9.3651992082595825e-01" cType="1" res="7.8175894916057587e-02" rms="4.7694626450538635e-01" purity="5.9437298774719238e-01" nType="0">
          <Node pos="l" depth="2" NCoef="0" IVar="-1" Cut="0.0000000000000000e+00" cType="1" res="-6.1481585726141930e-04" rms="4.9144682288169861e-01" purity="4.3782162666320801e-01" nType="-99"/>
          <Node pos="r" depth="2" NCoef="0" IVar="-1" Cut="0.0000000000000000e+00" cType="1" res="2.5537773035466671e-03" rms="4.6790033578872681e-01" purity="6.4409106969833374e-01" nType="-99"/>
        </Node>
      </Node>
    </BinaryTree>
    <BinaryTree type="DecisionTree" boostWeight="1.0000000000000000e+00" itree="78">
      <Node pos="s" depth="0" NCoef="0" IVar="4" Cut="9.3595296144485474e-01" cType="1" res="1.2382955290377140e-02" rms="4.8330476880073547e-01" purity="5.0402516126632690e-01" nType="0">
        <Node pos="l" depth="1" NCoef="0" IVar="1" Cut="7.6950907707214355e-01" cType="1" res="-6.5444462001323700e-02" rms="4.7541284561157227e-01" purity="3.6927154660224915e-01" nType="0">
          <Node pos="l" depth="2" NCoef="0" IVar="-1" Cut="0.0000000000000000e+00" cType="1" res="-3.0604910571128130e-03" rms="4.6774750947952271e-01" purity="3.4200409054756165e-01" nType="-99"/>
          <Node pos="r" depth="2" NCoef="0" IVar="-1" Cut="0.0000000000000000e+00" cType="1" res="5.0905160605907440e-04" rms="4.9585661292076111e-01" purity="4.7726121544837952e-01" nType="-99"/>
        </Node>
        <Node pos="r" depth="1" NCoef="0" IVar="1" Cut="7.2365003824234009e-01" cType="1" res="4.1542131453752518e-02" rms="4.8300996422767639e-01" purity="5.5451261997222900e-01" nType="0">
          <Node pos="l" depth="2" NCoef="0" IVar="-1" Cut="0.0000000000000000e+00" cType="1" res="2.2233846539165825e-04" rms="4.8728948831558228e-01" purity="5.0937908887863159e-01" nType="-99"/>
          <Node pos="r" depth="2" NCoef="0" IVar="-1" Cut="0.0000000000000000e+00" cType="1" res="2.5395643897354603e-03" rms="4.6669068932533264e-01" purity="6.4700400829315186e-01" nType="-99"/>
        </Node>
      </Node>
    </BinaryTree>
    <BinaryTree type="DecisionTree" boostWeight="1.0000000000000000e+00" itree="79">
      <Node pos="s" depth="0" NCoef="0" IVar="4" Cut="9.7638809680938721e-01" cType="1" res="7.5913122855126858e-03" rms="4.8320257663726807e-01" purity="4.9864888191223145e-01" nType="0">
        <Node pos="l" depth="1" NCoef="0" IVar="1" Cut="5.8126789331436157e-01" cType="1" res="-1.4014662243425846e-02" rms="4.8650169372558594e-01" purity="4.5495384931564331e-01" nType="0">
          <Node pos="l" depth="2" NCoef="0" IVar="-1" Cut="0.0000000000000000e+00" cType="1" res="-2.1972232498228550e-03" rms="4.7613072395324707e-01" purity="3.8584947586059570e-01" nType="-99"/>
          <Node pos="r" depth="2" NCoef="0" IVar="-1" Cut="0.0000000000000000e+00" cType="1" res="6.1313959304243326e-04" rms="4.9026289582252502e-01" purity="5.0284624099731445e-01" nType="-99"/>
        </Node>
        <Node pos="r" depth="1" NCoef="0" IVar="0" Cut="-3.1888756901025772e-02" cType="1" res="1.0506363958120346e-01" rms="4.5546162128448486e-01" purity="6.9577276706695557e-01" nType="0">
          <Node pos="l" depth="2" NCoef="0" IVar="-1" Cut="0.0000000000000000e+00" cType="1" res="1.1490575270727277e-03" rms="4.7298192977905273e-01" purity="6.4090484380722046e-01" nType="-99"/>
          <Node pos="r" depth="2" NCoef="0" IVar="-1" Cut="0.0000000000000000e+00" cType="1" res="3.0182241462171078e-03" rms="4.4056212902069092e-01" purity="7.2982710599899292e-01" nType="-99"/>
        </Node>
      </Node>
    </BinaryTree>
    <BinaryTree type="DecisionTree" boostWeight="1.0000000000000000e+00" itree="80">
      <Node pos="s" depth="0" NCoef="0" IVar="4" Cut="9.8100274801254272e-01" cType="1" res="1.0129897855222225e-02" rms="4.8338615894317627e-01" purity="5.0135076045989990e-01" nType="0">
        <Node pos="l" depth="1" NCoef="0" IVar="2" Cut="4.0258078002929688e+02" cType="1" res="-8.0666830763220787e-03" rms="4.8693284392356873e-01" purity="4.6614488959312439e-01" nType="0">
          <Node pos="l" depth="2" NCoef="0" IVar="-1" Cut="0.0000000000000000e+00" cType="1" res="-4.0117441676557064e-03" rms="4.5489650964736938e-01" purity="3.0498269200325012e-01" nType="-99"/>
          <Node pos="r" depth="2" NCoef="0" IVar="-1" Cut="0.0000000000000000e+00" cType="1" res="2.8854448464699090e-04" rms="4.9049168825149536e-01" purity="4.9621710181236267e-01" nType="-99"/>
        </Node>
        <Node pos="r" depth="1" NCoef="0" IVar="-1" Cut="0.0000000000000000e+00" cType="1" res="2.6864081155508757e-03" rms="4.4408395886421204e-01" purity="7.2111594676971436e-01" nType="-99"/>
      </Node>
    </BinaryTree>
    <BinaryTree type="DecisionTree" boostWeight="1.0000000000000000e+00" itree="81">
      <Node pos="s" depth="0" NCoef="0" IVar="4" Cut="9.6735966205596924e-01" cType="1" res="8.4507511928677559e-03" rms="4.8287373781204224e-01" purity="4.9972751736640930e-01" nType="0">
        <Node pos="l" depth="1" NCoef="0" IVar="1" Cut="7.2273832559585571e-01" cType="1" res="-2.1005008369684219e-02" rms="4.8589184880256653e-01" purity="4.3639457225799561e-01" nType="0">
          <Node pos="l" depth="2" NCoef="0" IVar="-1" Cut="0.0000000000000000e+00" cType="1" res="-1.6666335286572576e-03" rms="4.8020002245903015e-01" purity="3.9510759711265564e-01" nType="-99"/>
          <Node pos="r" depth="2" NCoef="0" IVar="-1" Cut="0.0000000000000000e+00" cType="1" res="1.2749758316203952e-03" rms="4.9174717068672180e-01" purity="5.3151035308837891e-01" nType="-99"/>
        </Node>
        <Node pos="r" depth="1" NCoef="0" IVar="2" Cut="4.9075567626953125e+02" cType="1" res="8.2577258348464966e-02" rms="4.6704480051994324e-01" purity="6.5910726785659790e-01" nType="0">
          <Node pos="l" depth="2" NCoef="0" IVar="-1" Cut="0.0000000000000000e+00" cType="1" res="5.6491425493732095e-04" rms="4.8740077018737793e-01" purity="5.7753109931945801e-01" nType="-99"/>
          <Node pos="r" depth="2" NCoef="0" IVar="-1" Cut="0.0000000000000000e+00" cType="1" res="2.6231552474200726e-03" rms="4.5022633671760559e-01" purity="7.0892465114593506e-01" nType="-99"/>
        </Node>
      </Node>
    </BinaryTree>
    <BinaryTree type="DecisionTree" boostWeight="1.0000000000000000e+00" itree="82">
      <Node pos="s" depth="0" NCoef="0" IVar="2" Cut="4.2994387817382812e+02" cType="1" res="5.0958800129592419e-03" rms="4.8274400830268860e-01" purity="4.9592235684394836e-01" nType="0">
        <Node pos="l" depth="1" NCoef="0" IVar="2" Cut="3.7440060424804688e+02" cType="1" res="-7.9058997333049774e-02" rms="4.6404370665550232e-01" purity="3.5396999120712280e-01" nType="0">
          <Node pos="l" depth="2" NCoef="0" IVar="-1" Cut="0.0000000000000000e+00" cType="1" res="-5.3609949536621571e-03" rms="4.3913111090660095e-01" purity="2.8890851140022278e-01" nType="-99"/>
          <Node pos="r" depth="2" NCoef="0" IVar="-1" Cut="0.0000000000000000e+00" cType="1" res="-1.3978754868730903e-03" rms="4.7537219524383545e-01" purity="3.9452737569808960e-01" nType="-99"/>
        </Node>
        <Node pos="r" depth="1" NCoef="0" IVar="4" Cut="9.5882034301757812e-01" cType="1" res="2.9802570119500160e-02" rms="4.8533511161804199e-01" purity="5.3759753704071045e-01" nType="0">
          <Node pos="l" depth="2" NCoef="0" IVar="-1" Cut="0.0000000000000000e+00" cType="1" res="-2.3942433472257107e-04" rms="4.9260061979293823e-01" purity="4.5852091908454895e-01" nType="-99"/>
          <Node pos="r" depth="2" NCoef="0" IVar="-1" Cut="0.0000000000000000e+00" cType="1" res="1.9748008344322443e-03" rms="4.6900972723960876e-01" purity="6.5323859453201294e-01" nType="-99"/>
        </Node>
      </Node>
    </BinaryTree>
    <BinaryTree type="DecisionTree" boostWeight="1.0000000000000000e+00" itree="83">
      <Node pos="s" depth="0" NCoef="0" IVar="4" Cut="9.8107683658599854e-01" cType="1" res="7.8779403120279312e-03" rms="4.8241084814071655e-01" purity="4.9959197640419006e-01" nType="0">
        <Node pos="l" depth="1" NCoef="0" IVar="2" Cut="5.3990887451171875e+02" cType="1" res="-1.0341230779886246e-02" rms="4.8593243956565857e-01" purity="4.6401518583297729e-01" nType="0">
          <Node pos="l" depth="2" NCoef="0" IVar="-1" Cut="0.0000000000000000e+00" cType="1" res="-1.7160491552203894e-03" rms="4.7721174359321594e-01" purity="3.9177832007408142e-01" nType="-99"/>
          <Node pos="r" depth="2" NCoef="0" IVar="-1" Cut="0.0000000000000000e+00" cType="1" res="9.7910384647548199e-04" rms="4.9112984538078308e-01" purity="5.4465669393539429e-01" nType="-99"/>
        </Node>
        <Node pos="r" depth="1" NCoef="0" IVar="-1" Cut="0.0000000000000000e+00" cType="1" res="2.6295238640159369e-03" rms="4.4305548071861267e-01" purity="7.2225302457809448e-01" nType="-99"/>
      </Node>
    </BinaryTree>
    <BinaryTree type="DecisionTree" boostWeight="1.0000000000000000e+00" itree="84">
      <Node pos="s" depth="0" NCoef="0" IVar="2" Cut="5.3988458251953125e+02" cType="1" res="8.4848115220665932e-03" rms="4.8332592844963074e-01" purity="4.9926358461380005e-01" nType="0">
        <Node pos="l" depth="1" NCoef="0" IVar="8" Cut="1.1237866878509521e+00" cType="1" res="-3.5053346306085587e-02" rms="4.7931882739067078e-01" purity="4.2662769556045532e-01" nType="0">
          <Node pos="l" depth="2" NCoef="0" IVar="-1" Cut="0.0000000000000000e+00" cType="1" res="2.2494344739243388e-04" rms="4.8502710461616516e-01" purity="4.7268706560134888e-01" nType="-99"/>
          <Node pos="r" depth="2" NCoef="0" IVar="-1" Cut="0.0000000000000000e+00" cType="1" res="-2.5591573212295771e-03" rms="4.6986147761344910e-01" purity="3.8145855069160461e-01" nType="-99"/>
        </Node>
        <Node pos="r" depth="1" NCoef="0" IVar="6" Cut="5.2648298442363739e-02" cType="1" res="5.6373048573732376e-02" rms="4.8318585753440857e-01" purity="5.7915687561035156e-01" nType="0">
          <Node pos="l" depth="2" NCoef="0" IVar="-1" Cut="0.0000000000000000e+00" cType="1" res="2.8325210223556496e-05" rms="4.8792424798011780e-01" purity="5.1460552215576172e-01" nType="-99"/>
          <Node pos="r" depth="2" NCoef="0" IVar="-1" Cut="0.0000000000000000e+00" cType="1" res="2.2695639636367559e-03" rms="4.7612276673316956e-01" purity="6.2385541200637817e-01" nType="-99"/>
        </Node>
      </Node>
    </BinaryTree>
    <BinaryTree type="DecisionTree" boostWeight="1.0000000000000000e+00" itree="85">
      <Node pos="s" depth="0" NCoef="0" IVar="2" Cut="5.8872833251953125e+02" cType="1" res="1.0301518253982067e-02" rms="4.8208057880401611e-01" purity="5.0189721584320068e-01" nType="0">
        <Node pos="l" depth="1" NCoef="0" IVar="0" Cut="1.0650494694709778e-01" cType="1" res="-2.6305902749300003e-02" rms="4.7955045104026794e-01" purity="4.4533753395080566e-01" nType="0">
          <Node pos="l" depth="2" NCoef="0" IVar="-1" Cut="0.0000000000000000e+00" cType="1" res="-1.7182434676215053e-03" rms="4.7427341341972351e-01" purity="4.1747304797172546e-01" nType="-99"/>
          <Node pos="r" depth="2" NCoef="0" IVar="-1" Cut="0.0000000000000000e+00" cType="1" res="1.4725807122886181e-03" rms="4.8510116338729858e-01" purity="5.2465146780014038e-01" nType="-99"/>
        </Node>
        <Node pos="r" depth="1" NCoef="0" IVar="6" Cut="7.7904172241687775e-02" cType="1" res="7.0931032299995422e-02" rms="4.8014158010482788e-01" purity="5.9557193517684937e-01" nType="0">
          <Node pos="l" depth="2" NCoef="0" IVar="-1" Cut="0.0000000000000000e+00" cType="1" res="9.4053673092275858e-04" rms="4.8693308234214783e-01" purity="5.5404949188232422e-01" nType="-99"/>
          <Node pos="r" depth="2" NCoef="0" IVar="-1" Cut="0.0000000000000000e+00" cType="1" res="2.9605966992676258e-03" rms="4.6256282925605774e-01" purity="6.6590833663940430e-01" nType="-99"/>
        </Node>
      </Node>
    </BinaryTree>
    <BinaryTree type="DecisionTree" boostWeight="1.0000000000000000e+00" itree="86">
      <Node pos="s" depth="0" NCoef="0" IVar="4" Cut="9.3103086948394775e-01" cType="1" res="9.8805399611592293e-03" rms="4.8261329531669617e-01" purity="5.0135517120361328e-01" nType="0">
        <Node pos="l" depth="1" NCoef="0" IVar="1" Cut="5.8279973268508911e-01" cType="1" res="-7.2822161018848419e-02" rms="4.7115543484687805e-01" purity="3.5898107290267944e-01" nType="0">
          <Node pos="l" depth="2" NCoef="0" IVar="-1" Cut="0.0000000000000000e+00" cType="1" res="-5.0577912479639053e-03" rms="4.4585496187210083e-01" purity="2.8804269433021545e-01" nType="-99"/>
          <Node pos="r" depth="2" NCoef="0" IVar="-1" Cut="0.0000000000000000e+00" cType="1" res="-9.7715924493968487e-04" rms="4.8553663492202759e-01" purity="4.1311326622962952e-01" nType="-99"/>
        </Node>
        <Node pos="r" depth="1" NCoef="0" IVar="0" Cut="1.2802894413471222e-01" cType="1" res="3.3641651272773743e-02" rms="4.8324492573738098e-01" purity="5.4226022958755493e-01" nType="0">
          <Node pos="l" depth="2" NCoef="0" IVar="-1" Cut="0.0000000000000000e+00" cType="1" res="2.8543465305119753e-04" rms="4.8325821757316589e-01" purity="5.2050739526748657e-01" nType="-99"/>
          <Node pos="r" depth="2" NCoef="0" IVar="-1" Cut="0.0000000000000000e+00" cType="1" res="2.8206615243107080e-03" rms="4.7359284758567810e-01" purity="6.2211203575134277e-01" nType="-99"/>
        </Node>
      </Node>
    </BinaryTree>
    <BinaryTree type="DecisionTree" boostWeight="1.0000000000000000e+00" itree="87">
      <Node pos="s" depth="0" NCoef="0" IVar="1" Cut="6.5302616357803345e-01" cType="1" res="1.2163493782281876e-02" rms="4.8267355561256409e-01" purity="5.0373464822769165e-01" nType="0">
        <Node pos="l" depth="1" NCoef="0" IVar="0" Cut="8.6414456367492676e-02" cType="1" res="-2.8551599010825157e-02" rms="4.8151239752769470e-01" purity="4.4361972808837891e-01" nType="0">
          <Node pos="l" depth="2" NCoef="0" IVar="-1" Cut="0.0000000000000000e+00" cType="1" res="-3.7494776770472527e-03" rms="4.6538582444190979e-01" purity="3.5441863536834717e-01" nType="-99"/>
          <Node pos="r" depth="2" NCoef="0" IVar="-1" Cut="0.0000000000000000e+00" cType="1" res="1.6194120980799198e-03" rms="4.8373562097549438e-01" purity="5.4583626985549927e-01" nType="-99"/>
        </Node>
        <Node pos="r" depth="1" NCoef="0" IVar="2" Cut="4.3203924560546875e+02" cType="1" res="6.0141578316688538e-02" rms="4.7962248325347900e-01" purity="5.7457327842712402e-01" nType="0">
          <Node pos="l" depth="2" NCoef="0" IVar="-1" Cut="0.0000000000000000e+00" cType="1" res="-8.8201113976538181e-04" rms="4.8330926895141602e-01" purity="4.2208659648895264e-01" nType="-99"/>
          <Node pos="r" depth="2" NCoef="0" IVar="-1" Cut="0.0000000000000000e+00" cType="1" res="1.9586896523833275e-03" rms="4.7628134489059448e-01" purity="6.1120194196701050e-01" nType="-99"/>
        </Node>
      </Node>
    </BinaryTree>
    <BinaryTree type="DecisionTree" boostWeight="1.0000000000000000e+00" itree="88">
      <Node pos="s" depth="0" NCoef="0" IVar="1" Cut="6.5302616357803345e-01" cType="1" res="6.8838382139801979e-03" rms="4.8209092020988464e-01" purity="4.9729257822036743e-01" nType="0">
        <Node pos="l" depth="1" NCoef="0" IVar="0" Cut="1.0034687817096710e-01" cType="1" res="-3.3515136688947678e-02" rms="4.8006907105445862e-01" purity="4.3742999434471130e-01" nType="0">
          <Node pos="l" depth="2" NCoef="0" IVar="-1" Cut="0.0000000000000000e+00" cType="1" res="-3.9092260412871838e-03" rms="4.6261340379714966e-01" purity="3.4954100847244263e-01" nType="-99"/>
          <Node pos="r" depth="2" NCoef="0" IVar="-1" Cut="0.0000000000000000e+00" cType="1" res="1.8142958870157599e-03" rms="4.8345988988876343e-01" purity="5.5480992794036865e-01" nType="-99"/>
        </Node>
        <Node pos="r" depth="1" NCoef="0" IVar="4" Cut="9.7678941488265991e-01" cType="1" res="5.5363260209560394e-02" rms="4.8003885149955750e-01" purity="5.6912863254547119e-01" nType="0">
          <Node pos="l" depth="2" NCoef="0" IVar="-1" Cut="0.0000000000000000e+00" cType="1" res="8.7834737496450543e-04" rms="4.8990026116371155e-01" purity="5.2224105596542358e-01" nType="-99"/>
          <Node pos="r" depth="2" NCoef="0" IVar="-1" Cut="0.0000000000000000e+00" cType="1" res="3.0891806818544865e-03" rms="4.2633384466171265e-01" purity="7.5728851556777954e-01" nType="-99"/>
        </Node>
      </Node>
    </BinaryTree>
    <BinaryTree type="DecisionTree" boostWeight="1.0000000000000000e+00" itree="89">
      <Node pos="s" depth="0" NCoef="0" IVar="4" Cut="9.5818787813186646e-01" cType="1" res="8.8844224810600281e-03" rms="4.8177403211593628e-01" purity="4.9972561001777649e-01" nType="0">
        <Node pos="l" depth="1" NCoef="0" IVar="2" Cut="6.3866772460937500e+02" cType="1" res="-2.8020419180393219e-02" rms="4.8289340734481812e-01" purity="4.1790452599525452e-01" nType="0">
          <Node pos="l" depth="2" NCoef="0" IVar="-1" Cut="0.0000000000000000e+00" cType="1" res="-1.9284974550828338e-03" rms="4.7514000535011292e-01" purity="3.7209370732307434e-01" nType="-99"/>
          <Node pos="r" depth="2" NCoef="0" IVar="-1" Cut="0.0000000000000000e+00" cType="1" res="1.2837268877774477e-03" rms="4.9417835474014282e-01" purity="5.3533726930618286e-01" nType="-99"/>
        </Node>
        <Node pos="r" depth="1" NCoef="0" IVar="0" Cut="1.0380465537309647e-01" cType="1" res="6.2985599040985107e-02" rms="4.7497335076332092e-01" purity="6.1967235803604126e-01" nType="0">
          <Node pos="l" depth="2" NCoef="0" IVar="-1" Cut="0.0000000000000000e+00" cType="1" res="8.4567838348448277e-04" rms="4.8000469803810120e-01" purity="5.9106886386871338e-01" nType="-99"/>
          <Node pos="r" depth="2" NCoef="0" IVar="-1" Cut="0.0000000000000000e+00" cType="1" res="3.1910613179206848e-03" rms="4.5000624656677246e-01" purity="7.0164215564727783e-01" nType="-99"/>
        </Node>
      </Node>
    </BinaryTree>
    <BinaryTree type="DecisionTree" boostWeight="1.0000000000000000e+00" itree="90">
      <Node pos="s" depth="0" NCoef="0" IVar="1" Cut="6.5035849809646606e-01" cType="1" res="7.5863092206418514e-03" rms="4.8140168190002441e-01" purity="4.9865278601646423e-01" nType="0">
        <Node pos="l" depth="1" NCoef="0" IVar="0" Cut="6.2200352549552917e-02" cType="1" res="-3.3587154000997543e-02" rms="4.7879958152770996e-01" purity="4.3752670288085938e-01" nType="0">
          <Node pos="l" depth="2" NCoef="0" IVar="-1" Cut="0.0000000000000000e+00" cType="1" res="-4.5286258682608604e-03" rms="4.5648160576820374e-01" purity="3.3238053321838379e-01" nType="-99"/>
          <Node pos="r" depth="2" NCoef="0" IVar="-1" Cut="0.0000000000000000e+00" cType="1" res="1.3555270852521062e-03" rms="4.8374080657958984e-01" purity="5.3632175922393799e-01" nType="-99"/>
        </Node>
        <Node pos="r" depth="1" NCoef="0" IVar="4" Cut="9.5001560449600220e-01" cType="1" res="5.5648937821388245e-02" rms="4.7997418045997620e-01" purity="5.7000654935836792e-01" nType="0">
          <Node pos="l" depth="2" NCoef="0" IVar="-1" Cut="0.0000000000000000e+00" cType="1" res="1.4448445290327072e-04" rms="4.9250876903533936e-01" purity="4.6526807546615601e-01" nType="-99"/>
          <Node pos="r" depth="2" NCoef="0" IVar="-1" Cut="0.0000000000000000e+00" cType="1" res="2.2112254519015551e-03" rms="4.6591955423355103e-01" purity="6.5297049283981323e-01" nType="-99"/>
        </Node>
      </Node>
    </BinaryTree>
    <BinaryTree type="DecisionTree" boostWeight="1.0000000000000000e+00" itree="91">
      <Node pos="s" depth="0" NCoef="0" IVar="4" Cut="9.6723002195358276e-01" cType="1" res="6.7596002481877804e-03" rms="4.8210006952285767e-01" purity="4.9726933240890503e-01" nType="0">
        <Node pos="l" depth="1" NCoef="0" IVar="0" Cut="-8.0872252583503723e-02" cType="1" res="-2.0354846492409706e-02" rms="4.8503130674362183e-01" purity="4.3443444371223450e-01" nType="0">
          <Node pos="l" depth="2" NCoef="0" IVar="-1" Cut="0.0000000000000000e+00" cType="1" res="-3.4795000683516264e-03" rms="4.6641874313354492e-01" purity="3.5141807794570923e-01" nType="-99"/>
          <Node pos="r" depth="2" NCoef="0" IVar="-1" Cut="0.0000000000000000e+00" cType="1" res="-1.0043398106063250e-05" rms="4.8761278390884399e-01" purity="4.5548614859580994e-01" nType="-99"/>
        </Node>
        <Node pos="r" depth="1" NCoef="0" IVar="0" Cut="-3.2220296561717987e-02" cType="1" res="7.4277795851230621e-02" rms="4.6794429421424866e-01" purity="6.5373551845550537e-01" nType="0">
          <Node pos="l" depth="2" NCoef="0" IVar="-1" Cut="0.0000000000000000e+00" cType="1" res="4.2561319423839450e-04" rms="4.8173320293426514e-01" purity="5.9537190198898315e-01" nType="-99"/>
          <Node pos="r" depth="2" NCoef="0" IVar="-1" Cut="0.0000000000000000e+00" cType="1" res="2.4916189722716808e-03" rms="4.5515152812004089e-01" purity="6.9102466106414795e-01" nType="-99"/>
        </Node>
      </Node>
    </BinaryTree>
    <BinaryTree type="DecisionTree" boostWeight="1.0000000000000000e+00" itree="92">
      <Node pos="s" depth="0" NCoef="0" IVar="1" Cut="6.2719047069549561e-01" cType="1" res="9.0384436771273613e-03" rms="4.8146522045135498e-01" purity="5.0021255016326904e-01" nType="0">
        <Node pos="l" depth="1" NCoef="0" IVar="0" Cut="9.8465457558631897e-02" cType="1" res="-3.6251280456781387e-02" rms="4.7872319817543030e-01" purity="4.3254557251930237e-01" nType="0">
          <Node pos="l" depth="2" NCoef="0" IVar="-1" Cut="0.0000000000000000e+00" cType="1" res="-4.5210602693259716e-03" rms="4.5709657669067383e-01" purity="3.3088791370391846e-01" nType="-99"/>
          <Node pos="r" depth="2" NCoef="0" IVar="-1" Cut="0.0000000000000000e+00" cType="1" res="1.6733007505536079e-03" rms="4.8338416218757629e-01" purity="5.4998439550399780e-01" nType="-99"/>
        </Node>
        <Node pos="r" depth="1" NCoef="0" IVar="2" Cut="4.3906024169921875e+02" cType="1" res="5.2341777831315994e-02" rms="4.8009347915649414e-01" purity="5.6491166353225708e-01" nType="0">
          <Node pos="l" depth="2" NCoef="0" IVar="-1" Cut="0.0000000000000000e+00" cType="1" res="-9.8364020232111216e-04" rms="4.8042708635330200e-01" purity="4.1957074403762817e-01" nType="-99"/>
          <Node pos="r" depth="2" NCoef="0" IVar="-1" Cut="0.0000000000000000e+00" cType="1" res="1.8525582272559404e-03" rms="4.7735843062400818e-01" purity="6.0576969385147095e-01" nType="-99"/>
        </Node>
      </Node>
    </BinaryTree>
    <BinaryTree type="DecisionTree" boostWeight="1.0000000000000000e+00" itree="93">
      <Node pos="s" depth="0" NCoef="0" IVar="4" Cut="9.4906193017959595e-01" cType="1" res="8.3214649930596352e-03" rms="4.8145049810409546e-01" purity="4.9916511774063110e-01" nType="0">
        <Node pos="l" depth="1" NCoef="0" IVar="1" Cut="7.9546797275543213e-01" cType="1" res="-3.8651946932077408e-02" rms="4.7955057024955750e-01" purity="3.9733853936195374e-01" nType="0">
          <Node pos="l" depth="2" NCoef="0" IVar="-1" Cut="0.0000000000000000e+00" cType="1" res="-1.8889103084802628e-03" rms="4.7501203417778015e-01" purity="3.7357124686241150e-01" nType="-99"/>
          <Node pos="r" depth="2" NCoef="0" IVar="-1" Cut="0.0000000000000000e+00" cType="1" res="1.3930124696344137e-03" rms="4.9266219139099121e-01" purity="5.2098131179809570e-01" nType="-99"/>
        </Node>
        <Node pos="r" depth="1" NCoef="0" IVar="0" Cut="-4.4223312288522720e-02" cType="1" res="4.7191299498081207e-02" rms="4.7955057024955750e-01" purity="5.8342528343200684e-01" nType="0">
          <Node pos="l" depth="2" NCoef="0" IVar="-1" Cut="0.0000000000000000e+00" cType="1" res="-2.9940009699203074e-04" rms="4.8387971520423889e-01" purity="5.2301406860351562e-01" nType="-99"/>
          <Node pos="r" depth="2" NCoef="0" IVar="-1" Cut="0.0000000000000000e+00" cType="1" res="1.8739906372502446e-03" rms="4.7443658113479614e-01" purity="6.1500465869903564e-01" nType="-99"/>
        </Node>
      </Node>
    </BinaryTree>
    <BinaryTree type="DecisionTree" boostWeight="1.0000000000000000e+00" itree="94">
      <Node pos="s" depth="0" NCoef="0" IVar="2" Cut="4.0771792602539062e+02" cType="1" res="1.0030986741185188e-02" rms="4.8144745826721191e-01" purity="5.0125807523727417e-01" nType="0">
        <Node pos="l" depth="1" NCoef="0" IVar="5" Cut="5.4520332813262939e-01" cType="1" res="-9.1405652463436127e-02" rms="4.5669117569923401e-01" purity="3.3223569393157959e-01" nType="0">
          <Node pos="l" depth="2" NCoef="0" IVar="-1" Cut="0.0000000000000000e+00" cType="1" res="-4.7366977669298649e-03" rms="4.4324007630348206e-01" purity="2.9334074258804321e-01" nType="-99"/>
          <Node pos="r" depth="2" NCoef="0" IVar="-1" Cut="0.0000000000000000e+00" cType="1" res="-7.7967491233721375e-04" rms="4.7920542955398560e-01" purity="4.2028698325157166e-01" nType="-99"/>
        </Node>
        <Node pos="r" depth="1" NCoef="0" IVar="4" Cut="9.7633951902389526e-01" cType="1" res="2.9891755431890488e-02" rms="4.8366299271583557e-01" purity="5.3435170650482178e-01" nType="0">
          <Node pos="l" depth="2" NCoef="0" IVar="-1" Cut="0.0000000000000000e+00" cType="1" res="2.5904184440150857e-04" rms="4.9027827382087708e-01" purity="4.9045994877815247e-01" nType="-99"/>
          <Node pos="r" depth="2" NCoef="0" IVar="-1" Cut="0.0000000000000000e+00" cType="1" res="2.5769926141947508e-03" rms="4.4363021850585938e-01" purity="7.2191756963729858e-01" nType="-99"/>
        </Node>
      </Node>
    </BinaryTree>
    <BinaryTree type="DecisionTree" boostWeight="1.0000000000000000e+00" itree="95">
      <Node pos="s" depth="0" NCoef="0" IVar="4" Cut="9.3563228845596313e-01" cType="1" res="9.8733557388186455e-03" rms="4.8128309845924377e-01" purity="5.0027275085449219e-01" nType="0">
        <Node pos="l" depth="1" NCoef="0" IVar="0" Cut="1.3462948799133301e-01" cType="1" res="-6.0225699096918106e-02" rms="4.7348245978355408e-01" purity="3.6797952651977539e-01" nType="0">
          <Node pos="l" depth="2" NCoef="0" IVar="-1" Cut="0.0000000000000000e+00" cType="1" res="-2.9314011335372925e-03" rms="4.6557113528251648e-01" purity="3.4444093704223633e-01" nType="-99"/>
          <Node pos="r" depth="2" NCoef="0" IVar="-1" Cut="0.0000000000000000e+00" cType="1" res="7.0823467103764415e-04" rms="4.9334928393363953e-01" purity="4.5726257562637329e-01" nType="-99"/>
        </Node>
        <Node pos="r" depth="1" NCoef="0" IVar="2" Cut="5.1155163574218750e+02" cType="1" res="3.5725228488445282e-02" rms="4.8155954480171204e-01" purity="5.4906123876571655e-01" nType="0">
          <Node pos="l" depth="2" NCoef="0" IVar="-1" Cut="0.0000000000000000e+00" cType="1" res="-3.5797237069346011e-04" rms="4.8474180698394775e-01" purity="4.6549060940742493e-01" nType="-99"/>
          <Node pos="r" depth="2" NCoef="0" IVar="-1" Cut="0.0000000000000000e+00" cType="1" res="1.7974351067095995e-03" rms="4.7541505098342896e-01" purity="6.1680185794830322e-01" nType="-99"/>
        </Node>
      </Node>
    </BinaryTree>
    <BinaryTree type="DecisionTree" boostWeight="1.0000000000000000e+00" itree="96">
      <Node pos="s" depth="0" NCoef="0" IVar="1" Cut="6.2620550394058228e-01" cType="1" res="8.4698460996150970e-03" rms="4.8069706559181213e-01" purity="4.9940699338912964e-01" nType="0">
        <Node pos="l" depth="1" NCoef="0" IVar="0" Cut="1.3251693546772003e-01" cType="1" res="-4.0844757109880447e-02" rms="4.7664883732795715e-01" purity="4.2755410075187683e-01" nType="0">
          <Node pos="l" depth="2" NCoef="0" IVar="-1" Cut="0.0000000000000000e+00" cType="1" res="-3.9241169579327106e-03" rms="4.6076333522796631e-01" purity="3.4613785147666931e-01" nType="-99"/>
          <Node pos="r" depth="2" NCoef="0" IVar="-1" Cut="0.0000000000000000e+00" cType="1" res="1.8182412022724748e-03" rms="4.8084127902984619e-01" purity="5.5985629558563232e-01" nType="-99"/>
        </Node>
        <Node pos="r" depth="1" NCoef="0" IVar="4" Cut="9.3650400638580322e-01" cType="1" res="5.5268011987209320e-02" rms="4.7984325885772705e-01" purity="5.6759339570999146e-01" nType="0">
          <Node pos="l" depth="2" NCoef="0" IVar="-1" Cut="0.0000000000000000e+00" cType="1" res="-3.0846253503113985e-04" rms="4.9000084400177002e-01" purity="4.3762221932411194e-01" nType="-99"/>
          <Node pos="r" depth="2" NCoef="0" IVar="-1" Cut="0.0000000000000000e+00" cType="1" res="1.8919546855613589e-03" rms="4.7406929731369019e-01" purity="6.1334633827209473e-01" nType="-99"/>
        </Node>
      </Node>
    </BinaryTree>
    <BinaryTree type="DecisionTree" boostWeight="1.0000000000000000e+00" itree="97">
      <Node pos="s" depth="0" NCoef="0" IVar="4" Cut="9.3530857563018799e-01" cType="1" res="1.0687898844480515e-02" rms="4.8077183961868286e-01" purity="5.0106358528137207e-01" nType="0">
        <Node pos="l" depth="1" NCoef="0" IVar="0" Cut="1.1833691596984863e-01" cType="1" res="-6.2944158911705017e-02" rms="4.7171518206596375e-01" purity="3.6351373791694641e-01" nType="0">
          <Node pos="l" depth="2" NCoef="0" IVar="-1" Cut="0.0000000000000000e+00" cType="1" res="-2.9624917078763247e-03" rms="4.6347838640213013e-01" purity="3.4126397967338562e-01" nType="-99"/>
          <Node pos="r" depth="2" NCoef="0" IVar="-1" Cut="0.0000000000000000e+00" cType="1" res="8.6393672972917557e-05" rms="4.9188077449798584e-01" purity="4.3598127365112305e-01" nType="-99"/>
        </Node>
        <Node pos="r" depth="1" NCoef="0" IVar="0" Cut="3.9730727672576904e-02" cType="1" res="3.7259001284837723e-02" rms="4.8124003410339355e-01" purity="5.5070030689239502e-01" nType="0">
          <Node pos="l" depth="2" NCoef="0" IVar="-1" Cut="0.0000000000000000e+00" cType="1" res="6.2378567236009985e-05" rms="4.8140218853950500e-01" purity="5.1455378532409668e-01" nType="-99"/>
          <Node pos="r" depth="2" NCoef="0" IVar="-1" Cut="0.0000000000000000e+00" cType="1" res="2.1919934079051018e-03" rms="4.7617065906524658e-01" purity="6.0512608289718628e-01" nType="-99"/>
        </Node>
      </Node>
    </BinaryTree>
    <BinaryTree type="DecisionTree" boostWeight="1.0000000000000000e+00" itree="98">
      <Node pos="s" depth="0" NCoef="0" IVar="1" Cut="6.2961316108703613e-01" cType="1" res="8.8029894977807999e-03" rms="4.8124405741691589e-01" purity="4.9938753247261047e-01" nType="0">
        <Node pos="l" depth="1" NCoef="0" IVar="0" Cut="6.3252240419387817e-02" cType="1" res="-3.3432722091674805e-02" rms="4.7822591662406921e-01" purity="4.3406680226325989e-01" nType="0">
          <Node pos="l" depth="2" NCoef="0" IVar="-1" Cut="0.0000000000000000e+00" cType="1" res="-4.7461693175137043e-03" rms="4.5356351137161255e-01" purity="3.2115560770034790e-01" nType="-99"/>
          <Node pos="r" depth="2" NCoef="0" IVar="-1" Cut="0.0000000000000000e+00" cType="1" res="1.2722674291580915e-03" rms="4.8449152708053589e-01" purity="5.3297382593154907e-01" nType="-99"/>
        </Node>
        <Node pos="r" depth="1" NCoef="0" IVar="4" Cut="9.4557011127471924e-01" cType="1" res="5.0011754035949707e-02" rms="4.8060649633407593e-01" purity="5.6312000751495361e-01" nType="0">
          <Node pos="l" depth="2" NCoef="0" IVar="-1" Cut="0.0000000000000000e+00" cType="1" res="-4.6293433115351945e-05" rms="4.9081236124038696e-01" purity="4.5134028792381287e-01" nType="-99"/>
          <Node pos="r" depth="2" NCoef="0" IVar="-1" Cut="0.0000000000000000e+00" cType="1" res="1.9013774581253529e-03" rms="4.7194001078605652e-01" purity="6.2843060493469238e-01" nType="-99"/>
        </Node>
      </Node>
    </BinaryTree>
    <BinaryTree type="DecisionTree" boostWeight="1.0000000000000000e+00" itree="99">
      <Node pos="s" depth="0" NCoef="0" IVar="4" Cut="9.8096710443496704e-01" cType="1" res="8.8685499504208565e-03" rms="4.8015633225440979e-01" purity="4.9964660406112671e-01" nType="0">
        <Node pos="l" depth="1" NCoef="0" IVar="1" Cut="7.0086503028869629e-01" cType="1" res="-9.8877130076289177e-03" rms="4.8414367437362671e-01" purity="4.6197396516799927e-01" nType="0">
          <Node pos="l" depth="2" NCoef="0" IVar="-1" Cut="0.0000000000000000e+00" cType="1" res="-1.1659419396892190e-03" rms="4.7950562834739685e-01" purity="4.1948872804641724e-01" nType="-99"/>
          <Node pos="r" depth="2" NCoef="0" IVar="-1" Cut="0.0000000000000000e+00" cType="1" res="1.0930512798950076e-03" rms="4.8865330219268799e-01" purity="5.4281765222549438e-01" nType="-99"/>
        </Node>
        <Node pos="r" depth="1" NCoef="0" IVar="-1" Cut="0.0000000000000000e+00" cType="1" res="2.6781449560075998e-03" rms="4.3764263391494751e-01" purity="7.3090380430221558e-01" nType="-99"/>
      </Node>
    </BinaryTree>
    <BinaryTree type="DecisionTree" boostWeight="1.0000000000000000e+00" itree="100">
      <Node pos="s" depth="0" NCoef="0" IVar="2" Cut="4.1455291748046875e+02" cType="1" res="4.9477498978376389e-03" rms="4.8071843385696411e-01" purity="4.9513882398605347e-01" nType="0">
        <Node pos="l" depth="1" NCoef="0" IVar="5" Cut="5.1381844282150269e-01" cType="1" res="-8.6640574038028717e-02" rms="4.5688730478286743e-01" purity="3.3668726682662964e-01" nType="0">
          <Node pos="l" depth="2" NCoef="0" IVar="-1" Cut="0.0000000000000000e+00" cType="1" res="-4.8128352500498295e-03" rms="4.3943378329277039e-01" purity="2.8966465592384338e-01" nType="-99"/>
          <Node pos="r" depth="2" NCoef="0" IVar="-1" Cut="0.0000000000000000e+00" cType="1" res="-6.9192011142149568e-04" rms="4.7979080677032471e-01" purity="4.2071965336799622e-01" nType="-99"/>
        </Node>
        <Node pos="r" depth="1" NCoef="0" IVar="4" Cut="9.3531268835067749e-01" cType="1" res="2.5601534172892570e-02" rms="4.8353981971740723e-01" purity="5.3087067604064941e-01" nType="0">
          <Node pos="l" depth="2" NCoef="0" IVar="-1" Cut="0.0000000000000000e+00" cType="1" res="-1.4013018226251006e-03" rms="4.8310989141464233e-01" purity="3.9879569411277771e-01" nType="-99"/>
          <Node pos="r" depth="2" NCoef="0" IVar="-1" Cut="0.0000000000000000e+00" cType="1" res="1.2781098484992981e-03" rms="4.8124229907989502e-01" purity="5.7868063449859619e-01" nType="-99"/>
        </Node>
      </Node>
    </BinaryTree>
    <BinaryTree type="DecisionTree" boostWeight="1.0000000000000000e+00" itree="101">
      <Node pos="s" depth="0" NCoef="0" IVar="4" Cut="9.3537300825119019e-01" cType="1" res="8.4165530279278755e-03" rms="4.8068770766258240e-01" purity="4.9893474578857422e-01" nType="0">
        <Node pos="l" depth="1" NCoef="0" IVar="1" Cut="7.0306158065795898e-01" cType="1" res="-6.2177009880542755e-02" rms="4.7136989235877991e-01" purity="3.6181282997131348e-01" nType="0">
          <Node pos="l" depth="2" NCoef="0" IVar="-1" Cut="0.0000000000000000e+00" cType="1" res="-3.3417460508644581e-03" rms="4.5819729566574097e-01" purity="3.2080942392349243e-01" nType="-99"/>
          <Node pos="r" depth="2" NCoef="0" IVar="-1" Cut="0.0000000000000000e+00" cType="1" res="-8.1644531746860594e-05" rms="4.9351793527603149e-01" purity="4.5064246654510498e-01" nType="-99"/>
        </Node>
        <Node pos="r" depth="1" NCoef="0" IVar="0" Cut="4.6557340770959854e-02" cType="1" res="3.4109037369489670e-02" rms="4.8147219419479370e-01" purity="5.4884016513824463e-01" nType="0">
          <Node pos="l" depth="2" NCoef="0" IVar="-1" Cut="0.0000000000000000e+00" cType="1" res="1.4723384083481506e-05" rms="4.8162594437599182e-01" purity="5.1343023777008057e-01" nType="-99"/>
          <Node pos="r" depth="2" NCoef="0" IVar="-1" Cut="0.0000000000000000e+00" cType="1" res="2.1256634499877691e-03" rms="4.7640570998191833e-01" purity="6.0496741533279419e-01" nType="-99"/>
        </Node>
      </Node>
    </BinaryTree>
    <BinaryTree type="DecisionTree" boostWeight="1.0000000000000000e+00" itree="102">
      <Node pos="s" depth="0" NCoef="0" IVar="2" Cut="4.9565457153320312e+02" cType="1" res="8.6132986471056938e-03" rms="4.8037475347518921e-01" purity="4.9886515736579895e-01" nType="0">
        <Node pos="l" depth="1" NCoef="0" IVar="5" Cut="4.5396643877029419e-01" cType="1" res="-4.2210072278976440e-02" rms="4.7267988324165344e-01" purity="4.0539729595184326e-01" nType="0">
          <Node pos="l" depth="2" NCoef="0" IVar="-1" Cut="0.0000000000000000e+00" cType="1" res="-3.0017187818884850e-03" rms="4.6032929420471191e-01" purity="3.5008227825164795e-01" nType="-99"/>
          <Node pos="r" depth="2" NCoef="0" IVar="-1" Cut="0.0000000000000000e+00" cType="1" res="2.9627163894474506e-04" rms="4.8215520381927490e-01" purity="4.7293552756309509e-01" nType="-99"/>
        </Node>
        <Node pos="r" depth="1" NCoef="0" IVar="6" Cut="5.3259734064340591e-02" cType="1" res="4.4314641505479813e-02" rms="4.8251676559448242e-01" purity="5.6452250480651855e-01" nType="0">
          <Node pos="l" depth="2" NCoef="0" IVar="-1" Cut="0.0000000000000000e+00" cType="1" res="-2.7607346419245005e-04" rms="4.8725891113281250e-01" purity="4.9741390347480774e-01" nType="-99"/>
          <Node pos="r" depth="2" NCoef="0" IVar="-1" Cut="0.0000000000000000e+00" cType="1" res="1.9026282243430614e-03" rms="4.7646060585975647e-01" purity="6.0619843006134033e-01" nType="-99"/>
        </Node>
      </Node>
    </BinaryTree>
    <BinaryTree type="DecisionTree" boostWeight="1.0000000000000000e+00" itree="103">
      <Node pos="s" depth="0" NCoef="0" IVar="1" Cut="7.7245700359344482e-01" cType="1" res="1.4188966713845730e-02" rms="4.8087903857231140e-01" purity="5.0434565544128418e-01" nType="0">
        <Node pos="l" depth="1" NCoef="0" IVar="0" Cut="2.8562843799591064e-02" cType="1" res="-6.7537217400968075e-03" rms="4.8150295019149780e-01" purity="4.7279924154281616e-01" nType="0">
          <Node pos="l" depth="2" NCoef="0" IVar="-1" Cut="0.0000000000000000e+00" cType="1" res="-2.1944909822195768e-03" rms="4.7355946898460388e-01" purity="4.0005114674568176e-01" nType="-99"/>
          <Node pos="r" depth="2" NCoef="0" IVar="-1" Cut="0.0000000000000000e+00" cType="1" res="1.3612785842269659e-03" rms="4.8180848360061646e-01" purity="5.4238039255142212e-01" nType="-99"/>
        </Node>
        <Node pos="r" depth="1" NCoef="0" IVar="4" Cut="9.3743908405303955e-01" cType="1" res="8.8114388287067413e-02" rms="4.7128766775131226e-01" purity="6.1570125818252563e-01" nType="0">
          <Node pos="l" depth="2" NCoef="0" IVar="-1" Cut="0.0000000000000000e+00" cType="1" res="8.7331769464071840e-05" rms="4.9419119954109192e-01" purity="4.6243363618850708e-01" nType="-99"/>
          <Node pos="r" depth="2" NCoef="0" IVar="-1" Cut="0.0000000000000000e+00" cType="1" res="2.6531540788710117e-03" rms="4.5996451377868652e-01" purity="6.6659325361251831e-01" nType="-99"/>
        </Node>
      </Node>
    </BinaryTree>
    <BinaryTree type="DecisionTree" boostWeight="1.0000000000000000e+00" itree="104">
      <Node pos="s" depth="0" NCoef="0" IVar="1" Cut="7.0038342475891113e-01" cType="1" res="8.9614670723676682e-03" rms="4.7994267940521240e-01" purity="4.9995926022529602e-01" nType="0">
        <Node pos="l" depth="1" NCoef="0" IVar="0" Cut="2.3622564971446991e-02" cType="1" res="-2.2981455549597740e-02" rms="4.7871613502502441e-01" purity="4.4979637861251831e-01" nType="0">
          <Node pos="l" depth="2" NCoef="0" IVar="-1" Cut="0.0000000000000000e+00" cType="1" res="-3.6061259452253580e-03" rms="4.6248301863670349e-01" purity="3.5211962461471558e-01" nType="-99"/>
          <Node pos="r" depth="2" NCoef="0" IVar="-1" Cut="0.0000000000000000e+00" cType="1" res="1.0268747573718429e-03" rms="4.8217353224754333e-01" purity="5.2546000480651855e-01" nType="-99"/>
        </Node>
        <Node pos="r" depth="1" NCoef="0" IVar="2" Cut="4.3689453125000000e+02" cType="1" res="6.6660605370998383e-02" rms="4.7675639390945435e-01" purity="5.9056949615478516e-01" nType="0">
          <Node pos="l" depth="2" NCoef="0" IVar="-1" Cut="0.0000000000000000e+00" cType="1" res="-6.6577363759279251e-04" rms="4.8184260725975037e-01" purity="4.3635159730911255e-01" nType="-99"/>
          <Node pos="r" depth="2" NCoef="0" IVar="-1" Cut="0.0000000000000000e+00" cType="1" res="2.0930480677634478e-03" rms="4.7298476099967957e-01" purity="6.2831938266754150e-01" nType="-99"/>
        </Node>
      </Node>
    </BinaryTree>
    <BinaryTree type="DecisionTree" boostWeight="1.0000000000000000e+00" itree="105">
      <Node pos="s" depth="0" NCoef="0" IVar="1" Cut="6.9809961318969727e-01" cType="1" res="7.9533141106367111e-03" rms="4.8035293817520142e-01" purity="4.9812707304954529e-01" nType="0">
        <Node pos="l" depth="1" NCoef="0" IVar="0" Cut="2.5317672640085220e-02" cType="1" res="-2.3511180654168129e-02" rms="4.7909936308860779e-01" purity="4.4750866293907166e-01" nType="0">
          <Node pos="l" depth="2" NCoef="0" IVar="-1" Cut="0.0000000000000000e+00" cType="1" res="-3.8399321492761374e-03" rms="4.6083965897560120e-01" purity="3.4317249059677124e-01" nType="-99"/>
          <Node pos="r" depth="2" NCoef="0" IVar="-1" Cut="0.0000000000000000e+00" cType="1" res="1.1110935593023896e-03" rms="4.8298591375350952e-01" purity="5.2873343229293823e-01" nType="-99"/>
        </Node>
        <Node pos="r" depth="1" NCoef="0" IVar="4" Cut="9.5001560449600220e-01" cType="1" res="6.3137277960777283e-02" rms="4.7756341099739075e-01" purity="5.8690416812896729e-01" nType="0">
          <Node pos="l" depth="2" NCoef="0" IVar="-1" Cut="0.0000000000000000e+00" cType="1" res="5.0022936193272471e-04" rms="4.9372729659080505e-01" purity="4.8280599713325500e-01" nType="-99"/>
          <Node pos="r" depth="2" NCoef="0" IVar="-1" Cut="0.0000000000000000e+00" cType="1" res="2.2388820070773363e-03" rms="4.6198645234107971e-01" purity="6.6575729846954346e-01" nType="-99"/>
        </Node>
      </Node>
    </BinaryTree>
    <BinaryTree type="DecisionTree" boostWeight="1.0000000000000000e+00" itree="106">
      <Node pos="s" depth="0" NCoef="0" IVar="2" Cut="4.2421990966796875e+02" cType="1" res="9.2335669323801994e-03" rms="4.7978943586349487e-01" purity="4.9979528784751892e-01" nType="0">
        <Node pos="l" depth="1" NCoef="0" IVar="2" Cut="3.8525585937500000e+02" cType="1" res="-7.1339197456836700e-02" rms="4.5957922935485840e-01" purity="3.5179787874221802e-01" nType="0">
          <Node pos="l" depth="2" NCoef="0" IVar="-1" Cut="0.0000000000000000e+00" cType="1" res="-4.2183538898825645e-03" rms="4.4355148077011108e-01" purity="3.0623227357864380e-01" nType="-99"/>
          <Node pos="r" depth="2" NCoef="0" IVar="-1" Cut="0.0000000000000000e+00" cType="1" res="-8.5917260730639100e-04" rms="4.7328531742095947e-01" purity="4.0382659435272217e-01" nType="-99"/>
        </Node>
        <Node pos="r" depth="1" NCoef="0" IVar="5" Cut="2.7661237120628357e-01" cType="1" res="3.0833400785923004e-02" rms="4.8278403282165527e-01" purity="5.3947025537490845e-01" nType="0">
          <Node pos="l" depth="2" NCoef="0" IVar="-1" Cut="0.0000000000000000e+00" cType="1" res="-8.9980784105136991e-04" rms="4.8375597596168518e-01" purity="4.6310982108116150e-01" nType="-99"/>
          <Node pos="r" depth="2" NCoef="0" IVar="-1" Cut="0.0000000000000000e+00" cType="1" res="1.4884687261655927e-03" rms="4.7974067926406860e-01" purity="5.7437413930892944e-01" nType="-99"/>
        </Node>
      </Node>
    </BinaryTree>
    <BinaryTree type="DecisionTree" boostWeight="1.0000000000000000e+00" itree="107">
      <Node pos="s" depth="0" NCoef="0" IVar="4" Cut="9.7178965806961060e-01" cType="1" res="5.8371140621602535e-03" rms="4.7970879077911377e-01" purity="4.9650183320045471e-01" nType="0">
        <Node pos="l" depth="1" NCoef="0" IVar="0" Cut="2.7389161288738251e-02" cType="1" res="-1.6908286139369011e-02" rms="4.8343795537948608e-01" purity="4.4208201766014099e-01" nType="0">
          <Node pos="l" depth="2" NCoef="0" IVar="-1" Cut="0.0000000000000000e+00" cType="1" res="-1.7437696224078536e-03" rms="4.7498145699501038e-01" purity="4.0011879801750183e-01" nType="-99"/>
          <Node pos="r" depth="2" NCoef="0" IVar="-1" Cut="0.0000000000000000e+00" cType="1" res="8.5427786689251661e-04" rms="4.9000942707061768e-01" purity="4.9621579051017761e-01" nType="-99"/>
        </Node>
        <Node pos="r" depth="1" NCoef="0" IVar="1" Cut="6.7586290836334229e-01" cType="1" res="8.0850996077060699e-02" rms="4.5928400754928589e-01" purity="6.7597728967666626e-01" nType="0">
          <Node pos="l" depth="2" NCoef="0" IVar="-1" Cut="0.0000000000000000e+00" cType="1" res="1.0023358045145869e-03" rms="4.7945344448089600e-01" purity="6.1506938934326172e-01" nType="-99"/>
          <Node pos="r" depth="2" NCoef="0" IVar="-1" Cut="0.0000000000000000e+00" cType="1" res="2.7239343617111444e-03" rms="4.3087798357009888e-01" purity="7.4502688646316528e-01" nType="-99"/>
        </Node>
      </Node>
    </BinaryTree>
    <BinaryTree type="DecisionTree" boostWeight="1.0000000000000000e+00" itree="108">
      <Node pos="s" depth="0" NCoef="0" IVar="4" Cut="9.8100274801254272e-01" cType="1" res="5.6017669849097729e-03" rms="4.7953975200653076e-01" purity="4.9601471424102783e-01" nType="0">
        <Node pos="l" depth="1" NCoef="0" IVar="0" Cut="2.6292677968740463e-02" cType="1" res="-1.0983092710375786e-02" rms="4.8306968808174133e-01" purity="4.6043142676353455e-01" nType="0">
          <Node pos="l" depth="2" NCoef="0" IVar="-1" Cut="0.0000000000000000e+00" cType="1" res="-1.4698081649839878e-03" rms="4.7701203823089600e-01" purity="4.1920059919357300e-01" nType="-99"/>
          <Node pos="r" depth="2" NCoef="0" IVar="-1" Cut="0.0000000000000000e+00" cType="1" res="9.4502727733924985e-04" rms="4.8692235350608826e-01" purity="5.1319992542266846e-01" nType="-99"/>
        </Node>
        <Node pos="r" depth="1" NCoef="0" IVar="-1" Cut="0.0000000000000000e+00" cType="1" res="2.4095482658594847e-03" rms="4.4301262497901917e-01" purity="7.1839785575866699e-01" nType="-99"/>
      </Node>
    </BinaryTree>
    <BinaryTree type="DecisionTree" boostWeight="1.0000000000000000e+00" itree="109">
      <Node pos="s" depth="0" NCoef="0" IVar="4" Cut="9.5362490415573120e-01" cType="1" res="9.4194244593381882e-03" rms="4.7944423556327820e-01" purity="4.9943166971206665e-01" nType="0">
        <Node pos="l" depth="1" NCoef="0" IVar="0" Cut="1.0440770536661148e-02" cType="1" res="-3.0452189967036247e-02" rms="4.7953948378562927e-01" purity="4.0575474500656128e-01" nType="0">
          <Node pos="l" depth="2" NCoef="0" IVar="-1" Cut="0.0000000000000000e+00" cType="1" res="-2.5853905826807022e-03" rms="4.6627068519592285e-01" purity="3.5527545213699341e-01" nType="-99"/>
          <Node pos="r" depth="2" NCoef="0" IVar="-1" Cut="0.0000000000000000e+00" cType="1" res="4.5186016359366477e-04" rms="4.8897981643676758e-01" purity="4.5901256799697876e-01" nType="-99"/>
        </Node>
        <Node pos="r" depth="1" NCoef="0" IVar="0" Cut="-7.2190046310424805e-02" cType="1" res="5.3459156304597855e-02" rms="4.7546866536140442e-01" purity="6.0290133953094482e-01" nType="0">
          <Node pos="l" depth="2" NCoef="0" IVar="-1" Cut="0.0000000000000000e+00" cType="1" res="-6.4404058502987027e-04" rms="4.8253223299980164e-01" purity="5.1806473731994629e-01" nType="-99"/>
          <Node pos="r" depth="2" NCoef="0" IVar="-1" Cut="0.0000000000000000e+00" cType="1" res="1.8259924836456776e-03" rms="4.7084280848503113e-01" purity="6.2857472896575928e-01" nType="-99"/>
        </Node>
      </Node>
    </BinaryTree>
    <BinaryTree type="DecisionTree" boostWeight="1.0000000000000000e+00" itree="110">
      <Node pos="s" depth="0" NCoef="0" IVar="1" Cut="7.2268790006637573e-01" cType="1" res="5.3476863540709019e-03" rms="4.7929266095161438e-01" purity="4.9553838372230530e-01" nType="0">
        <Node pos="l" depth="1" NCoef="0" IVar="0" Cut="2.7115829288959503e-02" cType="1" res="-2.1792978048324585e-02" rms="4.7861456871032715e-01" purity="4.5110890269279480e-01" nType="0">
          <Node pos="l" depth="2" NCoef="0" IVar="-1" Cut="0.0000000000000000e+00" cType="1" res="-3.3088698983192444e-03" rms="4.6312564611434937e-01" purity="3.5775616765022278e-01" nType="-99"/>
          <Node pos="r" depth="2" NCoef="0" IVar="-1" Cut="0.0000000000000000e+00" cType="1" res="1.0574911721050739e-03" rms="4.8279875516891479e-01" purity="5.2939355373382568e-01" nType="-99"/>
        </Node>
        <Node pos="r" depth="1" NCoef="0" IVar="2" Cut="4.4136297607421875e+02" cType="1" res="6.3784211874008179e-02" rms="4.7551992535591125e-01" purity="5.9119945764541626e-01" nType="0">
          <Node pos="l" depth="2" NCoef="0" IVar="-1" Cut="0.0000000000000000e+00" cType="1" res="-6.1642058426514268e-04" rms="4.8337602615356445e-01" purity="4.3906632065773010e-01" nType="-99"/>
          <Node pos="r" depth="2" NCoef="0" IVar="-1" Cut="0.0000000000000000e+00" cType="1" res="2.0281327888369560e-03" rms="4.7107762098312378e-01" purity="6.3010692596435547e-01" nType="-99"/>
        </Node>
      </Node>
    </BinaryTree>
    <BinaryTree type="DecisionTree" boostWeight="1.0000000000000000e+00" itree="111">
      <Node pos="s" depth="0" NCoef="0" IVar="4" Cut="9.8096710443496704e-01" cType="1" res="8.1697143614292145e-03" rms="4.7936636209487915e-01" purity="4.9797004461288452e-01" nType="0">
        <Node pos="l" depth="1" NCoef="0" IVar="0" Cut="1.6992336511611938e-01" cType="1" res="-7.4662147089838982e-03" rms="4.8291605710983276e-01" purity="4.6331295371055603e-01" nType="0">
          <Node pos="l" depth="2" NCoef="0" IVar="-1" Cut="0.0000000000000000e+00" cType="1" res="-7.0949026849120855e-04" rms="4.8081490397453308e-01" purity="4.4583189487457275e-01" nType="-99"/>
          <Node pos="r" depth="2" NCoef="0" IVar="-1" Cut="0.0000000000000000e+00" cType="1" res="2.1740009542554617e-03" rms="4.8451349139213562e-01" purity="5.6373441219329834e-01" nType="-99"/>
        </Node>
        <Node pos="r" depth="1" NCoef="0" IVar="-1" Cut="0.0000000000000000e+00" cType="1" res="2.3904552217572927e-03" rms="4.4348770380020142e-01" purity="7.1809303760528564e-01" nType="-99"/>
      </Node>
    </BinaryTree>
    <BinaryTree type="DecisionTree" boostWeight="1.0000000000000000e+00" itree="112">
      <Node pos="s" depth="0" NCoef="0" IVar="4" Cut="9.8090624809265137e-01" cType="1" res="7.0724058896303177e-03" rms="4.7963330149650574e-01" purity="4.9770912528038025e-01" nType="0">
        <Node pos="l" depth="1" NCoef="0" IVar="2" Cut="5.5135345458984375e+02" cType="1" res="-9.0732732787728310e-03" rms="4.8344227671623230e-01" purity="4.6145096421241760e-01" nType="0">
          <Node pos="l" depth="2" NCoef="0" IVar="-1" Cut="0.0000000000000000e+00" cType="1" res="-1.3758576242253184e-03" rms="4.7658711671829224e-01" purity="3.9625865221023560e-01" nType="-99"/>
          <Node pos="r" depth="2" NCoef="0" IVar="-1" Cut="0.0000000000000000e+00" cType="1" res="8.5015583317726851e-04" rms="4.8863413929939270e-01" purity="5.4186791181564331e-01" nType="-99"/>
        </Node>
        <Node pos="r" depth="1" NCoef="0" IVar="-1" Cut="0.0000000000000000e+00" cType="1" res="2.3231245577335358e-03" rms="4.4365578889846802e-01" purity="7.1658706665039062e-01" nType="-99"/>
      </Node>
    </BinaryTree>
    <BinaryTree type="DecisionTree" boostWeight="1.0000000000000000e+00" itree="113">
      <Node pos="s" depth="0" NCoef="0" IVar="2" Cut="4.4094784545898438e+02" cType="1" res="1.0514779016375542e-02" rms="4.7931483387947083e-01" purity="5.0074011087417603e-01" nType="0">
        <Node pos="l" depth="1" NCoef="0" IVar="4" Cut="9.3237489461898804e-01" cType="1" res="-5.8281552046537399e-02" rms="4.6492892503738403e-01" purity="3.6635917425155640e-01" nType="0">
          <Node pos="l" depth="2" NCoef="0" IVar="-1" Cut="0.0000000000000000e+00" cType="1" res="-5.7453056797385216e-03" rms="4.1447091102600098e-01" purity="2.2817969322204590e-01" nType="-99"/>
          <Node pos="r" depth="2" NCoef="0" IVar="-1" Cut="0.0000000000000000e+00" cType="1" res="-1.1117981048300862e-03" rms="4.7853535413742065e-01" purity="4.1303828358650208e-01" nType="-99"/>
        </Node>
        <Node pos="r" depth="1" NCoef="0" IVar="1" Cut="7.6869052648544312e-01" cType="1" res="3.4102492034435272e-02" rms="4.8189309239387512e-01" purity="5.4681438207626343e-01" nType="0">
          <Node pos="l" depth="2" NCoef="0" IVar="-1" Cut="0.0000000000000000e+00" cType="1" res="3.2239075517281890e-04" rms="4.8444858193397522e-01" purity="5.1360851526260376e-01" nType="-99"/>
          <Node pos="r" depth="2" NCoef="0" IVar="-1" Cut="0.0000000000000000e+00" cType="1" res="2.3879306390881538e-03" rms="4.6729412674903870e-01" purity="6.4878517389297485e-01" nType="-99"/>
        </Node>
      </Node>
    </BinaryTree>
    <BinaryTree type="DecisionTree" boostWeight="1.0000000000000000e+00" itree="114">
      <Node pos="s" depth="0" NCoef="0" IVar="4" Cut="9.4986897706985474e-01" cType="1" res="1.0694236494600773e-02" rms="4.7889354825019836e-01" purity="5.0147163867950439e-01" nType="0">
        <Node pos="l" depth="1" NCoef="0" IVar="1" Cut="6.5302616357803345e-01" cType="1" res="-3.1777542084455490e-02" rms="4.7802153229713440e-01" purity="3.9948910474777222e-01" nType="0">
          <Node pos="l" depth="2" NCoef="0" IVar="-1" Cut="0.0000000000000000e+00" cType="1" res="-2.4268457200378180e-03" rms="4.6447193622589111e-01" purity="3.4231632947921753e-01" nType="-99"/>
          <Node pos="r" depth="2" NCoef="0" IVar="-1" Cut="0.0000000000000000e+00" cType="1" res="4.2398888035677373e-04" rms="4.9121174216270447e-01" purity="4.7394227981567383e-01" nType="-99"/>
        </Node>
        <Node pos="r" depth="1" NCoef="0" IVar="0" Cut="-1.9151510670781136e-02" cType="1" res="4.7124564647674561e-02" rms="4.7663438320159912e-01" purity="5.8894753456115723e-01" nType="0">
          <Node pos="l" depth="2" NCoef="0" IVar="-1" Cut="0.0000000000000000e+00" cType="1" res="-5.2927694923710078e-05" rms="4.8192164301872253e-01" purity="5.3374534845352173e-01" nType="-99"/>
          <Node pos="r" depth="2" NCoef="0" IVar="-1" Cut="0.0000000000000000e+00" cType="1" res="2.0198540296405554e-03" rms="4.6903932094573975e-01" purity="6.3143479824066162e-01" nType="-99"/>
        </Node>
      </Node>
    </BinaryTree>
    <BinaryTree type="DecisionTree" boostWeight="1.0000000000000000e+00" itree="115">
      <Node pos="s" depth="0" NCoef="0" IVar="4" Cut="9.3604391813278198e-01" cType="1" res="9.3331038951873779e-03" rms="4.7914847731590271e-01" purity="4.9983379244804382e-01" nType="0">
        <Node pos="l" depth="1" NCoef="0" IVar="6" Cut="1.1002276837825775e-01" cType="1" res="-5.3982727229595184e-02" rms="4.7123292088508606e-01" purity="3.6665862798690796e-01" nType="0">
          <Node pos="l" depth="2" NCoef="0" IVar="-1" Cut="0.0000000000000000e+00" cType="1" res="-2.9121313709765673e-03" rms="4.6354928612709045e-01" purity="3.4041202068328857e-01" nType="-99"/>
          <Node pos="r" depth="2" NCoef="0" IVar="-1" Cut="0.0000000000000000e+00" cType="1" res="5.5480679293395951e-05" rms="4.8175337910652161e-01" purity="4.2021358013153076e-01" nType="-99"/>
        </Node>
        <Node pos="r" depth="1" NCoef="0" IVar="0" Cut="4.5320697128772736e-02" cType="1" res="3.3408865332603455e-02" rms="4.7993725538253784e-01" purity="5.5047351121902466e-01" nType="0">
          <Node pos="l" depth="2" NCoef="0" IVar="-1" Cut="0.0000000000000000e+00" cType="1" res="4.7202374844346195e-05" rms="4.7996923327445984e-01" purity="5.1405316591262817e-01" nType="-99"/>
          <Node pos="r" depth="2" NCoef="0" IVar="-1" Cut="0.0000000000000000e+00" cType="1" res="2.0209860522300005e-03" rms="4.7573259472846985e-01" purity="6.0691285133361816e-01" nType="-99"/>
        </Node>
      </Node>
    </BinaryTree>
    <BinaryTree type="DecisionTree" boostWeight="1.0000000000000000e+00" itree="116">
      <Node pos="s" depth="0" NCoef="0" IVar="4" Cut="9.4924986362457275e-01" cType="1" res="9.3000559136271477e-03" rms="4.7794678807258606e-01" purity="5.0021755695343018e-01" nType="0">
        <Node pos="l" depth="1" NCoef="0" IVar="2" Cut="5.1020779418945312e+02" cType="1" res="-3.6760736256837845e-02" rms="4.7572675347328186e-01" purity="3.9258843660354614e-01" nType="0">
          <Node pos="l" depth="2" NCoef="0" IVar="-1" Cut="0.0000000000000000e+00" cType="1" res="-3.1091724522411823e-03" rms="4.5182675123214722e-01" purity="3.0203768610954285e-01" nType="-99"/>
          <Node pos="r" depth="2" NCoef="0" IVar="-1" Cut="0.0000000000000000e+00" cType="1" res="5.1606501074275002e-05" rms="4.9240040779113770e-01" purity="4.7155559062957764e-01" nType="-99"/>
        </Node>
        <Node pos="r" depth="1" NCoef="0" IVar="0" Cut="-7.6763130724430084e-02" cType="1" res="4.7358796000480652e-02" rms="4.7642526030540466e-01" purity="5.8914852142333984e-01" nType="0">
          <Node pos="l" depth="2" NCoef="0" IVar="-1" Cut="0.0000000000000000e+00" cType="1" res="-7.8970950562506914e-04" rms="4.8134988546371460e-01" purity="5.0383275747299194e-01" nType="-99"/>
          <Node pos="r" depth="2" NCoef="0" IVar="-1" Cut="0.0000000000000000e+00" cType="1" res="1.6535372706130147e-03" rms="4.7300955653190613e-01" purity="6.1225360631942749e-01" nType="-99"/>
        </Node>
      </Node>
    </BinaryTree>
    <BinaryTree type="DecisionTree" boostWeight="1.0000000000000000e+00" itree="117">
      <Node pos="s" depth="0" NCoef="0" IVar="4" Cut="9.7206097841262817e-01" cType="1" res="1.1131100356578827e-02" rms="4.7814720869064331e-01" purity="5.0260013341903687e-01" nType="0">
        <Node pos="l" depth="1" NCoef="0" IVar="0" Cut="4.6432606875896454e-02" cType="1" res="-1.1045061983168125e-02" rms="4.8271176218986511e-01" purity="4.4737145304679871e-01" nType="0">
          <Node pos="l" depth="2" NCoef="0" IVar="-1" Cut="0.0000000000000000e+00" cType="1" res="-1.2694029137492180e-03" rms="4.7640874981880188e-01" purity="4.1153186559677124e-01" nType="-99"/>
          <Node pos="r" depth="2" NCoef="0" IVar="-1" Cut="0.0000000000000000e+00" cType="1" res="9.4626197824254632e-04" rms="4.8897480964660645e-01" purity="5.0359642505645752e-01" nType="-99"/>
        </Node>
        <Node pos="r" depth="1" NCoef="0" IVar="4" Cut="9.8726695775985718e-01" cType="1" res="8.4824062883853912e-02" rms="4.5495623350143433e-01" purity="6.8612897396087646e-01" nType="0">
          <Node pos="l" depth="2" NCoef="0" IVar="-1" Cut="0.0000000000000000e+00" cType="1" res="1.2496808776631951e-03" rms="4.7092595696449280e-01" purity="6.4321762323379517e-01" nType="-99"/>
          <Node pos="r" depth="2" NCoef="0" IVar="-1" Cut="0.0000000000000000e+00" cType="1" res="3.0121265444904566e-03" rms="4.1817981004714966e-01" purity="7.6335340738296509e-01" nType="-99"/>
        </Node>
      </Node>
    </BinaryTree>
    <BinaryTree type="DecisionTree" boostWeight="1.0000000000000000e+00" itree="118">
      <Node pos="s" depth="0" NCoef="0" IVar="1" Cut="6.2460881471633911e-01" cType="1" res="8.4531288594007492e-03" rms="4.7890651226043701e-01" purity="4.9819728732109070e-01" nType="0">
        <Node pos="l" depth="1" NCoef="0" IVar="0" Cut="1.3583728671073914e-01" cType="1" res="-3.1534958630800247e-02" rms="4.7563144564628601e-01" purity="4.3247270584106445e-01" nType="0">
          <Node pos="l" depth="2" NCoef="0" IVar="-1" Cut="0.0000000000000000e+00" cType="1" res="-3.3794236369431019e-03" rms="4.6165138483047485e-01" purity="3.5088112950325012e-01" nType="-99"/>
          <Node pos="r" depth="2" NCoef="0" IVar="-1" Cut="0.0000000000000000e+00" cType="1" res="1.9220554968342185e-03" rms="4.7982445359230042e-01" purity="5.7074165344238281e-01" nType="-99"/>
        </Node>
        <Node pos="r" depth="1" NCoef="0" IVar="2" Cut="4.3194650268554688e+02" cType="1" res="4.6186912804841995e-02" rms="4.7892445325851440e-01" purity="5.6021666526794434e-01" nType="0">
          <Node pos="l" depth="2" NCoef="0" IVar="-1" Cut="0.0000000000000000e+00" cType="1" res="-8.6611899314448237e-04" rms="4.7912716865539551e-01" purity="4.1312730312347412e-01" nType="-99"/>
          <Node pos="r" depth="2" NCoef="0" IVar="-1" Cut="0.0000000000000000e+00" cType="1" res="1.6107015544548631e-03" rms="4.7700595855712891e-01" purity="5.9851193428039551e-01" nType="-99"/>
        </Node>
      </Node>
    </BinaryTree>
    <BinaryTree type="DecisionTree" boostWeight="1.0000000000000000e+00" itree="119">
      <Node pos="s" depth="0" NCoef="0" IVar="2" Cut="4.9534689331054688e+02" cType="1" res="7.4549936689436436e-03" rms="4.7882181406021118e-01" purity="4.9717164039611816e-01" nType="0">
        <Node pos="l" depth="1" NCoef="0" IVar="4" Cut="9.7630268335342407e-01" cType="1" res="-3.8191195577383041e-02" rms="4.7144553065299988e-01" purity="4.0590527653694153e-01" nType="0">
          <Node pos="l" depth="2" NCoef="0" IVar="-1" Cut="0.0000000000000000e+00" cType="1" res="-1.8857158720493317e-03" rms="4.6866706013679504e-01" purity="3.6067450046539307e-01" nType="-99"/>
          <Node pos="r" depth="2" NCoef="0" IVar="-1" Cut="0.0000000000000000e+00" cType="1" res="1.0635788785293698e-03" rms="4.7637665271759033e-01" purity="6.2724667787551880e-01" nType="-99"/>
        </Node>
        <Node pos="r" depth="1" NCoef="0" IVar="5" Cut="3.2221442461013794e-01" cType="1" res="4.0020801126956940e-02" rms="4.8137727379798889e-01" purity="5.6228464841842651e-01" nType="0">
          <Node pos="l" depth="2" NCoef="0" IVar="-1" Cut="0.0000000000000000e+00" cType="1" res="-3.0604127096012235e-04" rms="4.8587900400161743e-01" purity="4.9648970365524292e-01" nType="-99"/>
          <Node pos="r" depth="2" NCoef="0" IVar="-1" Cut="0.0000000000000000e+00" cType="1" res="1.8828526372089982e-03" rms="4.7463151812553406e-01" purity="6.1039113998413086e-01" nType="-99"/>
        </Node>
      </Node>
    </BinaryTree>
    <BinaryTree type="DecisionTree" boostWeight="1.0000000000000000e+00" itree="120">
      <Node pos="s" depth="0" NCoef="0" IVar="4" Cut="9.8097079992294312e-01" cType="1" res="9.8406551405787468e-03" rms="4.7817111015319824e-01" purity="5.0088870525360107e-01" nType="0">
        <Node pos="l" depth="1" NCoef="0" IVar="2" Cut="4.3194650268554688e+02" cType="1" res="-6.0738711617887020e-03" rms="4.8229354619979858e-01" purity="4.6436050534248352e-01" nType="0">
          <Node pos="l" depth="2" NCoef="0" IVar="-1" Cut="0.0000000000000000e+00" cType="1" res="-2.7479568962007761e-03" rms="4.5741015672683716e-01" purity="3.2417160272598267e-01" nType="-99"/>
          <Node pos="r" depth="2" NCoef="0" IVar="-1" Cut="0.0000000000000000e+00" cType="1" res="4.0579141932539642e-04" rms="4.8780494928359985e-01" purity="5.0745964050292969e-01" nType="-99"/>
        </Node>
        <Node pos="r" depth="1" NCoef="0" IVar="-1" Cut="0.0000000000000000e+00" cType="1" res="2.3600722197443247e-03" rms="4.3995675444602966e-01" purity="7.2352844476699829e-01" nType="-99"/>
      </Node>
    </BinaryTree>
    <BinaryTree type="DecisionTree" boostWeight="1.0000000000000000e+00" itree="121">
      <Node pos="s" depth="0" NCoef="0" IVar="1" Cut="5.7993417978286743e-01" cType="1" res="4.3424023315310478e-03" rms="4.7846105694770813e-01" purity="4.9491748213768005e-01" nType="0">
        <Node pos="l" depth="1" NCoef="0" IVar="0" Cut="1.3652773201465607e-01" cType="1" res="-4.3947689235210419e-02" rms="4.7265630960464478e-01" purity="4.1973355412483215e-01" nType="0">
          <Node pos="l" depth="2" NCoef="0" IVar="-1" Cut="0.0000000000000000e+00" cType="1" res="-4.4607580639421940e-03" rms="4.5085623860359192e-01" purity="3.2319605350494385e-01" nType="-99"/>
          <Node pos="r" depth="2" NCoef="0" IVar="-1" Cut="0.0000000000000000e+00" cType="1" res="1.5969029627740383e-03" rms="4.8252522945404053e-01" purity="5.5582958459854126e-01" nType="-99"/>
        </Node>
        <Node pos="r" depth="1" NCoef="0" IVar="4" Cut="9.8132181167602539e-01" cType="1" res="3.5585280507802963e-02" rms="4.7959581017494202e-01" purity="5.4356020689010620e-01" nType="0">
          <Node pos="l" depth="2" NCoef="0" IVar="-1" Cut="0.0000000000000000e+00" cType="1" res="5.8065319899469614e-04" rms="4.8642396926879883e-01" purity="5.0816667079925537e-01" nType="-99"/>
          <Node pos="r" depth="2" NCoef="0" IVar="-1" Cut="0.0000000000000000e+00" cType="1" res="2.6197801344096661e-03" rms="4.2848289012908936e-01" purity="7.4836122989654541e-01" nType="-99"/>
        </Node>
      </Node>
    </BinaryTree>
    <BinaryTree type="DecisionTree" boostWeight="1.0000000000000000e+00" itree="122">
      <Node pos="s" depth="0" NCoef="0" IVar="1" Cut="6.5349882841110229e-01" cType="1" res="9.7319753840565681e-03" rms="4.7820562124252319e-01" purity="5.0056958198547363e-01" nType="0">
        <Node pos="l" depth="1" NCoef="0" IVar="0" Cut="6.5278299152851105e-02" cType="1" res="-2.9050286859273911e-02" rms="4.7572883963584900e-01" purity="4.3547520041465759e-01" nType="0">
          <Node pos="l" depth="2" NCoef="0" IVar="-1" Cut="0.0000000000000000e+00" cType="1" res="-4.2115878313779831e-03" rms="4.5403382182121277e-01" purity="3.2238301634788513e-01" nType="-99"/>
          <Node pos="r" depth="2" NCoef="0" IVar="-1" Cut="0.0000000000000000e+00" cType="1" res="1.3054835144430399e-03" rms="4.8237723112106323e-01" purity="5.4221278429031372e-01" nType="-99"/>
        </Node>
        <Node pos="r" depth="1" NCoef="0" IVar="4" Cut="9.4574373960494995e-01" cType="1" res="5.5209558457136154e-02" rms="4.7709465026855469e-01" purity="5.7690185308456421e-01" nType="0">
          <Node pos="l" depth="2" NCoef="0" IVar="-1" Cut="0.0000000000000000e+00" cType="1" res="1.5410916239488870e-04" rms="4.9098455905914307e-01" purity="4.6051192283630371e-01" nType="-99"/>
          <Node pos="r" depth="2" NCoef="0" IVar="-1" Cut="0.0000000000000000e+00" cType="1" res="1.9927606917917728e-03" rms="4.6638152003288269e-01" purity="6.4457321166992188e-01" nType="-99"/>
        </Node>
      </Node>
    </BinaryTree>
    <BinaryTree type="DecisionTree" boostWeight="1.0000000000000000e+00" itree="123">
      <Node pos="s" depth="0" NCoef="0" IVar="1" Cut="5.8028858900070190e-01" cType="1" res="1.1988020502030849e-02" rms="4.7820746898651123e-01" purity="5.0246995687484741e-01" nType="0">
        <Node pos="l" depth="1" NCoef="0" IVar="0" Cut="1.6703863441944122e-01" cType="1" res="-3.6399368196725845e-02" rms="4.7278937697410583e-01" purity="4.2639693617820740e-01" nType="0">
          <Node pos="l" depth="2" NCoef="0" IVar="-1" Cut="0.0000000000000000e+00" cType="1" res="-3.4453149419277906e-03" rms="4.5799493789672852e-01" purity="3.4851375222206116e-01" nType="-99"/>
          <Node pos="r" depth="2" NCoef="0" IVar="-1" Cut="0.0000000000000000e+00" cType="1" res="2.0580252166837454e-03" rms="4.7887405753135681e-01" purity="5.7852005958557129e-01" nType="-99"/>
        </Node>
        <Node pos="r" depth="1" NCoef="0" IVar="4" Cut="9.8118042945861816e-01" cType="1" res="4.3223164975643158e-02" rms="4.7908401489257812e-01" purity="5.5157685279846191e-01" nType="0">
          <Node pos="l" depth="2" NCoef="0" IVar="-1" Cut="0.0000000000000000e+00" cType="1" res="7.7363965101540089e-04" rms="4.8652660846710205e-01" purity="5.1583957672119141e-01" nType="-99"/>
          <Node pos="r" depth="2" NCoef="0" IVar="-1" Cut="0.0000000000000000e+00" cType="1" res="2.7860170230269432e-03" rms="4.2315587401390076e-01" purity="7.5943905115127563e-01" nType="-99"/>
        </Node>
      </Node>
    </BinaryTree>
    <BinaryTree type="DecisionTree" boostWeight="1.0000000000000000e+00" itree="124">
      <Node pos="s" depth="0" NCoef="0" IVar="0" Cut="-2.4416964501142502e-02" cType="1" res="1.1841912753880024e-02" rms="4.7812452912330627e-01" purity="5.0221920013427734e-01" nType="0">
        <Node pos="l" depth="1" NCoef="0" IVar="1" Cut="7.0448821783065796e-01" cType="1" res="-3.6149390041828156e-02" rms="4.7223156690597534e-01" purity="4.4552326202392578e-01" nType="0">
          <Node pos="l" depth="2" NCoef="0" IVar="-1" Cut="0.0000000000000000e+00" cType="1" res="-4.1455361060798168e-03" rms="4.5385569334030151e-01" purity="3.2819333672523499e-01" nType="-99"/>
          <Node pos="r" depth="2" NCoef="0" IVar="-1" Cut="0.0000000000000000e+00" cType="1" res="1.0653873905539513e-03" rms="4.7821503877639771e-01" purity="5.6624859571456909e-01" nType="-99"/>
        </Node>
        <Node pos="r" depth="1" NCoef="0" IVar="4" Cut="9.2275452613830566e-01" cType="1" res="4.5219723135232925e-02" rms="4.7935605049133301e-01" purity="5.4165107011795044e-01" nType="0">
          <Node pos="l" depth="2" NCoef="0" IVar="-1" Cut="0.0000000000000000e+00" cType="1" res="-1.3785981573164463e-03" rms="4.7777900099754333e-01" purity="3.8083937764167786e-01" nType="-99"/>
          <Node pos="r" depth="2" NCoef="0" IVar="-1" Cut="0.0000000000000000e+00" cType="1" res="1.5567069640383124e-03" rms="4.7795754671096802e-01" purity="5.7072025537490845e-01" nType="-99"/>
        </Node>
      </Node>
    </BinaryTree>
    <BinaryTree type="DecisionTree" boostWeight="1.0000000000000000e+00" itree="125">
      <Node pos="s" depth="0" NCoef="0" IVar="2" Cut="5.2811322021484375e+02" cType="1" res="3.9975703693926334e-03" rms="4.7752955555915833e-01" purity="4.9437093734741211e-01" nType="0">
        <Node pos="l" depth="1" NCoef="0" IVar="5" Cut="4.5200425386428833e-01" cType="1" res="-3.7103615701198578e-02" rms="4.7199156880378723e-01" purity="4.1373845934867859e-01" nType="0">
          <Node pos="l" depth="2" NCoef="0" IVar="-1" Cut="0.0000000000000000e+00" cType="1" res="-2.5304723531007767e-03" rms="4.6294519305229187e-01" purity="3.6301279067993164e-01" nType="-99"/>
          <Node pos="r" depth="2" NCoef="0" IVar="-1" Cut="0.0000000000000000e+00" cType="1" res="2.2013693524058908e-04" rms="4.7939479351043701e-01" purity="4.7753384709358215e-01" nType="-99"/>
        </Node>
        <Node pos="r" depth="1" NCoef="0" IVar="4" Cut="9.3193662166595459e-01" cType="1" res="4.3824288994073868e-02" rms="4.7948589920997620e-01" purity="5.7250314950942993e-01" nType="0">
          <Node pos="l" depth="2" NCoef="0" IVar="-1" Cut="0.0000000000000000e+00" cType="1" res="-9.4083818839862943e-04" rms="4.8908573389053345e-01" purity="4.2989957332611084e-01" nType="-99"/>
          <Node pos="r" depth="2" NCoef="0" IVar="-1" Cut="0.0000000000000000e+00" cType="1" res="1.5911335358396173e-03" rms="4.7457152605056763e-01" purity="6.1317801475524902e-01" nType="-99"/>
        </Node>
      </Node>
    </BinaryTree>
    <BinaryTree type="DecisionTree" boostWeight="1.0000000000000000e+00" itree="126">
      <Node pos="s" depth="0" NCoef="0" IVar="4" Cut="9.3074917793273926e-01" cType="1" res="9.4532202929258347e-03" rms="4.7793459892272949e-01" purity="4.9906241893768311e-01" nType="0">
        <Node pos="l" depth="1" NCoef="0" IVar="5" Cut="2.7320447564125061e-01" cType="1" res="-5.8526758104562759e-02" rms="4.6869593858718872e-01" purity="3.5494208335876465e-01" nType="0">
          <Node pos="l" depth="2" NCoef="0" IVar="-1" Cut="0.0000000000000000e+00" cType="1" res="-4.1428925469517708e-03" rms="4.4866544008255005e-01" purity="2.9889583587646484e-01" nType="-99"/>
          <Node pos="r" depth="2" NCoef="0" IVar="-1" Cut="0.0000000000000000e+00" cType="1" res="-1.2074613478034735e-03" rms="4.7634881734848022e-01" purity="3.8174384832382202e-01" nType="-99"/>
        </Node>
        <Node pos="r" depth="1" NCoef="0" IVar="0" Cut="6.2519349157810211e-02" cType="1" res="2.8629565611481667e-02" rms="4.7876629233360291e-01" purity="5.3971701860427856e-01" nType="0">
          <Node pos="l" depth="2" NCoef="0" IVar="-1" Cut="0.0000000000000000e+00" cType="1" res="2.5782179363886826e-05" rms="4.7831031680107117e-01" purity="5.0640928745269775e-01" nType="-99"/>
          <Node pos="r" depth="2" NCoef="0" IVar="-1" Cut="0.0000000000000000e+00" cType="1" res="1.9806793425232172e-03" rms="4.7531270980834961e-01" purity="6.0189658403396606e-01" nType="-99"/>
        </Node>
      </Node>
    </BinaryTree>
    <BinaryTree type="DecisionTree" boostWeight="1.0000000000000000e+00" itree="127">
      <Node pos="s" depth="0" NCoef="0" IVar="1" Cut="6.7395973205566406e-01" cType="1" res="6.9840168580412865e-03" rms="4.7802641987800598e-01" purity="4.9666705727577209e-01" nType="0">
        <Node pos="l" depth="1" NCoef="0" IVar="0" Cut="8.0490596592426300e-02" cType="1" res="-2.4264924228191376e-02" rms="4.7570681571960449e-01" purity="4.4062906503677368e-01" nType="0">
          <Node pos="l" depth="2" NCoef="0" IVar="-1" Cut="0.0000000000000000e+00" cType="1" res="-3.0909078195691109e-03" rms="4.6085670590400696e-01" purity="3.5274019837379456e-01" nType="-99"/>
          <Node pos="r" depth="2" NCoef="0" IVar="-1" Cut="0.0000000000000000e+00" cType="1" res="1.2968732044100761e-03" rms="4.8249760270118713e-01" purity="5.4479956626892090e-01" nType="-99"/>
        </Node>
        <Node pos="r" depth="1" NCoef="0" IVar="2" Cut="4.3772793579101562e+02" cType="1" res="5.1264598965644836e-02" rms="4.7780707478523254e-01" purity="5.7607442140579224e-01" nType="0">
          <Node pos="l" depth="2" NCoef="0" IVar="-1" Cut="0.0000000000000000e+00" cType="1" res="-4.6172272413969040e-04" rms="4.8232957720756531e-01" purity="4.3508204817771912e-01" nType="-99"/>
          <Node pos="r" depth="2" NCoef="0" IVar="-1" Cut="0.0000000000000000e+00" cType="1" res="1.6745186876505613e-03" rms="4.7507500648498535e-01" purity="6.1313992738723755e-01" nType="-99"/>
        </Node>
      </Node>
    </BinaryTree>
    <BinaryTree type="DecisionTree" boostWeight="1.0000000000000000e+00" itree="128">
      <Node pos="s" depth="0" NCoef="0" IVar="4" Cut="9.7668910026550293e-01" cType="1" res="1.1417898349463940e-02" rms="4.7744706273078918e-01" purity="5.0188916921615601e-01" nType="0">
        <Node pos="l" depth="1" NCoef="0" IVar="2" Cut="6.2470983886718750e+02" cType="1" res="-6.5890224650502205e-03" rms="4.8204991221427917e-01" purity="4.5696005225181580e-01" nType="0">
          <Node pos="l" depth="2" NCoef="0" IVar="-1" Cut="0.0000000000000000e+00" cType="1" res="-1.0068983538076282e-03" rms="4.7751027345657349e-01" purity="4.1189637780189514e-01" nType="-99"/>
          <Node pos="r" depth="2" NCoef="0" IVar="-1" Cut="0.0000000000000000e+00" cType="1" res="1.2860572896897793e-03" rms="4.8736318945884705e-01" purity="5.5754369497299194e-01" nType="-99"/>
        </Node>
        <Node pos="r" depth="1" NCoef="0" IVar="4" Cut="9.8650884628295898e-01" cType="1" res="9.3019552528858185e-02" rms="4.4700521230697632e-01" purity="7.0549392700195312e-01" nType="0">
          <Node pos="l" depth="2" NCoef="0" IVar="-1" Cut="0.0000000000000000e+00" cType="1" res="1.3838224112987518e-03" rms="4.6502026915550232e-01" purity="6.6076850891113281e-01" nType="-99"/>
          <Node pos="r" depth="2" NCoef="0" IVar="-1" Cut="0.0000000000000000e+00" cType="1" res="2.7813785709440708e-03" rms="4.2397043108940125e-01" purity="7.5295579433441162e-01" nType="-99"/>
        </Node>
      </Node>
    </BinaryTree>
    <BinaryTree type="DecisionTree" boostWeight="1.0000000000000000e+00" itree="129">
      <Node pos="s" depth="0" NCoef="0" IVar="1" Cut="6.2746775150299072e-01" cType="1" res="7.2303898632526398e-03" rms="4.7766521573066711e-01" purity="4.9707350134849548e-01" nType="0">
        <Node pos="l" depth="1" NCoef="0" IVar="0" Cut="1.3441517949104309e-01" cType="1" res="-3.1256601214408875e-02" rms="4.7452539205551147e-01" purity="4.2948842048645020e-01" nType="0">
          <Node pos="l" depth="2" NCoef="0" IVar="-1" Cut="0.0000000000000000e+00" cType="1" res="-3.1221166718751192e-03" rms="4.6120807528495789e-01" purity="3.5104393959045410e-01" nType="-99"/>
          <Node pos="r" depth="2" NCoef="0" IVar="-1" Cut="0.0000000000000000e+00" cType="1" res="1.5905580949038267e-03" rms="4.8176193237304688e-01" purity="5.5961108207702637e-01" nType="-99"/>
        </Node>
        <Node pos="r" depth="1" NCoef="0" IVar="4" Cut="9.3211048841476440e-01" cType="1" res="4.4465005397796631e-02" rms="4.7774156928062439e-01" purity="5.6245934963226318e-01" nType="0">
          <Node pos="l" depth="2" NCoef="0" IVar="-1" Cut="0.0000000000000000e+00" cType="1" res="-9.6179952379316092e-04" rms="4.8362752795219421e-01" purity="4.1265904903411865e-01" nType="-99"/>
          <Node pos="r" depth="2" NCoef="0" IVar="-1" Cut="0.0000000000000000e+00" cType="1" res="1.6104070236906409e-03" rms="4.7406280040740967e-01" purity="6.0325914621353149e-01" nType="-99"/>
        </Node>
      </Node>
    </BinaryTree>
    <BinaryTree type="DecisionTree" boostWeight="1.0000000000000000e+00" itree="130">
      <Node pos="s" depth="0" NCoef="0" IVar="2" Cut="4.2421990966796875e+02" cType="1" res="1.3725621625781059e-02" rms="4.7655746340751648e-01" purity="5.0476998090744019e-01" nType="0">
        <Node pos="l" depth="1" NCoef="0" IVar="0" Cut="9.0945273637771606e-02" cType="1" res="-6.3376121222972870e-02" rms="4.5815503597259521e-01" purity="3.5214146971702576e-01" nType="0">
          <Node pos="l" depth="2" NCoef="0" IVar="-1" Cut="0.0000000000000000e+00" cType="1" res="-3.5822987556457520e-03" rms="4.4579899311065674e-01" purity="3.1432509422302246e-01" nType="-99"/>
          <Node pos="r" depth="2" NCoef="0" IVar="-1" Cut="0.0000000000000000e+00" cType="1" res="2.2582242672797292e-04" rms="4.7917890548706055e-01" purity="4.4298619031906128e-01" nType="-99"/>
        </Node>
        <Node pos="r" depth="1" NCoef="0" IVar="4" Cut="9.3642121553421021e-01" cType="1" res="3.4208558499813080e-02" rms="4.7924712300300598e-01" purity="5.4531753063201904e-01" nType="0">
          <Node pos="l" depth="2" NCoef="0" IVar="-1" Cut="0.0000000000000000e+00" cType="1" res="-8.9139846386387944e-04" rms="4.8371532559394836e-01" purity="4.1024169325828552e-01" nType="-99"/>
          <Node pos="r" depth="2" NCoef="0" IVar="-1" Cut="0.0000000000000000e+00" cType="1" res="1.4203450409695506e-03" rms="4.7562521696090698e-01" purity="5.9412842988967896e-01" nType="-99"/>
        </Node>
      </Node>
    </BinaryTree>
    <BinaryTree type="DecisionTree" boostWeight="1.0000000000000000e+00" itree="131">
      <Node pos="s" depth="0" NCoef="0" IVar="1" Cut="6.0447788238525391e-01" cType="1" res="1.4166161417961121e-02" rms="4.7665151953697205e-01" purity="5.0497549772262573e-01" nType="0">
        <Node pos="l" depth="1" NCoef="0" IVar="0" Cut="1.3348686695098877e-01" cType="1" res="-2.9996247962117195e-02" rms="4.7248375415802002e-01" purity="4.3134480714797974e-01" nType="0">
          <Node pos="l" depth="2" NCoef="0" IVar="-1" Cut="0.0000000000000000e+00" cType="1" res="-3.6358404904603958e-03" rms="4.5453208684921265e-01" purity="3.3698767423629761e-01" nType="-99"/>
          <Node pos="r" depth="2" NCoef="0" IVar="-1" Cut="0.0000000000000000e+00" cType="1" res="1.8262213561683893e-03" rms="4.8011198639869690e-01" purity="5.7115834951400757e-01" nType="-99"/>
        </Node>
        <Node pos="r" depth="1" NCoef="0" IVar="4" Cut="9.7188270092010498e-01" cType="1" res="4.8796765506267548e-02" rms="4.7704294323921204e-01" purity="5.6271409988403320e-01" nType="0">
          <Node pos="l" depth="2" NCoef="0" IVar="-1" Cut="0.0000000000000000e+00" cType="1" res="7.6571066165342927e-04" rms="4.8835787177085876e-01" purity="5.0515776872634888e-01" nType="-99"/>
          <Node pos="r" depth="2" NCoef="0" IVar="-1" Cut="0.0000000000000000e+00" cType="1" res="2.4433631915599108e-03" rms="4.3584510684013367e-01" purity="7.3384624719619751e-01" nType="-99"/>
        </Node>
      </Node>
    </BinaryTree>
    <BinaryTree type="DecisionTree" boostWeight="1.0000000000000000e+00" itree="132">
      <Node pos="s" depth="0" NCoef="0" IVar="4" Cut="9.8116844892501831e-01" cType="1" res="6.9021112285554409e-03" rms="4.7736313939094543e-01" purity="4.9737101793289185e-01" nType="0">
        <Node pos="l" depth="1" NCoef="0" IVar="0" Cut="1.5434008836746216e-01" cType="1" res="-7.9390173777937889e-03" rms="4.8134225606918335e-01" purity="4.6161991357803345e-01" nType="0">
          <Node pos="l" depth="2" NCoef="0" IVar="-1" Cut="0.0000000000000000e+00" cType="1" res="-7.3701667133718729e-04" rms="4.7913947701454163e-01" purity="4.4140696525573730e-01" nType="-99"/>
          <Node pos="r" depth="2" NCoef="0" IVar="-1" Cut="0.0000000000000000e+00" cType="1" res="1.7772896680980921e-03" rms="4.8426368832588196e-01" purity="5.5770426988601685e-01" nType="-99"/>
        </Node>
        <Node pos="r" depth="1" NCoef="0" IVar="-1" Cut="0.0000000000000000e+00" cType="1" res="2.2398394066840410e-03" rms="4.4043627381324768e-01" purity="7.2117537260055542e-01" nType="-99"/>
      </Node>
    </BinaryTree>
    <BinaryTree type="DecisionTree" boostWeight="1.0000000000000000e+00" itree="133">
      <Node pos="s" depth="0" NCoef="0" IVar="2" Cut="4.3639715576171875e+02" cType="1" res="1.0768888518214226e-02" rms="4.7711101174354553e-01" purity="5.0086444616317749e-01" nType="0">
        <Node pos="l" depth="1" NCoef="0" IVar="0" Cut="-7.4456669390201569e-02" cType="1" res="-5.1887150853872299e-02" rms="4.6353477239608765e-01" purity="3.6454635858535767e-01" nType="0">
          <Node pos="l" depth="2" NCoef="0" IVar="-1" Cut="0.0000000000000000e+00" cType="1" res="-5.0696963444352150e-03" rms="4.2784503102302551e-01" purity="2.7483713626861572e-01" nType="-99"/>
          <Node pos="r" depth="2" NCoef="0" IVar="-1" Cut="0.0000000000000000e+00" cType="1" res="-1.0932596633210778e-03" rms="4.7101029753684998e-01" purity="3.8906905055046082e-01" nType="-99"/>
        </Node>
        <Node pos="r" depth="1" NCoef="0" IVar="5" Cut="3.2854980230331421e-01" cType="1" res="3.1261809170246124e-02" rms="4.7969549894332886e-01" purity="5.4545003175735474e-01" nType="0">
          <Node pos="l" depth="2" NCoef="0" IVar="-1" Cut="0.0000000000000000e+00" cType="1" res="-4.1195782250724733e-04" rms="4.8283115029335022e-01" purity="4.8210784792900085e-01" nType="-99"/>
          <Node pos="r" depth="2" NCoef="0" IVar="-1" Cut="0.0000000000000000e+00" cType="1" res="1.5821082051843405e-03" rms="4.7488534450531006e-01" purity="5.8992314338684082e-01" nType="-99"/>
        </Node>
      </Node>
    </BinaryTree>
    <BinaryTree type="DecisionTree" boostWeight="1.0000000000000000e+00" itree="134">
      <Node pos="s" depth="0" NCoef="0" IVar="2" Cut="5.2811322021484375e+02" cType="1" res="9.2314491048455238e-03" rms="4.7680282592773438e-01" purity="4.9989944696426392e-01" nType="0">
        <Node pos="l" depth="1" NCoef="0" IVar="5" Cut="5.1206111907958984e-01" cType="1" res="-2.7853723615407944e-02" rms="4.7255727648735046e-01" purity="4.2214137315750122e-01" nType="0">
          <Node pos="l" depth="2" NCoef="0" IVar="-1" Cut="0.0000000000000000e+00" cType="1" res="-1.8771582981571555e-03" rms="4.6526035666465759e-01" purity="3.8181957602500916e-01" nType="-99"/>
          <Node pos="r" depth="2" NCoef="0" IVar="-1" Cut="0.0000000000000000e+00" cType="1" res="7.0827099261805415e-04" rms="4.8164612054824829e-01" purity="4.9876260757446289e-01" nType="-99"/>
        </Node>
        <Node pos="r" depth="1" NCoef="0" IVar="5" Cut="2.9361194372177124e-01" cType="1" res="4.5341733843088150e-02" rms="4.7814479470252991e-01" purity="5.7561343908309937e-01" nType="0">
          <Node pos="l" depth="2" NCoef="0" IVar="-1" Cut="0.0000000000000000e+00" cType="1" res="-1.2197962496429682e-04" rms="4.8460683226585388e-01" purity="5.0424337387084961e-01" nType="-99"/>
          <Node pos="r" depth="2" NCoef="0" IVar="-1" Cut="0.0000000000000000e+00" cType="1" res="1.8434519879519939e-03" rms="4.7165623307228088e-01" purity="6.1879533529281616e-01" nType="-99"/>
        </Node>
      </Node>
    </BinaryTree>
    <BinaryTree type="DecisionTree" boostWeight="1.0000000000000000e+00" itree="135">
      <Node pos="s" depth="0" NCoef="0" IVar="2" Cut="4.1488882446289062e+02" cType="1" res="1.1765057221055031e-02" rms="4.7706368565559387e-01" purity="5.0204658508300781e-01" nType="0">
        <Node pos="l" depth="1" NCoef="0" IVar="2" Cut="3.6527456665039062e+02" cType="1" res="-6.7616082727909088e-02" rms="4.5585983991622925e-01" purity="3.4146198630332947e-01" nType="0">
          <Node pos="l" depth="2" NCoef="0" IVar="-1" Cut="0.0000000000000000e+00" cType="1" res="-4.6302345581352711e-03" rms="4.3483847379684448e-01" purity="2.8505334258079529e-01" nType="-99"/>
          <Node pos="r" depth="2" NCoef="0" IVar="-1" Cut="0.0000000000000000e+00" cType="1" res="-1.3054539449512959e-03" rms="4.6587568521499634e-01" purity="3.7613248825073242e-01" nType="-99"/>
        </Node>
        <Node pos="r" depth="1" NCoef="0" IVar="5" Cut="2.4045887589454651e-01" cType="1" res="2.9631355777382851e-02" rms="4.7990053892135620e-01" purity="5.3818941116333008e-01" nType="0">
          <Node pos="l" depth="2" NCoef="0" IVar="-1" Cut="0.0000000000000000e+00" cType="1" res="-1.0634638601914048e-03" rms="4.7758856415748596e-01" purity="4.5161765813827515e-01" nType="-99"/>
          <Node pos="r" depth="2" NCoef="0" IVar="-1" Cut="0.0000000000000000e+00" cType="1" res="1.3289906783029437e-03" rms="4.7870841622352600e-01" purity="5.6724965572357178e-01" nType="-99"/>
        </Node>
      </Node>
    </BinaryTree>
    <BinaryTree type="DecisionTree" boostWeight="1.0000000000000000e+00" itree="136">
      <Node pos="s" depth="0" NCoef="0" IVar="2" Cut="6.0396405029296875e+02" cType="1" res="8.6171729490160942e-03" rms="4.7715771198272705e-01" purity="4.9914374947547913e-01" nType="0">
        <Node pos="l" depth="1" NCoef="0" IVar="6" Cut="1.1015128344297409e-01" cType="1" res="-1.6321530565619469e-02" rms="4.7546720504760742e-01" purity="4.5187413692474365e-01" nType="0">
          <Node pos="l" depth="2" NCoef="0" IVar="-1" Cut="0.0000000000000000e+00" cType="1" res="-1.5688572311773896e-03" rms="4.7080400586128235e-01" purity="4.0895029902458191e-01" nType="-99"/>
          <Node pos="r" depth="2" NCoef="0" IVar="-1" Cut="0.0000000000000000e+00" cType="1" res="7.1399362059310079e-04" rms="4.7823622822761536e-01" purity="5.0795531272888184e-01" nType="-99"/>
        </Node>
        <Node pos="r" depth="1" NCoef="0" IVar="5" Cut="1.7657776176929474e-01" cType="1" res="5.6699194014072418e-02" rms="4.7673198580741882e-01" purity="5.9027987718582153e-01" nType="0">
          <Node pos="l" depth="2" NCoef="0" IVar="-1" Cut="0.0000000000000000e+00" cType="1" res="-9.7918068058788776e-04" rms="4.8357608914375305e-01" purity="4.6493145823478699e-01" nType="-99"/>
          <Node pos="r" depth="2" NCoef="0" IVar="-1" Cut="0.0000000000000000e+00" cType="1" res="1.8624108051881194e-03" rms="4.7308015823364258e-01" purity="6.1690473556518555e-01" nType="-99"/>
        </Node>
      </Node>
    </BinaryTree>
    <BinaryTree type="DecisionTree" boostWeight="1.0000000000000000e+00" itree="137">
      <Node pos="s" depth="0" NCoef="0" IVar="4" Cut="9.7633951902389526e-01" cType="1" res="1.4447036199271679e-02" rms="4.7684097290039062e-01" purity="5.0493967533111572e-01" nType="0">
        <Node pos="l" depth="1" NCoef="0" IVar="8" Cut="1.0745292901992798e+00" cType="1" res="-2.6196725666522980e-03" rms="4.8176410794258118e-01" purity="4.5999538898468018e-01" nType="0">
          <Node pos="l" depth="2" NCoef="0" IVar="-1" Cut="0.0000000000000000e+00" cType="1" res="8.2631874829530716e-04" rms="4.8598101735115051e-01" purity="5.0238162279129028e-01" nType="-99"/>
          <Node pos="r" depth="2" NCoef="0" IVar="-1" Cut="0.0000000000000000e+00" cType="1" res="-1.1931243352591991e-03" rms="4.7462680935859680e-01" purity="4.1373789310455322e-01" nType="-99"/>
        </Node>
        <Node pos="r" depth="1" NCoef="0" IVar="4" Cut="9.8702567815780640e-01" cType="1" res="9.0037040412425995e-02" rms="4.4662180542945862e-01" purity="7.0400178432464600e-01" nType="0">
          <Node pos="l" depth="2" NCoef="0" IVar="-1" Cut="0.0000000000000000e+00" cType="1" res="1.3627394801005721e-03" rms="4.6345517039299011e-01" purity="6.6170221567153931e-01" nType="-99"/>
          <Node pos="r" depth="2" NCoef="0" IVar="-1" Cut="0.0000000000000000e+00" cType="1" res="2.7641521301120520e-03" rms="4.2223194241523743e-01" purity="7.5465822219848633e-01" nType="-99"/>
        </Node>
      </Node>
    </BinaryTree>
    <BinaryTree type="DecisionTree" boostWeight="1.0000000000000000e+00" itree="138">
      <Node pos="s" depth="0" NCoef="0" IVar="4" Cut="9.3106627464294434e-01" cType="1" res="7.4257426895201206e-03" rms="4.7648707032203674e-01" purity="4.9791228771209717e-01" nType="0">
        <Node pos="l" depth="1" NCoef="0" IVar="5" Cut="4.1345918178558350e-01" cType="1" res="-5.8939080685377121e-02" rms="4.6526452898979187e-01" purity="3.5402792692184448e-01" nType="0">
          <Node pos="l" depth="2" NCoef="0" IVar="-1" Cut="0.0000000000000000e+00" cType="1" res="-3.4469133242964745e-03" rms="4.5178881287574768e-01" purity="3.1606316566467285e-01" nType="-99"/>
          <Node pos="r" depth="2" NCoef="0" IVar="-1" Cut="0.0000000000000000e+00" cType="1" res="-5.0743989413604140e-04" rms="4.7959953546524048e-01" purity="4.0551152825355530e-01" nType="-99"/>
        </Node>
        <Node pos="r" depth="1" NCoef="0" IVar="0" Cut="1.5825188159942627e-01" cType="1" res="2.6225620880723000e-02" rms="4.7794643044471741e-01" purity="5.3867191076278687e-01" nType="0">
          <Node pos="l" depth="2" NCoef="0" IVar="-1" Cut="0.0000000000000000e+00" cType="1" res="2.7427345048636198e-04" rms="4.7838652133941650e-01" purity="5.1923388242721558e-01" nType="-99"/>
          <Node pos="r" depth="2" NCoef="0" IVar="-1" Cut="0.0000000000000000e+00" cType="1" res="2.5781567674130201e-03" rms="4.6692052483558655e-01" purity="6.3809376955032349e-01" nType="-99"/>
        </Node>
      </Node>
    </BinaryTree>
    <BinaryTree type="DecisionTree" boostWeight="1.0000000000000000e+00" itree="139">
      <Node pos="s" depth="0" NCoef="0" IVar="4" Cut="9.3074917793273926e-01" cType="1" res="7.0484871976077557e-03" rms="4.7648534178733826e-01" purity="4.9770340323448181e-01" nType="0">
        <Node pos="l" depth="1" NCoef="0" IVar="1" Cut="6.0507011413574219e-01" cType="1" res="-6.9048523902893066e-02" rms="4.6166077256202698e-01" purity="3.4264045953750610e-01" nType="0">
          <Node pos="l" depth="2" NCoef="0" IVar="-1" Cut="0.0000000000000000e+00" cType="1" res="-4.5333355665206909e-03" rms="4.3531510233879089e-01" purity="2.7559798955917358e-01" nType="-99"/>
          <Node pos="r" depth="2" NCoef="0" IVar="-1" Cut="0.0000000000000000e+00" cType="1" res="-1.0007090168073773e-03" rms="4.8187673091888428e-01" purity="4.0517935156822205e-01" nType="-99"/>
        </Node>
        <Node pos="r" depth="1" NCoef="0" IVar="0" Cut="-8.1283167004585266e-02" cType="1" res="2.8284458443522453e-02" rms="4.7838523983955383e-01" purity="5.4097598791122437e-01" nType="0">
          <Node pos="l" depth="2" NCoef="0" IVar="-1" Cut="0.0000000000000000e+00" cType="1" res="-1.2580787297338247e-03" rms="4.7488483786582947e-01" purity="4.5437631011009216e-01" nType="-99"/>
          <Node pos="r" depth="2" NCoef="0" IVar="-1" Cut="0.0000000000000000e+00" cType="1" res="1.1757278116419911e-03" rms="4.7769650816917419e-01" purity="5.6208419799804688e-01" nType="-99"/>
        </Node>
      </Node>
    </BinaryTree>
    <BinaryTree type="DecisionTree" boostWeight="1.0000000000000000e+00" itree="140">
      <Node pos="s" depth="0" NCoef="0" IVar="0" Cut="-8.0200068652629852e-02" cType="1" res="5.0648329779505730e-03" rms="4.7592955827713013e-01" purity="4.9552020430564880e-01" nType="0">
        <Node pos="l" depth="1" NCoef="0" IVar="1" Cut="7.7432096004486084e-01" cType="1" res="-6.6483676433563232e-02" rms="4.6531340479850769e-01" purity="4.0519863367080688e-01" nType="0">
          <Node pos="l" depth="2" NCoef="0" IVar="-1" Cut="0.0000000000000000e+00" cType="1" res="-4.4005340896546841e-03" rms="4.4993034005165100e-01" purity="3.2533517479896545e-01" nType="-99"/>
          <Node pos="r" depth="2" NCoef="0" IVar="-1" Cut="0.0000000000000000e+00" cType="1" res="1.2396473903208971e-03" rms="4.7842833399772644e-01" purity="5.8502548933029175e-01" nType="-99"/>
        </Node>
        <Node pos="r" depth="1" NCoef="0" IVar="2" Cut="5.8872833251953125e+02" cType="1" res="2.2994183003902435e-02" rms="4.7687384486198425e-01" purity="5.1815384626388550e-01" nType="0">
          <Node pos="l" depth="2" NCoef="0" IVar="-1" Cut="0.0000000000000000e+00" cType="1" res="-1.4342617942020297e-04" rms="4.7717571258544922e-01" purity="4.6493196487426758e-01" nType="-99"/>
          <Node pos="r" depth="2" NCoef="0" IVar="-1" Cut="0.0000000000000000e+00" cType="1" res="1.7670728266239166e-03" rms="4.7242206335067749e-01" purity="6.1109155416488647e-01" nType="-99"/>
        </Node>
      </Node>
    </BinaryTree>
    <BinaryTree type="DecisionTree" boostWeight="1.0000000000000000e+00" itree="141">
      <Node pos="s" depth="0" NCoef="0" IVar="2" Cut="4.3479916381835938e+02" cType="1" res="1.1674387380480766e-02" rms="4.7539371252059937e-01" purity="5.0336831808090210e-01" nType="0">
        <Node pos="l" depth="1" NCoef="0" IVar="2" Cut="3.6525445556640625e+02" cType="1" res="-5.6662548333406448e-02" rms="4.5995196700096130e-01" purity="3.5678648948669434e-01" nType="0">
          <Node pos="l" depth="2" NCoef="0" IVar="-1" Cut="0.0000000000000000e+00" cType="1" res="-4.8957578837871552e-03" rms="4.3263465166091919e-01" purity="2.7835026383399963e-01" nType="-99"/>
          <Node pos="r" depth="2" NCoef="0" IVar="-1" Cut="0.0000000000000000e+00" cType="1" res="-1.0103009408339858e-03" rms="4.6839290857315063e-01" purity="3.8948827981948853e-01" nType="-99"/>
        </Node>
        <Node pos="r" depth="1" NCoef="0" IVar="1" Cut="6.7362540960311890e-01" cType="1" res="3.2847095280885696e-02" rms="4.7809934616088867e-01" purity="5.4878348112106323e-01" nType="0">
          <Node pos="l" depth="2" NCoef="0" IVar="-1" Cut="0.0000000000000000e+00" cType="1" res="-4.6981367063381185e-07" rms="4.8063936829566956e-01" purity="4.8979932069778442e-01" nType="-99"/>
          <Node pos="r" depth="2" NCoef="0" IVar="-1" Cut="0.0000000000000000e+00" cType="1" res="1.8076953710988164e-03" rms="4.7148209810256958e-01" purity="6.2442094087600708e-01" nType="-99"/>
        </Node>
      </Node>
    </BinaryTree>
    <BinaryTree type="DecisionTree" boostWeight="1.0000000000000000e+00" itree="142">
      <Node pos="s" depth="0" NCoef="0" IVar="8" Cut="1.0750930309295654e+00" cType="1" res="6.3079320825636387e-03" rms="4.7576910257339478e-01" purity="4.9715873599052429e-01" nType="0">
        <Node pos="l" depth="1" NCoef="0" IVar="4" Cut="9.4458615779876709e-01" cType="1" res="4.0085148066282272e-02" rms="4.7719058394432068e-01" purity="5.4142528772354126e-01" nType="0">
          <Node pos="l" depth="2" NCoef="0" IVar="-1" Cut="0.0000000000000000e+00" cType="1" res="-1.6729786875657737e-04" rms="4.8427376151084900e-01" purity="4.2601457238197327e-01" nType="-99"/>
          <Node pos="r" depth="2" NCoef="0" IVar="-1" Cut="0.0000000000000000e+00" cType="1" res="1.6578166978433728e-03" rms="4.7079440951347351e-01" purity="6.1065983772277832e-01" nType="-99"/>
        </Node>
        <Node pos="r" depth="1" NCoef="0" IVar="4" Cut="9.7634309530258179e-01" cType="1" res="-3.1122289597988129e-02" rms="4.7137016057968140e-01" purity="4.4810467958450317e-01" nType="0">
          <Node pos="l" depth="2" NCoef="0" IVar="-1" Cut="0.0000000000000000e+00" cType="1" res="-1.5623538056388497e-03" rms="4.7144594788551331e-01" purity="4.0274006128311157e-01" nType="-99"/>
          <Node pos="r" depth="2" NCoef="0" IVar="-1" Cut="0.0000000000000000e+00" cType="1" res="1.2042582966387272e-03" rms="4.6242678165435791e-01" purity="6.6134154796600342e-01" nType="-99"/>
        </Node>
      </Node>
    </BinaryTree>
    <BinaryTree type="DecisionTree" boostWeight="1.0000000000000000e+00" itree="143">
      <Node pos="s" depth="0" NCoef="0" IVar="1" Cut="6.7670530080795288e-01" cType="1" res="9.9929822608828545e-03" rms="4.7730964422225952e-01" purity="5.0014835596084595e-01" nType="0">
        <Node pos="l" depth="1" NCoef="0" IVar="0" Cut="8.3392158150672913e-02" cType="1" res="-1.7945230007171631e-02" rms="4.7538289427757263e-01" purity="4.4529530405998230e-01" nType="0">
          <Node pos="l" depth="2" NCoef="0" IVar="-1" Cut="0.0000000000000000e+00" cType="1" res="-2.4783506523817778e-03" rms="4.6357038617134094e-01" purity="3.6353683471679688e-01" nType="-99"/>
          <Node pos="r" depth="2" NCoef="0" IVar="-1" Cut="0.0000000000000000e+00" cType="1" res="1.2488267384469509e-03" rms="4.8163807392120361e-01" purity="5.4626792669296265e-01" nType="-99"/>
        </Node>
        <Node pos="r" depth="1" NCoef="0" IVar="2" Cut="4.1952609252929688e+02" cType="1" res="5.0704471766948700e-02" rms="4.7718393802642822e-01" purity="5.8008009195327759e-01" nType="0">
          <Node pos="l" depth="2" NCoef="0" IVar="-1" Cut="0.0000000000000000e+00" cType="1" res="-5.4034771164879203e-04" rms="4.8119619488716125e-01" purity="4.2257165908813477e-01" nType="-99"/>
          <Node pos="r" depth="2" NCoef="0" IVar="-1" Cut="0.0000000000000000e+00" cType="1" res="1.5595001168549061e-03" rms="4.7529235482215881e-01" purity="6.1042118072509766e-01" nType="-99"/>
        </Node>
      </Node>
    </BinaryTree>
    <BinaryTree type="DecisionTree" boostWeight="1.0000000000000000e+00" itree="144">
      <Node pos="s" depth="0" NCoef="0" IVar="1" Cut="6.9769114255905151e-01" cType="1" res="1.0468688793480396e-02" rms="4.7675400972366333e-01" purity="5.0074428319931030e-01" nType="0">
        <Node pos="l" depth="1" NCoef="0" IVar="0" Cut="9.6833020448684692e-02" cType="1" res="-1.8870437517762184e-02" rms="4.7588047385215759e-01" purity="4.4649514555931091e-01" nType="0">
          <Node pos="l" depth="2" NCoef="0" IVar="-1" Cut="0.0000000000000000e+00" cType="1" res="-2.2855866700410843e-03" rms="4.6704772114753723e-01" purity="3.7501004338264465e-01" nType="-99"/>
          <Node pos="r" depth="2" NCoef="0" IVar="-1" Cut="0.0000000000000000e+00" cType="1" res="1.3464600779116154e-03" rms="4.8018527030944824e-01" purity="5.5281662940979004e-01" nType="-99"/>
        </Node>
        <Node pos="r" depth="1" NCoef="0" IVar="2" Cut="5.8148266601562500e+02" cType="1" res="6.1518561094999313e-02" rms="4.7396048903465271e-01" purity="5.9513735771179199e-01" nType="0">
          <Node pos="l" depth="2" NCoef="0" IVar="-1" Cut="0.0000000000000000e+00" cType="1" res="9.1785361291840672e-04" rms="4.8064368963241577e-01" purity="5.4133468866348267e-01" nType="-99"/>
          <Node pos="r" depth="2" NCoef="0" IVar="-1" Cut="0.0000000000000000e+00" cType="1" res="2.2205545101314783e-03" rms="4.6313694119453430e-01" purity="6.6342532634735107e-01" nType="-99"/>
        </Node>
      </Node>
    </BinaryTree>
    <BinaryTree type="DecisionTree" boostWeight="1.0000000000000000e+00" itree="145">
      <Node pos="s" depth="0" NCoef="0" IVar="2" Cut="4.3192135620117188e+02" cType="1" res="6.7166136577725410e-03" rms="4.7625204920768738e-01" purity="4.9698212742805481e-01" nType="0">
        <Node pos="l" depth="1" NCoef="0" IVar="8" Cut="1.1201220750808716e+00" cType="1" res="-5.6790489703416824e-02" rms="4.5923092961311340e-01" purity="3.5323885083198547e-01" nType="0">
          <Node pos="l" depth="2" NCoef="0" IVar="-1" Cut="0.0000000000000000e+00" cType="1" res="-5.7473796186968684e-04" rms="4.7042974829673767e-01" purity="4.0047729015350342e-01" nType="-99"/>
          <Node pos="r" depth="2" NCoef="0" IVar="-1" Cut="0.0000000000000000e+00" cType="1" res="-3.4744404256343842e-03" rms="4.4647008180618286e-01" purity="3.1213328242301941e-01" nType="-99"/>
        </Node>
        <Node pos="r" depth="1" NCoef="0" IVar="0" Cut="1.3751505315303802e-01" cType="1" res="2.5570767000317574e-02" rms="4.7957316040992737e-01" purity="5.3965699672698975e-01" nType="0">
          <Node pos="l" depth="2" NCoef="0" IVar="-1" Cut="0.0000000000000000e+00" cType="1" res="2.2425474890042096e-04" rms="4.7933739423751831e-01" purity="5.1859319210052490e-01" nType="-99"/>
          <Node pos="r" depth="2" NCoef="0" IVar="-1" Cut="0.0000000000000000e+00" cType="1" res="2.2572001907974482e-03" rms="4.7430551052093506e-01" purity="6.2265342473983765e-01" nType="-99"/>
        </Node>
      </Node>
    </BinaryTree>
    <BinaryTree type="DecisionTree" boostWeight="1.0000000000000000e+00" itree="146">
      <Node pos="s" depth="0" NCoef="0" IVar="4" Cut="9.8107105493545532e-01" cType="1" res="9.8629230633378029e-03" rms="4.7624057531356812e-01" purity="5.0072807073593140e-01" nType="0">
        <Node pos="l" depth="1" NCoef="0" IVar="0" Cut="-4.3815389275550842e-02" cType="1" res="-3.7190003786236048e-03" rms="4.8046025633811951e-01" purity="4.6533998847007751e-01" nType="0">
          <Node pos="l" depth="2" NCoef="0" IVar="-1" Cut="0.0000000000000000e+00" cType="1" res="-1.5237968182191253e-03" rms="4.7167229652404785e-01" purity="4.0664193034172058e-01" nType="-99"/>
          <Node pos="r" depth="2" NCoef="0" IVar="-1" Cut="0.0000000000000000e+00" cType="1" res="5.4730538977310061e-04" rms="4.8351329565048218e-01" purity="4.9681937694549561e-01" nType="-99"/>
        </Node>
        <Node pos="r" depth="1" NCoef="0" IVar="-1" Cut="0.0000000000000000e+00" cType="1" res="2.1007102914154530e-03" rms="4.4003319740295410e-01" purity="7.1965485811233521e-01" nType="-99"/>
      </Node>
    </BinaryTree>
    <BinaryTree type="DecisionTree" boostWeight="1.0000000000000000e+00" itree="147">
      <Node pos="s" depth="0" NCoef="0" IVar="4" Cut="9.8097717761993408e-01" cType="1" res="8.4264129400253296e-03" rms="4.7571578621864319e-01" purity="4.9951422214508057e-01" nType="0">
        <Node pos="l" depth="1" NCoef="0" IVar="2" Cut="7.3589990234375000e+02" cType="1" res="-5.7886037975549698e-03" rms="4.8017945885658264e-01" purity="4.6302983164787292e-01" nType="0">
          <Node pos="l" depth="2" NCoef="0" IVar="-1" Cut="0.0000000000000000e+00" cType="1" res="-6.5311620710417628e-04" rms="4.7832936048507690e-01" purity="4.3746000528335571e-01" nType="-99"/>
          <Node pos="r" depth="2" NCoef="0" IVar="-1" Cut="0.0000000000000000e+00" cType="1" res="1.7562021967023611e-03" rms="4.8201978206634521e-01" purity="5.8556222915649414e-01" nType="-99"/>
        </Node>
        <Node pos="r" depth="1" NCoef="0" IVar="-1" Cut="0.0000000000000000e+00" cType="1" res="2.1705639082938433e-03" rms="4.3714445829391479e-01" purity="7.2433346509933472e-01" nType="-99"/>
      </Node>
    </BinaryTree>
    <BinaryTree type="DecisionTree" boostWeight="1.0000000000000000e+00" itree="148">
      <Node pos="s" depth="0" NCoef="0" IVar="4" Cut="9.8090243339538574e-01" cType="1" res="7.6688989065587521e-03" rms="4.7541803121566772e-01" purity="4.9848234653472900e-01" nType="0">
        <Node pos="l" depth="1" NCoef="0" IVar="2" Cut="4.3192135620117188e+02" cType="1" res="-6.5364534966647625e-03" rms="4.7980943322181702e-01" purity="4.6185514330863953e-01" nType="0">
          <Node pos="l" depth="2" NCoef="0" IVar="-1" Cut="0.0000000000000000e+00" cType="1" res="-2.5518429465591908e-03" rms="4.5490249991416931e-01" purity="3.1887960433959961e-01" nType="-99"/>
          <Node pos="r" depth="2" NCoef="0" IVar="-1" Cut="0.0000000000000000e+00" cType="1" res="3.4538478939794004e-04" rms="4.8576644062995911e-01" purity="5.0650119781494141e-01" nType="-99"/>
        </Node>
        <Node pos="r" depth="1" NCoef="0" IVar="-1" Cut="0.0000000000000000e+00" cType="1" res="2.1422847639769316e-03" rms="4.3743270635604858e-01" purity="7.2375929355621338e-01" nType="-99"/>
      </Node>
    </BinaryTree>
    <BinaryTree type="DecisionTree" boostWeight="1.0000000000000000e+00" itree="149">
      <Node pos="s" depth="0" NCoef="0" IVar="1" Cut="7.7245700359344482e-01" cType="1" res="7.6104514300823212e-03" rms="4.7583103179931641e-01" purity="4.9855977296829224e-01" nType="0">
        <Node pos="l" depth="1" NCoef="0" IVar="0" Cut="-6.1243358068168163e-03" cType="1" res="-1.0310653597116470e-02" rms="4.7560730576515198e-01" purity="4.6715259552001953e-01" nType="0">
          <Node pos="l" depth="2" NCoef="0" IVar="-1" Cut="0.0000000000000000e+00" cType="1" res="-2.5608544237911701e-03" rms="4.6353906393051147e-01" purity="3.7603476643562317e-01" nType="-99"/>
          <Node pos="r" depth="2" NCoef="0" IVar="-1" Cut="0.0000000000000000e+00" cType="1" res="8.6792599176988006e-04" rms="4.7877496480941772e-01" purity="5.2743822336196899e-01" nType="-99"/>
        </Node>
        <Node pos="r" depth="1" NCoef="0" IVar="2" Cut="5.0380670166015625e+02" cType="1" res="7.2304643690586090e-02" rms="4.7099772095680237e-01" purity="6.1193788051605225e-01" nType="0">
          <Node pos="l" depth="2" NCoef="0" IVar="-1" Cut="0.0000000000000000e+00" cType="1" res="7.5176201062276959e-04" rms="4.8534798622131348e-01" purity="5.1155978441238403e-01" nType="-99"/>
          <Node pos="r" depth="2" NCoef="0" IVar="-1" Cut="0.0000000000000000e+00" cType="1" res="2.2538832854479551e-03" rms="4.6111664175987244e-01" purity="6.6697239875793457e-01" nType="-99"/>
        </Node>
      </Node>
    </BinaryTree>
    <BinaryTree type="DecisionTree" boostWeight="1.0000000000000000e+00" itree="150">
      <Node pos="s" depth="0" NCoef="0" IVar="4" Cut="9.7189211845397949e-01" cType="1" res="7.7227200381457806e-03" rms="4.7546502947807312e-01" purity="4.9894481897354126e-01" nType="0">
        <Node pos="l" depth="1" NCoef="0" IVar="8" Cut="1.0324990749359131e+00" cType="1" res="-1.2145001441240311e-02" rms="4.8014512658119202e-01" purity="4.4298291206359863e-01" nType="0">
          <Node pos="l" depth="2" NCoef="0" IVar="-1" Cut="0.0000000000000000e+00" cType="1" res="5.9520557988435030e-04" rms="4.8572978377342224e-01" purity="4.8897260427474976e-01" nType="-99"/>
          <Node pos="r" depth="2" NCoef="0" IVar="-1" Cut="0.0000000000000000e+00" cType="1" res="-1.4009944861754775e-03" rms="4.7277417778968811e-01" purity="4.0001499652862549e-01" nType="-99"/>
        </Node>
        <Node pos="r" depth="1" NCoef="0" IVar="2" Cut="4.5075961303710938e+02" cType="1" res="7.3262266814708710e-02" rms="4.5355942845344543e-01" purity="6.8355166912078857e-01" nType="0">
          <Node pos="l" depth="2" NCoef="0" IVar="-1" Cut="0.0000000000000000e+00" cType="1" res="2.9337542946450412e-04" rms="4.8477375507354736e-01" purity="5.7477176189422607e-01" nType="-99"/>
          <Node pos="r" depth="2" NCoef="0" IVar="-1" Cut="0.0000000000000000e+00" cType="1" res="2.1302411332726479e-03" rms="4.4044685363769531e-01" purity="7.2060757875442505e-01" nType="-99"/>
        </Node>
      </Node>
    </BinaryTree>
    <BinaryTree type="DecisionTree" boostWeight="1.0000000000000000e+00" itree="151">
      <Node pos="s" depth="0" NCoef="0" IVar="2" Cut="6.2305499267578125e+02" cType="1" res="5.8144931681454182e-03" rms="4.7593578696250916e-01" purity="4.9542528390884399e-01" nType="0">
        <Node pos="l" depth="1" NCoef="0" IVar="0" Cut="-8.4611810743808746e-02" cType="1" res="-1.6328370198607445e-02" rms="4.7388908267021179e-01" purity="4.5275002717971802e-01" nType="0">
          <Node pos="l" depth="2" NCoef="0" IVar="-1" Cut="0.0000000000000000e+00" cType="1" res="-3.5031996667385101e-03" rms="4.5126187801361084e-01" purity="3.4373709559440613e-01" nType="-99"/>
          <Node pos="r" depth="2" NCoef="0" IVar="-1" Cut="0.0000000000000000e+00" cType="1" res="-1.1848365829791874e-05" rms="4.7668108344078064e-01" purity="4.7450736165046692e-01" nType="-99"/>
        </Node>
        <Node pos="r" depth="1" NCoef="0" IVar="6" Cut="5.0011646002531052e-02" cType="1" res="5.5412802845239639e-02" rms="4.7677147388458252e-01" purity="5.9101468324661255e-01" nType="0">
          <Node pos="l" depth="2" NCoef="0" IVar="-1" Cut="0.0000000000000000e+00" cType="1" res="3.6840408574789762e-04" rms="4.8242449760437012e-01" purity="5.3053706884384155e-01" nType="-99"/>
          <Node pos="r" depth="2" NCoef="0" IVar="-1" Cut="0.0000000000000000e+00" cType="1" res="2.1486845798790455e-03" rms="4.6926447749137878e-01" purity="6.4075756072998047e-01" nType="-99"/>
        </Node>
      </Node>
    </BinaryTree>
    <BinaryTree type="DecisionTree" boostWeight="1.0000000000000000e+00" itree="152">
      <Node pos="s" depth="0" NCoef="0" IVar="4" Cut="9.8557281494140625e-01" cType="1" res="9.5710800960659981e-03" rms="4.7641584277153015e-01" purity="4.9950739741325378e-01" nType="0">
        <Node pos="l" depth="1" NCoef="0" IVar="0" Cut="1.6933886706829071e-01" cType="1" res="-1.0267469333484769e-03" rms="4.7995406389236450e-01" purity="4.7377270460128784e-01" nType="0">
          <Node pos="l" depth="2" NCoef="0" IVar="-1" Cut="0.0000000000000000e+00" cType="1" res="-4.4671894283965230e-04" rms="4.7840887308120728e-01" purity="4.5621782541275024e-01" nType="-99"/>
          <Node pos="r" depth="2" NCoef="0" IVar="-1" Cut="0.0000000000000000e+00" cType="1" res="1.9634398631751537e-03" rms="4.8111864924430847e-01" purity="5.7334846258163452e-01" nType="-99"/>
        </Node>
        <Node pos="r" depth="1" NCoef="0" IVar="-1" Cut="0.0000000000000000e+00" cType="1" res="2.4235411547124386e-03" rms="4.2875957489013672e-01" purity="7.4301409721374512e-01" nType="-99"/>
      </Node>
    </BinaryTree>
    <BinaryTree type="DecisionTree" boostWeight="1.0000000000000000e+00" itree="153">
      <Node pos="s" depth="0" NCoef="0" IVar="1" Cut="7.9376053810119629e-01" cType="1" res="9.9663566797971725e-03" rms="4.7490322589874268e-01" purity="5.0173920392990112e-01" nType="0">
        <Node pos="l" depth="1" NCoef="0" IVar="0" Cut="-6.1901640146970749e-03" cType="1" res="-7.5917979702353477e-03" rms="4.7545227408409119e-01" purity="4.7241127490997314e-01" nType="0">
          <Node pos="l" depth="2" NCoef="0" IVar="-1" Cut="0.0000000000000000e+00" cType="1" res="-2.1624257788062096e-03" rms="4.6552908420562744e-01" purity="3.9037543535232544e-01" nType="-99"/>
          <Node pos="r" depth="2" NCoef="0" IVar="-1" Cut="0.0000000000000000e+00" cType="1" res="8.6294661741703749e-04" rms="4.7826552391052246e-01" purity="5.2913606166839600e-01" nType="-99"/>
        </Node>
        <Node pos="r" depth="1" NCoef="0" IVar="4" Cut="9.4525867700576782e-01" cType="1" res="8.6895786225795746e-02" rms="4.6473449468612671e-01" purity="6.3023704290390015e-01" nType="0">
          <Node pos="l" depth="2" NCoef="0" IVar="-1" Cut="0.0000000000000000e+00" cType="1" res="1.0933564044535160e-03" rms="4.9230444431304932e-01" purity="5.0825011730194092e-01" nType="-99"/>
          <Node pos="r" depth="2" NCoef="0" IVar="-1" Cut="0.0000000000000000e+00" cType="1" res="2.4992853868752718e-03" rms="4.4816181063652039e-01" purity="6.9233453273773193e-01" nType="-99"/>
        </Node>
      </Node>
    </BinaryTree>
    <BinaryTree type="DecisionTree" boostWeight="1.0000000000000000e+00" itree="154">
      <Node pos="s" depth="0" NCoef="0" IVar="1" Cut="7.9533076286315918e-01" cType="1" res="5.0699003040790558e-03" rms="4.7584998607635498e-01" purity="4.9551737308502197e-01" nType="0">
        <Node pos="l" depth="1" NCoef="0" IVar="0" Cut="-9.6149966120719910e-03" cType="1" res="-1.1470845900475979e-02" rms="4.7599348425865173e-01" purity="4.6730679273605347e-01" nType="0">
          <Node pos="l" depth="2" NCoef="0" IVar="-1" Cut="0.0000000000000000e+00" cType="1" res="-2.4209332186728716e-03" rms="4.6512258052825928e-01" purity="3.8153874874114990e-01" nType="-99"/>
          <Node pos="r" depth="2" NCoef="0" IVar="-1" Cut="0.0000000000000000e+00" cType="1" res="7.6706468826159835e-04" rms="4.7904247045516968e-01" purity="5.2440148591995239e-01" nType="-99"/>
        </Node>
        <Node pos="r" depth="1" NCoef="0" IVar="7" Cut="9.8756988525390625e+01" cType="1" res="7.9656556248664856e-02" rms="4.6799618005752563e-01" purity="6.2272673845291138e-01" nType="0">
          <Node pos="l" depth="2" NCoef="0" IVar="-1" Cut="0.0000000000000000e+00" cType="1" res="1.2921279994770885e-03" rms="4.7637429833412170e-01" purity="5.7956641912460327e-01" nType="-99"/>
          <Node pos="r" depth="2" NCoef="0" IVar="-1" Cut="0.0000000000000000e+00" cType="1" res="2.6079348754137754e-03" rms="4.5545780658721924e-01" purity="6.7447888851165771e-01" nType="-99"/>
        </Node>
      </Node>
    </BinaryTree>
    <BinaryTree type="DecisionTree" boostWeight="1.0000000000000000e+00" itree="155">
      <Node pos="s" depth="0" NCoef="0" IVar="4" Cut="9.5381009578704834e-01" cType="1" res="6.6744652576744556e-03" rms="4.7616040706634521e-01" purity="4.9686607718467712e-01" nType="0">
        <Node pos="l" depth="1" NCoef="0" IVar="1" Cut="8.1912803649902344e-01" cType="1" res="-2.3876374587416649e-02" rms="4.7694098949432373e-01" purity="4.0575912594795227e-01" nType="0">
          <Node pos="l" depth="2" NCoef="0" IVar="-1" Cut="0.0000000000000000e+00" cType="1" res="-1.1456860229372978e-03" rms="4.7392049431800842e-01" purity="3.8801062107086182e-01" nType="-99"/>
          <Node pos="r" depth="2" NCoef="0" IVar="-1" Cut="0.0000000000000000e+00" cType="1" res="1.2800457188859582e-03" rms="4.9145424365997314e-01" purity="5.3054940700531006e-01" nType="-99"/>
        </Node>
        <Node pos="r" depth="1" NCoef="0" IVar="0" Cut="-8.2605145871639252e-02" cType="1" res="4.1032146662473679e-02" rms="4.7292912006378174e-01" purity="5.9932559728622437e-01" nType="0">
          <Node pos="l" depth="2" NCoef="0" IVar="-1" Cut="0.0000000000000000e+00" cType="1" res="-8.2846591249108315e-04" rms="4.8082625865936279e-01" purity="5.0630372762680054e-01" nType="-99"/>
          <Node pos="r" depth="2" NCoef="0" IVar="-1" Cut="0.0000000000000000e+00" cType="1" res="1.3940763892605901e-03" rms="4.6967309713363647e-01" purity="6.2037259340286255e-01" nType="-99"/>
        </Node>
      </Node>
    </BinaryTree>
    <BinaryTree type="DecisionTree" boostWeight="1.0000000000000000e+00" itree="156">
      <Node pos="s" depth="0" NCoef="0" IVar="2" Cut="4.1488882446289062e+02" cType="1" res="9.2897433787584305e-03" rms="4.7631683945655823e-01" purity="5.0030606985092163e-01" nType="0">
        <Node pos="l" depth="1" NCoef="0" IVar="2" Cut="3.7767800903320312e+02" cType="1" res="-6.1364948749542236e-02" rms="4.5617914199829102e-01" purity="3.4046819806098938e-01" nType="0">
          <Node pos="l" depth="2" NCoef="0" IVar="-1" Cut="0.0000000000000000e+00" cType="1" res="-3.9381412789225578e-03" rms="4.3888297677040100e-01" purity="2.9530769586563110e-01" nType="-99"/>
          <Node pos="r" depth="2" NCoef="0" IVar="-1" Cut="0.0000000000000000e+00" cType="1" res="-7.6973717659711838e-04" rms="4.7034901380538940e-01" purity="3.8730016350746155e-01" nType="-99"/>
        </Node>
        <Node pos="r" depth="1" NCoef="0" IVar="6" Cut="8.2453735172748566e-02" cType="1" res="2.5100713595747948e-02" rms="4.7928366065025330e-01" purity="5.3607428073883057e-01" nType="0">
          <Node pos="l" depth="2" NCoef="0" IVar="-1" Cut="0.0000000000000000e+00" cType="1" res="-1.7901466344483197e-04" rms="4.8094770312309265e-01" purity="4.9423614144325256e-01" nType="-99"/>
          <Node pos="r" depth="2" NCoef="0" IVar="-1" Cut="0.0000000000000000e+00" cType="1" res="1.5310359885916114e-03" rms="4.7491848468780518e-01" purity="5.8325821161270142e-01" nType="-99"/>
        </Node>
      </Node>
    </BinaryTree>
    <BinaryTree type="DecisionTree" boostWeight="1.0000000000000000e+00" itree="157">
      <Node pos="s" depth="0" NCoef="0" IVar="4" Cut="9.4898670911788940e-01" cType="1" res="8.8499253615736961e-03" rms="4.7465863823890686e-01" purity="5.0052553415298462e-01" nType="0">
        <Node pos="l" depth="1" NCoef="0" IVar="0" Cut="1.3395693898200989e-01" cType="1" res="-3.0867421999573708e-02" rms="4.7369614243507385e-01" purity="3.9218518137931824e-01" nType="0">
          <Node pos="l" depth="2" NCoef="0" IVar="-1" Cut="0.0000000000000000e+00" cType="1" res="-1.6272104112431407e-03" rms="4.6764191985130310e-01" purity="3.6906641721725464e-01" nType="-99"/>
          <Node pos="r" depth="2" NCoef="0" IVar="-1" Cut="0.0000000000000000e+00" cType="1" res="8.3499401807785034e-04" rms="4.9060922861099243e-01" purity="4.7680690884590149e-01" nType="-99"/>
        </Node>
        <Node pos="r" depth="1" NCoef="0" IVar="0" Cut="-7.6763130724430084e-02" cType="1" res="4.0834970772266388e-02" rms="4.7301429510116577e-01" purity="5.8777379989624023e-01" nType="0">
          <Node pos="l" depth="2" NCoef="0" IVar="-1" Cut="0.0000000000000000e+00" cType="1" res="-8.8231143308803439e-04" rms="4.7740587592124939e-01" purity="4.9355927109718323e-01" nType="-99"/>
          <Node pos="r" depth="2" NCoef="0" IVar="-1" Cut="0.0000000000000000e+00" cType="1" res="1.4719861792400479e-03" rms="4.7002416849136353e-01" purity="6.1274307966232300e-01" nType="-99"/>
        </Node>
      </Node>
    </BinaryTree>
    <BinaryTree type="DecisionTree" boostWeight="1.0000000000000000e+00" itree="158">
      <Node pos="s" depth="0" NCoef="0" IVar="5" Cut="3.8966116309165955e-01" cType="1" res="1.0415438562631607e-02" rms="4.7531852126121521e-01" purity="5.0133091211318970e-01" nType="0">
        <Node pos="l" depth="1" NCoef="0" IVar="2" Cut="7.1257220458984375e+02" cType="1" res="-2.3172942921519279e-02" rms="4.7332367300987244e-01" purity="4.5476630330085754e-01" nType="0">
          <Node pos="l" depth="2" NCoef="0" IVar="-1" Cut="0.0000000000000000e+00" cType="1" res="-1.5075743431225419e-03" rms="4.6970084309577942e-01" purity="4.1550117731094360e-01" nType="-99"/>
          <Node pos="r" depth="2" NCoef="0" IVar="-1" Cut="0.0000000000000000e+00" cType="1" res="1.3273101067170501e-03" rms="4.7703686356544495e-01" purity="5.7912355661392212e-01" nType="-99"/>
        </Node>
        <Node pos="r" depth="1" NCoef="0" IVar="2" Cut="4.3642230224609375e+02" cType="1" res="4.4461432844400406e-02" rms="4.7491386532783508e-01" purity="5.4852980375289917e-01" nType="0">
          <Node pos="l" depth="2" NCoef="0" IVar="-1" Cut="0.0000000000000000e+00" cType="1" res="-2.8566038236021996e-04" rms="4.7631758451461792e-01" purity="4.1553208231925964e-01" nType="-99"/>
          <Node pos="r" depth="2" NCoef="0" IVar="-1" Cut="0.0000000000000000e+00" cType="1" res="1.6166656278073788e-03" rms="4.7277471423149109e-01" purity="5.9964430332183838e-01" nType="-99"/>
        </Node>
      </Node>
    </BinaryTree>
    <BinaryTree type="DecisionTree" boostWeight="1.0000000000000000e+00" itree="159">
      <Node pos="s" depth="0" NCoef="0" IVar="4" Cut="9.8577696084976196e-01" cType="1" res="8.4454789757728577e-03" rms="4.7543233633041382e-01" purity="4.9955639243125916e-01" nType="0">
        <Node pos="l" depth="1" NCoef="0" IVar="1" Cut="5.5329698324203491e-01" cType="1" res="-2.1683718077838421e-03" rms="4.7888171672821045e-01" purity="4.7391054034233093e-01" nType="0">
          <Node pos="l" depth="2" NCoef="0" IVar="-1" Cut="0.0000000000000000e+00" cType="1" res="-1.5401310520246625e-03" rms="4.6803501248359680e-01" purity="4.0010562539100647e-01" nType="-99"/>
          <Node pos="r" depth="2" NCoef="0" IVar="-1" Cut="0.0000000000000000e+00" cType="1" res="5.9011101257055998e-04" rms="4.8284247517585754e-01" purity="5.1282507181167603e-01" nType="-99"/>
        </Node>
        <Node pos="r" depth="1" NCoef="0" IVar="-1" Cut="0.0000000000000000e+00" cType="1" res="2.4149033706635237e-03" rms="4.2825523018836975e-01" purity="7.4376654624938965e-01" nType="-99"/>
      </Node>
    </BinaryTree>
    <BinaryTree type="DecisionTree" boostWeight="1.0000000000000000e+00" itree="160">
      <Node pos="s" depth="0" NCoef="0" IVar="4" Cut="9.8097717761993408e-01" cType="1" res="1.1543769389390945e-02" rms="4.7590887546539307e-01" purity="5.0237196683883667e-01" nType="0">
        <Node pos="l" depth="1" NCoef="0" IVar="0" Cut="-4.5236162841320038e-02" cType="1" res="-1.3600368984043598e-03" rms="4.8034855723381042e-01" purity="4.6678334474563599e-01" nType="0">
          <Node pos="l" depth="2" NCoef="0" IVar="-1" Cut="0.0000000000000000e+00" cType="1" res="-1.5259954379871488e-03" rms="4.6907392144203186e-01" purity="4.0359148383140564e-01" nType="-99"/>
          <Node pos="r" depth="2" NCoef="0" IVar="-1" Cut="0.0000000000000000e+00" cType="1" res="6.1913277022540569e-04" rms="4.8443174362182617e-01" purity="4.9962192773818970e-01" nType="-99"/>
        </Node>
        <Node pos="r" depth="1" NCoef="0" IVar="-1" Cut="0.0000000000000000e+00" cType="1" res="2.0607861224561930e-03" rms="4.3910074234008789e-01" purity="7.2260874509811401e-01" nType="-99"/>
      </Node>
    </BinaryTree>
    <BinaryTree type="DecisionTree" boostWeight="1.0000000000000000e+00" itree="161">
      <Node pos="s" depth="0" NCoef="0" IVar="4" Cut="9.3531268835067749e-01" cType="1" res="1.0633740574121475e-02" rms="4.7581538558006287e-01" purity="5.0131458044052124e-01" nType="0">
        <Node pos="l" depth="1" NCoef="0" IVar="8" Cut="1.0757977962493896e+00" cType="1" res="-4.3853778392076492e-02" rms="4.6892407536506653e-01" purity="3.6584657430648804e-01" nType="0">
          <Node pos="l" depth="2" NCoef="0" IVar="-1" Cut="0.0000000000000000e+00" cType="1" res="-4.1918788338080049e-04" rms="4.8118430376052856e-01" purity="4.0950837731361389e-01" nType="-99"/>
          <Node pos="r" depth="2" NCoef="0" IVar="-1" Cut="0.0000000000000000e+00" cType="1" res="-2.9149465262889862e-03" rms="4.5275771617889404e-01" purity="3.1814861297607422e-01" nType="-99"/>
        </Node>
        <Node pos="r" depth="1" NCoef="0" IVar="1" Cut="5.0860780477523804e-01" cType="1" res="3.0213778838515282e-02" rms="4.7674894332885742e-01" purity="5.4999488592147827e-01" nType="0">
          <Node pos="l" depth="2" NCoef="0" IVar="-1" Cut="0.0000000000000000e+00" cType="1" res="-8.2632357953116298e-04" rms="4.7938510775566101e-01" purity="4.5987290143966675e-01" nType="-99"/>
          <Node pos="r" depth="2" NCoef="0" IVar="-1" Cut="0.0000000000000000e+00" cType="1" res="1.2367338640615344e-03" rms="4.7449421882629395e-01" purity="5.7802170515060425e-01" nType="-99"/>
        </Node>
      </Node>
    </BinaryTree>
    <BinaryTree type="DecisionTree" boostWeight="1.0000000000000000e+00" itree="162">
      <Node pos="s" depth="0" NCoef="0" IVar="5" Cut="2.7132815122604370e-01" cType="1" res="6.9443904794752598e-03" rms="4.7549021244049072e-01" purity="4.9737325310707092e-01" nType="0">
        <Node pos="l" depth="1" NCoef="0" IVar="0" Cut="1.7025566101074219e-01" cType="1" res="-4.7266051173210144e-02" rms="4.6958619356155396e-01" purity="4.2135596275329590e-01" nType="0">
          <Node pos="l" depth="2" NCoef="0" IVar="-1" Cut="0.0000000000000000e+00" cType="1" res="-2.6266120839864016e-03" rms="4.6218779683113098e-01" purity="3.8124057650566101e-01" nType="-99"/>
          <Node pos="r" depth="2" NCoef="0" IVar="-1" Cut="0.0000000000000000e+00" cType="1" res="1.2630261480808258e-03" rms="4.8036426305770874e-01" purity="5.5047237873077393e-01" nType="-99"/>
        </Node>
        <Node pos="r" depth="1" NCoef="0" IVar="2" Cut="4.2421990966796875e+02" cType="1" res="2.9068335890769958e-02" rms="4.7610846161842346e-01" purity="5.2839684486389160e-01" nType="0">
          <Node pos="l" depth="2" NCoef="0" IVar="-1" Cut="0.0000000000000000e+00" cType="1" res="-1.0647269664332271e-03" rms="4.6749746799468994e-01" purity="3.8115516304969788e-01" nType="-99"/>
          <Node pos="r" depth="2" NCoef="0" IVar="-1" Cut="0.0000000000000000e+00" cType="1" res="1.2056906707584858e-03" rms="4.7715997695922852e-01" purity="5.7171422243118286e-01" nType="-99"/>
        </Node>
      </Node>
    </BinaryTree>
    <BinaryTree type="DecisionTree" boostWeight="1.0000000000000000e+00" itree="163">
      <Node pos="s" depth="0" NCoef="0" IVar="1" Cut="7.6988822221755981e-01" cType="1" res="1.3180510140955448e-02" rms="4.7463884949684143e-01" purity="5.0520569086074829e-01" nType="0">
        <Node pos="l" depth="1" NCoef="0" IVar="0" Cut="-9.5302015542984009e-03" cType="1" res="-5.2667651325464249e-03" rms="4.7475647926330566e-01" purity="4.7137677669525146e-01" nType="0">
          <Node pos="l" depth="2" NCoef="0" IVar="-1" Cut="0.0000000000000000e+00" cType="1" res="-2.3832933511584997e-03" rms="4.6276104450225830e-01" purity="3.7567591667175293e-01" nType="-99"/>
          <Node pos="r" depth="2" NCoef="0" IVar="-1" Cut="0.0000000000000000e+00" cType="1" res="9.2733086785301566e-04" rms="4.7778108716011047e-01" purity="5.3047037124633789e-01" nType="-99"/>
        </Node>
        <Node pos="r" depth="1" NCoef="0" IVar="2" Cut="6.5134606933593750e+02" cType="1" res="7.5267478823661804e-02" rms="4.6894136071205139e-01" purity="6.1906182765960693e-01" nType="0">
          <Node pos="l" depth="2" NCoef="0" IVar="-1" Cut="0.0000000000000000e+00" cType="1" res="1.4334300067275763e-03" rms="4.7423198819160461e-01" purity="5.8425492048263550e-01" nType="-99"/>
          <Node pos="r" depth="2" NCoef="0" IVar="-1" Cut="0.0000000000000000e+00" cType="1" res="2.5462014600634575e-03" rms="4.5622923970222473e-01" purity="6.8724203109741211e-01" nType="-99"/>
        </Node>
      </Node>
    </BinaryTree>
    <BinaryTree type="DecisionTree" boostWeight="1.0000000000000000e+00" itree="164">
      <Node pos="s" depth="0" NCoef="0" IVar="4" Cut="9.8107683658599854e-01" cType="1" res="8.9881988242268562e-03" rms="4.7469389438629150e-01" purity="4.9994280934333801e-01" nType="0">
        <Node pos="l" depth="1" NCoef="0" IVar="5" Cut="2.7124401926994324e-01" cType="1" res="-3.7631834857165813e-03" rms="4.7917088866233826e-01" purity="4.6450990438461304e-01" nType="0">
          <Node pos="l" depth="2" NCoef="0" IVar="-1" Cut="0.0000000000000000e+00" cType="1" res="-1.6937335021793842e-03" rms="4.6978718042373657e-01" purity="3.9830544590950012e-01" nType="-99"/>
          <Node pos="r" depth="2" NCoef="0" IVar="-1" Cut="0.0000000000000000e+00" cType="1" res="4.6837193076498806e-04" rms="4.8167529702186584e-01" purity="4.9269288778305054e-01" nType="-99"/>
        </Node>
        <Node pos="r" depth="1" NCoef="0" IVar="-1" Cut="0.0000000000000000e+00" cType="1" res="2.0286235958337784e-03" rms="4.3685975670814514e-01" purity="7.2374987602233887e-01" nType="-99"/>
      </Node>
    </BinaryTree>
    <BinaryTree type="DecisionTree" boostWeight="1.0000000000000000e+00" itree="165">
      <Node pos="s" depth="0" NCoef="0" IVar="4" Cut="9.4917941093444824e-01" cType="1" res="8.7881088256835938e-03" rms="4.7503331303596497e-01" purity="4.9951234459877014e-01" nType="0">
        <Node pos="l" depth="1" NCoef="0" IVar="0" Cut="1.7112641036510468e-01" cType="1" res="-2.8017591685056686e-02" rms="4.7395688295364380e-01" purity="3.9380559325218201e-01" nType="0">
          <Node pos="l" depth="2" NCoef="0" IVar="-1" Cut="0.0000000000000000e+00" cType="1" res="-1.3833196135237813e-03" rms="4.6971154212951660e-01" purity="3.7643074989318848e-01" nType="-99"/>
          <Node pos="r" depth="2" NCoef="0" IVar="-1" Cut="0.0000000000000000e+00" cType="1" res="1.2304582633078098e-03" rms="4.9126207828521729e-01" purity="4.9250906705856323e-01" nType="-99"/>
        </Node>
        <Node pos="r" depth="1" NCoef="0" IVar="0" Cut="4.4540870934724808e-02" cType="1" res="3.9116654545068741e-02" rms="4.7377455234527588e-01" purity="5.8661657571792603e-01" nType="0">
          <Node pos="l" depth="2" NCoef="0" IVar="-1" Cut="0.0000000000000000e+00" cType="1" res="3.5145436413586140e-04" rms="4.7685119509696960e-01" purity="5.5072069168090820e-01" nType="-99"/>
          <Node pos="r" depth="2" NCoef="0" IVar="-1" Cut="0.0000000000000000e+00" cType="1" res="1.9058791222050786e-03" rms="4.6598371863365173e-01" purity="6.4305067062377930e-01" nType="-99"/>
        </Node>
      </Node>
    </BinaryTree>
    <BinaryTree type="DecisionTree" boostWeight="1.0000000000000000e+00" itree="166">
      <Node pos="s" depth="0" NCoef="0" IVar="1" Cut="5.8117675781250000e-01" cType="1" res="9.4173420220613480e-03" rms="4.7516721487045288e-01" purity="5.0064456462860107e-01" nType="0">
        <Node pos="l" depth="1" NCoef="0" IVar="0" Cut="1.3140569627285004e-01" cType="1" res="-3.0061066150665283e-02" rms="4.6939045190811157e-01" purity="4.2634433507919312e-01" nType="0">
          <Node pos="l" depth="2" NCoef="0" IVar="-1" Cut="0.0000000000000000e+00" cType="1" res="-3.5446982365101576e-03" rms="4.5156744122505188e-01" purity="3.2639020681381226e-01" nType="-99"/>
          <Node pos="r" depth="2" NCoef="0" IVar="-1" Cut="0.0000000000000000e+00" cType="1" res="1.4635236002504826e-03" rms="4.7907596826553345e-01" purity="5.6113368272781372e-01" nType="-99"/>
        </Node>
        <Node pos="r" depth="1" NCoef="0" IVar="4" Cut="9.8132181167602539e-01" cType="1" res="3.5078831017017365e-02" rms="4.7713634371757507e-01" purity="5.4894059896469116e-01" nType="0">
          <Node pos="l" depth="2" NCoef="0" IVar="-1" Cut="0.0000000000000000e+00" cType="1" res="6.0746475355699658e-04" rms="4.8534563183784485e-01" purity="5.1156055927276611e-01" nType="-99"/>
          <Node pos="r" depth="2" NCoef="0" IVar="-1" Cut="0.0000000000000000e+00" cType="1" res="2.4176829028874636e-03" rms="4.2032688856124878e-01" purity="7.6003378629684448e-01" nType="-99"/>
        </Node>
      </Node>
    </BinaryTree>
    <BinaryTree type="DecisionTree" boostWeight="1.0000000000000000e+00" itree="167">
      <Node pos="s" depth="0" NCoef="0" IVar="1" Cut="5.7598245143890381e-01" cType="1" res="8.9616132900118828e-03" rms="4.7498184442520142e-01" purity="4.9992626905441284e-01" nType="0">
        <Node pos="l" depth="1" NCoef="0" IVar="0" Cut="1.8726487457752228e-01" cType="1" res="-3.3504754304885864e-02" rms="4.6947714686393738e-01" purity="4.2183658480644226e-01" nType="0">
          <Node pos="l" depth="2" NCoef="0" IVar="-1" Cut="0.0000000000000000e+00" cType="1" res="-2.8871961403638124e-03" rms="4.5811241865158081e-01" purity="3.5447126626968384e-01" nType="-99"/>
          <Node pos="r" depth="2" NCoef="0" IVar="-1" Cut="0.0000000000000000e+00" cType="1" res="2.0608347840607166e-03" rms="4.7688519954681396e-01" purity="5.8651328086853027e-01" nType="-99"/>
        </Node>
        <Node pos="r" depth="1" NCoef="0" IVar="2" Cut="8.3694128417968750e+02" cType="1" res="3.5390462726354599e-02" rms="4.7646877169609070e-01" purity="5.4852521419525146e-01" nType="0">
          <Node pos="l" depth="2" NCoef="0" IVar="-1" Cut="0.0000000000000000e+00" cType="1" res="6.4953946275636554e-04" rms="4.7753414511680603e-01" purity="5.3181838989257812e-01" nType="-99"/>
          <Node pos="r" depth="2" NCoef="0" IVar="-1" Cut="0.0000000000000000e+00" cType="1" res="2.8574150055646896e-03" rms="4.5919018983840942e-01" purity="6.7516714334487915e-01" nType="-99"/>
        </Node>
      </Node>
    </BinaryTree>
    <BinaryTree type="DecisionTree" boostWeight="1.0000000000000000e+00" itree="168">
      <Node pos="s" depth="0" NCoef="0" IVar="1" Cut="7.9533076286315918e-01" cType="1" res="8.3609735593199730e-03" rms="4.7434267401695251e-01" purity="4.9957895278930664e-01" nType="0">
        <Node pos="l" depth="1" NCoef="0" IVar="0" Cut="2.9018411412835121e-02" cType="1" res="-6.5874834544956684e-03" rms="4.7467061877250671e-01" purity="4.7204187512397766e-01" nType="0">
          <Node pos="l" depth="2" NCoef="0" IVar="-1" Cut="0.0000000000000000e+00" cType="1" res="-1.7220447771251202e-03" rms="4.6696150302886963e-01" purity="4.0153160691261292e-01" nType="-99"/>
          <Node pos="r" depth="2" NCoef="0" IVar="-1" Cut="0.0000000000000000e+00" cType="1" res="1.0552218882367015e-03" rms="4.7796106338500977e-01" purity="5.4354923963546753e-01" nType="-99"/>
        </Node>
        <Node pos="r" depth="1" NCoef="0" IVar="4" Cut="9.5872509479522705e-01" cType="1" res="7.6297789812088013e-02" rms="4.6685722470283508e-01" purity="6.2472766637802124e-01" nType="0">
          <Node pos="l" depth="2" NCoef="0" IVar="-1" Cut="0.0000000000000000e+00" cType="1" res="1.2401356361806393e-03" rms="4.9114269018173218e-01" purity="5.3475129604339600e-01" nType="-99"/>
          <Node pos="r" depth="2" NCoef="0" IVar="-1" Cut="0.0000000000000000e+00" cType="1" res="2.4799203965812922e-03" rms="4.3317073583602905e-01" purity="7.3327612876892090e-01" nType="-99"/>
        </Node>
      </Node>
    </BinaryTree>
    <BinaryTree type="DecisionTree" boostWeight="1.0000000000000000e+00" itree="169">
      <Node pos="s" depth="0" NCoef="0" IVar="1" Cut="6.7670530080795288e-01" cType="1" res="1.0022236965596676e-02" rms="4.7434884309768677e-01" purity="5.0191158056259155e-01" nType="0">
        <Node pos="l" depth="1" NCoef="0" IVar="0" Cut="8.0847367644309998e-02" cType="1" res="-1.5949262306094170e-02" rms="4.7307658195495605e-01" purity="4.4664618372917175e-01" nType="0">
          <Node pos="l" depth="2" NCoef="0" IVar="-1" Cut="0.0000000000000000e+00" cType="1" res="-2.6399171911180019e-03" rms="4.5997738838195801e-01" purity="3.5256516933441162e-01" nType="-99"/>
          <Node pos="r" depth="2" NCoef="0" IVar="-1" Cut="0.0000000000000000e+00" cType="1" res="1.3043568469583988e-03" rms="4.7931811213493347e-01" purity="5.5457669496536255e-01" nType="-99"/>
        </Node>
        <Node pos="r" depth="1" NCoef="0" IVar="4" Cut="9.2889630794525146e-01" cType="1" res="4.7847248613834381e-02" rms="4.7365516424179077e-01" purity="5.8240026235580444e-01" nType="0">
          <Node pos="l" depth="2" NCoef="0" IVar="-1" Cut="0.0000000000000000e+00" cType="1" res="-6.6830019932240248e-04" rms="4.8792445659637451e-01" purity="4.2752155661582947e-01" nType="-99"/>
          <Node pos="r" depth="2" NCoef="0" IVar="-1" Cut="0.0000000000000000e+00" cType="1" res="1.5629192348569632e-03" rms="4.6894866228103638e-01" purity="6.1724925041198730e-01" nType="-99"/>
        </Node>
      </Node>
    </BinaryTree>
    <BinaryTree type="DecisionTree" boostWeight="1.0000000000000000e+00" itree="170">
      <Node pos="s" depth="0" NCoef="0" IVar="1" Cut="7.9501801729202271e-01" cType="1" res="6.2685091979801655e-03" rms="4.7457563877105713e-01" purity="4.9729979038238525e-01" nType="0">
        <Node pos="l" depth="1" NCoef="0" IVar="0" Cut="2.9727904126048088e-02" cType="1" res="-8.5817016661167145e-03" rms="4.7440543770790100e-01" purity="4.6981298923492432e-01" nType="0">
          <Node pos="l" depth="2" NCoef="0" IVar="-1" Cut="0.0000000000000000e+00" cType="1" res="-1.7774794250726700e-03" rms="4.6665528416633606e-01" purity="3.9881461858749390e-01" nType="-99"/>
          <Node pos="r" depth="2" NCoef="0" IVar="-1" Cut="0.0000000000000000e+00" cType="1" res="9.8299246747046709e-04" rms="4.7786909341812134e-01" purity="5.4157698154449463e-01" nType="-99"/>
        </Node>
        <Node pos="r" depth="1" NCoef="0" IVar="2" Cut="5.3987530517578125e+02" cType="1" res="7.3511794209480286e-02" rms="4.6950307488441467e-01" purity="6.2176257371902466e-01" nType="0">
          <Node pos="l" depth="2" NCoef="0" IVar="-1" Cut="0.0000000000000000e+00" cType="1" res="1.0256756795570254e-03" rms="4.8086139559745789e-01" purity="5.4536437988281250e-01" nType="-99"/>
          <Node pos="r" depth="2" NCoef="0" IVar="-1" Cut="0.0000000000000000e+00" cType="1" res="2.2806234192103148e-03" rms="4.5892739295959473e-01" purity="6.8013817071914673e-01" nType="-99"/>
        </Node>
      </Node>
    </BinaryTree>
    <BinaryTree type="DecisionTree" boostWeight="1.0000000000000000e+00" itree="171">
      <Node pos="s" depth="0" NCoef="0" IVar="1" Cut="5.5856162309646606e-01" cType="1" res="6.1356131918728352e-03" rms="4.7449168562889099e-01" purity="4.9751582741737366e-01" nType="0">
        <Node pos="l" depth="1" NCoef="0" IVar="0" Cut="1.5384134650230408e-01" cType="1" res="-3.6420594900846481e-02" rms="4.6749070286750793e-01" purity="4.1782468557357788e-01" nType="0">
          <Node pos="l" depth="2" NCoef="0" IVar="-1" Cut="0.0000000000000000e+00" cType="1" res="-3.4137908369302750e-03" rms="4.5112416148185730e-01" purity="3.2959696650505066e-01" nType="-99"/>
          <Node pos="r" depth="2" NCoef="0" IVar="-1" Cut="0.0000000000000000e+00" cType="1" res="1.2946960050612688e-03" rms="4.7977936267852783e-01" purity="5.5721753835678101e-01" nType="-99"/>
        </Node>
        <Node pos="r" depth="1" NCoef="0" IVar="2" Cut="4.3650759887695312e+02" cType="1" res="2.9046952724456787e-02" rms="4.7664758563041687e-01" purity="5.4041981697082520e-01" nType="0">
          <Node pos="l" depth="2" NCoef="0" IVar="-1" Cut="0.0000000000000000e+00" cType="1" res="-1.0701416758820415e-03" rms="4.7047838568687439e-01" purity="3.9267787337303162e-01" nType="-99"/>
          <Node pos="r" depth="2" NCoef="0" IVar="-1" Cut="0.0000000000000000e+00" cType="1" res="1.1934542562812567e-03" rms="4.7695115208625793e-01" purity="5.8320611715316772e-01" nType="-99"/>
        </Node>
      </Node>
    </BinaryTree>
    <BinaryTree type="DecisionTree" boostWeight="1.0000000000000000e+00" itree="172">
      <Node pos="s" depth="0" NCoef="0" IVar="4" Cut="9.6753549575805664e-01" cType="1" res="7.1696387603878975e-03" rms="4.7377213835716248e-01" purity="4.9881213903427124e-01" nType="0">
        <Node pos="l" depth="1" NCoef="0" IVar="4" Cut="9.2530459165573120e-01" cType="1" res="-1.6091400757431984e-02" rms="4.7873288393020630e-01" purity="4.3091341853141785e-01" nType="0">
          <Node pos="l" depth="2" NCoef="0" IVar="-1" Cut="0.0000000000000000e+00" cType="1" res="-2.4918371345847845e-03" rms="4.5926916599273682e-01" purity="3.3636188507080078e-01" nType="-99"/>
          <Node pos="r" depth="2" NCoef="0" IVar="-1" Cut="0.0000000000000000e+00" cType="1" res="2.5286010441050166e-06" rms="4.8350507020950317e-01" purity="4.6039652824401855e-01" nType="-99"/>
        </Node>
        <Node pos="r" depth="1" NCoef="0" IVar="0" Cut="-1.3058069162070751e-02" cType="1" res="6.5207876265048981e-02" rms="4.5601743459701538e-01" purity="6.6822504997253418e-01" nType="0">
          <Node pos="l" depth="2" NCoef="0" IVar="-1" Cut="0.0000000000000000e+00" cType="1" res="7.3196907760575414e-04" rms="4.6769163012504578e-01" purity="6.1849743127822876e-01" nType="-99"/>
          <Node pos="r" depth="2" NCoef="0" IVar="-1" Cut="0.0000000000000000e+00" cType="1" res="2.1640835329890251e-03" rms="4.4387814402580261e-01" purity="7.0947974920272827e-01" nType="-99"/>
        </Node>
      </Node>
    </BinaryTree>
    <BinaryTree type="DecisionTree" boostWeight="1.0000000000000000e+00" itree="173">
      <Node pos="s" depth="0" NCoef="0" IVar="2" Cut="6.0009375000000000e+02" cType="1" res="7.9934010282158852e-03" rms="4.7362038493156433e-01" purity="5.0004822015762329e-01" nType="0">
        <Node pos="l" depth="1" NCoef="0" IVar="5" Cut="4.5398819446563721e-01" cType="1" res="-1.5395705588161945e-02" rms="4.7183740139007568e-01" purity="4.5095872879028320e-01" nType="0">
          <Node pos="l" depth="2" NCoef="0" IVar="-1" Cut="0.0000000000000000e+00" cType="1" res="-1.5999225433915854e-03" rms="4.6592193841934204e-01" purity="3.9952033758163452e-01" nType="-99"/>
          <Node pos="r" depth="2" NCoef="0" IVar="-1" Cut="0.0000000000000000e+00" cType="1" res="7.6120783342048526e-04" rms="4.7606837749481201e-01" purity="5.1859658956527710e-01" nType="-99"/>
        </Node>
        <Node pos="r" depth="1" NCoef="0" IVar="4" Cut="9.4956165552139282e-01" cType="1" res="5.1452044397592545e-02" rms="4.7386005520820618e-01" purity="5.9126001596450806e-01" nType="0">
          <Node pos="l" depth="2" NCoef="0" IVar="-1" Cut="0.0000000000000000e+00" cType="1" res="2.9683022876270115e-04" rms="4.9058318138122559e-01" purity="4.8849186301231384e-01" nType="-99"/>
          <Node pos="r" depth="2" NCoef="0" IVar="-1" Cut="0.0000000000000000e+00" cType="1" res="1.9657849334180355e-03" rms="4.5744171738624573e-01" purity="6.7331439256668091e-01" nType="-99"/>
        </Node>
      </Node>
    </BinaryTree>
    <BinaryTree type="DecisionTree" boostWeight="1.0000000000000000e+00" itree="174">
      <Node pos="s" depth="0" NCoef="0" IVar="2" Cut="6.0009375000000000e+02" cType="1" res="7.5224572792649269e-03" rms="4.7388857603073120e-01" purity="4.9902352690696716e-01" nType="0">
        <Node pos="l" depth="1" NCoef="0" IVar="6" Cut="6.9001674652099609e-02" cType="1" res="-1.5636319294571877e-02" rms="4.7236937284469604e-01" purity="4.4925636053085327e-01" nType="0">
          <Node pos="l" depth="2" NCoef="0" IVar="-1" Cut="0.0000000000000000e+00" cType="1" res="-2.2012258414179087e-03" rms="4.6277189254760742e-01" purity="3.8004332780838013e-01" nType="-99"/>
          <Node pos="r" depth="2" NCoef="0" IVar="-1" Cut="0.0000000000000000e+00" cType="1" res="2.2351210645865649e-04" rms="4.7510910034179688e-01" purity="4.8232597112655640e-01" nType="-99"/>
        </Node>
        <Node pos="r" depth="1" NCoef="0" IVar="6" Cut="3.6804035305976868e-02" cType="1" res="5.0443530082702637e-02" rms="4.7370713949203491e-01" purity="5.9125906229019165e-01" nType="0">
          <Node pos="l" depth="2" NCoef="0" IVar="-1" Cut="0.0000000000000000e+00" cType="1" res="-1.1967593309236690e-04" rms="4.8116382956504822e-01" purity="5.0585508346557617e-01" nType="-99"/>
          <Node pos="r" depth="2" NCoef="0" IVar="-1" Cut="0.0000000000000000e+00" cType="1" res="1.8150223186239600e-03" rms="4.6838620305061340e-01" purity="6.2876403331756592e-01" nType="-99"/>
        </Node>
      </Node>
    </BinaryTree>
    <BinaryTree type="DecisionTree" boostWeight="1.0000000000000000e+00" itree="175">
      <Node pos="s" depth="0" NCoef="0" IVar="4" Cut="9.8570114374160767e-01" cType="1" res="1.3968847692012787e-02" rms="4.7451049089431763e-01" purity="5.0477278232574463e-01" nType="0">
        <Node pos="l" depth="1" NCoef="0" IVar="2" Cut="6.3442041015625000e+02" cType="1" res="4.4345245696604252e-03" rms="4.7817441821098328e-01" purity="4.7991752624511719e-01" nType="0">
          <Node pos="l" depth="2" NCoef="0" IVar="-1" Cut="0.0000000000000000e+00" cType="1" res="-4.4476293260231614e-04" rms="4.7652485966682434e-01" purity="4.3914163112640381e-01" nType="-99"/>
          <Node pos="r" depth="2" NCoef="0" IVar="-1" Cut="0.0000000000000000e+00" cType="1" res="1.3082080986350775e-03" rms="4.7904115915298462e-01" purity="5.7960832118988037e-01" nType="-99"/>
        </Node>
        <Node pos="r" depth="1" NCoef="0" IVar="-1" Cut="0.0000000000000000e+00" cType="1" res="2.3772378917783499e-03" rms="4.2637082934379578e-01" purity="7.4621522426605225e-01" nType="-99"/>
      </Node>
    </BinaryTree>
    <BinaryTree type="DecisionTree" boostWeight="1.0000000000000000e+00" itree="176">
      <Node pos="s" depth="0" NCoef="0" IVar="4" Cut="9.2731440067291260e-01" cType="1" res="8.7501490488648415e-03" rms="4.7363314032554626e-01" purity="5.0069952011108398e-01" nType="0">
        <Node pos="l" depth="1" NCoef="0" IVar="8" Cut="1.2681427001953125e+00" cType="1" res="-6.2216244637966156e-02" rms="4.5983305573463440e-01" purity="3.4282088279724121e-01" nType="0">
          <Node pos="l" depth="2" NCoef="0" IVar="-1" Cut="0.0000000000000000e+00" cType="1" res="-1.2689639115706086e-03" rms="4.7252422571182251e-01" purity="3.7747719883918762e-01" nType="-99"/>
          <Node pos="r" depth="2" NCoef="0" IVar="-1" Cut="0.0000000000000000e+00" cType="1" res="-4.7420905902981758e-03" rms="4.2716261744499207e-01" purity="2.6991140842437744e-01" nType="-99"/>
        </Node>
        <Node pos="r" depth="1" NCoef="0" IVar="0" Cut="1.4598600566387177e-01" cType="1" res="2.4914752691984177e-02" rms="4.7524115443229675e-01" purity="5.3666079044342041e-01" nType="0">
          <Node pos="l" depth="2" NCoef="0" IVar="-1" Cut="0.0000000000000000e+00" cType="1" res="2.8861427563242614e-04" rms="4.7519543766975403e-01" purity="5.1684504747390747e-01" nType="-99"/>
          <Node pos="r" depth="2" NCoef="0" IVar="-1" Cut="0.0000000000000000e+00" cType="1" res="2.1642143838107586e-03" rms="4.7009471058845520e-01" purity="6.2403100728988647e-01" nType="-99"/>
        </Node>
      </Node>
    </BinaryTree>
    <BinaryTree type="DecisionTree" boostWeight="1.0000000000000000e+00" itree="177">
      <Node pos="s" depth="0" NCoef="0" IVar="4" Cut="9.7235542535781860e-01" cType="1" res="1.0222036391496658e-02" rms="4.7390750050544739e-01" purity="5.0183469057083130e-01" nType="0">
        <Node pos="l" depth="1" NCoef="0" IVar="1" Cut="7.6866698265075684e-01" cType="1" res="-8.7121203541755676e-03" rms="4.7930645942687988e-01" purity="4.4498103857040405e-01" nType="0">
          <Node pos="l" depth="2" NCoef="0" IVar="-1" Cut="0.0000000000000000e+00" cType="1" res="-7.9471775097772479e-04" rms="4.7597694396972656e-01" purity="4.1417151689529419e-01" nType="-99"/>
          <Node pos="r" depth="2" NCoef="0" IVar="-1" Cut="0.0000000000000000e+00" cType="1" res="1.2433223892003298e-03" rms="4.8674982786178589e-01" purity="5.5525708198547363e-01" nType="-99"/>
        </Node>
        <Node pos="r" depth="1" NCoef="0" IVar="4" Cut="9.8748743534088135e-01" cType="1" res="7.3031172156333923e-02" rms="4.4986930489540100e-01" purity="6.9043183326721191e-01" nType="0">
          <Node pos="l" depth="2" NCoef="0" IVar="-1" Cut="0.0000000000000000e+00" cType="1" res="1.1789741693064570e-03" rms="4.6443831920623779e-01" purity="6.5268784761428833e-01" nType="-99"/>
          <Node pos="r" depth="2" NCoef="0" IVar="-1" Cut="0.0000000000000000e+00" cType="1" res="2.5667273439466953e-03" rms="4.1840004920959473e-01" purity="7.5916737318038940e-01" nType="-99"/>
        </Node>
      </Node>
    </BinaryTree>
    <BinaryTree type="DecisionTree" boostWeight="1.0000000000000000e+00" itree="178">
      <Node pos="s" depth="0" NCoef="0" IVar="4" Cut="9.2690992355346680e-01" cType="1" res="9.2840790748596191e-03" rms="4.7399669885635376e-01" purity="5.0024992227554321e-01" nType="0">
        <Node pos="l" depth="1" NCoef="0" IVar="1" Cut="5.8133816719055176e-01" cType="1" res="-5.9803325682878494e-02" rms="4.5965573191642761e-01" purity="3.4280911087989807e-01" nType="0">
          <Node pos="l" depth="2" NCoef="0" IVar="-1" Cut="0.0000000000000000e+00" cType="1" res="-4.2346259579062462e-03" rms="4.2967167496681213e-01" purity="2.7104347944259644e-01" nType="-99"/>
          <Node pos="r" depth="2" NCoef="0" IVar="-1" Cut="0.0000000000000000e+00" cType="1" res="-9.4510824419558048e-04" rms="4.7917473316192627e-01" purity="3.9795020222663879e-01" nType="-99"/>
        </Node>
        <Node pos="r" depth="1" NCoef="0" IVar="6" Cut="8.5692502558231354e-02" cType="1" res="2.4870598688721657e-02" rms="4.7578760981559753e-01" purity="5.3576952219009399e-01" nType="0">
          <Node pos="l" depth="2" NCoef="0" IVar="-1" Cut="0.0000000000000000e+00" cType="1" res="-1.6623421106487513e-04" rms="4.7797033190727234e-01" purity="4.9638700485229492e-01" nType="-99"/>
          <Node pos="r" depth="2" NCoef="0" IVar="-1" Cut="0.0000000000000000e+00" cType="1" res="1.4439300866797566e-03" rms="4.7148743271827698e-01" purity="5.7604819536209106e-01" nType="-99"/>
        </Node>
      </Node>
    </BinaryTree>
    <BinaryTree type="DecisionTree" boostWeight="1.0000000000000000e+00" itree="179">
      <Node pos="s" depth="0" NCoef="0" IVar="2" Cut="3.8389334106445312e+02" cType="1" res="9.4178644940257072e-03" rms="4.7386375069618225e-01" purity="5.0068718194961548e-01" nType="0">
        <Node pos="l" depth="1" NCoef="0" IVar="4" Cut="9.4907242059707642e-01" cType="1" res="-8.1401936709880829e-02" rms="4.4157722592353821e-01" purity="3.1253409385681152e-01" nType="0">
          <Node pos="l" depth="2" NCoef="0" IVar="-1" Cut="0.0000000000000000e+00" cType="1" res="-5.2185738459229469e-03" rms="4.0652543306350708e-01" purity="2.1720321476459503e-01" nType="-99"/>
          <Node pos="r" depth="2" NCoef="0" IVar="-1" Cut="0.0000000000000000e+00" cType="1" res="-1.8321803072467446e-03" rms="4.7264143824577332e-01" purity="4.0775507688522339e-01" nType="-99"/>
        </Node>
        <Node pos="r" depth="1" NCoef="0" IVar="6" Cut="1.1405631154775620e-01" cType="1" res="2.0451061427593231e-02" rms="4.7645956277847290e-01" purity="5.2354478836059570e-01" nType="0">
          <Node pos="l" depth="2" NCoef="0" IVar="-1" Cut="0.0000000000000000e+00" cType="1" res="-8.1198675616178662e-05" rms="4.7652727365493774e-01" purity="4.9343720078468323e-01" nType="-99"/>
          <Node pos="r" depth="2" NCoef="0" IVar="-1" Cut="0.0000000000000000e+00" cType="1" res="1.7495908541604877e-03" rms="4.7262972593307495e-01" purity="5.8652192354202271e-01" nType="-99"/>
        </Node>
      </Node>
    </BinaryTree>
    <BinaryTree type="DecisionTree" boostWeight="1.0000000000000000e+00" itree="180">
      <Node pos="s" depth="0" NCoef="0" IVar="0" Cut="6.0249838978052139e-02" cType="1" res="1.0346768423914909e-02" rms="4.7396185994148254e-01" purity="5.0211918354034424e-01" nType="0">
        <Node pos="l" depth="1" NCoef="0" IVar="1" Cut="6.2882947921752930e-01" cType="1" res="-1.1336548253893852e-02" rms="4.7173982858657837e-01" purity="4.6953985095024109e-01" nType="0">
          <Node pos="l" depth="2" NCoef="0" IVar="-1" Cut="0.0000000000000000e+00" cType="1" res="-3.2203267328441143e-03" rms="4.5028698444366455e-01" purity="3.2141247391700745e-01" nType="-99"/>
          <Node pos="r" depth="2" NCoef="0" IVar="-1" Cut="0.0000000000000000e+00" cType="1" res="7.4039777973666787e-04" rms="4.7845911979675293e-01" purity="5.4986023902893066e-01" nType="-99"/>
        </Node>
        <Node pos="r" depth="1" NCoef="0" IVar="4" Cut="9.4068694114685059e-01" cType="1" res="5.0631698220968246e-02" rms="4.7544464468955994e-01" purity="5.6264770030975342e-01" nType="0">
          <Node pos="l" depth="2" NCoef="0" IVar="-1" Cut="0.0000000000000000e+00" cType="1" res="6.6263351072848309e-06" rms="4.8486647009849548e-01" purity="4.3367472290992737e-01" nType="-99"/>
          <Node pos="r" depth="2" NCoef="0" IVar="-1" Cut="0.0000000000000000e+00" cType="1" res="1.8382192356511950e-03" rms="4.6877154707908630e-01" purity="6.2595194578170776e-01" nType="-99"/>
        </Node>
      </Node>
    </BinaryTree>
    <BinaryTree type="DecisionTree" boostWeight="1.0000000000000000e+00" itree="181">
      <Node pos="s" depth="0" NCoef="0" IVar="2" Cut="6.4337200927734375e+02" cType="1" res="9.5451772212982178e-03" rms="4.7339695692062378e-01" purity="5.0209504365921021e-01" nType="0">
        <Node pos="l" depth="1" NCoef="0" IVar="6" Cut="8.6017817258834839e-02" cType="1" res="-1.0612681508064270e-02" rms="4.7269418835639954e-01" purity="4.6187254786491394e-01" nType="0">
          <Node pos="l" depth="2" NCoef="0" IVar="-1" Cut="0.0000000000000000e+00" cType="1" res="-1.6388721996918321e-03" rms="4.6844264864921570e-01" purity="4.0301027894020081e-01" nType="-99"/>
          <Node pos="r" depth="2" NCoef="0" IVar="-1" Cut="0.0000000000000000e+00" cType="1" res="5.8278907090425491e-04" rms="4.7372505068778992e-01" purity="5.0889247655868530e-01" nType="-99"/>
        </Node>
        <Node pos="r" depth="1" NCoef="0" IVar="4" Cut="9.3600475788116455e-01" cType="1" res="6.0438297688961029e-02" rms="4.7134631872177124e-01" purity="6.0364598035812378e-01" nType="0">
          <Node pos="l" depth="2" NCoef="0" IVar="-1" Cut="0.0000000000000000e+00" cType="1" res="-5.0727496272884309e-05" rms="4.9093776941299438e-01" purity="4.6061778068542480e-01" nType="-99"/>
          <Node pos="r" depth="2" NCoef="0" IVar="-1" Cut="0.0000000000000000e+00" cType="1" res="1.9714357331395149e-03" rms="4.6226501464843750e-01" purity="6.5401679277420044e-01" nType="-99"/>
        </Node>
      </Node>
    </BinaryTree>
    <BinaryTree type="DecisionTree" boostWeight="1.0000000000000000e+00" itree="182">
      <Node pos="s" depth="0" NCoef="0" IVar="1" Cut="6.2624782323837280e-01" cType="1" res="5.8818021789193153e-03" rms="4.7363752126693726e-01" purity="4.9694466590881348e-01" nType="0">
        <Node pos="l" depth="1" NCoef="0" IVar="0" Cut="1.7191219329833984e-01" cType="1" res="-2.5918234139680862e-02" rms="4.6913948655128479e-01" purity="4.2724841833114624e-01" nType="0">
          <Node pos="l" depth="2" NCoef="0" IVar="-1" Cut="0.0000000000000000e+00" cType="1" res="-2.1944814361631870e-03" rms="4.6084505319595337e-01" purity="3.6823451519012451e-01" nType="-99"/>
          <Node pos="r" depth="2" NCoef="0" IVar="-1" Cut="0.0000000000000000e+00" cType="1" res="1.7335903830826283e-03" rms="4.7717818617820740e-01" purity="5.7867264747619629e-01" nType="-99"/>
        </Node>
        <Node pos="r" depth="1" NCoef="0" IVar="2" Cut="5.0745022583007812e+02" cType="1" res="3.6079682409763336e-02" rms="4.7590681910514832e-01" purity="5.6312948465347290e-01" nType="0">
          <Node pos="l" depth="2" NCoef="0" IVar="-1" Cut="0.0000000000000000e+00" cType="1" res="4.9570240662433207e-05" rms="4.8012292385101318e-01" purity="4.7531875967979431e-01" nType="-99"/>
          <Node pos="r" depth="2" NCoef="0" IVar="-1" Cut="0.0000000000000000e+00" cType="1" res="1.4644529437646270e-03" rms="4.7152760624885559e-01" purity="6.2358212471008301e-01" nType="-99"/>
        </Node>
      </Node>
    </BinaryTree>
    <BinaryTree type="DecisionTree" boostWeight="1.0000000000000000e+00" itree="183">
      <Node pos="s" depth="0" NCoef="0" IVar="2" Cut="5.3319519042968750e+02" cType="1" res="8.2188202068209648e-03" rms="4.7358655929565430e-01" purity="5.0005972385406494e-01" nType="0">
        <Node pos="l" depth="1" NCoef="0" IVar="2" Cut="3.9080816650390625e+02" cType="1" res="-2.2056173533201218e-02" rms="4.7024893760681152e-01" purity="4.2470562458038330e-01" nType="0">
          <Node pos="l" depth="2" NCoef="0" IVar="-1" Cut="0.0000000000000000e+00" cType="1" res="-3.1915940344333649e-03" rms="4.4396510720252991e-01" purity="3.0679142475128174e-01" nType="-99"/>
          <Node pos="r" depth="2" NCoef="0" IVar="-1" Cut="0.0000000000000000e+00" cType="1" res="-9.8351760243531317e-05" rms="4.7674652934074402e-01" purity="4.6207219362258911e-01" nType="-99"/>
        </Node>
        <Node pos="r" depth="1" NCoef="0" IVar="6" Cut="7.8671909868717194e-02" cType="1" res="3.9194330573081970e-02" rms="4.7498419880867004e-01" purity="5.7715743780136108e-01" nType="0">
          <Node pos="l" depth="2" NCoef="0" IVar="-1" Cut="0.0000000000000000e+00" cType="1" res="2.7305434923619032e-04" rms="4.8032772541046143e-01" purity="5.2945750951766968e-01" nType="-99"/>
          <Node pos="r" depth="2" NCoef="0" IVar="-1" Cut="0.0000000000000000e+00" cType="1" res="1.9507808610796928e-03" rms="4.6390023827552795e-01" purity="6.4610350131988525e-01" nType="-99"/>
        </Node>
      </Node>
    </BinaryTree>
    <BinaryTree type="DecisionTree" boostWeight="1.0000000000000000e+00" itree="184">
      <Node pos="s" depth="0" NCoef="0" IVar="1" Cut="5.5523520708084106e-01" cType="1" res="6.3956566154956818e-03" rms="4.7331389784812927e-01" purity="4.9811062216758728e-01" nType="0">
        <Node pos="l" depth="1" NCoef="0" IVar="0" Cut="1.8501645326614380e-01" cType="1" res="-3.4296691417694092e-02" rms="4.6634078025817871e-01" purity="4.1837161779403687e-01" nType="0">
          <Node pos="l" depth="2" NCoef="0" IVar="-1" Cut="0.0000000000000000e+00" cType="1" res="-3.2285687047988176e-03" rms="4.5247536897659302e-01" purity="3.3780553936958313e-01" nType="-99"/>
          <Node pos="r" depth="2" NCoef="0" IVar="-1" Cut="0.0000000000000000e+00" cType="1" res="1.9878130406141281e-03" rms="4.7509235143661499e-01" purity="5.8975178003311157e-01" nType="-99"/>
        </Node>
        <Node pos="r" depth="1" NCoef="0" IVar="4" Cut="9.7660297155380249e-01" cType="1" res="2.7706637978553772e-02" rms="4.7553780674934387e-01" purity="5.3987067937850952e-01" nType="0">
          <Node pos="l" depth="2" NCoef="0" IVar="-1" Cut="0.0000000000000000e+00" cType="1" res="3.7500361213460565e-04" rms="4.8416909575462341e-01" purity="4.9287039041519165e-01" nType="-99"/>
          <Node pos="r" depth="2" NCoef="0" IVar="-1" Cut="0.0000000000000000e+00" cType="1" res="1.9910503178834915e-03" rms="4.3351292610168457e-01" purity="7.3203229904174805e-01" nType="-99"/>
        </Node>
      </Node>
    </BinaryTree>
    <BinaryTree type="DecisionTree" boostWeight="1.0000000000000000e+00" itree="185">
      <Node pos="s" depth="0" NCoef="0" IVar="4" Cut="9.3556779623031616e-01" cType="1" res="5.5379359982907772e-03" rms="4.7362905740737915e-01" purity="4.9707075953483582e-01" nType="0">
        <Node pos="l" depth="1" NCoef="0" IVar="1" Cut="5.8023977279663086e-01" cType="1" res="-4.3513260781764984e-02" rms="4.6553671360015869e-01" purity="3.6203092336654663e-01" nType="0">
          <Node pos="l" depth="2" NCoef="0" IVar="-1" Cut="0.0000000000000000e+00" cType="1" res="-3.1655670609325171e-03" rms="4.4094663858413696e-01" purity="2.9436305165290833e-01" nType="-99"/>
          <Node pos="r" depth="2" NCoef="0" IVar="-1" Cut="0.0000000000000000e+00" cType="1" res="-5.8797624660655856e-04" rms="4.8126843571662903e-01" purity="4.1172379255294800e-01" nType="-99"/>
        </Node>
        <Node pos="r" depth="1" NCoef="0" IVar="2" Cut="4.3642230224609375e+02" cType="1" res="2.3728057742118835e-02" rms="4.7531014680862427e-01" purity="5.4714888334274292e-01" nType="0">
          <Node pos="l" depth="2" NCoef="0" IVar="-1" Cut="0.0000000000000000e+00" cType="1" res="-1.0744384489953518e-03" rms="4.7199746966362000e-01" purity="4.0844884514808655e-01" nType="-99"/>
          <Node pos="r" depth="2" NCoef="0" IVar="-1" Cut="0.0000000000000000e+00" cType="1" res="1.0470746783539653e-03" rms="4.7496926784515381e-01" purity="5.8964782953262329e-01" nType="-99"/>
        </Node>
      </Node>
    </BinaryTree>
    <BinaryTree type="DecisionTree" boostWeight="1.0000000000000000e+00" itree="186">
      <Node pos="s" depth="0" NCoef="0" IVar="4" Cut="9.8580503463745117e-01" cType="1" res="5.1716454327106476e-03" rms="4.7328519821166992e-01" purity="4.9607723951339722e-01" nType="0">
        <Node pos="l" depth="1" NCoef="0" IVar="0" Cut="2.0177155733108521e-01" cType="1" res="-5.2583129145205021e-03" rms="4.7710332274436951e-01" purity="4.6959465742111206e-01" nType="0">
          <Node pos="l" depth="2" NCoef="0" IVar="-1" Cut="0.0000000000000000e+00" cType="1" res="-4.7426953096874058e-04" rms="4.7572875022888184e-01" purity="4.5630231499671936e-01" nType="-99"/>
          <Node pos="r" depth="2" NCoef="0" IVar="-1" Cut="0.0000000000000000e+00" cType="1" res="2.1300220396369696e-03" rms="4.7945350408554077e-01" purity="5.8483207225799561e-01" nType="-99"/>
        </Node>
        <Node pos="r" depth="1" NCoef="0" IVar="-1" Cut="0.0000000000000000e+00" cType="1" res="2.3564447183161974e-03" rms="4.2194443941116333e-01" purity="7.5056499242782593e-01" nType="-99"/>
      </Node>
    </BinaryTree>
    <BinaryTree type="DecisionTree" boostWeight="1.0000000000000000e+00" itree="187">
      <Node pos="s" depth="0" NCoef="0" IVar="1" Cut="7.9654276371002197e-01" cType="1" res="9.0453336015343666e-03" rms="4.7332566976547241e-01" purity="5.0043898820877075e-01" nType="0">
        <Node pos="l" depth="1" NCoef="0" IVar="0" Cut="-7.7141383662819862e-03" cType="1" res="-4.7948812134563923e-03" rms="4.7405183315277100e-01" purity="4.7282218933105469e-01" nType="0">
          <Node pos="l" depth="2" NCoef="0" IVar="-1" Cut="0.0000000000000000e+00" cType="1" res="-1.9778311252593994e-03" rms="4.6572288870811462e-01" purity="3.8530370593070984e-01" nType="-99"/>
          <Node pos="r" depth="2" NCoef="0" IVar="-1" Cut="0.0000000000000000e+00" cType="1" res="8.5041439160704613e-04" rms="4.7624689340591431e-01" purity="5.3206658363342285e-01" nType="-99"/>
        </Node>
        <Node pos="r" depth="1" NCoef="0" IVar="2" Cut="5.5899884033203125e+02" cType="1" res="7.2341382503509521e-02" rms="4.6476706862449646e-01" purity="6.2673997879028320e-01" nType="0">
          <Node pos="l" depth="2" NCoef="0" IVar="-1" Cut="0.0000000000000000e+00" cType="1" res="8.8970933575183153e-04" rms="4.7719898819923401e-01" purity="5.4949587583541870e-01" nType="-99"/>
          <Node pos="r" depth="2" NCoef="0" IVar="-1" Cut="0.0000000000000000e+00" cType="1" res="2.4684392847120762e-03" rms="4.5023667812347412e-01" purity="6.9712460041046143e-01" nType="-99"/>
        </Node>
      </Node>
    </BinaryTree>
    <BinaryTree type="DecisionTree" boostWeight="1.0000000000000000e+00" itree="188">
      <Node pos="s" depth="0" NCoef="0" IVar="4" Cut="9.2168414592742920e-01" cType="1" res="1.2324983254075050e-02" rms="4.7378656268119812e-01" purity="5.0429844856262207e-01" nType="0">
        <Node pos="l" depth="1" NCoef="0" IVar="0" Cut="4.6839226037263870e-02" cType="1" res="-5.7547714561223984e-02" rms="4.6075987815856934e-01" purity="3.4263247251510620e-01" nType="0">
          <Node pos="l" depth="2" NCoef="0" IVar="-1" Cut="0.0000000000000000e+00" cType="1" res="-3.2822634093463421e-03" rms="4.4499081373214722e-01" purity="3.0492696166038513e-01" nType="-99"/>
          <Node pos="r" depth="2" NCoef="0" IVar="-1" Cut="0.0000000000000000e+00" cType="1" res="-6.1073020333424211e-04" rms="4.8096102476119995e-01" purity="3.9935192465782166e-01" nType="-99"/>
        </Node>
        <Node pos="r" depth="1" NCoef="0" IVar="2" Cut="6.4337200927734375e+02" cType="1" res="2.3878660053014755e-02" rms="4.7491678595542908e-01" purity="5.3103041648864746e-01" nType="0">
          <Node pos="l" depth="2" NCoef="0" IVar="-1" Cut="0.0000000000000000e+00" cType="1" res="1.9675200746860355e-04" rms="4.7597023844718933e-01" purity="4.9472671747207642e-01" nType="-99"/>
          <Node pos="r" depth="2" NCoef="0" IVar="-1" Cut="0.0000000000000000e+00" cType="1" res="1.6665363218635321e-03" rms="4.6933829784393311e-01" purity="6.2492674589157104e-01" nType="-99"/>
        </Node>
      </Node>
    </BinaryTree>
    <BinaryTree type="DecisionTree" boostWeight="1.0000000000000000e+00" itree="189">
      <Node pos="s" depth="0" NCoef="0" IVar="1" Cut="7.6988822221755981e-01" cType="1" res="9.2880241572856903e-03" rms="4.7323477268218994e-01" purity="5.0109761953353882e-01" nType="0">
        <Node pos="l" depth="1" NCoef="0" IVar="0" Cut="2.6566009968519211e-02" cType="1" res="-6.0255480930209160e-03" rms="4.7336491942405701e-01" purity="4.6841478347778320e-01" nType="0">
          <Node pos="l" depth="2" NCoef="0" IVar="-1" Cut="0.0000000000000000e+00" cType="1" res="-1.6995531041175127e-03" rms="4.6575501561164856e-01" purity="3.9096853137016296e-01" nType="-99"/>
          <Node pos="r" depth="2" NCoef="0" IVar="-1" Cut="0.0000000000000000e+00" cType="1" res="9.5581309869885445e-04" rms="4.7668632864952087e-01" purity="5.4090654850006104e-01" nType="-99"/>
        </Node>
        <Node pos="r" depth="1" NCoef="0" IVar="2" Cut="5.9267010498046875e+02" cType="1" res="6.2218703329563141e-02" rms="4.6894901990890503e-01" purity="6.1406451463699341e-01" nType="0">
          <Node pos="l" depth="2" NCoef="0" IVar="-1" Cut="0.0000000000000000e+00" cType="1" res="9.1574329417198896e-04" rms="4.7984457015991211e-01" purity="5.5563127994537354e-01" nType="-99"/>
          <Node pos="r" depth="2" NCoef="0" IVar="-1" Cut="0.0000000000000000e+00" cType="1" res="2.2316344548016787e-03" rms="4.5249503850936890e-01" purity="6.8790692090988159e-01" nType="-99"/>
        </Node>
      </Node>
    </BinaryTree>
    <BinaryTree type="DecisionTree" boostWeight="1.0000000000000000e+00" itree="190">
      <Node pos="s" depth="0" NCoef="0" IVar="2" Cut="4.3927496337890625e+02" cType="1" res="1.2231525033712387e-02" rms="4.7273716330528259e-01" purity="5.0390458106994629e-01" nType="0">
        <Node pos="l" depth="1" NCoef="0" IVar="8" Cut="1.1396448612213135e+00" cType="1" res="-3.9880912750959396e-02" rms="4.6012875437736511e-01" purity="3.6692672967910767e-01" nType="0">
          <Node pos="l" depth="2" NCoef="0" IVar="-1" Cut="0.0000000000000000e+00" cType="1" res="-1.7265601491089910e-04" rms="4.7220441699028015e-01" purity="4.1090613603591919e-01" nType="-99"/>
          <Node pos="r" depth="2" NCoef="0" IVar="-1" Cut="0.0000000000000000e+00" cType="1" res="-2.7261143550276756e-03" rms="4.4615021347999573e-01" purity="3.2588028907775879e-01" nType="-99"/>
        </Node>
        <Node pos="r" depth="1" NCoef="0" IVar="6" Cut="8.2255698740482330e-02" cType="1" res="2.9906757175922394e-02" rms="4.7564300894737244e-01" purity="5.5036407709121704e-01" nType="0">
          <Node pos="l" depth="2" NCoef="0" IVar="-1" Cut="0.0000000000000000e+00" cType="1" res="-1.6727504771552049e-05" rms="4.7928598523139954e-01" purity="5.0302040576934814e-01" nType="-99"/>
          <Node pos="r" depth="2" NCoef="0" IVar="-1" Cut="0.0000000000000000e+00" cType="1" res="1.6488817054778337e-03" rms="4.6864682435989380e-01" purity="6.0701060295104980e-01" nType="-99"/>
        </Node>
      </Node>
    </BinaryTree>
    <BinaryTree type="DecisionTree" boostWeight="1.0000000000000000e+00" itree="191">
      <Node pos="s" depth="0" NCoef="0" IVar="4" Cut="9.3537300825119019e-01" cType="1" res="1.1825789697468281e-02" rms="4.7352030873298645e-01" purity="5.0331133604049683e-01" nType="0">
        <Node pos="l" depth="1" NCoef="0" IVar="0" Cut="1.3538195192813873e-01" cType="1" res="-3.7266612052917480e-02" rms="4.6746483445167542e-01" purity="3.6577829718589783e-01" nType="0">
          <Node pos="l" depth="2" NCoef="0" IVar="-1" Cut="0.0000000000000000e+00" cType="1" res="-1.8681003712117672e-03" rms="4.5968025922775269e-01" purity="3.4360036253929138e-01" nType="-99"/>
          <Node pos="r" depth="2" NCoef="0" IVar="-1" Cut="0.0000000000000000e+00" cType="1" res="4.2580213630571961e-04" rms="4.9182391166687012e-01" purity="4.4791749119758606e-01" nType="-99"/>
        </Node>
        <Node pos="r" depth="1" NCoef="0" IVar="2" Cut="6.0405963134765625e+02" cType="1" res="2.9524423182010651e-02" rms="4.7444033622741699e-01" purity="5.5289429426193237e-01" nType="0">
          <Node pos="l" depth="2" NCoef="0" IVar="-1" Cut="0.0000000000000000e+00" cType="1" res="1.9421713659539819e-04" rms="4.7793498635292053e-01" purity="5.0478178262710571e-01" nType="-99"/>
          <Node pos="r" depth="2" NCoef="0" IVar="-1" Cut="0.0000000000000000e+00" cType="1" res="1.7495451029390097e-03" rms="4.6483004093170166e-01" purity="6.4333939552307129e-01" nType="-99"/>
        </Node>
      </Node>
    </BinaryTree>
    <BinaryTree type="DecisionTree" boostWeight="1.0000000000000000e+00" itree="192">
      <Node pos="s" depth="0" NCoef="0" IVar="4" Cut="9.8546850681304932e-01" cType="1" res="9.0168602764606476e-03" rms="4.7324684262275696e-01" purity="5.0072789192199707e-01" nType="0">
        <Node pos="l" depth="1" NCoef="0" IVar="2" Cut="5.9968353271484375e+02" cType="1" res="-1.1989040067419410e-03" rms="4.7745016217231750e-01" purity="4.7322857379913330e-01" nType="0">
          <Node pos="l" depth="2" NCoef="0" IVar="-1" Cut="0.0000000000000000e+00" cType="1" res="-7.3617347516119480e-04" rms="4.7403085231781006e-01" purity="4.2190223932266235e-01" nType="-99"/>
          <Node pos="r" depth="2" NCoef="0" IVar="-1" Cut="0.0000000000000000e+00" cType="1" res="1.0410543764010072e-03" rms="4.8104336857795715e-01" purity="5.6857174634933472e-01" nType="-99"/>
        </Node>
        <Node pos="r" depth="1" NCoef="0" IVar="-1" Cut="0.0000000000000000e+00" cType="1" res="2.2811267990618944e-03" rms="4.2204579710960388e-01" purity="7.5043874979019165e-01" nType="-99"/>
      </Node>
    </BinaryTree>
    <BinaryTree type="DecisionTree" boostWeight="1.0000000000000000e+00" itree="193">
      <Node pos="s" depth="0" NCoef="0" IVar="4" Cut="9.8546850681304932e-01" cType="1" res="1.0017354041337967e-02" rms="4.7274497151374817e-01" purity="5.0285911560058594e-01" nType="0">
        <Node pos="l" depth="1" NCoef="0" IVar="2" Cut="9.2117547607421875e+02" cType="1" res="-4.1444462840445340e-04" rms="4.7699528932571411e-01" purity="4.7496792674064636e-01" nType="0">
          <Node pos="l" depth="2" NCoef="0" IVar="-1" Cut="0.0000000000000000e+00" cType="1" res="-2.5130491121672094e-04" rms="4.7648894786834717e-01" purity="4.6291950345039368e-01" nType="-99"/>
          <Node pos="r" depth="2" NCoef="0" IVar="-1" Cut="0.0000000000000000e+00" cType="1" res="2.5422959588468075e-03" rms="4.7112828493118286e-01" purity="6.3309681415557861e-01" nType="-99"/>
        </Node>
        <Node pos="r" depth="1" NCoef="0" IVar="-1" Cut="0.0000000000000000e+00" cType="1" res="2.2968705743551254e-03" rms="4.2183592915534973e-01" purity="7.5121599435806274e-01" nType="-99"/>
      </Node>
    </BinaryTree>
    <BinaryTree type="DecisionTree" boostWeight="1.0000000000000000e+00" itree="194">
      <Node pos="s" depth="0" NCoef="0" IVar="0" Cut="-1.0439999401569366e-02" cType="1" res="6.1792344786226749e-03" rms="4.7324743866920471e-01" purity="4.9794769287109375e-01" nType="0">
        <Node pos="l" depth="1" NCoef="0" IVar="1" Cut="7.0086503028869629e-01" cType="1" res="-2.6346215978264809e-02" rms="4.6816450357437134e-01" purity="4.4819912314414978e-01" nType="0">
          <Node pos="l" depth="2" NCoef="0" IVar="-1" Cut="0.0000000000000000e+00" cType="1" res="-3.1830214429646730e-03" rms="4.5207083225250244e-01" purity="3.2881727814674377e-01" nType="-99"/>
          <Node pos="r" depth="2" NCoef="0" IVar="-1" Cut="0.0000000000000000e+00" cType="1" res="7.8516808571293950e-04" rms="4.7686260938644409e-01" purity="5.6624257564544678e-01" nType="-99"/>
        </Node>
        <Node pos="r" depth="1" NCoef="0" IVar="4" Cut="9.2155224084854126e-01" cType="1" res="3.3722586929798126e-02" rms="4.7577390074729919e-01" purity="5.4007607698440552e-01" nType="0">
          <Node pos="l" depth="2" NCoef="0" IVar="-1" Cut="0.0000000000000000e+00" cType="1" res="-1.7310143448412418e-03" rms="4.7070354223251343e-01" purity="3.6045631766319275e-01" nType="-99"/>
          <Node pos="r" depth="2" NCoef="0" IVar="-1" Cut="0.0000000000000000e+00" cType="1" res="1.2298043584451079e-03" rms="4.7520151734352112e-01" purity="5.6889957189559937e-01" nType="-99"/>
        </Node>
      </Node>
    </BinaryTree>
    <BinaryTree type="DecisionTree" boostWeight="1.0000000000000000e+00" itree="195">
      <Node pos="s" depth="0" NCoef="0" IVar="4" Cut="9.3075305223464966e-01" cType="1" res="7.3637682944536209e-03" rms="4.7273239493370056e-01" purity="4.9984157085418701e-01" nType="0">
        <Node pos="l" depth="1" NCoef="0" IVar="1" Cut="5.3847408294677734e-01" cType="1" res="-5.1935266703367233e-02" rms="4.6138352155685425e-01" purity="3.4703621268272400e-01" nType="0">
          <Node pos="l" depth="2" NCoef="0" IVar="-1" Cut="0.0000000000000000e+00" cType="1" res="-4.2083864100277424e-03" rms="4.2766958475112915e-01" purity="2.6819190382957458e-01" nType="-99"/>
          <Node pos="r" depth="2" NCoef="0" IVar="-1" Cut="0.0000000000000000e+00" cType="1" res="-9.6445588860660791e-04" rms="4.7605532407760620e-01" purity="3.8725045323371887e-01" nType="-99"/>
        </Node>
        <Node pos="r" depth="1" NCoef="0" IVar="0" Cut="-3.4621763974428177e-02" cType="1" res="2.4016730487346649e-02" rms="4.7454002499580383e-01" purity="5.4275393486022949e-01" nType="0">
          <Node pos="l" depth="2" NCoef="0" IVar="-1" Cut="0.0000000000000000e+00" cType="1" res="-4.6013592509552836e-04" rms="4.7308665513992310e-01" purity="4.8336711525917053e-01" nType="-99"/>
          <Node pos="r" depth="2" NCoef="0" IVar="-1" Cut="0.0000000000000000e+00" cType="1" res="1.2478790013119578e-03" rms="4.7379383444786072e-01" purity="5.7923793792724609e-01" nType="-99"/>
        </Node>
      </Node>
    </BinaryTree>
    <BinaryTree type="DecisionTree" boostWeight="1.0000000000000000e+00" itree="196">
      <Node pos="s" depth="0" NCoef="0" IVar="0" Cut="1.6834837198257446e-01" cType="1" res="8.0375839024782181e-03" rms="4.7362220287322998e-01" purity="4.9907228350639343e-01" nType="0">
        <Node pos="l" depth="1" NCoef="0" IVar="1" Cut="5.7904595136642456e-01" cType="1" res="-3.3057150430977345e-03" rms="4.7239798307418823e-01" purity="4.8319169878959656e-01" nType="0">
          <Node pos="l" depth="2" NCoef="0" IVar="-1" Cut="0.0000000000000000e+00" cType="1" res="-2.7176889125257730e-03" rms="4.5455244183540344e-01" purity="3.4611326456069946e-01" nType="-99"/>
          <Node pos="r" depth="2" NCoef="0" IVar="-1" Cut="0.0000000000000000e+00" cType="1" res="7.5688236393034458e-04" rms="4.7671481966972351e-01" purity="5.4363948106765747e-01" nType="-99"/>
        </Node>
        <Node pos="r" depth="1" NCoef="0" IVar="0" Cut="2.2981451451778412e-01" cType="1" res="7.3572888970375061e-02" rms="4.7536385059356689e-01" purity="5.9082168340682983e-01" nType="0">
          <Node pos="l" depth="2" NCoef="0" IVar="-1" Cut="0.0000000000000000e+00" cType="1" res="1.2023361632600427e-03" rms="4.7687393426895142e-01" purity="5.6880372762680054e-01" nType="-99"/>
          <Node pos="r" depth="2" NCoef="0" IVar="-1" Cut="0.0000000000000000e+00" cType="1" res="2.5976058095693588e-03" rms="4.7127875685691833e-01" purity="6.1811822652816772e-01" nType="-99"/>
        </Node>
      </Node>
    </BinaryTree>
    <BinaryTree type="DecisionTree" boostWeight="1.0000000000000000e+00" itree="197">
      <Node pos="s" depth="0" NCoef="0" IVar="4" Cut="9.2619347572326660e-01" cType="1" res="5.4675554856657982e-03" rms="4.7357693314552307e-01" purity="4.9612239003181458e-01" nType="0">
        <Node pos="l" depth="1" NCoef="0" IVar="0" Cut="6.3837908208370209e-02" cType="1" res="-5.8422960340976715e-02" rms="4.5914000272750854e-01" purity="3.3766525983810425e-01" nType="0">
          <Node pos="l" depth="2" NCoef="0" IVar="-1" Cut="0.0000000000000000e+00" cType="1" res="-3.1387796625494957e-03" rms="4.4502767920494080e-01" purity="3.0471825599670410e-01" nType="-99"/>
          <Node pos="r" depth="2" NCoef="0" IVar="-1" Cut="0.0000000000000000e+00" cType="1" res="-6.5878842724487185e-04" rms="4.8154908418655396e-01" purity="3.9784672856330872e-01" nType="-99"/>
        </Node>
        <Node pos="r" depth="1" NCoef="0" IVar="0" Cut="1.5141285955905914e-01" cType="1" res="1.9330894574522972e-02" rms="4.7551974654197693e-01" purity="5.3050535917282104e-01" nType="0">
          <Node pos="l" depth="2" NCoef="0" IVar="-1" Cut="0.0000000000000000e+00" cType="1" res="1.7711770487949252e-04" rms="4.7510734200477600e-01" purity="5.1181995868682861e-01" nType="-99"/>
          <Node pos="r" depth="2" NCoef="0" IVar="-1" Cut="0.0000000000000000e+00" cType="1" res="2.0145152229815722e-03" rms="4.7246715426445007e-01" purity="6.2058067321777344e-01" nType="-99"/>
        </Node>
      </Node>
    </BinaryTree>
    <BinaryTree type="DecisionTree" boostWeight="1.0000000000000000e+00" itree="198">
      <Node pos="s" depth="0" NCoef="0" IVar="2" Cut="8.3691943359375000e+02" cType="1" res="9.1078514233231544e-03" rms="4.7250628471374512e-01" purity="5.0132477283477783e-01" nType="0">
        <Node pos="l" depth="1" NCoef="0" IVar="6" Cut="8.2565702497959137e-02" cType="1" res="-4.0053518023341894e-04" rms="4.7232779860496521e-01" purity="4.8562431335449219e-01" nType="0">
          <Node pos="l" depth="2" NCoef="0" IVar="-1" Cut="0.0000000000000000e+00" cType="1" res="-1.0746340267360210e-03" rms="4.6989804506301880e-01" purity="4.3734264373779297e-01" nType="-99"/>
          <Node pos="r" depth="2" NCoef="0" IVar="-1" Cut="0.0000000000000000e+00" cType="1" res="7.9868326429277658e-04" rms="4.7245258092880249e-01" purity="5.2771252393722534e-01" nType="-99"/>
        </Node>
        <Node pos="r" depth="1" NCoef="0" IVar="-1" Cut="0.0000000000000000e+00" cType="1" res="2.2525270469486713e-03" rms="4.6595165133476257e-01" purity="6.3780158758163452e-01" nType="-99"/>
      </Node>
    </BinaryTree>
    <BinaryTree type="DecisionTree" boostWeight="1.0000000000000000e+00" itree="199">
      <Node pos="s" depth="0" NCoef="0" IVar="0" Cut="1.8614180386066437e-01" cType="1" res="4.0142913348972797e-03" rms="4.7315654158592224e-01" purity="4.9498629570007324e-01" nType="0">
        <Node pos="l" depth="1" NCoef="0" IVar="1" Cut="5.5701571702957153e-01" cType="1" res="-7.7045741491019726e-03" rms="4.7219911217689514e-01" purity="4.7930452227592468e-01" nType="0">
          <Node pos="l" depth="2" NCoef="0" IVar="-1" Cut="0.0000000000000000e+00" cType="1" res="-2.8672213666141033e-03" rms="4.5420831441879272e-01" purity="3.4534132480621338e-01" nType="-99"/>
          <Node pos="r" depth="2" NCoef="0" IVar="-1" Cut="0.0000000000000000e+00" cType="1" res="5.2353489445522428e-04" rms="4.7619348764419556e-01" purity="5.3054255247116089e-01" nType="-99"/>
        </Node>
        <Node pos="r" depth="1" NCoef="0" IVar="8" Cut="1.0590914487838745e+00" cType="1" res="8.6541324853897095e-02" rms="4.7167065739631653e-01" purity="6.0542082786560059e-01" nType="0">
          <Node pos="l" depth="2" NCoef="0" IVar="-1" Cut="0.0000000000000000e+00" cType="1" res="2.6501766405999660e-03" rms="4.6572399139404297e-01" purity="6.3920062780380249e-01" nType="-99"/>
          <Node pos="r" depth="2" NCoef="0" IVar="-1" Cut="0.0000000000000000e+00" cType="1" res="1.5466827899217606e-03" rms="4.7624441981315613e-01" purity="5.7070183753967285e-01" nType="-99"/>
        </Node>
      </Node>
    </BinaryTree>
    <BinaryTree type="DecisionTree" boostWeight="1.0000000000000000e+00" itree="200">
      <Node pos="s" depth="0" NCoef="0" IVar="4" Cut="9.7189211845397949e-01" cType="1" res="4.2856577783823013e-03" rms="4.7191563248634338e-01" purity="4.9722799658775330e-01" nType="0">
        <Node pos="l" depth="1" NCoef="0" IVar="2" Cut="5.1411663818359375e+02" cType="1" res="-1.2173080816864967e-02" rms="4.7691601514816284e-01" purity="4.4138449430465698e-01" nType="0">
          <Node pos="l" depth="2" NCoef="0" IVar="-1" Cut="0.0000000000000000e+00" cType="1" res="-1.5522670000791550e-03" rms="4.6294608712196350e-01" purity="3.5361698269844055e-01" nType="-99"/>
          <Node pos="r" depth="2" NCoef="0" IVar="-1" Cut="0.0000000000000000e+00" cType="1" res="3.9517975528724492e-04" rms="4.8691579699516296e-01" purity="5.1603937149047852e-01" nType="-99"/>
        </Node>
        <Node pos="r" depth="1" NCoef="0" IVar="5" Cut="2.9748904705047607e-01" cType="1" res="5.8726776391267776e-02" rms="4.5072269439697266e-01" purity="6.8194347620010376e-01" nType="0">
          <Node pos="l" depth="2" NCoef="0" IVar="-1" Cut="0.0000000000000000e+00" cType="1" res="1.0362570901634172e-04" rms="4.7348895668983459e-01" purity="5.9999680519104004e-01" nType="-99"/>
          <Node pos="r" depth="2" NCoef="0" IVar="-1" Cut="0.0000000000000000e+00" cType="1" res="1.8791260663419962e-03" rms="4.3911200761795044e-01" purity="7.1546804904937744e-01" nType="-99"/>
        </Node>
      </Node>
    </BinaryTree>
    <BinaryTree type="DecisionTree" boostWeight="1.0000000000000000e+00" itree="201">
      <Node pos="s" depth="0" NCoef="0" IVar="5" Cut="1.2744009494781494e-01" cType="1" res="1.0722856037318707e-02" rms="4.7242081165313721e-01" purity="5.0270861387252808e-01" nType="0">
        <Node pos="l" depth="1" NCoef="0" IVar="-1" Cut="0.0000000000000000e+00" cType="1" res="-3.3584733027964830e-03" rms="4.5728892087936401e-01" purity="3.5360017418861389e-01" nType="-99"/>
        <Node pos="r" depth="1" NCoef="0" IVar="2" Cut="4.1475802612304688e+02" cType="1" res="1.8278969451785088e-02" rms="4.7261059284210205e-01" purity="5.1354289054870605e-01" nType="0">
          <Node pos="l" depth="2" NCoef="0" IVar="-1" Cut="0.0000000000000000e+00" cType="1" res="-1.6463026404380798e-03" rms="4.5488646626472473e-01" purity="3.5117939114570618e-01" nType="-99"/>
          <Node pos="r" depth="2" NCoef="0" IVar="-1" Cut="0.0000000000000000e+00" cType="1" res="8.8774948380887508e-04" rms="4.7543960809707642e-01" purity="5.5168646574020386e-01" nType="-99"/>
        </Node>
      </Node>
    </BinaryTree>
    <BinaryTree type="DecisionTree" boostWeight="1.0000000000000000e+00" itree="202">
      <Node pos="s" depth="0" NCoef="0" IVar="0" Cut="1.3497839868068695e-01" cType="1" res="1.0169468820095062e-02" rms="4.7316271066665649e-01" purity="5.0257301330566406e-01" nType="0">
        <Node pos="l" depth="1" NCoef="0" IVar="1" Cut="5.8060282468795776e-01" cType="1" res="-4.5963185839354992e-03" rms="4.7192358970642090e-01" purity="4.8059007525444031e-01" nType="0">
          <Node pos="l" depth="2" NCoef="0" IVar="-1" Cut="0.0000000000000000e+00" cType="1" res="-2.6790909469127655e-03" rms="4.5366021990776062e-01" purity="3.3592167496681213e-01" nType="-99"/>
          <Node pos="r" depth="2" NCoef="0" IVar="-1" Cut="0.0000000000000000e+00" cType="1" res="6.1301223468035460e-04" rms="4.7647994756698608e-01" purity="5.3934484720230103e-01" nType="-99"/>
        </Node>
        <Node pos="r" depth="1" NCoef="0" IVar="2" Cut="4.7928247070312500e+02" cType="1" res="6.7904509603977203e-02" rms="4.7357797622680664e-01" purity="5.8852744102478027e-01" nType="0">
          <Node pos="l" depth="2" NCoef="0" IVar="-1" Cut="0.0000000000000000e+00" cType="1" res="8.1176176900044084e-04" rms="4.8329475522041321e-01" purity="4.8754179477691650e-01" nType="-99"/>
          <Node pos="r" depth="2" NCoef="0" IVar="-1" Cut="0.0000000000000000e+00" cType="1" res="2.1535134874284267e-03" rms="4.6637850999832153e-01" purity="6.4678871631622314e-01" nType="-99"/>
        </Node>
      </Node>
    </BinaryTree>
    <BinaryTree type="DecisionTree" boostWeight="1.0000000000000000e+00" itree="203">
      <Node pos="s" depth="0" NCoef="0" IVar="4" Cut="9.3103086948394775e-01" cType="1" res="6.1863237060606480e-03" rms="4.7241875529289246e-01" purity="4.9889525771141052e-01" nType="0">
        <Node pos="l" depth="1" NCoef="0" IVar="1" Cut="7.4338668584823608e-01" cType="1" res="-4.6675372868776321e-02" rms="4.6125662326812744e-01" purity="3.5061913728713989e-01" nType="0">
          <Node pos="l" depth="2" NCoef="0" IVar="-1" Cut="0.0000000000000000e+00" cType="1" res="-2.3845862597227097e-03" rms="4.5072990655899048e-01" purity="3.1660127639770508e-01" nType="-99"/>
          <Node pos="r" depth="2" NCoef="0" IVar="-1" Cut="0.0000000000000000e+00" cType="1" res="-5.2936815336579457e-05" rms="4.8967739939689636e-01" purity="4.5582848787307739e-01" nType="-99"/>
        </Node>
        <Node pos="r" depth="1" NCoef="0" IVar="0" Cut="-8.2880876958370209e-02" cType="1" res="2.0948454737663269e-02" rms="4.7443819046020508e-01" purity="5.4030275344848633e-01" nType="0">
          <Node pos="l" depth="2" NCoef="0" IVar="-1" Cut="0.0000000000000000e+00" cType="1" res="-1.3126417761668563e-03" rms="4.6887257695198059e-01" purity="4.4472494721412659e-01" nType="-99"/>
          <Node pos="r" depth="2" NCoef="0" IVar="-1" Cut="0.0000000000000000e+00" cType="1" res="9.3106721760705113e-04" rms="4.7453197836875916e-01" purity="5.6201952695846558e-01" nType="-99"/>
        </Node>
      </Node>
    </BinaryTree>
    <BinaryTree type="DecisionTree" boostWeight="1.0000000000000000e+00" itree="204">
      <Node pos="s" depth="0" NCoef="0" IVar="2" Cut="7.3589990234375000e+02" cType="1" res="1.2146366760134697e-02" rms="4.7238665819168091e-01" purity="5.0506252050399780e-01" nType="0">
        <Node pos="l" depth="1" NCoef="0" IVar="6" Cut="8.5763700306415558e-02" cType="1" res="-1.0251499479636550e-03" rms="4.7221392393112183e-01" purity="4.8050466179847717e-01" nType="0">
          <Node pos="l" depth="2" NCoef="0" IVar="-1" Cut="0.0000000000000000e+00" cType="1" res="-1.0824174387380481e-03" rms="4.6898287534713745e-01" purity="4.3104940652847290e-01" nType="-99"/>
          <Node pos="r" depth="2" NCoef="0" IVar="-1" Cut="0.0000000000000000e+00" cType="1" res="7.5751572148874402e-04" rms="4.7313919663429260e-01" purity="5.2321660518646240e-01" nType="-99"/>
        </Node>
        <Node pos="r" depth="1" NCoef="0" IVar="6" Cut="4.9086391925811768e-02" cType="1" res="7.4768863618373871e-02" rms="4.6816509962081909e-01" purity="6.2182033061981201e-01" nType="0">
          <Node pos="l" depth="2" NCoef="0" IVar="-1" Cut="0.0000000000000000e+00" cType="1" res="1.2590441619977355e-03" rms="4.7751027345657349e-01" purity="5.7121545076370239e-01" nType="-99"/>
          <Node pos="r" depth="2" NCoef="0" IVar="-1" Cut="0.0000000000000000e+00" cType="1" res="2.4713196326047182e-03" rms="4.5564222335815430e-01" purity="6.7822301387786865e-01" nType="-99"/>
        </Node>
      </Node>
    </BinaryTree>
    <BinaryTree type="DecisionTree" boostWeight="1.0000000000000000e+00" itree="205">
      <Node pos="s" depth="0" NCoef="0" IVar="8" Cut="1.1167818307876587e+00" cType="1" res="8.5509531199932098e-03" rms="4.7235646843910217e-01" purity="5.0042480230331421e-01" nType="0">
        <Node pos="l" depth="1" NCoef="0" IVar="4" Cut="9.2188614606857300e-01" cType="1" res="3.3253241330385208e-02" rms="4.7423464059829712e-01" purity="5.3838568925857544e-01" nType="0">
          <Node pos="l" depth="2" NCoef="0" IVar="-1" Cut="0.0000000000000000e+00" cType="1" res="-1.3552310410887003e-03" rms="4.6802735328674316e-01" purity="3.7066555023193359e-01" nType="-99"/>
          <Node pos="r" depth="2" NCoef="0" IVar="-1" Cut="0.0000000000000000e+00" cType="1" res="1.1822117958217859e-03" rms="4.7419941425323486e-01" purity="5.6579071283340454e-01" nType="-99"/>
        </Node>
        <Node pos="r" depth="1" NCoef="0" IVar="3" Cut="1.3661315917968750e+02" cType="1" res="-2.3186042904853821e-02" rms="4.6802270412445068e-01" purity="4.5165333151817322e-01" nType="0">
          <Node pos="l" depth="2" NCoef="0" IVar="-1" Cut="0.0000000000000000e+00" cType="1" res="-1.2923820177093148e-03" rms="4.6731591224670410e-01" purity="4.2665770649909973e-01" nType="-99"/>
          <Node pos="r" depth="2" NCoef="0" IVar="-1" Cut="0.0000000000000000e+00" cType="1" res="1.5560325700789690e-03" rms="4.6238669753074646e-01" purity="5.7237470149993896e-01" nType="-99"/>
        </Node>
      </Node>
    </BinaryTree>
    <BinaryTree type="DecisionTree" boostWeight="1.0000000000000000e+00" itree="206">
      <Node pos="s" depth="0" NCoef="0" IVar="4" Cut="9.2162841558456421e-01" cType="1" res="1.0818867944180965e-02" rms="4.7249197959899902e-01" purity="5.0290507078170776e-01" nType="0">
        <Node pos="l" depth="1" NCoef="0" IVar="5" Cut="4.1907161474227905e-01" cType="1" res="-5.8100908994674683e-02" rms="4.5774176716804504e-01" purity="3.3569610118865967e-01" nType="0">
          <Node pos="l" depth="2" NCoef="0" IVar="-1" Cut="0.0000000000000000e+00" cType="1" res="-3.3514157403260469e-03" rms="4.4467550516128540e-01" purity="2.9829767346382141e-01" nType="-99"/>
          <Node pos="r" depth="2" NCoef="0" IVar="-1" Cut="0.0000000000000000e+00" cType="1" res="-6.8447238299995661e-04" rms="4.7346323728561401e-01" purity="3.8949134945869446e-01" nType="-99"/>
        </Node>
        <Node pos="r" depth="1" NCoef="0" IVar="6" Cut="7.1312807500362396e-02" cType="1" res="2.2223215550184250e-02" rms="4.7392308712005615e-01" purity="5.3057354688644409e-01" nType="0">
          <Node pos="l" depth="2" NCoef="0" IVar="-1" Cut="0.0000000000000000e+00" cType="1" res="-2.3361972125712782e-04" rms="4.7600460052490234e-01" purity="4.8808467388153076e-01" nType="-99"/>
          <Node pos="r" depth="2" NCoef="0" IVar="-1" Cut="0.0000000000000000e+00" cType="1" res="1.1672148248180747e-03" rms="4.7118160128593445e-01" purity="5.6154364347457886e-01" nType="-99"/>
        </Node>
      </Node>
    </BinaryTree>
    <BinaryTree type="DecisionTree" boostWeight="1.0000000000000000e+00" itree="207">
      <Node pos="s" depth="0" NCoef="0" IVar="0" Cut="1.3910911977291107e-01" cType="1" res="1.0955106467008591e-02" rms="4.7364342212677002e-01" purity="5.0323015451431274e-01" nType="0">
        <Node pos="l" depth="1" NCoef="0" IVar="1" Cut="5.3407049179077148e-01" cType="1" res="-2.7641793712973595e-03" rms="4.7250223159790039e-01" purity="4.8251128196716309e-01" nType="0">
          <Node pos="l" depth="2" NCoef="0" IVar="-1" Cut="0.0000000000000000e+00" cType="1" res="-3.4196765627712011e-03" rms="4.4510370492935181e-01" purity="3.1415098905563354e-01" nType="-99"/>
          <Node pos="r" depth="2" NCoef="0" IVar="-1" Cut="0.0000000000000000e+00" cType="1" res="5.4761685896664858e-04" rms="4.7698163986206055e-01" purity="5.2726900577545166e-01" nType="-99"/>
        </Node>
        <Node pos="r" depth="1" NCoef="0" IVar="8" Cut="9.6626359224319458e-01" cType="1" res="6.6967993974685669e-02" rms="4.7417351603507996e-01" purity="5.8782070875167847e-01" nType="0">
          <Node pos="l" depth="2" NCoef="0" IVar="-1" Cut="0.0000000000000000e+00" cType="1" res="2.3645546752959490e-03" rms="4.6461880207061768e-01" purity="6.3239610195159912e-01" nType="-99"/>
          <Node pos="r" depth="2" NCoef="0" IVar="-1" Cut="0.0000000000000000e+00" cType="1" res="1.1259119492024183e-03" rms="4.8003375530242920e-01" purity="5.5329442024230957e-01" nType="-99"/>
        </Node>
      </Node>
    </BinaryTree>
    <BinaryTree type="DecisionTree" boostWeight="1.0000000000000000e+00" itree="208">
      <Node pos="s" depth="0" NCoef="0" IVar="0" Cut="-4.4776726514101028e-02" cType="1" res="1.0225584730505943e-02" rms="4.7278210520744324e-01" purity="5.0237220525741577e-01" nType="0">
        <Node pos="l" depth="1" NCoef="0" IVar="1" Cut="7.4476444721221924e-01" cType="1" res="-2.6321327313780785e-02" rms="4.6720698475837708e-01" purity="4.4142201542854309e-01" nType="0">
          <Node pos="l" depth="2" NCoef="0" IVar="-1" Cut="0.0000000000000000e+00" cType="1" res="-2.7156460564583540e-03" rms="4.5608267188072205e-01" purity="3.4391728043556213e-01" nType="-99"/>
          <Node pos="r" depth="2" NCoef="0" IVar="-1" Cut="0.0000000000000000e+00" cType="1" res="1.0874716099351645e-03" rms="4.7488546371459961e-01" purity="5.8549511432647705e-01" nType="-99"/>
        </Node>
        <Node pos="r" depth="1" NCoef="0" IVar="4" Cut="9.6771156787872314e-01" cType="1" res="2.9289066791534424e-02" rms="4.7454857826232910e-01" purity="5.3416484594345093e-01" nType="0">
          <Node pos="l" depth="2" NCoef="0" IVar="-1" Cut="0.0000000000000000e+00" cType="1" res="3.4018728183582425e-04" rms="4.8331737518310547e-01" purity="4.7154667973518372e-01" nType="-99"/>
          <Node pos="r" depth="2" NCoef="0" IVar="-1" Cut="0.0000000000000000e+00" cType="1" res="1.7422524979338050e-03" rms="4.4808563590049744e-01" purity="6.9508540630340576e-01" nType="-99"/>
        </Node>
      </Node>
    </BinaryTree>
    <BinaryTree type="DecisionTree" boostWeight="1.0000000000000000e+00" itree="209">
      <Node pos="s" depth="0" NCoef="0" IVar="4" Cut="9.3197357654571533e-01" cType="1" res="5.0644120201468468e-03" rms="4.7186601161956787e-01" purity="4.9763092398643494e-01" nType="0">
        <Node pos="l" depth="1" NCoef="0" IVar="6" Cut="1.1918209493160248e-01" cType="1" res="-5.3180582821369171e-02" rms="4.5940342545509338e-01" purity="3.4263518452644348e-01" nType="0">
          <Node pos="l" depth="2" NCoef="0" IVar="-1" Cut="0.0000000000000000e+00" cType="1" res="-2.8794179670512676e-03" rms="4.4954755902290344e-01" purity="3.1730997562408447e-01" nType="-99"/>
          <Node pos="r" depth="2" NCoef="0" IVar="-1" Cut="0.0000000000000000e+00" cType="1" res="-3.9448361349059269e-05" rms="4.7829887270927429e-01" purity="4.0353077650070190e-01" nType="-99"/>
        </Node>
        <Node pos="r" depth="1" NCoef="0" IVar="4" Cut="9.8654294013977051e-01" cType="1" res="2.2115077823400497e-02" rms="4.7410044074058533e-01" purity="5.4300451278686523e-01" nType="0">
          <Node pos="l" depth="2" NCoef="0" IVar="-1" Cut="0.0000000000000000e+00" cType="1" res="3.2731136889196932e-04" rms="4.7983625531196594e-01" purity="5.1549381017684937e-01" nType="-99"/>
          <Node pos="r" depth="2" NCoef="0" IVar="-1" Cut="0.0000000000000000e+00" cType="1" res="2.2707791067659855e-03" rms="4.1891449689865112e-01" purity="7.5460392236709595e-01" nType="-99"/>
        </Node>
      </Node>
    </BinaryTree>
    <BinaryTree type="DecisionTree" boostWeight="1.0000000000000000e+00" itree="210">
      <Node pos="s" depth="0" NCoef="0" IVar="4" Cut="9.7688567638397217e-01" cType="1" res="4.9343225546181202e-03" rms="4.7273370623588562e-01" purity="4.9596440792083740e-01" nType="0">
        <Node pos="l" depth="1" NCoef="0" IVar="1" Cut="7.4528694152832031e-01" cType="1" res="-7.8368326649069786e-03" rms="4.7729790210723877e-01" purity="4.5295420289039612e-01" nType="0">
          <Node pos="l" depth="2" NCoef="0" IVar="-1" Cut="0.0000000000000000e+00" cType="1" res="-7.5084768468514085e-04" rms="4.7334197163581848e-01" purity="4.1734617948532104e-01" nType="-99"/>
          <Node pos="r" depth="2" NCoef="0" IVar="-1" Cut="0.0000000000000000e+00" cType="1" res="9.4285747036337852e-04" rms="4.8556426167488098e-01" purity="5.5322134494781494e-01" nType="-99"/>
        </Node>
        <Node pos="r" depth="1" NCoef="0" IVar="4" Cut="9.8457556962966919e-01" cType="1" res="6.5740793943405151e-02" rms="4.4537380337715149e-01" purity="7.0074599981307983e-01" nType="0">
          <Node pos="l" depth="2" NCoef="0" IVar="-1" Cut="0.0000000000000000e+00" cType="1" res="8.4302423056215048e-04" rms="4.6474251151084900e-01" purity="6.4771342277526855e-01" nType="-99"/>
          <Node pos="r" depth="2" NCoef="0" IVar="-1" Cut="0.0000000000000000e+00" cType="1" res="1.9913134165108204e-03" rms="4.3041589856147766e-01" purity="7.3670941591262817e-01" nType="-99"/>
        </Node>
      </Node>
    </BinaryTree>
    <BinaryTree type="DecisionTree" boostWeight="1.0000000000000000e+00" itree="211">
      <Node pos="s" depth="0" NCoef="0" IVar="0" Cut="8.0490596592426300e-02" cType="1" res="1.0336190462112427e-02" rms="4.7241240739822388e-01" purity="5.0255125761032104e-01" nType="0">
        <Node pos="l" depth="1" NCoef="0" IVar="1" Cut="6.5125173330307007e-01" cType="1" res="-9.7339302301406860e-03" rms="4.7009435296058655e-01" purity="4.7128775715827942e-01" nType="0">
          <Node pos="l" depth="2" NCoef="0" IVar="-1" Cut="0.0000000000000000e+00" cType="1" res="-2.2091807331889868e-03" rms="4.5663374662399292e-01" purity="3.4516325592994690e-01" nType="-99"/>
          <Node pos="r" depth="2" NCoef="0" IVar="-1" Cut="0.0000000000000000e+00" cType="1" res="6.5378070576116443e-04" rms="4.7611370682716370e-01" purity="5.5820238590240479e-01" nType="-99"/>
        </Node>
        <Node pos="r" depth="1" NCoef="0" IVar="8" Cut="9.5881694555282593e-01" cType="1" res="5.4838191717863083e-02" rms="4.7449365258216858e-01" purity="5.7187271118164062e-01" nType="0">
          <Node pos="l" depth="2" NCoef="0" IVar="-1" Cut="0.0000000000000000e+00" cType="1" res="2.1957764402031898e-03" rms="4.6620577573776245e-01" purity="6.2047964334487915e-01" nType="-99"/>
          <Node pos="r" depth="2" NCoef="0" IVar="-1" Cut="0.0000000000000000e+00" cType="1" res="7.9603871563449502e-04" rms="4.7871881723403931e-01" purity="5.3708505630493164e-01" nType="-99"/>
        </Node>
      </Node>
    </BinaryTree>
    <BinaryTree type="DecisionTree" boostWeight="1.0000000000000000e+00" itree="212">
      <Node pos="s" depth="0" NCoef="0" IVar="4" Cut="9.2168414592742920e-01" cType="1" res="9.3001518398523331e-03" rms="4.7230547666549683e-01" purity="5.0240731239318848e-01" nType="0">
        <Node pos="l" depth="1" NCoef="0" IVar="1" Cut="6.5121573209762573e-01" cType="1" res="-5.9077657759189606e-02" rms="4.5632126927375793e-01" purity="3.3174341917037964e-01" nType="0">
          <Node pos="l" depth="2" NCoef="0" IVar="-1" Cut="0.0000000000000000e+00" cType="1" res="-3.4556577447801828e-03" rms="4.3444314599037170e-01" purity="2.7743917703628540e-01" nType="-99"/>
          <Node pos="r" depth="2" NCoef="0" IVar="-1" Cut="0.0000000000000000e+00" cType="1" res="-8.8596827117726207e-04" rms="4.8402974009513855e-01" purity="4.0883678197860718e-01" nType="-99"/>
        </Node>
        <Node pos="r" depth="1" NCoef="0" IVar="2" Cut="5.8872833251953125e+02" cType="1" res="2.0651239901781082e-02" rms="4.7395309805870056e-01" purity="5.3073847293853760e-01" nType="0">
          <Node pos="l" depth="2" NCoef="0" IVar="-1" Cut="0.0000000000000000e+00" cType="1" res="-1.1276452823949512e-05" rms="4.7564855217933655e-01" purity="4.7963190078735352e-01" nType="-99"/>
          <Node pos="r" depth="2" NCoef="0" IVar="-1" Cut="0.0000000000000000e+00" cType="1" res="1.4097208622843027e-03" rms="4.6890309453010559e-01" purity="6.1752152442932129e-01" nType="-99"/>
        </Node>
      </Node>
    </BinaryTree>
    <BinaryTree type="DecisionTree" boostWeight="1.0000000000000000e+00" itree="213">
      <Node pos="s" depth="0" NCoef="0" IVar="1" Cut="6.0572749376296997e-01" cType="1" res="7.2521632537245750e-03" rms="4.7229251265525818e-01" purity="5.0002646446228027e-01" nType="0">
        <Node pos="l" depth="1" NCoef="0" IVar="0" Cut="1.5193274617195129e-01" cType="1" res="-2.3176690563559532e-02" rms="4.6604865789413452e-01" purity="4.2803436517715454e-01" nType="0">
          <Node pos="l" depth="2" NCoef="0" IVar="-1" Cut="0.0000000000000000e+00" cType="1" res="-2.4597868323326111e-03" rms="4.5442602038383484e-01" purity="3.4713509678840637e-01" nType="-99"/>
          <Node pos="r" depth="2" NCoef="0" IVar="-1" Cut="0.0000000000000000e+00" cType="1" res="1.3989451108500361e-03" rms="4.7626140713691711e-01" purity="5.7134729623794556e-01" nType="-99"/>
        </Node>
        <Node pos="r" depth="1" NCoef="0" IVar="2" Cut="4.3556634521484375e+02" cType="1" res="3.1641706824302673e-02" rms="4.7583532333374023e-01" purity="5.5773007869720459e-01" nType="0">
          <Node pos="l" depth="2" NCoef="0" IVar="-1" Cut="0.0000000000000000e+00" cType="1" res="-4.1856526513583958e-04" rms="4.7626349329948425e-01" purity="4.1840440034866333e-01" nType="-99"/>
          <Node pos="r" depth="2" NCoef="0" IVar="-1" Cut="0.0000000000000000e+00" cType="1" res="1.1216978309676051e-03" rms="4.7495707869529724e-01" purity="5.9670042991638184e-01" nType="-99"/>
        </Node>
      </Node>
    </BinaryTree>
    <BinaryTree type="DecisionTree" boostWeight="1.0000000000000000e+00" itree="214">
      <Node pos="s" depth="0" NCoef="0" IVar="2" Cut="8.3979327392578125e+02" cType="1" res="1.1120366863906384e-02" rms="4.7280877828598022e-01" purity="5.0328373908996582e-01" nType="0">
        <Node pos="l" depth="1" NCoef="0" IVar="6" Cut="7.1831017732620239e-02" cType="1" res="1.6521605430170894e-03" rms="4.7291290760040283e-01" purity="4.8742729425430298e-01" nType="0">
          <Node pos="l" depth="2" NCoef="0" IVar="-1" Cut="0.0000000000000000e+00" cType="1" res="-9.4008119776844978e-04" rms="4.7009441256523132e-01" purity="4.3783405423164368e-01" nType="-99"/>
          <Node pos="r" depth="2" NCoef="0" IVar="-1" Cut="0.0000000000000000e+00" cType="1" res="6.3519965624436736e-04" rms="4.7360679507255554e-01" purity="5.2060556411743164e-01" nType="-99"/>
        </Node>
        <Node pos="r" depth="1" NCoef="0" IVar="-1" Cut="0.0000000000000000e+00" cType="1" res="2.2975530009716749e-03" rms="4.6361947059631348e-01" purity="6.4288520812988281e-01" nType="-99"/>
      </Node>
    </BinaryTree>
    <BinaryTree type="DecisionTree" boostWeight="1.0000000000000000e+00" itree="215">
      <Node pos="s" depth="0" NCoef="0" IVar="1" Cut="8.1789696216583252e-01" cType="1" res="3.6927815526723862e-03" rms="4.7153994441032410e-01" purity="4.9697843194007874e-01" nType="0">
        <Node pos="l" depth="1" NCoef="0" IVar="0" Cut="1.2207174673676491e-02" cType="1" res="-7.6950006186962128e-03" rms="4.7187548875808716e-01" purity="4.7403511404991150e-01" nType="0">
          <Node pos="l" depth="2" NCoef="0" IVar="-1" Cut="0.0000000000000000e+00" cType="1" res="-1.5543857589364052e-03" rms="4.6531817317008972e-01" purity="4.0507555007934570e-01" nType="-99"/>
          <Node pos="r" depth="2" NCoef="0" IVar="-1" Cut="0.0000000000000000e+00" cType="1" res="7.4248883174732327e-04" rms="4.7496849298477173e-01" purity="5.3578406572341919e-01" nType="-99"/>
        </Node>
        <Node pos="r" depth="1" NCoef="0" IVar="7" Cut="9.3491043090820312e+01" cType="1" res="7.2275757789611816e-02" rms="4.6363651752471924e-01" purity="6.3515448570251465e-01" nType="0">
          <Node pos="l" depth="2" NCoef="0" IVar="-1" Cut="0.0000000000000000e+00" cType="1" res="1.1345456587150693e-03" rms="4.7512838244438171e-01" purity="5.9025198221206665e-01" nType="-99"/>
          <Node pos="r" depth="2" NCoef="0" IVar="-1" Cut="0.0000000000000000e+00" cType="1" res="2.3566889576613903e-03" rms="4.4943523406982422e-01" purity="6.8268567323684692e-01" nType="-99"/>
        </Node>
      </Node>
    </BinaryTree>
    <BinaryTree type="DecisionTree" boostWeight="1.0000000000000000e+00" itree="216">
      <Node pos="s" depth="0" NCoef="0" IVar="4" Cut="9.8107105493545532e-01" cType="1" res="5.3178481757640839e-03" rms="4.7200667858123779e-01" purity="4.9755504727363586e-01" nType="0">
        <Node pos="l" depth="1" NCoef="0" IVar="2" Cut="4.1974411010742188e+02" cType="1" res="-5.3214030340313911e-03" rms="4.7653338313102722e-01" purity="4.6246010065078735e-01" nType="0">
          <Node pos="l" depth="2" NCoef="0" IVar="-1" Cut="0.0000000000000000e+00" cType="1" res="-2.1978481672704220e-03" rms="4.4921940565109253e-01" purity="3.1445449590682983e-01" nType="-99"/>
          <Node pos="r" depth="2" NCoef="0" IVar="-1" Cut="0.0000000000000000e+00" cType="1" res="2.1778947848360986e-04" rms="4.8236411809921265e-01" purity="5.0007539987564087e-01" nType="-99"/>
        </Node>
        <Node pos="r" depth="1" NCoef="0" IVar="-1" Cut="0.0000000000000000e+00" cType="1" res="1.7193245002999902e-03" rms="4.3608120083808899e-01" purity="7.2085851430892944e-01" nType="-99"/>
      </Node>
    </BinaryTree>
    <BinaryTree type="DecisionTree" boostWeight="1.0000000000000000e+00" itree="217">
      <Node pos="s" depth="0" NCoef="0" IVar="1" Cut="7.9501801729202271e-01" cType="1" res="8.6382701992988586e-03" rms="4.7168383002281189e-01" purity="5.0174677371978760e-01" nType="0">
        <Node pos="l" depth="1" NCoef="0" IVar="0" Cut="2.8562843799591064e-02" cType="1" res="-4.5187608338892460e-03" rms="4.7255995869636536e-01" purity="4.7263798117637634e-01" nType="0">
          <Node pos="l" depth="2" NCoef="0" IVar="-1" Cut="0.0000000000000000e+00" cType="1" res="-1.4730081893503666e-03" rms="4.6637398004531860e-01" purity="4.0093997120857239e-01" nType="-99"/>
          <Node pos="r" depth="2" NCoef="0" IVar="-1" Cut="0.0000000000000000e+00" cType="1" res="9.4121345318853855e-04" rms="4.7539344429969788e-01" purity="5.4424059391021729e-01" nType="-99"/>
        </Node>
        <Node pos="r" depth="1" NCoef="0" IVar="2" Cut="5.9404406738281250e+02" cType="1" res="6.6762506961822510e-02" rms="4.6334412693977356e-01" purity="6.3034164905548096e-01" nType="0">
          <Node pos="l" depth="2" NCoef="0" IVar="-1" Cut="0.0000000000000000e+00" cType="1" res="8.4499851800501347e-04" rms="4.7738099098205566e-01" purity="5.6172299385070801e-01" nType="-99"/>
          <Node pos="r" depth="2" NCoef="0" IVar="-1" Cut="0.0000000000000000e+00" cType="1" res="2.4110784288495779e-03" rms="4.4330778717994690e-01" purity="7.0969557762145996e-01" nType="-99"/>
        </Node>
      </Node>
    </BinaryTree>
    <BinaryTree type="DecisionTree" boostWeight="1.0000000000000000e+00" itree="218">
      <Node pos="s" depth="0" NCoef="0" IVar="0" Cut="6.2515735626220703e-02" cType="1" res="5.8687641285359859e-03" rms="4.7236263751983643e-01" purity="4.9846777319908142e-01" nType="0">
        <Node pos="l" depth="1" NCoef="0" IVar="1" Cut="7.2329407930374146e-01" cType="1" res="-1.3278866186738014e-02" rms="4.6932575106620789e-01" purity="4.6687716245651245e-01" nType="0">
          <Node pos="l" depth="2" NCoef="0" IVar="-1" Cut="0.0000000000000000e+00" cType="1" res="-1.7537329113110900e-03" rms="4.6253493428230286e-01" purity="3.7649831175804138e-01" nType="-99"/>
          <Node pos="r" depth="2" NCoef="0" IVar="-1" Cut="0.0000000000000000e+00" cType="1" res="8.9210493024438620e-04" rms="4.7376060485839844e-01" purity="5.8484476804733276e-01" nType="-99"/>
        </Node>
        <Node pos="r" depth="1" NCoef="0" IVar="5" Cut="3.8480430841445923e-01" cType="1" res="4.2193315923213959e-02" rms="4.7595873475074768e-01" purity="5.5839759111404419e-01" nType="0">
          <Node pos="l" depth="2" NCoef="0" IVar="-1" Cut="0.0000000000000000e+00" cType="1" res="4.3251999886706471e-04" rms="4.7921556234359741e-01" purity="5.2040547132492065e-01" nType="-99"/>
          <Node pos="r" depth="2" NCoef="0" IVar="-1" Cut="0.0000000000000000e+00" cType="1" res="1.9487892277538776e-03" rms="4.6916908025741577e-01" purity="6.0947406291961670e-01" nType="-99"/>
        </Node>
      </Node>
    </BinaryTree>
    <BinaryTree type="DecisionTree" boostWeight="1.0000000000000000e+00" itree="219">
      <Node pos="s" depth="0" NCoef="0" IVar="4" Cut="9.3074917793273926e-01" cType="1" res="4.3369522318243980e-03" rms="4.7148996591567993e-01" purity="4.9757465720176697e-01" nType="0">
        <Node pos="l" depth="1" NCoef="0" IVar="4" Cut="9.1137111186981201e-01" cType="1" res="-4.9937520176172256e-02" rms="4.6047273278236389e-01" purity="3.4376466274261475e-01" nType="0">
          <Node pos="l" depth="2" NCoef="0" IVar="-1" Cut="0.0000000000000000e+00" cType="1" res="-3.2847023103386164e-03" rms="4.4793638586997986e-01" purity="3.0532300472259521e-01" nType="-99"/>
          <Node pos="r" depth="2" NCoef="0" IVar="-1" Cut="0.0000000000000000e+00" cType="1" res="-1.1323214275762439e-03" rms="4.6627649664878845e-01" purity="3.6495661735534668e-01" nType="-99"/>
        </Node>
        <Node pos="r" depth="1" NCoef="0" IVar="2" Cut="6.0688037109375000e+02" cType="1" res="1.9389428198337555e-02" rms="4.7339928150177002e-01" purity="5.4023230075836182e-01" nType="0">
          <Node pos="l" depth="2" NCoef="0" IVar="-1" Cut="0.0000000000000000e+00" cType="1" res="-3.9822250982979313e-05" rms="4.7507905960083008e-01" purity="4.9257600307464600e-01" nType="-99"/>
          <Node pos="r" depth="2" NCoef="0" IVar="-1" Cut="0.0000000000000000e+00" cType="1" res="1.4585454482585192e-03" rms="4.6762818098068237e-01" purity="6.3113248348236084e-01" nType="-99"/>
        </Node>
      </Node>
    </BinaryTree>
    <BinaryTree type="DecisionTree" boostWeight="1.0000000000000000e+00" itree="220">
      <Node pos="s" depth="0" NCoef="0" IVar="2" Cut="4.1488882446289062e+02" cType="1" res="5.0378320738673210e-03" rms="4.7154802083969116e-01" purity="4.9735370278358459e-01" nType="0">
        <Node pos="l" depth="1" NCoef="0" IVar="0" Cut="-3.9705686271190643e-02" cType="1" res="-5.0427854061126709e-02" rms="4.5255112648010254e-01" purity="3.4113222360610962e-01" nType="0">
          <Node pos="l" depth="2" NCoef="0" IVar="-1" Cut="0.0000000000000000e+00" cType="1" res="-4.1118473745882511e-03" rms="4.1954308748245239e-01" purity="2.7293002605438232e-01" nType="-99"/>
          <Node pos="r" depth="2" NCoef="0" IVar="-1" Cut="0.0000000000000000e+00" cType="1" res="-8.7096629431471229e-04" rms="4.6857166290283203e-01" purity="3.8019144535064697e-01" nType="-99"/>
        </Node>
        <Node pos="r" depth="1" NCoef="0" IVar="4" Cut="9.6758753061294556e-01" cType="1" res="1.7557736486196518e-02" rms="4.7483569383621216e-01" purity="5.3261655569076538e-01" nType="0">
          <Node pos="l" depth="2" NCoef="0" IVar="-1" Cut="0.0000000000000000e+00" cType="1" res="-1.8871816791943274e-05" rms="4.8346519470214844e-01" purity="4.6931985020637512e-01" nType="-99"/>
          <Node pos="r" depth="2" NCoef="0" IVar="-1" Cut="0.0000000000000000e+00" cType="1" res="1.4826180413365364e-03" rms="4.4989848136901855e-01" purity="6.8769443035125732e-01" nType="-99"/>
        </Node>
      </Node>
    </BinaryTree>
    <BinaryTree type="DecisionTree" boostWeight="1.0000000000000000e+00" itree="221">
      <Node pos="s" depth="0" NCoef="0" IVar="1" Cut="7.9639488458633423e-01" cType="1" res="8.7854862213134766e-03" rms="4.7206079959869385e-01" purity="5.0157552957534790e-01" nType="0">
        <Node pos="l" depth="1" NCoef="0" IVar="0" Cut="9.7634851932525635e-02" cType="1" res="-4.1685546748340130e-03" rms="4.7268941998481750e-01" purity="4.7308835387229919e-01" nType="0">
          <Node pos="l" depth="2" NCoef="0" IVar="-1" Cut="0.0000000000000000e+00" cType="1" res="-8.9578272309154272e-04" rms="4.6947097778320312e-01" purity="4.2905750870704651e-01" nType="-99"/>
          <Node pos="r" depth="2" NCoef="0" IVar="-1" Cut="0.0000000000000000e+00" cType="1" res="1.1943206191062927e-03" rms="4.7548264265060425e-01" purity="5.6495422124862671e-01" nType="-99"/>
        </Node>
        <Node pos="r" depth="1" NCoef="0" IVar="4" Cut="9.5023298263549805e-01" cType="1" res="6.7671835422515869e-02" rms="4.6466243267059326e-01" purity="6.3107234239578247e-01" nType="0">
          <Node pos="l" depth="2" NCoef="0" IVar="-1" Cut="0.0000000000000000e+00" cType="1" res="9.1168266953900456e-04" rms="4.9035385251045227e-01" purity="5.2170097827911377e-01" nType="-99"/>
          <Node pos="r" depth="2" NCoef="0" IVar="-1" Cut="0.0000000000000000e+00" cType="1" res="2.1001384593546391e-03" rms="4.4382834434509277e-01" purity="7.0922172069549561e-01" nType="-99"/>
        </Node>
      </Node>
    </BinaryTree>
    <BinaryTree type="DecisionTree" boostWeight="1.0000000000000000e+00" itree="222">
      <Node pos="s" depth="0" NCoef="0" IVar="4" Cut="9.7189211845397949e-01" cType="1" res="3.1324177980422974e-03" rms="4.7185355424880981e-01" purity="4.9582597613334656e-01" nType="0">
        <Node pos="l" depth="1" NCoef="0" IVar="2" Cut="6.3200659179687500e+02" cType="1" res="-1.0926650837063789e-02" rms="4.7615948319435120e-01" purity="4.4177597761154175e-01" nType="0">
          <Node pos="l" depth="2" NCoef="0" IVar="-1" Cut="0.0000000000000000e+00" cType="1" res="-9.2060642782598734e-04" rms="4.7128838300704956e-01" purity="3.9880582690238953e-01" nType="-99"/>
          <Node pos="r" depth="2" NCoef="0" IVar="-1" Cut="0.0000000000000000e+00" cType="1" res="7.9308170825242996e-04" rms="4.8511421680450439e-01" purity="5.4350960254669189e-01" nType="-99"/>
        </Node>
        <Node pos="r" depth="1" NCoef="0" IVar="0" Cut="-3.4913212060928345e-02" cType="1" res="4.9701932817697525e-02" rms="4.5420351624488831e-01" purity="6.7486214637756348e-01" nType="0">
          <Node pos="l" depth="2" NCoef="0" IVar="-1" Cut="0.0000000000000000e+00" cType="1" res="2.4725383264012635e-04" rms="4.6973133087158203e-01" purity="6.1526268720626831e-01" nType="-99"/>
          <Node pos="r" depth="2" NCoef="0" IVar="-1" Cut="0.0000000000000000e+00" cType="1" res="1.7277291044592857e-03" rms="4.4278305768966675e-01" purity="7.1095246076583862e-01" nType="-99"/>
        </Node>
      </Node>
    </BinaryTree>
    <BinaryTree type="DecisionTree" boostWeight="1.0000000000000000e+00" itree="223">
      <Node pos="s" depth="0" NCoef="0" IVar="1" Cut="5.0417149066925049e-01" cType="1" res="1.2174157425761223e-02" rms="4.7202652692794800e-01" purity="5.0416189432144165e-01" nType="0">
        <Node pos="l" depth="1" NCoef="0" IVar="0" Cut="2.0583105087280273e-01" cType="1" res="-3.2899558544158936e-02" rms="4.6376523375511169e-01" purity="4.1525608301162720e-01" nType="0">
          <Node pos="l" depth="2" NCoef="0" IVar="-1" Cut="0.0000000000000000e+00" cType="1" res="-2.7715342584997416e-03" rms="4.5183831453323364e-01" purity="3.4403052926063538e-01" nType="-99"/>
          <Node pos="r" depth="2" NCoef="0" IVar="-1" Cut="0.0000000000000000e+00" cType="1" res="1.5982441836968064e-03" rms="4.7616457939147949e-01" purity="5.7706600427627563e-01" nType="-99"/>
        </Node>
        <Node pos="r" depth="1" NCoef="0" IVar="4" Cut="9.3635892868041992e-01" cType="1" res="2.6681113988161087e-02" rms="4.7374349832534790e-01" purity="5.3277623653411865e-01" nType="0">
          <Node pos="l" depth="2" NCoef="0" IVar="-1" Cut="0.0000000000000000e+00" cType="1" res="-5.1227811491116881e-04" rms="4.7612747550010681e-01" purity="3.9463818073272705e-01" nType="-99"/>
          <Node pos="r" depth="2" NCoef="0" IVar="-1" Cut="0.0000000000000000e+00" cType="1" res="1.0816031135618687e-03" rms="4.7197666764259338e-01" purity="5.8214884996414185e-01" nType="-99"/>
        </Node>
      </Node>
    </BinaryTree>
    <BinaryTree type="DecisionTree" boostWeight="1.0000000000000000e+00" itree="224">
      <Node pos="s" depth="0" NCoef="0" IVar="6" Cut="8.5692502558231354e-02" cType="1" res="3.7960147019475698e-03" rms="4.7228568792343140e-01" purity="4.9625298380851746e-01" nType="0">
        <Node pos="l" depth="1" NCoef="0" IVar="0" Cut="2.0867267251014709e-01" cType="1" res="-2.0998438820242882e-02" rms="4.7186437249183655e-01" purity="4.5913454890251160e-01" nType="0">
          <Node pos="l" depth="2" NCoef="0" IVar="-1" Cut="0.0000000000000000e+00" cType="1" res="-1.1404416291043162e-03" rms="4.6961835026741028e-01" purity="4.3776878714561462e-01" nType="-99"/>
          <Node pos="r" depth="2" NCoef="0" IVar="-1" Cut="0.0000000000000000e+00" cType="1" res="1.8125700298696756e-03" rms="4.7516933083534241e-01" purity="5.9337753057479858e-01" nType="-99"/>
        </Node>
        <Node pos="r" depth="1" NCoef="0" IVar="2" Cut="4.1763586425781250e+02" cType="1" res="3.0345303937792778e-02" rms="4.7129243612289429e-01" purity="5.3599858283996582e-01" nType="0">
          <Node pos="l" depth="2" NCoef="0" IVar="-1" Cut="0.0000000000000000e+00" cType="1" res="-7.8115216456353664e-04" rms="4.6662229299545288e-01" purity="3.8537871837615967e-01" nType="-99"/>
          <Node pos="r" depth="2" NCoef="0" IVar="-1" Cut="0.0000000000000000e+00" cType="1" res="1.2396438978612423e-03" rms="4.7149837017059326e-01" purity="5.8656775951385498e-01" nType="-99"/>
        </Node>
      </Node>
    </BinaryTree>
    <BinaryTree type="DecisionTree" boostWeight="1.0000000000000000e+00" itree="225">
      <Node pos="s" depth="0" NCoef="0" IVar="3" Cut="1.3396621704101562e+02" cType="1" res="6.7327567376196384e-03" rms="4.7174602746963501e-01" purity="4.9867647886276245e-01" nType="0">
        <Node pos="l" depth="1" NCoef="0" IVar="8" Cut="1.3940722942352295e+00" cType="1" res="-2.8226475697010756e-03" rms="4.7216507792472839e-01" purity="4.8593690991401672e-01" nType="0">
          <Node pos="l" depth="2" NCoef="0" IVar="-1" Cut="0.0000000000000000e+00" cType="1" res="3.3210904803127050e-04" rms="4.7396305203437805e-01" purity="5.0886422395706177e-01" nType="-99"/>
          <Node pos="r" depth="2" NCoef="0" IVar="-1" Cut="0.0000000000000000e+00" cType="1" res="-2.0649856887757778e-03" rms="4.6021810173988342e-01" purity="3.9336511492729187e-01" nType="-99"/>
        </Node>
        <Node pos="r" depth="1" NCoef="0" IVar="2" Cut="5.8735400390625000e+02" cType="1" res="7.5337119400501251e-02" rms="4.6297132968902588e-01" purity="5.9014195203781128e-01" nType="0">
          <Node pos="l" depth="2" NCoef="0" IVar="-1" Cut="0.0000000000000000e+00" cType="1" res="2.3244494514074177e-05" rms="4.7263669967651367e-01" purity="4.6724197268486023e-01" nType="-99"/>
          <Node pos="r" depth="2" NCoef="0" IVar="-1" Cut="0.0000000000000000e+00" cType="1" res="3.0294174794107676e-03" rms="4.4736963510513306e-01" purity="6.8298286199569702e-01" nType="-99"/>
        </Node>
      </Node>
    </BinaryTree>
    <BinaryTree type="DecisionTree" boostWeight="1.0000000000000000e+00" itree="226">
      <Node pos="s" depth="0" NCoef="0" IVar="3" Cut="1.3989184570312500e+02" cType="1" res="1.0915101505815983e-02" rms="4.7207301855087280e-01" purity="5.0297278165817261e-01" nType="0">
        <Node pos="l" depth="1" NCoef="0" IVar="4" Cut="9.3081003427505493e-01" cType="1" res="2.9002772644162178e-03" rms="4.7228169441223145e-01" purity="4.9246039986610413e-01" nType="0">
          <Node pos="l" depth="2" NCoef="0" IVar="-1" Cut="0.0000000000000000e+00" cType="1" res="-1.7268190858885646e-03" rms="4.6040952205657959e-01" purity="3.4142118692398071e-01" nType="-99"/>
          <Node pos="r" depth="2" NCoef="0" IVar="-1" Cut="0.0000000000000000e+00" cType="1" res="4.6298539382405579e-04" rms="4.7461363673210144e-01" purity="5.3469634056091309e-01" nType="-99"/>
        </Node>
        <Node pos="r" depth="1" NCoef="0" IVar="-1" Cut="0.0000000000000000e+00" cType="1" res="2.1715187467634678e-03" rms="4.6344590187072754e-01" purity="6.0135036706924438e-01" nType="-99"/>
      </Node>
    </BinaryTree>
    <BinaryTree type="DecisionTree" boostWeight="1.0000000000000000e+00" itree="227">
      <Node pos="s" depth="0" NCoef="0" IVar="4" Cut="9.8561698198318481e-01" cType="1" res="8.6446320638060570e-03" rms="4.7093778848648071e-01" purity="5.0188690423965454e-01" nType="0">
        <Node pos="l" depth="1" NCoef="0" IVar="2" Cut="7.4685943603515625e+02" cType="1" res="-2.9234288376756012e-04" rms="4.7516721487045288e-01" purity="4.7506150603294373e-01" nType="0">
          <Node pos="l" depth="2" NCoef="0" IVar="-1" Cut="0.0000000000000000e+00" cType="1" res="-3.7995525053702295e-04" rms="4.7418484091758728e-01" purity="4.5084273815155029e-01" nType="-99"/>
          <Node pos="r" depth="2" NCoef="0" IVar="-1" Cut="0.0000000000000000e+00" cType="1" res="1.5909242210909724e-03" rms="4.7532641887664795e-01" purity="5.9927761554718018e-01" nType="-99"/>
        </Node>
        <Node pos="r" depth="1" NCoef="0" IVar="-1" Cut="0.0000000000000000e+00" cType="1" res="2.0743813365697861e-03" rms="4.2140412330627441e-01" purity="7.4816048145294189e-01" nType="-99"/>
      </Node>
    </BinaryTree>
    <BinaryTree type="DecisionTree" boostWeight="1.0000000000000000e+00" itree="228">
      <Node pos="s" depth="0" NCoef="0" IVar="4" Cut="9.8117780685424805e-01" cType="1" res="8.6950790137052536e-03" rms="4.7142973542213440e-01" purity="5.0236803293228149e-01" nType="0">
        <Node pos="l" depth="1" NCoef="0" IVar="6" Cut="1.5666262805461884e-01" cType="1" res="-1.5035925898700953e-03" rms="4.7651353478431702e-01" purity="4.6660891175270081e-01" nType="0">
          <Node pos="l" depth="2" NCoef="0" IVar="-1" Cut="0.0000000000000000e+00" cType="1" res="-4.1631134808994830e-04" rms="4.7531303763389587e-01" purity="4.5144549012184143e-01" nType="-99"/>
          <Node pos="r" depth="2" NCoef="0" IVar="-1" Cut="0.0000000000000000e+00" cType="1" res="1.3658894458785653e-03" rms="4.7813892364501953e-01" purity="5.3223621845245361e-01" nType="-99"/>
        </Node>
        <Node pos="r" depth="1" NCoef="0" IVar="-1" Cut="0.0000000000000000e+00" cType="1" res="1.6840152675285935e-03" rms="4.3296501040458679e-01" purity="7.2560071945190430e-01" nType="-99"/>
      </Node>
    </BinaryTree>
    <BinaryTree type="DecisionTree" boostWeight="1.0000000000000000e+00" itree="229">
      <Node pos="s" depth="0" NCoef="0" IVar="2" Cut="5.3988458251953125e+02" cType="1" res="1.0254275053739548e-02" rms="4.7025975584983826e-01" purity="5.0395768880844116e-01" nType="0">
        <Node pos="l" depth="1" NCoef="0" IVar="4" Cut="9.4524246454238892e-01" cType="1" res="-1.4971266500651836e-02" rms="4.6750798821449280e-01" purity="4.3221715092658997e-01" nType="0">
          <Node pos="l" depth="2" NCoef="0" IVar="-1" Cut="0.0000000000000000e+00" cType="1" res="-2.0616129040718079e-03" rms="4.4818380475044250e-01" purity="3.0872401595115662e-01" nType="-99"/>
          <Node pos="r" depth="2" NCoef="0" IVar="-1" Cut="0.0000000000000000e+00" cType="1" res="2.7976190904155374e-04" rms="4.7817763686180115e-01" purity="5.1358640193939209e-01" nType="-99"/>
        </Node>
        <Node pos="r" depth="1" NCoef="0" IVar="3" Cut="1.3396621704101562e+02" cType="1" res="3.7944890558719635e-02" rms="4.7171142697334290e-01" purity="5.8270889520645142e-01" nType="0">
          <Node pos="l" depth="2" NCoef="0" IVar="-1" Cut="0.0000000000000000e+00" cType="1" res="6.4152263803407550e-04" rms="4.7386318445205688e-01" purity="5.6819748878479004e-01" nType="-99"/>
          <Node pos="r" depth="2" NCoef="0" IVar="-1" Cut="0.0000000000000000e+00" cType="1" res="2.5428312364965677e-03" rms="4.5500856637954712e-01" purity="6.5385413169860840e-01" nType="-99"/>
        </Node>
      </Node>
    </BinaryTree>
    <BinaryTree type="DecisionTree" boostWeight="1.0000000000000000e+00" itree="230">
      <Node pos="s" depth="0" NCoef="0" IVar="8" Cut="9.6392375230789185e-01" cType="1" res="3.4834877587854862e-03" rms="4.7149369120597839e-01" purity="4.9610504508018494e-01" nType="0">
        <Node pos="l" depth="1" NCoef="0" IVar="0" Cut="8.3047010004520416e-02" cType="1" res="3.4204624593257904e-02" rms="4.7155126929283142e-01" purity="5.4623556137084961e-01" nType="0">
          <Node pos="l" depth="2" NCoef="0" IVar="-1" Cut="0.0000000000000000e+00" cType="1" res="4.0120197809301317e-04" rms="4.7105959057807922e-01" purity="5.1766359806060791e-01" nType="-99"/>
          <Node pos="r" depth="2" NCoef="0" IVar="-1" Cut="0.0000000000000000e+00" cType="1" res="1.9602226093411446e-03" rms="4.6955272555351257e-01" purity="6.1084765195846558e-01" nType="-99"/>
        </Node>
        <Node pos="r" depth="1" NCoef="0" IVar="1" Cut="7.6988822221755981e-01" cType="1" res="-1.8649233505129814e-02" rms="4.7020992636680603e-01" purity="4.5998907089233398e-01" nType="0">
          <Node pos="l" depth="2" NCoef="0" IVar="-1" Cut="0.0000000000000000e+00" cType="1" res="-1.0005638469010592e-03" rms="4.6858033537864685e-01" purity="4.2881172895431519e-01" nType="-99"/>
          <Node pos="r" depth="2" NCoef="0" IVar="-1" Cut="0.0000000000000000e+00" cType="1" res="8.0793426604941487e-04" rms="4.7328215837478638e-01" purity="5.8273434638977051e-01" nType="-99"/>
        </Node>
      </Node>
    </BinaryTree>
    <BinaryTree type="DecisionTree" boostWeight="1.0000000000000000e+00" itree="231">
      <Node pos="s" depth="0" NCoef="0" IVar="4" Cut="9.2624711990356445e-01" cType="1" res="5.2645066753029823e-03" rms="4.7240650653839111e-01" purity="4.9736219644546509e-01" nType="0">
        <Node pos="l" depth="1" NCoef="0" IVar="0" Cut="8.2192152738571167e-02" cType="1" res="-4.5104455202817917e-02" rms="4.6016219258308411e-01" purity="3.4465548396110535e-01" nType="0">
          <Node pos="l" depth="2" NCoef="0" IVar="-1" Cut="0.0000000000000000e+00" cType="1" res="-2.4870110210031271e-03" rms="4.4811889529228210e-01" purity="3.1423658132553101e-01" nType="-99"/>
          <Node pos="r" depth="2" NCoef="0" IVar="-1" Cut="0.0000000000000000e+00" cType="1" res="-1.7798524640966207e-04" rms="4.8344960808753967e-01" purity="4.1205886006355286e-01" nType="-99"/>
        </Node>
        <Node pos="r" depth="1" NCoef="0" IVar="1" Cut="5.3182446956634521e-01" cType="1" res="1.6207534819841385e-02" rms="4.7431820631027222e-01" purity="5.3053873777389526e-01" nType="0">
          <Node pos="l" depth="2" NCoef="0" IVar="-1" Cut="0.0000000000000000e+00" cType="1" res="-6.7087437491863966e-04" rms="4.7029480338096619e-01" purity="4.4901984930038452e-01" nType="-99"/>
          <Node pos="r" depth="2" NCoef="0" IVar="-1" Cut="0.0000000000000000e+00" cType="1" res="8.4339559543877840e-04" rms="4.7508323192596436e-01" purity="5.6415754556655884e-01" nType="-99"/>
        </Node>
      </Node>
    </BinaryTree>
    <BinaryTree type="DecisionTree" boostWeight="1.0000000000000000e+00" itree="232">
      <Node pos="s" depth="0" NCoef="0" IVar="2" Cut="5.3988458251953125e+02" cType="1" res="1.6850333195179701e-03" rms="4.7055357694625854e-01" purity="4.9461644887924194e-01" nType="0">
        <Node pos="l" depth="1" NCoef="0" IVar="6" Cut="1.9937294721603394e-01" cType="1" res="-2.3524105548858643e-02" rms="4.6587964892387390e-01" purity="4.2348897457122803e-01" nType="0">
          <Node pos="l" depth="2" NCoef="0" IVar="-1" Cut="0.0000000000000000e+00" cType="1" res="-1.2477460550144315e-03" rms="4.6245250105857849e-01" purity="4.0293082594871521e-01" nType="-99"/>
          <Node pos="r" depth="2" NCoef="0" IVar="-1" Cut="0.0000000000000000e+00" cType="1" res="1.5436955727636814e-03" rms="4.7707420587539673e-01" purity="5.4187572002410889e-01" nType="-99"/>
        </Node>
        <Node pos="r" depth="1" NCoef="0" IVar="5" Cut="1.5309293568134308e-01" cType="1" res="2.9359631240367889e-02" rms="4.7409072518348694e-01" purity="5.7270014286041260e-01" nType="0">
          <Node pos="l" depth="2" NCoef="0" IVar="-1" Cut="0.0000000000000000e+00" cType="1" res="-1.5151840634644032e-03" rms="4.7227698564529419e-01" purity="4.3537586927413940e-01" nType="-99"/>
          <Node pos="r" depth="2" NCoef="0" IVar="-1" Cut="0.0000000000000000e+00" cType="1" res="1.0535027831792831e-03" rms="4.7327345609664917e-01" purity="5.9321665763854980e-01" nType="-99"/>
        </Node>
      </Node>
    </BinaryTree>
    <BinaryTree type="DecisionTree" boostWeight="1.0000000000000000e+00" itree="233">
      <Node pos="s" depth="0" NCoef="0" IVar="4" Cut="9.7187680006027222e-01" cType="1" res="2.5912271812558174e-03" rms="4.7065666317939758e-01" purity="4.9525520205497742e-01" nType="0">
        <Node pos="l" depth="1" NCoef="0" IVar="2" Cut="4.2421990966796875e+02" cType="1" res="-1.1956539005041122e-02" rms="4.7522753477096558e-01" purity="4.4006055593490601e-01" nType="0">
          <Node pos="l" depth="2" NCoef="0" IVar="-1" Cut="0.0000000000000000e+00" cType="1" res="-2.4850454647094011e-03" rms="4.4144779443740845e-01" purity="2.9098135232925415e-01" nType="-99"/>
          <Node pos="r" depth="2" NCoef="0" IVar="-1" Cut="0.0000000000000000e+00" cType="1" res="4.2463932913960889e-05" rms="4.8336356878280640e-01" purity="4.8159179091453552e-01" nType="-99"/>
        </Node>
        <Node pos="r" depth="1" NCoef="0" IVar="8" Cut="1.1170146465301514e+00" cType="1" res="5.1047530025243759e-02" rms="4.5173427462577820e-01" purity="6.7909961938858032e-01" nType="0">
          <Node pos="l" depth="2" NCoef="0" IVar="-1" Cut="0.0000000000000000e+00" cType="1" res="1.7818626947700977e-03" rms="4.3907862901687622e-01" purity="7.1423488855361938e-01" nType="-99"/>
          <Node pos="r" depth="2" NCoef="0" IVar="-1" Cut="0.0000000000000000e+00" cType="1" res="4.5457688975147903e-04" rms="4.6606138348579407e-01" purity="6.3210868835449219e-01" nType="-99"/>
        </Node>
      </Node>
    </BinaryTree>
    <BinaryTree type="DecisionTree" boostWeight="1.0000000000000000e+00" itree="234">
      <Node pos="s" depth="0" NCoef="0" IVar="1" Cut="8.1633126735687256e-01" cType="1" res="9.0318322181701660e-03" rms="4.7091579437255859e-01" purity="5.0296157598495483e-01" nType="0">
        <Node pos="l" depth="1" NCoef="0" IVar="0" Cut="-7.1766888722777367e-03" cType="1" res="-1.5350565081462264e-03" rms="4.7142839431762695e-01" purity="4.7981435060501099e-01" nType="0">
          <Node pos="l" depth="2" NCoef="0" IVar="-1" Cut="0.0000000000000000e+00" cType="1" res="-1.3181092217564583e-03" rms="4.6470388770103455e-01" purity="4.0597704052925110e-01" nType="-99"/>
          <Node pos="r" depth="2" NCoef="0" IVar="-1" Cut="0.0000000000000000e+00" cType="1" res="7.1267399471253157e-04" rms="4.7432774305343628e-01" purity="5.3302407264709473e-01" nType="-99"/>
        </Node>
        <Node pos="r" depth="1" NCoef="0" IVar="4" Cut="9.4994521141052246e-01" cType="1" res="7.0996060967445374e-02" rms="4.6307101845741272e-01" purity="6.3869673013687134e-01" nType="0">
          <Node pos="l" depth="2" NCoef="0" IVar="-1" Cut="0.0000000000000000e+00" cType="1" res="1.1402453528717160e-03" rms="4.9084648489952087e-01" purity="5.3116691112518311e-01" nType="-99"/>
          <Node pos="r" depth="2" NCoef="0" IVar="-1" Cut="0.0000000000000000e+00" cType="1" res="2.0641412120312452e-03" rms="4.4188314676284790e-01" purity="7.1277087926864624e-01" nType="-99"/>
        </Node>
      </Node>
    </BinaryTree>
    <BinaryTree type="DecisionTree" boostWeight="1.0000000000000000e+00" itree="235">
      <Node pos="s" depth="0" NCoef="0" IVar="3" Cut="1.5183480834960938e+02" cType="1" res="6.3390200957655907e-03" rms="4.7207930684089661e-01" purity="4.9956634640693665e-01" nType="0">
        <Node pos="l" depth="1" NCoef="0" IVar="8" Cut="1.1514191627502441e+00" cType="1" res="-1.4705550856888294e-03" rms="4.7226518392562866e-01" purity="4.8984310030937195e-01" nType="0">
          <Node pos="l" depth="2" NCoef="0" IVar="-1" Cut="0.0000000000000000e+00" cType="1" res="5.2092142868787050e-04" rms="4.7409376502037048e-01" purity="5.2518337965011597e-01" nType="-99"/>
          <Node pos="r" depth="2" NCoef="0" IVar="-1" Cut="0.0000000000000000e+00" cType="1" res="-1.0180742247030139e-03" rms="4.6779367327690125e-01" purity="4.3587988615036011e-01" nType="-99"/>
        </Node>
        <Node pos="r" depth="1" NCoef="0" IVar="-1" Cut="0.0000000000000000e+00" cType="1" res="2.8724109288305044e-03" rms="4.5457011461257935e-01" purity="6.4042055606842041e-01" nType="-99"/>
      </Node>
    </BinaryTree>
    <BinaryTree type="DecisionTree" boostWeight="1.0000000000000000e+00" itree="236">
      <Node pos="s" depth="0" NCoef="0" IVar="2" Cut="7.3589990234375000e+02" cType="1" res="6.8821548484265804e-03" rms="4.7021406888961792e-01" purity="5.0143682956695557e-01" nType="0">
        <Node pos="l" depth="1" NCoef="0" IVar="0" Cut="2.0846068859100342e-01" cType="1" res="-4.7157062217593193e-03" rms="4.7028899192810059e-01" purity="4.7682324051856995e-01" nType="0">
          <Node pos="l" depth="2" NCoef="0" IVar="-1" Cut="0.0000000000000000e+00" cType="1" res="-4.0829821955412626e-04" rms="4.6900039911270142e-01" purity="4.6448889374732971e-01" nType="-99"/>
          <Node pos="r" depth="2" NCoef="0" IVar="-1" Cut="0.0000000000000000e+00" cType="1" res="1.9664254505187273e-03" rms="4.7432145476341248e-01" purity="5.9379714727401733e-01" nType="-99"/>
        </Node>
        <Node pos="r" depth="1" NCoef="0" IVar="6" Cut="3.7318844348192215e-02" cType="1" res="6.1851095408201218e-02" rms="4.6594861149787903e-01" purity="6.1809450387954712e-01" nType="0">
          <Node pos="l" depth="2" NCoef="0" IVar="-1" Cut="0.0000000000000000e+00" cType="1" res="6.0985138406977057e-04" rms="4.7761753201484680e-01" purity="5.4559475183486938e-01" nType="-99"/>
          <Node pos="r" depth="2" NCoef="0" IVar="-1" Cut="0.0000000000000000e+00" cType="1" res="2.1364751737564802e-03" rms="4.5604211091995239e-01" purity="6.6662800312042236e-01" nType="-99"/>
        </Node>
      </Node>
    </BinaryTree>
    <BinaryTree type="DecisionTree" boostWeight="1.0000000000000000e+00" itree="237">
      <Node pos="s" depth="0" NCoef="0" IVar="0" Cut="1.7214947938919067e-01" cType="1" res="9.3806963413953781e-03" rms="4.7153282165527344e-01" purity="5.0174409151077271e-01" nType="0">
        <Node pos="l" depth="1" NCoef="0" IVar="1" Cut="5.1641833782196045e-01" cType="1" res="-6.0295581351965666e-04" rms="4.7021943330764771e-01" purity="4.8657864332199097e-01" nType="0">
          <Node pos="l" depth="2" NCoef="0" IVar="-1" Cut="0.0000000000000000e+00" cType="1" res="-2.9749998357146978e-03" rms="4.4846597313880920e-01" purity="3.2386985421180725e-01" nType="-99"/>
          <Node pos="r" depth="2" NCoef="0" IVar="-1" Cut="0.0000000000000000e+00" cType="1" res="4.8768450506031513e-04" rms="4.7346270084381104e-01" purity="5.2528089284896851e-01" nType="-99"/>
        </Node>
        <Node pos="r" depth="1" NCoef="0" IVar="4" Cut="9.4228786230087280e-01" cType="1" res="6.8507775664329529e-02" rms="4.7495490312576294e-01" purity="5.9155964851379395e-01" nType="0">
          <Node pos="l" depth="2" NCoef="0" IVar="-1" Cut="0.0000000000000000e+00" cType="1" res="9.1714184964075685e-04" rms="4.9278703331947327e-01" purity="4.7611990571022034e-01" nType="-99"/>
          <Node pos="r" depth="2" NCoef="0" IVar="-1" Cut="0.0000000000000000e+00" cType="1" res="2.1401948761194944e-03" rms="4.6288263797760010e-01" purity="6.5904897451400757e-01" nType="-99"/>
        </Node>
      </Node>
    </BinaryTree>
    <BinaryTree type="DecisionTree" boostWeight="1.0000000000000000e+00" itree="238">
      <Node pos="s" depth="0" NCoef="0" IVar="4" Cut="9.8132652044296265e-01" cType="1" res="7.6180128380656242e-03" rms="4.7121301293373108e-01" purity="5.0099807977676392e-01" nType="0">
        <Node pos="l" depth="1" NCoef="0" IVar="0" Cut="2.0401675999164581e-01" cType="1" res="-2.5899349711835384e-03" rms="4.7630506753921509e-01" purity="4.6554255485534668e-01" nType="0">
          <Node pos="l" depth="2" NCoef="0" IVar="-1" Cut="0.0000000000000000e+00" cType="1" res="-3.3629790414124727e-04" rms="4.7474586963653564e-01" purity="4.5336350798606873e-01" nType="-99"/>
          <Node pos="r" depth="2" NCoef="0" IVar="-1" Cut="0.0000000000000000e+00" cType="1" res="1.8502677557989955e-03" rms="4.8357528448104858e-01" purity="5.7508140802383423e-01" nType="-99"/>
        </Node>
        <Node pos="r" depth="1" NCoef="0" IVar="-1" Cut="0.0000000000000000e+00" cType="1" res="1.7095531802624464e-03" rms="4.3161648511886597e-01" purity="7.2754579782485962e-01" nType="-99"/>
      </Node>
    </BinaryTree>
    <BinaryTree type="DecisionTree" boostWeight="1.0000000000000000e+00" itree="239">
      <Node pos="s" depth="0" NCoef="0" IVar="0" Cut="2.2395765781402588e-01" cType="1" res="9.0291379019618034e-03" rms="4.7187590599060059e-01" purity="5.0141322612762451e-01" nType="0">
        <Node pos="l" depth="1" NCoef="0" IVar="1" Cut="4.6082067489624023e-01" cType="1" res="1.4674967387691140e-03" rms="4.7158098220825195e-01" purity="4.9113237857818604e-01" nType="0">
          <Node pos="l" depth="2" NCoef="0" IVar="-1" Cut="0.0000000000000000e+00" cType="1" res="-3.2607205212116241e-03" rms="4.4812744855880737e-01" purity="3.3478572964668274e-01" nType="-99"/>
          <Node pos="r" depth="2" NCoef="0" IVar="-1" Cut="0.0000000000000000e+00" cType="1" res="4.0136108873412013e-04" rms="4.7356039285659790e-01" purity="5.1386868953704834e-01" nType="-99"/>
        </Node>
        <Node pos="r" depth="1" NCoef="0" IVar="-1" Cut="0.0000000000000000e+00" cType="1" res="2.4283437523990870e-03" rms="4.6563401818275452e-01" purity="6.2717568874359131e-01" nType="-99"/>
      </Node>
    </BinaryTree>
    <BinaryTree type="DecisionTree" boostWeight="1.0000000000000000e+00" itree="240">
      <Node pos="s" depth="0" NCoef="0" IVar="4" Cut="9.8100274801254272e-01" cType="1" res="4.6506691724061966e-03" rms="4.7160041332244873e-01" purity="4.9664160609245300e-01" nType="0">
        <Node pos="l" depth="1" NCoef="0" IVar="8" Cut="1.1726804971694946e+00" cType="1" res="-4.9650431610643864e-03" rms="4.7639945149421692e-01" purity="4.6145358681678772e-01" nType="0">
          <Node pos="l" depth="2" NCoef="0" IVar="-1" Cut="0.0000000000000000e+00" cType="1" res="4.1324296034872532e-04" rms="4.8081666231155396e-01" purity="4.9408856034278870e-01" nType="-99"/>
          <Node pos="r" depth="2" NCoef="0" IVar="-1" Cut="0.0000000000000000e+00" cType="1" res="-1.1297006858512759e-03" rms="4.6801009774208069e-01" purity="4.1153010725975037e-01" nType="-99"/>
        </Node>
        <Node pos="r" depth="1" NCoef="0" IVar="-1" Cut="0.0000000000000000e+00" cType="1" res="1.5609443653374910e-03" rms="4.3470790982246399e-01" purity="7.2148448228836060e-01" nType="-99"/>
      </Node>
    </BinaryTree>
    <BinaryTree type="DecisionTree" boostWeight="1.0000000000000000e+00" itree="241">
      <Node pos="s" depth="0" NCoef="0" IVar="4" Cut="9.8119056224822998e-01" cType="1" res="4.2430865578353405e-03" rms="4.7032538056373596e-01" purity="4.9801003932952881e-01" nType="0">
        <Node pos="l" depth="1" NCoef="0" IVar="0" Cut="1.7036490142345428e-01" cType="1" res="-6.0858470387756824e-03" rms="4.7523555159568787e-01" purity="4.6163102984428406e-01" nType="0">
          <Node pos="l" depth="2" NCoef="0" IVar="-1" Cut="0.0000000000000000e+00" cType="1" res="-5.0033716252073646e-04" rms="4.7360530495643616e-01" purity="4.4488260149955750e-01" nType="-99"/>
          <Node pos="r" depth="2" NCoef="0" IVar="-1" Cut="0.0000000000000000e+00" cType="1" res="1.3892168644815683e-03" rms="4.8043259978294373e-01" purity="5.6050270795822144e-01" nType="-99"/>
        </Node>
        <Node pos="r" depth="1" NCoef="0" IVar="-1" Cut="0.0000000000000000e+00" cType="1" res="1.6159346560016274e-03" rms="4.3293860554695129e-01" purity="7.2488778829574585e-01" nType="-99"/>
      </Node>
    </BinaryTree>
    <BinaryTree type="DecisionTree" boostWeight="1.0000000000000000e+00" itree="242">
      <Node pos="s" depth="0" NCoef="0" IVar="8" Cut="1.1437416076660156e+00" cType="1" res="8.1190653145313263e-03" rms="4.7107473015785217e-01" purity="5.0125283002853394e-01" nType="0">
        <Node pos="l" depth="1" NCoef="0" IVar="1" Cut="7.9405647516250610e-01" cType="1" res="2.9214013367891312e-02" rms="4.7197711467742920e-01" purity="5.3786981105804443e-01" nType="0">
          <Node pos="l" depth="2" NCoef="0" IVar="-1" Cut="0.0000000000000000e+00" cType="1" res="4.4276492553763092e-04" rms="4.7439849376678467e-01" purity="5.0757390260696411e-01" nType="-99"/>
          <Node pos="r" depth="2" NCoef="0" IVar="-1" Cut="0.0000000000000000e+00" cType="1" res="1.9388701766729355e-03" rms="4.5902839303016663e-01" purity="6.5240621566772461e-01" nType="-99"/>
        </Node>
        <Node pos="r" depth="1" NCoef="0" IVar="3" Cut="1.3900044250488281e+02" cType="1" res="-2.1174557507038116e-02" rms="4.6824523806571960e-01" purity="4.5040458440780640e-01" nType="0">
          <Node pos="l" depth="2" NCoef="0" IVar="-1" Cut="0.0000000000000000e+00" cType="1" res="-1.1175121180713177e-03" rms="4.6742537617683411e-01" purity="4.2932513356208801e-01" nType="-99"/>
          <Node pos="r" depth="2" NCoef="0" IVar="-1" Cut="0.0000000000000000e+00" cType="1" res="1.4064162969589233e-03" rms="4.6579632163047791e-01" purity="5.6416398286819458e-01" nType="-99"/>
        </Node>
      </Node>
    </BinaryTree>
    <BinaryTree type="DecisionTree" boostWeight="1.0000000000000000e+00" itree="243">
      <Node pos="s" depth="0" NCoef="0" IVar="4" Cut="9.8090887069702148e-01" cType="1" res="7.1440446190536022e-03" rms="4.7084510326385498e-01" purity="5.0053805112838745e-01" nType="0">
        <Node pos="l" depth="1" NCoef="0" IVar="5" Cut="1.8410527706146240e-01" cType="1" res="-2.8707243036478758e-03" rms="4.7545149922370911e-01" purity="4.6432375907897949e-01" nType="0">
          <Node pos="l" depth="2" NCoef="0" IVar="-1" Cut="0.0000000000000000e+00" cType="1" res="-2.1298122592270374e-03" rms="4.5907738804817200e-01" purity="3.7067025899887085e-01" nType="-99"/>
          <Node pos="r" depth="2" NCoef="0" IVar="-1" Cut="0.0000000000000000e+00" cType="1" res="2.1438961266539991e-04" rms="4.7756150364875793e-01" purity="4.8087310791015625e-01" nType="-99"/>
        </Node>
        <Node pos="r" depth="1" NCoef="0" IVar="-1" Cut="0.0000000000000000e+00" cType="1" res="1.6004702774807811e-03" rms="4.3688124418258667e-01" purity="7.2078406810760498e-01" nType="-99"/>
      </Node>
    </BinaryTree>
    <BinaryTree type="DecisionTree" boostWeight="1.0000000000000000e+00" itree="244">
      <Node pos="s" depth="0" NCoef="0" IVar="0" Cut="2.2428949177265167e-01" cType="1" res="6.2315771356225014e-03" rms="4.7126159071922302e-01" purity="4.9994906783103943e-01" nType="0">
        <Node pos="l" depth="1" NCoef="0" IVar="1" Cut="4.3567216396331787e-01" cType="1" res="-9.8473473917692900e-04" rms="4.7077649831771851e-01" purity="4.8996153473854065e-01" nType="0">
          <Node pos="l" depth="2" NCoef="0" IVar="-1" Cut="0.0000000000000000e+00" cType="1" res="-4.4257282279431820e-03" rms="4.3910732865333557e-01" purity="3.0493813753128052e-01" nType="-99"/>
          <Node pos="r" depth="2" NCoef="0" IVar="-1" Cut="0.0000000000000000e+00" cType="1" res="2.9101595282554626e-04" rms="4.7249722480773926e-01" purity="5.0896304845809937e-01" nType="-99"/>
        </Node>
        <Node pos="r" depth="1" NCoef="0" IVar="-1" Cut="0.0000000000000000e+00" cType="1" res="2.3139063268899918e-03" rms="4.6816876530647278e-01" purity="6.2288057804107666e-01" nType="-99"/>
      </Node>
    </BinaryTree>
    <BinaryTree type="DecisionTree" boostWeight="1.0000000000000000e+00" itree="245">
      <Node pos="s" depth="0" NCoef="0" IVar="4" Cut="9.6722429990768433e-01" cType="1" res="3.5904962569475174e-03" rms="4.6954539418220520e-01" purity="4.9795061349868774e-01" nType="0">
        <Node pos="l" depth="1" NCoef="0" IVar="2" Cut="6.3200659179687500e+02" cType="1" res="-1.3660728000104427e-02" rms="4.7444668412208557e-01" purity="4.3160322308540344e-01" nType="0">
          <Node pos="l" depth="2" NCoef="0" IVar="-1" Cut="0.0000000000000000e+00" cType="1" res="-1.0370861273258924e-03" rms="4.6836611628532410e-01" purity="3.8733565807342529e-01" nType="-99"/>
          <Node pos="r" depth="2" NCoef="0" IVar="-1" Cut="0.0000000000000000e+00" cType="1" res="7.4064382351934910e-04" rms="4.8625385761260986e-01" purity="5.3796970844268799e-01" nType="-99"/>
        </Node>
        <Node pos="r" depth="1" NCoef="0" IVar="0" Cut="-2.9947133734822273e-02" cType="1" res="4.6529550105333328e-02" rms="4.5428204536437988e-01" purity="6.6309213638305664e-01" nType="0">
          <Node pos="l" depth="2" NCoef="0" IVar="-1" Cut="0.0000000000000000e+00" cType="1" res="2.0316243171691895e-04" rms="4.6654072403907776e-01" purity="6.0561120510101318e-01" nType="-99"/>
          <Node pos="r" depth="2" NCoef="0" IVar="-1" Cut="0.0000000000000000e+00" cType="1" res="1.7031094757840037e-03" rms="4.4432550668716431e-01" purity="7.0044398307800293e-01" nType="-99"/>
        </Node>
      </Node>
    </BinaryTree>
    <BinaryTree type="DecisionTree" boostWeight="1.0000000000000000e+00" itree="246">
      <Node pos="s" depth="0" NCoef="0" IVar="0" Cut="1.5256151556968689e-01" cType="1" res="6.8249073810875416e-03" rms="4.7118404507637024e-01" purity="4.9983069300651550e-01" nType="0">
        <Node pos="l" depth="1" NCoef="0" IVar="1" Cut="4.6082067489624023e-01" cType="1" res="-4.6177669428288937e-03" rms="4.7011488676071167e-01" purity="4.8089209198951721e-01" nType="0">
          <Node pos="l" depth="2" NCoef="0" IVar="-1" Cut="0.0000000000000000e+00" cType="1" res="-4.5709987170994282e-03" rms="4.2861512303352356e-01" purity="2.8055441379547119e-01" nType="-99"/>
          <Node pos="r" depth="2" NCoef="0" IVar="-1" Cut="0.0000000000000000e+00" cType="1" res="2.1288315474521369e-04" rms="4.7329649329185486e-01" purity="5.0441849231719971e-01" nType="-99"/>
        </Node>
        <Node pos="r" depth="1" NCoef="0" IVar="0" Cut="2.2556188702583313e-01" cType="1" res="6.0833614319562912e-02" rms="4.7247174382209778e-01" purity="5.8922010660171509e-01" nType="0">
          <Node pos="l" depth="2" NCoef="0" IVar="-1" Cut="0.0000000000000000e+00" cType="1" res="1.0609641904011369e-03" rms="4.7420728206634521e-01" purity="5.6854623556137085e-01" nType="-99"/>
          <Node pos="r" depth="2" NCoef="0" IVar="-1" Cut="0.0000000000000000e+00" cType="1" res="2.2530807182192802e-03" rms="4.6815332770347595e-01" purity="6.2015670537948608e-01" nType="-99"/>
        </Node>
      </Node>
    </BinaryTree>
    <BinaryTree type="DecisionTree" boostWeight="1.0000000000000000e+00" itree="247">
      <Node pos="s" depth="0" NCoef="0" IVar="2" Cut="3.9095440673828125e+02" cType="1" res="6.5922304056584835e-03" rms="4.7038772702217102e-01" purity="5.0055283308029175e-01" nType="0">
        <Node pos="l" depth="1" NCoef="0" IVar="0" Cut="-3.8342261686921120e-03" cType="1" res="-6.1603911221027374e-02" rms="4.4406837224960327e-01" purity="3.2028254866600037e-01" nType="0">
          <Node pos="l" depth="2" NCoef="0" IVar="-1" Cut="0.0000000000000000e+00" cType="1" res="-4.1483906097710133e-03" rms="4.1967362165451050e-01" purity="2.6613304018974304e-01" nType="-99"/>
          <Node pos="r" depth="2" NCoef="0" IVar="-1" Cut="0.0000000000000000e+00" cType="1" res="-1.0764192556962371e-03" rms="4.6468213200569153e-01" purity="3.7329661846160889e-01" nType="-99"/>
        </Node>
        <Node pos="r" depth="1" NCoef="0" IVar="6" Cut="7.1588516235351562e-02" cType="1" res="1.6384735703468323e-02" rms="4.7324082255363464e-01" purity="5.2643841505050659e-01" nType="0">
          <Node pos="l" depth="2" NCoef="0" IVar="-1" Cut="0.0000000000000000e+00" cType="1" res="-3.4842861350625753e-04" rms="4.7417882084846497e-01" purity="4.7878357768058777e-01" nType="-99"/>
          <Node pos="r" depth="2" NCoef="0" IVar="-1" Cut="0.0000000000000000e+00" cType="1" res="1.0446900269016623e-03" rms="4.7123199701309204e-01" purity="5.6539130210876465e-01" nType="-99"/>
        </Node>
      </Node>
    </BinaryTree>
    <BinaryTree type="DecisionTree" boostWeight="1.0000000000000000e+00" itree="248">
      <Node pos="s" depth="0" NCoef="0" IVar="5" Cut="4.4829165935516357e-01" cType="1" res="9.1486712917685509e-03" rms="4.7089013457298279e-01" purity="5.0247889757156372e-01" nType="0">
        <Node pos="l" depth="1" NCoef="0" IVar="2" Cut="7.2471038818359375e+02" cType="1" res="-1.1606017127633095e-02" rms="4.6931055188179016e-01" purity="4.6537473797798157e-01" nType="0">
          <Node pos="l" depth="2" NCoef="0" IVar="-1" Cut="0.0000000000000000e+00" cType="1" res="-9.4058969989418983e-04" rms="4.6686029434204102e-01" purity="4.2938941717147827e-01" nType="-99"/>
          <Node pos="r" depth="2" NCoef="0" IVar="-1" Cut="0.0000000000000000e+00" cType="1" res="1.3521219370886683e-03" rms="4.7251948714256287e-01" purity="5.9404653310775757e-01" nType="-99"/>
        </Node>
        <Node pos="r" depth="1" NCoef="0" IVar="1" Cut="8.0319547653198242e-01" cType="1" res="4.1077509522438049e-02" rms="4.7152954339981079e-01" purity="5.5955964326858521e-01" nType="0">
          <Node pos="l" depth="2" NCoef="0" IVar="-1" Cut="0.0000000000000000e+00" cType="1" res="7.9156580613926053e-04" rms="4.7393211722373962e-01" purity="5.3636640310287476e-01" nType="-99"/>
          <Node pos="r" depth="2" NCoef="0" IVar="-1" Cut="0.0000000000000000e+00" cType="1" res="2.0217697601765394e-03" rms="4.6094757318496704e-01" purity="6.3797569274902344e-01" nType="-99"/>
        </Node>
      </Node>
    </BinaryTree>
    <BinaryTree type="DecisionTree" boostWeight="1.0000000000000000e+00" itree="249">
      <Node pos="s" depth="0" NCoef="0" IVar="8" Cut="9.6333754062652588e-01" cType="1" res="3.2252636738121510e-03" rms="4.7121256589889526e-01" purity="4.9697121977806091e-01" nType="0">
        <Node pos="l" depth="1" NCoef="0" IVar="0" Cut="9.7349211573600769e-02" cType="1" res="3.1983476132154465e-02" rms="4.7230765223503113e-01" purity="5.4538261890411377e-01" nType="0">
          <Node pos="l" depth="2" NCoef="0" IVar="-1" Cut="0.0000000000000000e+00" cType="1" res="4.0677271317690611e-04" rms="4.7305774688720703e-01" purity="5.1835358142852783e-01" nType="-99"/>
          <Node pos="r" depth="2" NCoef="0" IVar="-1" Cut="0.0000000000000000e+00" cType="1" res="1.9401654135435820e-03" rms="4.6724298596382141e-01" purity="6.1588233709335327e-01" nType="-99"/>
        </Node>
        <Node pos="r" depth="1" NCoef="0" IVar="0" Cut="-8.1625178456306458e-02" cType="1" res="-1.7792316153645515e-02" rms="4.6929731965065002e-01" purity="4.6159031987190247e-01" nType="0">
          <Node pos="l" depth="2" NCoef="0" IVar="-1" Cut="0.0000000000000000e+00" cType="1" res="-2.7182269841432571e-03" rms="4.5011517405509949e-01" purity="3.5971453785896301e-01" nType="-99"/>
          <Node pos="r" depth="2" NCoef="0" IVar="-1" Cut="0.0000000000000000e+00" cType="1" res="-1.3884884538128972e-04" rms="4.7266092896461487e-01" purity="4.8514243960380554e-01" nType="-99"/>
        </Node>
      </Node>
    </BinaryTree>
    <BinaryTree type="DecisionTree" boostWeight="1.0000000000000000e+00" itree="250">
      <Node pos="s" depth="0" NCoef="0" IVar="1" Cut="7.6988822221755981e-01" cType="1" res="5.1928912289440632e-03" rms="4.7003993391990662e-01" purity="4.9998036026954651e-01" nType="0">
        <Node pos="l" depth="1" NCoef="0" IVar="0" Cut="4.5320697128772736e-02" cType="1" res="-8.3822244778275490e-03" rms="4.7025039792060852e-01" purity="4.6550729870796204e-01" nType="0">
          <Node pos="l" depth="2" NCoef="0" IVar="-1" Cut="0.0000000000000000e+00" cType="1" res="-1.3838497688993812e-03" rms="4.6432447433471680e-01" purity="3.9629843831062317e-01" nType="-99"/>
          <Node pos="r" depth="2" NCoef="0" IVar="-1" Cut="0.0000000000000000e+00" cType="1" res="7.5212976662442088e-04" rms="4.7418627142906189e-01" purity="5.4265064001083374e-01" nType="-99"/>
        </Node>
        <Node pos="r" depth="1" NCoef="0" IVar="4" Cut="9.5992499589920044e-01" cType="1" res="5.1131725311279297e-02" rms="4.6640518307685852e-01" purity="6.1663872003555298e-01" nType="0">
          <Node pos="l" depth="2" NCoef="0" IVar="-1" Cut="0.0000000000000000e+00" cType="1" res="8.1724970368668437e-04" rms="4.8899558186531067e-01" purity="5.3206235170364380e-01" nType="-99"/>
          <Node pos="r" depth="2" NCoef="0" IVar="-1" Cut="0.0000000000000000e+00" cType="1" res="1.8118815496563911e-03" rms="4.3364563584327698e-01" purity="7.2729229927062988e-01" nType="-99"/>
        </Node>
      </Node>
    </BinaryTree>
    <BinaryTree type="DecisionTree" boostWeight="1.0000000000000000e+00" itree="251">
      <Node pos="s" depth="0" NCoef="0" IVar="1" Cut="5.3217571973800659e-01" cType="1" res="5.5223028175532818e-03" rms="4.6997448801994324e-01" purity="4.9901315569877625e-01" nType="0">
        <Node pos="l" depth="1" NCoef="0" IVar="0" Cut="2.0745825767517090e-01" cType="1" res="-3.3248379826545715e-02" rms="4.6034270524978638e-01" purity="4.1233295202255249e-01" nType="0">
          <Node pos="l" depth="2" NCoef="0" IVar="-1" Cut="0.0000000000000000e+00" cType="1" res="-2.8437273576855659e-03" rms="4.4854930043220520e-01" purity="3.3857995271682739e-01" nType="-99"/>
          <Node pos="r" depth="2" NCoef="0" IVar="-1" Cut="0.0000000000000000e+00" cType="1" res="1.8268412677571177e-03" rms="4.7274959087371826e-01" purity="6.0021770000457764e-01" nType="-99"/>
        </Node>
        <Node pos="r" depth="1" NCoef="0" IVar="3" Cut="1.3315354919433594e+02" cType="1" res="2.1804949268698692e-02" rms="4.7301462292671204e-01" purity="5.3541648387908936e-01" nType="0">
          <Node pos="l" depth="2" NCoef="0" IVar="-1" Cut="0.0000000000000000e+00" cType="1" res="3.1939582549966872e-04" rms="4.7416290640830994e-01" purity="5.2096021175384521e-01" nType="-99"/>
          <Node pos="r" depth="2" NCoef="0" IVar="-1" Cut="0.0000000000000000e+00" cType="1" res="2.2599806543439627e-03" rms="4.5886427164077759e-01" purity="6.3392484188079834e-01" nType="-99"/>
        </Node>
      </Node>
    </BinaryTree>
    <BinaryTree type="DecisionTree" boostWeight="1.0000000000000000e+00" itree="252">
      <Node pos="s" depth="0" NCoef="0" IVar="0" Cut="-8.1625178456306458e-02" cType="1" res="7.7125220559537411e-03" rms="4.7135320305824280e-01" purity="5.0086575746536255e-01" nType="0">
        <Node pos="l" depth="1" NCoef="0" IVar="1" Cut="7.7242434024810791e-01" cType="1" res="-3.8608301430940628e-02" rms="4.6192935109138489e-01" purity="4.1405043005943298e-01" nType="0">
          <Node pos="l" depth="2" NCoef="0" IVar="-1" Cut="0.0000000000000000e+00" cType="1" res="-2.6911192107945681e-03" rms="4.5204150676727295e-01" purity="3.3865952491760254e-01" nType="-99"/>
          <Node pos="r" depth="2" NCoef="0" IVar="-1" Cut="0.0000000000000000e+00" cType="1" res="9.5183606026694179e-04" rms="4.7578138113021851e-01" purity="5.9122258424758911e-01" nType="-99"/>
        </Node>
        <Node pos="r" depth="1" NCoef="0" IVar="4" Cut="9.8545801639556885e-01" cType="1" res="1.8936965614557266e-02" rms="4.7292616963386536e-01" purity="5.2190285921096802e-01" nType="0">
          <Node pos="l" depth="2" NCoef="0" IVar="-1" Cut="0.0000000000000000e+00" cType="1" res="3.1676524668000638e-04" rms="4.7823408246040344e-01" purity="4.9528548121452332e-01" nType="-99"/>
          <Node pos="r" depth="2" NCoef="0" IVar="-1" Cut="0.0000000000000000e+00" cType="1" res="2.0477855578064919e-03" rms="4.1598778963088989e-01" purity="7.5969302654266357e-01" nType="-99"/>
        </Node>
      </Node>
    </BinaryTree>
    <BinaryTree type="DecisionTree" boostWeight="1.0000000000000000e+00" itree="253">
      <Node pos="s" depth="0" NCoef="0" IVar="6" Cut="8.5692502558231354e-02" cType="1" res="1.0521855205297470e-02" rms="4.7185337543487549e-01" purity="5.0400501489639282e-01" nType="0">
        <Node pos="l" depth="1" NCoef="0" IVar="0" Cut="1.5141285955905914e-01" cType="1" res="-1.1885394342243671e-02" rms="4.7139832377433777e-01" purity="4.6800687909126282e-01" nType="0">
          <Node pos="l" depth="2" NCoef="0" IVar="-1" Cut="0.0000000000000000e+00" cType="1" res="-9.5384853193536401e-04" rms="4.6823638677597046e-01" purity="4.3603089451789856e-01" nType="-99"/>
          <Node pos="r" depth="2" NCoef="0" IVar="-1" Cut="0.0000000000000000e+00" cType="1" res="1.2381966225802898e-03" rms="4.7696346044540405e-01" purity="5.7434642314910889e-01" nType="-99"/>
        </Node>
        <Node pos="r" depth="1" NCoef="0" IVar="2" Cut="5.0274462890625000e+02" cType="1" res="3.4469462931156158e-02" rms="4.7116264700889587e-01" purity="5.4247790575027466e-01" nType="0">
          <Node pos="l" depth="2" NCoef="0" IVar="-1" Cut="0.0000000000000000e+00" cType="1" res="2.1375522192101926e-04" rms="4.7516360878944397e-01" purity="4.6071586012840271e-01" nType="-99"/>
          <Node pos="r" depth="2" NCoef="0" IVar="-1" Cut="0.0000000000000000e+00" cType="1" res="1.6246140003204346e-03" rms="4.6437415480613708e-01" purity="6.3837295770645142e-01" nType="-99"/>
        </Node>
      </Node>
    </BinaryTree>
    <BinaryTree type="DecisionTree" boostWeight="1.0000000000000000e+00" itree="254">
      <Node pos="s" depth="0" NCoef="0" IVar="4" Cut="9.8119056224822998e-01" cType="1" res="5.7510514743626118e-03" rms="4.6930024027824402e-01" purity="5.0036573410034180e-01" nType="0">
        <Node pos="l" depth="1" NCoef="0" IVar="5" Cut="5.3634357452392578e-01" cType="1" res="-4.3621123768389225e-03" rms="4.7425290942192078e-01" purity="4.6370458602905273e-01" nType="0">
          <Node pos="l" depth="2" NCoef="0" IVar="-1" Cut="0.0000000000000000e+00" cType="1" res="-5.5708386935293674e-04" rms="4.7143664956092834e-01" purity="4.4160443544387817e-01" nType="-99"/>
          <Node pos="r" depth="2" NCoef="0" IVar="-1" Cut="0.0000000000000000e+00" cType="1" res="9.8204554524272680e-04" rms="4.8032733798027039e-01" purity="5.3007793426513672e-01" nType="-99"/>
        </Node>
        <Node pos="r" depth="1" NCoef="0" IVar="-1" Cut="0.0000000000000000e+00" cType="1" res="1.6122951637953520e-03" rms="4.3224468827247620e-01" purity="7.2686594724655151e-01" nType="-99"/>
      </Node>
    </BinaryTree>
    <BinaryTree type="DecisionTree" boostWeight="1.0000000000000000e+00" itree="255">
      <Node pos="s" depth="0" NCoef="0" IVar="4" Cut="9.8546850681304932e-01" cType="1" res="6.8661104887723923e-03" rms="4.7115504741668701e-01" purity="5.0068688392639160e-01" nType="0">
        <Node pos="l" depth="1" NCoef="0" IVar="3" Cut="1.4090058898925781e+02" cType="1" res="-6.6602684091776609e-04" rms="4.7511890530586243e-01" purity="4.7489324212074280e-01" nType="0">
          <Node pos="l" depth="2" NCoef="0" IVar="-1" Cut="0.0000000000000000e+00" cType="1" res="-2.2633909247815609e-04" rms="4.7546032071113586e-01" purity="4.6510061621665955e-01" nType="-99"/>
          <Node pos="r" depth="2" NCoef="0" IVar="-1" Cut="0.0000000000000000e+00" cType="1" res="1.8153691198676825e-03" rms="4.6589416265487671e-01" purity="5.7465064525604248e-01" nType="-99"/>
        </Node>
        <Node pos="r" depth="1" NCoef="0" IVar="-1" Cut="0.0000000000000000e+00" cType="1" res="1.8121758475899696e-03" rms="4.2566606402397156e-01" purity="7.4309837818145752e-01" nType="-99"/>
      </Node>
    </BinaryTree>
    <BinaryTree type="DecisionTree" boostWeight="1.0000000000000000e+00" itree="256">
      <Node pos="s" depth="0" NCoef="0" IVar="5" Cut="3.2947510480880737e-01" cType="1" res="1.0697267949581146e-02" rms="4.7006541490554810e-01" purity="5.0434213876724243e-01" nType="0">
        <Node pos="l" depth="1" NCoef="0" IVar="0" Cut="2.0622095465660095e-01" cType="1" res="-1.9497148692607880e-02" rms="4.6738630533218384e-01" purity="4.4481226801872253e-01" nType="0">
          <Node pos="l" depth="2" NCoef="0" IVar="-1" Cut="0.0000000000000000e+00" cType="1" res="-1.2447565095499158e-03" rms="4.6297582983970642e-01" purity="4.1540092229843140e-01" nType="-99"/>
          <Node pos="r" depth="2" NCoef="0" IVar="-1" Cut="0.0000000000000000e+00" cType="1" res="1.7979644471779466e-03" rms="4.7872224450111389e-01" purity="5.9254390001296997e-01" nType="-99"/>
        </Node>
        <Node pos="r" depth="1" NCoef="0" IVar="2" Cut="4.4353604125976562e+02" cType="1" res="3.0343655496835709e-02" rms="4.7076156735420227e-01" purity="5.4307603836059570e-01" nType="0">
          <Node pos="l" depth="2" NCoef="0" IVar="-1" Cut="0.0000000000000000e+00" cType="1" res="-3.0644342768937349e-04" rms="4.6892970800399780e-01" purity="4.1413024067878723e-01" nType="-99"/>
          <Node pos="r" depth="2" NCoef="0" IVar="-1" Cut="0.0000000000000000e+00" cType="1" res="1.2015198590233922e-03" rms="4.7053033113479614e-01" purity="5.9712427854537964e-01" nType="-99"/>
        </Node>
      </Node>
    </BinaryTree>
    <BinaryTree type="DecisionTree" boostWeight="1.0000000000000000e+00" itree="257">
      <Node pos="s" depth="0" NCoef="0" IVar="0" Cut="2.0794184505939484e-01" cType="1" res="2.6626405306160450e-03" rms="4.7060850262641907e-01" purity="4.9594995379447937e-01" nType="0">
        <Node pos="l" depth="1" NCoef="0" IVar="1" Cut="5.0950962305068970e-01" cType="1" res="-5.9299003332853317e-03" rms="4.7000914812088013e-01" purity="4.8332154750823975e-01" nType="0">
          <Node pos="l" depth="2" NCoef="0" IVar="-1" Cut="0.0000000000000000e+00" cType="1" res="-2.9621198773384094e-03" rms="4.4942495226860046e-01" purity="3.3077326416969299e-01" nType="-99"/>
          <Node pos="r" depth="2" NCoef="0" IVar="-1" Cut="0.0000000000000000e+00" cType="1" res="3.2368028769269586e-04" rms="4.7327879071235657e-01" purity="5.2063030004501343e-01" nType="-99"/>
        </Node>
        <Node pos="r" depth="1" NCoef="0" IVar="-1" Cut="0.0000000000000000e+00" cType="1" res="2.1074293181300163e-03" rms="4.6826139092445374e-01" purity="6.1856687068939209e-01" nType="-99"/>
      </Node>
    </BinaryTree>
    <BinaryTree type="DecisionTree" boostWeight="1.0000000000000000e+00" itree="258">
      <Node pos="s" depth="0" NCoef="0" IVar="4" Cut="9.6731382608413696e-01" cType="1" res="7.7381492592394352e-03" rms="4.6947821974754333e-01" purity="5.0162494182586670e-01" nType="0">
        <Node pos="l" depth="1" NCoef="0" IVar="0" Cut="1.7259101569652557e-01" cType="1" res="-7.6171704567968845e-03" rms="4.7460606694221497e-01" purity="4.3664559721946716e-01" nType="0">
          <Node pos="l" depth="2" NCoef="0" IVar="-1" Cut="0.0000000000000000e+00" cType="1" res="-5.6657736422494054e-04" rms="4.7144994139671326e-01" purity="4.1912469267845154e-01" nType="-99"/>
          <Node pos="r" depth="2" NCoef="0" IVar="-1" Cut="0.0000000000000000e+00" cType="1" res="1.3605192070826888e-03" rms="4.8845830559730530e-01" purity="5.3885602951049805e-01" nType="-99"/>
        </Node>
        <Node pos="r" depth="1" NCoef="0" IVar="2" Cut="5.0475653076171875e+02" cType="1" res="4.5804377645254135e-02" rms="4.5428514480590820e-01" purity="6.6271036863327026e-01" nType="0">
          <Node pos="l" depth="2" NCoef="0" IVar="-1" Cut="0.0000000000000000e+00" cType="1" res="3.8795798900537193e-04" rms="4.7200268507003784e-01" purity="5.9079337120056152e-01" nType="-99"/>
          <Node pos="r" depth="2" NCoef="0" IVar="-1" Cut="0.0000000000000000e+00" cType="1" res="1.6194691415876150e-03" rms="4.3972724676132202e-01" purity="7.1456784009933472e-01" nType="-99"/>
        </Node>
      </Node>
    </BinaryTree>
    <BinaryTree type="DecisionTree" boostWeight="1.0000000000000000e+00" itree="259">
      <Node pos="s" depth="0" NCoef="0" IVar="3" Cut="1.3989184570312500e+02" cType="1" res="5.4561463184654713e-03" rms="4.7059145569801331e-01" purity="4.9872392416000366e-01" nType="0">
        <Node pos="l" depth="1" NCoef="0" IVar="0" Cut="6.5640695393085480e-02" cType="1" res="-3.7882926408201456e-03" rms="4.7101211547851562e-01" purity="4.8598051071166992e-01" nType="0">
          <Node pos="l" depth="2" NCoef="0" IVar="-1" Cut="0.0000000000000000e+00" cType="1" res="-7.2835537139326334e-04" rms="4.6736174821853638e-01" purity="4.5174190402030945e-01" nType="-99"/>
          <Node pos="r" depth="2" NCoef="0" IVar="-1" Cut="0.0000000000000000e+00" cType="1" res="9.1088906629011035e-04" rms="4.7570410370826721e-01" purity="5.5204743146896362e-01" nType="-99"/>
        </Node>
        <Node pos="r" depth="1" NCoef="0" IVar="-1" Cut="0.0000000000000000e+00" cType="1" res="2.1996814757585526e-03" rms="4.5865949988365173e-01" purity="6.1234855651855469e-01" nType="-99"/>
      </Node>
    </BinaryTree>
    <BinaryTree type="DecisionTree" boostWeight="1.0000000000000000e+00" itree="260">
      <Node pos="s" depth="0" NCoef="0" IVar="4" Cut="9.4919043779373169e-01" cType="1" res="8.7232524529099464e-03" rms="4.6950945258140564e-01" purity="5.0352931022644043e-01" nType="0">
        <Node pos="l" depth="1" NCoef="0" IVar="2" Cut="8.1179998779296875e+02" cType="1" res="-2.0390249788761139e-02" rms="4.7064182162284851e-01" purity="3.9438393712043762e-01" nType="0">
          <Node pos="l" depth="2" NCoef="0" IVar="-1" Cut="0.0000000000000000e+00" cType="1" res="-9.6927041886374354e-04" rms="4.6777936816215515e-01" purity="3.7670120596885681e-01" nType="-99"/>
          <Node pos="r" depth="2" NCoef="0" IVar="-1" Cut="0.0000000000000000e+00" cType="1" res="1.0483935475349426e-03" rms="4.8744738101959229e-01" purity="5.2566921710968018e-01" nType="-99"/>
        </Node>
        <Node pos="r" depth="1" NCoef="0" IVar="0" Cut="1.5123321115970612e-01" cType="1" res="3.2417438924312592e-02" rms="4.6724882721900940e-01" purity="5.9235781431198120e-01" nType="0">
          <Node pos="l" depth="2" NCoef="0" IVar="-1" Cut="0.0000000000000000e+00" cType="1" res="5.3150096209719777e-04" rms="4.7031220793724060e-01" purity="5.7205575704574585e-01" nType="-99"/>
          <Node pos="r" depth="2" NCoef="0" IVar="-1" Cut="0.0000000000000000e+00" cType="1" res="2.1360195241868496e-03" rms="4.4751861691474915e-01" purity="6.8989336490631104e-01" nType="-99"/>
        </Node>
      </Node>
    </BinaryTree>
    <BinaryTree type="DecisionTree" boostWeight="1.0000000000000000e+00" itree="261">
      <Node pos="s" depth="0" NCoef="0" IVar="8" Cut="1.0751180648803711e+00" cType="1" res="4.4635795056819916e-03" rms="4.7031351923942566e-01" purity="4.9829810857772827e-01" nType="0">
        <Node pos="l" depth="1" NCoef="0" IVar="4" Cut="9.6734958887100220e-01" cType="1" res="2.8011186048388481e-02" rms="4.7117698192596436e-01" purity="5.4012584686279297e-01" nType="0">
          <Node pos="l" depth="2" NCoef="0" IVar="-1" Cut="0.0000000000000000e+00" cType="1" res="3.6799747613258660e-04" rms="4.8056039214134216e-01" purity="4.7602161765098572e-01" nType="-99"/>
          <Node pos="r" depth="2" NCoef="0" IVar="-1" Cut="0.0000000000000000e+00" cType="1" res="1.5584294451400638e-03" rms="4.4527372717857361e-01" purity="6.9636434316635132e-01" nType="-99"/>
        </Node>
        <Node pos="r" depth="1" NCoef="0" IVar="5" Cut="5.0168973207473755e-01" cType="1" res="-2.1830152720212936e-02" rms="4.6794933080673218e-01" purity="4.5159232616424561e-01" nType="0">
          <Node pos="l" depth="2" NCoef="0" IVar="-1" Cut="0.0000000000000000e+00" cType="1" res="-1.3436344452202320e-03" rms="4.6359038352966309e-01" purity="4.1496253013610840e-01" nType="-99"/>
          <Node pos="r" depth="2" NCoef="0" IVar="-1" Cut="0.0000000000000000e+00" cType="1" res="4.8424565466120839e-04" rms="4.7447031736373901e-01" purity="5.2761578559875488e-01" nType="-99"/>
        </Node>
      </Node>
    </BinaryTree>
    <BinaryTree type="DecisionTree" boostWeight="1.0000000000000000e+00" itree="262">
      <Node pos="s" depth="0" NCoef="0" IVar="2" Cut="6.0277972412109375e+02" cType="1" res="5.5996966548264027e-03" rms="4.7083568572998047e-01" purity="4.9893066287040710e-01" nType="0">
        <Node pos="l" depth="1" NCoef="0" IVar="6" Cut="8.5780464112758636e-02" cType="1" res="-1.0458333417773247e-02" rms="4.6912583708763123e-01" purity="4.5273223519325256e-01" nType="0">
          <Node pos="l" depth="2" NCoef="0" IVar="-1" Cut="0.0000000000000000e+00" cType="1" res="-1.5181631315499544e-03" rms="4.6015155315399170e-01" purity="3.9185249805450439e-01" nType="-99"/>
          <Node pos="r" depth="2" NCoef="0" IVar="-1" Cut="0.0000000000000000e+00" cType="1" res="4.4028379488736391e-04" rms="4.7413435578346252e-01" purity="4.9852606654167175e-01" nType="-99"/>
        </Node>
        <Node pos="r" depth="1" NCoef="0" IVar="3" Cut="1.3396621704101562e+02" cType="1" res="3.6342661827802658e-02" rms="4.7257208824157715e-01" purity="5.8737736940383911e-01" nType="0">
          <Node pos="l" depth="2" NCoef="0" IVar="-1" Cut="0.0000000000000000e+00" cType="1" res="5.4911518236622214e-04" rms="4.7513279318809509e-01" purity="5.6995290517807007e-01" nType="-99"/>
          <Node pos="r" depth="2" NCoef="0" IVar="-1" Cut="0.0000000000000000e+00" cType="1" res="2.5463984347879887e-03" rms="4.5439252257347107e-01" purity="6.6494083404541016e-01" nType="-99"/>
        </Node>
      </Node>
    </BinaryTree>
    <BinaryTree type="DecisionTree" boostWeight="1.0000000000000000e+00" itree="263">
      <Node pos="s" depth="0" NCoef="0" IVar="2" Cut="4.2421990966796875e+02" cType="1" res="5.8357217349112034e-03" rms="4.6989190578460693e-01" purity="5.0010615587234497e-01" nType="0">
        <Node pos="l" depth="1" NCoef="0" IVar="8" Cut="1.1442117691040039e+00" cType="1" res="-4.4388301670551300e-02" rms="4.5367905497550964e-01" purity="3.4464424848556519e-01" nType="0">
          <Node pos="l" depth="2" NCoef="0" IVar="-1" Cut="0.0000000000000000e+00" cType="1" res="-3.7302245618775487e-04" rms="4.6877771615982056e-01" purity="3.8957619667053223e-01" nType="-99"/>
          <Node pos="r" depth="2" NCoef="0" IVar="-1" Cut="0.0000000000000000e+00" cType="1" res="-3.0896659009158611e-03" rms="4.3644514679908752e-01" purity="3.0186668038368225e-01" nType="-99"/>
        </Node>
        <Node pos="r" depth="1" NCoef="0" IVar="5" Cut="1.2458729743957520e-01" cType="1" res="1.8924796953797340e-02" rms="4.7315117716789246e-01" purity="5.4062169790267944e-01" nType="0">
          <Node pos="l" depth="2" NCoef="0" IVar="-1" Cut="0.0000000000000000e+00" cType="1" res="-2.8417157009243965e-03" rms="4.5750197768211365e-01" purity="3.7130975723266602e-01" nType="-99"/>
          <Node pos="r" depth="2" NCoef="0" IVar="-1" Cut="0.0000000000000000e+00" cType="1" res="7.1154639590531588e-04" rms="4.7347939014434814e-01" purity="5.5342590808868408e-01" nType="-99"/>
        </Node>
      </Node>
    </BinaryTree>
    <BinaryTree type="DecisionTree" boostWeight="1.0000000000000000e+00" itree="264">
      <Node pos="s" depth="0" NCoef="0" IVar="4" Cut="9.3160045146942139e-01" cType="1" res="3.7905042991042137e-03" rms="4.6999511122703552e-01" purity="4.9797451496124268e-01" nType="0">
        <Node pos="l" depth="1" NCoef="0" IVar="0" Cut="6.3986994326114655e-02" cType="1" res="-3.8367141038179398e-02" rms="4.5801684260368347e-01" purity="3.5283628106117249e-01" nType="0">
          <Node pos="l" depth="2" NCoef="0" IVar="-1" Cut="0.0000000000000000e+00" cType="1" res="-2.2543729282915592e-03" rms="4.4484698772430420e-01" purity="3.1716191768646240e-01" nType="-99"/>
          <Node pos="r" depth="2" NCoef="0" IVar="-1" Cut="0.0000000000000000e+00" cType="1" res="-8.6552325228694826e-05" rms="4.7940236330032349e-01" purity="4.1884833574295044e-01" nType="-99"/>
        </Node>
        <Node pos="r" depth="1" NCoef="0" IVar="2" Cut="4.1455291748046875e+02" cType="1" res="1.6089431941509247e-02" rms="4.7272461652755737e-01" purity="5.4031664133071899e-01" nType="0">
          <Node pos="l" depth="2" NCoef="0" IVar="-1" Cut="0.0000000000000000e+00" cType="1" res="-1.2378382962197065e-03" rms="4.6603184938430786e-01" purity="3.8243320584297180e-01" nType="-99"/>
          <Node pos="r" depth="2" NCoef="0" IVar="-1" Cut="0.0000000000000000e+00" cType="1" res="7.1909528924152255e-04" rms="4.7340324521064758e-01" purity="5.7414072751998901e-01" nType="-99"/>
        </Node>
      </Node>
    </BinaryTree>
    <BinaryTree type="DecisionTree" boostWeight="1.0000000000000000e+00" itree="265">
      <Node pos="s" depth="0" NCoef="0" IVar="0" Cut="-2.6615710929036140e-02" cType="1" res="5.1040444523096085e-03" rms="4.6990764141082764e-01" purity="4.9876570701599121e-01" nType="0">
        <Node pos="l" depth="1" NCoef="0" IVar="1" Cut="7.6948720216751099e-01" cType="1" res="-2.2989867255091667e-02" rms="4.6471536159515381e-01" purity="4.4577333331108093e-01" nType="0">
          <Node pos="l" depth="2" NCoef="0" IVar="-1" Cut="0.0000000000000000e+00" cType="1" res="-2.0828729029744864e-03" rms="4.5695331692695618e-01" purity="3.6401304602622986e-01" nType="-99"/>
          <Node pos="r" depth="2" NCoef="0" IVar="-1" Cut="0.0000000000000000e+00" cType="1" res="1.0365705238655210e-03" rms="4.7223633527755737e-01" purity="5.9687465429306030e-01" nType="-99"/>
        </Node>
        <Node pos="r" depth="1" NCoef="0" IVar="4" Cut="9.2282414436340332e-01" cType="1" res="2.4411685764789581e-02" rms="4.7247549891471863e-01" purity="5.3518491983413696e-01" nType="0">
          <Node pos="l" depth="2" NCoef="0" IVar="-1" Cut="0.0000000000000000e+00" cType="1" res="-9.8980974871665239e-04" rms="4.6940225362777710e-01" purity="3.7478673458099365e-01" nType="-99"/>
          <Node pos="r" depth="2" NCoef="0" IVar="-1" Cut="0.0000000000000000e+00" cType="1" res="9.0876815374940634e-04" rms="4.7238367795944214e-01" purity="5.6406092643737793e-01" nType="-99"/>
        </Node>
      </Node>
    </BinaryTree>
    <BinaryTree type="DecisionTree" boostWeight="1.0000000000000000e+00" itree="266">
      <Node pos="s" depth="0" NCoef="0" IVar="2" Cut="5.2811322021484375e+02" cType="1" res="7.4457540176808834e-03" rms="4.6956017613410950e-01" purity="5.0098556280136108e-01" nType="0">
        <Node pos="l" depth="1" NCoef="0" IVar="2" Cut="3.8200976562500000e+02" cType="1" res="-1.7719557508826256e-02" rms="4.6581771969795227e-01" purity="4.2323487997055054e-01" nType="0">
          <Node pos="l" depth="2" NCoef="0" IVar="-1" Cut="0.0000000000000000e+00" cType="1" res="-3.4426350612193346e-03" rms="4.3359979987144470e-01" purity="2.9148635268211365e-01" nType="-99"/>
          <Node pos="r" depth="2" NCoef="0" IVar="-1" Cut="0.0000000000000000e+00" cType="1" res="-2.3515944121754728e-05" rms="4.7235813736915588e-01" purity="4.5746290683746338e-01" nType="-99"/>
        </Node>
        <Node pos="r" depth="1" NCoef="0" IVar="3" Cut="1.3614717102050781e+02" cType="1" res="3.2264627516269684e-02" rms="4.7190955281257629e-01" purity="5.7766586542129517e-01" nType="0">
          <Node pos="l" depth="2" NCoef="0" IVar="-1" Cut="0.0000000000000000e+00" cType="1" res="5.4748007096350193e-04" rms="4.7371140122413635e-01" purity="5.6453311443328857e-01" nType="-99"/>
          <Node pos="r" depth="2" NCoef="0" IVar="-1" Cut="0.0000000000000000e+00" cType="1" res="2.3186183534562588e-03" rms="4.5647177100181580e-01" purity="6.4991229772567749e-01" nType="-99"/>
        </Node>
      </Node>
    </BinaryTree>
    <BinaryTree type="DecisionTree" boostWeight="1.0000000000000000e+00" itree="267">
      <Node pos="s" depth="0" NCoef="0" IVar="0" Cut="8.0490596592426300e-02" cType="1" res="6.9869561120867729e-03" rms="4.6962723135948181e-01" purity="5.0064289569854736e-01" nType="0">
        <Node pos="l" depth="1" NCoef="0" IVar="1" Cut="6.5992611646652222e-01" cType="1" res="-8.9632989838719368e-03" rms="4.6802172064781189e-01" purity="4.7080048918724060e-01" nType="0">
          <Node pos="l" depth="2" NCoef="0" IVar="-1" Cut="0.0000000000000000e+00" cType="1" res="-1.9532411824911833e-03" rms="4.5448127388954163e-01" purity="3.4650588035583496e-01" nType="-99"/>
          <Node pos="r" depth="2" NCoef="0" IVar="-1" Cut="0.0000000000000000e+00" cType="1" res="6.1732408357784152e-04" rms="4.7528576850891113e-01" purity="5.6299877166748047e-01" nType="-99"/>
        </Node>
        <Node pos="r" depth="1" NCoef="0" IVar="4" Cut="9.5059591531753540e-01" cType="1" res="4.2553495615720749e-02" rms="4.7124755382537842e-01" purity="5.6718683242797852e-01" nType="0">
          <Node pos="l" depth="2" NCoef="0" IVar="-1" Cut="0.0000000000000000e+00" cType="1" res="3.3412064658477902e-04" rms="4.8472833633422852e-01" purity="4.6257588267326355e-01" nType="-99"/>
          <Node pos="r" depth="2" NCoef="0" IVar="-1" Cut="0.0000000000000000e+00" cType="1" res="1.7268550582230091e-03" rms="4.5639893412590027e-01" purity="6.6477841138839722e-01" nType="-99"/>
        </Node>
      </Node>
    </BinaryTree>
    <BinaryTree type="DecisionTree" boostWeight="1.0000000000000000e+00" itree="268">
      <Node pos="s" depth="0" NCoef="0" IVar="6" Cut="1.0976263135671616e-01" cType="1" res="1.0995204560458660e-02" rms="4.7073173522949219e-01" purity="5.0481569766998291e-01" nType="0">
        <Node pos="l" depth="1" NCoef="0" IVar="2" Cut="7.5759210205078125e+02" cType="1" res="-7.1781789883971214e-03" rms="4.7013914585113525e-01" purity="4.7695153951644897e-01" nType="0">
          <Node pos="l" depth="2" NCoef="0" IVar="-1" Cut="0.0000000000000000e+00" cType="1" res="-6.9899728987365961e-04" rms="4.6899604797363281e-01" purity="4.4455301761627197e-01" nType="-99"/>
          <Node pos="r" depth="2" NCoef="0" IVar="-1" Cut="0.0000000000000000e+00" cType="1" res="1.3036675518378615e-03" rms="4.7003713250160217e-01" purity="6.0074824094772339e-01" nType="-99"/>
        </Node>
        <Node pos="r" depth="1" NCoef="0" IVar="2" Cut="5.5878826904296875e+02" cType="1" res="4.3380521237850189e-02" rms="4.7004738450050354e-01" purity="5.5447006225585938e-01" nType="0">
          <Node pos="l" depth="2" NCoef="0" IVar="-1" Cut="0.0000000000000000e+00" cType="1" res="7.3177122976630926e-04" rms="4.7634014487266541e-01" purity="5.0482237339019775e-01" nType="-99"/>
          <Node pos="r" depth="2" NCoef="0" IVar="-1" Cut="0.0000000000000000e+00" cType="1" res="2.1452077198773623e-03" rms="4.4975936412811279e-01" purity="6.8518233299255371e-01" nType="-99"/>
        </Node>
      </Node>
    </BinaryTree>
    <BinaryTree type="DecisionTree" boostWeight="1.0000000000000000e+00" itree="269">
      <Node pos="s" depth="0" NCoef="0" IVar="1" Cut="7.7023953199386597e-01" cType="1" res="3.2611484639346600e-03" rms="4.6941649913787842e-01" purity="4.9745902419090271e-01" nType="0">
        <Node pos="l" depth="1" NCoef="0" IVar="0" Cut="-3.6334306001663208e-02" cType="1" res="-9.8535278812050819e-03" rms="4.6938183903694153e-01" purity="4.6344852447509766e-01" nType="0">
          <Node pos="l" depth="2" NCoef="0" IVar="-1" Cut="0.0000000000000000e+00" cType="1" res="-2.2682449780404568e-03" rms="4.5540577173233032e-01" purity="3.5758301615715027e-01" nType="-99"/>
          <Node pos="r" depth="2" NCoef="0" IVar="-1" Cut="0.0000000000000000e+00" cType="1" res="4.0558431646786630e-04" rms="4.7380554676055908e-01" purity="5.1267635822296143e-01" nType="-99"/>
        </Node>
        <Node pos="r" depth="1" NCoef="0" IVar="2" Cut="6.2388500976562500e+02" cType="1" res="4.8606533557176590e-02" rms="4.6670481562614441e-01" purity="6.1505377292633057e-01" nType="0">
          <Node pos="l" depth="2" NCoef="0" IVar="-1" Cut="0.0000000000000000e+00" cType="1" res="8.5615058196708560e-04" rms="4.7488903999328613e-01" purity="5.7114601135253906e-01" nType="-99"/>
          <Node pos="r" depth="2" NCoef="0" IVar="-1" Cut="0.0000000000000000e+00" cType="1" res="1.7790407873690128e-03" rms="4.5148992538452148e-01" purity="6.8824958801269531e-01" nType="-99"/>
        </Node>
      </Node>
    </BinaryTree>
    <BinaryTree type="DecisionTree" boostWeight="1.0000000000000000e+00" itree="270">
      <Node pos="s" depth="0" NCoef="0" IVar="1" Cut="8.1935375928878784e-01" cType="1" res="8.4802694618701935e-03" rms="4.6956232190132141e-01" purity="5.0229752063751221e-01" nType="0">
        <Node pos="l" depth="1" NCoef="0" IVar="0" Cut="2.5267209857702255e-02" cType="1" res="-7.9858797835186124e-04" rms="4.6966382861137390e-01" purity="4.8095110058784485e-01" nType="0">
          <Node pos="l" depth="2" NCoef="0" IVar="-1" Cut="0.0000000000000000e+00" cType="1" res="-9.9305156618356705e-04" rms="4.6461755037307739e-01" purity="4.1902792453765869e-01" nType="-99"/>
          <Node pos="r" depth="2" NCoef="0" IVar="-1" Cut="0.0000000000000000e+00" cType="1" res="8.0775882815942168e-04" rms="4.7294378280639648e-01" purity="5.4551577568054199e-01" nType="-99"/>
        </Node>
        <Node pos="r" depth="1" NCoef="0" IVar="7" Cut="8.4575103759765625e+01" cType="1" res="6.6194452345371246e-02" rms="4.6478956937789917e-01" purity="6.3507139682769775e-01" nType="0">
          <Node pos="l" depth="2" NCoef="0" IVar="-1" Cut="0.0000000000000000e+00" cType="1" res="1.0657523525878787e-03" rms="4.7186210751533508e-01" purity="5.9318339824676514e-01" nType="-99"/>
          <Node pos="r" depth="2" NCoef="0" IVar="-1" Cut="0.0000000000000000e+00" cType="1" res="2.0303113851696253e-03" rms="4.5816755294799805e-01" purity="6.6879683732986450e-01" nType="-99"/>
        </Node>
      </Node>
    </BinaryTree>
    <BinaryTree type="DecisionTree" boostWeight="1.0000000000000000e+00" itree="271">
      <Node pos="s" depth="0" NCoef="0" IVar="4" Cut="9.2618978023529053e-01" cType="1" res="9.6456976607441902e-03" rms="4.6953833103179932e-01" purity="5.0425070524215698e-01" nType="0">
        <Node pos="l" depth="1" NCoef="0" IVar="8" Cut="8.2921886444091797e-01" cType="1" res="-4.1184391826391220e-02" rms="4.5822137594223022e-01" purity="3.4440839290618896e-01" nType="0">
          <Node pos="l" depth="2" NCoef="0" IVar="-1" Cut="0.0000000000000000e+00" cType="1" res="-7.9439414548687637e-05" rms="4.7525873780250549e-01" purity="4.1101020574569702e-01" nType="-99"/>
          <Node pos="r" depth="2" NCoef="0" IVar="-1" Cut="0.0000000000000000e+00" cType="1" res="-2.1871200297027826e-03" rms="4.5020192861557007e-01" purity="3.1747373938560486e-01" nType="-99"/>
        </Node>
        <Node pos="r" depth="1" NCoef="0" IVar="0" Cut="-8.1283167004585266e-02" cType="1" res="2.0488923415541649e-02" rms="4.7120830416679382e-01" purity="5.3834879398345947e-01" nType="0">
          <Node pos="l" depth="2" NCoef="0" IVar="-1" Cut="0.0000000000000000e+00" cType="1" res="-9.0659671695902944e-04" rms="4.6734756231307983e-01" purity="4.4466149806976318e-01" nType="-99"/>
          <Node pos="r" depth="2" NCoef="0" IVar="-1" Cut="0.0000000000000000e+00" cType="1" res="8.6632778402417898e-04" rms="4.7136431932449341e-01" purity="5.6079804897308350e-01" nType="-99"/>
        </Node>
      </Node>
    </BinaryTree>
    <BinaryTree type="DecisionTree" boostWeight="1.0000000000000000e+00" itree="272">
      <Node pos="s" depth="0" NCoef="0" IVar="6" Cut="2.0523272454738617e-01" cType="1" res="7.0922519080340862e-03" rms="4.7026807069778442e-01" purity="5.0135374069213867e-01" nType="0">
        <Node pos="l" depth="1" NCoef="0" IVar="0" Cut="1.3251693546772003e-01" cType="1" res="5.3183732234174386e-05" rms="4.7029876708984375e-01" purity="4.9191781878471375e-01" nType="0">
          <Node pos="l" depth="2" NCoef="0" IVar="-1" Cut="0.0000000000000000e+00" cType="1" res="-3.9601931348443031e-04" rms="4.6836766600608826e-01" purity="4.6746763586997986e-01" nType="-99"/>
          <Node pos="r" depth="2" NCoef="0" IVar="-1" Cut="0.0000000000000000e+00" cType="1" res="1.1847109999507666e-03" rms="4.7419917583465576e-01" purity="5.7756531238555908e-01" nType="-99"/>
        </Node>
        <Node pos="r" depth="1" NCoef="0" IVar="-1" Cut="0.0000000000000000e+00" cType="1" res="2.0131627097725868e-03" rms="4.6374163031578064e-01" purity="5.9881317615509033e-01" nType="-99"/>
      </Node>
    </BinaryTree>
    <BinaryTree type="DecisionTree" boostWeight="1.0000000000000000e+00" itree="273">
      <Node pos="s" depth="0" NCoef="0" IVar="8" Cut="9.6392375230789185e-01" cType="1" res="4.2565632611513138e-03" rms="4.6990227699279785e-01" purity="4.9842885136604309e-01" nType="0">
        <Node pos="l" depth="1" NCoef="0" IVar="4" Cut="9.2306959629058838e-01" cType="1" res="3.6084633320569992e-02" rms="4.7029528021812439e-01" purity="5.5158424377441406e-01" nType="0">
          <Node pos="l" depth="2" NCoef="0" IVar="-1" Cut="0.0000000000000000e+00" cType="1" res="-7.3994812555611134e-04" rms="4.6861365437507629e-01" purity="3.8702431321144104e-01" nType="-99"/>
          <Node pos="r" depth="2" NCoef="0" IVar="-1" Cut="0.0000000000000000e+00" cType="1" res="1.2070242082700133e-03" rms="4.6985724568367004e-01" purity="5.8021265268325806e-01" nType="-99"/>
        </Node>
        <Node pos="r" depth="1" NCoef="0" IVar="2" Cut="5.9827734375000000e+02" cType="1" res="-1.9238691776990891e-02" rms="4.6822595596313477e-01" purity="4.5918986201286316e-01" nType="0">
          <Node pos="l" depth="2" NCoef="0" IVar="-1" Cut="0.0000000000000000e+00" cType="1" res="-1.1454027844592929e-03" rms="4.6494024991989136e-01" purity="4.1645306348800659e-01" nType="-99"/>
          <Node pos="r" depth="2" NCoef="0" IVar="-1" Cut="0.0000000000000000e+00" cType="1" res="5.4202141473069787e-04" rms="4.7401294112205505e-01" purity="5.6549000740051270e-01" nType="-99"/>
        </Node>
      </Node>
    </BinaryTree>
    <BinaryTree type="DecisionTree" boostWeight="1.0000000000000000e+00" itree="274">
      <Node pos="s" depth="0" NCoef="0" IVar="0" Cut="9.8108023405075073e-02" cType="1" res="8.6314519867300987e-03" rms="4.7027295827865601e-01" purity="5.0225555896759033e-01" nType="0">
        <Node pos="l" depth="1" NCoef="0" IVar="1" Cut="7.2329407930374146e-01" cType="1" res="-5.8802445419132710e-03" rms="4.6795812249183655e-01" purity="4.7571629285812378e-01" nType="0">
          <Node pos="l" depth="2" NCoef="0" IVar="-1" Cut="0.0000000000000000e+00" cType="1" res="-1.1724791256710887e-03" rms="4.6341446042060852e-01" purity="3.9429700374603271e-01" nType="-99"/>
          <Node pos="r" depth="2" NCoef="0" IVar="-1" Cut="0.0000000000000000e+00" cType="1" res="8.8615517597645521e-04" rms="4.7138634324073792e-01" purity="5.9071046113967896e-01" nType="-99"/>
        </Node>
        <Node pos="r" depth="1" NCoef="0" IVar="8" Cut="9.6569263935089111e-01" cType="1" res="4.7688737511634827e-02" rms="4.7424650192260742e-01" purity="5.7368433475494385e-01" nType="0">
          <Node pos="l" depth="2" NCoef="0" IVar="-1" Cut="0.0000000000000000e+00" cType="1" res="1.8540800083428621e-03" rms="4.6676871180534363e-01" purity="6.1960399150848389e-01" nType="-99"/>
          <Node pos="r" depth="2" NCoef="0" IVar="-1" Cut="0.0000000000000000e+00" cType="1" res="7.6984113547950983e-04" rms="4.7869548201560974e-01" purity="5.4020953178405762e-01" nType="-99"/>
        </Node>
      </Node>
    </BinaryTree>
    <BinaryTree type="DecisionTree" boostWeight="1.0000000000000000e+00" itree="275">
      <Node pos="s" depth="0" NCoef="0" IVar="8" Cut="9.6392375230789185e-01" cType="1" res="9.7314510494470596e-03" rms="4.7042167186737061e-01" purity="5.0387990474700928e-01" nType="0">
        <Node pos="l" depth="1" NCoef="0" IVar="0" Cut="1.0054557770490646e-01" cType="1" res="3.7182424217462540e-02" rms="4.7080048918724060e-01" purity="5.5253982543945312e-01" nType="0">
          <Node pos="l" depth="2" NCoef="0" IVar="-1" Cut="0.0000000000000000e+00" cType="1" res="5.7966809254139662e-04" rms="4.7145041823387146e-01" purity="5.2530705928802490e-01" nType="-99"/>
          <Node pos="r" depth="2" NCoef="0" IVar="-1" Cut="0.0000000000000000e+00" cType="1" res="2.0063468255102634e-03" rms="4.6611580252647400e-01" purity="6.2603062391281128e-01" nType="-99"/>
        </Node>
        <Node pos="r" depth="1" NCoef="0" IVar="2" Cut="6.0237292480468750e+02" cType="1" res="-1.0018864646553993e-02" rms="4.6915641427040100e-01" purity="4.6887028217315674e-01" nType="0">
          <Node pos="l" depth="2" NCoef="0" IVar="-1" Cut="0.0000000000000000e+00" cType="1" res="-8.4524851990863681e-04" rms="4.6716672182083130e-01" purity="4.2570218443870544e-01" nType="-99"/>
          <Node pos="r" depth="2" NCoef="0" IVar="-1" Cut="0.0000000000000000e+00" cType="1" res="8.4611511556431651e-04" rms="4.7167867422103882e-01" purity="5.8016264438629150e-01" nType="-99"/>
        </Node>
      </Node>
    </BinaryTree>
    <BinaryTree type="DecisionTree" boostWeight="1.0000000000000000e+00" itree="276">
      <Node pos="s" depth="0" NCoef="0" IVar="4" Cut="9.8561698198318481e-01" cType="1" res="2.9648968484252691e-03" rms="4.6890872716903687e-01" purity="4.9760586023330688e-01" nType="0">
        <Node pos="l" depth="1" NCoef="0" IVar="3" Cut="1.4670877075195312e+02" cType="1" res="-5.0258608534932137e-03" rms="4.7300550341606140e-01" purity="4.7121816873550415e-01" nType="0">
          <Node pos="l" depth="2" NCoef="0" IVar="-1" Cut="0.0000000000000000e+00" cType="1" res="-3.6358938086777925e-04" rms="4.7306346893310547e-01" purity="4.6155539155006409e-01" nType="-99"/>
          <Node pos="r" depth="2" NCoef="0" IVar="-1" Cut="0.0000000000000000e+00" cType="1" res="2.0715531427413225e-03" rms="4.6381905674934387e-01" purity="5.9070503711700439e-01" nType="-99"/>
        </Node>
        <Node pos="r" depth="1" NCoef="0" IVar="-1" Cut="0.0000000000000000e+00" cType="1" res="1.8449183553457260e-03" rms="4.2054301500320435e-01" purity="7.4824315309524536e-01" nType="-99"/>
      </Node>
    </BinaryTree>
    <BinaryTree type="DecisionTree" boostWeight="1.0000000000000000e+00" itree="277">
      <Node pos="s" depth="0" NCoef="0" IVar="3" Cut="1.4090109252929688e+02" cType="1" res="7.2021437808871269e-03" rms="4.6885931491851807e-01" purity="5.0258076190948486e-01" nType="0">
        <Node pos="l" depth="1" NCoef="0" IVar="4" Cut="9.3983954191207886e-01" cType="1" res="-1.6331790247932076e-03" rms="4.6931454539299011e-01" purity="4.9024397134780884e-01" nType="0">
          <Node pos="l" depth="2" NCoef="0" IVar="-1" Cut="0.0000000000000000e+00" cType="1" res="-1.3942094519734383e-03" rms="4.6174284815788269e-01" purity="3.5674598813056946e-01" nType="-99"/>
          <Node pos="r" depth="2" NCoef="0" IVar="-1" Cut="0.0000000000000000e+00" cType="1" res="4.1721740853972733e-04" rms="4.7176796197891235e-01" purity="5.5135893821716309e-01" nType="-99"/>
        </Node>
        <Node pos="r" depth="1" NCoef="0" IVar="-1" Cut="0.0000000000000000e+00" cType="1" res="2.2590188309550285e-03" rms="4.5617875456809998e-01" purity="6.1907058954238892e-01" nType="-99"/>
      </Node>
    </BinaryTree>
    <BinaryTree type="DecisionTree" boostWeight="1.0000000000000000e+00" itree="278">
      <Node pos="s" depth="0" NCoef="0" IVar="1" Cut="5.5760627985000610e-01" cType="1" res="9.9920164793729782e-03" rms="4.7088733315467834e-01" purity="5.0380003452301025e-01" nType="0">
        <Node pos="l" depth="1" NCoef="0" IVar="0" Cut="1.3259069621562958e-01" cType="1" res="-2.1084576845169067e-02" rms="4.6362695097923279e-01" purity="4.2272371053695679e-01" nType="0">
          <Node pos="l" depth="2" NCoef="0" IVar="-1" Cut="0.0000000000000000e+00" cType="1" res="-2.5256585795432329e-03" rms="4.4746327400207520e-01" purity="3.1976652145385742e-01" nType="-99"/>
          <Node pos="r" depth="2" NCoef="0" IVar="-1" Cut="0.0000000000000000e+00" cType="1" res="8.8833371410146356e-04" rms="4.7807574272155762e-01" purity="5.5476033687591553e-01" nType="-99"/>
        </Node>
        <Node pos="r" depth="1" NCoef="0" IVar="2" Cut="6.4898425292968750e+02" cType="1" res="2.6476912200450897e-02" rms="4.7386702895164490e-01" purity="5.4680782556533813e-01" nType="0">
          <Node pos="l" depth="2" NCoef="0" IVar="-1" Cut="0.0000000000000000e+00" cType="1" res="3.3593567786738276e-04" rms="4.7648268938064575e-01" purity="5.0857728719711304e-01" nType="-99"/>
          <Node pos="r" depth="2" NCoef="0" IVar="-1" Cut="0.0000000000000000e+00" cType="1" res="1.5271812444552779e-03" rms="4.6553972363471985e-01" purity="6.3979470729827881e-01" nType="-99"/>
        </Node>
      </Node>
    </BinaryTree>
    <BinaryTree type="DecisionTree" boostWeight="1.0000000000000000e+00" itree="279">
      <Node pos="s" depth="0" NCoef="0" IVar="0" Cut="-8.1430345773696899e-02" cType="1" res="2.7260074857622385e-03" rms="4.6977916359901428e-01" purity="4.9699378013610840e-01" nType="0">
        <Node pos="l" depth="1" NCoef="0" IVar="1" Cut="7.7241182327270508e-01" cType="1" res="-4.1450649499893188e-02" rms="4.5832201838493347e-01" purity="4.1088834404945374e-01" nType="0">
          <Node pos="l" depth="2" NCoef="0" IVar="-1" Cut="0.0000000000000000e+00" cType="1" res="-2.8084898367524147e-03" rms="4.4915175437927246e-01" purity="3.3002877235412598e-01" nType="-99"/>
          <Node pos="r" depth="2" NCoef="0" IVar="-1" Cut="0.0000000000000000e+00" cType="1" res="6.9987348979339004e-04" rms="4.7099077701568604e-01" purity="5.9109491109848022e-01" nType="-99"/>
        </Node>
        <Node pos="r" depth="1" NCoef="0" IVar="4" Cut="9.2257994413375854e-01" cType="1" res="1.3658219948410988e-02" rms="4.7193369269371033e-01" purity="5.1830190420150757e-01" nType="0">
          <Node pos="l" depth="2" NCoef="0" IVar="-1" Cut="0.0000000000000000e+00" cType="1" res="-1.2467993656173348e-03" rms="4.6346354484558105e-01" purity="3.5789710283279419e-01" nType="-99"/>
          <Node pos="r" depth="2" NCoef="0" IVar="-1" Cut="0.0000000000000000e+00" cType="1" res="6.1242957599461079e-04" rms="4.7290313243865967e-01" purity="5.4706263542175293e-01" nType="-99"/>
        </Node>
      </Node>
    </BinaryTree>
    <BinaryTree type="DecisionTree" boostWeight="1.0000000000000000e+00" itree="280">
      <Node pos="s" depth="0" NCoef="0" IVar="1" Cut="7.9639488458633423e-01" cType="1" res="2.2439754102379084e-03" rms="4.7001308202743530e-01" purity="4.9585321545600891e-01" nType="0">
        <Node pos="l" depth="1" NCoef="0" IVar="0" Cut="-8.7051978334784508e-03" cType="1" res="-7.7605117112398148e-03" rms="4.7022497653961182e-01" purity="4.6905678510665894e-01" nType="0">
          <Node pos="l" depth="2" NCoef="0" IVar="-1" Cut="0.0000000000000000e+00" cType="1" res="-1.4903196133673191e-03" rms="4.6229976415634155e-01" purity="3.8799005746841431e-01" nType="-99"/>
          <Node pos="r" depth="2" NCoef="0" IVar="-1" Cut="0.0000000000000000e+00" cType="1" res="4.5320997014641762e-04" rms="4.7409024834632874e-01" purity="5.2461397647857666e-01" nType="-99"/>
        </Node>
        <Node pos="r" depth="1" NCoef="0" IVar="7" Cut="9.1048706054687500e+01" cType="1" res="4.9154676496982574e-02" rms="4.6616321802139282e-01" purity="6.2150090932846069e-01" nType="0">
          <Node pos="l" depth="2" NCoef="0" IVar="-1" Cut="0.0000000000000000e+00" cType="1" res="6.1430007917806506e-04" rms="4.7264623641967773e-01" purity="5.7597661018371582e-01" nType="-99"/>
          <Node pos="r" depth="2" NCoef="0" IVar="-1" Cut="0.0000000000000000e+00" cType="1" res="1.7609829083085060e-03" rms="4.5870137214660645e-01" purity="6.6437590122222900e-01" nType="-99"/>
        </Node>
      </Node>
    </BinaryTree>
    <BinaryTree type="DecisionTree" boostWeight="1.0000000000000000e+00" itree="281">
      <Node pos="s" depth="0" NCoef="0" IVar="2" Cut="6.4337200927734375e+02" cType="1" res="5.5454047396779060e-03" rms="4.6914112567901611e-01" purity="5.0020480155944824e-01" nType="0">
        <Node pos="l" depth="1" NCoef="0" IVar="5" Cut="4.2718803882598877e-01" cType="1" res="-8.5327392444014549e-03" rms="4.6828350424766541e-01" purity="4.6180975437164307e-01" nType="0">
          <Node pos="l" depth="2" NCoef="0" IVar="-1" Cut="0.0000000000000000e+00" cType="1" res="-1.0935108875855803e-03" rms="4.6218979358673096e-01" purity="4.0985259413719177e-01" nType="-99"/>
          <Node pos="r" depth="2" NCoef="0" IVar="-1" Cut="0.0000000000000000e+00" cType="1" res="5.2594032604247332e-04" rms="4.7355362772941589e-01" purity="5.2025210857391357e-01" nType="-99"/>
        </Node>
        <Node pos="r" depth="1" NCoef="0" IVar="4" Cut="9.4589555263519287e-01" cType="1" res="4.1629116982221603e-02" rms="4.6940809488296509e-01" purity="5.9861522912979126e-01" nType="0">
          <Node pos="l" depth="2" NCoef="0" IVar="-1" Cut="0.0000000000000000e+00" cType="1" res="3.4105380564142251e-06" rms="4.8735538125038147e-01" purity="4.8046925663948059e-01" nType="-99"/>
          <Node pos="r" depth="2" NCoef="0" IVar="-1" Cut="0.0000000000000000e+00" cType="1" res="1.6261370619758964e-03" rms="4.5601436495780945e-01" purity="6.7196476459503174e-01" nType="-99"/>
        </Node>
      </Node>
    </BinaryTree>
    <BinaryTree type="DecisionTree" boostWeight="1.0000000000000000e+00" itree="282">
      <Node pos="s" depth="0" NCoef="0" IVar="0" Cut="1.5391957759857178e-01" cType="1" res="4.1783391498029232e-03" rms="4.6923813223838806e-01" purity="4.9866092205047607e-01" nType="0">
        <Node pos="l" depth="1" NCoef="0" IVar="1" Cut="5.3182446956634521e-01" cType="1" res="-6.4682331867516041e-03" rms="4.6795585751533508e-01" purity="4.7932365536689758e-01" nType="0">
          <Node pos="l" depth="2" NCoef="0" IVar="-1" Cut="0.0000000000000000e+00" cType="1" res="-2.8435185085982084e-03" rms="4.4461452960968018e-01" purity="3.1359693408012390e-01" nType="-99"/>
          <Node pos="r" depth="2" NCoef="0" IVar="-1" Cut="0.0000000000000000e+00" cType="1" res="2.9980010003782809e-04" rms="4.7251904010772705e-01" purity="5.2355760335922241e-01" nType="-99"/>
        </Node>
        <Node pos="r" depth="1" NCoef="0" IVar="0" Cut="2.3398913443088531e-01" cType="1" res="5.4702844470739365e-02" rms="4.7201350331306458e-01" purity="5.9042823314666748e-01" nType="0">
          <Node pos="l" depth="2" NCoef="0" IVar="-1" Cut="0.0000000000000000e+00" cType="1" res="9.0756273129954934e-04" rms="4.7303259372711182e-01" purity="5.7107204198837280e-01" nType="-99"/>
          <Node pos="r" depth="2" NCoef="0" IVar="-1" Cut="0.0000000000000000e+00" cType="1" res="2.2214527707546949e-03" rms="4.6791991591453552e-01" purity="6.2562012672424316e-01" nType="-99"/>
        </Node>
      </Node>
    </BinaryTree>
    <BinaryTree type="DecisionTree" boostWeight="1.0000000000000000e+00" itree="283">
      <Node pos="s" depth="0" NCoef="0" IVar="2" Cut="5.2588793945312500e+02" cType="1" res="4.1112629696726799e-04" rms="4.6944969892501831e-01" purity="4.9464333057403564e-01" nType="0">
        <Node pos="l" depth="1" NCoef="0" IVar="0" Cut="1.9450838863849640e-01" cType="1" res="-2.3111976683139801e-02" rms="4.6643012762069702e-01" purity="4.1542920470237732e-01" nType="0">
          <Node pos="l" depth="2" NCoef="0" IVar="-1" Cut="0.0000000000000000e+00" cType="1" res="-1.1104053119197488e-03" rms="4.6337983012199402e-01" purity="3.9889723062515259e-01" nType="-99"/>
          <Node pos="r" depth="2" NCoef="0" IVar="-1" Cut="0.0000000000000000e+00" cType="1" res="1.3201372930780053e-03" rms="4.8238030076026917e-01" purity="5.3833055496215820e-01" nType="-99"/>
        </Node>
        <Node pos="r" depth="1" NCoef="0" IVar="3" Cut="1.3614717102050781e+02" cType="1" res="2.3099742829799652e-02" rms="4.7123268246650696e-01" purity="5.7104730606079102e-01" nType="0">
          <Node pos="l" depth="2" NCoef="0" IVar="-1" Cut="0.0000000000000000e+00" cType="1" res="2.9949241434223950e-04" rms="4.7324651479721069e-01" purity="5.5687391757965088e-01" nType="-99"/>
          <Node pos="r" depth="2" NCoef="0" IVar="-1" Cut="0.0000000000000000e+00" cType="1" res="2.1570804528892040e-03" rms="4.5463275909423828e-01" purity="6.4794099330902100e-01" nType="-99"/>
        </Node>
      </Node>
    </BinaryTree>
    <BinaryTree type="DecisionTree" boostWeight="1.0000000000000000e+00" itree="284">
      <Node pos="s" depth="0" NCoef="0" IVar="2" Cut="5.8872833251953125e+02" cType="1" res="7.8477691859006882e-03" rms="4.6956065297126770e-01" purity="5.0266391038894653e-01" nType="0">
        <Node pos="l" depth="1" NCoef="0" IVar="6" Cut="7.1831017732620239e-02" cType="1" res="-9.8664732649922371e-03" rms="4.6805801987648010e-01" purity="4.4978073239326477e-01" nType="0">
          <Node pos="l" depth="2" NCoef="0" IVar="-1" Cut="0.0000000000000000e+00" cType="1" res="-1.6328489873558283e-03" rms="4.5792648196220398e-01" purity="3.7842872738838196e-01" nType="-99"/>
          <Node pos="r" depth="2" NCoef="0" IVar="-1" Cut="0.0000000000000000e+00" cType="1" res="2.5114338495768607e-04" rms="4.7197750210762024e-01" purity="4.8555451631546021e-01" nType="-99"/>
        </Node>
        <Node pos="r" depth="1" NCoef="0" IVar="6" Cut="7.5851000845432281e-02" cType="1" res="3.7878878414630890e-02" rms="4.7057607769966125e-01" purity="5.9231716394424438e-01" nType="0">
          <Node pos="l" depth="2" NCoef="0" IVar="-1" Cut="0.0000000000000000e+00" cType="1" res="5.4774770978838205e-04" rms="4.7622239589691162e-01" purity="5.5146431922912598e-01" nType="-99"/>
          <Node pos="r" depth="2" NCoef="0" IVar="-1" Cut="0.0000000000000000e+00" cType="1" res="1.6428158851340413e-03" rms="4.5957645773887634e-01" purity="6.5989804267883301e-01" nType="-99"/>
        </Node>
      </Node>
    </BinaryTree>
    <BinaryTree type="DecisionTree" boostWeight="1.0000000000000000e+00" itree="285">
      <Node pos="s" depth="0" NCoef="0" IVar="4" Cut="9.8546183109283447e-01" cType="1" res="1.0484081692993641e-02" rms="4.6921908855438232e-01" purity="5.0497478246688843e-01" nType="0">
        <Node pos="l" depth="1" NCoef="0" IVar="8" Cut="1.0366598367691040e+00" cType="1" res="2.9214490205049515e-03" rms="4.7361677885055542e-01" purity="4.7845655679702759e-01" nType="0">
          <Node pos="l" depth="2" NCoef="0" IVar="-1" Cut="0.0000000000000000e+00" cType="1" res="7.4874650454148650e-04" rms="4.7630822658538818e-01" purity="5.2288347482681274e-01" nType="-99"/>
          <Node pos="r" depth="2" NCoef="0" IVar="-1" Cut="0.0000000000000000e+00" cType="1" res="-6.2146130949258804e-04" rms="4.6995493769645691e-01" purity="4.3662205338478088e-01" nType="-99"/>
        </Node>
        <Node pos="r" depth="1" NCoef="0" IVar="-1" Cut="0.0000000000000000e+00" cType="1" res="1.8840571865439415e-03" rms="4.2008224129676819e-01" purity="7.4987292289733887e-01" nType="-99"/>
      </Node>
    </BinaryTree>
    <BinaryTree type="DecisionTree" boostWeight="1.0000000000000000e+00" itree="286">
      <Node pos="s" depth="0" NCoef="0" IVar="5" Cut="5.0700861215591431e-01" cType="1" res="2.8141336515545845e-03" rms="4.6845218539237976e-01" purity="4.9795067310333252e-01" nType="0">
        <Node pos="l" depth="1" NCoef="0" IVar="2" Cut="6.4765252685546875e+02" cType="1" res="-1.1546736583113670e-02" rms="4.6689358353614807e-01" purity="4.7002559900283813e-01" nType="0">
          <Node pos="l" depth="2" NCoef="0" IVar="-1" Cut="0.0000000000000000e+00" cType="1" res="-1.0120742954313755e-03" rms="4.6285915374755859e-01" purity="4.2061772942543030e-01" nType="-99"/>
          <Node pos="r" depth="2" NCoef="0" IVar="-1" Cut="0.0000000000000000e+00" cType="1" res="8.4060570225119591e-04" rms="4.7279667854309082e-01" purity="5.7888567447662354e-01" nType="-99"/>
        </Node>
        <Node pos="r" depth="1" NCoef="0" IVar="4" Cut="9.7231531143188477e-01" cType="1" res="3.6410208791494370e-02" rms="4.7036871314048767e-01" purity="5.6327915191650391e-01" nType="0">
          <Node pos="l" depth="2" NCoef="0" IVar="-1" Cut="0.0000000000000000e+00" cType="1" res="6.4785254653543234e-04" rms="4.8315772414207458e-01" purity="5.0201022624969482e-01" nType="-99"/>
          <Node pos="r" depth="2" NCoef="0" IVar="-1" Cut="0.0000000000000000e+00" cType="1" res="1.7460394883528352e-03" rms="4.2985665798187256e-01" purity="7.3699760437011719e-01" nType="-99"/>
        </Node>
      </Node>
    </BinaryTree>
    <BinaryTree type="DecisionTree" boostWeight="1.0000000000000000e+00" itree="287">
      <Node pos="s" depth="0" NCoef="0" IVar="4" Cut="9.8552405834197998e-01" cType="1" res="5.2849934436380863e-03" rms="4.6956339478492737e-01" purity="4.9840003252029419e-01" nType="0">
        <Node pos="l" depth="1" NCoef="0" IVar="2" Cut="4.3642230224609375e+02" cType="1" res="-1.8049938371405005e-03" rms="4.7364902496337891e-01" purity="4.7273135185241699e-01" nType="0">
          <Node pos="l" depth="2" NCoef="0" IVar="-1" Cut="0.0000000000000000e+00" cType="1" res="-1.4398571802303195e-03" rms="4.5566710829734802e-01" purity="3.3559295535087585e-01" nType="-99"/>
          <Node pos="r" depth="2" NCoef="0" IVar="-1" Cut="0.0000000000000000e+00" cType="1" res="2.9013244784437120e-04" rms="4.7890028357505798e-01" purity="5.1862490177154541e-01" nType="-99"/>
        </Node>
        <Node pos="r" depth="1" NCoef="0" IVar="-1" Cut="0.0000000000000000e+00" cType="1" res="1.7198824789375067e-03" rms="4.2273035645484924e-01" purity="7.4312597513198853e-01" nType="-99"/>
      </Node>
    </BinaryTree>
    <BinaryTree type="DecisionTree" boostWeight="1.0000000000000000e+00" itree="288">
      <Node pos="s" depth="0" NCoef="0" IVar="8" Cut="1.0745292901992798e+00" cType="1" res="8.0516757443547249e-03" rms="4.6827858686447144e-01" purity="5.0321757793426514e-01" nType="0">
        <Node pos="l" depth="1" NCoef="0" IVar="6" Cut="7.1340568363666534e-02" cType="1" res="3.4903176128864288e-02" rms="4.6953517198562622e-01" purity="5.4861086606979370e-01" nType="0">
          <Node pos="l" depth="2" NCoef="0" IVar="-1" Cut="0.0000000000000000e+00" cType="1" res="3.0418255482800305e-04" rms="4.7227215766906738e-01" purity="5.0902420282363892e-01" nType="-99"/>
          <Node pos="r" depth="2" NCoef="0" IVar="-1" Cut="0.0000000000000000e+00" cType="1" res="1.4677353901788592e-03" rms="4.6605789661407471e-01" purity="5.8351016044616699e-01" nType="-99"/>
        </Node>
        <Node pos="r" depth="1" NCoef="0" IVar="2" Cut="5.5124035644531250e+02" cType="1" res="-2.1869905292987823e-02" rms="4.6505147218704224e-01" purity="4.5263433456420898e-01" nType="0">
          <Node pos="l" depth="2" NCoef="0" IVar="-1" Cut="0.0000000000000000e+00" cType="1" res="-1.3779649743810296e-03" rms="4.5981943607330322e-01" purity="3.9323967695236206e-01" nType="-99"/>
          <Node pos="r" depth="2" NCoef="0" IVar="-1" Cut="0.0000000000000000e+00" cType="1" res="2.5204094708897173e-04" rms="4.7213608026504517e-01" purity="5.5299413204193115e-01" nType="-99"/>
        </Node>
      </Node>
    </BinaryTree>
    <BinaryTree type="DecisionTree" boostWeight="1.0000000000000000e+00" itree="289">
      <Node pos="s" depth="0" NCoef="0" IVar="4" Cut="9.7203820943832397e-01" cType="1" res="1.5275736805051565e-03" rms="4.6832305192947388e-01" purity="4.9658617377281189e-01" nType="0">
        <Node pos="l" depth="1" NCoef="0" IVar="2" Cut="8.3979327392578125e+02" cType="1" res="-1.1044483631849289e-02" rms="4.7326031327247620e-01" purity="4.4106858968734741e-01" nType="0">
          <Node pos="l" depth="2" NCoef="0" IVar="-1" Cut="0.0000000000000000e+00" cType="1" res="-6.0847424902021885e-04" rms="4.7193044424057007e-01" purity="4.2406645417213440e-01" nType="-99"/>
          <Node pos="r" depth="2" NCoef="0" IVar="-1" Cut="0.0000000000000000e+00" cType="1" res="1.5131192049011588e-03" rms="4.7891402244567871e-01" purity="5.8634877204895020e-01" nType="-99"/>
        </Node>
        <Node pos="r" depth="1" NCoef="0" IVar="0" Cut="-5.0788544118404388e-02" cType="1" res="4.3314926326274872e-02" rms="4.4900226593017578e-01" purity="6.8111705780029297e-01" nType="0">
          <Node pos="l" depth="2" NCoef="0" IVar="-1" Cut="0.0000000000000000e+00" cType="1" res="-9.3015369202475995e-06" rms="4.6952256560325623e-01" purity="6.0789728164672852e-01" nType="-99"/>
          <Node pos="r" depth="2" NCoef="0" IVar="-1" Cut="0.0000000000000000e+00" cType="1" res="1.5024816384539008e-03" rms="4.3813979625701904e-01" purity="7.1377456188201904e-01" nType="-99"/>
        </Node>
      </Node>
    </BinaryTree>
    <BinaryTree type="DecisionTree" boostWeight="1.0000000000000000e+00" itree="290">
      <Node pos="s" depth="0" NCoef="0" IVar="6" Cut="8.2453735172748566e-02" cType="1" res="7.4960938654839993e-03" rms="4.6961393952369690e-01" purity="5.0208193063735962e-01" nType="0">
        <Node pos="l" depth="1" NCoef="0" IVar="2" Cut="6.5467144775390625e+02" cType="1" res="-1.3537201099097729e-02" rms="4.6886464953422546e-01" purity="4.6606838703155518e-01" nType="0">
          <Node pos="l" depth="2" NCoef="0" IVar="-1" Cut="0.0000000000000000e+00" cType="1" res="-1.1409842409193516e-03" rms="4.6440041065216064e-01" purity="4.0810143947601318e-01" nType="-99"/>
          <Node pos="r" depth="2" NCoef="0" IVar="-1" Cut="0.0000000000000000e+00" cType="1" res="5.8117217849940062e-04" rms="4.7430402040481567e-01" purity="5.6471288204193115e-01" nType="-99"/>
        </Node>
        <Node pos="r" depth="1" NCoef="0" IVar="2" Cut="4.5263323974609375e+02" cType="1" res="2.8527550399303436e-02" rms="4.6942058205604553e-01" purity="5.3809225559234619e-01" nType="0">
          <Node pos="l" depth="2" NCoef="0" IVar="-1" Cut="0.0000000000000000e+00" cType="1" res="-5.4232653928920627e-04" rms="4.7050482034683228e-01" purity="4.0637123584747314e-01" nType="-99"/>
          <Node pos="r" depth="2" NCoef="0" IVar="-1" Cut="0.0000000000000000e+00" cType="1" res="1.3856325531378388e-03" rms="4.6679171919822693e-01" purity="6.1480152606964111e-01" nType="-99"/>
        </Node>
      </Node>
    </BinaryTree>
    <BinaryTree type="DecisionTree" boostWeight="1.0000000000000000e+00" itree="291">
      <Node pos="s" depth="0" NCoef="0" IVar="1" Cut="4.5650327205657959e-01" cType="1" res="3.5856787580996752e-03" rms="4.6988624334335327e-01" purity="4.9770712852478027e-01" nType="0">
        <Node pos="l" depth="1" NCoef="0" IVar="0" Cut="2.0519088208675385e-01" cType="1" res="-4.4783115386962891e-02" rms="4.5751270651817322e-01" purity="3.9837512373924255e-01" nType="0">
          <Node pos="l" depth="2" NCoef="0" IVar="-1" Cut="0.0000000000000000e+00" cType="1" res="-3.9014399517327547e-03" rms="4.3733736872673035e-01" purity="3.0021885037422180e-01" nType="-99"/>
          <Node pos="r" depth="2" NCoef="0" IVar="-1" Cut="0.0000000000000000e+00" cType="1" res="1.0971366427838802e-03" rms="4.7820380330085754e-01" purity="5.6762462854385376e-01" nType="-99"/>
        </Node>
        <Node pos="r" depth="1" NCoef="0" IVar="0" Cut="8.9807316660881042e-02" cType="1" res="1.2881427071988583e-02" rms="4.7165918350219727e-01" purity="5.1679724454879761e-01" nType="0">
          <Node pos="l" depth="2" NCoef="0" IVar="-1" Cut="0.0000000000000000e+00" cType="1" res="4.2532468796707690e-05" rms="4.7163140773773193e-01" purity="4.9507963657379150e-01" nType="-99"/>
          <Node pos="r" depth="2" NCoef="0" IVar="-1" Cut="0.0000000000000000e+00" cType="1" res="1.3222367269918323e-03" rms="4.6972680091857910e-01" purity="5.8957552909851074e-01" nType="-99"/>
        </Node>
      </Node>
    </BinaryTree>
    <BinaryTree type="DecisionTree" boostWeight="1.0000000000000000e+00" itree="292">
      <Node pos="s" depth="0" NCoef="0" IVar="4" Cut="9.7187680006027222e-01" cType="1" res="6.5422300249338150e-03" rms="4.6809560060501099e-01" purity="5.0084638595581055e-01" nType="0">
        <Node pos="l" depth="1" NCoef="0" IVar="8" Cut="1.0583183765411377e+00" cType="1" res="-5.6941113434731960e-03" rms="4.7333002090454102e-01" purity="4.4599583745002747e-01" nType="0">
          <Node pos="l" depth="2" NCoef="0" IVar="-1" Cut="0.0000000000000000e+00" cType="1" res="4.9742142437025905e-04" rms="4.7886779904365540e-01" purity="4.9025711417198181e-01" nType="-99"/>
          <Node pos="r" depth="2" NCoef="0" IVar="-1" Cut="0.0000000000000000e+00" cType="1" res="-9.7042939160019159e-04" rms="4.6644562482833862e-01" purity="4.0081536769866943e-01" nType="-99"/>
        </Node>
        <Node pos="r" depth="1" NCoef="0" IVar="2" Cut="4.5312884521484375e+02" cType="1" res="4.7445554286241531e-02" rms="4.4773578643798828e-01" purity="6.8419951200485229e-01" nType="0">
          <Node pos="l" depth="2" NCoef="0" IVar="-1" Cut="0.0000000000000000e+00" cType="1" res="2.3235796834342182e-04" rms="4.7625675797462463e-01" purity="5.8530652523040771e-01" nType="-99"/>
          <Node pos="r" depth="2" NCoef="0" IVar="-1" Cut="0.0000000000000000e+00" cType="1" res="1.4877032954245806e-03" rms="4.3570056557655334e-01" purity="7.2123789787292480e-01" nType="-99"/>
        </Node>
      </Node>
    </BinaryTree>
    <BinaryTree type="DecisionTree" boostWeight="1.0000000000000000e+00" itree="293">
      <Node pos="s" depth="0" NCoef="0" IVar="3" Cut="1.3989184570312500e+02" cType="1" res="7.0930677466094494e-03" rms="4.6979510784149170e-01" purity="5.0158506631851196e-01" nType="0">
        <Node pos="l" depth="1" NCoef="0" IVar="4" Cut="9.2168414592742920e-01" cType="1" res="-6.9757184246554971e-04" rms="4.7021034359931946e-01" purity="4.9020984768867493e-01" nType="0">
          <Node pos="l" depth="2" NCoef="0" IVar="-1" Cut="0.0000000000000000e+00" cType="1" res="-2.1534026600420475e-03" rms="4.5259004831314087e-01" purity="3.2159018516540527e-01" nType="-99"/>
          <Node pos="r" depth="2" NCoef="0" IVar="-1" Cut="0.0000000000000000e+00" cType="1" res="2.4257058976218104e-04" rms="4.7244268655776978e-01" purity="5.1822334527969360e-01" nType="-99"/>
        </Node>
        <Node pos="r" depth="1" NCoef="0" IVar="-1" Cut="0.0000000000000000e+00" cType="1" res="2.0084751304239035e-03" rms="4.5979234576225281e-01" purity="6.0632282495498657e-01" nType="-99"/>
      </Node>
    </BinaryTree>
    <BinaryTree type="DecisionTree" boostWeight="1.0000000000000000e+00" itree="294">
      <Node pos="s" depth="0" NCoef="0" IVar="3" Cut="1.4014939880371094e+02" cType="1" res="2.3452488239854574e-03" rms="4.7017306089401245e-01" purity="4.9637863039970398e-01" nType="0">
        <Node pos="l" depth="1" NCoef="0" IVar="8" Cut="1.4327800273895264e+00" cType="1" res="-4.1881180368363857e-03" rms="4.7089704871177673e-01" purity="4.8602458834648132e-01" nType="0">
          <Node pos="l" depth="2" NCoef="0" IVar="-1" Cut="0.0000000000000000e+00" cType="1" res="1.7720363393891603e-04" rms="4.7248083353042603e-01" purity="5.0663387775421143e-01" nType="-99"/>
          <Node pos="r" depth="2" NCoef="0" IVar="-1" Cut="0.0000000000000000e+00" cType="1" res="-1.7381137004122138e-03" rms="4.6081590652465820e-01" purity="3.9309355616569519e-01" nType="-99"/>
        </Node>
        <Node pos="r" depth="1" NCoef="0" IVar="-1" Cut="0.0000000000000000e+00" cType="1" res="1.6864582430571318e-03" rms="4.5851749181747437e-01" purity="5.9537607431411743e-01" nType="-99"/>
      </Node>
    </BinaryTree>
    <BinaryTree type="DecisionTree" boostWeight="1.0000000000000000e+00" itree="295">
      <Node pos="s" depth="0" NCoef="0" IVar="3" Cut="1.4670877075195312e+02" cType="1" res="6.9187972694635391e-03" rms="4.6957424283027649e-01" purity="5.0184458494186401e-01" nType="0">
        <Node pos="l" depth="1" NCoef="0" IVar="0" Cut="-6.4107567071914673e-02" cType="1" res="-4.5691209379583597e-04" rms="4.6999406814575195e-01" purity="4.9128460884094238e-01" nType="0">
          <Node pos="l" depth="2" NCoef="0" IVar="-1" Cut="0.0000000000000000e+00" cType="1" res="-1.3945925747975707e-03" rms="4.5998960733413696e-01" purity="4.1293242573738098e-01" nType="-99"/>
          <Node pos="r" depth="2" NCoef="0" IVar="-1" Cut="0.0000000000000000e+00" cType="1" res="4.0530698606744409e-04" rms="4.7266653180122375e-01" purity="5.1949161291122437e-01" nType="-99"/>
        </Node>
        <Node pos="r" depth="1" NCoef="0" IVar="-1" Cut="0.0000000000000000e+00" cType="1" res="2.3521159309893847e-03" rms="4.5539462566375732e-01" purity="6.2793672084808350e-01" nType="-99"/>
      </Node>
    </BinaryTree>
    <BinaryTree type="DecisionTree" boostWeight="1.0000000000000000e+00" itree="296">
      <Node pos="s" depth="0" NCoef="0" IVar="4" Cut="9.2192077636718750e-01" cType="1" res="5.8098798617720604e-03" rms="4.6930277347564697e-01" purity="5.0030034780502319e-01" nType="0">
        <Node pos="l" depth="1" NCoef="0" IVar="5" Cut="4.4742599129676819e-01" cType="1" res="-4.9927536398172379e-02" rms="4.5376011729240417e-01" purity="3.3183556795120239e-01" nType="0">
          <Node pos="l" depth="2" NCoef="0" IVar="-1" Cut="0.0000000000000000e+00" cType="1" res="-2.6994985528290272e-03" rms="4.4150650501251221e-01" purity="3.0330440402030945e-01" nType="-99"/>
          <Node pos="r" depth="2" NCoef="0" IVar="-1" Cut="0.0000000000000000e+00" cType="1" res="-7.1190757444128394e-04" rms="4.7303605079650879e-01" purity="3.8169333338737488e-01" nType="-99"/>
        </Node>
        <Node pos="r" depth="1" NCoef="0" IVar="8" Cut="9.5227426290512085e-01" cType="1" res="1.5186285600066185e-02" rms="4.7121977806091309e-01" purity="5.2864027023315430e-01" nType="0">
          <Node pos="l" depth="2" NCoef="0" IVar="-1" Cut="0.0000000000000000e+00" cType="1" res="1.1738074244931340e-03" rms="4.7087654471397400e-01" purity="5.7822453975677490e-01" nType="-99"/>
          <Node pos="r" depth="2" NCoef="0" IVar="-1" Cut="0.0000000000000000e+00" cType="1" res="-1.6162356769200414e-04" rms="4.7036072611808777e-01" purity="4.9382641911506653e-01" nType="-99"/>
        </Node>
      </Node>
    </BinaryTree>
    <BinaryTree type="DecisionTree" boostWeight="1.0000000000000000e+00" itree="297">
      <Node pos="s" depth="0" NCoef="0" IVar="3" Cut="1.5183480834960938e+02" cType="1" res="9.5221037045121193e-03" rms="4.6989673376083374e-01" purity="5.0462895631790161e-01" nType="0">
        <Node pos="l" depth="1" NCoef="0" IVar="6" Cut="1.0936728864908218e-01" cType="1" res="3.6252432037144899e-03" rms="4.7069042921066284e-01" purity="4.9581751227378845e-01" nType="0">
          <Node pos="l" depth="2" NCoef="0" IVar="-1" Cut="0.0000000000000000e+00" cType="1" res="-3.3081357832998037e-04" rms="4.6983608603477478e-01" purity="4.7047835588455200e-01" nType="-99"/>
          <Node pos="r" depth="2" NCoef="0" IVar="-1" Cut="0.0000000000000000e+00" cType="1" res="8.0071529373526573e-04" rms="4.7110804915428162e-01" purity="5.4047006368637085e-01" nType="-99"/>
        </Node>
        <Node pos="r" depth="1" NCoef="0" IVar="-1" Cut="0.0000000000000000e+00" cType="1" res="2.4069631472229958e-03" rms="4.4877848029136658e-01" purity="6.3611054420471191e-01" nType="-99"/>
      </Node>
    </BinaryTree>
    <BinaryTree type="DecisionTree" boostWeight="1.0000000000000000e+00" itree="298">
      <Node pos="s" depth="0" NCoef="0" IVar="8" Cut="1.3641285896301270e+00" cType="1" res="6.7187650129199028e-03" rms="4.6838995814323425e-01" purity="5.0123089551925659e-01" nType="0">
        <Node pos="l" depth="1" NCoef="0" IVar="5" Cut="2.9851341247558594e-01" cType="1" res="1.9420862197875977e-02" rms="4.6987336874008179e-01" purity="5.2529186010360718e-01" nType="0">
          <Node pos="l" depth="2" NCoef="0" IVar="-1" Cut="0.0000000000000000e+00" cType="1" res="-3.2567445305176079e-04" rms="4.6979996562004089e-01" purity="4.6163874864578247e-01" nType="-99"/>
          <Node pos="r" depth="2" NCoef="0" IVar="-1" Cut="0.0000000000000000e+00" cType="1" res="9.3343178741633892e-04" rms="4.6917226910591125e-01" purity="5.5777496099472046e-01" nType="-99"/>
        </Node>
        <Node pos="r" depth="1" NCoef="0" IVar="2" Cut="6.0393084716796875e+02" cType="1" res="-3.1820941716432571e-02" rms="4.6172642707824707e-01" purity="4.2822688817977905e-01" nType="0">
          <Node pos="l" depth="2" NCoef="0" IVar="-1" Cut="0.0000000000000000e+00" cType="1" res="-1.7316362354904413e-03" rms="4.5735409855842590e-01" purity="3.8649925589561462e-01" nType="-99"/>
          <Node pos="r" depth="2" NCoef="0" IVar="-1" Cut="0.0000000000000000e+00" cType="1" res="8.1565970322117209e-04" rms="4.7123146057128906e-01" purity="5.7236284017562866e-01" nType="-99"/>
        </Node>
      </Node>
    </BinaryTree>
    <BinaryTree type="DecisionTree" boostWeight="1.0000000000000000e+00" itree="299">
      <Node pos="s" depth="0" NCoef="0" IVar="2" Cut="4.0258078002929688e+02" cType="1" res="5.7319318875670433e-03" rms="4.6942749619483948e-01" purity="5.0083732604980469e-01" nType="0">
        <Node pos="l" depth="1" NCoef="0" IVar="2" Cut="3.7349127197265625e+02" cType="1" res="-4.7814361751079559e-02" rms="4.4923260807991028e-01" purity="3.3153399825096130e-01" nType="0">
          <Node pos="l" depth="2" NCoef="0" IVar="-1" Cut="0.0000000000000000e+00" cType="1" res="-3.2327927183359861e-03" rms="4.3709281086921692e-01" purity="2.9388898611068726e-01" nType="-99"/>
          <Node pos="r" depth="2" NCoef="0" IVar="-1" Cut="0.0000000000000000e+00" cType="1" res="-3.8708574720658362e-04" rms="4.6144366264343262e-01" purity="3.7897580862045288e-01" nType="-99"/>
        </Node>
        <Node pos="r" depth="1" NCoef="0" IVar="6" Cut="1.0929802805185318e-01" cType="1" res="1.5308066271245480e-02" rms="4.7230875492095947e-01" purity="5.3111523389816284e-01" nType="0">
          <Node pos="l" depth="2" NCoef="0" IVar="-1" Cut="0.0000000000000000e+00" cType="1" res="-6.4366890001110733e-05" rms="4.7335946559906006e-01" purity="4.9931290745735168e-01" nType="-99"/>
          <Node pos="r" depth="2" NCoef="0" IVar="-1" Cut="0.0000000000000000e+00" cType="1" res="1.2876427499577403e-03" rms="4.6830368041992188e-01" purity="5.9394925832748413e-01" nType="-99"/>
        </Node>
      </Node>
    </BinaryTree>
    <BinaryTree type="DecisionTree" boostWeight="1.0000000000000000e+00" itree="300">
      <Node pos="s" depth="0" NCoef="0" IVar="3" Cut="1.3913024902343750e+02" cType="1" res="3.4035709686577320e-03" rms="4.6967887878417969e-01" purity="4.9760109186172485e-01" nType="0">
        <Node pos="l" depth="1" NCoef="0" IVar="8" Cut="1.3945457935333252e+00" cType="1" res="-3.5239835269749165e-03" rms="4.6994665265083313e-01" purity="4.8676145076751709e-01" nType="0">
          <Node pos="l" depth="2" NCoef="0" IVar="-1" Cut="0.0000000000000000e+00" cType="1" res="2.2069993428885937e-04" rms="4.7175994515419006e-01" purity="5.0914657115936279e-01" nType="-99"/>
          <Node pos="r" depth="2" NCoef="0" IVar="-1" Cut="0.0000000000000000e+00" cType="1" res="-1.6198692610487342e-03" rms="4.6008285880088806e-01" purity="3.9839687943458557e-01" nType="-99"/>
        </Node>
        <Node pos="r" depth="1" NCoef="0" IVar="-1" Cut="0.0000000000000000e+00" cType="1" res="1.7152010696008801e-03" rms="4.6265694499015808e-01" purity="5.9481209516525269e-01" nType="-99"/>
      </Node>
    </BinaryTree>
    <BinaryTree type="DecisionTree" boostWeight="1.0000000000000000e+00" itree="301">
      <Node pos="s" depth="0" NCoef="0" IVar="1" Cut="8.1801956892013550e-01" cType="1" res="6.9831493310630322e-03" rms="4.6906092762947083e-01" purity="5.0277483463287354e-01" nType="0">
        <Node pos="l" depth="1" NCoef="0" IVar="0" Cut="-2.7847167104482651e-02" cType="1" res="-2.3815440945327282e-03" rms="4.6949690580368042e-01" purity="4.8044717311859131e-01" nType="0">
          <Node pos="l" depth="2" NCoef="0" IVar="-1" Cut="0.0000000000000000e+00" cType="1" res="-1.3146192068234086e-03" rms="4.6226987242698669e-01" purity="3.9735406637191772e-01" nType="-99"/>
          <Node pos="r" depth="2" NCoef="0" IVar="-1" Cut="0.0000000000000000e+00" cType="1" res="4.9277738435193896e-04" rms="4.7230032086372375e-01" purity="5.2681112289428711e-01" nType="-99"/>
        </Node>
        <Node pos="r" depth="1" NCoef="0" IVar="8" Cut="9.5382881164550781e-01" cType="1" res="6.4713776111602783e-02" rms="4.6219277381896973e-01" purity="6.4041870832443237e-01" nType="0">
          <Node pos="l" depth="2" NCoef="0" IVar="-1" Cut="0.0000000000000000e+00" cType="1" res="2.0116674713790417e-03" rms="4.5603489875793457e-01" purity="6.7029416561126709e-01" nType="-99"/>
          <Node pos="r" depth="2" NCoef="0" IVar="-1" Cut="0.0000000000000000e+00" cType="1" res="1.2075514532625675e-03" rms="4.6703973412513733e-01" purity="6.1331087350845337e-01" nType="-99"/>
        </Node>
      </Node>
    </BinaryTree>
    <BinaryTree type="DecisionTree" boostWeight="1.0000000000000000e+00" itree="302">
      <Node pos="s" depth="0" NCoef="0" IVar="0" Cut="2.2463607788085938e-01" cType="1" res="5.3100148215889931e-03" rms="4.6884405612945557e-01" purity="5.0016301870346069e-01" nType="0">
        <Node pos="l" depth="1" NCoef="0" IVar="1" Cut="4.3732613325119019e-01" cType="1" res="-9.0185407316312194e-04" rms="4.6855574846267700e-01" purity="4.9026149511337280e-01" nType="0">
          <Node pos="l" depth="2" NCoef="0" IVar="-1" Cut="0.0000000000000000e+00" cType="1" res="-3.7521850317716599e-03" rms="4.3600153923034668e-01" purity="3.1063297390937805e-01" nType="-99"/>
          <Node pos="r" depth="2" NCoef="0" IVar="-1" Cut="0.0000000000000000e+00" cType="1" res="2.5145345716737211e-04" rms="4.7079914808273315e-01" purity="5.0909012556076050e-01" nType="-99"/>
        </Node>
        <Node pos="r" depth="1" NCoef="0" IVar="-1" Cut="0.0000000000000000e+00" cType="1" res="2.0189816132187843e-03" rms="4.6552500128746033e-01" purity="6.2349992990493774e-01" nType="-99"/>
      </Node>
    </BinaryTree>
    <BinaryTree type="DecisionTree" boostWeight="1.0000000000000000e+00" itree="303">
      <Node pos="s" depth="0" NCoef="0" IVar="1" Cut="5.0406140089035034e-01" cType="1" res="4.4412896968424320e-03" rms="4.6957841515541077e-01" purity="4.9908179044723511e-01" nType="0">
        <Node pos="l" depth="1" NCoef="0" IVar="0" Cut="2.0284026861190796e-01" cType="1" res="-3.5327952355146408e-02" rms="4.5852988958358765e-01" purity="4.0724304318428040e-01" nType="0">
          <Node pos="l" depth="2" NCoef="0" IVar="-1" Cut="0.0000000000000000e+00" cType="1" res="-2.7704390231519938e-03" rms="4.4628378748893738e-01" purity="3.2810959219932556e-01" nType="-99"/>
          <Node pos="r" depth="2" NCoef="0" IVar="-1" Cut="0.0000000000000000e+00" cType="1" res="1.0103886015713215e-03" rms="4.7471314668655396e-01" purity="5.7305097579956055e-01" nType="-99"/>
        </Node>
        <Node pos="r" depth="1" NCoef="0" IVar="0" Cut="-5.7109706103801727e-02" cType="1" res="1.7147764563560486e-02" rms="4.7234877943992615e-01" purity="5.2842473983764648e-01" nType="0">
          <Node pos="l" depth="2" NCoef="0" IVar="-1" Cut="0.0000000000000000e+00" cType="1" res="-4.3168663978576660e-04" rms="4.7196954488754272e-01" purity="4.7088810801506042e-01" nType="-99"/>
          <Node pos="r" depth="2" NCoef="0" IVar="-1" Cut="0.0000000000000000e+00" cType="1" res="8.6760404519736767e-04" rms="4.7179624438285828e-01" purity="5.5609166622161865e-01" nType="-99"/>
        </Node>
      </Node>
    </BinaryTree>
    <BinaryTree type="DecisionTree" boostWeight="1.0000000000000000e+00" itree="304">
      <Node pos="s" depth="0" NCoef="0" IVar="0" Cut="-8.1955343484878540e-02" cType="1" res="3.9225779473781586e-03" rms="4.6917757391929626e-01" purity="4.9850878119468689e-01" nType="0">
        <Node pos="l" depth="1" NCoef="0" IVar="1" Cut="7.4960500001907349e-01" cType="1" res="-4.1124489158391953e-02" rms="4.6162933111190796e-01" purity="4.0398198366165161e-01" nType="0">
          <Node pos="l" depth="2" NCoef="0" IVar="-1" Cut="0.0000000000000000e+00" cType="1" res="-2.5859794113785028e-03" rms="4.4880995154380798e-01" purity="3.2466629147529602e-01" nType="-99"/>
          <Node pos="r" depth="2" NCoef="0" IVar="-1" Cut="0.0000000000000000e+00" cType="1" res="1.6565536498092115e-04" rms="4.8220041394233704e-01" purity="5.5883103609085083e-01" nType="-99"/>
        </Node>
        <Node pos="r" depth="1" NCoef="0" IVar="4" Cut="9.5354318618774414e-01" cType="1" res="1.4583148062229156e-02" rms="4.7031524777412415e-01" purity="5.2087885141372681e-01" nType="0">
          <Node pos="l" depth="2" NCoef="0" IVar="-1" Cut="0.0000000000000000e+00" cType="1" res="-2.4923137971200049e-04" rms="4.7494328022003174e-01" purity="4.2436030507087708e-01" nType="-99"/>
          <Node pos="r" depth="2" NCoef="0" IVar="-1" Cut="0.0000000000000000e+00" cType="1" res="9.8032108508050442e-04" rms="4.6410542726516724e-01" purity="6.2423497438430786e-01" nType="-99"/>
        </Node>
      </Node>
    </BinaryTree>
    <BinaryTree type="DecisionTree" boostWeight="1.0000000000000000e+00" itree="305">
      <Node pos="s" depth="0" NCoef="0" IVar="1" Cut="5.0971716642379761e-01" cType="1" res="6.0545448213815689e-03" rms="4.6884807944297791e-01" purity="5.0044614076614380e-01" nType="0">
        <Node pos="l" depth="1" NCoef="0" IVar="0" Cut="1.9014778733253479e-01" cType="1" res="-3.0403777956962585e-02" rms="4.5932179689407349e-01" purity="4.0971371531486511e-01" nType="0">
          <Node pos="l" depth="2" NCoef="0" IVar="-1" Cut="0.0000000000000000e+00" cType="1" res="-2.7118320576846600e-03" rms="4.4703030586242676e-01" purity="3.2241725921630859e-01" nType="-99"/>
          <Node pos="r" depth="2" NCoef="0" IVar="-1" Cut="0.0000000000000000e+00" cType="1" res="1.0451208800077438e-03" rms="4.7349652647972107e-01" purity="5.7289254665374756e-01" nType="-99"/>
        </Node>
        <Node pos="r" depth="1" NCoef="0" IVar="2" Cut="4.4137033081054688e+02" cType="1" res="1.8385380506515503e-02" rms="4.7138881683349609e-01" purity="5.3113341331481934e-01" nType="0">
          <Node pos="l" depth="2" NCoef="0" IVar="-1" Cut="0.0000000000000000e+00" cType="1" res="-6.2564585823565722e-04" rms="4.6705675125122070e-01" purity="3.9087128639221191e-01" nType="-99"/>
          <Node pos="r" depth="2" NCoef="0" IVar="-1" Cut="0.0000000000000000e+00" cType="1" res="7.9872016794979572e-04" rms="4.7216859459877014e-01" purity="5.7652735710144043e-01" nType="-99"/>
        </Node>
      </Node>
    </BinaryTree>
    <BinaryTree type="DecisionTree" boostWeight="1.0000000000000000e+00" itree="306">
      <Node pos="s" depth="0" NCoef="0" IVar="0" Cut="2.2413146495819092e-01" cType="1" res="6.3139926642179489e-03" rms="4.6980610489845276e-01" purity="5.0033056735992432e-01" nType="0">
        <Node pos="l" depth="1" NCoef="0" IVar="1" Cut="4.8629915714263916e-01" cType="1" res="3.6424794234335423e-04" rms="4.6962115168571472e-01" purity="4.9069595336914062e-01" nType="0">
          <Node pos="l" depth="2" NCoef="0" IVar="-1" Cut="0.0000000000000000e+00" cType="1" res="-2.5988386478275061e-03" rms="4.5032107830047607e-01" purity="3.3379822969436646e-01" nType="-99"/>
          <Node pos="r" depth="2" NCoef="0" IVar="-1" Cut="0.0000000000000000e+00" cType="1" res="3.8120144745334983e-04" rms="4.7219678759574890e-01" purity="5.2142745256423950e-01" nType="-99"/>
        </Node>
        <Node pos="r" depth="1" NCoef="0" IVar="-1" Cut="0.0000000000000000e+00" cType="1" res="2.0293206907808781e-03" rms="4.6553802490234375e-01" purity="6.2318867444992065e-01" nType="-99"/>
      </Node>
    </BinaryTree>
    <BinaryTree type="DecisionTree" boostWeight="1.0000000000000000e+00" itree="307">
      <Node pos="s" depth="0" NCoef="0" IVar="0" Cut="-4.5333441346883774e-02" cType="1" res="7.2725447826087475e-03" rms="4.6875178813934326e-01" purity="5.0300341844558716e-01" nType="0">
        <Node pos="l" depth="1" NCoef="0" IVar="1" Cut="8.1922435760498047e-01" cType="1" res="-2.2619128227233887e-02" rms="4.6381205320358276e-01" purity="4.3865758180618286e-01" nType="0">
          <Node pos="l" depth="2" NCoef="0" IVar="-1" Cut="0.0000000000000000e+00" cType="1" res="-1.5650333371013403e-03" rms="4.5966717600822449e-01" purity="3.8303354382514954e-01" nType="-99"/>
          <Node pos="r" depth="2" NCoef="0" IVar="-1" Cut="0.0000000000000000e+00" cType="1" res="1.2069522636011243e-03" rms="4.7014540433883667e-01" purity="6.1927902698516846e-01" nType="-99"/>
        </Node>
        <Node pos="r" depth="1" NCoef="0" IVar="2" Cut="5.1182489013671875e+02" cType="1" res="2.2769890725612640e-02" rms="4.7054558992385864e-01" purity="5.3636354207992554e-01" nType="0">
          <Node pos="l" depth="2" NCoef="0" IVar="-1" Cut="0.0000000000000000e+00" cType="1" res="-1.3907859101891518e-04" rms="4.7276100516319275e-01" purity="4.4624260067939758e-01" nType="-99"/>
          <Node pos="r" depth="2" NCoef="0" IVar="-1" Cut="0.0000000000000000e+00" cType="1" res="1.1444925330579281e-03" rms="4.6756461262702942e-01" purity="6.0967159271240234e-01" nType="-99"/>
        </Node>
      </Node>
    </BinaryTree>
    <BinaryTree type="DecisionTree" boostWeight="1.0000000000000000e+00" itree="308">
      <Node pos="s" depth="0" NCoef="0" IVar="1" Cut="7.9654276371002197e-01" cType="1" res="4.1783642955124378e-03" rms="4.6968841552734375e-01" purity="4.9859142303466797e-01" nType="0">
        <Node pos="l" depth="1" NCoef="0" IVar="0" Cut="2.9380246996879578e-02" cType="1" res="-5.1779081113636494e-03" rms="4.7048151493072510e-01" purity="4.7078171372413635e-01" nType="0">
          <Node pos="l" depth="2" NCoef="0" IVar="-1" Cut="0.0000000000000000e+00" cType="1" res="-1.1100403498858213e-03" rms="4.6439844369888306e-01" purity="4.0292266011238098e-01" nType="-99"/>
          <Node pos="r" depth="2" NCoef="0" IVar="-1" Cut="0.0000000000000000e+00" cType="1" res="6.2506983522325754e-04" rms="4.7496384382247925e-01" purity="5.3984802961349487e-01" nType="-99"/>
        </Node>
        <Node pos="r" depth="1" NCoef="0" IVar="7" Cut="9.3491043090820312e+01" cType="1" res="4.6740207821130753e-02" rms="4.6368688344955444e-01" purity="6.2509810924530029e-01" nType="0">
          <Node pos="l" depth="2" NCoef="0" IVar="-1" Cut="0.0000000000000000e+00" cType="1" res="5.5647816043347120e-04" rms="4.7358357906341553e-01" purity="5.7402169704437256e-01" nType="-99"/>
          <Node pos="r" depth="2" NCoef="0" IVar="-1" Cut="0.0000000000000000e+00" cType="1" res="1.7389444401487708e-03" rms="4.5269259810447693e-01" purity="6.7381441593170166e-01" nType="-99"/>
        </Node>
      </Node>
    </BinaryTree>
    <BinaryTree type="DecisionTree" boostWeight="1.0000000000000000e+00" itree="309">
      <Node pos="s" depth="0" NCoef="0" IVar="2" Cut="8.2636584472656250e+02" cType="1" res="5.3313714452087879e-03" rms="4.6885854005813599e-01" purity="5.0017654895782471e-01" nType="0">
        <Node pos="l" depth="1" NCoef="0" IVar="6" Cut="1.1415966600179672e-01" cType="1" res="-2.0344874355942011e-03" rms="4.6886754035949707e-01" purity="4.8451298475265503e-01" nType="0">
          <Node pos="l" depth="2" NCoef="0" IVar="-1" Cut="0.0000000000000000e+00" cType="1" res="-5.7792908046394587e-04" rms="4.6705830097198486e-01" purity="4.5378199219703674e-01" nType="-99"/>
          <Node pos="r" depth="2" NCoef="0" IVar="-1" Cut="0.0000000000000000e+00" cType="1" res="7.3604355566203594e-04" rms="4.7063812613487244e-01" purity="5.3821569681167603e-01" nType="-99"/>
        </Node>
        <Node pos="r" depth="1" NCoef="0" IVar="-1" Cut="0.0000000000000000e+00" cType="1" res="1.6761155566200614e-03" rms="4.6442088484764099e-01" purity="6.2827628850936890e-01" nType="-99"/>
      </Node>
    </BinaryTree>
    <BinaryTree type="DecisionTree" boostWeight="1.0000000000000000e+00" itree="310">
      <Node pos="s" depth="0" NCoef="0" IVar="0" Cut="6.2515735626220703e-02" cType="1" res="6.4067514613270760e-03" rms="4.6861976385116577e-01" purity="5.0214320421218872e-01" nType="0">
        <Node pos="l" depth="1" NCoef="0" IVar="1" Cut="4.8471423983573914e-01" cType="1" res="-8.8854087516665459e-03" rms="4.6563094854354858e-01" purity="4.7059667110443115e-01" nType="0">
          <Node pos="l" depth="2" NCoef="0" IVar="-1" Cut="0.0000000000000000e+00" cType="1" res="-4.5301215723156929e-03" rms="4.1642037034034729e-01" purity="2.4571260809898376e-01" nType="-99"/>
          <Node pos="r" depth="2" NCoef="0" IVar="-1" Cut="0.0000000000000000e+00" cType="1" res="7.8190620115492493e-05" rms="4.7077268362045288e-01" purity="5.0131434202194214e-01" nType="-99"/>
        </Node>
        <Node pos="r" depth="1" NCoef="0" IVar="8" Cut="1.3656033277511597e+00" cType="1" res="3.5336453467607498e-02" rms="4.7287163138389587e-01" purity="5.6182312965393066e-01" nType="0">
          <Node pos="l" depth="2" NCoef="0" IVar="-1" Cut="0.0000000000000000e+00" cType="1" res="1.2510293163359165e-03" rms="4.7124952077865601e-01" purity="5.8333468437194824e-01" nType="-99"/>
          <Node pos="r" depth="2" NCoef="0" IVar="-1" Cut="0.0000000000000000e+00" cType="1" res="-5.9045338275609538e-05" rms="4.7567579150199890e-01" purity="4.9818038940429688e-01" nType="-99"/>
        </Node>
      </Node>
    </BinaryTree>
    <BinaryTree type="DecisionTree" boostWeight="1.0000000000000000e+00" itree="311">
      <Node pos="s" depth="0" NCoef="0" IVar="4" Cut="9.8551738262176514e-01" cType="1" res="6.7614424042403698e-03" rms="4.6889215707778931e-01" purity="5.0226670503616333e-01" nType="0">
        <Node pos="l" depth="1" NCoef="0" IVar="6" Cut="7.1544654667377472e-02" cType="1" res="-2.2008063388057053e-04" rms="4.7305175662040710e-01" purity="4.7618401050567627e-01" nType="0">
          <Node pos="l" depth="2" NCoef="0" IVar="-1" Cut="0.0000000000000000e+00" cType="1" res="-7.6987006468698382e-04" rms="4.6844792366027832e-01" purity="4.3829372525215149e-01" nType="-99"/>
          <Node pos="r" depth="2" NCoef="0" IVar="-1" Cut="0.0000000000000000e+00" cType="1" res="5.1706429803743958e-04" rms="4.7572496533393860e-01" purity="5.0512665510177612e-01" nType="-99"/>
        </Node>
        <Node pos="r" depth="1" NCoef="0" IVar="-1" Cut="0.0000000000000000e+00" cType="1" res="1.6925202216953039e-03" rms="4.2310354113578796e-01" purity="7.4342143535614014e-01" nType="-99"/>
      </Node>
    </BinaryTree>
    <BinaryTree type="DecisionTree" boostWeight="1.0000000000000000e+00" itree="312">
      <Node pos="s" depth="0" NCoef="0" IVar="4" Cut="9.6721863746643066e-01" cType="1" res="5.1216608844697475e-03" rms="4.6891406178474426e-01" purity="4.9989742040634155e-01" nType="0">
        <Node pos="l" depth="1" NCoef="0" IVar="8" Cut="6.8945580720901489e-01" cType="1" res="-7.4577452614903450e-03" rms="4.7349166870117188e-01" purity="4.3659013509750366e-01" nType="0">
          <Node pos="l" depth="2" NCoef="0" IVar="-1" Cut="0.0000000000000000e+00" cType="1" res="1.0856313165277243e-03" rms="4.8329555988311768e-01" purity="5.1347845792770386e-01" nType="-99"/>
          <Node pos="r" depth="2" NCoef="0" IVar="-1" Cut="0.0000000000000000e+00" cType="1" res="-5.1583355525508523e-04" rms="4.7113224864006042e-01" purity="4.2221900820732117e-01" nType="-99"/>
        </Node>
        <Node pos="r" depth="1" NCoef="0" IVar="2" Cut="4.8332617187500000e+02" cType="1" res="3.6550883203744888e-02" rms="4.5576202869415283e-01" purity="6.5806853771209717e-01" nType="0">
          <Node pos="l" depth="2" NCoef="0" IVar="-1" Cut="0.0000000000000000e+00" cType="1" res="1.1489647295093164e-04" rms="4.7597461938858032e-01" purity="5.7223993539810181e-01" nType="-99"/>
          <Node pos="r" depth="2" NCoef="0" IVar="-1" Cut="0.0000000000000000e+00" cType="1" res="1.3196740765124559e-03" rms="4.4314989447593689e-01" purity="7.0565801858901978e-01" nType="-99"/>
        </Node>
      </Node>
    </BinaryTree>
    <BinaryTree type="DecisionTree" boostWeight="1.0000000000000000e+00" itree="313">
      <Node pos="s" depth="0" NCoef="0" IVar="2" Cut="5.2811322021484375e+02" cType="1" res="3.0986557248979807e-03" rms="4.6922194957733154e-01" purity="4.9680987000465393e-01" nType="0">
        <Node pos="l" depth="1" NCoef="0" IVar="8" Cut="1.1520459651947021e+00" cType="1" res="-1.6115309670567513e-02" rms="4.6614861488342285e-01" purity="4.2021113634109497e-01" nType="0">
          <Node pos="l" depth="2" NCoef="0" IVar="-1" Cut="0.0000000000000000e+00" cType="1" res="1.8997622828464955e-04" rms="4.7197666764259338e-01" purity="4.5928987860679626e-01" nType="-99"/>
          <Node pos="r" depth="2" NCoef="0" IVar="-1" Cut="0.0000000000000000e+00" cType="1" res="-1.3940137578174472e-03" rms="4.5872554183006287e-01" purity="3.7888434529304504e-01" nType="-99"/>
        </Node>
        <Node pos="r" depth="1" NCoef="0" IVar="3" Cut="1.3649006652832031e+02" cType="1" res="2.1897627040743828e-02" rms="4.7145226597785950e-01" purity="5.7175415754318237e-01" nType="0">
          <Node pos="l" depth="2" NCoef="0" IVar="-1" Cut="0.0000000000000000e+00" cType="1" res="3.3192176488228142e-04" rms="4.7319519519805908e-01" purity="5.5984771251678467e-01" nType="-99"/>
          <Node pos="r" depth="2" NCoef="0" IVar="-1" Cut="0.0000000000000000e+00" cType="1" res="1.9193175248801708e-03" rms="4.5771640539169312e-01" purity="6.3880145549774170e-01" nType="-99"/>
        </Node>
      </Node>
    </BinaryTree>
    <BinaryTree type="DecisionTree" boostWeight="1.0000000000000000e+00" itree="314">
      <Node pos="s" depth="0" NCoef="0" IVar="2" Cut="4.1924157714843750e+02" cType="1" res="1.4362325891852379e-03" rms="4.6942973136901855e-01" purity="4.9546214938163757e-01" nType="0">
        <Node pos="l" depth="1" NCoef="0" IVar="3" Cut="7.8901153564453125e+01" cType="1" res="-4.2310055345296860e-02" rms="4.4944289326667786e-01" purity="3.4004777669906616e-01" nType="0">
          <Node pos="l" depth="2" NCoef="0" IVar="-1" Cut="0.0000000000000000e+00" cType="1" res="-6.8548921262845397e-04" rms="4.5702198147773743e-01" purity="3.7118566036224365e-01" nType="-99"/>
          <Node pos="r" depth="2" NCoef="0" IVar="-1" Cut="0.0000000000000000e+00" cType="1" res="-3.1474446877837181e-03" rms="4.3656927347183228e-01" purity="2.9653963446617126e-01" nType="-99"/>
        </Node>
        <Node pos="r" depth="1" NCoef="0" IVar="6" Cut="1.1828552931547165e-01" cType="1" res="1.2026116251945496e-02" rms="4.7353419661521912e-01" purity="5.3308409452438354e-01" nType="0">
          <Node pos="l" depth="2" NCoef="0" IVar="-1" Cut="0.0000000000000000e+00" cType="1" res="-2.8210743039380759e-05" rms="4.7497296333312988e-01" purity="5.0628030300140381e-01" nType="-99"/>
          <Node pos="r" depth="2" NCoef="0" IVar="-1" Cut="0.0000000000000000e+00" cType="1" res="1.1455969652161002e-03" rms="4.6826383471488953e-01" purity="6.0091549158096313e-01" nType="-99"/>
        </Node>
      </Node>
    </BinaryTree>
    <BinaryTree type="DecisionTree" boostWeight="1.0000000000000000e+00" itree="315">
      <Node pos="s" depth="0" NCoef="0" IVar="2" Cut="8.2484771728515625e+02" cType="1" res="8.7839048355817795e-03" rms="4.7020095586776733e-01" purity="5.0235879421234131e-01" nType="0">
        <Node pos="l" depth="1" NCoef="0" IVar="4" Cut="9.8546850681304932e-01" cType="1" res="2.3210991639643908e-03" rms="4.7051328420639038e-01" purity="4.8695084452629089e-01" nType="0">
          <Node pos="l" depth="2" NCoef="0" IVar="-1" Cut="0.0000000000000000e+00" cType="1" res="-1.2374352081678808e-04" rms="4.7406843304634094e-01" purity="4.6128448843955994e-01" nType="-99"/>
          <Node pos="r" depth="2" NCoef="0" IVar="-1" Cut="0.0000000000000000e+00" cType="1" res="1.4924375573173165e-03" rms="4.3085297942161560e-01" purity="7.2946894168853760e-01" nType="-99"/>
        </Node>
        <Node pos="r" depth="1" NCoef="0" IVar="-1" Cut="0.0000000000000000e+00" cType="1" res="1.5591869596391916e-03" rms="4.6433439850807190e-01" purity="6.2753009796142578e-01" nType="-99"/>
      </Node>
    </BinaryTree>
    <BinaryTree type="DecisionTree" boostWeight="1.0000000000000000e+00" itree="316">
      <Node pos="s" depth="0" NCoef="0" IVar="0" Cut="-4.3762405402958393e-03" cType="1" res="3.7805144675076008e-03" rms="4.6887201070785522e-01" purity="4.9822962284088135e-01" nType="0">
        <Node pos="l" depth="1" NCoef="0" IVar="1" Cut="6.9767910242080688e-01" cType="1" res="-1.7258742824196815e-02" rms="4.6479448676109314e-01" purity="4.5108208060264587e-01" nType="0">
          <Node pos="l" depth="2" NCoef="0" IVar="-1" Cut="0.0000000000000000e+00" cType="1" res="-2.2130680736154318e-03" rms="4.5099556446075439e-01" purity="3.2855385541915894e-01" nType="-99"/>
          <Node pos="r" depth="2" NCoef="0" IVar="-1" Cut="0.0000000000000000e+00" cType="1" res="5.2555231377482414e-04" rms="4.7458976507186890e-01" purity="5.6751501560211182e-01" nType="-99"/>
        </Node>
        <Node pos="r" depth="1" NCoef="0" IVar="4" Cut="9.2746126651763916e-01" cType="1" res="2.2918613627552986e-02" rms="4.7173622250556946e-01" purity="5.4111683368682861e-01" nType="0">
          <Node pos="l" depth="2" NCoef="0" IVar="-1" Cut="0.0000000000000000e+00" cType="1" res="-8.2910875789821148e-04" rms="4.7301724553108215e-01" purity="3.8021922111511230e-01" nType="-99"/>
          <Node pos="r" depth="2" NCoef="0" IVar="-1" Cut="0.0000000000000000e+00" cType="1" res="8.9447706704959273e-04" rms="4.7074910998344421e-01" purity="5.7882857322692871e-01" nType="-99"/>
        </Node>
      </Node>
    </BinaryTree>
    <BinaryTree type="DecisionTree" boostWeight="1.0000000000000000e+00" itree="317">
      <Node pos="s" depth="0" NCoef="0" IVar="4" Cut="9.7198790311813354e-01" cType="1" res="1.8526797648519278e-03" rms="4.6867161989212036e-01" purity="4.9705484509468079e-01" nType="0">
        <Node pos="l" depth="1" NCoef="0" IVar="0" Cut="-8.1625178456306458e-02" cType="1" res="-9.8390746861696243e-03" rms="4.7376787662506104e-01" purity="4.4209402799606323e-01" nType="0">
          <Node pos="l" depth="2" NCoef="0" IVar="-1" Cut="0.0000000000000000e+00" cType="1" res="-1.8920754082500935e-03" rms="4.5233231782913208e-01" purity="3.5584819316864014e-01" nType="-99"/>
          <Node pos="r" depth="2" NCoef="0" IVar="-1" Cut="0.0000000000000000e+00" cType="1" res="1.0445333828101866e-05" rms="4.7831359505653381e-01" purity="4.6319124102592468e-01" nType="-99"/>
        </Node>
        <Node pos="r" depth="1" NCoef="0" IVar="4" Cut="9.8732626438140869e-01" cType="1" res="4.0792927145957947e-02" rms="4.4909349083900452e-01" purity="6.8010586500167847e-01" nType="0">
          <Node pos="l" depth="2" NCoef="0" IVar="-1" Cut="0.0000000000000000e+00" cType="1" res="6.1575090512633324e-04" rms="4.6325272321701050e-01" purity="6.4351123571395874e-01" nType="-99"/>
          <Node pos="r" depth="2" NCoef="0" IVar="-1" Cut="0.0000000000000000e+00" cType="1" res="1.6828844090923667e-03" rms="4.2039462924003601e-01" purity="7.4672508239746094e-01" nType="-99"/>
        </Node>
      </Node>
    </BinaryTree>
    <BinaryTree type="DecisionTree" boostWeight="1.0000000000000000e+00" itree="318">
      <Node pos="s" depth="0" NCoef="0" IVar="4" Cut="9.2191737890243530e-01" cType="1" res="8.5719544440507889e-03" rms="4.6822884678840637e-01" purity="5.0391823053359985e-01" nType="0">
        <Node pos="l" depth="1" NCoef="0" IVar="5" Cut="4.3795663118362427e-01" cType="1" res="-4.1376706212759018e-02" rms="4.5486104488372803e-01" purity="3.3789652585983276e-01" nType="0">
          <Node pos="l" depth="2" NCoef="0" IVar="-1" Cut="0.0000000000000000e+00" cType="1" res="-2.4481003638356924e-03" rms="4.4359615445137024e-01" purity="3.0448848009109497e-01" nType="-99"/>
          <Node pos="r" depth="2" NCoef="0" IVar="-1" Cut="0.0000000000000000e+00" cType="1" res="-3.6974364775232971e-04" rms="4.7120705246925354e-01" purity="3.9270171523094177e-01" nType="-99"/>
        </Node>
        <Node pos="r" depth="1" NCoef="0" IVar="0" Cut="-4.5522671192884445e-02" cType="1" res="1.6982279717922211e-02" rms="4.6992039680480957e-01" purity="5.3187280893325806e-01" nType="0">
          <Node pos="l" depth="2" NCoef="0" IVar="-1" Cut="0.0000000000000000e+00" cType="1" res="-3.3744354732334614e-04" rms="4.6855846047401428e-01" purity="4.6794703602790833e-01" nType="-99"/>
          <Node pos="r" depth="2" NCoef="0" IVar="-1" Cut="0.0000000000000000e+00" cType="1" res="8.4728334331884980e-04" rms="4.6997219324111938e-01" purity="5.6525391340255737e-01" nType="-99"/>
        </Node>
      </Node>
    </BinaryTree>
    <BinaryTree type="DecisionTree" boostWeight="1.0000000000000000e+00" itree="319">
      <Node pos="s" depth="0" NCoef="0" IVar="0" Cut="1.5239004790782928e-01" cType="1" res="5.7783909142017365e-03" rms="4.6827697753906250e-01" purity="5.0201439857482910e-01" nType="0">
        <Node pos="l" depth="1" NCoef="0" IVar="1" Cut="5.5701571702957153e-01" cType="1" res="-4.4861338101327419e-03" rms="4.6754282712936401e-01" purity="4.8155823349952698e-01" nType="0">
          <Node pos="l" depth="2" NCoef="0" IVar="-1" Cut="0.0000000000000000e+00" cType="1" res="-2.2574684116989374e-03" rms="4.4609966874122620e-01" purity="3.2452058792114258e-01" nType="-99"/>
          <Node pos="r" depth="2" NCoef="0" IVar="-1" Cut="0.0000000000000000e+00" cType="1" res="3.7579212221316993e-04" rms="4.7324210405349731e-01" purity="5.3470098972320557e-01" nType="-99"/>
        </Node>
        <Node pos="r" depth="1" NCoef="0" IVar="4" Cut="9.5793807506561279e-01" cType="1" res="5.3140141069889069e-02" rms="4.6874743700027466e-01" purity="5.9640169143676758e-01" nType="0">
          <Node pos="l" depth="2" NCoef="0" IVar="-1" Cut="0.0000000000000000e+00" cType="1" res="8.3428784273564816e-04" rms="4.8721787333488464e-01" purity="5.0928115844726562e-01" nType="-99"/>
          <Node pos="r" depth="2" NCoef="0" IVar="-1" Cut="0.0000000000000000e+00" cType="1" res="1.9690829794853926e-03" rms="4.3927189707756042e-01" purity="7.1968674659729004e-01" nType="-99"/>
        </Node>
      </Node>
    </BinaryTree>
    <BinaryTree type="DecisionTree" boostWeight="1.0000000000000000e+00" itree="320">
      <Node pos="s" depth="0" NCoef="0" IVar="0" Cut="1.4598600566387177e-01" cType="1" res="5.5793658830225468e-03" rms="4.6750998497009277e-01" purity="5.0192826986312866e-01" nType="0">
        <Node pos="l" depth="1" NCoef="0" IVar="1" Cut="6.2694472074508667e-01" cType="1" res="-4.6768486499786377e-03" rms="4.6609550714492798e-01" purity="4.8210567235946655e-01" nType="0">
          <Node pos="l" depth="2" NCoef="0" IVar="-1" Cut="0.0000000000000000e+00" cType="1" res="-1.5351116890087724e-03" rms="4.5398131012916565e-01" purity="3.5868349671363831e-01" nType="-99"/>
          <Node pos="r" depth="2" NCoef="0" IVar="-1" Cut="0.0000000000000000e+00" cType="1" res="5.1799672655761242e-04" rms="4.7214549779891968e-01" purity="5.6111216545104980e-01" nType="-99"/>
        </Node>
        <Node pos="r" depth="1" NCoef="0" IVar="8" Cut="9.6434658765792847e-01" cType="1" res="5.0851386040449142e-02" rms="4.7104224562644958e-01" purity="5.8942764997482300e-01" nType="0">
          <Node pos="l" depth="2" NCoef="0" IVar="-1" Cut="0.0000000000000000e+00" cType="1" res="1.8598656170070171e-03" rms="4.6339619159698486e-01" purity="6.3357537984848022e-01" nType="-99"/>
          <Node pos="r" depth="2" NCoef="0" IVar="-1" Cut="0.0000000000000000e+00" cType="1" res="8.6942285997793078e-04" rms="4.7585630416870117e-01" purity="5.5635595321655273e-01" nType="-99"/>
        </Node>
      </Node>
    </BinaryTree>
    <BinaryTree type="DecisionTree" boostWeight="1.0000000000000000e+00" itree="321">
      <Node pos="s" depth="0" NCoef="0" IVar="2" Cut="7.3826000976562500e+02" cType="1" res="4.3081431649625301e-03" rms="4.6788883209228516e-01" purity="4.9985939264297485e-01" nType="0">
        <Node pos="l" depth="1" NCoef="0" IVar="4" Cut="9.8556572198867798e-01" cType="1" res="-5.1559293642640114e-03" rms="4.6736365556716919e-01" purity="4.7637513279914856e-01" nType="0">
          <Node pos="l" depth="2" NCoef="0" IVar="-1" Cut="0.0000000000000000e+00" cType="1" res="-3.9507710607722402e-04" rms="4.7096031904220581e-01" purity="4.4837442040443420e-01" nType="-99"/>
          <Node pos="r" depth="2" NCoef="0" IVar="-1" Cut="0.0000000000000000e+00" cType="1" res="1.5610298141837120e-03" rms="4.2620331048965454e-01" purity="7.3579496145248413e-01" nType="-99"/>
        </Node>
        <Node pos="r" depth="1" NCoef="0" IVar="3" Cut="1.0308857727050781e+02" cType="1" res="5.0495970994234085e-02" rms="4.6770367026329041e-01" purity="6.1447018384933472e-01" nType="0">
          <Node pos="l" depth="2" NCoef="0" IVar="-1" Cut="0.0000000000000000e+00" cType="1" res="7.8914669575169683e-04" rms="4.7202566266059875e-01" purity="5.9152173995971680e-01" nType="-99"/>
          <Node pos="r" depth="2" NCoef="0" IVar="-1" Cut="0.0000000000000000e+00" cType="1" res="1.7942816484719515e-03" rms="4.6247395873069763e-01" purity="6.3718169927597046e-01" nType="-99"/>
        </Node>
      </Node>
    </BinaryTree>
    <BinaryTree type="DecisionTree" boostWeight="1.0000000000000000e+00" itree="322">
      <Node pos="s" depth="0" NCoef="0" IVar="2" Cut="4.3647204589843750e+02" cType="1" res="7.4191624298691750e-03" rms="4.6849560737609863e-01" purity="5.0202149152755737e-01" nType="0">
        <Node pos="l" depth="1" NCoef="0" IVar="3" Cut="8.2228927612304688e+01" cType="1" res="-2.7977893128991127e-02" rms="4.5592448115348816e-01" purity="3.6119651794433594e-01" nType="0">
          <Node pos="l" depth="2" NCoef="0" IVar="-1" Cut="0.0000000000000000e+00" cType="1" res="-1.9851011165883392e-04" rms="4.6362072229385376e-01" purity="3.8797447085380554e-01" nType="-99"/>
          <Node pos="r" depth="2" NCoef="0" IVar="-1" Cut="0.0000000000000000e+00" cType="1" res="-2.4152989499270916e-03" rms="4.4189521670341492e-01" purity="3.2065653800964355e-01" nType="-99"/>
        </Node>
        <Node pos="r" depth="1" NCoef="0" IVar="6" Cut="1.4804248511791229e-01" cType="1" res="1.8743174150586128e-02" rms="4.7188642621040344e-01" purity="5.4707336425781250e-01" nType="0">
          <Node pos="l" depth="2" NCoef="0" IVar="-1" Cut="0.0000000000000000e+00" cType="1" res="1.9349368812981993e-04" rms="4.7381398081779480e-01" purity="5.2559453248977661e-01" nType="-99"/>
          <Node pos="r" depth="2" NCoef="0" IVar="-1" Cut="0.0000000000000000e+00" cType="1" res="1.7764432122930884e-03" rms="4.5906472206115723e-01" purity="6.4523142576217651e-01" nType="-99"/>
        </Node>
      </Node>
    </BinaryTree>
    <BinaryTree type="DecisionTree" boostWeight="1.0000000000000000e+00" itree="323">
      <Node pos="s" depth="0" NCoef="0" IVar="8" Cut="1.1440463066101074e+00" cType="1" res="7.5659421272575855e-03" rms="4.6991863846778870e-01" purity="5.0172293186187744e-01" nType="0">
        <Node pos="l" depth="1" NCoef="0" IVar="6" Cut="5.5169519037008286e-02" cType="1" res="2.3247888311743736e-02" rms="4.7212395071983337e-01" purity="5.3634083271026611e-01" nType="0">
          <Node pos="l" depth="2" NCoef="0" IVar="-1" Cut="0.0000000000000000e+00" cType="1" res="-2.7760470402427018e-04" rms="4.7532188892364502e-01" purity="4.8090746998786926e-01" nType="-99"/>
          <Node pos="r" depth="2" NCoef="0" IVar="-1" Cut="0.0000000000000000e+00" cType="1" res="1.0773658286780119e-03" rms="4.6957755088806152e-01" purity="5.6505048274993896e-01" nType="-99"/>
        </Node>
        <Node pos="r" depth="1" NCoef="0" IVar="2" Cut="5.8831811523437500e+02" cType="1" res="-1.4441130682826042e-02" rms="4.6591699123382568e-01" purity="4.5314228534698486e-01" nType="0">
          <Node pos="l" depth="2" NCoef="0" IVar="-1" Cut="0.0000000000000000e+00" cType="1" res="-9.9379708990454674e-04" rms="4.6228206157684326e-01" purity="4.0888351202011108e-01" nType="-99"/>
          <Node pos="r" depth="2" NCoef="0" IVar="-1" Cut="0.0000000000000000e+00" cType="1" res="7.1048573590815067e-04" rms="4.7304138541221619e-01" purity="5.7083690166473389e-01" nType="-99"/>
        </Node>
      </Node>
    </BinaryTree>
    <BinaryTree type="DecisionTree" boostWeight="1.0000000000000000e+00" itree="324">
      <Node pos="s" depth="0" NCoef="0" IVar="4" Cut="9.8107683658599854e-01" cType="1" res="2.1056451369076967e-03" rms="4.6870705485343933e-01" purity="4.9668928980827332e-01" nType="0">
        <Node pos="l" depth="1" NCoef="0" IVar="0" Cut="1.5141285955905914e-01" cType="1" res="-6.0893599875271320e-03" rms="4.7371998429298401e-01" purity="4.6065545082092285e-01" nType="0">
          <Node pos="l" depth="2" NCoef="0" IVar="-1" Cut="0.0000000000000000e+00" cType="1" res="-4.5898658572696149e-04" rms="4.7145593166351318e-01" purity="4.4122350215911865e-01" nType="-99"/>
          <Node pos="r" depth="2" NCoef="0" IVar="-1" Cut="0.0000000000000000e+00" cType="1" res="8.8026537559926510e-04" rms="4.8213833570480347e-01" purity="5.5091941356658936e-01" nType="-99"/>
        </Node>
        <Node pos="r" depth="1" NCoef="0" IVar="-1" Cut="0.0000000000000000e+00" cType="1" res="1.2957636499777436e-03" rms="4.3296167254447937e-01" purity="7.1972674131393433e-01" nType="-99"/>
      </Node>
    </BinaryTree>
    <BinaryTree type="DecisionTree" boostWeight="1.0000000000000000e+00" itree="325">
      <Node pos="s" depth="0" NCoef="0" IVar="2" Cut="4.0056472778320312e+02" cType="1" res="7.8061246313154697e-03" rms="4.6772250533103943e-01" purity="5.0430035591125488e-01" nType="0">
        <Node pos="l" depth="1" NCoef="0" IVar="3" Cut="7.7653984069824219e+01" cType="1" res="-4.4725056737661362e-02" rms="4.4719898700714111e-01" purity="3.2932436466217041e-01" nType="0">
          <Node pos="l" depth="2" NCoef="0" IVar="-1" Cut="0.0000000000000000e+00" cType="1" res="-6.8882899358868599e-04" rms="4.5603823661804199e-01" purity="3.6403065919876099e-01" nType="-99"/>
          <Node pos="r" depth="2" NCoef="0" IVar="-1" Cut="0.0000000000000000e+00" cType="1" res="-3.4770846832543612e-03" rms="4.3220973014831543e-01" purity="2.8153109550476074e-01" nType="-99"/>
        </Node>
        <Node pos="r" depth="1" NCoef="0" IVar="0" Cut="-7.8655749559402466e-02" cType="1" res="1.6845919191837311e-02" rms="4.7057312726974487e-01" purity="5.3441107273101807e-01" nType="0">
          <Node pos="l" depth="2" NCoef="0" IVar="-1" Cut="0.0000000000000000e+00" cType="1" res="-8.5659528849646449e-04" rms="4.6518233418464661e-01" purity="4.4376525282859802e-01" nType="-99"/>
          <Node pos="r" depth="2" NCoef="0" IVar="-1" Cut="0.0000000000000000e+00" cType="1" res="7.6801131945103407e-04" rms="4.7130975127220154e-01" purity="5.5825155973434448e-01" nType="-99"/>
        </Node>
      </Node>
    </BinaryTree>
    <BinaryTree type="DecisionTree" boostWeight="1.0000000000000000e+00" itree="326">
      <Node pos="s" depth="0" NCoef="0" IVar="2" Cut="7.2471038818359375e+02" cType="1" res="2.9671646188944578e-03" rms="4.6870866417884827e-01" purity="4.9769914150238037e-01" nType="0">
        <Node pos="l" depth="1" NCoef="0" IVar="6" Cut="6.8857088685035706e-02" cType="1" res="-6.2777474522590637e-03" rms="4.6825933456420898e-01" purity="4.7287932038307190e-01" nType="0">
          <Node pos="l" depth="2" NCoef="0" IVar="-1" Cut="0.0000000000000000e+00" cType="1" res="-1.1911380570381880e-03" rms="4.6226605772972107e-01" purity="4.1019088029861450e-01" nType="-99"/>
          <Node pos="r" depth="2" NCoef="0" IVar="-1" Cut="0.0000000000000000e+00" cType="1" res="2.8354121604934335e-04" rms="4.7074407339096069e-01" purity="5.0733006000518799e-01" nType="-99"/>
        </Node>
        <Node pos="r" depth="1" NCoef="0" IVar="2" Cut="8.9627954101562500e+02" cType="1" res="4.5090492814779282e-02" rms="4.6844670176506042e-01" purity="6.1078774929046631e-01" nType="0">
          <Node pos="l" depth="2" NCoef="0" IVar="-1" Cut="0.0000000000000000e+00" cType="1" res="6.9218681892380118e-04" rms="4.7333937883377075e-01" purity="5.9026837348937988e-01" nType="-99"/>
          <Node pos="r" depth="2" NCoef="0" IVar="-1" Cut="0.0000000000000000e+00" cType="1" res="1.7735690344125032e-03" rms="4.6068114042282104e-01" purity="6.3803875446319580e-01" nType="-99"/>
        </Node>
      </Node>
    </BinaryTree>
    <BinaryTree type="DecisionTree" boostWeight="1.0000000000000000e+00" itree="327">
      <Node pos="s" depth="0" NCoef="0" IVar="2" Cut="5.3988458251953125e+02" cType="1" res="5.9915613383054733e-03" rms="4.6813091635704041e-01" purity="5.0150299072265625e-01" nType="0">
        <Node pos="l" depth="1" NCoef="0" IVar="8" Cut="8.7049692869186401e-01" cType="1" res="-1.6444295644760132e-02" rms="4.6590128540992737e-01" purity="4.2640566825866699e-01" nType="0">
          <Node pos="l" depth="2" NCoef="0" IVar="-1" Cut="0.0000000000000000e+00" cType="1" res="7.2145770536735654e-04" rms="4.7176817059516907e-01" purity="4.8912990093231201e-01" nType="-99"/>
          <Node pos="r" depth="2" NCoef="0" IVar="-1" Cut="0.0000000000000000e+00" cType="1" res="-1.0681491112336516e-03" rms="4.6278196573257446e-01" purity="4.0313744544982910e-01" nType="-99"/>
        </Node>
        <Node pos="r" depth="1" NCoef="0" IVar="3" Cut="1.3396621704101562e+02" cType="1" res="3.0557842925190926e-02" rms="4.6933159232139587e-01" purity="5.8373123407363892e-01" nType="0">
          <Node pos="l" depth="2" NCoef="0" IVar="-1" Cut="0.0000000000000000e+00" cType="1" res="4.4529722072184086e-04" rms="4.7126066684722900e-01" purity="5.6731283664703369e-01" nType="-99"/>
          <Node pos="r" depth="2" NCoef="0" IVar="-1" Cut="0.0000000000000000e+00" cType="1" res="2.3615001700818539e-03" rms="4.5381221175193787e-01" purity="6.6304409503936768e-01" nType="-99"/>
        </Node>
      </Node>
    </BinaryTree>
    <BinaryTree type="DecisionTree" boostWeight="1.0000000000000000e+00" itree="328">
      <Node pos="s" depth="0" NCoef="0" IVar="2" Cut="7.3999676513671875e+02" cType="1" res="5.5280872620642185e-03" rms="4.6940037608146667e-01" purity="5.0027543306350708e-01" nType="0">
        <Node pos="l" depth="1" NCoef="0" IVar="6" Cut="1.7817397415637970e-01" cType="1" res="-3.3027201425284147e-03" rms="4.6920612454414368e-01" purity="4.7725105285644531e-01" nType="0">
          <Node pos="l" depth="2" NCoef="0" IVar="-1" Cut="0.0000000000000000e+00" cType="1" res="-3.8254773244261742e-04" rms="4.6858340501785278e-01" purity="4.6158519387245178e-01" nType="-99"/>
          <Node pos="r" depth="2" NCoef="0" IVar="-1" Cut="0.0000000000000000e+00" cType="1" res="1.2246455298736691e-03" rms="4.6951144933700562e-01" purity="5.6232720613479614e-01" nType="-99"/>
        </Node>
        <Node pos="r" depth="1" NCoef="0" IVar="0" Cut="-4.9141485244035721e-02" cType="1" res="4.9219015985727310e-02" rms="4.6791455149650574e-01" purity="6.1419004201889038e-01" nType="0">
          <Node pos="l" depth="2" NCoef="0" IVar="-1" Cut="0.0000000000000000e+00" cType="1" res="5.8530195383355021e-04" rms="4.8018786311149597e-01" purity="5.5216854810714722e-01" nType="-99"/>
          <Node pos="r" depth="2" NCoef="0" IVar="-1" Cut="0.0000000000000000e+00" cType="1" res="1.6140188090503216e-03" rms="4.6024546027183533e-01" purity="6.4852631092071533e-01" nType="-99"/>
        </Node>
      </Node>
    </BinaryTree>
    <BinaryTree type="DecisionTree" boostWeight="1.0000000000000000e+00" itree="329">
      <Node pos="s" depth="0" NCoef="0" IVar="0" Cut="4.7465939074754715e-02" cType="1" res="6.1441455036401749e-03" rms="4.6861076354980469e-01" purity="5.0202971696853638e-01" nType="0">
        <Node pos="l" depth="1" NCoef="0" IVar="1" Cut="7.9726362228393555e-01" cType="1" res="-1.0023903101682663e-02" rms="4.6580275893211365e-01" purity="4.6657225489616394e-01" nType="0">
          <Node pos="l" depth="2" NCoef="0" IVar="-1" Cut="0.0000000000000000e+00" cType="1" res="-9.9555519409477711e-04" rms="4.6460640430450439e-01" purity="4.0956592559814453e-01" nType="-99"/>
          <Node pos="r" depth="2" NCoef="0" IVar="-1" Cut="0.0000000000000000e+00" cType="1" res="1.0873064165934920e-03" rms="4.6488648653030396e-01" purity="6.2202537059783936e-01" nType="-99"/>
        </Node>
        <Node pos="r" depth="1" NCoef="0" IVar="4" Cut="9.3977153301239014e-01" cType="1" res="3.1923383474349976e-02" rms="4.7190919518470764e-01" purity="5.5856513977050781e-01" nType="0">
          <Node pos="l" depth="2" NCoef="0" IVar="-1" Cut="0.0000000000000000e+00" cType="1" res="-2.0354794105514884e-04" rms="4.7946828603744507e-01" purity="4.2414349317550659e-01" nType="-99"/>
          <Node pos="r" depth="2" NCoef="0" IVar="-1" Cut="0.0000000000000000e+00" cType="1" res="1.2687722919508815e-03" rms="4.6711623668670654e-01" purity="6.2313681840896606e-01" nType="-99"/>
        </Node>
      </Node>
    </BinaryTree>
    <BinaryTree type="DecisionTree" boostWeight="1.0000000000000000e+00" itree="330">
      <Node pos="s" depth="0" NCoef="0" IVar="3" Cut="1.5134410095214844e+02" cType="1" res="4.7120116651058197e-03" rms="4.6850481629371643e-01" purity="4.9935844540596008e-01" nType="0">
        <Node pos="l" depth="1" NCoef="0" IVar="0" Cut="9.8108023405075073e-02" cType="1" res="-1.9568512216210365e-03" rms="4.6935904026031494e-01" purity="4.8943915963172913e-01" nType="0">
          <Node pos="l" depth="2" NCoef="0" IVar="-1" Cut="0.0000000000000000e+00" cType="1" res="-4.6418586862273514e-04" rms="4.6673509478569031e-01" purity="4.6179118752479553e-01" nType="-99"/>
          <Node pos="r" depth="2" NCoef="0" IVar="-1" Cut="0.0000000000000000e+00" cType="1" res="8.6734455544501543e-04" rms="4.7455599904060364e-01" purity="5.6293922662734985e-01" nType="-99"/>
        </Node>
        <Node pos="r" depth="1" NCoef="0" IVar="-1" Cut="0.0000000000000000e+00" cType="1" res="2.4670506827533245e-03" rms="4.4576478004455566e-01" purity="6.3934135437011719e-01" nType="-99"/>
      </Node>
    </BinaryTree>
    <BinaryTree type="DecisionTree" boostWeight="1.0000000000000000e+00" itree="331">
      <Node pos="s" depth="0" NCoef="0" IVar="4" Cut="9.7178369760513306e-01" cType="1" res="2.6978640817105770e-03" rms="4.6788305044174194e-01" purity="4.9842587113380432e-01" nType="0">
        <Node pos="l" depth="1" NCoef="0" IVar="2" Cut="4.3192135620117188e+02" cType="1" res="-7.6342304237186909e-03" rms="4.7290882468223572e-01" purity="4.4321620464324951e-01" nType="0">
          <Node pos="l" depth="2" NCoef="0" IVar="-1" Cut="0.0000000000000000e+00" cType="1" res="-1.8589423270896077e-03" rms="4.4220820069313049e-01" purity="2.9649478197097778e-01" nType="-99"/>
          <Node pos="r" depth="2" NCoef="0" IVar="-1" Cut="0.0000000000000000e+00" cType="1" res="1.1688634549500421e-04" rms="4.8156684637069702e-01" purity="4.8935353755950928e-01" nType="-99"/>
        </Node>
        <Node pos="r" depth="1" NCoef="0" IVar="4" Cut="9.8460847139358521e-01" cType="1" res="3.6364533007144928e-02" rms="4.4947376847267151e-01" purity="6.7832410335540771e-01" nType="0">
          <Node pos="l" depth="2" NCoef="0" IVar="-1" Cut="0.0000000000000000e+00" cType="1" res="4.6455991105176508e-04" rms="4.6564364433288574e-01" purity="6.3220936059951782e-01" nType="-99"/>
          <Node pos="r" depth="2" NCoef="0" IVar="-1" Cut="0.0000000000000000e+00" cType="1" res="1.4297551242634654e-03" rms="4.2758423089981079e-01" purity="7.3530220985412598e-01" nType="-99"/>
        </Node>
      </Node>
    </BinaryTree>
    <BinaryTree type="DecisionTree" boostWeight="1.0000000000000000e+00" itree="332">
      <Node pos="s" depth="0" NCoef="0" IVar="5" Cut="5.0471830368041992e-01" cType="1" res="1.4107296010479331e-03" rms="4.6904405951499939e-01" purity="4.9483391642570496e-01" nType="0">
        <Node pos="l" depth="1" NCoef="0" IVar="2" Cut="8.5488165283203125e+02" cType="1" res="-1.0698055848479271e-02" rms="4.6725833415985107e-01" purity="4.6784326434135437e-01" nType="0">
          <Node pos="l" depth="2" NCoef="0" IVar="-1" Cut="0.0000000000000000e+00" cType="1" res="-6.1926571652293205e-04" rms="4.6663793921470642e-01" purity="4.4922593235969543e-01" nType="-99"/>
          <Node pos="r" depth="2" NCoef="0" IVar="-1" Cut="0.0000000000000000e+00" cType="1" res="1.5883381711319089e-03" rms="4.6599426865577698e-01" purity="6.1747211217880249e-01" nType="-99"/>
        </Node>
        <Node pos="r" depth="1" NCoef="0" IVar="6" Cut="1.9932748377323151e-01" cType="1" res="2.8992829844355583e-02" rms="4.7192808985710144e-01" purity="5.5631470680236816e-01" nType="0">
          <Node pos="l" depth="2" NCoef="0" IVar="-1" Cut="0.0000000000000000e+00" cType="1" res="4.4818466994911432e-04" rms="4.7350901365280151e-01" purity="5.4587709903717041e-01" nType="-99"/>
          <Node pos="r" depth="2" NCoef="0" IVar="-1" Cut="0.0000000000000000e+00" cType="1" res="1.5126677462831140e-03" rms="4.6693095564842224e-01" purity="5.8042019605636597e-01" nType="-99"/>
        </Node>
      </Node>
    </BinaryTree>
    <BinaryTree type="DecisionTree" boostWeight="1.0000000000000000e+00" itree="333">
      <Node pos="s" depth="0" NCoef="0" IVar="3" Cut="1.3262509155273438e+02" cType="1" res="6.7458688281476498e-03" rms="4.6826586127281189e-01" purity="5.0197243690490723e-01" nType="0">
        <Node pos="l" depth="1" NCoef="0" IVar="6" Cut="1.4242011308670044e-01" cType="1" res="-6.8878539605066180e-04" rms="4.6895170211791992e-01" purity="4.8927187919616699e-01" nType="0">
          <Node pos="l" depth="2" NCoef="0" IVar="-1" Cut="0.0000000000000000e+00" cType="1" res="-3.5852359724231064e-04" rms="4.6836104989051819e-01" purity="4.7155404090881348e-01" nType="-99"/>
          <Node pos="r" depth="2" NCoef="0" IVar="-1" Cut="0.0000000000000000e+00" cType="1" res="9.7472761990502477e-04" rms="4.6906149387359619e-01" purity="5.4781776666641235e-01" nType="-99"/>
        </Node>
        <Node pos="r" depth="1" NCoef="0" IVar="2" Cut="5.7534484863281250e+02" cType="1" res="5.6615870445966721e-02" rms="4.6054694056510925e-01" purity="5.8716493844985962e-01" nType="0">
          <Node pos="l" depth="2" NCoef="0" IVar="-1" Cut="0.0000000000000000e+00" cType="1" res="4.4675602111965418e-04" rms="4.6748748421669006e-01" purity="4.8439899086952209e-01" nType="-99"/>
          <Node pos="r" depth="2" NCoef="0" IVar="-1" Cut="0.0000000000000000e+00" cType="1" res="2.1049035713076591e-03" rms="4.5322096347808838e-01" purity="6.6045409440994263e-01" nType="-99"/>
        </Node>
      </Node>
    </BinaryTree>
    <BinaryTree type="DecisionTree" boostWeight="1.0000000000000000e+00" itree="334">
      <Node pos="s" depth="0" NCoef="0" IVar="2" Cut="8.3979327392578125e+02" cType="1" res="3.9120689034461975e-03" rms="4.6815615892410278e-01" purity="4.9911668896675110e-01" nType="0">
        <Node pos="l" depth="1" NCoef="0" IVar="4" Cut="9.8561698198318481e-01" cType="1" res="-3.1300338450819254e-03" rms="4.6847367286682129e-01" purity="4.8329287767410278e-01" nType="0">
          <Node pos="l" depth="2" NCoef="0" IVar="-1" Cut="0.0000000000000000e+00" cType="1" res="-3.0496218823827803e-04" rms="4.7189286351203918e-01" purity="4.5676913857460022e-01" nType="-99"/>
          <Node pos="r" depth="2" NCoef="0" IVar="-1" Cut="0.0000000000000000e+00" cType="1" res="1.4547606697306037e-03" rms="4.2980766296386719e-01" purity="7.3273414373397827e-01" nType="-99"/>
        </Node>
        <Node pos="r" depth="1" NCoef="0" IVar="-1" Cut="0.0000000000000000e+00" cType="1" res="1.6488718101754785e-03" rms="4.6097388863563538e-01" purity="6.3548296689987183e-01" nType="-99"/>
      </Node>
    </BinaryTree>
    <BinaryTree type="DecisionTree" boostWeight="1.0000000000000000e+00" itree="335">
      <Node pos="s" depth="0" NCoef="0" IVar="0" Cut="1.7156496644020081e-01" cType="1" res="2.7120066806674004e-03" rms="4.6916550397872925e-01" purity="4.9733081459999084e-01" nType="0">
        <Node pos="l" depth="1" NCoef="0" IVar="1" Cut="4.1306060552597046e-01" cType="1" res="-6.0816509649157524e-03" rms="4.6855506300926208e-01" purity="4.8003575205802917e-01" nType="0">
          <Node pos="l" depth="2" NCoef="0" IVar="-1" Cut="0.0000000000000000e+00" cType="1" res="-4.9922983162105083e-03" rms="4.2163187265396118e-01" purity="2.5532725453376770e-01" nType="-99"/>
          <Node pos="r" depth="2" NCoef="0" IVar="-1" Cut="0.0000000000000000e+00" cType="1" res="5.6484173001081217e-06" rms="4.7062802314758301e-01" purity="4.9410206079483032e-01" nType="-99"/>
        </Node>
        <Node pos="r" depth="1" NCoef="0" IVar="8" Cut="1.1467828750610352e+00" cType="1" res="5.3956538438796997e-02" rms="4.6944168210029602e-01" purity="5.9811663627624512e-01" nType="0">
          <Node pos="l" depth="2" NCoef="0" IVar="-1" Cut="0.0000000000000000e+00" cType="1" res="1.8431977368891239e-03" rms="4.6446111798286438e-01" purity="6.3103276491165161e-01" nType="-99"/>
          <Node pos="r" depth="2" NCoef="0" IVar="-1" Cut="0.0000000000000000e+00" cType="1" res="6.6913565387949347e-04" rms="4.7516432404518127e-01" purity="5.4969966411590576e-01" nType="-99"/>
        </Node>
      </Node>
    </BinaryTree>
    <BinaryTree type="DecisionTree" boostWeight="1.0000000000000000e+00" itree="336">
      <Node pos="s" depth="0" NCoef="0" IVar="3" Cut="1.5208282470703125e+02" cType="1" res="5.4250331595540047e-03" rms="4.6845573186874390e-01" purity="5.0065660476684570e-01" nType="0">
        <Node pos="l" depth="1" NCoef="0" IVar="6" Cut="1.1408658325672150e-01" cType="1" res="-1.3767094351351261e-03" rms="4.6899679303169250e-01" purity="4.9054726958274841e-01" nType="0">
          <Node pos="l" depth="2" NCoef="0" IVar="-1" Cut="0.0000000000000000e+00" cType="1" res="-5.2024470642209053e-04" rms="4.6788433194160461e-01" purity="4.6409142017364502e-01" nType="-99"/>
          <Node pos="r" depth="2" NCoef="0" IVar="-1" Cut="0.0000000000000000e+00" cType="1" res="7.8427046537399292e-04" rms="4.6971207857131958e-01" purity="5.4153257608413696e-01" nType="-99"/>
        </Node>
        <Node pos="r" depth="1" NCoef="0" IVar="-1" Cut="0.0000000000000000e+00" cType="1" res="2.5377869606018066e-03" rms="4.4943994283676147e-01" purity="6.4564597606658936e-01" nType="-99"/>
      </Node>
    </BinaryTree>
    <BinaryTree type="DecisionTree" boostWeight="1.0000000000000000e+00" itree="337">
      <Node pos="s" depth="0" NCoef="0" IVar="6" Cut="8.2304000854492188e-02" cType="1" res="3.7008898798376322e-03" rms="4.6852958202362061e-01" purity="4.9885392189025879e-01" nType="0">
        <Node pos="l" depth="1" NCoef="0" IVar="0" Cut="1.5141285955905914e-01" cType="1" res="-1.5472600236535072e-02" rms="4.6714943647384644e-01" purity="4.6178749203681946e-01" nType="0">
          <Node pos="l" depth="2" NCoef="0" IVar="-1" Cut="0.0000000000000000e+00" cType="1" res="-9.8323752172291279e-04" rms="4.6301791071891785e-01" purity="4.2902258038520813e-01" nType="-99"/>
          <Node pos="r" depth="2" NCoef="0" IVar="-1" Cut="0.0000000000000000e+00" cType="1" res="8.4089522715657949e-04" rms="4.7735765576362610e-01" purity="5.6892544031143188e-01" nType="-99"/>
        </Node>
        <Node pos="r" depth="1" NCoef="0" IVar="2" Cut="3.8106362915039062e+02" cType="1" res="2.2704711183905602e-02" rms="4.6912086009979248e-01" purity="5.3559231758117676e-01" nType="0">
          <Node pos="l" depth="2" NCoef="0" IVar="-1" Cut="0.0000000000000000e+00" cType="1" res="-1.8390241311863065e-03" rms="4.5515266060829163e-01" purity="3.3186662197113037e-01" nType="-99"/>
          <Node pos="r" depth="2" NCoef="0" IVar="-1" Cut="0.0000000000000000e+00" cType="1" res="8.8908988982439041e-04" rms="4.7026163339614868e-01" purity="5.6572866439819336e-01" nType="-99"/>
        </Node>
      </Node>
    </BinaryTree>
    <BinaryTree type="DecisionTree" boostWeight="1.0000000000000000e+00" itree="338">
      <Node pos="s" depth="0" NCoef="0" IVar="1" Cut="8.1792253255844116e-01" cType="1" res="6.3468343578279018e-03" rms="4.6913957595825195e-01" purity="5.0109821557998657e-01" nType="0">
        <Node pos="l" depth="1" NCoef="0" IVar="0" Cut="4.8832993954420090e-02" cType="1" res="-5.3717754781246185e-04" rms="4.6943742036819458e-01" purity="4.7987788915634155e-01" nType="0">
          <Node pos="l" depth="2" NCoef="0" IVar="-1" Cut="0.0000000000000000e+00" cType="1" res="-6.7325192503631115e-04" rms="4.6636086702346802e-01" purity="4.2620468139648438e-01" nType="-99"/>
          <Node pos="r" depth="2" NCoef="0" IVar="-1" Cut="0.0000000000000000e+00" cType="1" res="7.0687726838514209e-04" rms="4.7219797968864441e-01" purity="5.5112713575363159e-01" nType="-99"/>
        </Node>
        <Node pos="r" depth="1" NCoef="0" IVar="5" Cut="4.5420011878013611e-01" cType="1" res="4.8286762088537216e-02" rms="4.6512502431869507e-01" purity="6.3038009405136108e-01" nType="0">
          <Node pos="l" depth="2" NCoef="0" IVar="-1" Cut="0.0000000000000000e+00" cType="1" res="7.8569806646555662e-04" rms="4.6764424443244934e-01" purity="6.2394315004348755e-01" nType="-99"/>
          <Node pos="r" depth="2" NCoef="0" IVar="-1" Cut="0.0000000000000000e+00" cType="1" res="1.6124941175803542e-03" rms="4.6210706233978271e-01" purity="6.3645833730697632e-01" nType="-99"/>
        </Node>
      </Node>
    </BinaryTree>
    <BinaryTree type="DecisionTree" boostWeight="1.0000000000000000e+00" itree="339">
      <Node pos="s" depth="0" NCoef="0" IVar="0" Cut="8.2601673901081085e-02" cType="1" res="3.4893592819571495e-03" rms="4.6865937113761902e-01" purity="4.9913385510444641e-01" nType="0">
        <Node pos="l" depth="1" NCoef="0" IVar="1" Cut="6.9871503114700317e-01" cType="1" res="-9.1382842510938644e-03" rms="4.6599182486534119e-01" purity="4.7052976489067078e-01" nType="0">
          <Node pos="l" depth="2" NCoef="0" IVar="-1" Cut="0.0000000000000000e+00" cType="1" res="-1.2857556575909257e-03" rms="4.5934662222862244e-01" purity="3.7059399485588074e-01" nType="-99"/>
          <Node pos="r" depth="2" NCoef="0" IVar="-1" Cut="0.0000000000000000e+00" cType="1" res="5.0564721459522843e-04" rms="4.7144159674644470e-01" purity="5.7854241132736206e-01" nType="-99"/>
        </Node>
        <Node pos="r" depth="1" NCoef="0" IVar="8" Cut="9.7917795181274414e-01" cType="1" res="3.1951867043972015e-02" rms="4.7338333725929260e-01" purity="5.6360703706741333e-01" nType="0">
          <Node pos="l" depth="2" NCoef="0" IVar="-1" Cut="0.0000000000000000e+00" cType="1" res="1.4984555309638381e-03" rms="4.6612209081649780e-01" purity="6.1247032880783081e-01" nType="-99"/>
          <Node pos="r" depth="2" NCoef="0" IVar="-1" Cut="0.0000000000000000e+00" cType="1" res="3.1060975743457675e-04" rms="4.7789973020553589e-01" purity="5.2569812536239624e-01" nType="-99"/>
        </Node>
      </Node>
    </BinaryTree>
    <BinaryTree type="DecisionTree" boostWeight="1.0000000000000000e+00" itree="340">
      <Node pos="s" depth="0" NCoef="0" IVar="3" Cut="1.5134410095214844e+02" cType="1" res="3.9648776873946190e-03" rms="4.6833851933479309e-01" purity="4.9973917007446289e-01" nType="0">
        <Node pos="l" depth="1" NCoef="0" IVar="4" Cut="9.8546969890594482e-01" cType="1" res="-2.6277711149305105e-03" rms="4.6914958953857422e-01" purity="4.8982107639312744e-01" nType="0">
          <Node pos="l" depth="2" NCoef="0" IVar="-1" Cut="0.0000000000000000e+00" cType="1" res="-2.8499160544015467e-04" rms="4.7293597459793091e-01" purity="4.6359616518020630e-01" nType="-99"/>
          <Node pos="r" depth="2" NCoef="0" IVar="-1" Cut="0.0000000000000000e+00" cType="1" res="1.4532314380630851e-03" rms="4.2686647176742554e-01" purity="7.3623007535934448e-01" nType="-99"/>
        </Node>
        <Node pos="r" depth="1" NCoef="0" IVar="-1" Cut="0.0000000000000000e+00" cType="1" res="2.4760847445577383e-03" rms="4.4556552171707153e-01" purity="6.4364236593246460e-01" nType="-99"/>
      </Node>
    </BinaryTree>
    <BinaryTree type="DecisionTree" boostWeight="1.0000000000000000e+00" itree="341">
      <Node pos="s" depth="0" NCoef="0" IVar="3" Cut="1.3449467468261719e+02" cType="1" res="7.8671788796782494e-03" rms="4.6873027086257935e-01" purity="5.0389117002487183e-01" nType="0">
        <Node pos="l" depth="1" NCoef="0" IVar="6" Cut="4.0243104100227356e-02" cType="1" res="1.1409886647015810e-03" rms="4.6943637728691101e-01" purity="4.9193936586380005e-01" nType="0">
          <Node pos="l" depth="2" NCoef="0" IVar="-1" Cut="0.0000000000000000e+00" cType="1" res="-1.1700788745656610e-03" rms="4.6477732062339783e-01" purity="4.2984059453010559e-01" nType="-99"/>
          <Node pos="r" depth="2" NCoef="0" IVar="-1" Cut="0.0000000000000000e+00" cType="1" res="3.0378022347576916e-04" rms="4.7014597058296204e-01" purity="5.0762712955474854e-01" nType="-99"/>
        </Node>
        <Node pos="r" depth="1" NCoef="0" IVar="7" Cut="9.9813247680664062e+01" cType="1" res="5.7152859866619110e-02" rms="4.6053603291511536e-01" purity="5.9146696329116821e-01" nType="0">
          <Node pos="l" depth="2" NCoef="0" IVar="-1" Cut="0.0000000000000000e+00" cType="1" res="8.9645537082105875e-04" rms="4.6878573298454285e-01" purity="5.5480492115020752e-01" nType="-99"/>
          <Node pos="r" depth="2" NCoef="0" IVar="-1" Cut="0.0000000000000000e+00" cType="1" res="2.0169969648122787e-03" rms="4.5222938060760498e-01" purity="6.2325513362884521e-01" nType="-99"/>
        </Node>
      </Node>
    </BinaryTree>
    <BinaryTree type="DecisionTree" boostWeight="1.0000000000000000e+00" itree="342">
      <Node pos="s" depth="0" NCoef="0" IVar="3" Cut="1.4376452636718750e+02" cType="1" res="4.1327807120978832e-03" rms="4.6883314847946167e-01" purity="4.9868723750114441e-01" nType="0">
        <Node pos="l" depth="1" NCoef="0" IVar="8" Cut="1.5280843973159790e+00" cType="1" res="-2.7341844979673624e-03" rms="4.6936812996864319e-01" purity="4.8796433210372925e-01" nType="0">
          <Node pos="l" depth="2" NCoef="0" IVar="-1" Cut="0.0000000000000000e+00" cType="1" res="1.4986000314820558e-04" rms="4.7112116217613220e-01" purity="5.0442969799041748e-01" nType="-99"/>
          <Node pos="r" depth="2" NCoef="0" IVar="-1" Cut="0.0000000000000000e+00" cType="1" res="-1.8442681757733226e-03" rms="4.5497930049896240e-01" purity="3.8380396366119385e-01" nType="-99"/>
        </Node>
        <Node pos="r" depth="1" NCoef="0" IVar="-1" Cut="0.0000000000000000e+00" cType="1" res="1.9858689047396183e-03" rms="4.5653948187828064e-01" purity="6.1412501335144043e-01" nType="-99"/>
      </Node>
    </BinaryTree>
    <BinaryTree type="DecisionTree" boostWeight="1.0000000000000000e+00" itree="343">
      <Node pos="s" depth="0" NCoef="0" IVar="4" Cut="9.8090887069702148e-01" cType="1" res="4.0450454689562321e-03" rms="4.6788123250007629e-01" purity="4.9972346425056458e-01" nType="0">
        <Node pos="l" depth="1" NCoef="0" IVar="6" Cut="1.9106614589691162e-01" cType="1" res="-3.9150351658463478e-03" rms="4.7292080521583557e-01" purity="4.6379441022872925e-01" nType="0">
          <Node pos="l" depth="2" NCoef="0" IVar="-1" Cut="0.0000000000000000e+00" cType="1" res="-3.3361770329065621e-04" rms="4.7180444002151489e-01" purity="4.5408579707145691e-01" nType="-99"/>
          <Node pos="r" depth="2" NCoef="0" IVar="-1" Cut="0.0000000000000000e+00" cType="1" res="1.4050747267901897e-03" rms="4.7827345132827759e-01" purity="5.4355609416961670e-01" nType="-99"/>
        </Node>
        <Node pos="r" depth="1" NCoef="0" IVar="-1" Cut="0.0000000000000000e+00" cType="1" res="1.3056693132966757e-03" rms="4.3204542994499207e-01" purity="7.2264611721038818e-01" nType="-99"/>
      </Node>
    </BinaryTree>
    <BinaryTree type="DecisionTree" boostWeight="1.0000000000000000e+00" itree="344">
      <Node pos="s" depth="0" NCoef="0" IVar="6" Cut="8.5719235241413116e-02" cType="1" res="1.9211707403883338e-03" rms="4.6752443909645081e-01" purity="4.9752810597419739e-01" nType="0">
        <Node pos="l" depth="1" NCoef="0" IVar="0" Cut="1.3652773201465607e-01" cType="1" res="-1.9566142931580544e-02" rms="4.6661394834518433e-01" purity="4.5752066373825073e-01" nType="0">
          <Node pos="l" depth="2" NCoef="0" IVar="-1" Cut="0.0000000000000000e+00" cType="1" res="-1.1383432429283857e-03" rms="4.6297737956047058e-01" purity="4.2154943943023682e-01" nType="-99"/>
          <Node pos="r" depth="2" NCoef="0" IVar="-1" Cut="0.0000000000000000e+00" cType="1" res="6.1499973526224494e-04" rms="4.7448965907096863e-01" purity="5.6215751171112061e-01" nType="-99"/>
        </Node>
        <Node pos="r" depth="1" NCoef="0" IVar="2" Cut="4.1944668579101562e+02" cType="1" res="2.4504221975803375e-02" rms="4.6741604804992676e-01" purity="5.3957569599151611e-01" nType="0">
          <Node pos="l" depth="2" NCoef="0" IVar="-1" Cut="0.0000000000000000e+00" cType="1" res="-7.8727782238274813e-04" rms="4.6378931403160095e-01" purity="3.8014814257621765e-01" nType="-99"/>
          <Node pos="r" depth="2" NCoef="0" IVar="-1" Cut="0.0000000000000000e+00" cType="1" res="1.0591830359771848e-03" rms="4.6755817532539368e-01" purity="5.9426170587539673e-01" nType="-99"/>
        </Node>
      </Node>
    </BinaryTree>
    <BinaryTree type="DecisionTree" boostWeight="1.0000000000000000e+00" itree="345">
      <Node pos="s" depth="0" NCoef="0" IVar="8" Cut="9.6479910612106323e-01" cType="1" res="5.2965362556278706e-03" rms="4.6757665276527405e-01" purity="5.0139349699020386e-01" nType="0">
        <Node pos="l" depth="1" NCoef="0" IVar="4" Cut="9.6330505609512329e-01" cType="1" res="2.8844222426414490e-02" rms="4.6827176213264465e-01" purity="5.5043512582778931e-01" nType="0">
          <Node pos="l" depth="2" NCoef="0" IVar="-1" Cut="0.0000000000000000e+00" cType="1" res="4.0254628402180970e-04" rms="4.7889700531959534e-01" purity="4.7843176126480103e-01" nType="-99"/>
          <Node pos="r" depth="2" NCoef="0" IVar="-1" Cut="0.0000000000000000e+00" cType="1" res="1.4272810658439994e-03" rms="4.4548371434211731e-01" purity="6.9011503458023071e-01" nType="-99"/>
        </Node>
        <Node pos="r" depth="1" NCoef="0" IVar="2" Cut="3.9504898071289062e+02" cType="1" res="-1.1715834960341454e-02" rms="4.6633458137512207e-01" purity="4.6596267819404602e-01" nType="0">
          <Node pos="l" depth="2" NCoef="0" IVar="-1" Cut="0.0000000000000000e+00" cType="1" res="-2.6868174318224192e-03" rms="4.3721061944961548e-01" purity="2.9346585273742676e-01" nType="-99"/>
          <Node pos="r" depth="2" NCoef="0" IVar="-1" Cut="0.0000000000000000e+00" cType="1" res="-6.5210821048822254e-05" rms="4.7090795636177063e-01" purity="4.9784344434738159e-01" nType="-99"/>
        </Node>
      </Node>
    </BinaryTree>
    <BinaryTree type="DecisionTree" boostWeight="1.0000000000000000e+00" itree="346">
      <Node pos="s" depth="0" NCoef="0" IVar="0" Cut="1.1358923465013504e-01" cType="1" res="-1.5695799374952912e-03" rms="4.6794945001602173e-01" purity="4.9358895421028137e-01" nType="0">
        <Node pos="l" depth="1" NCoef="0" IVar="1" Cut="5.3250139951705933e-01" cType="1" res="-1.2521599419414997e-02" rms="4.6649813652038574e-01" purity="4.6958023309707642e-01" nType="0">
          <Node pos="l" depth="2" NCoef="0" IVar="-1" Cut="0.0000000000000000e+00" cType="1" res="-2.8771923389285803e-03" rms="4.3412664532661438e-01" purity="2.9030734300613403e-01" nType="-99"/>
          <Node pos="r" depth="2" NCoef="0" IVar="-1" Cut="0.0000000000000000e+00" cType="1" res="2.3582220819662325e-05" rms="4.7316995263099670e-01" purity="5.1367318630218506e-01" nType="-99"/>
        </Node>
        <Node pos="r" depth="1" NCoef="0" IVar="4" Cut="9.6373516321182251e-01" cType="1" res="3.3300209790468216e-02" rms="4.7084689140319824e-01" purity="5.7002955675125122e-01" nType="0">
          <Node pos="l" depth="2" NCoef="0" IVar="-1" Cut="0.0000000000000000e+00" cType="1" res="4.5514109660871327e-04" rms="4.8423346877098083e-01" purity="4.9979457259178162e-01" nType="-99"/>
          <Node pos="r" depth="2" NCoef="0" IVar="-1" Cut="0.0000000000000000e+00" cType="1" res="1.6608739970251918e-03" rms="4.3913012742996216e-01" purity="7.1815776824951172e-01" nType="-99"/>
        </Node>
      </Node>
    </BinaryTree>
    <BinaryTree type="DecisionTree" boostWeight="1.0000000000000000e+00" itree="347">
      <Node pos="s" depth="0" NCoef="0" IVar="4" Cut="9.8097717761993408e-01" cType="1" res="9.6009898697957397e-05" rms="4.6737691760063171e-01" purity="4.9607896804809570e-01" nType="0">
        <Node pos="l" depth="1" NCoef="0" IVar="3" Cut="1.3419966125488281e+02" cType="1" res="-7.7298288233578205e-03" rms="4.7233867645263672e-01" purity="4.6013057231903076e-01" nType="0">
          <Node pos="l" depth="2" NCoef="0" IVar="-1" Cut="0.0000000000000000e+00" cType="1" res="-4.7592943883500993e-04" rms="4.7255668044090271e-01" purity="4.4725301861763000e-01" nType="-99"/>
          <Node pos="r" depth="2" NCoef="0" IVar="-1" Cut="0.0000000000000000e+00" cType="1" res="1.2927054194733500e-03" rms="4.6695595979690552e-01" purity="5.5532562732696533e-01" nType="-99"/>
        </Node>
        <Node pos="r" depth="1" NCoef="0" IVar="-1" Cut="0.0000000000000000e+00" cType="1" res="1.2108254013583064e-03" rms="4.3176797032356262e-01" purity="7.2141659259796143e-01" nType="-99"/>
      </Node>
    </BinaryTree>
    <BinaryTree type="DecisionTree" boostWeight="1.0000000000000000e+00" itree="348">
      <Node pos="s" depth="0" NCoef="0" IVar="0" Cut="2.0401675999164581e-01" cType="1" res="3.8388243410736322e-03" rms="4.6818074584007263e-01" purity="4.9915543198585510e-01" nType="0">
        <Node pos="l" depth="1" NCoef="0" IVar="1" Cut="5.3514105081558228e-01" cType="1" res="-2.8313486836850643e-03" rms="4.6782654523849487e-01" purity="4.8648065328598022e-01" nType="0">
          <Node pos="l" depth="2" NCoef="0" IVar="-1" Cut="0.0000000000000000e+00" cType="1" res="-1.8162842607125640e-03" rms="4.5185783505439758e-01" purity="3.4754371643066406e-01" nType="-99"/>
          <Node pos="r" depth="2" NCoef="0" IVar="-1" Cut="0.0000000000000000e+00" cType="1" res="3.2693662797100842e-04" rms="4.7194939851760864e-01" purity="5.3125709295272827e-01" nType="-99"/>
        </Node>
        <Node pos="r" depth="1" NCoef="0" IVar="-1" Cut="0.0000000000000000e+00" cType="1" res="1.6181240789592266e-03" rms="4.6707880496978760e-01" purity="6.1347478628158569e-01" nType="-99"/>
      </Node>
    </BinaryTree>
    <BinaryTree type="DecisionTree" boostWeight="1.0000000000000000e+00" itree="349">
      <Node pos="s" depth="0" NCoef="0" IVar="8" Cut="9.6333754062652588e-01" cType="1" res="3.5629225894808769e-03" rms="4.6817639470100403e-01" purity="4.9763837456703186e-01" nType="0">
        <Node pos="l" depth="1" NCoef="0" IVar="5" Cut="5.0644224882125854e-01" cType="1" res="2.7179660275578499e-02" rms="4.6909540891647339e-01" purity="5.4601472616195679e-01" nType="0">
          <Node pos="l" depth="2" NCoef="0" IVar="-1" Cut="0.0000000000000000e+00" cType="1" res="4.0232608444057405e-04" rms="4.6977835893630981e-01" purity="5.2172720432281494e-01" nType="-99"/>
          <Node pos="r" depth="2" NCoef="0" IVar="-1" Cut="0.0000000000000000e+00" cType="1" res="1.5189705882221460e-03" rms="4.6576872467994690e-01" purity="6.0686403512954712e-01" nType="-99"/>
        </Node>
        <Node pos="r" depth="1" NCoef="0" IVar="2" Cut="5.8831811523437500e+02" cType="1" res="-1.3265459798276424e-02" rms="4.6679195761680603e-01" purity="4.6316722035408020e-01" nType="0">
          <Node pos="l" depth="2" NCoef="0" IVar="-1" Cut="0.0000000000000000e+00" cType="1" res="-8.3916453877463937e-04" rms="4.6339917182922363e-01" purity="4.1861343383789062e-01" nType="-99"/>
          <Node pos="r" depth="2" NCoef="0" IVar="-1" Cut="0.0000000000000000e+00" cType="1" res="4.1424806113354862e-04" rms="4.7341644763946533e-01" purity="5.6744843721389771e-01" nType="-99"/>
        </Node>
      </Node>
    </BinaryTree>
    <BinaryTree type="DecisionTree" boostWeight="1.0000000000000000e+00" itree="350">
      <Node pos="s" depth="0" NCoef="0" IVar="0" Cut="-4.2074177414178848e-02" cType="1" res="3.7699327804148197e-03" rms="4.6786883473396301e-01" purity="4.9999535083770752e-01" nType="0">
        <Node pos="l" depth="1" NCoef="0" IVar="1" Cut="7.9726362228393555e-01" cType="1" res="-2.2418336942791939e-02" rms="4.6191784739494324e-01" purity="4.3924760818481445e-01" nType="0">
          <Node pos="l" depth="2" NCoef="0" IVar="-1" Cut="0.0000000000000000e+00" cType="1" res="-1.6603620024397969e-03" rms="4.5685607194900513e-01" purity="3.7052360177040100e-01" nType="-99"/>
          <Node pos="r" depth="2" NCoef="0" IVar="-1" Cut="0.0000000000000000e+00" cType="1" res="9.1989315114915371e-04" rms="4.6939712762832642e-01" purity="6.1226743459701538e-01" nType="-99"/>
        </Node>
        <Node pos="r" depth="1" NCoef="0" IVar="2" Cut="7.7456744384765625e+02" cType="1" res="1.8199268728494644e-02" rms="4.7049316763877869e-01" purity="5.3346639871597290e-01" nType="0">
          <Node pos="l" depth="2" NCoef="0" IVar="-1" Cut="0.0000000000000000e+00" cType="1" res="2.8585593099705875e-04" rms="4.7231015563011169e-01" purity="5.1365172863006592e-01" nType="-99"/>
          <Node pos="r" depth="2" NCoef="0" IVar="-1" Cut="0.0000000000000000e+00" cType="1" res="1.7615377437323332e-03" rms="4.5519316196441650e-01" purity="6.6033113002777100e-01" nType="-99"/>
        </Node>
      </Node>
    </BinaryTree>
    <BinaryTree type="DecisionTree" boostWeight="1.0000000000000000e+00" itree="351">
      <Node pos="s" depth="0" NCoef="0" IVar="4" Cut="9.5379573106765747e-01" cType="1" res="3.0780269298702478e-03" rms="4.6796628832817078e-01" purity="4.9753999710083008e-01" nType="0">
        <Node pos="l" depth="1" NCoef="0" IVar="2" Cut="8.2629754638671875e+02" cType="1" res="-1.5119503252208233e-02" rms="4.7008183598518372e-01" purity="4.0507543087005615e-01" nType="0">
          <Node pos="l" depth="2" NCoef="0" IVar="-1" Cut="0.0000000000000000e+00" cType="1" res="-7.4375444091856480e-04" rms="4.6800053119659424e-01" purity="3.8772928714752197e-01" nType="-99"/>
          <Node pos="r" depth="2" NCoef="0" IVar="-1" Cut="0.0000000000000000e+00" cType="1" res="1.1424702825024724e-03" rms="4.8359161615371704e-01" purity="5.5196487903594971e-01" nType="-99"/>
        </Node>
        <Node pos="r" depth="1" NCoef="0" IVar="4" Cut="9.8646950721740723e-01" cType="1" res="2.3587126284837723e-02" rms="4.6471717953681946e-01" purity="6.0174995660781860e-01" nType="0">
          <Node pos="l" depth="2" NCoef="0" IVar="-1" Cut="0.0000000000000000e+00" cType="1" res="3.7416390841826797e-04" rms="4.7395873069763184e-01" purity="5.6811368465423584e-01" nType="-99"/>
          <Node pos="r" depth="2" NCoef="0" IVar="-1" Cut="0.0000000000000000e+00" cType="1" res="1.5895827673375607e-03" rms="4.1909384727478027e-01" purity="7.4951231479644775e-01" nType="-99"/>
        </Node>
      </Node>
    </BinaryTree>
    <BinaryTree type="DecisionTree" boostWeight="1.0000000000000000e+00" itree="352">
      <Node pos="s" depth="0" NCoef="0" IVar="3" Cut="1.4731381225585938e+02" cType="1" res="6.7323171533644199e-03" rms="4.6806138753890991e-01" purity="5.0220227241516113e-01" nType="0">
        <Node pos="l" depth="1" NCoef="0" IVar="8" Cut="1.1518884897232056e+00" cType="1" res="1.1289309477433562e-03" rms="4.6861955523490906e-01" purity="4.9292302131652832e-01" nType="0">
          <Node pos="l" depth="2" NCoef="0" IVar="-1" Cut="0.0000000000000000e+00" cType="1" res="4.7360666212625802e-04" rms="4.7166055440902710e-01" purity="5.2856826782226562e-01" nType="-99"/>
          <Node pos="r" depth="2" NCoef="0" IVar="-1" Cut="0.0000000000000000e+00" cType="1" res="-7.5098138768225908e-04" rms="4.6277171373367310e-01" purity="4.3726682662963867e-01" nType="-99"/>
        </Node>
        <Node pos="r" depth="1" NCoef="0" IVar="-1" Cut="0.0000000000000000e+00" cType="1" res="1.9753975793719292e-03" rms="4.5494264364242554e-01" purity="6.2009054422378540e-01" nType="-99"/>
      </Node>
    </BinaryTree>
    <BinaryTree type="DecisionTree" boostWeight="1.0000000000000000e+00" itree="353">
      <Node pos="s" depth="0" NCoef="0" IVar="4" Cut="9.7212535142898560e-01" cType="1" res="3.6374235060065985e-03" rms="4.6784874796867371e-01" purity="4.9905475974082947e-01" nType="0">
        <Node pos="l" depth="1" NCoef="0" IVar="2" Cut="6.3442041015625000e+02" cType="1" res="-7.9359477385878563e-03" rms="4.7304925322532654e-01" purity="4.4370532035827637e-01" nType="0">
          <Node pos="l" depth="2" NCoef="0" IVar="-1" Cut="0.0000000000000000e+00" cType="1" res="-6.7633733851835132e-04" rms="4.6935606002807617e-01" purity="3.9965790510177612e-01" nType="-99"/>
          <Node pos="r" depth="2" NCoef="0" IVar="-1" Cut="0.0000000000000000e+00" cType="1" res="6.0120841953903437e-04" rms="4.8058283329010010e-01" purity="5.5082756280899048e-01" nType="-99"/>
        </Node>
        <Node pos="r" depth="1" NCoef="0" IVar="2" Cut="4.7791296386718750e+02" cType="1" res="4.2248703539371490e-02" rms="4.4790643453598022e-01" purity="6.8371254205703735e-01" nType="0">
          <Node pos="l" depth="2" NCoef="0" IVar="-1" Cut="0.0000000000000000e+00" cType="1" res="2.9484683182090521e-04" rms="4.7536438703536987e-01" purity="5.9552145004272461e-01" nType="-99"/>
          <Node pos="r" depth="2" NCoef="0" IVar="-1" Cut="0.0000000000000000e+00" cType="1" res="1.4191813534125686e-03" rms="4.3224960565567017e-01" purity="7.2907996177673340e-01" nType="-99"/>
        </Node>
      </Node>
    </BinaryTree>
    <BinaryTree type="DecisionTree" boostWeight="1.0000000000000000e+00" itree="354">
      <Node pos="s" depth="0" NCoef="0" IVar="4" Cut="9.4464957714080811e-01" cType="1" res="4.4671990908682346e-03" rms="4.6809995174407959e-01" purity="5.0042480230331421e-01" nType="0">
        <Node pos="l" depth="1" NCoef="0" IVar="8" Cut="8.5927522182464600e-01" cType="1" res="-1.8220387399196625e-02" rms="4.6694111824035645e-01" purity="3.8568428158760071e-01" nType="0">
          <Node pos="l" depth="2" NCoef="0" IVar="-1" Cut="0.0000000000000000e+00" cType="1" res="3.5206307074986398e-04" rms="4.8097845911979675e-01" purity="4.4487294554710388e-01" nType="-99"/>
          <Node pos="r" depth="2" NCoef="0" IVar="-1" Cut="0.0000000000000000e+00" cType="1" res="-1.1561660794541240e-03" rms="4.5962709188461304e-01" purity="3.5819041728973389e-01" nType="-99"/>
        </Node>
        <Node pos="r" depth="1" NCoef="0" IVar="2" Cut="5.3988458251953125e+02" cType="1" res="1.8400939181447029e-02" rms="4.6826568245887756e-01" purity="5.7089346647262573e-01" nType="0">
          <Node pos="l" depth="2" NCoef="0" IVar="-1" Cut="0.0000000000000000e+00" cType="1" res="-6.3401821535080671e-05" rms="4.7407802939414978e-01" purity="5.0051087141036987e-01" nType="-99"/>
          <Node pos="r" depth="2" NCoef="0" IVar="-1" Cut="0.0000000000000000e+00" cType="1" res="1.0098827769979835e-03" rms="4.6108308434486389e-01" purity="6.4491569995880127e-01" nType="-99"/>
        </Node>
      </Node>
    </BinaryTree>
    <BinaryTree type="DecisionTree" boostWeight="1.0000000000000000e+00" itree="355">
      <Node pos="s" depth="0" NCoef="0" IVar="8" Cut="1.1437416076660156e+00" cType="1" res="7.0988694205880165e-03" rms="4.6800771355628967e-01" purity="5.0267052650451660e-01" nType="0">
        <Node pos="l" depth="1" NCoef="0" IVar="6" Cut="8.2453735172748566e-02" cType="1" res="2.4586377665400505e-02" rms="4.7091844677925110e-01" purity="5.3973221778869629e-01" nType="0">
          <Node pos="l" depth="2" NCoef="0" IVar="-1" Cut="0.0000000000000000e+00" cType="1" res="1.6685134323779494e-04" rms="4.7222867608070374e-01" purity="5.0325411558151245e-01" nType="-99"/>
          <Node pos="r" depth="2" NCoef="0" IVar="-1" Cut="0.0000000000000000e+00" cType="1" res="1.2082165339961648e-03" rms="4.6857774257659912e-01" purity="5.8010226488113403e-01" nType="-99"/>
        </Node>
        <Node pos="r" depth="1" NCoef="0" IVar="2" Cut="6.3494213867187500e+02" cType="1" res="-1.7662080004811287e-02" rms="4.6272614598274231e-01" purity="4.5019415020942688e-01" nType="0">
          <Node pos="l" depth="2" NCoef="0" IVar="-1" Cut="0.0000000000000000e+00" cType="1" res="-9.6300838049501181e-04" rms="4.6029365062713623e-01" purity="4.1665184497833252e-01" nType="-99"/>
          <Node pos="r" depth="2" NCoef="0" IVar="-1" Cut="0.0000000000000000e+00" cType="1" res="7.6371541945263743e-04" rms="4.6955311298370361e-01" purity="5.8488690853118896e-01" nType="-99"/>
        </Node>
      </Node>
    </BinaryTree>
    <BinaryTree type="DecisionTree" boostWeight="1.0000000000000000e+00" itree="356">
      <Node pos="s" depth="0" NCoef="0" IVar="3" Cut="1.5134410095214844e+02" cType="1" res="3.1795920804142952e-03" rms="4.6875500679016113e-01" purity="4.9820062518119812e-01" nType="0">
        <Node pos="l" depth="1" NCoef="0" IVar="8" Cut="1.5811066627502441e+00" cType="1" res="-2.8104891534894705e-03" rms="4.6961641311645508e-01" purity="4.8845240473747253e-01" nType="0">
          <Node pos="l" depth="2" NCoef="0" IVar="-1" Cut="0.0000000000000000e+00" cType="1" res="1.4420531806536019e-04" rms="4.7098627686500549e-01" purity="5.0376886129379272e-01" nType="-99"/>
          <Node pos="r" depth="2" NCoef="0" IVar="-1" Cut="0.0000000000000000e+00" cType="1" res="-2.3272342514246702e-03" rms="4.5412948727607727e-01" purity="3.6809608340263367e-01" nType="-99"/>
        </Node>
        <Node pos="r" depth="1" NCoef="0" IVar="-1" Cut="0.0000000000000000e+00" cType="1" res="2.2433060221374035e-03" rms="4.4717684388160706e-01" purity="6.3944208621978760e-01" nType="-99"/>
      </Node>
    </BinaryTree>
    <BinaryTree type="DecisionTree" boostWeight="1.0000000000000000e+00" itree="357">
      <Node pos="s" depth="0" NCoef="0" IVar="1" Cut="5.5391770601272583e-01" cType="1" res="1.2274592882022262e-04" rms="4.6705654263496399e-01" purity="4.9614360928535461e-01" nType="0">
        <Node pos="l" depth="1" NCoef="0" IVar="0" Cut="1.7171090841293335e-01" cType="1" res="-2.8161820024251938e-02" rms="4.5758506655693054e-01" purity="4.1022807359695435e-01" nType="0">
          <Node pos="l" depth="2" NCoef="0" IVar="-1" Cut="0.0000000000000000e+00" cType="1" res="-2.1757034119218588e-03" rms="4.4542115926742554e-01" purity="3.2852843403816223e-01" nType="-99"/>
          <Node pos="r" depth="2" NCoef="0" IVar="-1" Cut="0.0000000000000000e+00" cType="1" res="5.7834695326164365e-04" rms="4.7519901394844055e-01" purity="5.6084650754928589e-01" nType="-99"/>
        </Node>
        <Node pos="r" depth="1" NCoef="0" IVar="2" Cut="8.8293621826171875e+02" cType="1" res="1.4509737491607666e-02" rms="4.7115024924278259e-01" purity="5.3984469175338745e-01" nType="0">
          <Node pos="l" depth="2" NCoef="0" IVar="-1" Cut="0.0000000000000000e+00" cType="1" res="2.2304226877167821e-04" rms="4.7273367643356323e-01" purity="5.2543920278549194e-01" nType="-99"/>
          <Node pos="r" depth="2" NCoef="0" IVar="-1" Cut="0.0000000000000000e+00" cType="1" res="1.9179608207195997e-03" rms="4.5099595189094543e-01" purity="6.7663401365280151e-01" nType="-99"/>
        </Node>
      </Node>
    </BinaryTree>
    <BinaryTree type="DecisionTree" boostWeight="1.0000000000000000e+00" itree="358">
      <Node pos="s" depth="0" NCoef="0" IVar="0" Cut="1.3315390050411224e-01" cType="1" res="-1.0032054269686341e-03" rms="4.6767786145210266e-01" purity="4.9396926164627075e-01" nType="0">
        <Node pos="l" depth="1" NCoef="0" IVar="1" Cut="5.8095365762710571e-01" cType="1" res="-1.1009280569851398e-02" rms="4.6647071838378906e-01" purity="4.7176423668861389e-01" nType="0">
          <Node pos="l" depth="2" NCoef="0" IVar="-1" Cut="0.0000000000000000e+00" cType="1" res="-2.1694037131965160e-03" rms="4.4384720921516418e-01" purity="3.2006856799125671e-01" nType="-99"/>
          <Node pos="r" depth="2" NCoef="0" IVar="-1" Cut="0.0000000000000000e+00" cType="1" res="1.9056897144764662e-04" rms="4.7436955571174622e-01" purity="5.3448081016540527e-01" nType="-99"/>
        </Node>
        <Node pos="r" depth="1" NCoef="0" IVar="4" Cut="9.4428175687789917e-01" cType="1" res="3.7101216614246368e-02" rms="4.7030168771743774e-01" purity="5.7852882146835327e-01" nType="0">
          <Node pos="l" depth="2" NCoef="0" IVar="-1" Cut="0.0000000000000000e+00" cType="1" res="-7.5263000326231122e-05" rms="4.8528710007667542e-01" purity="4.5123311877250671e-01" nType="-99"/>
          <Node pos="r" depth="2" NCoef="0" IVar="-1" Cut="0.0000000000000000e+00" cType="1" res="1.5158443711698055e-03" rms="4.5894825458526611e-01" purity="6.5813338756561279e-01" nType="-99"/>
        </Node>
      </Node>
    </BinaryTree>
    <BinaryTree type="DecisionTree" boostWeight="1.0000000000000000e+00" itree="359">
      <Node pos="s" depth="0" NCoef="0" IVar="0" Cut="1.0054557770490646e-01" cType="1" res="3.5102600231766701e-03" rms="4.6870273351669312e-01" purity="4.9918428063392639e-01" nType="0">
        <Node pos="l" depth="1" NCoef="0" IVar="1" Cut="7.4706852436065674e-01" cType="1" res="-8.0545637756586075e-03" rms="4.6619373559951782e-01" purity="4.7285583615303040e-01" nType="0">
          <Node pos="l" depth="2" NCoef="0" IVar="-1" Cut="0.0000000000000000e+00" cType="1" res="-9.3852111604064703e-04" rms="4.6423664689064026e-01" purity="4.0328222513198853e-01" nType="-99"/>
          <Node pos="r" depth="2" NCoef="0" IVar="-1" Cut="0.0000000000000000e+00" cType="1" res="7.0073851384222507e-04" rms="4.6768105030059814e-01" purity="5.9887677431106567e-01" nType="-99"/>
        </Node>
        <Node pos="r" depth="1" NCoef="0" IVar="8" Cut="1.1735906600952148e+00" cType="1" res="3.5023424774408340e-02" rms="4.7404262423515320e-01" purity="5.7092714309692383e-01" nType="0">
          <Node pos="l" depth="2" NCoef="0" IVar="-1" Cut="0.0000000000000000e+00" cType="1" res="1.2983073247596622e-03" rms="4.7111889719963074e-01" purity="6.0180675983428955e-01" nType="-99"/>
          <Node pos="r" depth="2" NCoef="0" IVar="-1" Cut="0.0000000000000000e+00" cType="1" res="2.7374358614906669e-04" rms="4.7758027911186218e-01" purity="5.2163946628570557e-01" nType="-99"/>
        </Node>
      </Node>
    </BinaryTree>
    <BinaryTree type="DecisionTree" boostWeight="1.0000000000000000e+00" itree="360">
      <Node pos="s" depth="0" NCoef="0" IVar="5" Cut="1.2566047906875610e-01" cType="1" res="1.2211613357067108e-03" rms="4.6807292103767395e-01" purity="4.9698740243911743e-01" nType="0">
        <Node pos="l" depth="1" NCoef="0" IVar="-1" Cut="0.0000000000000000e+00" cType="1" res="-2.4921644944697618e-03" rms="4.5037668943405151e-01" purity="3.5673993825912476e-01" nType="-99"/>
        <Node pos="r" depth="1" NCoef="0" IVar="2" Cut="5.9970703125000000e+02" cType="1" res="5.9836199507117271e-03" rms="4.6890786290168762e-01" purity="5.0674635171890259e-01" nType="0">
          <Node pos="l" depth="2" NCoef="0" IVar="-1" Cut="0.0000000000000000e+00" cType="1" res="-2.2404697665479034e-04" rms="4.6822851896286011e-01" purity="4.5643433928489685e-01" nType="-99"/>
          <Node pos="r" depth="2" NCoef="0" IVar="-1" Cut="0.0000000000000000e+00" cType="1" res="8.3208869909867644e-04" rms="4.6916422247886658e-01" purity="6.0455328226089478e-01" nType="-99"/>
        </Node>
      </Node>
    </BinaryTree>
    <BinaryTree type="DecisionTree" boostWeight="1.0000000000000000e+00" itree="361">
      <Node pos="s" depth="0" NCoef="0" IVar="3" Cut="1.3554078674316406e+02" cType="1" res="3.9017654489725828e-03" rms="4.6622022986412048e-01" purity="5.0071227550506592e-01" nType="0">
        <Node pos="l" depth="1" NCoef="0" IVar="4" Cut="9.3100535869598389e-01" cType="1" res="-3.0384552665054798e-03" rms="4.6726086735725403e-01" purity="4.8812413215637207e-01" nType="0">
          <Node pos="l" depth="2" NCoef="0" IVar="-1" Cut="0.0000000000000000e+00" cType="1" res="-1.5332383336499333e-03" rms="4.5613908767700195e-01" purity="3.3820945024490356e-01" nType="-99"/>
          <Node pos="r" depth="2" NCoef="0" IVar="-1" Cut="0.0000000000000000e+00" cType="1" res="2.1819898393005133e-04" rms="4.6985235810279846e-01" purity="5.3115653991699219e-01" nType="-99"/>
        </Node>
        <Node pos="r" depth="1" NCoef="0" IVar="2" Cut="5.8724090576171875e+02" cType="1" res="5.6356728076934814e-02" rms="4.5486658811569214e-01" purity="5.9585529565811157e-01" nType="0">
          <Node pos="l" depth="2" NCoef="0" IVar="-1" Cut="0.0000000000000000e+00" cType="1" res="1.2288537982385606e-04" rms="4.6161791682243347e-01" purity="4.8638990521430969e-01" nType="-99"/>
          <Node pos="r" depth="2" NCoef="0" IVar="-1" Cut="0.0000000000000000e+00" cType="1" res="2.3362047504633665e-03" rms="4.4538858532905579e-01" purity="6.8062001466751099e-01" nType="-99"/>
        </Node>
      </Node>
    </BinaryTree>
    <BinaryTree type="DecisionTree" boostWeight="1.0000000000000000e+00" itree="362">
      <Node pos="s" depth="0" NCoef="0" IVar="5" Cut="1.2733769416809082e-01" cType="1" res="6.9716218858957291e-03" rms="4.6726268529891968e-01" purity="5.0270569324493408e-01" nType="0">
        <Node pos="l" depth="1" NCoef="0" IVar="-1" Cut="0.0000000000000000e+00" cType="1" res="-2.5301496498286724e-03" rms="4.5327767729759216e-01" purity="3.5252690315246582e-01" nType="-99"/>
        <Node pos="r" depth="1" NCoef="0" IVar="4" Cut="9.4017672538757324e-01" cType="1" res="1.2189865112304688e-02" rms="4.6778637170791626e-01" purity="5.1325690746307373e-01" nType="0">
          <Node pos="l" depth="2" NCoef="0" IVar="-1" Cut="0.0000000000000000e+00" cType="1" res="-5.6962558301165700e-04" rms="4.6676221489906311e-01" purity="3.8425266742706299e-01" nType="-99"/>
          <Node pos="r" depth="2" NCoef="0" IVar="-1" Cut="0.0000000000000000e+00" cType="1" res="6.9062906550243497e-04" rms="4.6766021847724915e-01" purity="5.7299202680587769e-01" nType="-99"/>
        </Node>
      </Node>
    </BinaryTree>
    <BinaryTree type="DecisionTree" boostWeight="1.0000000000000000e+00" itree="363">
      <Node pos="s" depth="0" NCoef="0" IVar="4" Cut="9.2690992355346680e-01" cType="1" res="7.9284124076366425e-03" rms="4.6750092506408691e-01" purity="5.0378412008285522e-01" nType="0">
        <Node pos="l" depth="1" NCoef="0" IVar="6" Cut="1.0984130948781967e-01" cType="1" res="-3.4685861319303513e-02" rms="4.5638665556907654e-01" purity="3.4277513623237610e-01" nType="0">
          <Node pos="l" depth="2" NCoef="0" IVar="-1" Cut="0.0000000000000000e+00" cType="1" res="-1.8838441465049982e-03" rms="4.4859668612480164e-01" purity="3.2038092613220215e-01" nType="-99"/>
          <Node pos="r" depth="2" NCoef="0" IVar="-1" Cut="0.0000000000000000e+00" cType="1" res="-2.4735854822210968e-04" rms="4.7086110711097717e-01" purity="3.8892897963523865e-01" nType="-99"/>
        </Node>
        <Node pos="r" depth="1" NCoef="0" IVar="5" Cut="1.5470689535140991e-01" cType="1" res="1.7286509275436401e-02" rms="4.6938860416412354e-01" purity="5.3914171457290649e-01" nType="0">
          <Node pos="l" depth="2" NCoef="0" IVar="-1" Cut="0.0000000000000000e+00" cType="1" res="-1.3821972534060478e-03" rms="4.6473848819732666e-01" purity="4.1472849249839783e-01" nType="-99"/>
          <Node pos="r" depth="2" NCoef="0" IVar="-1" Cut="0.0000000000000000e+00" cType="1" res="6.5091747092083097e-04" rms="4.6944940090179443e-01" purity="5.5256485939025879e-01" nType="-99"/>
        </Node>
      </Node>
    </BinaryTree>
    <BinaryTree type="DecisionTree" boostWeight="1.0000000000000000e+00" itree="364">
      <Node pos="s" depth="0" NCoef="0" IVar="4" Cut="9.2618978023529053e-01" cType="1" res="4.0284846909344196e-03" rms="4.6804776787757874e-01" purity="4.9899616837501526e-01" nType="0">
        <Node pos="l" depth="1" NCoef="0" IVar="1" Cut="6.5253388881683350e-01" cType="1" res="-3.5652339458465576e-02" rms="4.5627257227897644e-01" purity="3.4019273519515991e-01" nType="0">
          <Node pos="l" depth="2" NCoef="0" IVar="-1" Cut="0.0000000000000000e+00" cType="1" res="-2.2542579099535942e-03" rms="4.3542298674583435e-01" purity="2.8198403120040894e-01" nType="-99"/>
          <Node pos="r" depth="2" NCoef="0" IVar="-1" Cut="0.0000000000000000e+00" cType="1" res="-4.0867738425731659e-04" rms="4.8328268527984619e-01" purity="4.2237123847007751e-01" nType="-99"/>
        </Node>
        <Node pos="r" depth="1" NCoef="0" IVar="2" Cut="8.5284100341796875e+02" cType="1" res="1.2667544186115265e-02" rms="4.7012856602668762e-01" purity="5.3356987237930298e-01" nType="0">
          <Node pos="l" depth="2" NCoef="0" IVar="-1" Cut="0.0000000000000000e+00" cType="1" res="2.0195865363348275e-04" rms="4.7118940949440002e-01" purity="5.2034962177276611e-01" nType="-99"/>
          <Node pos="r" depth="2" NCoef="0" IVar="-1" Cut="0.0000000000000000e+00" cType="1" res="1.7036556964740157e-03" rms="4.5599538087844849e-01" purity="6.6277313232421875e-01" nType="-99"/>
        </Node>
      </Node>
    </BinaryTree>
    <BinaryTree type="DecisionTree" boostWeight="1.0000000000000000e+00" itree="365">
      <Node pos="s" depth="0" NCoef="0" IVar="2" Cut="4.3194650268554688e+02" cType="1" res="5.2153789438307285e-03" rms="4.6824389696121216e-01" purity="5.0089347362518311e-01" nType="0">
        <Node pos="l" depth="1" NCoef="0" IVar="2" Cut="3.5600915527343750e+02" cType="1" res="-3.1228009611368179e-02" rms="4.5478007197380066e-01" purity="3.5217317938804626e-01" nType="0">
          <Node pos="l" depth="2" NCoef="0" IVar="-1" Cut="0.0000000000000000e+00" cType="1" res="-3.4119938500225544e-03" rms="4.3029880523681641e-01" purity="2.7543506026268005e-01" nType="-99"/>
          <Node pos="r" depth="2" NCoef="0" IVar="-1" Cut="0.0000000000000000e+00" cType="1" res="-6.0617079725489020e-04" rms="4.6110132336616516e-01" purity="3.7575620412826538e-01" nType="-99"/>
        </Node>
        <Node pos="r" depth="1" NCoef="0" IVar="6" Cut="7.9615794122219086e-02" cType="1" res="1.6002932563424110e-02" rms="4.7161582112312317e-01" purity="5.4491597414016724e-01" nType="0">
          <Node pos="l" depth="2" NCoef="0" IVar="-1" Cut="0.0000000000000000e+00" cType="1" res="-5.9750564105343074e-06" rms="4.7405537962913513e-01" purity="5.0028300285339355e-01" nType="-99"/>
          <Node pos="r" depth="2" NCoef="0" IVar="-1" Cut="0.0000000000000000e+00" cType="1" res="9.0373150305822492e-04" rms="4.6816486120223999e-01" purity="5.9540754556655884e-01" nType="-99"/>
        </Node>
      </Node>
    </BinaryTree>
    <BinaryTree type="DecisionTree" boostWeight="1.0000000000000000e+00" itree="366">
      <Node pos="s" depth="0" NCoef="0" IVar="2" Cut="7.4685943603515625e+02" cType="1" res="1.5980666503310204e-03" rms="4.6684765815734863e-01" purity="4.9763000011444092e-01" nType="0">
        <Node pos="l" depth="1" NCoef="0" IVar="6" Cut="1.1446963995695114e-01" cType="1" res="-7.6303067617118359e-03" rms="4.6676287055015564e-01" purity="4.7344595193862915e-01" nType="0">
          <Node pos="l" depth="2" NCoef="0" IVar="-1" Cut="0.0000000000000000e+00" cType="1" res="-7.8206282341852784e-04" rms="4.6550175547599792e-01" purity="4.3713590502738953e-01" nType="-99"/>
          <Node pos="r" depth="2" NCoef="0" IVar="-1" Cut="0.0000000000000000e+00" cType="1" res="5.5205897660925984e-04" rms="4.6754366159439087e-01" purity="5.3310829401016235e-01" nType="-99"/>
        </Node>
        <Node pos="r" depth="1" NCoef="0" IVar="4" Cut="9.4593489170074463e-01" cType="1" res="4.8596296459436417e-02" rms="4.6444302797317505e-01" purity="6.2079441547393799e-01" nType="0">
          <Node pos="l" depth="2" NCoef="0" IVar="-1" Cut="0.0000000000000000e+00" cType="1" res="4.6685908455401659e-04" rms="4.8977422714233398e-01" purity="5.0588661432266235e-01" nType="-99"/>
          <Node pos="r" depth="2" NCoef="0" IVar="-1" Cut="0.0000000000000000e+00" cType="1" res="1.6956111649051309e-03" rms="4.4609788060188293e-01" purity="6.9495046138763428e-01" nType="-99"/>
        </Node>
      </Node>
    </BinaryTree>
    <BinaryTree type="DecisionTree" boostWeight="1.0000000000000000e+00" itree="367">
      <Node pos="s" depth="0" NCoef="0" IVar="6" Cut="1.9861660897731781e-01" cType="1" res="4.5649143867194653e-03" rms="4.6739768981933594e-01" purity="4.9973967671394348e-01" nType="0">
        <Node pos="l" depth="1" NCoef="0" IVar="4" Cut="9.2652034759521484e-01" cType="1" res="-2.0125310402363539e-03" rms="4.6744862198829651e-01" purity="4.8968276381492615e-01" nType="0">
          <Node pos="l" depth="2" NCoef="0" IVar="-1" Cut="0.0000000000000000e+00" cType="1" res="-1.5647173859179020e-03" rms="4.5170581340789795e-01" purity="3.3470207452774048e-01" nType="-99"/>
          <Node pos="r" depth="2" NCoef="0" IVar="-1" Cut="0.0000000000000000e+00" cType="1" res="1.9585940754041076e-04" rms="4.7050955891609192e-01" purity="5.2495473623275757e-01" nType="-99"/>
        </Node>
        <Node pos="r" depth="1" NCoef="0" IVar="-1" Cut="0.0000000000000000e+00" cType="1" res="1.6606764402240515e-03" rms="4.6265140175819397e-01" purity="5.9131151437759399e-01" nType="-99"/>
      </Node>
    </BinaryTree>
    <BinaryTree type="DecisionTree" boostWeight="1.0000000000000000e+00" itree="368">
      <Node pos="s" depth="0" NCoef="0" IVar="8" Cut="7.8544813394546509e-01" cType="1" res="7.1771596558392048e-03" rms="4.6931409835815430e-01" purity="5.0157976150512695e-01" nType="0">
        <Node pos="l" depth="1" NCoef="0" IVar="0" Cut="8.8517203927040100e-02" cType="1" res="4.0158454328775406e-02" rms="4.7064533829689026e-01" purity="5.6499993801116943e-01" nType="0">
          <Node pos="l" depth="2" NCoef="0" IVar="-1" Cut="0.0000000000000000e+00" cType="1" res="7.1138888597488403e-04" rms="4.7225049138069153e-01" purity="5.3632748126983643e-01" nType="-99"/>
          <Node pos="r" depth="2" NCoef="0" IVar="-1" Cut="0.0000000000000000e+00" cType="1" res="1.8544931663200259e-03" rms="4.6509921550750732e-01" purity="6.3112401962280273e-01" nType="-99"/>
        </Node>
        <Node pos="r" depth="1" NCoef="0" IVar="3" Cut="1.4807582092285156e+02" cType="1" res="-3.6290928255766630e-03" rms="4.6837222576141357e-01" purity="4.8080033063888550e-01" nType="0">
          <Node pos="l" depth="2" NCoef="0" IVar="-1" Cut="0.0000000000000000e+00" cType="1" res="-3.3149876981042325e-04" rms="4.6890297532081604e-01" purity="4.6838143467903137e-01" nType="-99"/>
          <Node pos="r" depth="2" NCoef="0" IVar="-1" Cut="0.0000000000000000e+00" cType="1" res="1.9132315646857023e-03" rms="4.5544284582138062e-01" purity="6.1576479673385620e-01" nType="-99"/>
        </Node>
      </Node>
    </BinaryTree>
    <BinaryTree type="DecisionTree" boostWeight="1.0000000000000000e+00" itree="369">
      <Node pos="s" depth="0" NCoef="0" IVar="3" Cut="1.3989184570312500e+02" cType="1" res="6.2998952344059944e-03" rms="4.6794500946998596e-01" purity="5.0151968002319336e-01" nType="0">
        <Node pos="l" depth="1" NCoef="0" IVar="8" Cut="1.4844419956207275e+00" cType="1" res="-1.8655727035365999e-04" rms="4.6900343894958496e-01" purity="4.8958367109298706e-01" nType="0">
          <Node pos="l" depth="2" NCoef="0" IVar="-1" Cut="0.0000000000000000e+00" cType="1" res="2.5564263341948390e-04" rms="4.7099277377128601e-01" purity="5.0861078500747681e-01" nType="-99"/>
          <Node pos="r" depth="2" NCoef="0" IVar="-1" Cut="0.0000000000000000e+00" cType="1" res="-1.7754297005012631e-03" rms="4.5455169677734375e-01" purity="3.8367131352424622e-01" nType="-99"/>
        </Node>
        <Node pos="r" depth="1" NCoef="0" IVar="-1" Cut="0.0000000000000000e+00" cType="1" res="1.6949729761108756e-03" rms="4.5396435260772705e-01" purity="6.1011952161788940e-01" nType="-99"/>
      </Node>
    </BinaryTree>
    <BinaryTree type="DecisionTree" boostWeight="1.0000000000000000e+00" itree="370">
      <Node pos="s" depth="0" NCoef="0" IVar="8" Cut="8.6979174613952637e-01" cType="1" res="8.2084694877266884e-03" rms="4.6747544407844543e-01" purity="5.0458556413650513e-01" nType="0">
        <Node pos="l" depth="1" NCoef="0" IVar="0" Cut="-5.8181672357022762e-03" cType="1" res="3.4226577728986740e-02" rms="4.6624121069908142e-01" purity="5.6120216846466064e-01" nType="0">
          <Node pos="l" depth="2" NCoef="0" IVar="-1" Cut="0.0000000000000000e+00" cType="1" res="3.1282653799280524e-04" rms="4.6797439455986023e-01" purity="5.1336431503295898e-01" nType="-99"/>
          <Node pos="r" depth="2" NCoef="0" IVar="-1" Cut="0.0000000000000000e+00" cType="1" res="1.4340966008603573e-03" rms="4.6360296010971069e-01" purity="6.0508459806442261e-01" nType="-99"/>
        </Node>
        <Node pos="r" depth="1" NCoef="0" IVar="2" Cut="6.0236950683593750e+02" cType="1" res="-4.6682581305503845e-03" rms="4.6754977107048035e-01" purity="4.7656521201133728e-01" nType="0">
          <Node pos="l" depth="2" NCoef="0" IVar="-1" Cut="0.0000000000000000e+00" cType="1" res="-5.0448573892936110e-04" rms="4.6625068783760071e-01" purity="4.3269434571266174e-01" nType="-99"/>
          <Node pos="r" depth="2" NCoef="0" IVar="-1" Cut="0.0000000000000000e+00" cType="1" res="5.7857402134686708e-04" rms="4.6961584687232971e-01" purity="5.8160269260406494e-01" nType="-99"/>
        </Node>
      </Node>
    </BinaryTree>
    <BinaryTree type="DecisionTree" boostWeight="1.0000000000000000e+00" itree="371">
      <Node pos="s" depth="0" NCoef="0" IVar="5" Cut="1.5656042098999023e-01" cType="1" res="3.9718998596072197e-03" rms="4.6652978658676147e-01" purity="5.0010937452316284e-01" nType="0">
        <Node pos="l" depth="1" NCoef="0" IVar="4" Cut="9.4976615905761719e-01" cType="1" res="-5.2629575133323669e-02" rms="4.5090201497077942e-01" purity="3.7923640012741089e-01" nType="0">
          <Node pos="l" depth="2" NCoef="0" IVar="-1" Cut="0.0000000000000000e+00" cType="1" res="-3.2102551776915789e-03" rms="4.3080738186836243e-01" purity="2.8649654984474182e-01" nType="-99"/>
          <Node pos="r" depth="2" NCoef="0" IVar="-1" Cut="0.0000000000000000e+00" cType="1" res="-9.7346771508455276e-04" rms="4.6948251128196716e-01" purity="4.7322076559066772e-01" nType="-99"/>
        </Node>
        <Node pos="r" depth="1" NCoef="0" IVar="2" Cut="4.3647204589843750e+02" cType="1" res="1.0450989939272404e-02" rms="4.6784880757331848e-01" purity="5.1394551992416382e-01" nType="0">
          <Node pos="l" depth="2" NCoef="0" IVar="-1" Cut="0.0000000000000000e+00" cType="1" res="-9.8330865148454905e-04" rms="4.5627689361572266e-01" purity="3.6203232407569885e-01" nType="-99"/>
          <Node pos="r" depth="2" NCoef="0" IVar="-1" Cut="0.0000000000000000e+00" cType="1" res="6.1900250148028135e-04" rms="4.7098556160926819e-01" purity="5.6459408998489380e-01" nType="-99"/>
        </Node>
      </Node>
    </BinaryTree>
    <BinaryTree type="DecisionTree" boostWeight="1.0000000000000000e+00" itree="372">
      <Node pos="s" depth="0" NCoef="0" IVar="0" Cut="2.2311687469482422e-01" cType="1" res="3.7258919328451157e-03" rms="4.6718919277191162e-01" purity="5.0037372112274170e-01" nType="0">
        <Node pos="l" depth="1" NCoef="0" IVar="1" Cut="5.3142446279525757e-01" cType="1" res="-2.1347529254853725e-03" rms="4.6671918034553528e-01" purity="4.9043238162994385e-01" nType="0">
          <Node pos="l" depth="2" NCoef="0" IVar="-1" Cut="0.0000000000000000e+00" cType="1" res="-1.7493574414402246e-03" rms="4.5111849904060364e-01" purity="3.5637536644935608e-01" nType="-99"/>
          <Node pos="r" depth="2" NCoef="0" IVar="-1" Cut="0.0000000000000000e+00" cType="1" res="3.4633264294825494e-04" rms="4.7075134515762329e-01" purity="5.3380626440048218e-01" nType="-99"/>
        </Node>
        <Node pos="r" depth="1" NCoef="0" IVar="-1" Cut="0.0000000000000000e+00" cType="1" res="1.8955852137878537e-03" rms="4.6693304181098938e-01" purity="6.2309461832046509e-01" nType="-99"/>
      </Node>
    </BinaryTree>
    <BinaryTree type="DecisionTree" boostWeight="1.0000000000000000e+00" itree="373">
      <Node pos="s" depth="0" NCoef="0" IVar="4" Cut="9.8096448183059692e-01" cType="1" res="3.6628870293498039e-03" rms="4.6753874421119690e-01" purity="4.9936896562576294e-01" nType="0">
        <Node pos="l" depth="1" NCoef="0" IVar="0" Cut="2.2521291673183441e-01" cType="1" res="-3.7744489964097738e-03" rms="4.7255927324295044e-01" purity="4.6320757269859314e-01" nType="0">
          <Node pos="l" depth="2" NCoef="0" IVar="-1" Cut="0.0000000000000000e+00" cType="1" res="-2.7246205718256533e-04" rms="4.7184848785400391e-01" purity="4.5349794626235962e-01" nType="-99"/>
          <Node pos="r" depth="2" NCoef="0" IVar="-1" Cut="0.0000000000000000e+00" cType="1" res="1.5362144913524389e-03" rms="4.7693830728530884e-01" purity="5.8789193630218506e-01" nType="-99"/>
        </Node>
        <Node pos="r" depth="1" NCoef="0" IVar="-1" Cut="0.0000000000000000e+00" cType="1" res="1.2182443169876933e-03" rms="4.3227988481521606e-01" purity="7.2353398799896240e-01" nType="-99"/>
      </Node>
    </BinaryTree>
    <BinaryTree type="DecisionTree" boostWeight="1.0000000000000000e+00" itree="374">
      <Node pos="s" depth="0" NCoef="0" IVar="1" Cut="8.2046222686767578e-01" cType="1" res="4.5584039762616158e-03" rms="4.6765950322151184e-01" purity="4.9989914894104004e-01" nType="0">
        <Node pos="l" depth="1" NCoef="0" IVar="0" Cut="4.7465939074754715e-02" cType="1" res="-2.2865883074700832e-03" rms="4.6794292330741882e-01" purity="4.7825536131858826e-01" nType="0">
          <Node pos="l" depth="2" NCoef="0" IVar="-1" Cut="0.0000000000000000e+00" cType="1" res="-7.1331800427287817e-04" rms="4.6386399865150452e-01" purity="4.2382138967514038e-01" nType="-99"/>
          <Node pos="r" depth="2" NCoef="0" IVar="-1" Cut="0.0000000000000000e+00" cType="1" res="6.3508603489026427e-04" rms="4.7208476066589355e-01" purity="5.5028635263442993e-01" nType="-99"/>
        </Node>
        <Node pos="r" depth="1" NCoef="0" IVar="5" Cut="4.4814601540565491e-01" cType="1" res="4.6767052263021469e-02" rms="4.6368074417114258e-01" purity="6.3336271047592163e-01" nType="0">
          <Node pos="l" depth="2" NCoef="0" IVar="-1" Cut="0.0000000000000000e+00" cType="1" res="6.4293685136362910e-04" rms="4.6909725666046143e-01" purity="6.2326532602310181e-01" nType="-99"/>
          <Node pos="r" depth="2" NCoef="0" IVar="-1" Cut="0.0000000000000000e+00" cType="1" res="1.6363869654014707e-03" rms="4.5778626203536987e-01" purity="6.4259707927703857e-01" nType="-99"/>
        </Node>
      </Node>
    </BinaryTree>
    <BinaryTree type="DecisionTree" boostWeight="1.0000000000000000e+00" itree="375">
      <Node pos="s" depth="0" NCoef="0" IVar="3" Cut="1.5241690063476562e+02" cType="1" res="4.6482058241963387e-03" rms="4.6862733364105225e-01" purity="4.9987861514091492e-01" nType="0">
        <Node pos="l" depth="1" NCoef="0" IVar="3" Cut="7.5569389343261719e+01" cType="1" res="-6.1628286493942142e-04" rms="4.6994122862815857e-01" purity="4.9044471979141235e-01" nType="0">
          <Node pos="l" depth="2" NCoef="0" IVar="-1" Cut="0.0000000000000000e+00" cType="1" res="6.0186028713360429e-04" rms="4.6783322095870972e-01" purity="5.0499475002288818e-01" nType="-99"/>
          <Node pos="r" depth="2" NCoef="0" IVar="-1" Cut="0.0000000000000000e+00" cType="1" res="-4.6600881614722311e-04" rms="4.7084277868270874e-01" purity="4.8030918836593628e-01" nType="-99"/>
        </Node>
        <Node pos="r" depth="1" NCoef="0" IVar="-1" Cut="0.0000000000000000e+00" cType="1" res="2.0810451824218035e-03" rms="4.4145143032073975e-01" purity="6.3950127363204956e-01" nType="-99"/>
      </Node>
    </BinaryTree>
    <BinaryTree type="DecisionTree" boostWeight="1.0000000000000000e+00" itree="376">
      <Node pos="s" depth="0" NCoef="0" IVar="0" Cut="8.0154187977313995e-02" cType="1" res="6.5266306046396494e-04" rms="4.6690669655799866e-01" purity="4.9588674306869507e-01" nType="0">
        <Node pos="l" depth="1" NCoef="0" IVar="1" Cut="6.5428769588470459e-01" cType="1" res="-1.1998305097222328e-02" rms="4.6424394845962524e-01" purity="4.6612450480461121e-01" nType="0">
          <Node pos="l" depth="2" NCoef="0" IVar="-1" Cut="0.0000000000000000e+00" cType="1" res="-1.6784268664196134e-03" rms="4.4865497946739197e-01" purity="3.3621972799301147e-01" nType="-99"/>
          <Node pos="r" depth="2" NCoef="0" IVar="-1" Cut="0.0000000000000000e+00" cType="1" res="2.6699097361415625e-04" rms="4.7370871901512146e-01" purity="5.5763763189315796e-01" nType="-99"/>
        </Node>
        <Node pos="r" depth="1" NCoef="0" IVar="1" Cut="4.1247934103012085e-01" cType="1" res="2.8559751808643341e-02" rms="4.7152882814407349e-01" purity="5.6154000759124756e-01" nType="0">
          <Node pos="l" depth="2" NCoef="0" IVar="-1" Cut="0.0000000000000000e+00" cType="1" res="-6.0338526964187622e-04" rms="4.7361394762992859e-01" purity="4.8784902691841125e-01" nType="-99"/>
          <Node pos="r" depth="2" NCoef="0" IVar="-1" Cut="0.0000000000000000e+00" cType="1" res="1.0827993974089622e-03" rms="4.7020205855369568e-01" purity="5.7997840642929077e-01" nType="-99"/>
        </Node>
      </Node>
    </BinaryTree>
    <BinaryTree type="DecisionTree" boostWeight="1.0000000000000000e+00" itree="377">
      <Node pos="s" depth="0" NCoef="0" IVar="3" Cut="1.3836309814453125e+02" cType="1" res="5.2446923218667507e-03" rms="4.6771082282066345e-01" purity="5.0056022405624390e-01" nType="0">
        <Node pos="l" depth="1" NCoef="0" IVar="8" Cut="1.6655870676040649e+00" cType="1" res="-6.5689173061400652e-04" rms="4.6842718124389648e-01" purity="4.8921912908554077e-01" nType="0">
          <Node pos="l" depth="2" NCoef="0" IVar="-1" Cut="0.0000000000000000e+00" cType="1" res="1.3780374138150364e-04" rms="4.6957948803901672e-01" purity="5.0054562091827393e-01" nType="-99"/>
          <Node pos="r" depth="2" NCoef="0" IVar="-1" Cut="0.0000000000000000e+00" cType="1" res="-2.3751275148242712e-03" rms="4.4964134693145752e-01" purity="3.5423687100410461e-01" nType="-99"/>
        </Node>
        <Node pos="r" depth="1" NCoef="0" IVar="-1" Cut="0.0000000000000000e+00" cType="1" res="1.4847369166091084e-03" rms="4.5822334289550781e-01" purity="5.9932547807693481e-01" nType="-99"/>
      </Node>
    </BinaryTree>
    <BinaryTree type="DecisionTree" boostWeight="1.0000000000000000e+00" itree="378">
      <Node pos="s" depth="0" NCoef="0" IVar="0" Cut="9.5772765576839447e-02" cType="1" res="3.4404932521283627e-03" rms="4.6742272377014160e-01" purity="4.9902158975601196e-01" nType="0">
        <Node pos="l" depth="1" NCoef="0" IVar="1" Cut="7.2892135381698608e-01" cType="1" res="-7.9913996160030365e-03" rms="4.6452853083610535e-01" purity="4.7278270125389099e-01" nType="0">
          <Node pos="l" depth="2" NCoef="0" IVar="-1" Cut="0.0000000000000000e+00" cType="1" res="-1.0313449893146753e-03" rms="4.6120333671569824e-01" purity="3.9104279875755310e-01" nType="-99"/>
          <Node pos="r" depth="2" NCoef="0" IVar="-1" Cut="0.0000000000000000e+00" cType="1" res="6.1174406437203288e-04" rms="4.6761691570281982e-01" purity="5.9320926666259766e-01" nType="-99"/>
        </Node>
        <Node pos="r" depth="1" NCoef="0" IVar="8" Cut="1.1455323696136475e+00" cType="1" res="3.3091273158788681e-02" rms="4.7356274724006653e-01" purity="5.6707692146301270e-01" nType="0">
          <Node pos="l" depth="2" NCoef="0" IVar="-1" Cut="0.0000000000000000e+00" cType="1" res="1.2427523033693433e-03" rms="4.7185692191123962e-01" purity="5.9851467609405518e-01" nType="-99"/>
          <Node pos="r" depth="2" NCoef="0" IVar="-1" Cut="0.0000000000000000e+00" cType="1" res="3.2051693415269256e-04" rms="4.7512736916542053e-01" purity="5.2252727746963501e-01" nType="-99"/>
        </Node>
      </Node>
    </BinaryTree>
    <BinaryTree type="DecisionTree" boostWeight="1.0000000000000000e+00" itree="379">
      <Node pos="s" depth="0" NCoef="0" IVar="0" Cut="1.7084147036075592e-01" cType="1" res="4.2705009691417217e-03" rms="4.6817481517791748e-01" purity="4.9936723709106445e-01" nType="0">
        <Node pos="l" depth="1" NCoef="0" IVar="1" Cut="5.5598437786102295e-01" cType="1" res="-3.4687647130340338e-03" rms="4.6758165955543518e-01" purity="4.8249894380569458e-01" nType="0">
          <Node pos="l" depth="2" NCoef="0" IVar="-1" Cut="0.0000000000000000e+00" cType="1" res="-1.7163160955533385e-03" rms="4.4975635409355164e-01" purity="3.3582314848899841e-01" nType="-99"/>
          <Node pos="r" depth="2" NCoef="0" IVar="-1" Cut="0.0000000000000000e+00" cType="1" res="3.0513046658597887e-04" rms="4.7290840744972229e-01" purity="5.3449529409408569e-01" nType="-99"/>
        </Node>
        <Node pos="r" depth="1" NCoef="0" IVar="1" Cut="4.5172995328903198e-01" cType="1" res="4.9029808491468430e-02" rms="4.6909260749816895e-01" purity="5.9692388772964478e-01" nType="0">
          <Node pos="l" depth="2" NCoef="0" IVar="-1" Cut="0.0000000000000000e+00" cType="1" res="6.4703903626650572e-04" rms="4.8032084107398987e-01" purity="5.5245274305343628e-01" nType="-99"/>
          <Node pos="r" depth="2" NCoef="0" IVar="-1" Cut="0.0000000000000000e+00" cType="1" res="1.7895840574055910e-03" rms="4.5709276199340820e-01" purity="6.3852953910827637e-01" nType="-99"/>
        </Node>
      </Node>
    </BinaryTree>
    <BinaryTree type="DecisionTree" boostWeight="1.0000000000000000e+00" itree="380">
      <Node pos="s" depth="0" NCoef="0" IVar="3" Cut="1.4049632263183594e+02" cType="1" res="3.6021820269525051e-03" rms="4.6723058819770813e-01" purity="4.9979564547538757e-01" nType="0">
        <Node pos="l" depth="1" NCoef="0" IVar="6" Cut="8.5567116737365723e-02" cType="1" res="-2.6004300452768803e-03" rms="4.6793717145919800e-01" purity="4.8843351006507874e-01" nType="0">
          <Node pos="l" depth="2" NCoef="0" IVar="-1" Cut="0.0000000000000000e+00" cType="1" res="-6.9058605004101992e-04" rms="4.6700549125671387e-01" purity="4.4858151674270630e-01" nType="-99"/>
          <Node pos="r" depth="2" NCoef="0" IVar="-1" Cut="0.0000000000000000e+00" cType="1" res="4.7882419312372804e-04" rms="4.6808740496635437e-01" purity="5.2921885251998901e-01" nType="-99"/>
        </Node>
        <Node pos="r" depth="1" NCoef="0" IVar="-1" Cut="0.0000000000000000e+00" cType="1" res="1.6191782196983695e-03" rms="4.5632040500640869e-01" purity="6.0742664337158203e-01" nType="-99"/>
      </Node>
    </BinaryTree>
    <BinaryTree type="DecisionTree" boostWeight="1.0000000000000000e+00" itree="381">
      <Node pos="s" depth="0" NCoef="0" IVar="4" Cut="9.7630268335342407e-01" cType="1" res="7.8337425366044044e-03" rms="4.6652290225028992e-01" purity="5.0487363338470459e-01" nType="0">
        <Node pos="l" depth="1" NCoef="0" IVar="6" Cut="2.1512547135353088e-01" cType="1" res="-1.2318691005930305e-03" rms="4.7262823581695557e-01" purity="4.5857807993888855e-01" nType="0">
          <Node pos="l" depth="2" NCoef="0" IVar="-1" Cut="0.0000000000000000e+00" cType="1" res="-1.9914565200451761e-04" rms="4.7163793444633484e-01" purity="4.5159530639648438e-01" nType="-99"/>
          <Node pos="r" depth="2" NCoef="0" IVar="-1" Cut="0.0000000000000000e+00" cType="1" res="1.6685224836692214e-03" rms="4.8012948036193848e-01" purity="5.4596394300460815e-01" nType="-99"/>
        </Node>
        <Node pos="r" depth="1" NCoef="0" IVar="2" Cut="5.1851995849609375e+02" cType="1" res="4.7685649245977402e-02" rms="4.3644991517066956e-01" purity="7.0838642120361328e-01" nType="0">
          <Node pos="l" depth="2" NCoef="0" IVar="-1" Cut="0.0000000000000000e+00" cType="1" res="5.7839421788230538e-04" rms="4.6507132053375244e-01" purity="6.4011669158935547e-01" nType="-99"/>
          <Node pos="r" depth="2" NCoef="0" IVar="-1" Cut="0.0000000000000000e+00" cType="1" res="1.6601555980741978e-03" rms="4.1070923209190369e-01" purity="7.6368695497512817e-01" nType="-99"/>
        </Node>
      </Node>
    </BinaryTree>
    <BinaryTree type="DecisionTree" boostWeight="1.0000000000000000e+00" itree="382">
      <Node pos="s" depth="0" NCoef="0" IVar="0" Cut="2.0323017239570618e-01" cType="1" res="2.7118204161524773e-03" rms="4.6705341339111328e-01" purity="4.9783843755722046e-01" nType="0">
        <Node pos="l" depth="1" NCoef="0" IVar="1" Cut="5.3342902660369873e-01" cType="1" res="-3.0694568995386362e-03" rms="4.6624037623405457e-01" purity="4.8660284280776978e-01" nType="0">
          <Node pos="l" depth="2" NCoef="0" IVar="-1" Cut="0.0000000000000000e+00" cType="1" res="-1.8791588954627514e-03" rms="4.4882217049598694e-01" purity="3.4069707989692688e-01" nType="-99"/>
          <Node pos="r" depth="2" NCoef="0" IVar="-1" Cut="0.0000000000000000e+00" cType="1" res="3.0957857961766422e-04" rms="4.7061896324157715e-01" purity="5.3176480531692505e-01" nType="-99"/>
        </Node>
        <Node pos="r" depth="1" NCoef="0" IVar="-1" Cut="0.0000000000000000e+00" cType="1" res="1.4531118795275688e-03" rms="4.7117042541503906e-01" purity="6.0315054655075073e-01" nType="-99"/>
      </Node>
    </BinaryTree>
    <BinaryTree type="DecisionTree" boostWeight="1.0000000000000000e+00" itree="383">
      <Node pos="s" depth="0" NCoef="0" IVar="4" Cut="9.7652518749237061e-01" cType="1" res="3.4987559774890542e-04" rms="4.6664953231811523e-01" purity="4.9595287442207336e-01" nType="0">
        <Node pos="l" depth="1" NCoef="0" IVar="8" Cut="7.7678394317626953e-01" cType="1" res="-8.4645170718431473e-03" rms="4.7187468409538269e-01" purity="4.5090064406394958e-01" nType="0">
          <Node pos="l" depth="2" NCoef="0" IVar="-1" Cut="0.0000000000000000e+00" cType="1" res="6.0701288748532534e-04" rms="4.7909250855445862e-01" purity="5.1316845417022705e-01" nType="-99"/>
          <Node pos="r" depth="2" NCoef="0" IVar="-1" Cut="0.0000000000000000e+00" cType="1" res="-5.7369261048734188e-04" rms="4.6917244791984558e-01" purity="4.3118050694465637e-01" nType="-99"/>
        </Node>
        <Node pos="r" depth="1" NCoef="0" IVar="4" Cut="9.8433917760848999e-01" cType="1" res="4.0611740201711655e-02" rms="4.3975669145584106e-01" purity="7.0173960924148560e-01" nType="0">
          <Node pos="l" depth="2" NCoef="0" IVar="-1" Cut="0.0000000000000000e+00" cType="1" res="3.4117104951292276e-04" rms="4.6047872304916382e-01" purity="6.4362418651580811e-01" nType="-99"/>
          <Node pos="r" depth="2" NCoef="0" IVar="-1" Cut="0.0000000000000000e+00" cType="1" res="1.4471890171989799e-03" rms="4.2427521944046021e-01" purity="7.4075776338577271e-01" nType="-99"/>
        </Node>
      </Node>
    </BinaryTree>
    <BinaryTree type="DecisionTree" boostWeight="1.0000000000000000e+00" itree="384">
      <Node pos="s" depth="0" NCoef="0" IVar="0" Cut="6.5836519002914429e-02" cType="1" res="7.9641882330179214e-03" rms="4.6863618493080139e-01" purity="5.0312376022338867e-01" nType="0">
        <Node pos="l" depth="1" NCoef="0" IVar="1" Cut="7.2458112239837646e-01" cType="1" res="-4.3999133631587029e-03" rms="4.6707302331924438e-01" purity="4.7106328606605530e-01" nType="0">
          <Node pos="l" depth="2" NCoef="0" IVar="-1" Cut="0.0000000000000000e+00" cType="1" res="-8.4042147500440478e-04" rms="4.6259427070617676e-01" purity="3.8434502482414246e-01" nType="-99"/>
          <Node pos="r" depth="2" NCoef="0" IVar="-1" Cut="0.0000000000000000e+00" cType="1" res="5.7212711544707417e-04" rms="4.7179344296455383e-01" purity="5.8796823024749756e-01" nType="-99"/>
        </Node>
        <Node pos="r" depth="1" NCoef="0" IVar="4" Cut="9.3592762947082520e-01" cType="1" res="3.1813196837902069e-02" rms="4.7072020173072815e-01" purity="5.6496477127075195e-01" nType="0">
          <Node pos="l" depth="2" NCoef="0" IVar="-1" Cut="0.0000000000000000e+00" cType="1" res="-2.4877965915948153e-04" rms="4.8223108053207397e-01" purity="4.1801688075065613e-01" nType="-99"/>
          <Node pos="r" depth="2" NCoef="0" IVar="-1" Cut="0.0000000000000000e+00" cType="1" res="1.1863360414281487e-03" rms="4.6546697616577148e-01" purity="6.2000018358230591e-01" nType="-99"/>
        </Node>
      </Node>
    </BinaryTree>
    <BinaryTree type="DecisionTree" boostWeight="1.0000000000000000e+00" itree="385">
      <Node pos="s" depth="0" NCoef="0" IVar="4" Cut="9.6275085210800171e-01" cType="1" res="2.0945526193827391e-03" rms="4.6646821498870850e-01" purity="4.9908879399299622e-01" nType="0">
        <Node pos="l" depth="1" NCoef="0" IVar="3" Cut="1.3587565612792969e+02" cType="1" res="-1.0884099639952183e-02" rms="4.7155466675758362e-01" purity="4.2349690198898315e-01" nType="0">
          <Node pos="l" depth="2" NCoef="0" IVar="-1" Cut="0.0000000000000000e+00" cType="1" res="-5.8478658320382237e-04" rms="4.7139132022857666e-01" purity="4.1064277291297913e-01" nType="-99"/>
          <Node pos="r" depth="2" NCoef="0" IVar="-1" Cut="0.0000000000000000e+00" cType="1" res="1.2419625418260694e-03" rms="4.6919995546340942e-01" purity="5.2684593200683594e-01" nType="-99"/>
        </Node>
        <Node pos="r" depth="1" NCoef="0" IVar="2" Cut="4.8330184936523438e+02" cType="1" res="2.6408897712826729e-02" rms="4.5579317212104797e-01" purity="6.4070361852645874e-01" nType="0">
          <Node pos="l" depth="2" NCoef="0" IVar="-1" Cut="0.0000000000000000e+00" cType="1" res="-1.1006683052983135e-04" rms="4.7493830323219299e-01" purity="5.4662901163101196e-01" nType="-99"/>
          <Node pos="r" depth="2" NCoef="0" IVar="-1" Cut="0.0000000000000000e+00" cType="1" res="1.0779703734442592e-03" rms="4.4396933913230896e-01" purity="6.9267743825912476e-01" nType="-99"/>
        </Node>
      </Node>
    </BinaryTree>
    <BinaryTree type="DecisionTree" boostWeight="1.0000000000000000e+00" itree="386">
      <Node pos="s" depth="0" NCoef="0" IVar="0" Cut="2.2573590278625488e-01" cType="1" res="4.6999128535389900e-03" rms="4.6682316064834595e-01" purity="5.0137782096862793e-01" nType="0">
        <Node pos="l" depth="1" NCoef="0" IVar="1" Cut="4.1305238008499146e-01" cType="1" res="-3.2560154795646667e-04" rms="4.6679404377937317e-01" purity="4.9173101782798767e-01" nType="0">
          <Node pos="l" depth="2" NCoef="0" IVar="-1" Cut="0.0000000000000000e+00" cType="1" res="-3.8345707580447197e-03" rms="4.3067553639411926e-01" purity="2.9480779170989990e-01" nType="-99"/>
          <Node pos="r" depth="2" NCoef="0" IVar="-1" Cut="0.0000000000000000e+00" cType="1" res="1.7863513494376093e-04" rms="4.6862944960594177e-01" purity="5.0590205192565918e-01" nType="-99"/>
        </Node>
        <Node pos="r" depth="1" NCoef="0" IVar="-1" Cut="0.0000000000000000e+00" cType="1" res="1.7456030473113060e-03" rms="4.6222215890884399e-01" purity="6.2724459171295166e-01" nType="-99"/>
      </Node>
    </BinaryTree>
    <BinaryTree type="DecisionTree" boostWeight="1.0000000000000000e+00" itree="387">
      <Node pos="s" depth="0" NCoef="0" IVar="0" Cut="2.2590848803520203e-01" cType="1" res="2.7783736586570740e-03" rms="4.6790257096290588e-01" purity="4.9847146868705750e-01" nType="0">
        <Node pos="l" depth="1" NCoef="0" IVar="1" Cut="4.1347718238830566e-01" cType="1" res="-3.2125955913215876e-03" rms="4.6758133172988892e-01" purity="4.8810136318206787e-01" nType="0">
          <Node pos="l" depth="2" NCoef="0" IVar="-1" Cut="0.0000000000000000e+00" cType="1" res="-4.7323498874902725e-03" rms="4.2624369263648987e-01" purity="2.7446490526199341e-01" nType="-99"/>
          <Node pos="r" depth="2" NCoef="0" IVar="-1" Cut="0.0000000000000000e+00" cType="1" res="1.2071706441929564e-04" rms="4.6955865621566772e-01" purity="5.0343364477157593e-01" nType="-99"/>
        </Node>
        <Node pos="r" depth="1" NCoef="0" IVar="-1" Cut="0.0000000000000000e+00" cType="1" res="1.9602449610829353e-03" rms="4.6522060036659241e-01" purity="6.3135236501693726e-01" nType="-99"/>
      </Node>
    </BinaryTree>
    <BinaryTree type="DecisionTree" boostWeight="1.0000000000000000e+00" itree="388">
      <Node pos="s" depth="0" NCoef="0" IVar="4" Cut="9.3986368179321289e-01" cType="1" res="2.7612119447439909e-03" rms="4.6692088246345520e-01" purity="4.9910449981689453e-01" nType="0">
        <Node pos="l" depth="1" NCoef="0" IVar="2" Cut="5.1411663818359375e+02" cType="1" res="-2.4664223194122314e-02" rms="4.6215602755546570e-01" purity="3.6918976902961731e-01" nType="0">
          <Node pos="l" depth="2" NCoef="0" IVar="-1" Cut="0.0000000000000000e+00" cType="1" res="-1.7499364912509918e-03" rms="4.3702250719070435e-01" purity="2.8655982017517090e-01" nType="-99"/>
          <Node pos="r" depth="2" NCoef="0" IVar="-1" Cut="0.0000000000000000e+00" cType="1" res="-3.0232541030272841e-04" rms="4.8336860537528992e-01" purity="4.4424399733543396e-01" nType="-99"/>
        </Node>
        <Node pos="r" depth="1" NCoef="0" IVar="5" Cut="3.9165037870407104e-01" cType="1" res="1.5354505740106106e-02" rms="4.6855515241622925e-01" purity="5.5875909328460693e-01" nType="0">
          <Node pos="l" depth="2" NCoef="0" IVar="-1" Cut="0.0000000000000000e+00" cType="1" res="-1.2331895413808525e-04" rms="4.7106760740280151e-01" purity="5.1103192567825317e-01" nType="-99"/>
          <Node pos="r" depth="2" NCoef="0" IVar="-1" Cut="0.0000000000000000e+00" cType="1" res="8.9792365906760097e-04" rms="4.6530932188034058e-01" purity="6.0518819093704224e-01" nType="-99"/>
        </Node>
      </Node>
    </BinaryTree>
    <BinaryTree type="DecisionTree" boostWeight="1.0000000000000000e+00" itree="389">
      <Node pos="s" depth="0" NCoef="0" IVar="1" Cut="4.0925756096839905e-01" cType="1" res="4.0206168778240681e-03" rms="4.6700865030288696e-01" purity="4.9990200996398926e-01" nType="0">
        <Node pos="l" depth="1" NCoef="0" IVar="-1" Cut="0.0000000000000000e+00" cType="1" res="-1.8599744653329253e-03" rms="4.4502025842666626e-01" purity="3.8547965884208679e-01" nType="-99"/>
        <Node pos="r" depth="1" NCoef="0" IVar="3" Cut="1.4376452636718750e+02" cType="1" res="9.8447641357779503e-03" rms="4.6883320808410645e-01" purity="5.1171296834945679e-01" nType="0">
          <Node pos="l" depth="2" NCoef="0" IVar="-1" Cut="0.0000000000000000e+00" cType="1" res="1.1898770026164129e-04" rms="4.6980556845664978e-01" purity="5.0087904930114746e-01" nType="-99"/>
          <Node pos="r" depth="2" NCoef="0" IVar="-1" Cut="0.0000000000000000e+00" cType="1" res="1.8452398944646120e-03" rms="4.5342853665351868e-01" purity="6.2894779443740845e-01" nType="-99"/>
        </Node>
      </Node>
    </BinaryTree>
    <BinaryTree type="DecisionTree" boostWeight="1.0000000000000000e+00" itree="390">
      <Node pos="s" depth="0" NCoef="0" IVar="0" Cut="1.8996480107307434e-01" cType="1" res="3.3076144754886627e-03" rms="4.6687942743301392e-01" purity="4.9914923310279846e-01" nType="0">
        <Node pos="l" depth="1" NCoef="0" IVar="1" Cut="5.8095365762710571e-01" cType="1" res="-3.6547966301441193e-03" rms="4.6642687916755676e-01" purity="4.8466894030570984e-01" nType="0">
          <Node pos="l" depth="2" NCoef="0" IVar="-1" Cut="0.0000000000000000e+00" cType="1" res="-1.5560165047645569e-03" rms="4.5156797766685486e-01" purity="3.5455799102783203e-01" nType="-99"/>
          <Node pos="r" depth="2" NCoef="0" IVar="-1" Cut="0.0000000000000000e+00" cType="1" res="3.9599082083441317e-04" rms="4.7227525711059570e-01" purity="5.4655188322067261e-01" nType="-99"/>
        </Node>
        <Node pos="r" depth="1" NCoef="0" IVar="4" Cut="9.4586753845214844e-01" cType="1" res="5.4412472993135452e-02" rms="4.6702152490615845e-01" purity="6.0543674230575562e-01" nType="0">
          <Node pos="l" depth="2" NCoef="0" IVar="-1" Cut="0.0000000000000000e+00" cType="1" res="9.6915685571730137e-04" rms="4.8921728134155273e-01" purity="5.0196456909179688e-01" nType="-99"/>
          <Node pos="r" depth="2" NCoef="0" IVar="-1" Cut="0.0000000000000000e+00" cType="1" res="1.6672108322381973e-03" rms="4.4906863570213318e-01" purity="6.8319684267044067e-01" nType="-99"/>
        </Node>
      </Node>
    </BinaryTree>
    <BinaryTree type="DecisionTree" boostWeight="1.0000000000000000e+00" itree="391">
      <Node pos="s" depth="0" NCoef="0" IVar="0" Cut="-8.0200068652629852e-02" cType="1" res="5.8846282772719860e-03" rms="4.6722754836082458e-01" purity="5.0220352411270142e-01" nType="0">
        <Node pos="l" depth="1" NCoef="0" IVar="1" Cut="7.4872338771820068e-01" cType="1" res="-2.7556849643588066e-02" rms="4.5689457654953003e-01" purity="4.1746011376380920e-01" nType="0">
          <Node pos="l" depth="2" NCoef="0" IVar="-1" Cut="0.0000000000000000e+00" cType="1" res="-2.0700662862509489e-03" rms="4.4528552889823914e-01" purity="3.2525709271430969e-01" nType="-99"/>
          <Node pos="r" depth="2" NCoef="0" IVar="-1" Cut="0.0000000000000000e+00" cType="1" res="4.1963160037994385e-04" rms="4.7371625900268555e-01" purity="5.8111959695816040e-01" nType="-99"/>
        </Node>
        <Node pos="r" depth="1" NCoef="0" IVar="2" Cut="3.7896258544921875e+02" cType="1" res="1.4235135167837143e-02" rms="4.6940070390701294e-01" purity="5.2336442470550537e-01" nType="0">
          <Node pos="l" depth="2" NCoef="0" IVar="-1" Cut="0.0000000000000000e+00" cType="1" res="-1.5120023163035512e-03" rms="4.4947439432144165e-01" purity="3.3509212732315063e-01" nType="-99"/>
          <Node pos="r" depth="2" NCoef="0" IVar="-1" Cut="0.0000000000000000e+00" cType="1" res="5.6086300173774362e-04" rms="4.7116261720657349e-01" purity="5.4403060674667358e-01" nType="-99"/>
        </Node>
      </Node>
    </BinaryTree>
    <BinaryTree type="DecisionTree" boostWeight="1.0000000000000000e+00" itree="392">
      <Node pos="s" depth="0" NCoef="0" IVar="6" Cut="1.9917044043540955e-01" cType="1" res="5.6391661055386066e-03" rms="4.6767717599868774e-01" purity="5.0136053562164307e-01" nType="0">
        <Node pos="l" depth="1" NCoef="0" IVar="0" Cut="1.5239004790782928e-01" cType="1" res="1.9439442257862538e-04" rms="4.6786627173423767e-01" purity="4.9220862984657288e-01" nType="0">
          <Node pos="l" depth="2" NCoef="0" IVar="-1" Cut="0.0000000000000000e+00" cType="1" res="-2.7162002515979111e-04" rms="4.6670532226562500e-01" purity="4.7026637196540833e-01" nType="-99"/>
          <Node pos="r" depth="2" NCoef="0" IVar="-1" Cut="0.0000000000000000e+00" cType="1" res="1.0085855610668659e-03" rms="4.7088378667831421e-01" purity="5.8613836765289307e-01" nType="-99"/>
        </Node>
        <Node pos="r" depth="1" NCoef="0" IVar="-1" Cut="0.0000000000000000e+00" cType="1" res="1.4429077273234725e-03" rms="4.6315476298332214e-01" purity="5.8310246467590332e-01" nType="-99"/>
      </Node>
    </BinaryTree>
    <BinaryTree type="DecisionTree" boostWeight="1.0000000000000000e+00" itree="393">
      <Node pos="s" depth="0" NCoef="0" IVar="4" Cut="9.2654335498809814e-01" cType="1" res="6.0581974685192108e-03" rms="4.6670848131179810e-01" purity="5.0220590829849243e-01" nType="0">
        <Node pos="l" depth="1" NCoef="0" IVar="6" Cut="5.5290099233388901e-02" cType="1" res="-3.2158967107534409e-02" rms="4.5760008692741394e-01" purity="3.4401741623878479e-01" nType="0">
          <Node pos="l" depth="2" NCoef="0" IVar="-1" Cut="0.0000000000000000e+00" cType="1" res="-2.2962829098105431e-03" rms="4.4329628348350525e-01" purity="3.0539420247077942e-01" nType="-99"/>
          <Node pos="r" depth="2" NCoef="0" IVar="-1" Cut="0.0000000000000000e+00" cType="1" res="-7.0986978244036436e-04" rms="4.6454203128814697e-01" purity="3.6451563239097595e-01" nType="-99"/>
        </Node>
        <Node pos="r" depth="1" NCoef="0" IVar="2" Cut="6.4337200927734375e+02" cType="1" res="1.4615376479923725e-02" rms="4.6829652786254883e-01" purity="5.3762573003768921e-01" nType="0">
          <Node pos="l" depth="2" NCoef="0" IVar="-1" Cut="0.0000000000000000e+00" cType="1" res="7.7906137448735535e-05" rms="4.7007718682289124e-01" purity="4.9915391206741333e-01" nType="-99"/>
          <Node pos="r" depth="2" NCoef="0" IVar="-1" Cut="0.0000000000000000e+00" cType="1" res="1.1558739934116602e-03" rms="4.6229547262191772e-01" purity="6.3613367080688477e-01" nType="-99"/>
        </Node>
      </Node>
    </BinaryTree>
    <BinaryTree type="DecisionTree" boostWeight="1.0000000000000000e+00" itree="394">
      <Node pos="s" depth="0" NCoef="0" IVar="6" Cut="1.9861242175102234e-01" cType="1" res="3.8104252889752388e-03" rms="4.6873125433921814e-01" purity="4.9830180406570435e-01" nType="0">
        <Node pos="l" depth="1" NCoef="0" IVar="0" Cut="-2.4743754416704178e-02" cType="1" res="-2.4846324231475592e-03" rms="4.6836331486701965e-01" purity="4.8822942376136780e-01" nType="0">
          <Node pos="l" depth="2" NCoef="0" IVar="-1" Cut="0.0000000000000000e+00" cType="1" res="-7.6568528311327100e-04" rms="4.6082091331481934e-01" purity="4.3384870886802673e-01" nType="-99"/>
          <Node pos="r" depth="2" NCoef="0" IVar="-1" Cut="0.0000000000000000e+00" cType="1" res="3.5079804365523160e-04" rms="4.7312855720520020e-01" purity="5.2712154388427734e-01" nType="-99"/>
        </Node>
        <Node pos="r" depth="1" NCoef="0" IVar="-1" Cut="0.0000000000000000e+00" cType="1" res="1.5632398426532745e-03" rms="4.6827015280723572e-01" purity="5.8817011117935181e-01" nType="-99"/>
      </Node>
    </BinaryTree>
    <BinaryTree type="DecisionTree" boostWeight="1.0000000000000000e+00" itree="395">
      <Node pos="s" depth="0" NCoef="0" IVar="0" Cut="-7.8655749559402466e-02" cType="1" res="2.8342655859887600e-03" rms="4.6731281280517578e-01" purity="4.9915903806686401e-01" nType="0">
        <Node pos="l" depth="1" NCoef="0" IVar="1" Cut="6.7727458477020264e-01" cType="1" res="-3.1127866357564926e-02" rms="4.5852959156036377e-01" purity="4.1173833608627319e-01" nType="0">
          <Node pos="l" depth="2" NCoef="0" IVar="-1" Cut="0.0000000000000000e+00" cType="1" res="-2.9059054795652628e-03" rms="4.3339633941650391e-01" purity="2.8133362531661987e-01" nType="-99"/>
          <Node pos="r" depth="2" NCoef="0" IVar="-1" Cut="0.0000000000000000e+00" cType="1" res="9.2209360445849597e-05" rms="4.8027890920639038e-01" purity="5.4422444105148315e-01" nType="-99"/>
        </Node>
        <Node pos="r" depth="1" NCoef="0" IVar="4" Cut="9.8110002279281616e-01" cType="1" res="1.1773436330258846e-02" rms="4.6918880939483643e-01" purity="5.2216905355453491e-01" nType="0">
          <Node pos="l" depth="2" NCoef="0" IVar="-1" Cut="0.0000000000000000e+00" cType="1" res="1.4085363363847136e-04" rms="4.7592815756797791e-01" purity="4.8608586192131042e-01" nType="-99"/>
          <Node pos="r" depth="2" NCoef="0" IVar="-1" Cut="0.0000000000000000e+00" cType="1" res="1.3549628201872110e-03" rms="4.2306971549987793e-01" purity="7.4321949481964111e-01" nType="-99"/>
        </Node>
      </Node>
    </BinaryTree>
    <BinaryTree type="DecisionTree" boostWeight="1.0000000000000000e+00" itree="396">
      <Node pos="s" depth="0" NCoef="0" IVar="0" Cut="2.2378487884998322e-01" cType="1" res="-1.2199020711705089e-03" rms="4.6576249599456787e-01" purity="4.9652588367462158e-01" nType="0">
        <Node pos="l" depth="1" NCoef="0" IVar="1" Cut="4.3732613325119019e-01" cType="1" res="-5.9698740951716900e-03" rms="4.6564161777496338e-01" purity="4.8684445023536682e-01" nType="0">
          <Node pos="l" depth="2" NCoef="0" IVar="-1" Cut="0.0000000000000000e+00" cType="1" res="-3.0940019059926271e-03" rms="4.3191704154014587e-01" purity="3.0925431847572327e-01" nType="-99"/>
          <Node pos="r" depth="2" NCoef="0" IVar="-1" Cut="0.0000000000000000e+00" cType="1" res="3.2049905712483451e-05" rms="4.6839413046836853e-01" purity="5.0506699085235596e-01" nType="-99"/>
        </Node>
        <Node pos="r" depth="1" NCoef="0" IVar="-1" Cut="0.0000000000000000e+00" cType="1" res="1.4769686385989189e-03" rms="4.6316307783126831e-01" purity="6.1784416437149048e-01" nType="-99"/>
      </Node>
    </BinaryTree>
    <BinaryTree type="DecisionTree" boostWeight="1.0000000000000000e+00" itree="397">
      <Node pos="s" depth="0" NCoef="0" IVar="3" Cut="1.5208282470703125e+02" cType="1" res="5.8289603330194950e-03" rms="4.6696928143501282e-01" purity="5.0242912769317627e-01" nType="0">
        <Node pos="l" depth="1" NCoef="0" IVar="4" Cut="9.4924986362457275e-01" cType="1" res="1.5298135986085981e-04" rms="4.6775811910629272e-01" purity="4.9261051416397095e-01" nType="0">
          <Node pos="l" depth="2" NCoef="0" IVar="-1" Cut="0.0000000000000000e+00" cType="1" res="-7.3129328666254878e-04" rms="4.6621716022491455e-01" purity="3.8485917448997498e-01" nType="-99"/>
          <Node pos="r" depth="2" NCoef="0" IVar="-1" Cut="0.0000000000000000e+00" cType="1" res="4.6903282054699957e-04" rms="4.6830421686172485e-01" purity="5.8064281940460205e-01" nType="-99"/>
        </Node>
        <Node pos="r" depth="1" NCoef="0" IVar="-1" Cut="0.0000000000000000e+00" cType="1" res="2.1983017213642597e-03" rms="4.4766986370086670e-01" purity="6.4317721128463745e-01" nType="-99"/>
      </Node>
    </BinaryTree>
    <BinaryTree type="DecisionTree" boostWeight="1.0000000000000000e+00" itree="398">
      <Node pos="s" depth="0" NCoef="0" IVar="2" Cut="4.3772793579101562e+02" cType="1" res="4.6354201622307301e-03" rms="4.6654021739959717e-01" purity="5.0117492675781250e-01" nType="0">
        <Node pos="l" depth="1" NCoef="0" IVar="3" Cut="7.5685119628906250e+01" cType="1" res="-2.8729511424899101e-02" rms="4.5181128382682800e-01" purity="3.5731270909309387e-01" nType="0">
          <Node pos="l" depth="2" NCoef="0" IVar="-1" Cut="0.0000000000000000e+00" cType="1" res="-6.8738692789338529e-05" rms="4.6113073825836182e-01" purity="3.9319539070129395e-01" nType="-99"/>
          <Node pos="r" depth="2" NCoef="0" IVar="-1" Cut="0.0000000000000000e+00" cType="1" res="-2.3168993648141623e-03" rms="4.3949806690216064e-01" purity="3.1796544790267944e-01" nType="-99"/>
        </Node>
        <Node pos="r" depth="1" NCoef="0" IVar="6" Cut="1.0950752347707748e-01" cType="1" res="1.5570832416415215e-02" rms="4.7075322270393372e-01" purity="5.4832607507705688e-01" nType="0">
          <Node pos="l" depth="2" NCoef="0" IVar="-1" Cut="0.0000000000000000e+00" cType="1" res="4.7397519665537402e-05" rms="4.7299584746360779e-01" purity="5.1433247327804565e-01" nType="-99"/>
          <Node pos="r" depth="2" NCoef="0" IVar="-1" Cut="0.0000000000000000e+00" cType="1" res="1.1687584919854999e-03" rms="4.6448907256126404e-01" purity="6.2133055925369263e-01" nType="-99"/>
        </Node>
      </Node>
    </BinaryTree>
    <BinaryTree type="DecisionTree" boostWeight="1.0000000000000000e+00" itree="399">
      <Node pos="s" depth="0" NCoef="0" IVar="2" Cut="8.4089422607421875e+02" cType="1" res="4.6669943258166313e-03" rms="4.6616995334625244e-01" purity="5.0229895114898682e-01" nType="0">
        <Node pos="l" depth="1" NCoef="0" IVar="2" Cut="3.6697030639648438e+02" cType="1" res="-1.1968283215537667e-03" rms="4.6644395589828491e-01" purity="4.8717060685157776e-01" nType="0">
          <Node pos="l" depth="2" NCoef="0" IVar="-1" Cut="0.0000000000000000e+00" cType="1" res="-2.8405908960849047e-03" rms="4.3258884549140930e-01" purity="2.8945696353912354e-01" nType="-99"/>
          <Node pos="r" depth="2" NCoef="0" IVar="-1" Cut="0.0000000000000000e+00" cType="1" res="1.3537096674554050e-04" rms="4.6891337633132935e-01" purity="5.0484508275985718e-01" nType="-99"/>
        </Node>
        <Node pos="r" depth="1" NCoef="0" IVar="-1" Cut="0.0000000000000000e+00" cType="1" res="1.4418691862374544e-03" rms="4.6064227819442749e-01" purity="6.3388371467590332e-01" nType="-99"/>
      </Node>
    </BinaryTree>
    <BinaryTree type="DecisionTree" boostWeight="1.0000000000000000e+00" itree="400">
      <Node pos="s" depth="0" NCoef="0" IVar="2" Cut="8.3979327392578125e+02" cType="1" res="7.1337302215397358e-03" rms="4.6667197346687317e-01" purity="5.0419515371322632e-01" nType="0">
        <Node pos="l" depth="1" NCoef="0" IVar="6" Cut="1.1404012888669968e-01" cType="1" res="7.8016275074332952e-04" rms="4.6715131402015686e-01" purity="4.8868289589881897e-01" nType="0">
          <Node pos="l" depth="2" NCoef="0" IVar="-1" Cut="0.0000000000000000e+00" cType="1" res="-4.1779651655815542e-04" rms="4.6632230281829834e-01" purity="4.5677906274795532e-01" nType="-99"/>
          <Node pos="r" depth="2" NCoef="0" IVar="-1" Cut="0.0000000000000000e+00" cType="1" res="7.0138165028765798e-04" rms="4.6758353710174561e-01" purity="5.4436326026916504e-01" nType="-99"/>
        </Node>
        <Node pos="r" depth="1" NCoef="0" IVar="-1" Cut="0.0000000000000000e+00" cType="1" res="1.6234772047027946e-03" rms="4.5866268873214722e-01" purity="6.4058661460876465e-01" nType="-99"/>
      </Node>
    </BinaryTree>
    <BinaryTree type="DecisionTree" boostWeight="1.0000000000000000e+00" itree="401">
      <Node pos="s" depth="0" NCoef="0" IVar="3" Cut="1.3938224792480469e+02" cType="1" res="3.7964899092912674e-03" rms="4.6615970134735107e-01" purity="5.0064152479171753e-01" nType="0">
        <Node pos="l" depth="1" NCoef="0" IVar="4" Cut="9.8100274801254272e-01" cType="1" res="-3.0263452790677547e-03" rms="4.6731194853782654e-01" purity="4.8772650957107544e-01" nType="0">
          <Node pos="l" depth="2" NCoef="0" IVar="-1" Cut="0.0000000000000000e+00" cType="1" res="-3.1667909934185445e-04" rms="4.7223460674285889e-01" purity="4.5133122801780701e-01" nType="-99"/>
          <Node pos="r" depth="2" NCoef="0" IVar="-1" Cut="0.0000000000000000e+00" cType="1" res="1.0510785505175591e-03" rms="4.3237608671188354e-01" purity="7.1678727865219116e-01" nType="-99"/>
        </Node>
        <Node pos="r" depth="1" NCoef="0" IVar="-1" Cut="0.0000000000000000e+00" cType="1" res="1.6705957241356373e-03" rms="4.5145291090011597e-01" purity="6.1439371109008789e-01" nType="-99"/>
      </Node>
    </BinaryTree>
    <BinaryTree type="DecisionTree" boostWeight="1.0000000000000000e+00" itree="402">
      <Node pos="s" depth="0" NCoef="0" IVar="2" Cut="3.9095440673828125e+02" cType="1" res="6.6548832692205906e-03" rms="4.6670857071876526e-01" purity="5.0358456373214722e-01" nType="0">
        <Node pos="l" depth="1" NCoef="0" IVar="2" Cut="3.5822750854492188e+02" cType="1" res="-3.7539433687925339e-02" rms="4.4603434205055237e-01" purity="3.2553380727767944e-01" nType="0">
          <Node pos="l" depth="2" NCoef="0" IVar="-1" Cut="0.0000000000000000e+00" cType="1" res="-2.8637822251766920e-03" rms="4.2778667807579041e-01" purity="2.8995200991630554e-01" nType="-99"/>
          <Node pos="r" depth="2" NCoef="0" IVar="-1" Cut="0.0000000000000000e+00" cType="1" res="-3.9037255919538438e-04" rms="4.6047639846801758e-01" purity="3.5816642642021179e-01" nType="-99"/>
        </Node>
        <Node pos="r" depth="1" NCoef="0" IVar="6" Cut="2.0530089735984802e-01" cType="1" res="1.2990373186767101e-02" rms="4.6925675868988037e-01" purity="5.2910906076431274e-01" nType="0">
          <Node pos="l" depth="2" NCoef="0" IVar="-1" Cut="0.0000000000000000e+00" cType="1" res="2.1921988809481263e-04" rms="4.6993610262870789e-01" purity="5.1941269636154175e-01" nType="-99"/>
          <Node pos="r" depth="2" NCoef="0" IVar="-1" Cut="0.0000000000000000e+00" cType="1" res="1.8506798660382628e-03" rms="4.5707088708877563e-01" purity="6.3908660411834717e-01" nType="-99"/>
        </Node>
      </Node>
    </BinaryTree>
    <BinaryTree type="DecisionTree" boostWeight="1.0000000000000000e+00" itree="403">
      <Node pos="s" depth="0" NCoef="0" IVar="0" Cut="2.2413146495819092e-01" cType="1" res="2.4100344162434340e-03" rms="4.6761777997016907e-01" purity="4.9769291281700134e-01" nType="0">
        <Node pos="l" depth="1" NCoef="0" IVar="1" Cut="4.6177506446838379e-01" cType="1" res="-2.2542190272361040e-03" rms="4.6766075491905212e-01" purity="4.8808050155639648e-01" nType="0">
          <Node pos="l" depth="2" NCoef="0" IVar="-1" Cut="0.0000000000000000e+00" cType="1" res="-2.3271883837878704e-03" rms="4.4376605749130249e-01" purity="3.2269117236137390e-01" nType="-99"/>
          <Node pos="r" depth="2" NCoef="0" IVar="-1" Cut="0.0000000000000000e+00" cType="1" res="1.7008128634188324e-04" rms="4.7052851319313049e-01" purity="5.1239645481109619e-01" nType="-99"/>
        </Node>
        <Node pos="r" depth="1" NCoef="0" IVar="-1" Cut="0.0000000000000000e+00" cType="1" res="1.5748931327834725e-03" rms="4.6287229657173157e-01" purity="6.2163418531417847e-01" nType="-99"/>
      </Node>
    </BinaryTree>
    <BinaryTree type="DecisionTree" boostWeight="1.0000000000000000e+00" itree="404">
      <Node pos="s" depth="0" NCoef="0" IVar="2" Cut="7.3589990234375000e+02" cType="1" res="2.5266422890126705e-03" rms="4.6712693572044373e-01" purity="4.9876964092254639e-01" nType="0">
        <Node pos="l" depth="1" NCoef="0" IVar="5" Cut="5.1615941524505615e-01" cType="1" res="-4.7809416428208351e-03" rms="4.6702039241790771e-01" purity="4.7530436515808105e-01" nType="0">
          <Node pos="l" depth="2" NCoef="0" IVar="-1" Cut="0.0000000000000000e+00" cType="1" res="-5.3655396914109588e-04" rms="4.6428275108337402e-01" purity="4.4320464134216309e-01" nType="-99"/>
          <Node pos="r" depth="2" NCoef="0" IVar="-1" Cut="0.0000000000000000e+00" cType="1" res="5.9301347937434912e-04" rms="4.7194805741310120e-01" purity="5.4623019695281982e-01" nType="-99"/>
        </Node>
        <Node pos="r" depth="1" NCoef="0" IVar="6" Cut="4.9092914909124374e-02" cType="1" res="3.7821609526872635e-02" rms="4.6603071689605713e-01" purity="6.1210465431213379e-01" nType="0">
          <Node pos="l" depth="2" NCoef="0" IVar="-1" Cut="0.0000000000000000e+00" cType="1" res="3.8314491393975914e-04" rms="4.7621899843215942e-01" purity="5.5350285768508911e-01" nType="-99"/>
          <Node pos="r" depth="2" NCoef="0" IVar="-1" Cut="0.0000000000000000e+00" cType="1" res="1.6144210239872336e-03" rms="4.5283526182174683e-01" purity="6.7781805992126465e-01" nType="-99"/>
        </Node>
      </Node>
    </BinaryTree>
    <BinaryTree type="DecisionTree" boostWeight="1.0000000000000000e+00" itree="405">
      <Node pos="s" depth="0" NCoef="0" IVar="2" Cut="6.9278430175781250e+02" cType="1" res="5.1658060401678085e-03" rms="4.6754595637321472e-01" purity="5.0266194343566895e-01" nType="0">
        <Node pos="l" depth="1" NCoef="0" IVar="6" Cut="1.7792585492134094e-01" cType="1" res="-3.4697449300438166e-03" rms="4.6728673577308655e-01" purity="4.7314453125000000e-01" nType="0">
          <Node pos="l" depth="2" NCoef="0" IVar="-1" Cut="0.0000000000000000e+00" cType="1" res="-3.6177254514768720e-04" rms="4.6666529774665833e-01" purity="4.5610678195953369e-01" nType="-99"/>
          <Node pos="r" depth="2" NCoef="0" IVar="-1" Cut="0.0000000000000000e+00" cType="1" res="1.0507563129067421e-03" rms="4.6823781728744507e-01" purity="5.6244403123855591e-01" nType="-99"/>
        </Node>
        <Node pos="r" depth="1" NCoef="0" IVar="7" Cut="1.0080642700195312e+02" cType="1" res="3.6251042038202286e-02" rms="4.6715819835662842e-01" purity="6.0891503095626831e-01" nType="0">
          <Node pos="l" depth="2" NCoef="0" IVar="-1" Cut="0.0000000000000000e+00" cType="1" res="-7.4230665632057935e-05" rms="4.7318774461746216e-01" purity="5.6899696588516235e-01" nType="-99"/>
          <Node pos="r" depth="2" NCoef="0" IVar="-1" Cut="0.0000000000000000e+00" cType="1" res="1.3854032149538398e-03" rms="4.6346855163574219e-01" purity="6.2636667490005493e-01" nType="-99"/>
        </Node>
      </Node>
    </BinaryTree>
    <BinaryTree type="DecisionTree" boostWeight="1.0000000000000000e+00" itree="406">
      <Node pos="s" depth="0" NCoef="0" IVar="0" Cut="-6.2268532812595367e-02" cType="1" res="6.9049233570694923e-03" rms="4.6645456552505493e-01" purity="5.0356876850128174e-01" nType="0">
        <Node pos="l" depth="1" NCoef="0" IVar="2" Cut="6.5131347656250000e+02" cType="1" res="-2.1903414279222488e-02" rms="4.6040874719619751e-01" purity="4.2703011631965637e-01" nType="0">
          <Node pos="l" depth="2" NCoef="0" IVar="-1" Cut="0.0000000000000000e+00" cType="1" res="-1.5087495557963848e-03" rms="4.5204165577888489e-01" purity="3.7367394566535950e-01" nType="-99"/>
          <Node pos="r" depth="2" NCoef="0" IVar="-1" Cut="0.0000000000000000e+00" cType="1" res="7.0958316791802645e-04" rms="4.7681114077568054e-01" purity="5.5664378404617310e-01" nType="-99"/>
        </Node>
        <Node pos="r" depth="1" NCoef="0" IVar="4" Cut="9.2168414592742920e-01" cType="1" res="1.7856111750006676e-02" rms="4.6826767921447754e-01" purity="5.3266412019729614e-01" nType="0">
          <Node pos="l" depth="2" NCoef="0" IVar="-1" Cut="0.0000000000000000e+00" cType="1" res="-1.0372344404459000e-03" rms="4.6244552731513977e-01" purity="3.6179980635643005e-01" nType="-99"/>
          <Node pos="r" depth="2" NCoef="0" IVar="-1" Cut="0.0000000000000000e+00" cType="1" res="7.0056156255304813e-04" rms="4.6876823902130127e-01" purity="5.6079930067062378e-01" nType="-99"/>
        </Node>
      </Node>
    </BinaryTree>
    <BinaryTree type="DecisionTree" boostWeight="1.0000000000000000e+00" itree="407">
      <Node pos="s" depth="0" NCoef="0" IVar="4" Cut="9.8107105493545532e-01" cType="1" res="-1.9224158313591033e-04" rms="4.6831539273262024e-01" purity="4.9508896470069885e-01" nType="0">
        <Node pos="l" depth="1" NCoef="0" IVar="0" Cut="2.2378487884998322e-01" cType="1" res="-6.4631309360265732e-03" rms="4.7365373373031616e-01" purity="4.5908036828041077e-01" nType="0">
          <Node pos="l" depth="2" NCoef="0" IVar="-1" Cut="0.0000000000000000e+00" cType="1" res="-3.3885639277286828e-04" rms="4.7293370962142944e-01" purity="4.4975745677947998e-01" nType="-99"/>
          <Node pos="r" depth="2" NCoef="0" IVar="-1" Cut="0.0000000000000000e+00" cType="1" res="1.2786233564838767e-03" rms="4.7931581735610962e-01" purity="5.7986950874328613e-01" nType="-99"/>
        </Node>
        <Node pos="r" depth="1" NCoef="0" IVar="-1" Cut="0.0000000000000000e+00" cType="1" res="9.8381913267076015e-04" rms="4.3166604638099670e-01" purity="7.1867406368255615e-01" nType="-99"/>
      </Node>
    </BinaryTree>
    <BinaryTree type="DecisionTree" boostWeight="1.0000000000000000e+00" itree="408">
      <Node pos="s" depth="0" NCoef="0" IVar="3" Cut="1.5208282470703125e+02" cType="1" res="1.5659515047445893e-03" rms="4.6765053272247314e-01" purity="4.9672472476959229e-01" nType="0">
        <Node pos="l" depth="1" NCoef="0" IVar="4" Cut="9.1251158714294434e-01" cType="1" res="-3.8854572921991348e-03" rms="4.6851432323455811e-01" purity="4.8707804083824158e-01" nType="0">
          <Node pos="l" depth="2" NCoef="0" IVar="-1" Cut="0.0000000000000000e+00" cType="1" res="-2.6921560056507587e-03" rms="4.4619840383529663e-01" purity="3.0082991719245911e-01" nType="-99"/>
          <Node pos="r" depth="2" NCoef="0" IVar="-1" Cut="0.0000000000000000e+00" cType="1" res="4.9356312956660986e-05" rms="4.7009110450744629e-01" purity="5.0396758317947388e-01" nType="-99"/>
        </Node>
        <Node pos="r" depth="1" NCoef="0" IVar="-1" Cut="0.0000000000000000e+00" cType="1" res="2.0734006538987160e-03" rms="4.4716966152191162e-01" purity="6.3847643136978149e-01" nType="-99"/>
      </Node>
    </BinaryTree>
    <BinaryTree type="DecisionTree" boostWeight="1.0000000000000000e+00" itree="409">
      <Node pos="s" depth="0" NCoef="0" IVar="8" Cut="8.8180851936340332e-01" cType="1" res="3.1430630479007959e-03" rms="4.6675485372543335e-01" purity="4.9882009625434875e-01" nType="0">
        <Node pos="l" depth="1" NCoef="0" IVar="7" Cut="9.0790962219238281e+01" cType="1" res="2.9474144801497459e-02" rms="4.6917584538459778e-01" purity="5.5457967519760132e-01" nType="0">
          <Node pos="l" depth="2" NCoef="0" IVar="-1" Cut="0.0000000000000000e+00" cType="1" res="1.8719425133895129e-04" rms="4.7492969036102295e-01" purity="5.1340997219085693e-01" nType="-99"/>
          <Node pos="r" depth="2" NCoef="0" IVar="-1" Cut="0.0000000000000000e+00" cType="1" res="1.1832328746095300e-03" rms="4.6499875187873840e-01" purity="5.8013248443603516e-01" nType="-99"/>
        </Node>
        <Node pos="r" depth="1" NCoef="0" IVar="5" Cut="6.7325383424758911e-01" cType="1" res="-1.0469310916960239e-02" rms="4.6491396427154541e-01" purity="4.6999406814575195e-01" nType="0">
          <Node pos="l" depth="2" NCoef="0" IVar="-1" Cut="0.0000000000000000e+00" cType="1" res="-5.6208932073786855e-04" rms="4.6431198716163635e-01" purity="4.5681795477867126e-01" nType="-99"/>
          <Node pos="r" depth="2" NCoef="0" IVar="-1" Cut="0.0000000000000000e+00" cType="1" res="1.4674679841846228e-03" rms="4.6516218781471252e-01" purity="5.9108173847198486e-01" nType="-99"/>
        </Node>
      </Node>
    </BinaryTree>
    <BinaryTree type="DecisionTree" boostWeight="1.0000000000000000e+00" itree="410">
      <Node pos="s" depth="0" NCoef="0" IVar="8" Cut="1.0575433969497681e+00" cType="1" res="4.5102406293153763e-03" rms="4.6656847000122070e-01" purity="5.0208902359008789e-01" nType="0">
        <Node pos="l" depth="1" NCoef="0" IVar="6" Cut="1.0976822674274445e-01" cType="1" res="2.1785086020827293e-02" rms="4.6819940209388733e-01" purity="5.4571461677551270e-01" nType="0">
          <Node pos="l" depth="2" NCoef="0" IVar="-1" Cut="0.0000000000000000e+00" cType="1" res="2.4327394203282893e-04" rms="4.7053828835487366e-01" purity="5.1963013410568237e-01" nType="-99"/>
          <Node pos="r" depth="2" NCoef="0" IVar="-1" Cut="0.0000000000000000e+00" cType="1" res="1.2764474377036095e-03" rms="4.6214213967323303e-01" purity="5.9930938482284546e-01" nType="-99"/>
        </Node>
        <Node pos="r" depth="1" NCoef="0" IVar="2" Cut="5.8831811523437500e+02" cType="1" res="-1.3588547706604004e-02" rms="4.6416446566581726e-01" purity="4.5638269186019897e-01" nType="0">
          <Node pos="l" depth="2" NCoef="0" IVar="-1" Cut="0.0000000000000000e+00" cType="1" res="-8.7116210488602519e-04" rms="4.6190747618675232e-01" purity="4.0956178307533264e-01" nType="-99"/>
          <Node pos="r" depth="2" NCoef="0" IVar="-1" Cut="0.0000000000000000e+00" cType="1" res="4.5240903273224831e-04" rms="4.6829420328140259e-01" purity="5.7125037908554077e-01" nType="-99"/>
        </Node>
      </Node>
    </BinaryTree>
    <BinaryTree type="DecisionTree" boostWeight="1.0000000000000000e+00" itree="411">
      <Node pos="s" depth="0" NCoef="0" IVar="8" Cut="9.5226502418518066e-01" cType="1" res="6.6509400494396687e-03" rms="4.6666505932807922e-01" purity="5.0278937816619873e-01" nType="0">
        <Node pos="l" depth="1" NCoef="0" IVar="4" Cut="9.5440298318862915e-01" cType="1" res="2.6676949113607407e-02" rms="4.6744063496589661e-01" purity="5.5167472362518311e-01" nType="0">
          <Node pos="l" depth="2" NCoef="0" IVar="-1" Cut="0.0000000000000000e+00" cType="1" res="2.5237366207875311e-04" rms="4.7791975736618042e-01" purity="4.5947375893592834e-01" nType="-99"/>
          <Node pos="r" depth="2" NCoef="0" IVar="-1" Cut="0.0000000000000000e+00" cType="1" res="1.1946455342695117e-03" rms="4.5439988374710083e-01" purity="6.5602815151214600e-01" nType="-99"/>
        </Node>
        <Node pos="r" depth="1" NCoef="0" IVar="4" Cut="9.1786682605743408e-01" cType="1" res="-7.0572593249380589e-03" rms="4.6563711762428284e-01" purity="4.6932643651962280e-01" nType="0">
          <Node pos="l" depth="2" NCoef="0" IVar="-1" Cut="0.0000000000000000e+00" cType="1" res="-2.0321358460932970e-03" rms="4.4092109799385071e-01" purity="3.0088895559310913e-01" nType="-99"/>
          <Node pos="r" depth="2" NCoef="0" IVar="-1" Cut="0.0000000000000000e+00" cType="1" res="-3.7003981560701504e-05" rms="4.6856945753097534e-01" purity="4.9206551909446716e-01" nType="-99"/>
        </Node>
      </Node>
    </BinaryTree>
    <BinaryTree type="DecisionTree" boostWeight="1.0000000000000000e+00" itree="412">
      <Node pos="s" depth="0" NCoef="0" IVar="0" Cut="7.8892074525356293e-02" cType="1" res="3.6027678288519382e-03" rms="4.6574717760086060e-01" purity="4.9989402294158936e-01" nType="0">
        <Node pos="l" depth="1" NCoef="0" IVar="1" Cut="7.4658286571502686e-01" cType="1" res="-7.9674161970615387e-03" rms="4.6367394924163818e-01" purity="4.6973082423210144e-01" nType="0">
          <Node pos="l" depth="2" NCoef="0" IVar="-1" Cut="0.0000000000000000e+00" cType="1" res="-1.0757006239145994e-03" rms="4.5933112502098083e-01" purity="3.9013686776161194e-01" nType="-99"/>
          <Node pos="r" depth="2" NCoef="0" IVar="-1" Cut="0.0000000000000000e+00" cType="1" res="7.8729848610237241e-04" rms="4.6841931343078613e-01" purity="6.0347241163253784e-01" nType="-99"/>
        </Node>
        <Node pos="r" depth="1" NCoef="0" IVar="5" Cut="5.0210112333297729e-01" cType="1" res="2.9119178652763367e-02" rms="4.6927988529205322e-01" purity="5.6641477346420288e-01" nType="0">
          <Node pos="l" depth="2" NCoef="0" IVar="-1" Cut="0.0000000000000000e+00" cType="1" res="4.9051642417907715e-04" rms="4.7240731120109558e-01" purity="5.4397833347320557e-01" nType="-99"/>
          <Node pos="r" depth="2" NCoef="0" IVar="-1" Cut="0.0000000000000000e+00" cType="1" res="1.6934116138145328e-03" rms="4.5613858103752136e-01" purity="6.4373439550399780e-01" nType="-99"/>
        </Node>
      </Node>
    </BinaryTree>
    <BinaryTree type="DecisionTree" boostWeight="1.0000000000000000e+00" itree="413">
      <Node pos="s" depth="0" NCoef="0" IVar="1" Cut="8.4363818168640137e-01" cType="1" res="4.8911850899457932e-03" rms="4.6566650271415710e-01" purity="5.0200796127319336e-01" nType="0">
        <Node pos="l" depth="1" NCoef="0" IVar="0" Cut="9.8465457558631897e-02" cType="1" res="-1.3963840901851654e-03" rms="4.6656548976898193e-01" purity="4.8449796438217163e-01" nType="0">
          <Node pos="l" depth="2" NCoef="0" IVar="-1" Cut="0.0000000000000000e+00" cType="1" res="-5.0001527415588498e-04" rms="4.6470072865486145e-01" purity="4.4712963700294495e-01" nType="-99"/>
          <Node pos="r" depth="2" NCoef="0" IVar="-1" Cut="0.0000000000000000e+00" cType="1" res="8.4206502651795745e-04" rms="4.6923041343688965e-01" purity="5.7124030590057373e-01" nType="-99"/>
        </Node>
        <Node pos="r" depth="1" NCoef="0" IVar="-1" Cut="0.0000000000000000e+00" cType="1" res="1.4810709981247783e-03" rms="4.5414358377456665e-01" purity="6.5402579307556152e-01" nType="-99"/>
      </Node>
    </BinaryTree>
    <BinaryTree type="DecisionTree" boostWeight="1.0000000000000000e+00" itree="414">
      <Node pos="s" depth="0" NCoef="0" IVar="8" Cut="8.8180851936340332e-01" cType="1" res="3.7867769133299589e-03" rms="4.6830001473426819e-01" purity="4.9909603595733643e-01" nType="0">
        <Node pos="l" depth="1" NCoef="0" IVar="0" Cut="4.7171581536531448e-02" cType="1" res="2.6576770469546318e-02" rms="4.7183182835578918e-01" purity="5.5048727989196777e-01" nType="0">
          <Node pos="l" depth="2" NCoef="0" IVar="-1" Cut="0.0000000000000000e+00" cType="1" res="3.3560403971932828e-04" rms="4.7278365492820740e-01" purity="5.1707148551940918e-01" nType="-99"/>
          <Node pos="r" depth="2" NCoef="0" IVar="-1" Cut="0.0000000000000000e+00" cType="1" res="1.3054611627012491e-03" rms="4.6931177377700806e-01" purity="6.0392063856124878e-01" nType="-99"/>
        </Node>
        <Node pos="r" depth="1" NCoef="0" IVar="1" Cut="5.0516563653945923e-01" cType="1" res="-7.8944601118564606e-03" rms="4.6604758501052856e-01" purity="4.7275489568710327e-01" nType="0">
          <Node pos="l" depth="2" NCoef="0" IVar="-1" Cut="0.0000000000000000e+00" cType="1" res="-1.4942974084988236e-03" rms="4.4617673754692078e-01" purity="3.7645667791366577e-01" nType="-99"/>
          <Node pos="r" depth="2" NCoef="0" IVar="-1" Cut="0.0000000000000000e+00" cType="1" res="1.0729707719292492e-04" rms="4.7217649221420288e-01" purity="5.0605517625808716e-01" nType="-99"/>
        </Node>
      </Node>
    </BinaryTree>
    <BinaryTree type="DecisionTree" boostWeight="1.0000000000000000e+00" itree="415">
      <Node pos="s" depth="0" NCoef="0" IVar="4" Cut="9.8556572198867798e-01" cType="1" res="2.7070804499089718e-03" rms="4.6564209461212158e-01" purity="5.0016069412231445e-01" nType="0">
        <Node pos="l" depth="1" NCoef="0" IVar="2" Cut="7.2471038818359375e+02" cType="1" res="-3.3224858343601227e-03" rms="4.6982491016387939e-01" purity="4.7336807847023010e-01" nType="0">
          <Node pos="l" depth="2" NCoef="0" IVar="-1" Cut="0.0000000000000000e+00" cType="1" res="-3.7026486825197935e-04" rms="4.6907219290733337e-01" purity="4.4602474570274353e-01" nType="-99"/>
          <Node pos="r" depth="2" NCoef="0" IVar="-1" Cut="0.0000000000000000e+00" cType="1" res="9.0711866505444050e-04" rms="4.7133418917655945e-01" purity="5.9425777196884155e-01" nType="-99"/>
        </Node>
        <Node pos="r" depth="1" NCoef="0" IVar="-1" Cut="0.0000000000000000e+00" cType="1" res="1.4133062213659286e-03" rms="4.2165949940681458e-01" purity="7.4442166090011597e-01" nType="-99"/>
      </Node>
    </BinaryTree>
    <BinaryTree type="DecisionTree" boostWeight="1.0000000000000000e+00" itree="416">
      <Node pos="s" depth="0" NCoef="0" IVar="0" Cut="2.0558078587055206e-01" cType="1" res="5.3641549311578274e-03" rms="4.6608698368072510e-01" purity="5.0185441970825195e-01" nType="0">
        <Node pos="l" depth="1" NCoef="0" IVar="1" Cut="4.3764111399650574e-01" cType="1" res="-2.7654689620248973e-04" rms="4.6552449464797974e-01" purity="4.8992177844047546e-01" nType="0">
          <Node pos="l" depth="2" NCoef="0" IVar="-1" Cut="0.0000000000000000e+00" cType="1" res="-3.2079929951578379e-03" rms="4.3124631047248840e-01" purity="2.9061001539230347e-01" nType="-99"/>
          <Node pos="r" depth="2" NCoef="0" IVar="-1" Cut="0.0000000000000000e+00" cType="1" res="2.0365128875710070e-04" rms="4.6816462278366089e-01" purity="5.0967991352081299e-01" nType="-99"/>
        </Node>
        <Node pos="r" depth="1" NCoef="0" IVar="-1" Cut="0.0000000000000000e+00" cType="1" res="1.4661838067695498e-03" rms="4.6804088354110718e-01" purity="6.1287087202072144e-01" nType="-99"/>
      </Node>
    </BinaryTree>
    <BinaryTree type="DecisionTree" boostWeight="1.0000000000000000e+00" itree="417">
      <Node pos="s" depth="0" NCoef="0" IVar="8" Cut="1.0748466253280640e+00" cType="1" res="5.0123194232583046e-03" rms="4.6702045202255249e-01" purity="5.0195848941802979e-01" nType="0">
        <Node pos="l" depth="1" NCoef="0" IVar="6" Cut="1.7794850468635559e-01" cType="1" res="2.1007977426052094e-02" rms="4.7082573175430298e-01" purity="5.4182934761047363e-01" nType="0">
          <Node pos="l" depth="2" NCoef="0" IVar="-1" Cut="0.0000000000000000e+00" cType="1" res="4.2348416172899306e-04" rms="4.7275364398956299e-01" purity="5.3074640035629272e-01" nType="-99"/>
          <Node pos="r" depth="2" NCoef="0" IVar="-1" Cut="0.0000000000000000e+00" cType="1" res="1.6709832707419991e-03" rms="4.5406639575958252e-01" purity="6.2248253822326660e-01" nType="-99"/>
        </Node>
        <Node pos="r" depth="1" NCoef="0" IVar="4" Cut="9.7188895940780640e-01" cType="1" res="-1.2539208866655827e-02" rms="4.6217253804206848e-01" purity="4.5820951461791992e-01" nType="0">
          <Node pos="l" depth="2" NCoef="0" IVar="-1" Cut="0.0000000000000000e+00" cType="1" res="-7.8230473445728421e-04" rms="4.6381640434265137e-01" purity="3.9931157231330872e-01" nType="-99"/>
          <Node pos="r" depth="2" NCoef="0" IVar="-1" Cut="0.0000000000000000e+00" cType="1" res="5.6621589465066791e-04" rms="4.5503401756286621e-01" purity="6.5153568983078003e-01" nType="-99"/>
        </Node>
      </Node>
    </BinaryTree>
    <BinaryTree type="DecisionTree" boostWeight="1.0000000000000000e+00" itree="418">
      <Node pos="s" depth="0" NCoef="0" IVar="4" Cut="9.8541849851608276e-01" cType="1" res="6.8483897484838963e-03" rms="4.6731308102607727e-01" purity="5.0391227006912231e-01" nType="0">
        <Node pos="l" depth="1" NCoef="0" IVar="0" Cut="2.0519088208675385e-01" cType="1" res="1.6952940495684743e-03" rms="4.7155943512916565e-01" purity="4.7795680165290833e-01" nType="0">
          <Node pos="l" depth="2" NCoef="0" IVar="-1" Cut="0.0000000000000000e+00" cType="1" res="-1.1538658873178065e-04" rms="4.7077244520187378e-01" purity="4.6581020951271057e-01" nType="-99"/>
          <Node pos="r" depth="2" NCoef="0" IVar="-1" Cut="0.0000000000000000e+00" cType="1" res="1.2854329543188214e-03" rms="4.7581058740615845e-01" purity="5.8686667680740356e-01" nType="-99"/>
        </Node>
        <Node pos="r" depth="1" NCoef="0" IVar="-1" Cut="0.0000000000000000e+00" cType="1" res="1.3312359806150198e-03" rms="4.2358005046844482e-01" purity="7.4149763584136963e-01" nType="-99"/>
      </Node>
    </BinaryTree>
    <BinaryTree type="DecisionTree" boostWeight="1.0000000000000000e+00" itree="419">
      <Node pos="s" depth="0" NCoef="0" IVar="4" Cut="9.8561698198318481e-01" cType="1" res="7.7803623862564564e-03" rms="4.6751403808593750e-01" purity="5.0435394048690796e-01" nType="0">
        <Node pos="l" depth="1" NCoef="0" IVar="3" Cut="1.3512153625488281e+02" cType="1" res="2.3335940204560757e-03" rms="4.7224706411361694e-01" purity="4.7815573215484619e-01" nType="0">
          <Node pos="l" depth="2" NCoef="0" IVar="-1" Cut="0.0000000000000000e+00" cType="1" res="-1.0316412954125553e-04" rms="4.7292172908782959e-01" purity="4.6607053279876709e-01" nType="-99"/>
          <Node pos="r" depth="2" NCoef="0" IVar="-1" Cut="0.0000000000000000e+00" cType="1" res="1.2283842079341412e-03" rms="4.6476668119430542e-01" purity="5.7040530443191528e-01" nType="-99"/>
        </Node>
        <Node pos="r" depth="1" NCoef="0" IVar="-1" Cut="0.0000000000000000e+00" cType="1" res="1.4443644322454929e-03" rms="4.1707018017768860e-01" purity="7.5015544891357422e-01" nType="-99"/>
      </Node>
    </BinaryTree>
    <BinaryTree type="DecisionTree" boostWeight="1.0000000000000000e+00" itree="420">
      <Node pos="s" depth="0" NCoef="0" IVar="4" Cut="9.2163038253784180e-01" cType="1" res="4.4743698090314865e-03" rms="4.6652108430862427e-01" purity="5.0152134895324707e-01" nType="0">
        <Node pos="l" depth="1" NCoef="0" IVar="3" Cut="9.1369964599609375e+01" cType="1" res="-3.9840698242187500e-02" rms="4.5124095678329468e-01" purity="3.3205458521842957e-01" nType="0">
          <Node pos="l" depth="2" NCoef="0" IVar="-1" Cut="0.0000000000000000e+00" cType="1" res="-2.3669062647968531e-03" rms="4.4485279917716980e-01" purity="3.0066362023353577e-01" nType="-99"/>
          <Node pos="r" depth="2" NCoef="0" IVar="-1" Cut="0.0000000000000000e+00" cType="1" res="-6.8657001247629523e-04" rms="4.5766347646713257e-01" purity="3.6834570765495300e-01" nType="-99"/>
        </Node>
        <Node pos="r" depth="1" NCoef="0" IVar="8" Cut="1.0580322742462158e+00" cType="1" res="1.1750874109566212e-02" rms="4.6858209371566772e-01" purity="5.2934777736663818e-01" nType="0">
          <Node pos="l" depth="2" NCoef="0" IVar="-1" Cut="0.0000000000000000e+00" cType="1" res="7.5019733048975468e-04" rms="4.6895587444305420e-01" purity="5.6900388002395630e-01" nType="-99"/>
          <Node pos="r" depth="2" NCoef="0" IVar="-1" Cut="0.0000000000000000e+00" cType="1" res="-1.3937895710114390e-04" rms="4.6763283014297485e-01" purity="4.8821792006492615e-01" nType="-99"/>
        </Node>
      </Node>
    </BinaryTree>
    <BinaryTree type="DecisionTree" boostWeight="1.0000000000000000e+00" itree="421">
      <Node pos="s" depth="0" NCoef="0" IVar="0" Cut="2.2311687469482422e-01" cType="1" res="-1.6019266331568360e-03" rms="4.6548366546630859e-01" purity="4.9581077694892883e-01" nType="0">
        <Node pos="l" depth="1" NCoef="0" IVar="1" Cut="4.6070662140846252e-01" cType="1" res="-6.3350307755172253e-03" rms="4.6551361680030823e-01" purity="4.8568537831306458e-01" nType="0">
          <Node pos="l" depth="2" NCoef="0" IVar="-1" Cut="0.0000000000000000e+00" cType="1" res="-2.4648508988320827e-03" rms="4.3879535794258118e-01" purity="3.1907099485397339e-01" nType="-99"/>
          <Node pos="r" depth="2" NCoef="0" IVar="-1" Cut="0.0000000000000000e+00" cType="1" res="4.1740535380085930e-05" rms="4.6871411800384521e-01" purity="5.0960624217987061e-01" nType="-99"/>
        </Node>
        <Node pos="r" depth="1" NCoef="0" IVar="-1" Cut="0.0000000000000000e+00" cType="1" res="1.4456209028139710e-03" rms="4.6117135882377625e-01" purity="6.2015134096145630e-01" nType="-99"/>
      </Node>
    </BinaryTree>
    <BinaryTree type="DecisionTree" boostWeight="1.0000000000000000e+00" itree="422">
      <Node pos="s" depth="0" NCoef="0" IVar="2" Cut="8.5034686279296875e+02" cType="1" res="4.9508067604620010e-05" rms="4.6553707122802734e-01" purity="4.9679267406463623e-01" nType="0">
        <Node pos="l" depth="1" NCoef="0" IVar="6" Cut="8.6173653602600098e-02" cType="1" res="-5.2743498235940933e-03" rms="4.6553128957748413e-01" purity="4.8271816968917847e-01" nType="0">
          <Node pos="l" depth="2" NCoef="0" IVar="-1" Cut="0.0000000000000000e+00" cType="1" res="-7.5641513103619218e-04" rms="4.6433314681053162e-01" purity="4.3598762154579163e-01" nType="-99"/>
          <Node pos="r" depth="2" NCoef="0" IVar="-1" Cut="0.0000000000000000e+00" cType="1" res="3.3664703369140625e-04" rms="4.6602937579154968e-01" purity="5.2728861570358276e-01" nType="-99"/>
        </Node>
        <Node pos="r" depth="1" NCoef="0" IVar="-1" Cut="0.0000000000000000e+00" cType="1" res="1.3139141956344247e-03" rms="4.6255376935005188e-01" purity="6.3031250238418579e-01" nType="-99"/>
      </Node>
    </BinaryTree>
    <BinaryTree type="DecisionTree" boostWeight="1.0000000000000000e+00" itree="423">
      <Node pos="s" depth="0" NCoef="0" IVar="1" Cut="4.8581144213676453e-01" cType="1" res="5.6091682054102421e-03" rms="4.6708366274833679e-01" purity="5.0231134891510010e-01" nType="0">
        <Node pos="l" depth="1" NCoef="0" IVar="0" Cut="2.2025802731513977e-01" cType="1" res="-2.6240773499011993e-02" rms="4.5222738385200500e-01" purity="4.0595063567161560e-01" nType="0">
          <Node pos="l" depth="2" NCoef="0" IVar="-1" Cut="0.0000000000000000e+00" cType="1" res="-2.2106803953647614e-03" rms="4.4327816367149353e-01" purity="3.2632479071617126e-01" nType="-99"/>
          <Node pos="r" depth="2" NCoef="0" IVar="-1" Cut="0.0000000000000000e+00" cType="1" res="1.0813208064064384e-03" rms="4.6584528684616089e-01" purity="5.9528827667236328e-01" nType="-99"/>
        </Node>
        <Node pos="r" depth="1" NCoef="0" IVar="4" Cut="9.8580807447433472e-01" cType="1" res="1.3968599960207939e-02" rms="4.7054821252822876e-01" purity="5.2760243415832520e-01" nType="0">
          <Node pos="l" depth="2" NCoef="0" IVar="-1" Cut="0.0000000000000000e+00" cType="1" res="2.6108833844773471e-04" rms="4.7606468200683594e-01" purity="5.0113278627395630e-01" nType="-99"/>
          <Node pos="r" depth="2" NCoef="0" IVar="-1" Cut="0.0000000000000000e+00" cType="1" res="1.4128363691270351e-03" rms="4.1716209053993225e-01" purity="7.5719118118286133e-01" nType="-99"/>
        </Node>
      </Node>
    </BinaryTree>
    <BinaryTree type="DecisionTree" boostWeight="1.0000000000000000e+00" itree="424">
      <Node pos="s" depth="0" NCoef="0" IVar="3" Cut="1.3512153625488281e+02" cType="1" res="4.9539683386683464e-03" rms="4.6629026532173157e-01" purity="5.0176465511322021e-01" nType="0">
        <Node pos="l" depth="1" NCoef="0" IVar="3" Cut="7.5459259033203125e+01" cType="1" res="-6.0891511384397745e-04" rms="4.6695005893707275e-01" purity="4.9013015627861023e-01" nType="0">
          <Node pos="l" depth="2" NCoef="0" IVar="-1" Cut="0.0000000000000000e+00" cType="1" res="5.7682301849126816e-04" rms="4.6604338288307190e-01" purity="5.0516676902770996e-01" nType="-99"/>
          <Node pos="r" depth="2" NCoef="0" IVar="-1" Cut="0.0000000000000000e+00" cType="1" res="-4.9488700460642576e-04" rms="4.6705022454261780e-01" purity="4.7860452532768250e-01" nType="-99"/>
        </Node>
        <Node pos="r" depth="1" NCoef="0" IVar="0" Cut="-9.6968449652194977e-03" cType="1" res="4.6873331069946289e-02" rms="4.5912560820579529e-01" purity="5.8943712711334229e-01" nType="0">
          <Node pos="l" depth="2" NCoef="0" IVar="-1" Cut="0.0000000000000000e+00" cType="1" res="8.9192268205806613e-04" rms="4.6420508623123169e-01" purity="5.4158282279968262e-01" nType="-99"/>
          <Node pos="r" depth="2" NCoef="0" IVar="-1" Cut="0.0000000000000000e+00" cType="1" res="1.5389252221211791e-03" rms="4.5433428883552551e-01" purity="6.3032257556915283e-01" nType="-99"/>
        </Node>
      </Node>
    </BinaryTree>
    <BinaryTree type="DecisionTree" boostWeight="1.0000000000000000e+00" itree="425">
      <Node pos="s" depth="0" NCoef="0" IVar="6" Cut="1.0929802805185318e-01" cType="1" res="3.5602662246674299e-03" rms="4.6738699078559875e-01" purity="4.9914291501045227e-01" nType="0">
        <Node pos="l" depth="1" NCoef="0" IVar="2" Cut="8.3979327392578125e+02" cType="1" res="-9.9559929221868515e-03" rms="4.6686187386512756e-01" purity="4.7033581137657166e-01" nType="0">
          <Node pos="l" depth="2" NCoef="0" IVar="-1" Cut="0.0000000000000000e+00" cType="1" res="-5.7135877432301641e-04" rms="4.6569687128067017e-01" purity="4.4827583432197571e-01" nType="-99"/>
          <Node pos="r" depth="2" NCoef="0" IVar="-1" Cut="0.0000000000000000e+00" cType="1" res="1.0290780337527394e-03" rms="4.7110769152641296e-01" purity="6.0676133632659912e-01" nType="-99"/>
        </Node>
        <Node pos="r" depth="1" NCoef="0" IVar="2" Cut="6.0446984863281250e+02" cType="1" res="2.7274228632450104e-02" rms="4.6736323833465576e-01" purity="5.4968416690826416e-01" nType="0">
          <Node pos="l" depth="2" NCoef="0" IVar="-1" Cut="0.0000000000000000e+00" cType="1" res="4.4548718142323196e-04" rms="4.7273373603820801e-01" purity="5.1087009906768799e-01" nType="-99"/>
          <Node pos="r" depth="2" NCoef="0" IVar="-1" Cut="0.0000000000000000e+00" cType="1" res="1.8012132495641708e-03" rms="4.4233664870262146e-01" purity="7.0383477210998535e-01" nType="-99"/>
        </Node>
      </Node>
    </BinaryTree>
    <BinaryTree type="DecisionTree" boostWeight="1.0000000000000000e+00" itree="426">
      <Node pos="s" depth="0" NCoef="0" IVar="4" Cut="9.0795218944549561e-01" cType="1" res="8.6563162039965391e-04" rms="4.6666842699050903e-01" purity="4.9718654155731201e-01" nType="0">
        <Node pos="l" depth="1" NCoef="0" IVar="-1" Cut="0.0000000000000000e+00" cType="1" res="-2.5609892327338457e-03" rms="4.4245791435241699e-01" purity="3.0418214201927185e-01" nType="-99"/>
        <Node pos="r" depth="1" NCoef="0" IVar="2" Cut="5.9968353271484375e+02" cType="1" res="5.0572953186929226e-03" rms="4.6788302063941956e-01" purity="5.0967490673065186e-01" nType="0">
          <Node pos="l" depth="2" NCoef="0" IVar="-1" Cut="0.0000000000000000e+00" cType="1" res="-2.1573716367129236e-04" rms="4.6740591526031494e-01" purity="4.6008199453353882e-01" nType="-99"/>
          <Node pos="r" depth="2" NCoef="0" IVar="-1" Cut="0.0000000000000000e+00" cType="1" res="7.2439183713868260e-04" rms="4.6795570850372314e-01" purity="6.0105663537979126e-01" nType="-99"/>
        </Node>
      </Node>
    </BinaryTree>
    <BinaryTree type="DecisionTree" boostWeight="1.0000000000000000e+00" itree="427">
      <Node pos="s" depth="0" NCoef="0" IVar="8" Cut="8.8215124607086182e-01" cType="1" res="4.4500408694148064e-03" rms="4.6664360165596008e-01" purity="5.0106787681579590e-01" nType="0">
        <Node pos="l" depth="1" NCoef="0" IVar="0" Cut="3.6809902638196945e-02" cType="1" res="2.6780620217323303e-02" rms="4.6752747893333435e-01" purity="5.5565702915191650e-01" nType="0">
          <Node pos="l" depth="2" NCoef="0" IVar="-1" Cut="0.0000000000000000e+00" cType="1" res="3.2054653274826705e-04" rms="4.6780821681022644e-01" purity="5.2149868011474609e-01" nType="-99"/>
          <Node pos="r" depth="2" NCoef="0" IVar="-1" Cut="0.0000000000000000e+00" cType="1" res="1.2937271967530251e-03" rms="4.6614018082618713e-01" purity="6.0610872507095337e-01" nType="-99"/>
        </Node>
        <Node pos="r" depth="1" NCoef="0" IVar="6" Cut="1.9936133921146393e-01" cType="1" res="-7.2326357476413250e-03" rms="4.6575412154197693e-01" purity="4.7250851988792419e-01" nType="0">
          <Node pos="l" depth="2" NCoef="0" IVar="-1" Cut="0.0000000000000000e+00" cType="1" res="-4.2117136763408780e-04" rms="4.6535426378250122e-01" purity="4.6053364872932434e-01" nType="-99"/>
          <Node pos="r" depth="2" NCoef="0" IVar="-1" Cut="0.0000000000000000e+00" cType="1" res="1.1329371482133865e-03" rms="4.6598902344703674e-01" purity="5.6970024108886719e-01" nType="-99"/>
        </Node>
      </Node>
    </BinaryTree>
    <BinaryTree type="DecisionTree" boostWeight="1.0000000000000000e+00" itree="428">
      <Node pos="s" depth="0" NCoef="0" IVar="0" Cut="7.9637840390205383e-02" cType="1" res="3.2492587342858315e-03" rms="4.6698865294456482e-01" purity="4.9976474046707153e-01" nType="0">
        <Node pos="l" depth="1" NCoef="0" IVar="1" Cut="8.1873953342437744e-01" cType="1" res="-7.4850074015557766e-03" rms="4.6468189358711243e-01" purity="4.7035259008407593e-01" nType="0">
          <Node pos="l" depth="2" NCoef="0" IVar="-1" Cut="0.0000000000000000e+00" cType="1" res="-6.1592913698405027e-04" rms="4.6393990516662598e-01" purity="4.3204584717750549e-01" nType="-99"/>
          <Node pos="r" depth="2" NCoef="0" IVar="-1" Cut="0.0000000000000000e+00" cType="1" res="9.8667980637401342e-04" rms="4.6486449241638184e-01" purity="6.2832623720169067e-01" nType="-99"/>
        </Node>
        <Node pos="r" depth="1" NCoef="0" IVar="8" Cut="1.1357679367065430e+00" cType="1" res="2.6897696778178215e-02" rms="4.7116878628730774e-01" purity="5.6456190347671509e-01" nType="0">
          <Node pos="l" depth="2" NCoef="0" IVar="-1" Cut="0.0000000000000000e+00" cType="1" res="1.1834999313578010e-03" rms="4.6838316321372986e-01" purity="6.0201454162597656e-01" nType="-99"/>
          <Node pos="r" depth="2" NCoef="0" IVar="-1" Cut="0.0000000000000000e+00" cType="1" res="3.1063762435223907e-05" rms="4.7375437617301941e-01" purity="5.1311743259429932e-01" nType="-99"/>
        </Node>
      </Node>
    </BinaryTree>
    <BinaryTree type="DecisionTree" boostWeight="1.0000000000000000e+00" itree="429">
      <Node pos="s" depth="0" NCoef="0" IVar="4" Cut="9.7187680006027222e-01" cType="1" res="6.0086082667112350e-03" rms="4.6580606698989868e-01" purity="5.0352537631988525e-01" nType="0">
        <Node pos="l" depth="1" NCoef="0" IVar="3" Cut="1.4743214416503906e+02" cType="1" res="-3.3278248738497496e-03" rms="4.7214743494987488e-01" purity="4.4753891229629517e-01" nType="0">
          <Node pos="l" depth="2" NCoef="0" IVar="-1" Cut="0.0000000000000000e+00" cType="1" res="-2.6982923736795783e-04" rms="4.7230267524719238e-01" purity="4.3735992908477783e-01" nType="-99"/>
          <Node pos="r" depth="2" NCoef="0" IVar="-1" Cut="0.0000000000000000e+00" cType="1" res="1.6270647756755352e-03" rms="4.6514919400215149e-01" purity="5.7663321495056152e-01" nType="-99"/>
        </Node>
        <Node pos="r" depth="1" NCoef="0" IVar="1" Cut="5.8450132608413696e-01" cType="1" res="3.6596916615962982e-02" rms="4.4302073121070862e-01" purity="6.8694984912872314e-01" nType="0">
          <Node pos="l" depth="2" NCoef="0" IVar="-1" Cut="0.0000000000000000e+00" cType="1" res="1.3102580851409584e-04" rms="4.6421894431114197e-01" purity="5.9831196069717407e-01" nType="-99"/>
          <Node pos="r" depth="2" NCoef="0" IVar="-1" Cut="0.0000000000000000e+00" cType="1" res="1.3255514204502106e-03" rms="4.3007159233093262e-01" purity="7.3517626523971558e-01" nType="-99"/>
        </Node>
      </Node>
    </BinaryTree>
    <BinaryTree type="DecisionTree" boostWeight="1.0000000000000000e+00" itree="430">
      <Node pos="s" depth="0" NCoef="0" IVar="5" Cut="3.0134069919586182e-01" cType="1" res="7.4020068859681487e-04" rms="4.6730449795722961e-01" purity="4.9719557166099548e-01" nType="0">
        <Node pos="l" depth="1" NCoef="0" IVar="0" Cut="2.0631463825702667e-01" cType="1" res="-2.0508306100964546e-02" rms="4.6259507536888123e-01" purity="4.3047142028808594e-01" nType="0">
          <Node pos="l" depth="2" NCoef="0" IVar="-1" Cut="0.0000000000000000e+00" cType="1" res="-1.1121017159894109e-03" rms="4.5989179611206055e-01" purity="3.9956307411193848e-01" nType="-99"/>
          <Node pos="r" depth="2" NCoef="0" IVar="-1" Cut="0.0000000000000000e+00" cType="1" res="8.6942809866741300e-04" rms="4.7188642621040344e-01" purity="5.8093470335006714e-01" nType="-99"/>
        </Node>
        <Node pos="r" depth="1" NCoef="0" IVar="2" Cut="3.7906497192382812e+02" cType="1" res="1.1836198158562183e-02" rms="4.6936282515525818e-01" purity="5.3203898668289185e-01" nType="0">
          <Node pos="l" depth="2" NCoef="0" IVar="-1" Cut="0.0000000000000000e+00" cType="1" res="-1.7165670869871974e-03" rms="4.4885247945785522e-01" purity="3.3575057983398438e-01" nType="-99"/>
          <Node pos="r" depth="2" NCoef="0" IVar="-1" Cut="0.0000000000000000e+00" cType="1" res="5.1259732572361827e-04" rms="4.7132027149200439e-01" purity="5.5556368827819824e-01" nType="-99"/>
        </Node>
      </Node>
    </BinaryTree>
    <BinaryTree type="DecisionTree" boostWeight="1.0000000000000000e+00" itree="431">
      <Node pos="s" depth="0" NCoef="0" IVar="4" Cut="9.0799522399902344e-01" cType="1" res="1.0666624875739217e-03" rms="4.6554896235466003e-01" purity="4.9742299318313599e-01" nType="0">
        <Node pos="l" depth="1" NCoef="0" IVar="-1" Cut="0.0000000000000000e+00" cType="1" res="-2.8067762032151222e-03" rms="4.3844646215438843e-01" purity="2.9799437522888184e-01" nType="-99"/>
        <Node pos="r" depth="1" NCoef="0" IVar="4" Cut="9.8499584197998047e-01" cType="1" res="5.4608420468866825e-03" rms="4.6689569950103760e-01" purity="5.1024615764617920e-01" nType="0">
          <Node pos="l" depth="2" NCoef="0" IVar="-1" Cut="0.0000000000000000e+00" cType="1" res="-1.2285639968467876e-05" rms="4.7173327207565308e-01" purity="4.8184570670127869e-01" nType="-99"/>
          <Node pos="r" depth="2" NCoef="0" IVar="-1" Cut="0.0000000000000000e+00" cType="1" res="1.3403403572738171e-03" rms="4.2160776257514954e-01" purity="7.4537342786788940e-01" nType="-99"/>
        </Node>
      </Node>
    </BinaryTree>
    <BinaryTree type="DecisionTree" boostWeight="1.0000000000000000e+00" itree="432">
      <Node pos="s" depth="0" NCoef="0" IVar="2" Cut="7.3566992187500000e+02" cType="1" res="4.6915267594158649e-03" rms="4.6708196401596069e-01" purity="5.0176799297332764e-01" nType="0">
        <Node pos="l" depth="1" NCoef="0" IVar="5" Cut="4.4818606972694397e-01" cType="1" res="-1.8739426741376519e-03" rms="4.6696886420249939e-01" purity="4.7863578796386719e-01" nType="0">
          <Node pos="l" depth="2" NCoef="0" IVar="-1" Cut="0.0000000000000000e+00" cType="1" res="-5.6465732632204890e-04" rms="4.6365067362785339e-01" purity="4.3309667706489563e-01" nType="-99"/>
          <Node pos="r" depth="2" NCoef="0" IVar="-1" Cut="0.0000000000000000e+00" cType="1" res="5.2475085249170661e-04" rms="4.7062844038009644e-01" purity="5.4037141799926758e-01" nType="-99"/>
        </Node>
        <Node pos="r" depth="1" NCoef="0" IVar="6" Cut="5.0767693668603897e-02" cType="1" res="3.6405421793460846e-02" rms="4.6632808446884155e-01" purity="6.1350613832473755e-01" nType="0">
          <Node pos="l" depth="2" NCoef="0" IVar="-1" Cut="0.0000000000000000e+00" cType="1" res="6.1587220989167690e-04" rms="4.7626417875289917e-01" purity="5.6398087739944458e-01" nType="-99"/>
          <Node pos="r" depth="2" NCoef="0" IVar="-1" Cut="0.0000000000000000e+00" cType="1" res="1.3477365719154477e-03" rms="4.5368811488151550e-01" purity="6.7231547832489014e-01" nType="-99"/>
        </Node>
      </Node>
    </BinaryTree>
    <BinaryTree type="DecisionTree" boostWeight="1.0000000000000000e+00" itree="433">
      <Node pos="s" depth="0" NCoef="0" IVar="0" Cut="1.3259069621562958e-01" cType="1" res="3.0958715360611677e-03" rms="4.6705669164657593e-01" purity="4.9942469596862793e-01" nType="0">
        <Node pos="l" depth="1" NCoef="0" IVar="1" Cut="8.1789696216583252e-01" cType="1" res="-6.3063376583158970e-03" rms="4.6589982509613037e-01" purity="4.7674599289894104e-01" nType="0">
          <Node pos="l" depth="2" NCoef="0" IVar="-1" Cut="0.0000000000000000e+00" cType="1" res="-4.8219095333479345e-04" rms="4.6618053317070007e-01" purity="4.4438600540161133e-01" nType="-99"/>
          <Node pos="r" depth="2" NCoef="0" IVar="-1" Cut="0.0000000000000000e+00" cType="1" res="8.5486541502177715e-04" rms="4.6255013346672058e-01" purity="6.2561362981796265e-01" nType="-99"/>
        </Node>
        <Node pos="r" depth="1" NCoef="0" IVar="8" Cut="8.7049692869186401e-01" cType="1" res="3.8867302238941193e-02" rms="4.6971517801284790e-01" purity="5.8570742607116699e-01" nType="0">
          <Node pos="l" depth="2" NCoef="0" IVar="-1" Cut="0.0000000000000000e+00" cType="1" res="1.7482626717537642e-03" rms="4.6133285760879517e-01" purity="6.4518713951110840e-01" nType="-99"/>
          <Node pos="r" depth="2" NCoef="0" IVar="-1" Cut="0.0000000000000000e+00" cType="1" res="6.2361761229112744e-04" rms="4.7320154309272766e-01" purity="5.5489248037338257e-01" nType="-99"/>
        </Node>
      </Node>
    </BinaryTree>
    <BinaryTree type="DecisionTree" boostWeight="1.0000000000000000e+00" itree="434">
      <Node pos="s" depth="0" NCoef="0" IVar="0" Cut="1.7235372960567474e-01" cType="1" res="1.7923128325492144e-03" rms="4.6735036373138428e-01" purity="4.9816313385963440e-01" nType="0">
        <Node pos="l" depth="1" NCoef="0" IVar="6" Cut="1.4244785904884338e-01" cType="1" res="-4.8156697303056717e-03" rms="4.6686521172523499e-01" purity="4.8181679844856262e-01" nType="0">
          <Node pos="l" depth="2" NCoef="0" IVar="-1" Cut="0.0000000000000000e+00" cType="1" res="-4.9281842075288296e-04" rms="4.6576288342475891e-01" purity="4.5836400985717773e-01" nType="-99"/>
          <Node pos="r" depth="2" NCoef="0" IVar="-1" Cut="0.0000000000000000e+00" cType="1" res="7.4019283056259155e-04" rms="4.6870270371437073e-01" purity="5.5157399177551270e-01" nType="-99"/>
        </Node>
        <Node pos="r" depth="1" NCoef="0" IVar="8" Cut="1.1529053449630737e+00" cType="1" res="4.1233859956264496e-02" rms="4.6830058097839355e-01" purity="5.9573066234588623e-01" nType="0">
          <Node pos="l" depth="2" NCoef="0" IVar="-1" Cut="0.0000000000000000e+00" cType="1" res="1.6245186561718583e-03" rms="4.6312320232391357e-01" purity="6.3563251495361328e-01" nType="-99"/>
          <Node pos="r" depth="2" NCoef="0" IVar="-1" Cut="0.0000000000000000e+00" cType="1" res="1.7160207789856941e-04" rms="4.7361341118812561e-01" purity="5.3719735145568848e-01" nType="-99"/>
        </Node>
      </Node>
    </BinaryTree>
    <BinaryTree type="DecisionTree" boostWeight="1.0000000000000000e+00" itree="435">
      <Node pos="s" depth="0" NCoef="0" IVar="5" Cut="6.6306966543197632e-01" cType="1" res="2.8531014686450362e-04" rms="4.6664622426033020e-01" purity="4.9670946598052979e-01" nType="0">
        <Node pos="l" depth="1" NCoef="0" IVar="2" Cut="7.4260968017578125e+02" cType="1" res="-4.9768490716814995e-03" rms="4.6646487712860107e-01" purity="4.8648202419281006e-01" nType="0">
          <Node pos="l" depth="2" NCoef="0" IVar="-1" Cut="0.0000000000000000e+00" cType="1" res="-3.8464364479295909e-04" rms="4.6605968475341797e-01" purity="4.6123877167701721e-01" nType="-99"/>
          <Node pos="r" depth="2" NCoef="0" IVar="-1" Cut="0.0000000000000000e+00" cType="1" res="7.9294369788840413e-04" rms="4.6682435274124146e-01" purity="6.0627710819244385e-01" nType="-99"/>
        </Node>
        <Node pos="r" depth="1" NCoef="0" IVar="-1" Cut="0.0000000000000000e+00" cType="1" res="1.2684100074693561e-03" rms="4.6559488773345947e-01" purity="5.8906918764114380e-01" nType="-99"/>
      </Node>
    </BinaryTree>
    <BinaryTree type="DecisionTree" boostWeight="1.0000000000000000e+00" itree="436">
      <Node pos="s" depth="0" NCoef="0" IVar="8" Cut="1.1511145830154419e+00" cType="1" res="7.9169860109686852e-03" rms="4.6799457073211670e-01" purity="5.0363057851791382e-01" nType="0">
        <Node pos="l" depth="1" NCoef="0" IVar="0" Cut="-6.8762106820940971e-03" cType="1" res="2.0569670945405960e-02" rms="4.7004032135009766e-01" purity="5.3887856006622314e-01" nType="0">
          <Node pos="l" depth="2" NCoef="0" IVar="-1" Cut="0.0000000000000000e+00" cType="1" res="1.2311468890402466e-04" rms="4.6924543380737305e-01" purity="4.9458175897598267e-01" nType="-99"/>
          <Node pos="r" depth="2" NCoef="0" IVar="-1" Cut="0.0000000000000000e+00" cType="1" res="9.4812107272446156e-04" rms="4.7025984525680542e-01" purity="5.7895511388778687e-01" nType="-99"/>
        </Node>
        <Node pos="r" depth="1" NCoef="0" IVar="0" Cut="-9.0163312852382660e-02" cType="1" res="-1.0142434388399124e-02" rms="4.6446231007575989e-01" purity="4.5332047343254089e-01" nType="0">
          <Node pos="l" depth="2" NCoef="0" IVar="-1" Cut="0.0000000000000000e+00" cType="1" res="-2.1468652412295341e-03" rms="4.3934372067451477e-01" purity="3.3695572614669800e-01" nType="-99"/>
          <Node pos="r" depth="2" NCoef="0" IVar="-1" Cut="0.0000000000000000e+00" cType="1" res="-8.1406069512013346e-05" rms="4.6820351481437683e-01" purity="4.7317796945571899e-01" nType="-99"/>
        </Node>
      </Node>
    </BinaryTree>
    <BinaryTree type="DecisionTree" boostWeight="1.0000000000000000e+00" itree="437">
      <Node pos="s" depth="0" NCoef="0" IVar="0" Cut="4.8148967325687408e-02" cType="1" res="1.1485430877655745e-03" rms="4.6541181206703186e-01" purity="4.9951553344726562e-01" nType="0">
        <Node pos="l" depth="1" NCoef="0" IVar="1" Cut="7.9334259033203125e-01" cType="1" res="-1.1970848776400089e-02" rms="4.6285521984100342e-01" purity="4.6331444382667542e-01" nType="0">
          <Node pos="l" depth="2" NCoef="0" IVar="-1" Cut="0.0000000000000000e+00" cType="1" res="-1.0090232826769352e-03" rms="4.6065527200698853e-01" purity="4.0338340401649475e-01" nType="-99"/>
          <Node pos="r" depth="2" NCoef="0" IVar="-1" Cut="0.0000000000000000e+00" cType="1" res="8.4677839186042547e-04" rms="4.6554377675056458e-01" purity="6.1910039186477661e-01" nType="-99"/>
        </Node>
        <Node pos="r" depth="1" NCoef="0" IVar="4" Cut="9.3521720170974731e-01" cType="1" res="2.2403514012694359e-02" rms="4.6874555945396423e-01" purity="5.5816555023193359e-01" nType="0">
          <Node pos="l" depth="2" NCoef="0" IVar="-1" Cut="0.0000000000000000e+00" cType="1" res="-5.7662109611555934e-04" rms="4.7584626078605652e-01" purity="4.0218758583068848e-01" nType="-99"/>
          <Node pos="r" depth="2" NCoef="0" IVar="-1" Cut="0.0000000000000000e+00" cType="1" res="9.4933516811579466e-04" rms="4.6540436148643494e-01" purity="6.1312943696975708e-01" nType="-99"/>
        </Node>
      </Node>
    </BinaryTree>
    <BinaryTree type="DecisionTree" boostWeight="1.0000000000000000e+00" itree="438">
      <Node pos="s" depth="0" NCoef="0" IVar="3" Cut="1.5134410095214844e+02" cType="1" res="3.5697841085493565e-03" rms="4.6622398495674133e-01" purity="5.0002497434616089e-01" nType="0">
        <Node pos="l" depth="1" NCoef="0" IVar="4" Cut="9.7178965806961060e-01" cType="1" res="-1.4542553108185530e-03" rms="4.6704235672950745e-01" purity="4.9041488766670227e-01" nType="0">
          <Node pos="l" depth="2" NCoef="0" IVar="-1" Cut="0.0000000000000000e+00" cType="1" res="-3.4224032424390316e-04" rms="4.7211846709251404e-01" purity="4.3469560146331787e-01" nType="-99"/>
          <Node pos="r" depth="2" NCoef="0" IVar="-1" Cut="0.0000000000000000e+00" cType="1" res="7.5180840212851763e-04" rms="4.4840776920318604e-01" purity="6.7534190416336060e-01" nType="-99"/>
        </Node>
        <Node pos="r" depth="1" NCoef="0" IVar="-1" Cut="0.0000000000000000e+00" cType="1" res="1.9203834235668182e-03" rms="4.4859176874160767e-01" purity="6.3544380664825439e-01" nType="-99"/>
      </Node>
    </BinaryTree>
    <BinaryTree type="DecisionTree" boostWeight="1.0000000000000000e+00" itree="439">
      <Node pos="s" depth="0" NCoef="0" IVar="3" Cut="1.4090109252929688e+02" cType="1" res="4.6365382149815559e-03" rms="4.6703839302062988e-01" purity="5.0107359886169434e-01" nType="0">
        <Node pos="l" depth="1" NCoef="0" IVar="4" Cut="9.0878069400787354e-01" cType="1" res="-4.4569160672836006e-04" rms="4.6832093596458435e-01" purity="4.8983812332153320e-01" nType="0">
          <Node pos="l" depth="2" NCoef="0" IVar="-1" Cut="0.0000000000000000e+00" cType="1" res="-2.6239205617457628e-03" rms="4.4353091716766357e-01" purity="2.9656776785850525e-01" nType="-99"/>
          <Node pos="r" depth="2" NCoef="0" IVar="-1" Cut="0.0000000000000000e+00" cType="1" res="1.1331274436088279e-04" rms="4.6969014406204224e-01" purity="5.0321698188781738e-01" nType="-99"/>
        </Node>
        <Node pos="r" depth="1" NCoef="0" IVar="-1" Cut="0.0000000000000000e+00" cType="1" res="1.4212098903954029e-03" rms="4.5143279433250427e-01" purity="6.1016207933425903e-01" nType="-99"/>
      </Node>
    </BinaryTree>
    <BinaryTree type="DecisionTree" boostWeight="1.0000000000000000e+00" itree="440">
      <Node pos="s" depth="0" NCoef="0" IVar="6" Cut="8.2008667290210724e-02" cType="1" res="5.0809909589588642e-03" rms="4.6613529324531555e-01" purity="5.0247019529342651e-01" nType="0">
        <Node pos="l" depth="1" NCoef="0" IVar="2" Cut="6.4337200927734375e+02" cType="1" res="-1.2086432427167892e-02" rms="4.6470275521278381e-01" purity="4.6321657299995422e-01" nType="0">
          <Node pos="l" depth="2" NCoef="0" IVar="-1" Cut="0.0000000000000000e+00" cType="1" res="-9.6864864462986588e-04" rms="4.6021267771720886e-01" purity="3.9856308698654175e-01" nType="-99"/>
          <Node pos="r" depth="2" NCoef="0" IVar="-1" Cut="0.0000000000000000e+00" cType="1" res="3.4224169212393463e-04" rms="4.7051241993904114e-01" purity="5.6321597099304199e-01" nType="-99"/>
        </Node>
        <Node pos="r" depth="1" NCoef="0" IVar="2" Cut="3.7925280761718750e+02" cType="1" res="2.1699799224734306e-02" rms="4.6691700816154480e-01" purity="5.4046946763992310e-01" nType="0">
          <Node pos="l" depth="2" NCoef="0" IVar="-1" Cut="0.0000000000000000e+00" cType="1" res="-1.8629659898579121e-03" rms="4.4892686605453491e-01" purity="3.3077353239059448e-01" nType="-99"/>
          <Node pos="r" depth="2" NCoef="0" IVar="-1" Cut="0.0000000000000000e+00" cType="1" res="8.5794518236070871e-04" rms="4.6862107515335083e-01" purity="5.7095980644226074e-01" nType="-99"/>
        </Node>
      </Node>
    </BinaryTree>
    <BinaryTree type="DecisionTree" boostWeight="1.0000000000000000e+00" itree="441">
      <Node pos="s" depth="0" NCoef="0" IVar="2" Cut="4.0313165283203125e+02" cType="1" res="-9.6677773399278522e-04" rms="4.6575483679771423e-01" purity="4.9652048945426941e-01" nType="0">
        <Node pos="l" depth="1" NCoef="0" IVar="2" Cut="3.5427120971679688e+02" cType="1" res="-4.2993381619453430e-02" rms="4.4243037700653076e-01" purity="3.2489666342735291e-01" nType="0">
          <Node pos="l" depth="2" NCoef="0" IVar="-1" Cut="0.0000000000000000e+00" cType="1" res="-3.6976840347051620e-03" rms="4.2205271124839783e-01" purity="2.7081611752510071e-01" nType="-99"/>
          <Node pos="r" depth="2" NCoef="0" IVar="-1" Cut="0.0000000000000000e+00" cType="1" res="-8.6370104691013694e-04" rms="4.5114809274673462e-01" purity="3.5246247053146362e-01" nType="-99"/>
        </Node>
        <Node pos="r" depth="1" NCoef="0" IVar="6" Cut="5.7357486337423325e-02" cType="1" res="6.6529880277812481e-03" rms="4.6945703029632568e-01" purity="5.2763730287551880e-01" nType="0">
          <Node pos="l" depth="2" NCoef="0" IVar="-1" Cut="0.0000000000000000e+00" cType="1" res="-5.9790624072775245e-04" rms="4.6991643309593201e-01" purity="4.6373555064201355e-01" nType="-99"/>
          <Node pos="r" depth="2" NCoef="0" IVar="-1" Cut="0.0000000000000000e+00" cType="1" res="5.7178339920938015e-04" rms="4.6859398484230042e-01" purity="5.6311309337615967e-01" nType="-99"/>
        </Node>
      </Node>
    </BinaryTree>
    <BinaryTree type="DecisionTree" boostWeight="1.0000000000000000e+00" itree="442">
      <Node pos="s" depth="0" NCoef="0" IVar="4" Cut="9.5818787813186646e-01" cType="1" res="2.5351878721266985e-03" rms="4.6464210748672485e-01" purity="5.0027811527252197e-01" nType="0">
        <Node pos="l" depth="1" NCoef="0" IVar="8" Cut="1.1253733634948730e+00" cType="1" res="-1.1897705495357513e-02" rms="4.6906900405883789e-01" purity="4.1509878635406494e-01" nType="0">
          <Node pos="l" depth="2" NCoef="0" IVar="-1" Cut="0.0000000000000000e+00" cType="1" res="1.4805539103690535e-04" rms="4.7930645942687988e-01" purity="4.5519423484802246e-01" nType="-99"/>
          <Node pos="r" depth="2" NCoef="0" IVar="-1" Cut="0.0000000000000000e+00" cType="1" res="-1.2128455564379692e-03" rms="4.5450842380523682e-01" purity="3.6301261186599731e-01" nType="-99"/>
        </Node>
        <Node pos="r" depth="1" NCoef="0" IVar="2" Cut="3.9870046997070312e+02" cType="1" res="2.3515243083238602e-02" rms="4.5731914043426514e-01" purity="6.2409710884094238e-01" nType="0">
          <Node pos="l" depth="2" NCoef="0" IVar="-1" Cut="0.0000000000000000e+00" cType="1" res="-8.6205924162641168e-04" rms="4.7141936421394348e-01" purity="4.5473393797874451e-01" nType="-99"/>
          <Node pos="r" depth="2" NCoef="0" IVar="-1" Cut="0.0000000000000000e+00" cType="1" res="7.9822755651548505e-04" rms="4.5472583174705505e-01" purity="6.4886969327926636e-01" nType="-99"/>
        </Node>
      </Node>
    </BinaryTree>
    <BinaryTree type="DecisionTree" boostWeight="1.0000000000000000e+00" itree="443">
      <Node pos="s" depth="0" NCoef="0" IVar="2" Cut="8.1166021728515625e+02" cType="1" res="8.6149061098694801e-03" rms="4.6594741940498352e-01" purity="5.0566047430038452e-01" nType="0">
        <Node pos="l" depth="1" NCoef="0" IVar="5" Cut="6.4951246976852417e-01" cType="1" res="3.0056794639676809e-03" rms="4.6604880690574646e-01" purity="4.8891550302505493e-01" nType="0">
          <Node pos="l" depth="2" NCoef="0" IVar="-1" Cut="0.0000000000000000e+00" cType="1" res="-1.0587598808342591e-04" rms="4.6584087610244751e-01" purity="4.7492924332618713e-01" nType="-99"/>
          <Node pos="r" depth="2" NCoef="0" IVar="-1" Cut="0.0000000000000000e+00" cType="1" res="1.2780757388100028e-03" rms="4.6499469876289368e-01" purity="5.8720880746841431e-01" nType="-99"/>
        </Node>
        <Node pos="r" depth="1" NCoef="0" IVar="0" Cut="-1.8613170832395554e-02" cType="1" res="5.0702735781669617e-02" rms="4.6302327513694763e-01" purity="6.3130325078964233e-01" nType="0">
          <Node pos="l" depth="2" NCoef="0" IVar="-1" Cut="0.0000000000000000e+00" cType="1" res="1.1283122003078461e-03" rms="4.7104877233505249e-01" purity="5.9473598003387451e-01" nType="-99"/>
          <Node pos="r" depth="2" NCoef="0" IVar="-1" Cut="0.0000000000000000e+00" cType="1" res="1.4656909042969346e-03" rms="4.5580264925956726e-01" purity="6.6300672292709351e-01" nType="-99"/>
        </Node>
      </Node>
    </BinaryTree>
    <BinaryTree type="DecisionTree" boostWeight="1.0000000000000000e+00" itree="444">
      <Node pos="s" depth="0" NCoef="0" IVar="4" Cut="9.8570418357849121e-01" cType="1" res="3.8951572496443987e-03" rms="4.6595731377601624e-01" purity="5.0135564804077148e-01" nType="0">
        <Node pos="l" depth="1" NCoef="0" IVar="0" Cut="6.4962916076183319e-02" cType="1" res="-1.2811004417017102e-03" rms="4.7031241655349731e-01" purity="4.7581523656845093e-01" nType="0">
          <Node pos="l" depth="2" NCoef="0" IVar="-1" Cut="0.0000000000000000e+00" cType="1" res="-4.3299223762005568e-04" rms="4.6623918414115906e-01" purity="4.4147527217864990e-01" nType="-99"/>
          <Node pos="r" depth="2" NCoef="0" IVar="-1" Cut="0.0000000000000000e+00" cType="1" res="5.9166824212297797e-04" rms="4.7699540853500366e-01" purity="5.3995257616043091e-01" nType="-99"/>
        </Node>
        <Node pos="r" depth="1" NCoef="0" IVar="-1" Cut="0.0000000000000000e+00" cType="1" res="1.3382040197029710e-03" rms="4.1865912079811096e-01" purity="7.4637567996978760e-01" nType="-99"/>
      </Node>
    </BinaryTree>
    <BinaryTree type="DecisionTree" boostWeight="1.0000000000000000e+00" itree="445">
      <Node pos="s" depth="0" NCoef="0" IVar="2" Cut="9.4368658447265625e+02" cType="1" res="5.8117564767599106e-03" rms="4.6656537055969238e-01" purity="5.0271964073181152e-01" nType="0">
        <Node pos="l" depth="1" NCoef="0" IVar="4" Cut="9.2645943164825439e-01" cType="1" res="1.3646233128383756e-03" rms="4.6682277321815491e-01" purity="4.9265789985656738e-01" nType="0">
          <Node pos="l" depth="2" NCoef="0" IVar="-1" Cut="0.0000000000000000e+00" cType="1" res="-1.1065206490457058e-03" rms="4.5322445034980774e-01" purity="3.3809563517570496e-01" nType="-99"/>
          <Node pos="r" depth="2" NCoef="0" IVar="-1" Cut="0.0000000000000000e+00" cType="1" res="2.2907349921297282e-04" rms="4.6947017312049866e-01" purity="5.2629005908966064e-01" nType="-99"/>
        </Node>
        <Node pos="r" depth="1" NCoef="0" IVar="-1" Cut="0.0000000000000000e+00" cType="1" res="1.8309280276298523e-03" rms="4.5747217535972595e-01" purity="6.5426087379455566e-01" nType="-99"/>
      </Node>
    </BinaryTree>
    <BinaryTree type="DecisionTree" boostWeight="1.0000000000000000e+00" itree="446">
      <Node pos="s" depth="0" NCoef="0" IVar="8" Cut="1.1711943149566650e+00" cType="1" res="3.7615296896547079e-03" rms="4.6623855829238892e-01" purity="5.0229734182357788e-01" nType="0">
        <Node pos="l" depth="1" NCoef="0" IVar="6" Cut="1.7794850468635559e-01" cType="1" res="1.6800384968519211e-02" rms="4.6898403763771057e-01" purity="5.3693467378616333e-01" nType="0">
          <Node pos="l" depth="2" NCoef="0" IVar="-1" Cut="0.0000000000000000e+00" cType="1" res="2.9854514286853373e-04" rms="4.6968457102775574e-01" purity="5.2562737464904785e-01" nType="-99"/>
          <Node pos="r" depth="2" NCoef="0" IVar="-1" Cut="0.0000000000000000e+00" cType="1" res="1.5724976547062397e-03" rms="4.6156826615333557e-01" purity="6.1599957942962646e-01" nType="-99"/>
        </Node>
        <Node pos="r" depth="1" NCoef="0" IVar="2" Cut="5.8831811523437500e+02" cType="1" res="-1.6646211966872215e-02" rms="4.6116927266120911e-01" purity="4.4808471202850342e-01" nType="0">
          <Node pos="l" depth="2" NCoef="0" IVar="-1" Cut="0.0000000000000000e+00" cType="1" res="-9.5929700182750821e-04" rms="4.5731726288795471e-01" purity="4.0339159965515137e-01" nType="-99"/>
          <Node pos="r" depth="2" NCoef="0" IVar="-1" Cut="0.0000000000000000e+00" cType="1" res="3.6530487705022097e-04" rms="4.6986189484596252e-01" purity="5.6585854291915894e-01" nType="-99"/>
        </Node>
      </Node>
    </BinaryTree>
    <BinaryTree type="DecisionTree" boostWeight="1.0000000000000000e+00" itree="447">
      <Node pos="s" depth="0" NCoef="0" IVar="0" Cut="2.2428949177265167e-01" cType="1" res="1.1499467073008418e-03" rms="4.6672824025154114e-01" purity="4.9768558144569397e-01" nType="0">
        <Node pos="l" depth="1" NCoef="0" IVar="1" Cut="4.6028971672058105e-01" cType="1" res="-3.8069896399974823e-03" rms="4.6651026606559753e-01" purity="4.8750296235084534e-01" nType="0">
          <Node pos="l" depth="2" NCoef="0" IVar="-1" Cut="0.0000000000000000e+00" cType="1" res="-2.0434584002941847e-03" rms="4.4245252013206482e-01" purity="3.2549002766609192e-01" nType="-99"/>
          <Node pos="r" depth="2" NCoef="0" IVar="-1" Cut="0.0000000000000000e+00" cType="1" res="8.2574420957826078e-05" rms="4.6946185827255249e-01" purity="5.1058083772659302e-01" nType="-99"/>
        </Node>
        <Node pos="r" depth="1" NCoef="0" IVar="-1" Cut="0.0000000000000000e+00" cType="1" res="1.5902743907645345e-03" rms="4.6498739719390869e-01" purity="6.2540233135223389e-01" nType="-99"/>
      </Node>
    </BinaryTree>
    <BinaryTree type="DecisionTree" boostWeight="1.0000000000000000e+00" itree="448">
      <Node pos="s" depth="0" NCoef="0" IVar="6" Cut="7.1510598063468933e-02" cType="1" res="-2.6658172719180584e-03" rms="4.6567523479461670e-01" purity="4.9396875500679016e-01" nType="0">
        <Node pos="l" depth="1" NCoef="0" IVar="8" Cut="7.8580349683761597e-01" cType="1" res="-2.0702326670289040e-02" rms="4.6404758095741272e-01" purity="4.5112669467926025e-01" nType="0">
          <Node pos="l" depth="2" NCoef="0" IVar="-1" Cut="0.0000000000000000e+00" cType="1" res="3.4517954918555915e-04" rms="4.7463253140449524e-01" purity="5.2431225776672363e-01" nType="-99"/>
          <Node pos="r" depth="2" NCoef="0" IVar="-1" Cut="0.0000000000000000e+00" cType="1" res="-1.1632231762632728e-03" rms="4.5886394381523132e-01" purity="4.2055001854896545e-01" nType="-99"/>
        </Node>
        <Node pos="r" depth="1" NCoef="0" IVar="2" Cut="4.3772793579101562e+02" cType="1" res="1.0821465402841568e-02" rms="4.6643310785293579e-01" purity="5.2600514888763428e-01" nType="0">
          <Node pos="l" depth="2" NCoef="0" IVar="-1" Cut="0.0000000000000000e+00" cType="1" res="-7.2663993341848254e-04" rms="4.6146661043167114e-01" purity="3.8116109371185303e-01" nType="-99"/>
          <Node pos="r" depth="2" NCoef="0" IVar="-1" Cut="0.0000000000000000e+00" cType="1" res="6.6275498829782009e-04" rms="4.6794286370277405e-01" purity="5.9029430150985718e-01" nType="-99"/>
        </Node>
      </Node>
    </BinaryTree>
    <BinaryTree type="DecisionTree" boostWeight="1.0000000000000000e+00" itree="449">
      <Node pos="s" depth="0" NCoef="0" IVar="3" Cut="1.3947715759277344e+02" cType="1" res="5.4588257335126400e-03" rms="4.6658056974411011e-01" purity="5.0254374742507935e-01" nType="0">
        <Node pos="l" depth="1" NCoef="0" IVar="8" Cut="1.5818758010864258e+00" cType="1" res="5.6755484547466040e-04" rms="4.6747234463691711e-01" purity="4.9168798327445984e-01" nType="0">
          <Node pos="l" depth="2" NCoef="0" IVar="-1" Cut="0.0000000000000000e+00" cType="1" res="2.0301443873904645e-04" rms="4.6856811642646790e-01" purity="5.0699865818023682e-01" nType="-99"/>
          <Node pos="r" depth="2" NCoef="0" IVar="-1" Cut="0.0000000000000000e+00" cType="1" res="-1.8635916057974100e-03" rms="4.5525169372558594e-01" purity="3.6741405725479126e-01" nType="-99"/>
        </Node>
        <Node pos="r" depth="1" NCoef="0" IVar="-1" Cut="0.0000000000000000e+00" cType="1" res="1.3425600482150912e-03" rms="4.5588141679763794e-01" purity="6.0209131240844727e-01" nType="-99"/>
      </Node>
    </BinaryTree>
    <BinaryTree type="DecisionTree" boostWeight="1.0000000000000000e+00" itree="450">
      <Node pos="s" depth="0" NCoef="0" IVar="8" Cut="1.1511145830154419e+00" cType="1" res="4.7063929960131645e-03" rms="4.6584632992744446e-01" purity="5.0156539678573608e-01" nType="0">
        <Node pos="l" depth="1" NCoef="0" IVar="4" Cut="9.2192417383193970e-01" cType="1" res="1.9488971680402756e-02" rms="4.6857109665870667e-01" purity="5.3870558738708496e-01" nType="0">
          <Node pos="l" depth="2" NCoef="0" IVar="-1" Cut="0.0000000000000000e+00" cType="1" res="-8.7160861585289240e-04" rms="4.6588405966758728e-01" purity="3.6745533347129822e-01" nType="-99"/>
          <Node pos="r" depth="2" NCoef="0" IVar="-1" Cut="0.0000000000000000e+00" cType="1" res="7.2987482417374849e-04" rms="4.6861752867698669e-01" purity="5.6657284498214722e-01" nType="-99"/>
        </Node>
        <Node pos="r" depth="1" NCoef="0" IVar="2" Cut="5.6838177490234375e+02" cType="1" res="-1.6773063689470291e-02" rms="4.6101456880569458e-01" purity="4.4759976863861084e-01" nType="0">
          <Node pos="l" depth="2" NCoef="0" IVar="-1" Cut="0.0000000000000000e+00" cType="1" res="-1.1055974755436182e-03" rms="4.5649838447570801e-01" purity="3.9221131801605225e-01" nType="-99"/>
          <Node pos="r" depth="2" NCoef="0" IVar="-1" Cut="0.0000000000000000e+00" cType="1" res="3.9267091779038310e-04" rms="4.6882316470146179e-01" purity="5.6352216005325317e-01" nType="-99"/>
        </Node>
      </Node>
    </BinaryTree>
    <BinaryTree type="DecisionTree" boostWeight="1.0000000000000000e+00" itree="451">
      <Node pos="s" depth="0" NCoef="0" IVar="1" Cut="8.4208524227142334e-01" cType="1" res="2.9729674570262432e-03" rms="4.6545830368995667e-01" purity="5.0094372034072876e-01" nType="0">
        <Node pos="l" depth="1" NCoef="0" IVar="0" Cut="-4.4341765344142914e-02" cType="1" res="-2.8660630341619253e-03" rms="4.6604594588279724e-01" purity="4.8338806629180908e-01" nType="0">
          <Node pos="l" depth="2" NCoef="0" IVar="-1" Cut="0.0000000000000000e+00" cType="1" res="-1.0136632481589913e-03" rms="4.5913794636726379e-01" purity="3.9997828006744385e-01" nType="-99"/>
          <Node pos="r" depth="2" NCoef="0" IVar="-1" Cut="0.0000000000000000e+00" cType="1" res="2.6165132294408977e-04" rms="4.6870481967926025e-01" purity="5.2171599864959717e-01" nType="-99"/>
        </Node>
        <Node pos="r" depth="1" NCoef="0" IVar="-1" Cut="0.0000000000000000e+00" cType="1" res="1.2959736632183194e-03" rms="4.5766258239746094e-01" purity="6.4698088169097900e-01" nType="-99"/>
      </Node>
    </BinaryTree>
    <BinaryTree type="DecisionTree" boostWeight="1.0000000000000000e+00" itree="452">
      <Node pos="s" depth="0" NCoef="0" IVar="4" Cut="9.1351109743118286e-01" cType="1" res="4.4296043924987316e-03" rms="4.6632507443428040e-01" purity="5.0170552730560303e-01" nType="0">
        <Node pos="l" depth="1" NCoef="0" IVar="-1" Cut="0.0000000000000000e+00" cType="1" res="-1.9270231714472175e-03" rms="4.4506636261940002e-01" purity="3.1791085004806519e-01" nType="-99"/>
        <Node pos="r" depth="1" NCoef="0" IVar="2" Cut="4.1475802612304688e+02" cType="1" res="9.6824541687965393e-03" rms="4.6803480386734009e-01" purity="5.1978260278701782e-01" nType="0">
          <Node pos="l" depth="2" NCoef="0" IVar="-1" Cut="0.0000000000000000e+00" cType="1" res="-8.8998913997784257e-04" rms="4.5558398962020874e-01" purity="3.6016321182250977e-01" nType="-99"/>
          <Node pos="r" depth="2" NCoef="0" IVar="-1" Cut="0.0000000000000000e+00" cType="1" res="4.7674056258983910e-04" rms="4.7043955326080322e-01" purity="5.5537986755371094e-01" nType="-99"/>
        </Node>
      </Node>
    </BinaryTree>
    <BinaryTree type="DecisionTree" boostWeight="1.0000000000000000e+00" itree="453">
      <Node pos="s" depth="0" NCoef="0" IVar="3" Cut="1.5303932189941406e+02" cType="1" res="1.1794315651059151e-04" rms="4.6631193161010742e-01" purity="4.9652326107025146e-01" nType="0">
        <Node pos="l" depth="1" NCoef="0" IVar="3" Cut="8.0536849975585938e+01" cType="1" res="-4.7915824688971043e-03" rms="4.6701234579086304e-01" purity="4.8748466372489929e-01" nType="0">
          <Node pos="l" depth="2" NCoef="0" IVar="-1" Cut="0.0000000000000000e+00" cType="1" res="3.9396557258442044e-04" rms="4.6635043621063232e-01" purity="4.9841061234474182e-01" nType="-99"/>
          <Node pos="r" depth="2" NCoef="0" IVar="-1" Cut="0.0000000000000000e+00" cType="1" res="-6.3003302784636617e-04" rms="4.6702599525451660e-01" purity="4.7802224755287170e-01" nType="-99"/>
        </Node>
        <Node pos="r" depth="1" NCoef="0" IVar="-1" Cut="0.0000000000000000e+00" cType="1" res="1.9041355699300766e-03" rms="4.4880533218383789e-01" purity="6.3486307859420776e-01" nType="-99"/>
      </Node>
    </BinaryTree>
    <BinaryTree type="DecisionTree" boostWeight="1.0000000000000000e+00" itree="454">
      <Node pos="s" depth="0" NCoef="0" IVar="3" Cut="1.4597004699707031e+02" cType="1" res="7.3305233381688595e-03" rms="4.6646159887313843e-01" purity="5.0382196903228760e-01" nType="0">
        <Node pos="l" depth="1" NCoef="0" IVar="4" Cut="9.7634309530258179e-01" cType="1" res="3.2140659168362617e-03" rms="4.6764010190963745e-01" purity="4.9450609087944031e-01" nType="0">
          <Node pos="l" depth="2" NCoef="0" IVar="-1" Cut="0.0000000000000000e+00" cType="1" res="-1.1003757390426472e-04" rms="4.7294622659683228e-01" purity="4.4955602288246155e-01" nType="-99"/>
          <Node pos="r" depth="2" NCoef="0" IVar="-1" Cut="0.0000000000000000e+00" cType="1" res="8.6061697220429778e-04" rms="4.4160652160644531e-01" purity="6.9755017757415771e-01" nType="-99"/>
        </Node>
        <Node pos="r" depth="1" NCoef="0" IVar="-1" Cut="0.0000000000000000e+00" cType="1" res="1.4848210848867893e-03" rms="4.4899153709411621e-01" purity="6.1646521091461182e-01" nType="-99"/>
      </Node>
    </BinaryTree>
    <BinaryTree type="DecisionTree" boostWeight="1.0000000000000000e+00" itree="455">
      <Node pos="s" depth="0" NCoef="0" IVar="4" Cut="9.4986140727996826e-01" cType="1" res="4.0047424845397472e-03" rms="4.6647593379020691e-01" purity="5.0012600421905518e-01" nType="0">
        <Node pos="l" depth="1" NCoef="0" IVar="8" Cut="6.7107474803924561e-01" cType="1" res="-1.3177388347685337e-02" rms="4.6764045953750610e-01" purity="3.9448386430740356e-01" nType="0">
          <Node pos="l" depth="2" NCoef="0" IVar="-1" Cut="0.0000000000000000e+00" cType="1" res="8.0159731442108750e-04" rms="4.8373579978942871e-01" purity="4.7663131356239319e-01" nType="-99"/>
          <Node pos="r" depth="2" NCoef="0" IVar="-1" Cut="0.0000000000000000e+00" cType="1" res="-6.9002859527245164e-04" rms="4.6463903784751892e-01" purity="3.8113051652908325e-01" nType="-99"/>
        </Node>
        <Node pos="r" depth="1" NCoef="0" IVar="0" Cut="4.2555347084999084e-02" cType="1" res="1.8719481304287910e-02" rms="4.6497187018394470e-01" purity="5.9059762954711914e-01" nType="0">
          <Node pos="l" depth="2" NCoef="0" IVar="-1" Cut="0.0000000000000000e+00" cType="1" res="1.4125849702395499e-04" rms="4.6717485785484314e-01" purity="5.5542397499084473e-01" nType="-99"/>
          <Node pos="r" depth="2" NCoef="0" IVar="-1" Cut="0.0000000000000000e+00" cType="1" res="1.0225727455690503e-03" rms="4.6068838238716125e-01" purity="6.4566373825073242e-01" nType="-99"/>
        </Node>
      </Node>
    </BinaryTree>
    <BinaryTree type="DecisionTree" boostWeight="1.0000000000000000e+00" itree="456">
      <Node pos="s" depth="0" NCoef="0" IVar="4" Cut="9.2252618074417114e-01" cType="1" res="3.7360698916018009e-03" rms="4.6551716327667236e-01" purity="5.0115323066711426e-01" nType="0">
        <Node pos="l" depth="1" NCoef="0" IVar="1" Cut="6.3243329524993896e-01" cType="1" res="-3.8434103131294250e-02" rms="4.4998264312744141e-01" purity="3.2990965247154236e-01" nType="0">
          <Node pos="l" depth="2" NCoef="0" IVar="-1" Cut="0.0000000000000000e+00" cType="1" res="-2.6219855062663555e-03" rms="4.2282271385192871e-01" purity="2.6443973183631897e-01" nType="-99"/>
          <Node pos="r" depth="2" NCoef="0" IVar="-1" Cut="0.0000000000000000e+00" cType="1" res="-5.4459105012938380e-04" rms="4.7946956753730774e-01" purity="4.0802282094955444e-01" nType="-99"/>
        </Node>
        <Node pos="r" depth="1" NCoef="0" IVar="2" Cut="5.6795184326171875e+02" cType="1" res="1.1167916469275951e-02" rms="4.6780762076377869e-01" purity="5.3133225440979004e-01" nType="0">
          <Node pos="l" depth="2" NCoef="0" IVar="-1" Cut="0.0000000000000000e+00" cType="1" res="-5.8693662140285596e-05" rms="4.6947094798088074e-01" purity="4.7097420692443848e-01" nType="-99"/>
          <Node pos="r" depth="2" NCoef="0" IVar="-1" Cut="0.0000000000000000e+00" cType="1" res="7.7350909123197198e-04" rms="4.6486461162567139e-01" purity="6.1547720432281494e-01" nType="-99"/>
        </Node>
      </Node>
    </BinaryTree>
    <BinaryTree type="DecisionTree" boostWeight="1.0000000000000000e+00" itree="457">
      <Node pos="s" depth="0" NCoef="0" IVar="6" Cut="2.2755771875381470e-01" cType="1" res="1.0851555271074176e-03" rms="4.6547529101371765e-01" purity="4.9838638305664062e-01" nType="0">
        <Node pos="l" depth="1" NCoef="0" IVar="2" Cut="7.5227124023437500e+02" cType="1" res="-2.8650336898863316e-03" rms="4.6585026383399963e-01" purity="4.9166125059127808e-01" nType="0">
          <Node pos="l" depth="2" NCoef="0" IVar="-1" Cut="0.0000000000000000e+00" cType="1" res="-3.0924074235372245e-04" rms="4.6547704935073853e-01" purity="4.6791341900825500e-01" nType="-99"/>
          <Node pos="r" depth="2" NCoef="0" IVar="-1" Cut="0.0000000000000000e+00" cType="1" res="8.7069923756644130e-04" rms="4.6611201763153076e-01" purity="6.1100971698760986e-01" nType="-99"/>
        </Node>
        <Node pos="r" depth="1" NCoef="0" IVar="-1" Cut="0.0000000000000000e+00" cType="1" res="1.6097010811790824e-03" rms="4.5530614256858826e-01" purity="6.0231125354766846e-01" nType="-99"/>
      </Node>
    </BinaryTree>
    <BinaryTree type="DecisionTree" boostWeight="1.0000000000000000e+00" itree="458">
      <Node pos="s" depth="0" NCoef="0" IVar="1" Cut="3.9148306846618652e-01" cType="1" res="5.3859390318393707e-03" rms="4.6698006987571716e-01" purity="5.0239980220794678e-01" nType="0">
        <Node pos="l" depth="1" NCoef="0" IVar="-1" Cut="0.0000000000000000e+00" cType="1" res="-1.4339013723656535e-03" rms="4.5101639628410339e-01" purity="3.9211034774780273e-01" nType="-99"/>
        <Node pos="r" depth="1" NCoef="0" IVar="0" Cut="1.3807006180286407e-01" cType="1" res="8.9838765561580658e-03" rms="4.6801996231079102e-01" purity="5.1105594635009766e-01" nType="0">
          <Node pos="l" depth="2" NCoef="0" IVar="-1" Cut="0.0000000000000000e+00" cType="1" res="7.0578993472736329e-05" rms="4.6760061383247375e-01" purity="4.9329489469528198e-01" nType="-99"/>
          <Node pos="r" depth="2" NCoef="0" IVar="-1" Cut="0.0000000000000000e+00" cType="1" res="1.0994722833856940e-03" rms="4.6870529651641846e-01" purity="5.9838914871215820e-01" nType="-99"/>
        </Node>
      </Node>
    </BinaryTree>
    <BinaryTree type="DecisionTree" boostWeight="1.0000000000000000e+00" itree="459">
      <Node pos="s" depth="0" NCoef="0" IVar="0" Cut="-8.1955343484878540e-02" cType="1" res="9.5542334020137787e-03" rms="4.6728917956352234e-01" purity="5.0635743141174316e-01" nType="0">
        <Node pos="l" depth="1" NCoef="0" IVar="1" Cut="6.5645509958267212e-01" cType="1" res="-1.9282735884189606e-02" rms="4.5652171969413757e-01" purity="4.1927522420883179e-01" nType="0">
          <Node pos="l" depth="2" NCoef="0" IVar="-1" Cut="0.0000000000000000e+00" cType="1" res="-2.5834806729108095e-03" rms="4.3011051416397095e-01" purity="2.7360242605209351e-01" nType="-99"/>
          <Node pos="r" depth="2" NCoef="0" IVar="-1" Cut="0.0000000000000000e+00" cType="1" res="3.5230119829066098e-04" rms="4.7633406519889832e-01" purity="5.4786896705627441e-01" nType="-99"/>
        </Node>
        <Node pos="r" depth="1" NCoef="0" IVar="4" Cut="9.1712117195129395e-01" cType="1" res="1.6455473378300667e-02" rms="4.6956688165664673e-01" purity="5.2719783782958984e-01" nType="0">
          <Node pos="l" depth="2" NCoef="0" IVar="-1" Cut="0.0000000000000000e+00" cType="1" res="-8.5969624342396855e-04" rms="4.6010750532150269e-01" purity="3.5388559103012085e-01" nType="-99"/>
          <Node pos="r" depth="2" NCoef="0" IVar="-1" Cut="0.0000000000000000e+00" cType="1" res="5.9560308000072837e-04" rms="4.7047874331474304e-01" purity="5.4838019609451294e-01" nType="-99"/>
        </Node>
      </Node>
    </BinaryTree>
    <BinaryTree type="DecisionTree" boostWeight="1.0000000000000000e+00" itree="460">
      <Node pos="s" depth="0" NCoef="0" IVar="0" Cut="8.2754246890544891e-02" cType="1" res="-2.3042322136461735e-03" rms="4.6543252468109131e-01" purity="4.9601006507873535e-01" nType="0">
        <Node pos="l" depth="1" NCoef="0" IVar="1" Cut="8.2006692886352539e-01" cType="1" res="-1.5488683246076107e-02" rms="4.6287995576858521e-01" purity="4.6403586864471436e-01" nType="0">
          <Node pos="l" depth="2" NCoef="0" IVar="-1" Cut="0.0000000000000000e+00" cType="1" res="-8.6570665007457137e-04" rms="4.6222963929176331e-01" purity="4.2556101083755493e-01" nType="-99"/>
          <Node pos="r" depth="2" NCoef="0" IVar="-1" Cut="0.0000000000000000e+00" cType="1" res="7.0917938137426972e-04" rms="4.6308794617652893e-01" purity="6.2451416254043579e-01" nType="-99"/>
        </Node>
        <Node pos="r" depth="1" NCoef="0" IVar="3" Cut="6.2513561248779297e+01" cType="1" res="2.7773354202508926e-02" rms="4.6982118487358093e-01" purity="5.6895262002944946e-01" nType="0">
          <Node pos="l" depth="2" NCoef="0" IVar="-1" Cut="0.0000000000000000e+00" cType="1" res="1.4509664615616202e-03" rms="4.6916592121124268e-01" purity="5.8508741855621338e-01" nType="-99"/>
          <Node pos="r" depth="2" NCoef="0" IVar="-1" Cut="0.0000000000000000e+00" cType="1" res="4.8992363736033440e-04" rms="4.6965974569320679e-01" purity="5.6317210197448730e-01" nType="-99"/>
        </Node>
      </Node>
    </BinaryTree>
    <BinaryTree type="DecisionTree" boostWeight="1.0000000000000000e+00" itree="461">
      <Node pos="s" depth="0" NCoef="0" IVar="2" Cut="3.8966079711914062e+02" cType="1" res="6.9653904065489769e-03" rms="4.6646150946617126e-01" purity="5.0466322898864746e-01" nType="0">
        <Node pos="l" depth="1" NCoef="0" IVar="2" Cut="3.5717562866210938e+02" cType="1" res="-4.7271795570850372e-02" rms="4.4023600220680237e-01" purity="3.1103619933128357e-01" nType="0">
          <Node pos="l" depth="2" NCoef="0" IVar="-1" Cut="0.0000000000000000e+00" cType="1" res="-3.1759636476635933e-03" rms="4.2826753854751587e-01" purity="2.7428981661796570e-01" nType="-99"/>
          <Node pos="r" depth="2" NCoef="0" IVar="-1" Cut="0.0000000000000000e+00" cType="1" res="-1.0753972455859184e-03" rms="4.4918379187583923e-01" purity="3.4210789203643799e-01" nType="-99"/>
        </Node>
        <Node pos="r" depth="1" NCoef="0" IVar="5" Cut="3.0598309636116028e-01" cType="1" res="1.4350367709994316e-02" rms="4.6943470835685730e-01" purity="5.3102767467498779e-01" nType="0">
          <Node pos="l" depth="2" NCoef="0" IVar="-1" Cut="0.0000000000000000e+00" cType="1" res="-1.8408536561764777e-04" rms="4.6887758374214172e-01" purity="4.6081474423408508e-01" nType="-99"/>
          <Node pos="r" depth="2" NCoef="0" IVar="-1" Cut="0.0000000000000000e+00" cType="1" res="6.9723190972581506e-04" rms="4.6936765313148499e-01" purity="5.7050919532775879e-01" nType="-99"/>
        </Node>
      </Node>
    </BinaryTree>
    <BinaryTree type="DecisionTree" boostWeight="1.0000000000000000e+00" itree="462">
      <Node pos="s" depth="0" NCoef="0" IVar="1" Cut="8.2046222686767578e-01" cType="1" res="1.7383189697284251e-04" rms="4.6585518121719360e-01" purity="4.9769473075866699e-01" nType="0">
        <Node pos="l" depth="1" NCoef="0" IVar="6" Cut="1.8498979508876801e-01" cType="1" res="-7.4301273562014103e-03" rms="4.6672660112380981e-01" purity="4.7329851984977722e-01" nType="0">
          <Node pos="l" depth="2" NCoef="0" IVar="-1" Cut="0.0000000000000000e+00" cType="1" res="-4.0996907046064734e-04" rms="4.6632218360900879e-01" purity="4.6215429902076721e-01" nType="-99"/>
          <Node pos="r" depth="2" NCoef="0" IVar="-1" Cut="0.0000000000000000e+00" cType="1" res="9.9200813565403223e-04" rms="4.6760219335556030e-01" purity="5.6074488162994385e-01" nType="-99"/>
        </Node>
        <Node pos="r" depth="1" NCoef="0" IVar="2" Cut="5.3987530517578125e+02" cType="1" res="4.5768752694129944e-02" rms="4.5795461535453796e-01" purity="6.4397943019866943e-01" nType="0">
          <Node pos="l" depth="2" NCoef="0" IVar="-1" Cut="0.0000000000000000e+00" cType="1" res="5.4219790035858750e-04" rms="4.7307848930358887e-01" purity="5.5990749597549438e-01" nType="-99"/>
          <Node pos="r" depth="2" NCoef="0" IVar="-1" Cut="0.0000000000000000e+00" cType="1" res="1.5484895557165146e-03" rms="4.4554519653320312e-01" purity="7.0597010850906372e-01" nType="-99"/>
        </Node>
      </Node>
    </BinaryTree>
    <BinaryTree type="DecisionTree" boostWeight="1.0000000000000000e+00" itree="463">
      <Node pos="s" depth="0" NCoef="0" IVar="3" Cut="7.4222618103027344e+01" cType="1" res="1.9042036728933454e-03" rms="4.6642327308654785e-01" purity="4.9883857369422913e-01" nType="0">
        <Node pos="l" depth="1" NCoef="0" IVar="6" Cut="5.4122377187013626e-02" cType="1" res="2.1162101998925209e-02" rms="4.6585303544998169e-01" purity="5.0907564163208008e-01" nType="0">
          <Node pos="l" depth="2" NCoef="0" IVar="-1" Cut="0.0000000000000000e+00" cType="1" res="-2.1986648789606988e-04" rms="4.6358802914619446e-01" purity="4.4673672318458557e-01" nType="-99"/>
          <Node pos="r" depth="2" NCoef="0" IVar="-1" Cut="0.0000000000000000e+00" cType="1" res="9.1089110355824232e-04" rms="4.6628874540328979e-01" purity="5.3413456678390503e-01" nType="-99"/>
        </Node>
        <Node pos="r" depth="1" NCoef="0" IVar="2" Cut="7.4685943603515625e+02" cType="1" res="-9.6547333523631096e-03" rms="4.6638345718383789e-01" purity="4.9269402027130127e-01" nType="0">
          <Node pos="l" depth="2" NCoef="0" IVar="-1" Cut="0.0000000000000000e+00" cType="1" res="-5.9145584236830473e-04" rms="4.6699118614196777e-01" purity="4.6333560347557068e-01" nType="-99"/>
          <Node pos="r" depth="2" NCoef="0" IVar="-1" Cut="0.0000000000000000e+00" cType="1" res="7.2847265983000398e-04" rms="4.6210855245590210e-01" purity="6.1023622751235962e-01" nType="-99"/>
        </Node>
      </Node>
    </BinaryTree>
    <BinaryTree type="DecisionTree" boostWeight="1.0000000000000000e+00" itree="464">
      <Node pos="s" depth="0" NCoef="0" IVar="2" Cut="8.2235357666015625e+02" cType="1" res="5.7761124335229397e-03" rms="4.6725043654441833e-01" purity="5.0206595659255981e-01" nType="0">
        <Node pos="l" depth="1" NCoef="0" IVar="2" Cut="3.5912567138671875e+02" cType="1" res="-2.4233106523752213e-04" rms="4.6786999702453613e-01" purity="4.8454439640045166e-01" nType="0">
          <Node pos="l" depth="2" NCoef="0" IVar="-1" Cut="0.0000000000000000e+00" cType="1" res="-2.4350506719201803e-03" rms="4.3441218137741089e-01" purity="2.8762629628181458e-01" nType="-99"/>
          <Node pos="r" depth="2" NCoef="0" IVar="-1" Cut="0.0000000000000000e+00" cType="1" res="1.0959235805785283e-04" rms="4.6992826461791992e-01" purity="4.9864619970321655e-01" nType="-99"/>
        </Node>
        <Node pos="r" depth="1" NCoef="0" IVar="-1" Cut="0.0000000000000000e+00" cType="1" res="1.3803351903334260e-03" rms="4.5969876646995544e-01" purity="6.3865506649017334e-01" nType="-99"/>
      </Node>
    </BinaryTree>
    <BinaryTree type="DecisionTree" boostWeight="1.0000000000000000e+00" itree="465">
      <Node pos="s" depth="0" NCoef="0" IVar="0" Cut="9.8108023405075073e-02" cType="1" res="2.6104981079697609e-03" rms="4.6494418382644653e-01" purity="4.9990755319595337e-01" nType="0">
        <Node pos="l" depth="1" NCoef="0" IVar="1" Cut="6.0525852441787720e-01" cType="1" res="-7.0940596051514149e-03" rms="4.6337750554084778e-01" purity="4.7257208824157715e-01" nType="0">
          <Node pos="l" depth="2" NCoef="0" IVar="-1" Cut="0.0000000000000000e+00" cType="1" res="-1.7720130272209644e-03" rms="4.4192606210708618e-01" purity="3.1235888600349426e-01" nType="-99"/>
          <Node pos="r" depth="2" NCoef="0" IVar="-1" Cut="0.0000000000000000e+00" cType="1" res="2.6121112750843167e-04" rms="4.7212007641792297e-01" purity="5.4706209897994995e-01" nType="-99"/>
        </Node>
        <Node pos="r" depth="1" NCoef="0" IVar="4" Cut="9.5457589626312256e-01" cType="1" res="2.8339028358459473e-02" rms="4.6809962391853333e-01" purity="5.7237881422042847e-01" nType="0">
          <Node pos="l" depth="2" NCoef="0" IVar="-1" Cut="0.0000000000000000e+00" cType="1" res="2.4904456222429872e-04" rms="4.8263695836067200e-01" purity="4.7914779186248779e-01" nType="-99"/>
          <Node pos="r" depth="2" NCoef="0" IVar="-1" Cut="0.0000000000000000e+00" cType="1" res="1.2899832800030708e-03" rms="4.4885972142219543e-01" purity="6.8439477682113647e-01" nType="-99"/>
        </Node>
      </Node>
    </BinaryTree>
    <BinaryTree type="DecisionTree" boostWeight="1.0000000000000000e+00" itree="466">
      <Node pos="s" depth="0" NCoef="0" IVar="3" Cut="1.4014939880371094e+02" cType="1" res="4.8744115047156811e-03" rms="4.6746581792831421e-01" purity="5.0165319442749023e-01" nType="0">
        <Node pos="l" depth="1" NCoef="0" IVar="3" Cut="6.9969436645507812e+01" cType="1" res="1.7503547132946551e-04" rms="4.6837204694747925e-01" purity="4.9077403545379639e-01" nType="0">
          <Node pos="l" depth="2" NCoef="0" IVar="-1" Cut="0.0000000000000000e+00" cType="1" res="7.0759281516075134e-04" rms="4.6658515930175781e-01" purity="5.1005572080612183e-01" nType="-99"/>
          <Node pos="r" depth="2" NCoef="0" IVar="-1" Cut="0.0000000000000000e+00" cType="1" res="-4.2464522994123399e-04" rms="4.6884760260581970e-01" purity="4.7957131266593933e-01" nType="-99"/>
        </Node>
        <Node pos="r" depth="1" NCoef="0" IVar="-1" Cut="0.0000000000000000e+00" cType="1" res="1.2864612508565187e-03" rms="4.5676195621490479e-01" purity="6.0189563035964966e-01" nType="-99"/>
      </Node>
    </BinaryTree>
    <BinaryTree type="DecisionTree" boostWeight="1.0000000000000000e+00" itree="467">
      <Node pos="s" depth="0" NCoef="0" IVar="6" Cut="1.4250834286212921e-01" cType="1" res="1.8247142434120178e-03" rms="4.6531590819358826e-01" purity="4.9898713827133179e-01" nType="0">
        <Node pos="l" depth="1" NCoef="0" IVar="2" Cut="6.9227148437500000e+02" cType="1" res="-5.6333583779633045e-03" rms="4.6522653102874756e-01" purity="4.8174935579299927e-01" nType="0">
          <Node pos="l" depth="2" NCoef="0" IVar="-1" Cut="0.0000000000000000e+00" cType="1" res="-5.0983659457415342e-04" rms="4.6380826830863953e-01" purity="4.4288513064384460e-01" nType="-99"/>
          <Node pos="r" depth="2" NCoef="0" IVar="-1" Cut="0.0000000000000000e+00" cType="1" res="6.4230692805722356e-04" rms="4.6806946396827698e-01" purity="5.9426963329315186e-01" nType="-99"/>
        </Node>
        <Node pos="r" depth="1" NCoef="0" IVar="2" Cut="5.1195825195312500e+02" cType="1" res="2.7072096243500710e-02" rms="4.6473085880279541e-01" purity="5.5734139680862427e-01" nType="0">
          <Node pos="l" depth="2" NCoef="0" IVar="-1" Cut="0.0000000000000000e+00" cType="1" res="2.6084552519023418e-04" rms="4.7333183884620667e-01" purity="4.8630908131599426e-01" nType="-99"/>
          <Node pos="r" depth="2" NCoef="0" IVar="-1" Cut="0.0000000000000000e+00" cType="1" res="1.4727842062711716e-03" rms="4.4758686423301697e-01" purity="6.8112665414810181e-01" nType="-99"/>
        </Node>
      </Node>
    </BinaryTree>
    <BinaryTree type="DecisionTree" boostWeight="1.0000000000000000e+00" itree="468">
      <Node pos="s" depth="0" NCoef="0" IVar="2" Cut="4.0237567138671875e+02" cType="1" res="3.4365332685410976e-03" rms="4.6702626347541809e-01" purity="5.0039499998092651e-01" nType="0">
        <Node pos="l" depth="1" NCoef="0" IVar="0" Cut="-2.2742301225662231e-02" cType="1" res="-3.2613348215818405e-02" rms="4.4557327032089233e-01" purity="3.3013561367988586e-01" nType="0">
          <Node pos="l" depth="2" NCoef="0" IVar="-1" Cut="0.0000000000000000e+00" cType="1" res="-2.6954088825732470e-03" rms="4.2220681905746460e-01" purity="2.6941025257110596e-01" nType="-99"/>
          <Node pos="r" depth="2" NCoef="0" IVar="-1" Cut="0.0000000000000000e+00" cType="1" res="-5.1303056534379721e-04" rms="4.6157959103584290e-01" purity="3.7596809864044189e-01" nType="-99"/>
        </Node>
        <Node pos="r" depth="1" NCoef="0" IVar="6" Cut="2.7923136949539185e-02" cType="1" res="9.8735168576240540e-03" rms="4.7046345472335815e-01" purity="5.3079617023468018e-01" nType="0">
          <Node pos="l" depth="2" NCoef="0" IVar="-1" Cut="0.0000000000000000e+00" cType="1" res="-1.2144859647378325e-03" rms="4.6789249777793884e-01" purity="4.3132898211479187e-01" nType="-99"/>
          <Node pos="r" depth="2" NCoef="0" IVar="-1" Cut="0.0000000000000000e+00" cType="1" res="4.7322647878900170e-04" rms="4.7045499086380005e-01" purity="5.4583847522735596e-01" nType="-99"/>
        </Node>
      </Node>
    </BinaryTree>
    <BinaryTree type="DecisionTree" boostWeight="1.0000000000000000e+00" itree="469">
      <Node pos="s" depth="0" NCoef="0" IVar="1" Cut="8.4323805570602417e-01" cType="1" res="3.9952523075044155e-03" rms="4.6645542979240417e-01" purity="5.0065201520919800e-01" nType="0">
        <Node pos="l" depth="1" NCoef="0" IVar="0" Cut="-9.5729008316993713e-03" cType="1" res="-1.3191344914957881e-03" rms="4.6692496538162231e-01" purity="4.8376089334487915e-01" nType="0">
          <Node pos="l" depth="2" NCoef="0" IVar="-1" Cut="0.0000000000000000e+00" cType="1" res="-8.4857572801411152e-04" rms="4.5980933308601379e-01" purity="4.1381490230560303e-01" nType="-99"/>
          <Node pos="r" depth="2" NCoef="0" IVar="-1" Cut="0.0000000000000000e+00" cType="1" res="4.5176950516179204e-04" rms="4.7134801745414734e-01" purity="5.3525733947753906e-01" nType="-99"/>
        </Node>
        <Node pos="r" depth="1" NCoef="0" IVar="-1" Cut="0.0000000000000000e+00" cType="1" res="1.2674586614593863e-03" rms="4.5969516038894653e-01" purity="6.4874571561813354e-01" nType="-99"/>
      </Node>
    </BinaryTree>
    <BinaryTree type="DecisionTree" boostWeight="1.0000000000000000e+00" itree="470">
      <Node pos="s" depth="0" NCoef="0" IVar="3" Cut="5.7436027526855469e+01" cType="1" res="2.6374123990535736e-03" rms="4.6695309877395630e-01" purity="4.9890276789665222e-01" nType="0">
        <Node pos="l" depth="1" NCoef="0" IVar="4" Cut="9.5824867486953735e-01" cType="1" res="3.2927878201007843e-02" rms="4.6770238876342773e-01" purity="5.1783978939056396e-01" nType="0">
          <Node pos="l" depth="2" NCoef="0" IVar="-1" Cut="0.0000000000000000e+00" cType="1" res="5.8561714831739664e-04" rms="4.7321024537086487e-01" purity="4.3170508742332458e-01" nType="-99"/>
          <Node pos="r" depth="2" NCoef="0" IVar="-1" Cut="0.0000000000000000e+00" cType="1" res="1.3511931756511331e-03" rms="4.5864599943161011e-01" purity="6.4474308490753174e-01" nType="-99"/>
        </Node>
        <Node pos="r" depth="1" NCoef="0" IVar="3" Cut="1.3685105895996094e+02" cType="1" res="-5.3232754580676556e-03" rms="4.6642968058586121e-01" purity="4.9392592906951904e-01" nType="0">
          <Node pos="l" depth="2" NCoef="0" IVar="-1" Cut="0.0000000000000000e+00" cType="1" res="-3.6747663398273289e-04" rms="4.6709924936294556e-01" purity="4.7896447777748108e-01" nType="-99"/>
          <Node pos="r" depth="2" NCoef="0" IVar="-1" Cut="0.0000000000000000e+00" cType="1" res="9.9933776073157787e-04" rms="4.5993676781654358e-01" purity="5.8913576602935791e-01" nType="-99"/>
        </Node>
      </Node>
    </BinaryTree>
    <BinaryTree type="DecisionTree" boostWeight="1.0000000000000000e+00" itree="471">
      <Node pos="s" depth="0" NCoef="0" IVar="3" Cut="1.3449467468261719e+02" cType="1" res="6.4976918511092663e-03" rms="4.6546432375907898e-01" purity="5.0430476665496826e-01" nType="0">
        <Node pos="l" depth="1" NCoef="0" IVar="4" Cut="9.8556572198867798e-01" cType="1" res="1.7538228712510318e-04" rms="4.6649125218391418e-01" purity="4.9109899997711182e-01" nType="0">
          <Node pos="l" depth="2" NCoef="0" IVar="-1" Cut="0.0000000000000000e+00" cType="1" res="-1.7473797197453678e-04" rms="4.7086137533187866e-01" purity="4.6425619721412659e-01" nType="-99"/>
          <Node pos="r" depth="2" NCoef="0" IVar="-1" Cut="0.0000000000000000e+00" cType="1" res="1.3894819421693683e-03" rms="4.1859278082847595e-01" purity="7.4673283100128174e-01" nType="-99"/>
        </Node>
        <Node pos="r" depth="1" NCoef="0" IVar="2" Cut="5.9950024414062500e+02" cType="1" res="5.2383817732334137e-02" rms="4.5531889796257019e-01" purity="6.0014981031417847e-01" nType="0">
          <Node pos="l" depth="2" NCoef="0" IVar="-1" Cut="0.0000000000000000e+00" cType="1" res="6.9617271947208792e-05" rms="4.6797183156013489e-01" purity="4.8596927523612976e-01" nType="-99"/>
          <Node pos="r" depth="2" NCoef="0" IVar="-1" Cut="0.0000000000000000e+00" cType="1" res="2.3087323643267155e-03" rms="4.4046768546104431e-01" purity="6.9364780187606812e-01" nType="-99"/>
        </Node>
      </Node>
    </BinaryTree>
    <BinaryTree type="DecisionTree" boostWeight="1.0000000000000000e+00" itree="472">
      <Node pos="s" depth="0" NCoef="0" IVar="0" Cut="-1.1045370250940323e-02" cType="1" res="2.3530183825641870e-03" rms="4.6561968326568604e-01" purity="5.0007629394531250e-01" nType="0">
        <Node pos="l" depth="1" NCoef="0" IVar="1" Cut="7.9639488458633423e-01" cType="1" res="-1.2939344160258770e-02" rms="4.6227881312370300e-01" purity="4.5163935422897339e-01" nType="0">
          <Node pos="l" depth="2" NCoef="0" IVar="-1" Cut="0.0000000000000000e+00" cType="1" res="-1.1899052187800407e-03" rms="4.5900300145149231e-01" purity="3.8053849339485168e-01" nType="-99"/>
          <Node pos="r" depth="2" NCoef="0" IVar="-1" Cut="0.0000000000000000e+00" cType="1" res="8.8784220861271024e-04" rms="4.6663028001785278e-01" purity="6.2187784910202026e-01" nType="-99"/>
        </Node>
        <Node pos="r" depth="1" NCoef="0" IVar="8" Cut="1.0745292901992798e+00" cType="1" res="1.5317537821829319e-02" rms="4.6804213523864746e-01" purity="5.4114001989364624e-01" nType="0">
          <Node pos="l" depth="2" NCoef="0" IVar="-1" Cut="0.0000000000000000e+00" cType="1" res="8.9897599536925554e-04" rms="4.6695941686630249e-01" purity="5.8299291133880615e-01" nType="-99"/>
          <Node pos="r" depth="2" NCoef="0" IVar="-1" Cut="0.0000000000000000e+00" cType="1" res="-1.2521374446805567e-04" rms="4.6842545270919800e-01" purity="4.9599117040634155e-01" nType="-99"/>
        </Node>
      </Node>
    </BinaryTree>
    <BinaryTree type="DecisionTree" boostWeight="1.0000000000000000e+00" itree="473">
      <Node pos="s" depth="0" NCoef="0" IVar="0" Cut="-7.6565846800804138e-02" cType="1" res="1.1425588127167430e-05" rms="4.6643751859664917e-01" purity="4.9735742807388306e-01" nType="0">
        <Node pos="l" depth="1" NCoef="0" IVar="1" Cut="7.7531725168228149e-01" cType="1" res="-2.8667572885751724e-02" rms="4.5933482050895691e-01" purity="4.1047409176826477e-01" nType="0">
          <Node pos="l" depth="2" NCoef="0" IVar="-1" Cut="0.0000000000000000e+00" cType="1" res="-1.8080356530845165e-03" rms="4.5123755931854248e-01" purity="3.3143424987792969e-01" nType="-99"/>
          <Node pos="r" depth="2" NCoef="0" IVar="-1" Cut="0.0000000000000000e+00" cType="1" res="1.5792074555065483e-04" rms="4.7451853752136230e-01" purity="5.8126121759414673e-01" nType="-99"/>
        </Node>
        <Node pos="r" depth="1" NCoef="0" IVar="4" Cut="9.0900611877441406e-01" cType="1" res="7.9682553187012672e-03" rms="4.6807777881622314e-01" purity="5.2146273851394653e-01" nType="0">
          <Node pos="l" depth="2" NCoef="0" IVar="-1" Cut="0.0000000000000000e+00" cType="1" res="-2.3357018362730742e-03" rms="4.4990706443786621e-01" purity="3.1846928596496582e-01" nType="-99"/>
          <Node pos="r" depth="2" NCoef="0" IVar="-1" Cut="0.0000000000000000e+00" cType="1" res="3.6036423989571631e-04" rms="4.6894606947898865e-01" purity="5.3543055057525635e-01" nType="-99"/>
        </Node>
      </Node>
    </BinaryTree>
    <BinaryTree type="DecisionTree" boostWeight="1.0000000000000000e+00" itree="474">
      <Node pos="s" depth="0" NCoef="0" IVar="2" Cut="5.2588793945312500e+02" cType="1" res="6.0755717568099499e-03" rms="4.6583294868469238e-01" purity="5.0401365756988525e-01" nType="0">
        <Node pos="l" depth="1" NCoef="0" IVar="3" Cut="8.1401557922363281e+01" cType="1" res="-9.1993175446987152e-03" rms="4.6304151415824890e-01" purity="4.2367035150527954e-01" nType="0">
          <Node pos="l" depth="2" NCoef="0" IVar="-1" Cut="0.0000000000000000e+00" cType="1" res="3.0517991399392486e-04" rms="4.6417260169982910e-01" purity="4.4821944832801819e-01" nType="-99"/>
          <Node pos="r" depth="2" NCoef="0" IVar="-1" Cut="0.0000000000000000e+00" cType="1" res="-1.0984548134729266e-03" rms="4.6070975065231323e-01" purity="3.9461559057235718e-01" nType="-99"/>
        </Node>
        <Node pos="r" depth="1" NCoef="0" IVar="3" Cut="1.2648859405517578e+02" cType="1" res="2.0425608381628990e-02" rms="4.6798625588417053e-01" purity="5.7949244976043701e-01" nType="0">
          <Node pos="l" depth="2" NCoef="0" IVar="-1" Cut="0.0000000000000000e+00" cType="1" res="2.8842251049354672e-04" rms="4.6993246674537659e-01" purity="5.6378632783889771e-01" nType="-99"/>
          <Node pos="r" depth="2" NCoef="0" IVar="-1" Cut="0.0000000000000000e+00" cType="1" res="1.4288706006482244e-03" rms="4.5927473902702332e-01" purity="6.3510572910308838e-01" nType="-99"/>
        </Node>
      </Node>
    </BinaryTree>
    <BinaryTree type="DecisionTree" boostWeight="1.0000000000000000e+00" itree="475">
      <Node pos="s" depth="0" NCoef="0" IVar="1" Cut="8.4458422660827637e-01" cType="1" res="3.7998396437615156e-03" rms="4.6590632200241089e-01" purity="5.0190925598144531e-01" nType="0">
        <Node pos="l" depth="1" NCoef="0" IVar="4" Cut="9.7178369760513306e-01" cType="1" res="-1.4616431435570121e-03" rms="4.6665674448013306e-01" purity="4.8512300848960876e-01" nType="0">
          <Node pos="l" depth="2" NCoef="0" IVar="-1" Cut="0.0000000000000000e+00" cType="1" res="-2.8365908656269312e-04" rms="4.7040316462516785e-01" purity="4.3224340677261353e-01" nType="-99"/>
          <Node pos="r" depth="2" NCoef="0" IVar="-1" Cut="0.0000000000000000e+00" cType="1" res="6.0704257339239120e-04" rms="4.5287695527076721e-01" purity="6.6399389505386353e-01" nType="-99"/>
        </Node>
        <Node pos="r" depth="1" NCoef="0" IVar="-1" Cut="0.0000000000000000e+00" cType="1" res="1.2494239490479231e-03" rms="4.5660176873207092e-01" purity="6.5014696121215820e-01" nType="-99"/>
      </Node>
    </BinaryTree>
    <BinaryTree type="DecisionTree" boostWeight="1.0000000000000000e+00" itree="476">
      <Node pos="s" depth="0" NCoef="0" IVar="0" Cut="1.0007241368293762e-01" cType="1" res="2.7344741392880678e-03" rms="4.6652883291244507e-01" purity="5.0017905235290527e-01" nType="0">
        <Node pos="l" depth="1" NCoef="0" IVar="1" Cut="6.2882947921752930e-01" cType="1" res="-5.0249784253537655e-03" rms="4.6511584520339966e-01" purity="4.7500184178352356e-01" nType="0">
          <Node pos="l" depth="2" NCoef="0" IVar="-1" Cut="0.0000000000000000e+00" cType="1" res="-1.0227781021967530e-03" rms="4.5179751515388489e-01" purity="3.4050503373146057e-01" nType="-99"/>
          <Node pos="r" depth="2" NCoef="0" IVar="-1" Cut="0.0000000000000000e+00" cType="1" res="2.0048824080731720e-04" rms="4.7233870625495911e-01" purity="5.5403751134872437e-01" nType="-99"/>
        </Node>
        <Node pos="r" depth="1" NCoef="0" IVar="4" Cut="9.5007967948913574e-01" cType="1" res="2.4072727188467979e-02" rms="4.6973216533660889e-01" purity="5.6941550970077515e-01" nType="0">
          <Node pos="l" depth="2" NCoef="0" IVar="-1" Cut="0.0000000000000000e+00" cType="1" res="8.4525254351319745e-06" rms="4.8499551415443420e-01" purity="4.5761629939079285e-01" nType="-99"/>
          <Node pos="r" depth="2" NCoef="0" IVar="-1" Cut="0.0000000000000000e+00" cType="1" res="1.1148152407258749e-03" rms="4.5501229166984558e-01" purity="6.6677254438400269e-01" nType="-99"/>
        </Node>
      </Node>
    </BinaryTree>
    <BinaryTree type="DecisionTree" boostWeight="1.0000000000000000e+00" itree="477">
      <Node pos="s" depth="0" NCoef="0" IVar="4" Cut="9.7189211845397949e-01" cType="1" res="2.9288153164088726e-03" rms="4.6683040261268616e-01" purity="4.9953374266624451e-01" nType="0">
        <Node pos="l" depth="1" NCoef="0" IVar="8" Cut="9.6366757154464722e-01" cType="1" res="-5.5076163262128830e-03" rms="4.7304779291152954e-01" purity="4.4354951381683350e-01" nType="0">
          <Node pos="l" depth="2" NCoef="0" IVar="-1" Cut="0.0000000000000000e+00" cType="1" res="2.6521229301579297e-04" rms="4.7905141115188599e-01" purity="4.9197715520858765e-01" nType="-99"/>
          <Node pos="r" depth="2" NCoef="0" IVar="-1" Cut="0.0000000000000000e+00" cType="1" res="-5.2802811842411757e-04" rms="4.6851915121078491e-01" purity="4.0957406163215637e-01" nType="-99"/>
        </Node>
        <Node pos="r" depth="1" NCoef="0" IVar="4" Cut="9.8722326755523682e-01" cType="1" res="3.0806230381131172e-02" rms="4.4453194737434387e-01" purity="6.8452870845794678e-01" nType="0">
          <Node pos="l" depth="2" NCoef="0" IVar="-1" Cut="0.0000000000000000e+00" cType="1" res="4.3085208744741976e-04" rms="4.5829617977142334e-01" purity="6.4704513549804688e-01" nType="-99"/>
          <Node pos="r" depth="2" NCoef="0" IVar="-1" Cut="0.0000000000000000e+00" cType="1" res="1.4110677875578403e-03" rms="4.1722124814987183e-01" purity="7.5239413976669312e-01" nType="-99"/>
        </Node>
      </Node>
    </BinaryTree>
    <BinaryTree type="DecisionTree" boostWeight="1.0000000000000000e+00" itree="478">
      <Node pos="s" depth="0" NCoef="0" IVar="4" Cut="9.8546850681304932e-01" cType="1" res="2.0479606464505196e-03" rms="4.6566358208656311e-01" purity="4.9964463710784912e-01" nType="0">
        <Node pos="l" depth="1" NCoef="0" IVar="3" Cut="1.3887268066406250e+02" cType="1" res="-2.9805928934365511e-03" rms="4.6992424130439758e-01" purity="4.7350713610649109e-01" nType="0">
          <Node pos="l" depth="2" NCoef="0" IVar="-1" Cut="0.0000000000000000e+00" cType="1" res="-2.2842687030788511e-04" rms="4.7059771418571472e-01" purity="4.6283021569252014e-01" nType="-99"/>
          <Node pos="r" depth="2" NCoef="0" IVar="-1" Cut="0.0000000000000000e+00" cType="1" res="1.0055011371150613e-03" rms="4.6179303526878357e-01" purity="5.7134526968002319e-01" nType="-99"/>
        </Node>
        <Node pos="r" depth="1" NCoef="0" IVar="-1" Cut="0.0000000000000000e+00" cType="1" res="1.2427474139258265e-03" rms="4.2047762870788574e-01" purity="7.4591064453125000e-01" nType="-99"/>
      </Node>
    </BinaryTree>
    <BinaryTree type="DecisionTree" boostWeight="1.0000000000000000e+00" itree="479">
      <Node pos="s" depth="0" NCoef="0" IVar="0" Cut="1.5239004790782928e-01" cType="1" res="3.6265212111175060e-03" rms="4.6574312448501587e-01" purity="5.0195276737213135e-01" nType="0">
        <Node pos="l" depth="1" NCoef="0" IVar="1" Cut="4.6320971846580505e-01" cType="1" res="-3.1925768125802279e-03" rms="4.6518844366073608e-01" purity="4.8269084095954895e-01" nType="0">
          <Node pos="l" depth="2" NCoef="0" IVar="-1" Cut="0.0000000000000000e+00" cType="1" res="-2.4314529728144407e-03" rms="4.2806515097618103e-01" purity="2.8007560968399048e-01" nType="-99"/>
          <Node pos="r" depth="2" NCoef="0" IVar="-1" Cut="0.0000000000000000e+00" cType="1" res="8.3551785792224109e-05" rms="4.6911382675170898e-01" purity="5.0714403390884399e-01" nType="-99"/>
        </Node>
        <Node pos="r" depth="1" NCoef="0" IVar="4" Cut="9.3791967630386353e-01" cType="1" res="3.5341475158929825e-02" rms="4.6700769662857056e-01" purity="5.9153842926025391e-01" nType="0">
          <Node pos="l" depth="2" NCoef="0" IVar="-1" Cut="0.0000000000000000e+00" cType="1" res="2.6009068824350834e-04" rms="4.8557996749877930e-01" purity="4.5645627379417419e-01" nType="-99"/>
          <Node pos="r" depth="2" NCoef="0" IVar="-1" Cut="0.0000000000000000e+00" cType="1" res="1.1776536703109741e-03" rms="4.5821467041969299e-01" purity="6.5031105279922485e-01" nType="-99"/>
        </Node>
      </Node>
    </BinaryTree>
    <BinaryTree type="DecisionTree" boostWeight="1.0000000000000000e+00" itree="480">
      <Node pos="s" depth="0" NCoef="0" IVar="0" Cut="2.2513025999069214e-01" cType="1" res="-7.8172981739044189e-04" rms="4.6473786234855652e-01" purity="4.9752259254455566e-01" nType="0">
        <Node pos="l" depth="1" NCoef="0" IVar="1" Cut="4.1260874271392822e-01" cType="1" res="-5.3445491939783096e-03" rms="4.6466323733329773e-01" purity="4.8775219917297363e-01" nType="0">
          <Node pos="l" depth="2" NCoef="0" IVar="-1" Cut="0.0000000000000000e+00" cType="1" res="-3.4710066393017769e-03" rms="4.3139010667800903e-01" purity="2.8164467215538025e-01" nType="-99"/>
          <Node pos="r" depth="2" NCoef="0" IVar="-1" Cut="0.0000000000000000e+00" cType="1" res="-9.5089098977041431e-06" rms="4.6648359298706055e-01" purity="5.0214552879333496e-01" nType="-99"/>
        </Node>
        <Node pos="r" depth="1" NCoef="0" IVar="-1" Cut="0.0000000000000000e+00" cType="1" res="1.4516835799440742e-03" rms="4.6168112754821777e-01" purity="6.2342941761016846e-01" nType="-99"/>
      </Node>
    </BinaryTree>
    <BinaryTree type="DecisionTree" boostWeight="1.0000000000000000e+00" itree="481">
      <Node pos="s" depth="0" NCoef="0" IVar="8" Cut="6.8974155187606812e-01" cType="1" res="4.1740266606211662e-03" rms="4.6518316864967346e-01" purity="5.0327229499816895e-01" nType="0">
        <Node pos="l" depth="1" NCoef="0" IVar="7" Cut="9.0790962219238281e+01" cType="1" res="3.8825247436761856e-02" rms="4.6312138438224792e-01" purity="5.8193314075469971e-01" nType="0">
          <Node pos="l" depth="2" NCoef="0" IVar="-1" Cut="0.0000000000000000e+00" cType="1" res="2.5401753373444080e-04" rms="4.7091597318649292e-01" purity="5.3102761507034302e-01" nType="-99"/>
          <Node pos="r" depth="2" NCoef="0" IVar="-1" Cut="0.0000000000000000e+00" cType="1" res="1.4965197769924998e-03" rms="4.5772528648376465e-01" purity="6.1105507612228394e-01" nType="-99"/>
        </Node>
        <Node pos="r" depth="1" NCoef="0" IVar="6" Cut="5.7409502565860748e-02" cType="1" res="-2.4984965566545725e-03" rms="4.6528294682502747e-01" purity="4.8812514543533325e-01" nType="0">
          <Node pos="l" depth="2" NCoef="0" IVar="-1" Cut="0.0000000000000000e+00" cType="1" res="-8.7000994244590402e-04" rms="4.6154394745826721e-01" purity="4.3116599321365356e-01" nType="-99"/>
          <Node pos="r" depth="2" NCoef="0" IVar="-1" Cut="0.0000000000000000e+00" cType="1" res="2.4997233413159847e-04" rms="4.6660396456718445e-01" purity="5.1468396186828613e-01" nType="-99"/>
        </Node>
      </Node>
    </BinaryTree>
    <BinaryTree type="DecisionTree" boostWeight="1.0000000000000000e+00" itree="482">
      <Node pos="s" depth="0" NCoef="0" IVar="0" Cut="6.2936857342720032e-02" cType="1" res="-1.3846314686816186e-04" rms="4.6468633413314819e-01" purity="4.9878671765327454e-01" nType="0">
        <Node pos="l" depth="1" NCoef="0" IVar="1" Cut="7.4572110176086426e-01" cType="1" res="-1.1609402485191822e-02" rms="4.6261277794837952e-01" purity="4.6536952257156372e-01" nType="0">
          <Node pos="l" depth="2" NCoef="0" IVar="-1" Cut="0.0000000000000000e+00" cType="1" res="-1.0640847031027079e-03" rms="4.5834326744079590e-01" purity="3.8245642185211182e-01" nType="-99"/>
          <Node pos="r" depth="2" NCoef="0" IVar="-1" Cut="0.0000000000000000e+00" cType="1" res="4.5440992107614875e-04" rms="4.6789762377738953e-01" purity="5.9738063812255859e-01" nType="-99"/>
        </Node>
        <Node pos="r" depth="1" NCoef="0" IVar="1" Cut="5.3280383348464966e-01" cType="1" res="2.1606598049402237e-02" rms="4.6782064437866211e-01" purity="5.6213450431823730e-01" nType="0">
          <Node pos="l" depth="2" NCoef="0" IVar="-1" Cut="0.0000000000000000e+00" cType="1" res="-6.5263440774288028e-05" rms="4.7305759787559509e-01" purity="5.0810647010803223e-01" nType="-99"/>
          <Node pos="r" depth="2" NCoef="0" IVar="-1" Cut="0.0000000000000000e+00" cType="1" res="1.1831190204247832e-03" rms="4.6132129430770874e-01" purity="6.1596256494522095e-01" nType="-99"/>
        </Node>
      </Node>
    </BinaryTree>
    <BinaryTree type="DecisionTree" boostWeight="1.0000000000000000e+00" itree="483">
      <Node pos="s" depth="0" NCoef="0" IVar="8" Cut="1.1514191627502441e+00" cType="1" res="3.9172624237835407e-03" rms="4.6627891063690186e-01" purity="4.9996918439865112e-01" nType="0">
        <Node pos="l" depth="1" NCoef="0" IVar="6" Cut="5.5169519037008286e-02" cType="1" res="1.9801890477538109e-02" rms="4.6951332688331604e-01" purity="5.3898990154266357e-01" nType="0">
          <Node pos="l" depth="2" NCoef="0" IVar="-1" Cut="0.0000000000000000e+00" cType="1" res="-1.6792693349998444e-04" rms="4.6889048814773560e-01" purity="4.8452550172805786e-01" nType="-99"/>
          <Node pos="r" depth="2" NCoef="0" IVar="-1" Cut="0.0000000000000000e+00" cType="1" res="9.0122653637081385e-04" rms="4.6929556131362915e-01" purity="5.6734579801559448e-01" nType="-99"/>
        </Node>
        <Node pos="r" depth="1" NCoef="0" IVar="2" Cut="4.9534689331054688e+02" cType="1" res="-1.9467815756797791e-02" rms="4.6047991514205933e-01" purity="4.4252347946166992e-01" nType="0">
          <Node pos="l" depth="2" NCoef="0" IVar="-1" Cut="0.0000000000000000e+00" cType="1" res="-1.4023666735738516e-03" rms="4.5028588175773621e-01" purity="3.5503998398780823e-01" nType="-99"/>
          <Node pos="r" depth="2" NCoef="0" IVar="-1" Cut="0.0000000000000000e+00" cType="1" res="-6.3645100453868508e-05" rms="4.6958604454994202e-01" purity="5.2801614999771118e-01" nType="-99"/>
        </Node>
      </Node>
    </BinaryTree>
    <BinaryTree type="DecisionTree" boostWeight="1.0000000000000000e+00" itree="484">
      <Node pos="s" depth="0" NCoef="0" IVar="4" Cut="9.2252421379089355e-01" cType="1" res="-6.6614680690690875e-04" rms="4.6603375673294067e-01" purity="4.9512341618537903e-01" nType="0">
        <Node pos="l" depth="1" NCoef="0" IVar="5" Cut="3.8979908823966980e-01" cType="1" res="-3.5160716623067856e-02" rms="4.4918549060821533e-01" purity="3.3256968855857849e-01" nType="0">
          <Node pos="l" depth="2" NCoef="0" IVar="-1" Cut="0.0000000000000000e+00" cType="1" res="-2.2133507300168276e-03" rms="4.3096739053726196e-01" purity="2.9072302579879761e-01" nType="-99"/>
          <Node pos="r" depth="2" NCoef="0" IVar="-1" Cut="0.0000000000000000e+00" cType="1" res="-5.5766117293387651e-04" rms="4.6888253092765808e-01" purity="3.8152754306793213e-01" nType="-99"/>
        </Node>
        <Node pos="r" depth="1" NCoef="0" IVar="0" Cut="2.1022741496562958e-01" cType="1" res="5.5160764604806900e-03" rms="4.6872121095657349e-01" purity="5.2425682544708252e-01" nType="0">
          <Node pos="l" depth="2" NCoef="0" IVar="-1" Cut="0.0000000000000000e+00" cType="1" res="3.4011682146228850e-05" rms="4.6893459558486938e-01" purity="5.1332885026931763e-01" nType="-99"/>
          <Node pos="r" depth="2" NCoef="0" IVar="-1" Cut="0.0000000000000000e+00" cType="1" res="1.2707465793937445e-03" rms="4.6416386961936951e-01" purity="6.3637131452560425e-01" nType="-99"/>
        </Node>
      </Node>
    </BinaryTree>
    <BinaryTree type="DecisionTree" boostWeight="1.0000000000000000e+00" itree="485">
      <Node pos="s" depth="0" NCoef="0" IVar="8" Cut="1.0577896833419800e+00" cType="1" res="2.6616968680173159e-03" rms="4.6576774120330811e-01" purity="5.0013220310211182e-01" nType="0">
        <Node pos="l" depth="1" NCoef="0" IVar="5" Cut="4.8430171608924866e-01" cType="1" res="1.6142494976520538e-02" rms="4.6848517656326294e-01" purity="5.4102313518524170e-01" nType="0">
          <Node pos="l" depth="2" NCoef="0" IVar="-1" Cut="0.0000000000000000e+00" cType="1" res="1.6831561515573412e-04" rms="4.6915820240974426e-01" purity="5.1367753744125366e-01" nType="-99"/>
          <Node pos="r" depth="2" NCoef="0" IVar="-1" Cut="0.0000000000000000e+00" cType="1" res="9.8755210638046265e-04" rms="4.6635094285011292e-01" purity="5.9756541252136230e-01" nType="-99"/>
        </Node>
        <Node pos="r" depth="1" NCoef="0" IVar="3" Cut="1.4275094604492188e+02" cType="1" res="-1.1398098431527615e-02" rms="4.6249818801879883e-01" purity="4.5748496055603027e-01" nType="0">
          <Node pos="l" depth="2" NCoef="0" IVar="-1" Cut="0.0000000000000000e+00" cType="1" res="-6.0816202312707901e-04" rms="4.6305522322654724e-01" purity="4.3897485733032227e-01" nType="-99"/>
          <Node pos="r" depth="2" NCoef="0" IVar="-1" Cut="0.0000000000000000e+00" cType="1" res="1.0394997661933303e-03" rms="4.5567220449447632e-01" purity="5.8299374580383301e-01" nType="-99"/>
        </Node>
      </Node>
    </BinaryTree>
    <BinaryTree type="DecisionTree" boostWeight="1.0000000000000000e+00" itree="486">
      <Node pos="s" depth="0" NCoef="0" IVar="4" Cut="9.0833681821823120e-01" cType="1" res="6.8285926245152950e-03" rms="4.6494877338409424e-01" purity="5.0470608472824097e-01" nType="0">
        <Node pos="l" depth="1" NCoef="0" IVar="-1" Cut="0.0000000000000000e+00" cType="1" res="-2.0270282402634621e-03" rms="4.4117510318756104e-01" purity="3.0688413977622986e-01" nType="-99"/>
        <Node pos="r" depth="1" NCoef="0" IVar="2" Cut="3.8966079711914062e+02" cType="1" res="1.0625212453305721e-02" rms="4.6625271439552307e-01" purity="5.1796394586563110e-01" nType="0">
          <Node pos="l" depth="2" NCoef="0" IVar="-1" Cut="0.0000000000000000e+00" cType="1" res="-1.0820090537890792e-03" rms="4.5027789473533630e-01" purity="3.3752676844596863e-01" nType="-99"/>
          <Node pos="r" depth="2" NCoef="0" IVar="-1" Cut="0.0000000000000000e+00" cType="1" res="4.4671914656646550e-04" rms="4.6810778975486755e-01" purity="5.4205614328384399e-01" nType="-99"/>
        </Node>
      </Node>
    </BinaryTree>
    <BinaryTree type="DecisionTree" boostWeight="1.0000000000000000e+00" itree="487">
      <Node pos="s" depth="0" NCoef="0" IVar="1" Cut="4.0816670656204224e-01" cType="1" res="4.4043217785656452e-03" rms="4.6591642498970032e-01" purity="5.0246119499206543e-01" nType="0">
        <Node pos="l" depth="1" NCoef="0" IVar="-1" Cut="0.0000000000000000e+00" cType="1" res="-1.3893245486542583e-03" rms="4.4526064395904541e-01" purity="3.9330708980560303e-01" nType="-99"/>
        <Node pos="r" depth="1" NCoef="0" IVar="0" Cut="8.0507867038249969e-02" cType="1" res="8.9046135544776917e-03" rms="4.6777164936065674e-01" purity="5.1375943422317505e-01" nType="0">
          <Node pos="l" depth="2" NCoef="0" IVar="-1" Cut="0.0000000000000000e+00" cType="1" res="2.0097806554986164e-05" rms="4.6770146489143372e-01" purity="4.8793524503707886e-01" nType="-99"/>
          <Node pos="r" depth="2" NCoef="0" IVar="-1" Cut="0.0000000000000000e+00" cType="1" res="8.3258259110152721e-04" rms="4.6724903583526611e-01" purity="5.8254194259643555e-01" nType="-99"/>
        </Node>
      </Node>
    </BinaryTree>
    <BinaryTree type="DecisionTree" boostWeight="1.0000000000000000e+00" itree="488">
      <Node pos="s" depth="0" NCoef="0" IVar="0" Cut="2.2319173812866211e-01" cType="1" res="-9.7719673067331314e-04" rms="4.6653237938880920e-01" purity="4.9518418312072754e-01" nType="0">
        <Node pos="l" depth="1" NCoef="0" IVar="1" Cut="4.1383188962936401e-01" cType="1" res="-4.8103481531143188e-03" rms="4.6631982922554016e-01" purity="4.8596465587615967e-01" nType="0">
          <Node pos="l" depth="2" NCoef="0" IVar="-1" Cut="0.0000000000000000e+00" cType="1" res="-3.4229131415486336e-03" rms="4.2457810044288635e-01" purity="2.8533393144607544e-01" nType="-99"/>
          <Node pos="r" depth="2" NCoef="0" IVar="-1" Cut="0.0000000000000000e+00" cType="1" res="1.2380713997117709e-05" rms="4.6876472234725952e-01" purity="5.0048011541366577e-01" nType="-99"/>
        </Node>
        <Node pos="r" depth="1" NCoef="0" IVar="-1" Cut="0.0000000000000000e+00" cType="1" res="1.2257393682375550e-03" rms="4.6650952100753784e-01" purity="6.1143934726715088e-01" nType="-99"/>
      </Node>
    </BinaryTree>
    <BinaryTree type="DecisionTree" boostWeight="1.0000000000000000e+00" itree="489">
      <Node pos="s" depth="0" NCoef="0" IVar="3" Cut="1.4077769470214844e+02" cType="1" res="5.8872713707387447e-03" rms="4.6653375029563904e-01" purity="5.0276088714599609e-01" nType="0">
        <Node pos="l" depth="1" NCoef="0" IVar="6" Cut="1.2788218259811401e-01" cType="1" res="9.5938198501244187e-04" rms="4.6732705831527710e-01" purity="4.9184608459472656e-01" nType="0">
          <Node pos="l" depth="2" NCoef="0" IVar="-1" Cut="0.0000000000000000e+00" cType="1" res="-2.2412584803532809e-04" rms="4.6642601490020752e-01" purity="4.7148242592811584e-01" nType="-99"/>
          <Node pos="r" depth="2" NCoef="0" IVar="-1" Cut="0.0000000000000000e+00" cType="1" res="5.9885479276999831e-04" rms="4.6895751357078552e-01" purity="5.4284286499023438e-01" nType="-99"/>
        </Node>
        <Node pos="r" depth="1" NCoef="0" IVar="-1" Cut="0.0000000000000000e+00" cType="1" res="1.4201294397935271e-03" rms="4.5635527372360229e-01" purity="6.0585737228393555e-01" nType="-99"/>
      </Node>
    </BinaryTree>
    <BinaryTree type="DecisionTree" boostWeight="1.0000000000000000e+00" itree="490">
      <Node pos="s" depth="0" NCoef="0" IVar="0" Cut="1.1809207499027252e-01" cType="1" res="1.2840116396546364e-03" rms="4.6528756618499756e-01" purity="4.9907508492469788e-01" nType="0">
        <Node pos="l" depth="1" NCoef="0" IVar="1" Cut="7.2365003824234009e-01" cType="1" res="-6.1143925413489342e-03" rms="4.6406176686286926e-01" purity="4.7572642564773560e-01" nType="0">
          <Node pos="l" depth="2" NCoef="0" IVar="-1" Cut="0.0000000000000000e+00" cType="1" res="-7.2088238084688783e-04" rms="4.6106430888175964e-01" purity="3.9731389284133911e-01" nType="-99"/>
          <Node pos="r" depth="2" NCoef="0" IVar="-1" Cut="0.0000000000000000e+00" cType="1" res="4.0969238034449518e-04" rms="4.6768793463706970e-01" purity="5.9301102161407471e-01" nType="-99"/>
        </Node>
        <Node pos="r" depth="1" NCoef="0" IVar="0" Cut="2.3455035686492920e-01" cType="1" res="2.5367539376020432e-02" rms="4.6844699978828430e-01" purity="5.7508027553558350e-01" nType="0">
          <Node pos="l" depth="2" NCoef="0" IVar="-1" Cut="0.0000000000000000e+00" cType="1" res="4.1570141911506653e-04" rms="4.6815240383148193e-01" purity="5.5988210439682007e-01" nType="-99"/>
          <Node pos="r" depth="2" NCoef="0" IVar="-1" Cut="0.0000000000000000e+00" cType="1" res="1.3939961791038513e-03" rms="4.6803358197212219e-01" purity="6.1827784776687622e-01" nType="-99"/>
        </Node>
      </Node>
    </BinaryTree>
    <BinaryTree type="DecisionTree" boostWeight="1.0000000000000000e+00" itree="491">
      <Node pos="s" depth="0" NCoef="0" IVar="2" Cut="4.0258078002929688e+02" cType="1" res="9.2173777520656586e-03" rms="4.6453297138214111e-01" purity="5.0738668441772461e-01" nType="0">
        <Node pos="l" depth="1" NCoef="0" IVar="2" Cut="3.6185610961914062e+02" cType="1" res="-3.4371528774499893e-02" rms="4.4285720586776733e-01" purity="3.2903581857681274e-01" nType="0">
          <Node pos="l" depth="2" NCoef="0" IVar="-1" Cut="0.0000000000000000e+00" cType="1" res="-3.0354005284607410e-03" rms="4.2309579253196716e-01" purity="2.7972450852394104e-01" nType="-99"/>
          <Node pos="r" depth="2" NCoef="0" IVar="-1" Cut="0.0000000000000000e+00" cType="1" res="-3.7621933734044433e-04" rms="4.5503133535385132e-01" purity="3.6460375785827637e-01" nType="-99"/>
        </Node>
        <Node pos="r" depth="1" NCoef="0" IVar="4" Cut="9.8570466041564941e-01" cType="1" res="1.6970945522189140e-02" rms="4.6785831451416016e-01" purity="5.3911161422729492e-01" nType="0">
          <Node pos="l" depth="2" NCoef="0" IVar="-1" Cut="0.0000000000000000e+00" cType="1" res="3.5323898191563785e-04" rms="4.7343811392784119e-01" purity="5.1442492008209229e-01" nType="-99"/>
          <Node pos="r" depth="2" NCoef="0" IVar="-1" Cut="0.0000000000000000e+00" cType="1" res="1.5212884172797203e-03" rms="4.0928959846496582e-01" purity="7.7041745185852051e-01" nType="-99"/>
        </Node>
      </Node>
    </BinaryTree>
    <BinaryTree type="DecisionTree" boostWeight="1.0000000000000000e+00" itree="492">
      <Node pos="s" depth="0" NCoef="0" IVar="4" Cut="9.2197448015213013e-01" cType="1" res="2.0613583910744637e-04" rms="4.6549329161643982e-01" purity="4.9738973379135132e-01" nType="0">
        <Node pos="l" depth="1" NCoef="0" IVar="5" Cut="4.3265599012374878e-01" cType="1" res="-3.4161794930696487e-02" rms="4.5102423429489136e-01" purity="3.2974183559417725e-01" nType="0">
          <Node pos="l" depth="2" NCoef="0" IVar="-1" Cut="0.0000000000000000e+00" cType="1" res="-2.1220264025032520e-03" rms="4.3511989712715149e-01" purity="2.9474964737892151e-01" nType="-99"/>
          <Node pos="r" depth="2" NCoef="0" IVar="-1" Cut="0.0000000000000000e+00" cType="1" res="-3.1236206996254623e-04" rms="4.7407335042953491e-01" purity="3.8522920012474060e-01" nType="-99"/>
        </Node>
        <Node pos="r" depth="1" NCoef="0" IVar="2" Cut="3.8389334106445312e+02" cType="1" res="5.9986314736306667e-03" rms="4.6763923764228821e-01" purity="5.2564567327499390e-01" nType="0">
          <Node pos="l" depth="2" NCoef="0" IVar="-1" Cut="0.0000000000000000e+00" cType="1" res="-1.3879113830626011e-03" rms="4.5439949631690979e-01" purity="3.3540004491806030e-01" nType="-99"/>
          <Node pos="r" depth="2" NCoef="0" IVar="-1" Cut="0.0000000000000000e+00" cType="1" res="3.0519728898070753e-04" rms="4.6892526745796204e-01" purity="5.4787516593933105e-01" nType="-99"/>
        </Node>
      </Node>
    </BinaryTree>
    <BinaryTree type="DecisionTree" boostWeight="1.0000000000000000e+00" itree="493">
      <Node pos="s" depth="0" NCoef="0" IVar="2" Cut="9.5383428955078125e+02" cType="1" res="4.3671242892742157e-03" rms="4.6747192740440369e-01" purity="4.9963212013244629e-01" nType="0">
        <Node pos="l" depth="1" NCoef="0" IVar="6" Cut="1.1415256559848785e-01" cType="1" res="2.8696045046672225e-04" rms="4.6778607368469238e-01" purity="4.8998469114303589e-01" nType="0">
          <Node pos="l" depth="2" NCoef="0" IVar="-1" Cut="0.0000000000000000e+00" cType="1" res="-3.6508240737020969e-04" rms="4.6696627140045166e-01" purity="4.5970872044563293e-01" nType="-99"/>
          <Node pos="r" depth="2" NCoef="0" IVar="-1" Cut="0.0000000000000000e+00" cType="1" res="6.0723448405042291e-04" rms="4.6851897239685059e-01" purity="5.4536521434783936e-01" nType="-99"/>
        </Node>
        <Node pos="r" depth="1" NCoef="0" IVar="-1" Cut="0.0000000000000000e+00" cType="1" res="1.7716021975502372e-03" rms="4.5750078558921814e-01" purity="6.5392237901687622e-01" nType="-99"/>
      </Node>
    </BinaryTree>
    <BinaryTree type="DecisionTree" boostWeight="1.0000000000000000e+00" itree="494">
      <Node pos="s" depth="0" NCoef="0" IVar="1" Cut="8.6560553312301636e-01" cType="1" res="1.0402591433376074e-03" rms="4.6483901143074036e-01" purity="4.9923402070999146e-01" nType="0">
        <Node pos="l" depth="1" NCoef="0" IVar="0" Cut="-9.0113664045929909e-03" cType="1" res="-3.4844470210373402e-03" rms="4.6531277894973755e-01" purity="4.8639175295829773e-01" nType="0">
          <Node pos="l" depth="2" NCoef="0" IVar="-1" Cut="0.0000000000000000e+00" cType="1" res="-8.6658319924026728e-04" rms="4.5895054936408997e-01" purity="4.2103511095046997e-01" nType="-99"/>
          <Node pos="r" depth="2" NCoef="0" IVar="-1" Cut="0.0000000000000000e+00" cType="1" res="3.8090269663371146e-04" rms="4.6946009993553162e-01" purity="5.3673028945922852e-01" nType="-99"/>
        </Node>
        <Node pos="r" depth="1" NCoef="0" IVar="-1" Cut="0.0000000000000000e+00" cType="1" res="1.4591788640245795e-03" rms="4.5497485995292664e-01" purity="6.6120755672454834e-01" nType="-99"/>
      </Node>
    </BinaryTree>
    <BinaryTree type="DecisionTree" boostWeight="1.0000000000000000e+00" itree="495">
      <Node pos="s" depth="0" NCoef="0" IVar="3" Cut="1.3378042602539062e+02" cType="1" res="-1.5092876274138689e-03" rms="4.6575930714607239e-01" purity="4.9579003453254700e-01" nType="0">
        <Node pos="l" depth="1" NCoef="0" IVar="3" Cut="6.3728416442871094e+01" cType="1" res="-6.3322749920189381e-03" rms="4.6649473905563354e-01" purity="4.8362776637077332e-01" nType="0">
          <Node pos="l" depth="2" NCoef="0" IVar="-1" Cut="0.0000000000000000e+00" cType="1" res="5.7062145788222551e-04" rms="4.6657738089561462e-01" purity="5.0888854265213013e-01" nType="-99"/>
          <Node pos="r" depth="2" NCoef="0" IVar="-1" Cut="0.0000000000000000e+00" cType="1" res="-5.4649106459692121e-04" rms="4.6601596474647522e-01" purity="4.7265985608100891e-01" nType="-99"/>
        </Node>
        <Node pos="r" depth="1" NCoef="0" IVar="2" Cut="5.8205853271484375e+02" cType="1" res="3.2319117337465286e-02" rms="4.5914646983146667e-01" purity="5.8109611272811890e-01" nType="0">
          <Node pos="l" depth="2" NCoef="0" IVar="-1" Cut="0.0000000000000000e+00" cType="1" res="1.0219505384156946e-05" rms="4.7042426466941833e-01" purity="4.7635883092880249e-01" nType="-99"/>
          <Node pos="r" depth="2" NCoef="0" IVar="-1" Cut="0.0000000000000000e+00" cType="1" res="1.4419420622289181e-03" rms="4.4893503189086914e-01" purity="6.6019171476364136e-01" nType="-99"/>
        </Node>
      </Node>
    </BinaryTree>
    <BinaryTree type="DecisionTree" boostWeight="1.0000000000000000e+00" itree="496">
      <Node pos="s" depth="0" NCoef="0" IVar="0" Cut="2.0410603284835815e-01" cType="1" res="4.9464077164884657e-05" rms="4.6558573842048645e-01" purity="4.9677795171737671e-01" nType="0">
        <Node pos="l" depth="1" NCoef="0" IVar="1" Cut="4.8581144213676453e-01" cType="1" res="-4.5207357034087181e-03" rms="4.6498012542724609e-01" purity="4.8506098985671997e-01" nType="0">
          <Node pos="l" depth="2" NCoef="0" IVar="-1" Cut="0.0000000000000000e+00" cType="1" res="-1.8375299405306578e-03" rms="4.4080254435539246e-01" purity="3.2099607586860657e-01" nType="-99"/>
          <Node pos="r" depth="2" NCoef="0" IVar="-1" Cut="0.0000000000000000e+00" cType="1" res="8.3896702562924474e-05" rms="4.6897730231285095e-01" purity="5.1563417911529541e-01" nType="-99"/>
        </Node>
        <Node pos="r" depth="1" NCoef="0" IVar="-1" Cut="0.0000000000000000e+00" cType="1" res="1.0887016542255878e-03" rms="4.6903437376022339e-01" purity="6.0445523262023926e-01" nType="-99"/>
      </Node>
    </BinaryTree>
    <BinaryTree type="DecisionTree" boostWeight="1.0000000000000000e+00" itree="497">
      <Node pos="s" depth="0" NCoef="0" IVar="0" Cut="-7.8655749559402466e-02" cType="1" res="4.5197997242212296e-03" rms="4.6449741721153259e-01" purity="5.0324892997741699e-01" nType="0">
        <Node pos="l" depth="1" NCoef="0" IVar="2" Cut="6.5374865722656250e+02" cType="1" res="-3.1084986403584480e-02" rms="4.5366486907005310e-01" purity="4.0790364146232605e-01" nType="0">
          <Node pos="l" depth="2" NCoef="0" IVar="-1" Cut="0.0000000000000000e+00" cType="1" res="-1.8300011288374662e-03" rms="4.4204455614089966e-01" purity="3.5389611124992371e-01" nType="-99"/>
          <Node pos="r" depth="2" NCoef="0" IVar="-1" Cut="0.0000000000000000e+00" cType="1" res="1.4417734928429127e-04" rms="4.7633329033851624e-01" purity="5.2711385488510132e-01" nType="-99"/>
        </Node>
        <Node pos="r" depth="1" NCoef="0" IVar="8" Cut="9.5227426290512085e-01" cType="1" res="1.3650914654135704e-02" rms="4.6679770946502686e-01" purity="5.2770096063613892e-01" nType="0">
          <Node pos="l" depth="2" NCoef="0" IVar="-1" Cut="0.0000000000000000e+00" cType="1" res="8.7389512918889523e-04" rms="4.6643587946891785e-01" purity="5.7703810930252075e-01" nType="-99"/>
          <Node pos="r" depth="2" NCoef="0" IVar="-1" Cut="0.0000000000000000e+00" cType="1" res="3.2336021831724793e-05" rms="4.6662461757659912e-01" purity="4.9419939517974854e-01" nType="-99"/>
        </Node>
      </Node>
    </BinaryTree>
    <BinaryTree type="DecisionTree" boostWeight="1.0000000000000000e+00" itree="498">
      <Node pos="s" depth="0" NCoef="0" IVar="6" Cut="1.9914773106575012e-01" cType="1" res="3.2224075403064489e-03" rms="4.6686458587646484e-01" purity="4.9966964125633240e-01" nType="0">
        <Node pos="l" depth="1" NCoef="0" IVar="0" Cut="1.6981543600559235e-01" cType="1" res="-1.2049635406583548e-03" rms="4.6741780638694763e-01" purity="4.9029886722564697e-01" nType="0">
          <Node pos="l" depth="2" NCoef="0" IVar="-1" Cut="0.0000000000000000e+00" cType="1" res="-2.1798265515826643e-04" rms="4.6619293093681335e-01" purity="4.7240796685218811e-01" nType="-99"/>
          <Node pos="r" depth="2" NCoef="0" IVar="-1" Cut="0.0000000000000000e+00" cType="1" res="7.8695011325180531e-04" rms="4.7272282838821411e-01" purity="5.8590495586395264e-01" nType="-99"/>
        </Node>
        <Node pos="r" depth="1" NCoef="0" IVar="-1" Cut="0.0000000000000000e+00" cType="1" res="1.1716802837327123e-03" rms="4.5972055196762085e-01" purity="5.8614081144332886e-01" nType="-99"/>
      </Node>
    </BinaryTree>
    <BinaryTree type="DecisionTree" boostWeight="1.0000000000000000e+00" itree="499">
      <Node pos="s" depth="0" NCoef="0" IVar="8" Cut="6.8235492706298828e-01" cType="1" res="1.4265007339417934e-03" rms="4.6579405665397644e-01" purity="4.9889951944351196e-01" nType="0">
        <Node pos="l" depth="1" NCoef="0" IVar="7" Cut="9.1175704956054688e+01" cType="1" res="3.5558689385652542e-02" rms="4.6520799398422241e-01" purity="5.7424294948577881e-01" nType="0">
          <Node pos="l" depth="2" NCoef="0" IVar="-1" Cut="0.0000000000000000e+00" cType="1" res="2.5663405540399253e-04" rms="4.7813960909843445e-01" purity="5.2047276496887207e-01" nType="-99"/>
          <Node pos="r" depth="2" NCoef="0" IVar="-1" Cut="0.0000000000000000e+00" cType="1" res="1.3901939382776618e-03" rms="4.5650592446327209e-01" purity="6.0661268234252930e-01" nType="-99"/>
        </Node>
        <Node pos="r" depth="1" NCoef="0" IVar="6" Cut="5.7251267135143280e-02" cType="1" res="-4.7860033810138702e-03" rms="4.6563160419464111e-01" purity="4.8518598079681396e-01" nType="0">
          <Node pos="l" depth="2" NCoef="0" IVar="-1" Cut="0.0000000000000000e+00" cType="1" res="-9.5731386682018638e-04" rms="4.5952302217483521e-01" purity="4.2761752009391785e-01" nType="-99"/>
          <Node pos="r" depth="2" NCoef="0" IVar="-1" Cut="0.0000000000000000e+00" cType="1" res="1.7819568165577948e-04" rms="4.6797353029251099e-01" purity="5.1130568981170654e-01" nType="-99"/>
        </Node>
      </Node>
    </BinaryTree>
    <BinaryTree type="DecisionTree" boostWeight="1.0000000000000000e+00" itree="500">
      <Node pos="s" depth="0" NCoef="0" IVar="4" Cut="9.8561698198318481e-01" cType="1" res="-2.6041155797429383e-04" rms="4.6470427513122559e-01" purity="4.9828946590423584e-01" nType="0">
        <Node pos="l" depth="1" NCoef="0" IVar="0" Cut="-1.1045370250940323e-02" cType="1" res="-5.4064043797552586e-03" rms="4.6889406442642212e-01" purity="4.7194659709930420e-01" nType="0">
          <Node pos="l" depth="2" NCoef="0" IVar="-1" Cut="0.0000000000000000e+00" cType="1" res="-6.8356888368725777e-04" rms="4.6342515945434570e-01" purity="4.2160603404045105e-01" nType="-99"/>
          <Node pos="r" depth="2" NCoef="0" IVar="-1" Cut="0.0000000000000000e+00" cType="1" res="2.0774867152795196e-04" rms="4.7315204143524170e-01" purity="5.1496875286102295e-01" nType="-99"/>
        </Node>
        <Node pos="r" depth="1" NCoef="0" IVar="-1" Cut="0.0000000000000000e+00" cType="1" res="1.2047470081597567e-03" rms="4.2032846808433533e-01" purity="7.4541509151458740e-01" nType="-99"/>
      </Node>
    </BinaryTree>
    <BinaryTree type="DecisionTree" boostWeight="1.0000000000000000e+00" itree="501">
      <Node pos="s" depth="0" NCoef="0" IVar="0" Cut="-6.2659405171871185e-02" cType="1" res="1.7091997433453798e-03" rms="4.6511161327362061e-01" purity="4.9838781356811523e-01" nType="0">
        <Node pos="l" depth="1" NCoef="0" IVar="1" Cut="6.9880330562591553e-01" cType="1" res="-1.8731389194726944e-02" rms="4.5665565133094788e-01" purity="4.2743319272994995e-01" nType="0">
          <Node pos="l" depth="2" NCoef="0" IVar="-1" Cut="0.0000000000000000e+00" cType="1" res="-1.9933998119086027e-03" rms="4.3928357958793640e-01" purity="3.0165722966194153e-01" nType="-99"/>
          <Node pos="r" depth="2" NCoef="0" IVar="-1" Cut="0.0000000000000000e+00" cType="1" res="3.0892883660271764e-04" rms="4.7340777516365051e-01" purity="5.6725937128067017e-01" nType="-99"/>
        </Node>
        <Node pos="r" depth="1" NCoef="0" IVar="4" Cut="9.6275085210800171e-01" cType="1" res="9.5119364559650421e-03" rms="4.6806386113166809e-01" purity="5.2547317743301392e-01" nType="0">
          <Node pos="l" depth="2" NCoef="0" IVar="-1" Cut="0.0000000000000000e+00" cType="1" res="-5.8096258726436645e-05" rms="4.7611999511718750e-01" purity="4.4994166493415833e-01" nType="-99"/>
          <Node pos="r" depth="2" NCoef="0" IVar="-1" Cut="0.0000000000000000e+00" cType="1" res="7.8806316014379263e-04" rms="4.5195081830024719e-01" purity="6.6583037376403809e-01" nType="-99"/>
        </Node>
      </Node>
    </BinaryTree>
    <BinaryTree type="DecisionTree" boostWeight="1.0000000000000000e+00" itree="502">
      <Node pos="s" depth="0" NCoef="0" IVar="0" Cut="2.2513025999069214e-01" cType="1" res="1.5232117148116231e-03" rms="4.6489253640174866e-01" purity="4.9940532445907593e-01" nType="0">
        <Node pos="l" depth="1" NCoef="0" IVar="1" Cut="4.8419117927551270e-01" cType="1" res="-2.7827005833387375e-03" rms="4.6470293402671814e-01" purity="4.8967224359512329e-01" nType="0">
          <Node pos="l" depth="2" NCoef="0" IVar="-1" Cut="0.0000000000000000e+00" cType="1" res="-1.7962780548259616e-03" rms="4.4187012314796448e-01" purity="3.3122900128364563e-01" nType="-99"/>
          <Node pos="r" depth="2" NCoef="0" IVar="-1" Cut="0.0000000000000000e+00" cType="1" res="1.5201956557575613e-04" rms="4.6852833032608032e-01" purity="5.2002972364425659e-01" nType="-99"/>
        </Node>
        <Node pos="r" depth="1" NCoef="0" IVar="-1" Cut="0.0000000000000000e+00" cType="1" res="1.4496736694127321e-03" rms="4.6370786428451538e-01" purity="6.2643676996231079e-01" nType="-99"/>
      </Node>
    </BinaryTree>
    <BinaryTree type="DecisionTree" boostWeight="1.0000000000000000e+00" itree="503">
      <Node pos="s" depth="0" NCoef="0" IVar="4" Cut="9.2194861173629761e-01" cType="1" res="2.5724121369421482e-03" rms="4.6501493453979492e-01" purity="5.0036269426345825e-01" nType="0">
        <Node pos="l" depth="1" NCoef="0" IVar="0" Cut="2.8354780748486519e-02" cType="1" res="-3.4845076501369476e-02" rms="4.5187592506408691e-01" purity="3.2909741997718811e-01" nType="0">
          <Node pos="l" depth="2" NCoef="0" IVar="-1" Cut="0.0000000000000000e+00" cType="1" res="-2.1758880466222763e-03" rms="4.3468803167343140e-01" purity="2.8922182321548462e-01" nType="-99"/>
          <Node pos="r" depth="2" NCoef="0" IVar="-1" Cut="0.0000000000000000e+00" cType="1" res="-5.7730497792363167e-04" rms="4.7181478142738342e-01" purity="3.7882953882217407e-01" nType="-99"/>
        </Node>
        <Node pos="r" depth="1" NCoef="0" IVar="4" Cut="9.8708516359329224e-01" cType="1" res="8.9189670979976654e-03" rms="4.6690952777862549e-01" purity="5.2941191196441650e-01" nType="0">
          <Node pos="l" depth="2" NCoef="0" IVar="-1" Cut="0.0000000000000000e+00" cType="1" res="1.2488210632000118e-04" rms="4.7157305479049683e-01" purity="5.0550508499145508e-01" nType="-99"/>
          <Node pos="r" depth="2" NCoef="0" IVar="-1" Cut="0.0000000000000000e+00" cType="1" res="1.2958161532878876e-03" rms="4.1901287436485291e-01" purity="7.4993509054183960e-01" nType="-99"/>
        </Node>
      </Node>
    </BinaryTree>
    <BinaryTree type="DecisionTree" boostWeight="1.0000000000000000e+00" itree="504">
      <Node pos="s" depth="0" NCoef="0" IVar="4" Cut="9.7653239965438843e-01" cType="1" res="4.4622328132390976e-03" rms="4.6414494514465332e-01" purity="5.0336074829101562e-01" nType="0">
        <Node pos="l" depth="1" NCoef="0" IVar="0" Cut="1.6703863441944122e-01" cType="1" res="-2.3460125084966421e-03" rms="4.7044810652732849e-01" purity="4.5764085650444031e-01" nType="0">
          <Node pos="l" depth="2" NCoef="0" IVar="-1" Cut="0.0000000000000000e+00" cType="1" res="-2.7792580658569932e-04" rms="4.6901598572731018e-01" purity="4.3897983431816101e-01" nType="-99"/>
          <Node pos="r" depth="2" NCoef="0" IVar="-1" Cut="0.0000000000000000e+00" cType="1" res="8.5494504310190678e-04" rms="4.7671690583229065e-01" purity="5.5951142311096191e-01" nType="-99"/>
        </Node>
        <Node pos="r" depth="1" NCoef="0" IVar="0" Cut="-1.4703036285936832e-02" cType="1" res="3.5017129033803940e-02" rms="4.3341782689094543e-01" purity="7.0854830741882324e-01" nType="0">
          <Node pos="l" depth="2" NCoef="0" IVar="-1" Cut="0.0000000000000000e+00" cType="1" res="2.6776958839036524e-04" rms="4.4853553175926208e-01" purity="6.5695548057556152e-01" nType="-99"/>
          <Node pos="r" depth="2" NCoef="0" IVar="-1" Cut="0.0000000000000000e+00" cType="1" res="1.3884272193536162e-03" rms="4.1934770345687866e-01" purity="7.5134664773941040e-01" nType="-99"/>
        </Node>
      </Node>
    </BinaryTree>
    <BinaryTree type="DecisionTree" boostWeight="1.0000000000000000e+00" itree="505">
      <Node pos="s" depth="0" NCoef="0" IVar="8" Cut="1.5947179794311523e+00" cType="1" res="9.7427086438983679e-04" rms="4.6613812446594238e-01" purity="4.9805504083633423e-01" nType="0">
        <Node pos="l" depth="1" NCoef="0" IVar="6" Cut="2.7769006788730621e-02" cType="1" res="5.8119590394198895e-03" rms="4.6790578961372375e-01" purity="5.1076602935791016e-01" nType="0">
          <Node pos="l" depth="2" NCoef="0" IVar="-1" Cut="0.0000000000000000e+00" cType="1" res="-9.0905261458829045e-04" rms="4.6565380692481995e-01" purity="4.3625938892364502e-01" nType="-99"/>
          <Node pos="r" depth="2" NCoef="0" IVar="-1" Cut="0.0000000000000000e+00" cType="1" res="3.0495537794195116e-04" rms="4.6802985668182373e-01" purity="5.2118492126464844e-01" nType="-99"/>
        </Node>
        <Node pos="r" depth="1" NCoef="0" IVar="2" Cut="4.7930990600585938e+02" cType="1" res="-3.2519463449716568e-02" rms="4.5229381322860718e-01" purity="4.1005027294158936e-01" nType="0">
          <Node pos="l" depth="2" NCoef="0" IVar="-1" Cut="0.0000000000000000e+00" cType="1" res="-2.5110999122262001e-03" rms="4.3991979956626892e-01" purity="3.0595847964286804e-01" nType="-99"/>
          <Node pos="r" depth="2" NCoef="0" IVar="-1" Cut="0.0000000000000000e+00" cType="1" res="-2.0651236991398036e-04" rms="4.6239462494850159e-01" purity="5.0980305671691895e-01" nType="-99"/>
        </Node>
      </Node>
    </BinaryTree>
    <BinaryTree type="DecisionTree" boostWeight="1.0000000000000000e+00" itree="506">
      <Node pos="s" depth="0" NCoef="0" IVar="6" Cut="2.2752799093723297e-01" cType="1" res="3.7315939553081989e-03" rms="4.6638438105583191e-01" purity="5.0032043457031250e-01" nType="0">
        <Node pos="l" depth="1" NCoef="0" IVar="4" Cut="9.0878349542617798e-01" cType="1" res="-4.6162618673406541e-04" rms="4.6634969115257263e-01" purity="4.9325832724571228e-01" nType="0">
          <Node pos="l" depth="2" NCoef="0" IVar="-1" Cut="0.0000000000000000e+00" cType="1" res="-2.0814782474189997e-03" rms="4.4416633248329163e-01" purity="3.0273467302322388e-01" nType="-99"/>
          <Node pos="r" depth="2" NCoef="0" IVar="-1" Cut="0.0000000000000000e+00" cType="1" res="8.9520566689316183e-05" rms="4.6765330433845520e-01" purity="5.0648742914199829e-01" nType="-99"/>
        </Node>
        <Node pos="r" depth="1" NCoef="0" IVar="-1" Cut="0.0000000000000000e+00" cType="1" res="1.7405654070898890e-03" rms="4.6227046847343445e-01" purity="6.0742443799972534e-01" nType="-99"/>
      </Node>
    </BinaryTree>
    <BinaryTree type="DecisionTree" boostWeight="1.0000000000000000e+00" itree="507">
      <Node pos="s" depth="0" NCoef="0" IVar="3" Cut="1.3554078674316406e+02" cType="1" res="-4.1272613452747464e-04" rms="4.6573489904403687e-01" purity="4.9631163477897644e-01" nType="0">
        <Node pos="l" depth="1" NCoef="0" IVar="3" Cut="7.5908912658691406e+01" cType="1" res="-5.0704246386885643e-03" rms="4.6637731790542603e-01" purity="4.8469808697700500e-01" nType="0">
          <Node pos="l" depth="2" NCoef="0" IVar="-1" Cut="0.0000000000000000e+00" cType="1" res="3.9890126208774745e-04" rms="4.6623715758323669e-01" purity="5.0073355436325073e-01" nType="-99"/>
          <Node pos="r" depth="2" NCoef="0" IVar="-1" Cut="0.0000000000000000e+00" cType="1" res="-6.0203537577763200e-04" rms="4.6599063277244568e-01" purity="4.7237876057624817e-01" nType="-99"/>
        </Node>
        <Node pos="r" depth="1" NCoef="0" IVar="1" Cut="6.0914057493209839e-01" cType="1" res="3.5260625183582306e-02" rms="4.5922121405601501e-01" purity="5.8525979518890381e-01" nType="0">
          <Node pos="l" depth="2" NCoef="0" IVar="-1" Cut="0.0000000000000000e+00" cType="1" res="1.1779294582083821e-03" rms="4.6597877144813538e-01" purity="5.2328890562057495e-01" nType="-99"/>
          <Node pos="r" depth="2" NCoef="0" IVar="-1" Cut="0.0000000000000000e+00" cType="1" res="8.1268005305901170e-04" rms="4.5341205596923828e-01" purity="6.3743227720260620e-01" nType="-99"/>
        </Node>
      </Node>
    </BinaryTree>
    <BinaryTree type="DecisionTree" boostWeight="1.0000000000000000e+00" itree="508">
      <Node pos="s" depth="0" NCoef="0" IVar="8" Cut="8.8180851936340332e-01" cType="1" res="7.4173710308969021e-03" rms="4.6698111295700073e-01" purity="5.0411218404769897e-01" nType="0">
        <Node pos="l" depth="1" NCoef="0" IVar="5" Cut="4.7785609960556030e-01" cType="1" res="2.4202696979045868e-02" rms="4.6786400675773621e-01" purity="5.5748796463012695e-01" nType="0">
          <Node pos="l" depth="2" NCoef="0" IVar="-1" Cut="0.0000000000000000e+00" cType="1" res="4.3632625602185726e-04" rms="4.6991965174674988e-01" purity="5.3213030099868774e-01" nType="-99"/>
          <Node pos="r" depth="2" NCoef="0" IVar="-1" Cut="0.0000000000000000e+00" cType="1" res="1.1137177934870124e-03" rms="4.6306258440017700e-01" purity="6.0946732759475708e-01" nType="-99"/>
        </Node>
        <Node pos="r" depth="1" NCoef="0" IVar="2" Cut="3.7696429443359375e+02" cType="1" res="-1.2799032265320420e-03" rms="4.6628540754318237e-01" purity="4.7645568847656250e-01" nType="0">
          <Node pos="l" depth="2" NCoef="0" IVar="-1" Cut="0.0000000000000000e+00" cType="1" res="-2.0831108558923006e-03" rms="4.3035683035850525e-01" purity="2.9010054469108582e-01" nType="-99"/>
          <Node pos="r" depth="2" NCoef="0" IVar="-1" Cut="0.0000000000000000e+00" cType="1" res="1.2467910710256547e-04" rms="4.7003746032714844e-01" purity="4.9840018153190613e-01" nType="-99"/>
        </Node>
      </Node>
    </BinaryTree>
    <BinaryTree type="DecisionTree" boostWeight="1.0000000000000000e+00" itree="509">
      <Node pos="s" depth="0" NCoef="0" IVar="3" Cut="1.3407221984863281e+02" cType="1" res="2.7493985835462809e-03" rms="4.6573919057846069e-01" purity="4.9932870268821716e-01" nType="0">
        <Node pos="l" depth="1" NCoef="0" IVar="3" Cut="7.8787300109863281e+01" cType="1" res="-2.1017207764089108e-03" rms="4.6633249521255493e-01" purity="4.8739928007125854e-01" nType="0">
          <Node pos="l" depth="2" NCoef="0" IVar="-1" Cut="0.0000000000000000e+00" cType="1" res="4.6082821791060269e-04" rms="4.6649730205535889e-01" purity="5.0139224529266357e-01" nType="-99"/>
          <Node pos="r" depth="2" NCoef="0" IVar="-1" Cut="0.0000000000000000e+00" cType="1" res="-5.5815838277339935e-04" rms="4.6562153100967407e-01" purity="4.7479850053787231e-01" nType="-99"/>
        </Node>
        <Node pos="r" depth="1" NCoef="0" IVar="8" Cut="1.4146797657012939e+00" cType="1" res="3.7961632013320923e-02" rms="4.5987853407859802e-01" purity="5.8591920137405396e-01" nType="0">
          <Node pos="l" depth="2" NCoef="0" IVar="-1" Cut="0.0000000000000000e+00" cType="1" res="1.3732705265283585e-03" rms="4.6021905541419983e-01" purity="6.2372416257858276e-01" nType="-99"/>
          <Node pos="r" depth="2" NCoef="0" IVar="-1" Cut="0.0000000000000000e+00" cType="1" res="5.7733588619157672e-04" rms="4.5883840322494507e-01" purity="5.4012691974639893e-01" nType="-99"/>
        </Node>
      </Node>
    </BinaryTree>
    <BinaryTree type="DecisionTree" boostWeight="1.0000000000000000e+00" itree="510">
      <Node pos="s" depth="0" NCoef="0" IVar="4" Cut="9.6723002195358276e-01" cType="1" res="3.3631498808972538e-04" rms="4.6551656723022461e-01" purity="4.9754044413566589e-01" nType="0">
        <Node pos="l" depth="1" NCoef="0" IVar="3" Cut="1.3989184570312500e+02" cType="1" res="-8.2203969359397888e-03" rms="4.7073456645011902e-01" purity="4.3285763263702393e-01" nType="0">
          <Node pos="l" depth="2" NCoef="0" IVar="-1" Cut="0.0000000000000000e+00" cType="1" res="-4.1193410288542509e-04" rms="4.7064828872680664e-01" purity="4.2182937264442444e-01" nType="-99"/>
          <Node pos="r" depth="2" NCoef="0" IVar="-1" Cut="0.0000000000000000e+00" cType="1" res="9.1976189287379384e-04" rms="4.6951499581336975e-01" purity="5.3657197952270508e-01" nType="-99"/>
        </Node>
        <Node pos="r" depth="1" NCoef="0" IVar="2" Cut="4.5075961303710938e+02" cType="1" res="2.1592942997813225e-02" rms="4.5159238576889038e-01" purity="6.5822583436965942e-01" nType="0">
          <Node pos="l" depth="2" NCoef="0" IVar="-1" Cut="0.0000000000000000e+00" cType="1" res="-2.3196468828245997e-04" rms="4.7784942388534546e-01" purity="5.4187846183776855e-01" nType="-99"/>
          <Node pos="r" depth="2" NCoef="0" IVar="-1" Cut="0.0000000000000000e+00" cType="1" res="8.2467409083619714e-04" rms="4.4151014089584351e-01" purity="6.9912314414978027e-01" nType="-99"/>
        </Node>
      </Node>
    </BinaryTree>
    <BinaryTree type="DecisionTree" boostWeight="1.0000000000000000e+00" itree="511">
      <Node pos="s" depth="0" NCoef="0" IVar="4" Cut="9.4464689493179321e-01" cType="1" res="1.0423567146062851e-03" rms="4.6612998843193054e-01" purity="4.9803245067596436e-01" nType="0">
        <Node pos="l" depth="1" NCoef="0" IVar="4" Cut="9.1626685857772827e-01" cType="1" res="-1.3983719982206821e-02" rms="4.6523112058639526e-01" purity="3.8294577598571777e-01" nType="0">
          <Node pos="l" depth="2" NCoef="0" IVar="-1" Cut="0.0000000000000000e+00" cType="1" res="-1.1970961932092905e-03" rms="4.5050990581512451e-01" purity="3.2900258898735046e-01" nType="-99"/>
          <Node pos="r" depth="2" NCoef="0" IVar="-1" Cut="0.0000000000000000e+00" cType="1" res="-2.5478360475972295e-04" rms="4.7057256102561951e-01" purity="4.0354648232460022e-01" nType="-99"/>
        </Node>
        <Node pos="r" depth="1" NCoef="0" IVar="2" Cut="3.9867532348632812e+02" cType="1" res="1.0269546881318092e-02" rms="4.6644130349159241e-01" purity="5.6870478391647339e-01" nType="0">
          <Node pos="l" depth="2" NCoef="0" IVar="-1" Cut="0.0000000000000000e+00" cType="1" res="-7.9249206464737654e-04" rms="4.6503198146820068e-01" purity="4.0538209676742554e-01" nType="-99"/>
          <Node pos="r" depth="2" NCoef="0" IVar="-1" Cut="0.0000000000000000e+00" cType="1" res="4.1911494918167591e-04" rms="4.6644133329391479e-01" purity="5.9380805492401123e-01" nType="-99"/>
        </Node>
      </Node>
    </BinaryTree>
    <BinaryTree type="DecisionTree" boostWeight="1.0000000000000000e+00" itree="512">
      <Node pos="s" depth="0" NCoef="0" IVar="6" Cut="4.1392255574464798e-02" cType="1" res="3.1667319126427174e-03" rms="4.6524980664253235e-01" purity="5.0123167037963867e-01" nType="0">
        <Node pos="l" depth="1" NCoef="0" IVar="2" Cut="7.7012231445312500e+02" cType="1" res="-2.3755429312586784e-02" rms="4.6160581707954407e-01" purity="4.3960180878639221e-01" nType="0">
          <Node pos="l" depth="2" NCoef="0" IVar="-1" Cut="0.0000000000000000e+00" cType="1" res="-1.6262033022940159e-03" rms="4.5444941520690918e-01" purity="3.8126781582832336e-01" nType="-99"/>
          <Node pos="r" depth="2" NCoef="0" IVar="-1" Cut="0.0000000000000000e+00" cType="1" res="5.7056325022131205e-04" rms="4.7331321239471436e-01" purity="5.6278932094573975e-01" nType="-99"/>
        </Node>
        <Node pos="r" depth="1" NCoef="0" IVar="8" Cut="1.1514191627502441e+00" cType="1" res="1.0547252371907234e-02" rms="4.6597221493721008e-01" purity="5.1812708377838135e-01" nType="0">
          <Node pos="l" depth="2" NCoef="0" IVar="-1" Cut="0.0000000000000000e+00" cType="1" res="6.2627939041703939e-04" rms="4.6802943944931030e-01" purity="5.5568897724151611e-01" nType="-99"/>
          <Node pos="r" depth="2" NCoef="0" IVar="-1" Cut="0.0000000000000000e+00" cType="1" res="-1.6174757911358029e-04" rms="4.6276336908340454e-01" purity="4.6833494305610657e-01" nType="-99"/>
        </Node>
      </Node>
    </BinaryTree>
    <BinaryTree type="DecisionTree" boostWeight="1.0000000000000000e+00" itree="513">
      <Node pos="s" depth="0" NCoef="0" IVar="0" Cut="1.7036490142345428e-01" cType="1" res="4.6785017475485802e-03" rms="4.6569809317588806e-01" purity="5.0153899192810059e-01" nType="0">
        <Node pos="l" depth="1" NCoef="0" IVar="1" Cut="5.5599874258041382e-01" cType="1" res="-1.6006965888664126e-03" rms="4.6484574675559998e-01" purity="4.8474225401878357e-01" nType="0">
          <Node pos="l" depth="2" NCoef="0" IVar="-1" Cut="0.0000000000000000e+00" cType="1" res="-1.2270521838217974e-03" rms="4.4727838039398193e-01" purity="3.3463889360427856e-01" nType="-99"/>
          <Node pos="r" depth="2" NCoef="0" IVar="-1" Cut="0.0000000000000000e+00" cType="1" res="2.4045450845733285e-04" rms="4.7040256857872009e-01" purity="5.3708869218826294e-01" nType="-99"/>
        </Node>
        <Node pos="r" depth="1" NCoef="0" IVar="7" Cut="9.1956848144531250e+01" cType="1" res="4.0979441255331039e-02" rms="4.6895009279251099e-01" purity="5.9864336252212524e-01" nType="0">
          <Node pos="l" depth="2" NCoef="0" IVar="-1" Cut="0.0000000000000000e+00" cType="1" res="7.7129318378865719e-04" rms="4.7752228379249573e-01" purity="5.6440508365631104e-01" nType="-99"/>
          <Node pos="r" depth="2" NCoef="0" IVar="-1" Cut="0.0000000000000000e+00" cType="1" res="1.3714000815525651e-03" rms="4.5927491784095764e-01" purity="6.3512581586837769e-01" nType="-99"/>
        </Node>
      </Node>
    </BinaryTree>
    <BinaryTree type="DecisionTree" boostWeight="1.0000000000000000e+00" itree="514">
      <Node pos="s" depth="0" NCoef="0" IVar="0" Cut="-1.1187393963336945e-01" cType="1" res="4.4796615839004517e-03" rms="4.6562483906745911e-01" purity="5.0249642133712769e-01" nType="0">
        <Node pos="l" depth="1" NCoef="0" IVar="-1" Cut="0.0000000000000000e+00" cType="1" res="-1.5508100623264909e-03" rms="4.3947166204452515e-01" purity="3.6491164565086365e-01" nType="-99"/>
        <Node pos="r" depth="1" NCoef="0" IVar="1" Cut="8.4343141317367554e-01" cType="1" res="7.7236224897205830e-03" rms="4.6726202964782715e-01" purity="5.1229369640350342e-01" nType="0">
          <Node pos="l" depth="2" NCoef="0" IVar="-1" Cut="0.0000000000000000e+00" cType="1" res="1.1632172390818596e-04" rms="4.6787214279174805e-01" purity="4.9773269891738892e-01" nType="-99"/>
          <Node pos="r" depth="2" NCoef="0" IVar="-1" Cut="0.0000000000000000e+00" cType="1" res="1.0616466170176864e-03" rms="4.6040093898773193e-01" purity="6.4148312807083130e-01" nType="-99"/>
        </Node>
      </Node>
    </BinaryTree>
    <BinaryTree type="DecisionTree" boostWeight="1.0000000000000000e+00" itree="515">
      <Node pos="s" depth="0" NCoef="0" IVar="8" Cut="1.2672500610351562e+00" cType="1" res="6.5561919473111629e-03" rms="4.6442082524299622e-01" purity="5.0546550750732422e-01" nType="0">
        <Node pos="l" depth="1" NCoef="0" IVar="0" Cut="6.4962916076183319e-02" cType="1" res="1.5490448102355003e-02" rms="4.6687763929367065e-01" purity="5.3339886665344238e-01" nType="0">
          <Node pos="l" depth="2" NCoef="0" IVar="-1" Cut="0.0000000000000000e+00" cType="1" res="9.2752517957706004e-05" rms="4.6702897548675537e-01" purity="5.0029265880584717e-01" nType="-99"/>
          <Node pos="r" depth="2" NCoef="0" IVar="-1" Cut="0.0000000000000000e+00" cType="1" res="1.0425341315567493e-03" rms="4.6564403176307678e-01" purity="5.9746795892715454e-01" nType="-99"/>
        </Node>
        <Node pos="r" depth="1" NCoef="0" IVar="2" Cut="6.4035058593750000e+02" cType="1" res="-1.2870713137090206e-02" rms="4.5843279361724854e-01" purity="4.4472637772560120e-01" nType="0">
          <Node pos="l" depth="2" NCoef="0" IVar="-1" Cut="0.0000000000000000e+00" cType="1" res="-7.5254047987982631e-04" rms="4.5606467127799988e-01" purity="4.1305142641067505e-01" nType="-99"/>
          <Node pos="r" depth="2" NCoef="0" IVar="-1" Cut="0.0000000000000000e+00" cType="1" res="7.8992632916197181e-04" rms="4.6674785017967224e-01" purity="5.8805114030838013e-01" nType="-99"/>
        </Node>
      </Node>
    </BinaryTree>
    <BinaryTree type="DecisionTree" boostWeight="1.0000000000000000e+00" itree="516">
      <Node pos="s" depth="0" NCoef="0" IVar="2" Cut="5.0714254760742188e+02" cType="1" res="3.1573618762195110e-03" rms="4.6605798602104187e-01" purity="5.0072085857391357e-01" nType="0">
        <Node pos="l" depth="1" NCoef="0" IVar="5" Cut="5.3982561826705933e-01" cType="1" res="-1.3755070045590401e-02" rms="4.6165958046913147e-01" purity="4.0940669178962708e-01" nType="0">
          <Node pos="l" depth="2" NCoef="0" IVar="-1" Cut="0.0000000000000000e+00" cType="1" res="-1.1538561666384339e-03" rms="4.5243191719055176e-01" purity="3.6505275964736938e-01" nType="-99"/>
          <Node pos="r" depth="2" NCoef="0" IVar="-1" Cut="0.0000000000000000e+00" cType="1" res="7.0671737194061279e-04" rms="4.7929152846336365e-01" purity="5.0789123773574829e-01" nType="-99"/>
        </Node>
        <Node pos="r" depth="1" NCoef="0" IVar="3" Cut="1.3593589782714844e+02" cType="1" res="1.6431285068392754e-02" rms="4.6905431151390076e-01" purity="5.7238984107971191e-01" nType="0">
          <Node pos="l" depth="2" NCoef="0" IVar="-1" Cut="0.0000000000000000e+00" cType="1" res="2.0489696180447936e-04" rms="4.7206696867942810e-01" purity="5.5681556463241577e-01" nType="-99"/>
          <Node pos="r" depth="2" NCoef="0" IVar="-1" Cut="0.0000000000000000e+00" cType="1" res="1.6860347241163254e-03" rms="4.4886362552642822e-01" purity="6.5789794921875000e-01" nType="-99"/>
        </Node>
      </Node>
    </BinaryTree>
    <BinaryTree type="DecisionTree" boostWeight="1.0000000000000000e+00" itree="517">
      <Node pos="s" depth="0" NCoef="0" IVar="0" Cut="2.5317672640085220e-02" cType="1" res="6.3635157421231270e-03" rms="4.6637392044067383e-01" purity="5.0259715318679810e-01" nType="0">
        <Node pos="l" depth="1" NCoef="0" IVar="1" Cut="7.4851906299591064e-01" cType="1" res="-5.2671432495117188e-03" rms="4.6265727281570435e-01" purity="4.6411541104316711e-01" nType="0">
          <Node pos="l" depth="2" NCoef="0" IVar="-1" Cut="0.0000000000000000e+00" cType="1" res="-1.0353839024901390e-03" rms="4.5776027441024780e-01" purity="3.6995843052864075e-01" nType="-99"/>
          <Node pos="r" depth="2" NCoef="0" IVar="-1" Cut="0.0000000000000000e+00" cType="1" res="7.5255607953295112e-04" rms="4.6788379549980164e-01" purity="6.0581290721893311e-01" nType="-99"/>
        </Node>
        <Node pos="r" depth="1" NCoef="0" IVar="6" Cut="2.9002726078033447e-02" cType="1" res="2.1273143589496613e-02" rms="4.7067534923553467e-01" purity="5.5192780494689941e-01" nType="0">
          <Node pos="l" depth="2" NCoef="0" IVar="-1" Cut="0.0000000000000000e+00" cType="1" res="-5.0647190073505044e-04" rms="4.6914830803871155e-01" purity="5.0368160009384155e-01" nType="-99"/>
          <Node pos="r" depth="2" NCoef="0" IVar="-1" Cut="0.0000000000000000e+00" cType="1" res="7.5517973164096475e-04" rms="4.7062739729881287e-01" purity="5.5960100889205933e-01" nType="-99"/>
        </Node>
      </Node>
    </BinaryTree>
    <BinaryTree type="DecisionTree" boostWeight="1.0000000000000000e+00" itree="518">
      <Node pos="s" depth="0" NCoef="0" IVar="1" Cut="3.8483715057373047e-01" cType="1" res="-1.2427720939740539e-03" rms="4.6481272578239441e-01" purity="4.9727094173431396e-01" nType="0">
        <Node pos="l" depth="1" NCoef="0" IVar="-1" Cut="0.0000000000000000e+00" cType="1" res="-2.0202323794364929e-03" rms="4.4036805629730225e-01" purity="3.7901517748832703e-01" nType="-99"/>
        <Node pos="r" depth="1" NCoef="0" IVar="2" Cut="6.0011724853515625e+02" cType="1" res="2.5310057681053877e-03" rms="4.6621319651603699e-01" purity="5.0541996955871582e-01" nType="0">
          <Node pos="l" depth="2" NCoef="0" IVar="-1" Cut="0.0000000000000000e+00" cType="1" res="-2.1135942370165139e-04" rms="4.6576291322708130e-01" purity="4.5510765910148621e-01" nType="-99"/>
          <Node pos="r" depth="2" NCoef="0" IVar="-1" Cut="0.0000000000000000e+00" cType="1" res="5.2885914919897914e-04" rms="4.6656709909439087e-01" purity="5.9875029325485229e-01" nType="-99"/>
        </Node>
      </Node>
    </BinaryTree>
    <BinaryTree type="DecisionTree" boostWeight="1.0000000000000000e+00" itree="519">
      <Node pos="s" depth="0" NCoef="0" IVar="0" Cut="1.5098941326141357e-01" cType="1" res="9.7110820934176445e-04" rms="4.6508449316024780e-01" purity="4.9844107031822205e-01" nType="0">
        <Node pos="l" depth="1" NCoef="0" IVar="1" Cut="8.6560553312301636e-01" cType="1" res="-6.1581055633723736e-03" rms="4.6393221616744995e-01" purity="4.7860550880432129e-01" nType="0">
          <Node pos="l" depth="2" NCoef="0" IVar="-1" Cut="0.0000000000000000e+00" cType="1" res="-3.8265591138042510e-04" rms="4.6441707015037537e-01" purity="4.6096333861351013e-01" nType="-99"/>
          <Node pos="r" depth="2" NCoef="0" IVar="-1" Cut="0.0000000000000000e+00" cType="1" res="1.3283325824886560e-03" rms="4.5469444990158081e-01" purity="6.5813988447189331e-01" nType="-99"/>
        </Node>
        <Node pos="r" depth="1" NCoef="0" IVar="6" Cut="4.9099262803792953e-02" cType="1" res="3.3750910311937332e-02" rms="4.6895354986190796e-01" purity="5.8964401483535767e-01" nType="0">
          <Node pos="l" depth="2" NCoef="0" IVar="-1" Cut="0.0000000000000000e+00" cType="1" res="3.6048088804818690e-04" rms="4.7813981771469116e-01" purity="5.6648296117782593e-01" nType="-99"/>
          <Node pos="r" depth="2" NCoef="0" IVar="-1" Cut="0.0000000000000000e+00" cType="1" res="1.2236703187227249e-03" rms="4.6258881688117981e-01" purity="6.0426688194274902e-01" nType="-99"/>
        </Node>
      </Node>
    </BinaryTree>
    <BinaryTree type="DecisionTree" boostWeight="1.0000000000000000e+00" itree="520">
      <Node pos="s" depth="0" NCoef="0" IVar="4" Cut="9.8556572198867798e-01" cType="1" res="-1.2039614375680685e-03" rms="4.6473053097724915e-01" purity="4.9629765748977661e-01" nType="0">
        <Node pos="l" depth="1" NCoef="0" IVar="2" Cut="7.5133526611328125e+02" cType="1" res="-5.2046468481421471e-03" rms="4.6860507130622864e-01" purity="4.7107887268066406e-01" nType="0">
          <Node pos="l" depth="2" NCoef="0" IVar="-1" Cut="0.0000000000000000e+00" cType="1" res="-3.3688635448925197e-04" rms="4.6820616722106934e-01" purity="4.4778946042060852e-01" nType="-99"/>
          <Node pos="r" depth="2" NCoef="0" IVar="-1" Cut="0.0000000000000000e+00" cType="1" res="6.3267734367400408e-04" rms="4.6966540813446045e-01" purity="5.9388607740402222e-01" nType="-99"/>
        </Node>
        <Node pos="r" depth="1" NCoef="0" IVar="-1" Cut="0.0000000000000000e+00" cType="1" res="9.5080788014456630e-04" rms="4.2408272624015808e-01" purity="7.3701328039169312e-01" nType="-99"/>
      </Node>
    </BinaryTree>
    <BinaryTree type="DecisionTree" boostWeight="1.0000000000000000e+00" itree="521">
      <Node pos="s" depth="0" NCoef="0" IVar="8" Cut="1.4135129451751709e+00" cType="1" res="1.4706016518175602e-03" rms="4.6474292874336243e-01" purity="4.9899640679359436e-01" nType="0">
        <Node pos="l" depth="1" NCoef="0" IVar="6" Cut="1.7360746860504150e-01" cType="1" res="9.4219185411930084e-03" rms="4.6712905168533325e-01" purity="5.2082610130310059e-01" nType="0">
          <Node pos="l" depth="2" NCoef="0" IVar="-1" Cut="0.0000000000000000e+00" cType="1" res="1.0132288298336789e-04" rms="4.6779748797416687e-01" purity="5.0886392593383789e-01" nType="-99"/>
          <Node pos="r" depth="2" NCoef="0" IVar="-1" Cut="0.0000000000000000e+00" cType="1" res="1.2247323757037520e-03" rms="4.6131464838981628e-01" purity="5.9400498867034912e-01" nType="-99"/>
        </Node>
        <Node pos="r" depth="1" NCoef="0" IVar="0" Cut="-6.6941455006599426e-02" cType="1" res="-2.6935964822769165e-02" rms="4.5498281717300415e-01" purity="4.2100882530212402e-01" nType="0">
          <Node pos="l" depth="2" NCoef="0" IVar="-1" Cut="0.0000000000000000e+00" cType="1" res="-2.7437368407845497e-03" rms="4.2807245254516602e-01" purity="3.1103482842445374e-01" nType="-99"/>
          <Node pos="r" depth="2" NCoef="0" IVar="-1" Cut="0.0000000000000000e+00" cType="1" res="-4.9562059575691819e-04" rms="4.6233779191970825e-01" purity="4.5486599206924438e-01" nType="-99"/>
        </Node>
      </Node>
    </BinaryTree>
    <BinaryTree type="DecisionTree" boostWeight="1.0000000000000000e+00" itree="522">
      <Node pos="s" depth="0" NCoef="0" IVar="0" Cut="-7.0701218210160732e-03" cType="1" res="3.9466996677219868e-03" rms="4.6602308750152588e-01" purity="5.0138264894485474e-01" nType="0">
        <Node pos="l" depth="1" NCoef="0" IVar="1" Cut="8.4427070617675781e-01" cType="1" res="-1.0601216927170753e-02" rms="4.6284601092338562e-01" purity="4.5131501555442810e-01" nType="0">
          <Node pos="l" depth="2" NCoef="0" IVar="-1" Cut="0.0000000000000000e+00" cType="1" res="-6.7060382571071386e-04" rms="4.6208071708679199e-01" purity="4.1283318400382996e-01" nType="-99"/>
          <Node pos="r" depth="2" NCoef="0" IVar="-1" Cut="0.0000000000000000e+00" cType="1" res="7.8544596908614039e-04" rms="4.6415922045707703e-01" purity="6.2833982706069946e-01" nType="-99"/>
        </Node>
        <Node pos="r" depth="1" NCoef="0" IVar="6" Cut="6.8358078598976135e-02" cType="1" res="1.6658941283822060e-02" rms="4.6841189265251160e-01" purity="5.4513269662857056e-01" nType="0">
          <Node pos="l" depth="2" NCoef="0" IVar="-1" Cut="0.0000000000000000e+00" cType="1" res="-1.1402319796616212e-04" rms="4.7210606932640076e-01" purity="5.0444966554641724e-01" nType="-99"/>
          <Node pos="r" depth="2" NCoef="0" IVar="-1" Cut="0.0000000000000000e+00" cType="1" res="8.5110828513279557e-04" rms="4.6520143747329712e-01" purity="5.7419055700302124e-01" nType="-99"/>
        </Node>
      </Node>
    </BinaryTree>
    <BinaryTree type="DecisionTree" boostWeight="1.0000000000000000e+00" itree="523">
      <Node pos="s" depth="0" NCoef="0" IVar="6" Cut="8.2453735172748566e-02" cType="1" res="4.1115949861705303e-03" rms="4.6497300267219543e-01" purity="5.0247472524642944e-01" nType="0">
        <Node pos="l" depth="1" NCoef="0" IVar="0" Cut="1.6942290961742401e-01" cType="1" res="-1.0606592521071434e-02" rms="4.6412116289138794e-01" purity="4.6284025907516479e-01" nType="0">
          <Node pos="l" depth="2" NCoef="0" IVar="-1" Cut="0.0000000000000000e+00" cType="1" res="-6.4822495914995670e-04" rms="4.6199771761894226e-01" purity="4.3292221426963806e-01" nType="-99"/>
          <Node pos="r" depth="2" NCoef="0" IVar="-1" Cut="0.0000000000000000e+00" cType="1" res="6.5381266176700592e-04" rms="4.7083556652069092e-01" purity="5.8147120475769043e-01" nType="-99"/>
        </Node>
        <Node pos="r" depth="1" NCoef="0" IVar="2" Cut="4.1371649169921875e+02" cType="1" res="1.8607687205076218e-02" rms="4.6535566449165344e-01" purity="5.4151105880737305e-01" nType="0">
          <Node pos="l" depth="2" NCoef="0" IVar="-1" Cut="0.0000000000000000e+00" cType="1" res="-5.6639150716364384e-04" rms="4.6077442169189453e-01" purity="3.7491562962532043e-01" nType="-99"/>
          <Node pos="r" depth="2" NCoef="0" IVar="-1" Cut="0.0000000000000000e+00" cType="1" res="7.7185552800074220e-04" rms="4.6623474359512329e-01" purity="5.9172469377517700e-01" nType="-99"/>
        </Node>
      </Node>
    </BinaryTree>
    <BinaryTree type="DecisionTree" boostWeight="1.0000000000000000e+00" itree="524">
      <Node pos="s" depth="0" NCoef="0" IVar="4" Cut="9.4899153709411621e-01" cType="1" res="8.6166645633056760e-04" rms="4.6538165211677551e-01" purity="4.9807655811309814e-01" nType="0">
        <Node pos="l" depth="1" NCoef="0" IVar="6" Cut="2.7016984298825264e-02" cType="1" res="-1.2585104443132877e-02" rms="4.6625363826751709e-01" purity="3.9192920923233032e-01" nType="0">
          <Node pos="l" depth="2" NCoef="0" IVar="-1" Cut="0.0000000000000000e+00" cType="1" res="-1.7842281376942992e-03" rms="4.5229166746139526e-01" purity="3.3294948935508728e-01" nType="-99"/>
          <Node pos="r" depth="2" NCoef="0" IVar="-1" Cut="0.0000000000000000e+00" cType="1" res="-2.6891077868640423e-04" rms="4.6806499361991882e-01" purity="4.0049901604652405e-01" nType="-99"/>
        </Node>
        <Node pos="r" depth="1" NCoef="0" IVar="2" Cut="3.9504898071289062e+02" cType="1" res="1.1724427342414856e-02" rms="4.6439179778099060e-01" purity="5.8382600545883179e-01" nType="0">
          <Node pos="l" depth="2" NCoef="0" IVar="-1" Cut="0.0000000000000000e+00" cType="1" res="-1.3093343004584312e-03" rms="4.6500149369239807e-01" purity="3.9821869134902954e-01" nType="-99"/>
          <Node pos="r" depth="2" NCoef="0" IVar="-1" Cut="0.0000000000000000e+00" cType="1" res="4.9557670718058944e-04" rms="4.6389019489288330e-01" purity="6.0932558774948120e-01" nType="-99"/>
        </Node>
      </Node>
    </BinaryTree>
    <BinaryTree type="DecisionTree" boostWeight="1.0000000000000000e+00" itree="525">
      <Node pos="s" depth="0" NCoef="0" IVar="5" Cut="2.7190548181533813e-01" cType="1" res="2.7337896171957254e-03" rms="4.6656098961830139e-01" purity="5.0010669231414795e-01" nType="0">
        <Node pos="l" depth="1" NCoef="0" IVar="0" Cut="1.8831044435501099e-01" cType="1" res="-1.8620049580931664e-02" rms="4.6000874042510986e-01" purity="4.2269212007522583e-01" nType="0">
          <Node pos="l" depth="2" NCoef="0" IVar="-1" Cut="0.0000000000000000e+00" cType="1" res="-1.0168676963075995e-03" rms="4.5541438460350037e-01" purity="3.8829165697097778e-01" nType="-99"/>
          <Node pos="r" depth="2" NCoef="0" IVar="-1" Cut="0.0000000000000000e+00" cType="1" res="5.0691858632490039e-04" rms="4.7602644562721252e-01" purity="5.5933696031570435e-01" nType="-99"/>
        </Node>
        <Node pos="r" depth="1" NCoef="0" IVar="1" Cut="8.5514295101165771e-01" cType="1" res="1.1363044381141663e-02" rms="4.6890705823898315e-01" purity="5.3139054775238037e-01" nType="0">
          <Node pos="l" depth="2" NCoef="0" IVar="-1" Cut="0.0000000000000000e+00" cType="1" res="2.1088968787807971e-04" rms="4.6996358036994934e-01" purity="5.1813411712646484e-01" nType="-99"/>
          <Node pos="r" depth="2" NCoef="0" IVar="-1" Cut="0.0000000000000000e+00" cType="1" res="1.2066048802807927e-03" rms="4.5774945616722107e-01" purity="6.4931732416152954e-01" nType="-99"/>
        </Node>
      </Node>
    </BinaryTree>
    <BinaryTree type="DecisionTree" boostWeight="1.0000000000000000e+00" itree="526">
      <Node pos="s" depth="0" NCoef="0" IVar="6" Cut="5.4890047758817673e-02" cType="1" res="9.4434840139001608e-04" rms="4.6492576599121094e-01" purity="4.9847576022148132e-01" nType="0">
        <Node pos="l" depth="1" NCoef="0" IVar="2" Cut="7.5598663330078125e+02" cType="1" res="-2.1092385053634644e-02" rms="4.6394178271293640e-01" purity="4.4280779361724854e-01" nType="0">
          <Node pos="l" depth="2" NCoef="0" IVar="-1" Cut="0.0000000000000000e+00" cType="1" res="-1.1676586000248790e-03" rms="4.5754995942115784e-01" purity="3.9731505513191223e-01" nType="-99"/>
          <Node pos="r" depth="2" NCoef="0" IVar="-1" Cut="0.0000000000000000e+00" cType="1" res="2.4167094670701772e-04" rms="4.7806459665298462e-01" purity="5.5509877204895020e-01" nType="-99"/>
        </Node>
        <Node pos="r" depth="1" NCoef="0" IVar="2" Cut="4.9565457153320312e+02" cType="1" res="1.1100103147327900e-02" rms="4.6502715349197388e-01" purity="5.2413070201873779e-01" nType="0">
          <Node pos="l" depth="2" NCoef="0" IVar="-1" Cut="0.0000000000000000e+00" cType="1" res="-1.8857237591873854e-04" rms="4.6509888768196106e-01" purity="4.2959994077682495e-01" nType="-99"/>
          <Node pos="r" depth="2" NCoef="0" IVar="-1" Cut="0.0000000000000000e+00" cType="1" res="7.0455175591632724e-04" rms="4.6441996097564697e-01" purity="6.1098599433898926e-01" nType="-99"/>
        </Node>
      </Node>
    </BinaryTree>
    <BinaryTree type="DecisionTree" boostWeight="1.0000000000000000e+00" itree="527">
      <Node pos="s" depth="0" NCoef="0" IVar="4" Cut="9.8097020387649536e-01" cType="1" res="1.9448059611022472e-03" rms="4.6543636918067932e-01" purity="4.9967423081398010e-01" nType="0">
        <Node pos="l" depth="1" NCoef="0" IVar="0" Cut="2.2395765781402588e-01" cType="1" res="-3.3511945512145758e-03" rms="4.7063809633255005e-01" purity="4.6344393491744995e-01" nType="0">
          <Node pos="l" depth="2" NCoef="0" IVar="-1" Cut="0.0000000000000000e+00" cType="1" res="-2.3054660414345562e-04" rms="4.6999993920326233e-01" purity="4.5325389504432678e-01" nType="-99"/>
          <Node pos="r" depth="2" NCoef="0" IVar="-1" Cut="0.0000000000000000e+00" cType="1" res="1.1909388704225421e-03" rms="4.7574168443679810e-01" purity="5.9090417623519897e-01" nType="-99"/>
        </Node>
        <Node pos="r" depth="1" NCoef="0" IVar="-1" Cut="0.0000000000000000e+00" cType="1" res="8.9957227464765310e-04" rms="4.3041762709617615e-01" purity="7.2382324934005737e-01" nType="-99"/>
      </Node>
    </BinaryTree>
    <BinaryTree type="DecisionTree" boostWeight="1.0000000000000000e+00" itree="528">
      <Node pos="s" depth="0" NCoef="0" IVar="2" Cut="6.1334442138671875e+02" cType="1" res="2.2829284425824881e-03" rms="4.6493992209434509e-01" purity="5.0033211708068848e-01" nType="0">
        <Node pos="l" depth="1" NCoef="0" IVar="2" Cut="3.7767581176757812e+02" cType="1" res="-6.2169306911528111e-03" rms="4.6398618817329407e-01" purity="4.5490813255310059e-01" nType="0">
          <Node pos="l" depth="2" NCoef="0" IVar="-1" Cut="0.0000000000000000e+00" cType="1" res="-1.9823659677058458e-03" rms="4.3485471606254578e-01" purity="2.9681381583213806e-01" nType="-99"/>
          <Node pos="r" depth="2" NCoef="0" IVar="-1" Cut="0.0000000000000000e+00" cType="1" res="6.9376778810692485e-06" rms="4.6823531389236450e-01" purity="4.8061740398406982e-01" nType="-99"/>
        </Node>
        <Node pos="r" depth="1" NCoef="0" IVar="7" Cut="8.5960281372070312e+01" cType="1" res="1.9867070019245148e-02" rms="4.6641531586647034e-01" purity="5.9430330991744995e-01" nType="0">
          <Node pos="l" depth="2" NCoef="0" IVar="-1" Cut="0.0000000000000000e+00" cType="1" res="-6.1817356618121266e-04" rms="4.7198984026908875e-01" purity="5.5026239156723022e-01" nType="-99"/>
          <Node pos="r" depth="2" NCoef="0" IVar="-1" Cut="0.0000000000000000e+00" cType="1" res="8.7990245083346963e-04" rms="4.6400013566017151e-01" purity="6.0749864578247070e-01" nType="-99"/>
        </Node>
      </Node>
    </BinaryTree>
    <BinaryTree type="DecisionTree" boostWeight="1.0000000000000000e+00" itree="529">
      <Node pos="s" depth="0" NCoef="0" IVar="0" Cut="2.0726050436496735e-01" cType="1" res="-2.2008749656379223e-03" rms="4.6370306611061096e-01" purity="4.9623849987983704e-01" nType="0">
        <Node pos="l" depth="1" NCoef="0" IVar="1" Cut="4.6671584248542786e-01" cType="1" res="-7.9184640198945999e-03" rms="4.6310937404632568e-01" purity="4.8317980766296387e-01" nType="0">
          <Node pos="l" depth="2" NCoef="0" IVar="-1" Cut="0.0000000000000000e+00" cType="1" res="-2.1004888694733381e-03" rms="4.3548685312271118e-01" purity="3.0798572301864624e-01" nType="-99"/>
          <Node pos="r" depth="2" NCoef="0" IVar="-1" Cut="0.0000000000000000e+00" cType="1" res="-5.7119115808745846e-05" rms="4.6668404340744019e-01" purity="5.0864052772521973e-01" nType="-99"/>
        </Node>
        <Node pos="r" depth="1" NCoef="0" IVar="-1" Cut="0.0000000000000000e+00" cType="1" res="1.3204151764512062e-03" rms="4.6582278609275818e-01" purity="6.1977916955947876e-01" nType="-99"/>
      </Node>
    </BinaryTree>
    <BinaryTree type="DecisionTree" boostWeight="1.0000000000000000e+00" itree="530">
      <Node pos="s" depth="0" NCoef="0" IVar="4" Cut="9.2191386222839355e-01" cType="1" res="5.2519091404974461e-03" rms="4.6539893746376038e-01" purity="5.0339859724044800e-01" nType="0">
        <Node pos="l" depth="1" NCoef="0" IVar="2" Cut="5.3898358154296875e+02" cType="1" res="-2.9412068426609039e-02" rms="4.5062130689620972e-01" purity="3.3610013127326965e-01" nType="0">
          <Node pos="l" depth="2" NCoef="0" IVar="-1" Cut="0.0000000000000000e+00" cType="1" res="-1.9810954108834267e-03" rms="4.2522037029266357e-01" purity="2.6279357075691223e-01" nType="-99"/>
          <Node pos="r" depth="2" NCoef="0" IVar="-1" Cut="0.0000000000000000e+00" cType="1" res="-4.4146270374767482e-04" rms="4.7773429751396179e-01" purity="4.2055076360702515e-01" nType="-99"/>
        </Node>
        <Node pos="r" depth="1" NCoef="0" IVar="2" Cut="6.9227148437500000e+02" cType="1" res="1.1144122108817101e-02" rms="4.6760898828506470e-01" purity="5.3183609247207642e-01" nType="0">
          <Node pos="l" depth="2" NCoef="0" IVar="-1" Cut="0.0000000000000000e+00" cType="1" res="1.2697260535787791e-04" rms="4.6890059113502502e-01" purity="5.0299501419067383e-01" nType="-99"/>
          <Node pos="r" depth="2" NCoef="0" IVar="-1" Cut="0.0000000000000000e+00" cType="1" res="9.3728164210915565e-04" rms="4.6207225322723389e-01" purity="6.3584131002426147e-01" nType="-99"/>
        </Node>
      </Node>
    </BinaryTree>
    <BinaryTree type="DecisionTree" boostWeight="1.0000000000000000e+00" itree="531">
      <Node pos="s" depth="0" NCoef="0" IVar="8" Cut="1.1440463066101074e+00" cType="1" res="1.9160441588610411e-03" rms="4.6615195274353027e-01" purity="4.9934282898902893e-01" nType="0">
        <Node pos="l" depth="1" NCoef="0" IVar="8" Cut="6.3279455900192261e-01" cType="1" res="1.2145843356847763e-02" rms="4.6898764371871948e-01" purity="5.3504538536071777e-01" nType="0">
          <Node pos="l" depth="2" NCoef="0" IVar="-1" Cut="0.0000000000000000e+00" cType="1" res="9.9950376898050308e-04" rms="4.6482247114181519e-01" purity="5.7886046171188354e-01" nType="-99"/>
          <Node pos="r" depth="2" NCoef="0" IVar="-1" Cut="0.0000000000000000e+00" cType="1" res="1.8736878701020032e-04" rms="4.6979105472564697e-01" purity="5.2465212345123291e-01" nType="-99"/>
        </Node>
        <Node pos="r" depth="1" NCoef="0" IVar="2" Cut="5.5124035644531250e+02" cType="1" res="-1.2412777170538902e-02" rms="4.6176987886428833e-01" purity="4.4933444261550903e-01" nType="0">
          <Node pos="l" depth="2" NCoef="0" IVar="-1" Cut="0.0000000000000000e+00" cType="1" res="-9.0108782751485705e-04" rms="4.5720776915550232e-01" purity="3.8854324817657471e-01" nType="-99"/>
          <Node pos="r" depth="2" NCoef="0" IVar="-1" Cut="0.0000000000000000e+00" cType="1" res="3.0559956212528050e-04" rms="4.6902263164520264e-01" purity="5.5942368507385254e-01" nType="-99"/>
        </Node>
      </Node>
    </BinaryTree>
    <BinaryTree type="DecisionTree" boostWeight="1.0000000000000000e+00" itree="532">
      <Node pos="s" depth="0" NCoef="0" IVar="8" Cut="1.0507746934890747e+00" cType="1" res="2.1908010821789503e-03" rms="4.6546873450279236e-01" purity="5.0027346611022949e-01" nType="0">
        <Node pos="l" depth="1" NCoef="0" IVar="4" Cut="9.4463688135147095e-01" cType="1" res="1.4697459526360035e-02" rms="4.6739354729652405e-01" purity="5.4377818107604980e-01" nType="0">
          <Node pos="l" depth="2" NCoef="0" IVar="-1" Cut="0.0000000000000000e+00" cType="1" res="-1.2090584641555324e-04" rms="4.7497919201850891e-01" purity="4.2455804347991943e-01" nType="-99"/>
          <Node pos="r" depth="2" NCoef="0" IVar="-1" Cut="0.0000000000000000e+00" cType="1" res="6.7789864260703325e-04" rms="4.6258929371833801e-01" purity="6.1309707164764404e-01" nType="-99"/>
        </Node>
        <Node pos="r" depth="1" NCoef="0" IVar="6" Cut="6.9074846804141998e-02" cType="1" res="-1.0250358842313290e-02" rms="4.6321114897727966e-01" purity="4.5699656009674072e-01" nType="0">
          <Node pos="l" depth="2" NCoef="0" IVar="-1" Cut="0.0000000000000000e+00" cType="1" res="-9.8997203167527914e-04" rms="4.5582309365272522e-01" purity="4.0315821766853333e-01" nType="-99"/>
          <Node pos="r" depth="2" NCoef="0" IVar="-1" Cut="0.0000000000000000e+00" cType="1" res="7.9233785754695418e-07" rms="4.6715053915977478e-01" purity="4.8833361268043518e-01" nType="-99"/>
        </Node>
      </Node>
    </BinaryTree>
    <BinaryTree type="DecisionTree" boostWeight="1.0000000000000000e+00" itree="533">
      <Node pos="s" depth="0" NCoef="0" IVar="4" Cut="9.8573601245880127e-01" cType="1" res="6.5454994328320026e-03" rms="4.6652239561080933e-01" purity="5.0290513038635254e-01" nType="0">
        <Node pos="l" depth="1" NCoef="0" IVar="2" Cut="9.2802130126953125e+02" cType="1" res="2.3394515737891197e-03" rms="4.7120717167854309e-01" purity="4.7699329257011414e-01" nType="0">
          <Node pos="l" depth="2" NCoef="0" IVar="-1" Cut="0.0000000000000000e+00" cType="1" res="-4.4298911234363914e-05" rms="4.7126874327659607e-01" purity="4.6646648645401001e-01" nType="-99"/>
          <Node pos="r" depth="2" NCoef="0" IVar="-1" Cut="0.0000000000000000e+00" cType="1" res="1.4298636233434081e-03" rms="4.6714287996292114e-01" purity="6.2496656179428101e-01" nType="-99"/>
        </Node>
        <Node pos="r" depth="1" NCoef="0" IVar="-1" Cut="0.0000000000000000e+00" cType="1" res="1.1711164843291044e-03" rms="4.1784819960594177e-01" purity="7.4659621715545654e-01" nType="-99"/>
      </Node>
    </BinaryTree>
    <BinaryTree type="DecisionTree" boostWeight="1.0000000000000000e+00" itree="534">
      <Node pos="s" depth="0" NCoef="0" IVar="2" Cut="9.5385522460937500e+02" cType="1" res="1.1984291486442089e-03" rms="4.6603173017501831e-01" purity="4.9795246124267578e-01" nType="0">
        <Node pos="l" depth="1" NCoef="0" IVar="2" Cut="3.6525765991210938e+02" cType="1" res="-1.9757936242967844e-03" rms="4.6627932786941528e-01" purity="4.8926898837089539e-01" nType="0">
          <Node pos="l" depth="2" NCoef="0" IVar="-1" Cut="0.0000000000000000e+00" cType="1" res="-2.2146736737340689e-03" rms="4.3058338761329651e-01" purity="2.9264932870864868e-01" nType="-99"/>
          <Node pos="r" depth="2" NCoef="0" IVar="-1" Cut="0.0000000000000000e+00" cType="1" res="5.9704303566832095e-05" rms="4.6885821223258972e-01" purity="5.0536251068115234e-01" nType="-99"/>
        </Node>
        <Node pos="r" depth="1" NCoef="0" IVar="-1" Cut="0.0000000000000000e+00" cType="1" res="1.3822087785229087e-03" rms="4.5892754197120667e-01" purity="6.3898962736129761e-01" nType="-99"/>
      </Node>
    </BinaryTree>
    <BinaryTree type="DecisionTree" boostWeight="1.0000000000000000e+00" itree="535">
      <Node pos="s" depth="0" NCoef="0" IVar="0" Cut="2.2189171612262726e-01" cType="1" res="2.4177036248147488e-03" rms="4.6597343683242798e-01" purity="4.9915289878845215e-01" nType="0">
        <Node pos="l" depth="1" NCoef="0" IVar="1" Cut="4.1306060552597046e-01" cType="1" res="-1.5205019153654575e-03" rms="4.6609866619110107e-01" purity="4.8889440298080444e-01" nType="0">
          <Node pos="l" depth="2" NCoef="0" IVar="-1" Cut="0.0000000000000000e+00" cType="1" res="-2.3554028011858463e-03" rms="4.3388593196868896e-01" purity="3.0013552308082581e-01" nType="-99"/>
          <Node pos="r" depth="2" NCoef="0" IVar="-1" Cut="0.0000000000000000e+00" cType="1" res="6.7057924752589315e-05" rms="4.6810820698738098e-01" purity="5.0248050689697266e-01" nType="-99"/>
        </Node>
        <Node pos="r" depth="1" NCoef="0" IVar="-1" Cut="0.0000000000000000e+00" cType="1" res="1.2729244772344828e-03" rms="4.6184128522872925e-01" purity="6.2253391742706299e-01" nType="-99"/>
      </Node>
    </BinaryTree>
    <BinaryTree type="DecisionTree" boostWeight="1.0000000000000000e+00" itree="536">
      <Node pos="s" depth="0" NCoef="0" IVar="4" Cut="9.8107105493545532e-01" cType="1" res="3.4694382920861244e-03" rms="4.6398937702178955e-01" purity="5.0195080041885376e-01" nType="0">
        <Node pos="l" depth="1" NCoef="0" IVar="6" Cut="1.5660202503204346e-01" cType="1" res="-2.6573792565613985e-03" rms="4.7008773684501648e-01" purity="4.6406236290931702e-01" nType="0">
          <Node pos="l" depth="2" NCoef="0" IVar="-1" Cut="0.0000000000000000e+00" cType="1" res="-2.7026727912016213e-04" rms="4.6922940015792847e-01" purity="4.5060133934020996e-01" nType="-99"/>
          <Node pos="r" depth="2" NCoef="0" IVar="-1" Cut="0.0000000000000000e+00" cType="1" res="6.5570516744628549e-04" rms="4.7302058339118958e-01" purity="5.2402961254119873e-01" nType="-99"/>
        </Node>
        <Node pos="r" depth="1" NCoef="0" IVar="-1" Cut="0.0000000000000000e+00" cType="1" res="1.0561944218352437e-03" rms="4.2277604341506958e-01" purity="7.3412936925888062e-01" nType="-99"/>
      </Node>
    </BinaryTree>
    <BinaryTree type="DecisionTree" boostWeight="1.0000000000000000e+00" itree="537">
      <Node pos="s" depth="0" NCoef="0" IVar="6" Cut="1.9859391450881958e-01" cType="1" res="2.4452707730233669e-03" rms="4.6626079082489014e-01" purity="5.0000590085983276e-01" nType="0">
        <Node pos="l" depth="1" NCoef="0" IVar="0" Cut="1.3497839868068695e-01" cType="1" res="-1.6080479836091399e-03" rms="4.6632933616638184e-01" purity="4.9087095260620117e-01" nType="0">
          <Node pos="l" depth="2" NCoef="0" IVar="-1" Cut="0.0000000000000000e+00" cType="1" res="-2.7949249488301575e-04" rms="4.6450346708297729e-01" purity="4.6749547123908997e-01" nType="-99"/>
          <Node pos="r" depth="2" NCoef="0" IVar="-1" Cut="0.0000000000000000e+00" cType="1" res="6.6130101913586259e-04" rms="4.7194281220436096e-01" purity="5.7513654232025146e-01" nType="-99"/>
        </Node>
        <Node pos="r" depth="1" NCoef="0" IVar="-1" Cut="0.0000000000000000e+00" cType="1" res="1.0677075479179621e-03" rms="4.6400278806686401e-01" purity="5.8334350585937500e-01" nType="-99"/>
      </Node>
    </BinaryTree>
    <BinaryTree type="DecisionTree" boostWeight="1.0000000000000000e+00" itree="538">
      <Node pos="s" depth="0" NCoef="0" IVar="0" Cut="2.0410603284835815e-01" cType="1" res="-2.0160740241408348e-03" rms="4.6547263860702515e-01" purity="4.9569797515869141e-01" nType="0">
        <Node pos="l" depth="1" NCoef="0" IVar="1" Cut="5.0913989543914795e-01" cType="1" res="-6.7813908681273460e-03" rms="4.6488258242607117e-01" purity="4.8352584242820740e-01" nType="0">
          <Node pos="l" depth="2" NCoef="0" IVar="-1" Cut="0.0000000000000000e+00" cType="1" res="-1.5922804595902562e-03" rms="4.4571757316589355e-01" purity="3.2414364814758301e-01" nType="-99"/>
          <Node pos="r" depth="2" NCoef="0" IVar="-1" Cut="0.0000000000000000e+00" cType="1" res="1.6842703189468011e-05" rms="4.6897116303443909e-01" purity="5.2099359035491943e-01" nType="-99"/>
        </Node>
        <Node pos="r" depth="1" NCoef="0" IVar="-1" Cut="0.0000000000000000e+00" cType="1" res="1.0891357669606805e-03" rms="4.6860352158546448e-01" purity="6.0823637247085571e-01" nType="-99"/>
      </Node>
    </BinaryTree>
    <BinaryTree type="DecisionTree" boostWeight="1.0000000000000000e+00" itree="539">
      <Node pos="s" depth="0" NCoef="0" IVar="5" Cut="1.2445221841335297e-01" cType="1" res="3.1481373589485884e-03" rms="4.6583670377731323e-01" purity="5.0005674362182617e-01" nType="0">
        <Node pos="l" depth="1" NCoef="0" IVar="-1" Cut="0.0000000000000000e+00" cType="1" res="-1.6470499103888869e-03" rms="4.5185071229934692e-01" purity="3.5402092337608337e-01" nType="-99"/>
        <Node pos="r" depth="1" NCoef="0" IVar="3" Cut="1.3913024902343750e+02" cType="1" res="6.2113399617373943e-03" rms="4.6659561991691589e-01" purity="5.0981295108795166e-01" nType="0">
          <Node pos="l" depth="2" NCoef="0" IVar="-1" Cut="0.0000000000000000e+00" cType="1" res="6.6052241891156882e-05" rms="4.6810838580131531e-01" purity="4.9871096014976501e-01" nType="-99"/>
          <Node pos="r" depth="2" NCoef="0" IVar="-1" Cut="0.0000000000000000e+00" cType="1" res="1.1491376208141446e-03" rms="4.5099905133247375e-01" purity="6.1058092117309570e-01" nType="-99"/>
        </Node>
      </Node>
    </BinaryTree>
    <BinaryTree type="DecisionTree" boostWeight="1.0000000000000000e+00" itree="540">
      <Node pos="s" depth="0" NCoef="0" IVar="2" Cut="6.3710638427734375e+02" cType="1" res="5.3008128888905048e-03" rms="4.6605467796325684e-01" purity="5.0272518396377563e-01" nType="0">
        <Node pos="l" depth="1" NCoef="0" IVar="0" Cut="8.8397525250911713e-02" cType="1" res="-2.0613134838640690e-03" rms="4.6590897440910339e-01" purity="4.6316757798194885e-01" nType="0">
          <Node pos="l" depth="2" NCoef="0" IVar="-1" Cut="0.0000000000000000e+00" cType="1" res="-3.5276665585115552e-04" rms="4.6202149987220764e-01" purity="4.3304720520973206e-01" nType="-99"/>
          <Node pos="r" depth="2" NCoef="0" IVar="-1" Cut="0.0000000000000000e+00" cType="1" res="4.9901980673894286e-04" rms="4.7429844737052917e-01" purity="5.3376311063766479e-01" nType="-99"/>
        </Node>
        <Node pos="r" depth="1" NCoef="0" IVar="7" Cut="1.0080642700195312e+02" cType="1" res="2.3407950997352600e-02" rms="4.6591818332672119e-01" purity="6.0001695156097412e-01" nType="0">
          <Node pos="l" depth="2" NCoef="0" IVar="-1" Cut="0.0000000000000000e+00" cType="1" res="-9.0716457634698600e-05" rms="4.7387942671775818e-01" purity="5.7084381580352783e-01" nType="-99"/>
          <Node pos="r" depth="2" NCoef="0" IVar="-1" Cut="0.0000000000000000e+00" cType="1" res="9.8675733897835016e-04" rms="4.6134850382804871e-01" purity="6.1447471380233765e-01" nType="-99"/>
        </Node>
      </Node>
    </BinaryTree>
    <BinaryTree type="DecisionTree" boostWeight="1.0000000000000000e+00" itree="541">
      <Node pos="s" depth="0" NCoef="0" IVar="0" Cut="2.0726050436496735e-01" cType="1" res="3.9418349042534828e-03" rms="4.6593022346496582e-01" purity="5.0176513195037842e-01" nType="0">
        <Node pos="l" depth="1" NCoef="0" IVar="8" Cut="1.0328164100646973e+00" cType="1" res="-6.0180760920047760e-04" rms="4.6523177623748779e-01" purity="4.9041354656219482e-01" nType="0">
          <Node pos="l" depth="2" NCoef="0" IVar="-1" Cut="0.0000000000000000e+00" cType="1" res="3.6260497290641069e-04" rms="4.6759814023971558e-01" purity="5.3498941659927368e-01" nType="-99"/>
          <Node pos="r" depth="2" NCoef="0" IVar="-1" Cut="0.0000000000000000e+00" cType="1" res="-4.2911455966532230e-04" rms="4.6262666583061218e-01" purity="4.4809997081756592e-01" nType="-99"/>
        </Node>
        <Node pos="r" depth="1" NCoef="0" IVar="-1" Cut="0.0000000000000000e+00" cType="1" res="1.2127214577049017e-03" rms="4.7033286094665527e-01" purity="6.0974204540252686e-01" nType="-99"/>
      </Node>
    </BinaryTree>
    <BinaryTree type="DecisionTree" boostWeight="1.0000000000000000e+00" itree="542">
      <Node pos="s" depth="0" NCoef="0" IVar="8" Cut="7.7619183063507080e-01" cType="1" res="3.0144476331770420e-03" rms="4.6622565388679504e-01" purity="5.0022929906845093e-01" nType="0">
        <Node pos="l" depth="1" NCoef="0" IVar="5" Cut="5.2158659696578979e-01" cType="1" res="2.5233864784240723e-02" rms="4.6877118945121765e-01" purity="5.6085163354873657e-01" nType="0">
          <Node pos="l" depth="2" NCoef="0" IVar="-1" Cut="0.0000000000000000e+00" cType="1" res="5.1208300283178687e-04" rms="4.7175234556198120e-01" purity="5.4005378484725952e-01" nType="-99"/>
          <Node pos="r" depth="2" NCoef="0" IVar="-1" Cut="0.0000000000000000e+00" cType="1" res="1.2202883372083306e-03" rms="4.5949307084083557e-01" purity="6.2010622024536133e-01" nType="-99"/>
        </Node>
        <Node pos="r" depth="1" NCoef="0" IVar="0" Cut="-9.9258027970790863e-02" cType="1" res="-3.9081997238099575e-03" rms="4.6521297097206116e-01" purity="4.8134192824363708e-01" nType="0">
          <Node pos="l" depth="2" NCoef="0" IVar="-1" Cut="0.0000000000000000e+00" cType="1" res="-1.6921610804274678e-03" rms="4.4119101762771606e-01" purity="3.5569849610328674e-01" nType="-99"/>
          <Node pos="r" depth="2" NCoef="0" IVar="-1" Cut="0.0000000000000000e+00" cType="1" res="2.8433267289074138e-05" rms="4.6785771846771240e-01" purity="4.9681887030601501e-01" nType="-99"/>
        </Node>
      </Node>
    </BinaryTree>
    <BinaryTree type="DecisionTree" boostWeight="1.0000000000000000e+00" itree="543">
      <Node pos="s" depth="0" NCoef="0" IVar="0" Cut="-9.3837156891822815e-03" cType="1" res="7.3520462028682232e-03" rms="4.6464145183563232e-01" purity="5.0606876611709595e-01" nType="0">
        <Node pos="l" depth="1" NCoef="0" IVar="1" Cut="7.2167217731475830e-01" cType="1" res="-5.1704645156860352e-03" rms="4.5967710018157959e-01" purity="4.5958521962165833e-01" nType="0">
          <Node pos="l" depth="2" NCoef="0" IVar="-1" Cut="0.0000000000000000e+00" cType="1" res="-9.2564726946875453e-04" rms="4.5088768005371094e-01" purity="3.4962660074234009e-01" nType="-99"/>
          <Node pos="r" depth="2" NCoef="0" IVar="-1" Cut="0.0000000000000000e+00" cType="1" res="4.4247027835808694e-04" rms="4.6876594424247742e-01" purity="5.8759289979934692e-01" nType="-99"/>
        </Node>
        <Node pos="r" depth="1" NCoef="0" IVar="6" Cut="2.7194332331418991e-02" cType="1" res="1.8176378682255745e-02" rms="4.6862071752548218e-01" purity="5.4624867439270020e-01" nType="0">
          <Node pos="l" depth="2" NCoef="0" IVar="-1" Cut="0.0000000000000000e+00" cType="1" res="-6.9132802309468389e-04" rms="4.6702301502227783e-01" purity="4.9149379134178162e-01" nType="-99"/>
          <Node pos="r" depth="2" NCoef="0" IVar="-1" Cut="0.0000000000000000e+00" cType="1" res="6.5740698482841253e-04" rms="4.6856784820556641e-01" purity="5.5330568552017212e-01" nType="-99"/>
        </Node>
      </Node>
    </BinaryTree>
    <BinaryTree type="DecisionTree" boostWeight="1.0000000000000000e+00" itree="544">
      <Node pos="s" depth="0" NCoef="0" IVar="4" Cut="9.2197448015213013e-01" cType="1" res="5.0980639643967152e-03" rms="4.6580541133880615e-01" purity="5.0300920009613037e-01" nType="0">
        <Node pos="l" depth="1" NCoef="0" IVar="0" Cut="5.0004422664642334e-02" cType="1" res="-2.9467858374118805e-02" rms="4.5269408822059631e-01" purity="3.3310824632644653e-01" nType="0">
          <Node pos="l" depth="2" NCoef="0" IVar="-1" Cut="0.0000000000000000e+00" cType="1" res="-1.9200008828192949e-03" rms="4.3790042400360107e-01" purity="2.9450678825378418e-01" nType="-99"/>
          <Node pos="r" depth="2" NCoef="0" IVar="-1" Cut="0.0000000000000000e+00" cType="1" res="-2.2798859572503716e-04" rms="4.7417283058166504e-01" purity="3.9391785860061646e-01" nType="-99"/>
        </Node>
        <Node pos="r" depth="1" NCoef="0" IVar="0" Cut="2.0631463825702667e-01" cType="1" res="1.0877109132707119e-02" rms="4.6771246194839478e-01" purity="5.3141480684280396e-01" nType="0">
          <Node pos="l" depth="2" NCoef="0" IVar="-1" Cut="0.0000000000000000e+00" cType="1" res="1.9390157831367105e-04" rms="4.6815565228462219e-01" purity="5.1949769258499146e-01" nType="-99"/>
          <Node pos="r" depth="2" NCoef="0" IVar="-1" Cut="0.0000000000000000e+00" cType="1" res="1.2808594619855285e-03" rms="4.6165090799331665e-01" purity="6.4241927862167358e-01" nType="-99"/>
        </Node>
      </Node>
    </BinaryTree>
    <BinaryTree type="DecisionTree" boostWeight="1.0000000000000000e+00" itree="545">
      <Node pos="s" depth="0" NCoef="0" IVar="8" Cut="7.7556055784225464e-01" cType="1" res="7.4223093688488007e-03" rms="4.6525177359580994e-01" purity="5.0582265853881836e-01" nType="0">
        <Node pos="l" depth="1" NCoef="0" IVar="8" Cut="7.1687114238739014e-01" cType="1" res="3.3335711807012558e-02" rms="4.6494045853614807e-01" purity="5.7345306873321533e-01" nType="0">
          <Node pos="l" depth="2" NCoef="0" IVar="-1" Cut="0.0000000000000000e+00" cType="1" res="1.1177044361829758e-03" rms="4.6374291181564331e-01" purity="5.8290493488311768e-01" nType="-99"/>
          <Node pos="r" depth="2" NCoef="0" IVar="-1" Cut="0.0000000000000000e+00" cType="1" res="1.7918892262969166e-04" rms="4.6810641884803772e-01" purity="5.4032796621322632e-01" nType="-99"/>
        </Node>
        <Node pos="r" depth="1" NCoef="0" IVar="0" Cut="-7.2173677384853363e-02" cType="1" res="-8.0673210322856903e-04" rms="4.6504861116409302e-01" purity="4.8434606194496155e-01" nType="0">
          <Node pos="l" depth="2" NCoef="0" IVar="-1" Cut="0.0000000000000000e+00" cType="1" res="-9.4722211360931396e-04" rms="4.5277923345565796e-01" purity="3.9839255809783936e-01" nType="-99"/>
          <Node pos="r" depth="2" NCoef="0" IVar="-1" Cut="0.0000000000000000e+00" cType="1" res="2.0377738110255450e-04" rms="4.6840256452560425e-01" purity="5.1020956039428711e-01" nType="-99"/>
        </Node>
      </Node>
    </BinaryTree>
    <BinaryTree type="DecisionTree" boostWeight="1.0000000000000000e+00" itree="546">
      <Node pos="s" depth="0" NCoef="0" IVar="6" Cut="1.9164255261421204e-01" cType="1" res="1.6750638606026769e-03" rms="4.6566820144653320e-01" purity="5.0008380413055420e-01" nType="0">
        <Node pos="l" depth="1" NCoef="0" IVar="4" Cut="9.3555957078933716e-01" cType="1" res="-3.1895840074867010e-03" rms="4.6576786041259766e-01" purity="4.8962682485580444e-01" nType="0">
          <Node pos="l" depth="2" NCoef="0" IVar="-1" Cut="0.0000000000000000e+00" cType="1" res="-8.8873825734481215e-04" rms="4.5700806379318237e-01" purity="3.5359752178192139e-01" nType="-99"/>
          <Node pos="r" depth="2" NCoef="0" IVar="-1" Cut="0.0000000000000000e+00" cType="1" res="1.2907928612548858e-04" rms="4.6875533461570740e-01" purity="5.4028278589248657e-01" nType="-99"/>
        </Node>
        <Node pos="r" depth="1" NCoef="0" IVar="-1" Cut="0.0000000000000000e+00" cType="1" res="1.0935689788311720e-03" rms="4.6303829550743103e-01" purity="5.8365690708160400e-01" nType="-99"/>
      </Node>
    </BinaryTree>
    <BinaryTree type="DecisionTree" boostWeight="1.0000000000000000e+00" itree="547">
      <Node pos="s" depth="0" NCoef="0" IVar="0" Cut="-6.3308298587799072e-02" cType="1" res="3.8648098707199097e-03" rms="4.6579933166503906e-01" purity="5.0108951330184937e-01" nType="0">
        <Node pos="l" depth="1" NCoef="0" IVar="8" Cut="8.2054525613784790e-01" cType="1" res="-1.6673784703016281e-02" rms="4.5968812704086304e-01" purity="4.2506039142608643e-01" nType="0">
          <Node pos="l" depth="2" NCoef="0" IVar="-1" Cut="0.0000000000000000e+00" cType="1" res="3.7345741293393075e-04" rms="4.6783006191253662e-01" purity="5.0417751073837280e-01" nType="-99"/>
          <Node pos="r" depth="2" NCoef="0" IVar="-1" Cut="0.0000000000000000e+00" cType="1" res="-1.0601121466606855e-03" rms="4.5555838942527771e-01" purity="3.9091026782989502e-01" nType="-99"/>
        </Node>
        <Node pos="r" depth="1" NCoef="0" IVar="7" Cut="1.0236292266845703e+02" cType="1" res="1.1574991047382355e-02" rms="4.6784019470214844e-01" purity="5.2963083982467651e-01" nType="0">
          <Node pos="l" depth="2" NCoef="0" IVar="-1" Cut="0.0000000000000000e+00" cType="1" res="-1.6115536709548905e-05" rms="4.6947780251502991e-01" purity="5.0363636016845703e-01" nType="-99"/>
          <Node pos="r" depth="2" NCoef="0" IVar="-1" Cut="0.0000000000000000e+00" cType="1" res="7.5221492443233728e-04" rms="4.6534913778305054e-01" purity="5.6202918291091919e-01" nType="-99"/>
        </Node>
      </Node>
    </BinaryTree>
    <BinaryTree type="DecisionTree" boostWeight="1.0000000000000000e+00" itree="548">
      <Node pos="s" depth="0" NCoef="0" IVar="6" Cut="2.9002726078033447e-02" cType="1" res="2.8555297758430243e-03" rms="4.6601033210754395e-01" purity="5.0059831142425537e-01" nType="0">
        <Node pos="l" depth="1" NCoef="0" IVar="2" Cut="6.9068383789062500e+02" cType="1" res="-3.2803475856781006e-02" rms="4.6268898248672485e-01" purity="4.2009103298187256e-01" nType="0">
          <Node pos="l" depth="2" NCoef="0" IVar="-1" Cut="0.0000000000000000e+00" cType="1" res="-2.0899444352835417e-03" rms="4.4542643427848816e-01" purity="3.4494766592979431e-01" nType="-99"/>
          <Node pos="r" depth="2" NCoef="0" IVar="-1" Cut="0.0000000000000000e+00" cType="1" res="-3.1988750561140478e-04" rms="4.7986537218093872e-01" purity="5.0222313404083252e-01" nType="-99"/>
        </Node>
        <Node pos="r" depth="1" NCoef="0" IVar="0" Cut="1.9398368895053864e-01" cType="1" res="8.0454386770725250e-03" rms="4.6626445651054382e-01" purity="5.1231557130813599e-01" nType="0">
          <Node pos="l" depth="2" NCoef="0" IVar="-1" Cut="0.0000000000000000e+00" cType="1" res="1.0801199823617935e-04" rms="4.6633228659629822e-01" purity="5.0092929601669312e-01" nType="-99"/>
          <Node pos="r" depth="2" NCoef="0" IVar="-1" Cut="0.0000000000000000e+00" cType="1" res="1.2102352920919657e-03" rms="4.6389076113700867e-01" purity="6.1048138141632080e-01" nType="-99"/>
        </Node>
      </Node>
    </BinaryTree>
    <BinaryTree type="DecisionTree" boostWeight="1.0000000000000000e+00" itree="549">
      <Node pos="s" depth="0" NCoef="0" IVar="2" Cut="8.3979327392578125e+02" cType="1" res="1.1522985732881352e-04" rms="4.6514648199081421e-01" purity="4.9764239788055420e-01" nType="0">
        <Node pos="l" depth="1" NCoef="0" IVar="4" Cut="9.8561698198318481e-01" cType="1" res="-4.4014742597937584e-03" rms="4.6529534459114075e-01" purity="4.8288360238075256e-01" nType="0">
          <Node pos="l" depth="2" NCoef="0" IVar="-1" Cut="0.0000000000000000e+00" cType="1" res="-2.8336106333881617e-04" rms="4.6909818053245544e-01" purity="4.5568683743476868e-01" nType="-99"/>
          <Node pos="r" depth="2" NCoef="0" IVar="-1" Cut="0.0000000000000000e+00" cType="1" res="9.6856459276750684e-04" rms="4.2623817920684814e-01" purity="7.3418855667114258e-01" nType="-99"/>
        </Node>
        <Node pos="r" depth="1" NCoef="0" IVar="-1" Cut="0.0000000000000000e+00" cType="1" res="1.0876941960304976e-03" rms="4.6185442805290222e-01" purity="6.2960112094879150e-01" nType="-99"/>
      </Node>
    </BinaryTree>
    <BinaryTree type="DecisionTree" boostWeight="1.0000000000000000e+00" itree="550">
      <Node pos="s" depth="0" NCoef="0" IVar="4" Cut="9.8572379350662231e-01" cType="1" res="-1.9858935847878456e-03" rms="4.6478652954101562e-01" purity="4.9612861871719360e-01" nType="0">
        <Node pos="l" depth="1" NCoef="0" IVar="0" Cut="1.8614180386066437e-01" cType="1" res="-6.8172193132340908e-03" rms="4.6917811036109924e-01" purity="4.6915990114212036e-01" nType="0">
          <Node pos="l" depth="2" NCoef="0" IVar="-1" Cut="0.0000000000000000e+00" cType="1" res="-3.7270490429364145e-04" rms="4.6838560700416565e-01" purity="4.5358693599700928e-01" nType="-99"/>
          <Node pos="r" depth="2" NCoef="0" IVar="-1" Cut="0.0000000000000000e+00" cType="1" res="7.3350878665223718e-04" rms="4.7329691052436829e-01" purity="5.7898581027984619e-01" nType="-99"/>
        </Node>
        <Node pos="r" depth="1" NCoef="0" IVar="-1" Cut="0.0000000000000000e+00" cType="1" res="1.0867521632462740e-03" rms="4.1954597830772400e-01" purity="7.4473035335540771e-01" nType="-99"/>
      </Node>
    </BinaryTree>
    <BinaryTree type="DecisionTree" boostWeight="1.0000000000000000e+00" itree="551">
      <Node pos="s" depth="0" NCoef="0" IVar="6" Cut="1.8447110056877136e-01" cType="1" res="-1.5420262934640050e-03" rms="4.6542242169380188e-01" purity="4.9586960673332214e-01" nType="0">
        <Node pos="l" depth="1" NCoef="0" IVar="2" Cut="5.4431793212890625e+02" cType="1" res="-6.1345230787992477e-03" rms="4.6506321430206299e-01" purity="4.8528552055358887e-01" nType="0">
          <Node pos="l" depth="2" NCoef="0" IVar="-1" Cut="0.0000000000000000e+00" cType="1" res="-7.1357894921675324e-04" rms="4.6092081069946289e-01" purity="4.0440350770950317e-01" nType="-99"/>
          <Node pos="r" depth="2" NCoef="0" IVar="-1" Cut="0.0000000000000000e+00" cType="1" res="2.4103026953525841e-04" rms="4.6878948807716370e-01" purity="5.6776595115661621e-01" nType="-99"/>
        </Node>
        <Node pos="r" depth="1" NCoef="0" IVar="8" Cut="1.1210122108459473e+00" cType="1" res="3.1416259706020355e-02" rms="4.6666789054870605e-01" purity="5.7182699441909790e-01" nType="0">
          <Node pos="l" depth="2" NCoef="0" IVar="-1" Cut="0.0000000000000000e+00" cType="1" res="1.2661174405366182e-03" rms="4.5903423428535461e-01" purity="6.1457872390747070e-01" nType="-99"/>
          <Node pos="r" depth="2" NCoef="0" IVar="-1" Cut="0.0000000000000000e+00" cType="1" res="3.8110523018985987e-04" rms="4.7363725304603577e-01" purity="5.2828890085220337e-01" nType="-99"/>
        </Node>
      </Node>
    </BinaryTree>
    <BinaryTree type="DecisionTree" boostWeight="1.0000000000000000e+00" itree="552">
      <Node pos="s" depth="0" NCoef="0" IVar="0" Cut="1.3348686695098877e-01" cType="1" res="3.4073339775204659e-03" rms="4.6622496843338013e-01" purity="5.0044411420822144e-01" nType="0">
        <Node pos="l" depth="1" NCoef="0" IVar="1" Cut="5.5672770738601685e-01" cType="1" res="-2.3082008119672537e-03" rms="4.6514436602592468e-01" purity="4.7993955016136169e-01" nType="0">
          <Node pos="l" depth="2" NCoef="0" IVar="-1" Cut="0.0000000000000000e+00" cType="1" res="-1.0522416559979320e-03" rms="4.4062235951423645e-01" purity="3.2229536771774292e-01" nType="-99"/>
          <Node pos="r" depth="2" NCoef="0" IVar="-1" Cut="0.0000000000000000e+00" cType="1" res="1.5032477676868439e-04" rms="4.7262120246887207e-01" purity="5.3133815526962280e-01" nType="-99"/>
        </Node>
        <Node pos="r" depth="1" NCoef="0" IVar="3" Cut="8.3085250854492188e+01" cType="1" res="2.5871578603982925e-02" rms="4.6977484226226807e-01" purity="5.8103501796722412e-01" nType="0">
          <Node pos="l" depth="2" NCoef="0" IVar="-1" Cut="0.0000000000000000e+00" cType="1" res="1.0845036013051867e-03" rms="4.7122693061828613e-01" purity="5.8643627166748047e-01" nType="-99"/>
          <Node pos="r" depth="2" NCoef="0" IVar="-1" Cut="0.0000000000000000e+00" cType="1" res="3.3775740303099155e-04" rms="4.6802568435668945e-01" purity="5.7608872652053833e-01" nType="-99"/>
        </Node>
      </Node>
    </BinaryTree>
    <BinaryTree type="DecisionTree" boostWeight="1.0000000000000000e+00" itree="553">
      <Node pos="s" depth="0" NCoef="0" IVar="3" Cut="1.4049632263183594e+02" cType="1" res="5.5116466246545315e-03" rms="4.6651968359947205e-01" purity="5.0210881233215332e-01" nType="0">
        <Node pos="l" depth="1" NCoef="0" IVar="4" Cut="9.2624711990356445e-01" cType="1" res="1.9936864264309406e-03" rms="4.6721234917640686e-01" purity="4.9263891577720642e-01" nType="0">
          <Node pos="l" depth="2" NCoef="0" IVar="-1" Cut="0.0000000000000000e+00" cType="1" res="-9.3533599283546209e-04" rms="4.5637071132659912e-01" purity="3.3533424139022827e-01" nType="-99"/>
          <Node pos="r" depth="2" NCoef="0" IVar="-1" Cut="0.0000000000000000e+00" cType="1" res="2.2275758965406567e-04" rms="4.6934938430786133e-01" purity="5.2689528465270996e-01" nType="-99"/>
        </Node>
        <Node pos="r" depth="1" NCoef="0" IVar="-1" Cut="0.0000000000000000e+00" cType="1" res="1.0934724705293775e-03" rms="4.5829409360885620e-01" purity="5.9448146820068359e-01" nType="-99"/>
      </Node>
    </BinaryTree>
    <BinaryTree type="DecisionTree" boostWeight="1.0000000000000000e+00" itree="554">
      <Node pos="s" depth="0" NCoef="0" IVar="4" Cut="9.8561698198318481e-01" cType="1" res="-2.7608219534158707e-04" rms="4.6510013937950134e-01" purity="4.9778944253921509e-01" nType="0">
        <Node pos="l" depth="1" NCoef="0" IVar="6" Cut="1.1405631154775620e-01" cType="1" res="-4.6491073444485664e-03" rms="4.6933925151824951e-01" purity="4.7145459055900574e-01" nType="0">
          <Node pos="l" depth="2" NCoef="0" IVar="-1" Cut="0.0000000000000000e+00" cType="1" res="-4.2450049659237266e-04" rms="4.6716049313545227e-01" purity="4.4875925779342651e-01" nType="-99"/>
          <Node pos="r" depth="2" NCoef="0" IVar="-1" Cut="0.0000000000000000e+00" cType="1" res="3.5509211011230946e-04" rms="4.7321215271949768e-01" purity="5.1692283153533936e-01" nType="-99"/>
        </Node>
        <Node pos="r" depth="1" NCoef="0" IVar="-1" Cut="0.0000000000000000e+00" cType="1" res="1.0401019826531410e-03" rms="4.2127197980880737e-01" purity="7.4377822875976562e-01" nType="-99"/>
      </Node>
    </BinaryTree>
    <BinaryTree type="DecisionTree" boostWeight="1.0000000000000000e+00" itree="555">
      <Node pos="s" depth="0" NCoef="0" IVar="1" Cut="8.6569797992706299e-01" cType="1" res="1.2211611028760672e-03" rms="4.6546170115470886e-01" purity="4.9799114465713501e-01" nType="0">
        <Node pos="l" depth="1" NCoef="0" IVar="0" Cut="2.6292677968740463e-02" cType="1" res="-2.6943248230963945e-03" rms="4.6603864431381226e-01" purity="4.8555916547775269e-01" nType="0">
          <Node pos="l" depth="2" NCoef="0" IVar="-1" Cut="0.0000000000000000e+00" cType="1" res="-4.4139934470877051e-04" rms="4.6149298548698425e-01" purity="4.3863430619239807e-01" nType="-99"/>
          <Node pos="r" depth="2" NCoef="0" IVar="-1" Cut="0.0000000000000000e+00" cType="1" res="2.7976330602541566e-04" rms="4.7104972600936890e-01" purity="5.4105323553085327e-01" nType="-99"/>
        </Node>
        <Node pos="r" depth="1" NCoef="0" IVar="-1" Cut="0.0000000000000000e+00" cType="1" res="1.2814161600545049e-03" rms="4.5508721470832825e-01" purity="6.5663468837738037e-01" nType="-99"/>
      </Node>
    </BinaryTree>
    <BinaryTree type="DecisionTree" boostWeight="1.0000000000000000e+00" itree="556">
      <Node pos="s" depth="0" NCoef="0" IVar="6" Cut="4.1527409106492996e-02" cType="1" res="-3.7395670078694820e-03" rms="4.6597310900688171e-01" purity="4.9371877312660217e-01" nType="0">
        <Node pos="l" depth="1" NCoef="0" IVar="3" Cut="7.4222618103027344e+01" cType="1" res="-2.6641890406608582e-02" rms="4.6311587095260620e-01" purity="4.3327564001083374e-01" nType="0">
          <Node pos="l" depth="2" NCoef="0" IVar="-1" Cut="0.0000000000000000e+00" cType="1" res="-1.4477752847597003e-04" rms="4.6558153629302979e-01" purity="4.4167396426200867e-01" nType="-99"/>
          <Node pos="r" depth="2" NCoef="0" IVar="-1" Cut="0.0000000000000000e+00" cType="1" res="-1.3059548800811172e-03" rms="4.6139204502105713e-01" purity="4.2888227105140686e-01" nType="-99"/>
        </Node>
        <Node pos="r" depth="1" NCoef="0" IVar="2" Cut="3.6839523315429688e+02" cType="1" res="2.5758137926459312e-03" rms="4.6656021475791931e-01" purity="5.1038616895675659e-01" nType="0">
          <Node pos="l" depth="2" NCoef="0" IVar="-1" Cut="0.0000000000000000e+00" cType="1" res="-1.9715998787432909e-03" rms="4.3320587277412415e-01" purity="3.0744341015815735e-01" nType="-99"/>
          <Node pos="r" depth="2" NCoef="0" IVar="-1" Cut="0.0000000000000000e+00" cType="1" res="2.1361593098845333e-04" rms="4.6939143538475037e-01" purity="5.3006809949874878e-01" nType="-99"/>
        </Node>
      </Node>
    </BinaryTree>
    <BinaryTree type="DecisionTree" boostWeight="1.0000000000000000e+00" itree="557">
      <Node pos="s" depth="0" NCoef="0" IVar="8" Cut="1.2679917812347412e+00" cType="1" res="-4.4857119792141020e-04" rms="4.6651855111122131e-01" purity="4.9538716673851013e-01" nType="0">
        <Node pos="l" depth="1" NCoef="0" IVar="0" Cut="9.7416885197162628e-02" cType="1" res="7.1139163337647915e-03" rms="4.6958604454994202e-01" purity="5.2306449413299561e-01" nType="0">
          <Node pos="l" depth="2" NCoef="0" IVar="-1" Cut="0.0000000000000000e+00" cType="1" res="-1.0743385246314574e-05" rms="4.6932193636894226e-01" purity="4.9782487750053406e-01" nType="-99"/>
          <Node pos="r" depth="2" NCoef="0" IVar="-1" Cut="0.0000000000000000e+00" cType="1" res="7.1747845504432917e-04" rms="4.6971225738525391e-01" purity="5.8973461389541626e-01" nType="-99"/>
        </Node>
        <Node pos="r" depth="1" NCoef="0" IVar="6" Cut="1.7112836241722107e-01" cType="1" res="-1.6818400472402573e-02" rms="4.5938229560852051e-01" purity="4.3547642230987549e-01" nType="0">
          <Node pos="l" depth="2" NCoef="0" IVar="-1" Cut="0.0000000000000000e+00" cType="1" res="-8.7692280067130923e-04" rms="4.5596075057983398e-01" purity="4.1484642028808594e-01" nType="-99"/>
          <Node pos="r" depth="2" NCoef="0" IVar="-1" Cut="0.0000000000000000e+00" cType="1" res="6.6849496215581894e-04" rms="4.7290730476379395e-01" purity="5.3131312131881714e-01" nType="-99"/>
        </Node>
      </Node>
    </BinaryTree>
    <BinaryTree type="DecisionTree" boostWeight="1.0000000000000000e+00" itree="558">
      <Node pos="s" depth="0" NCoef="0" IVar="3" Cut="1.5208282470703125e+02" cType="1" res="2.0652404054999352e-03" rms="4.6429622173309326e-01" purity="5.0061571598052979e-01" nType="0">
        <Node pos="l" depth="1" NCoef="0" IVar="8" Cut="1.6717007160186768e+00" cType="1" res="-2.8183765243738890e-03" rms="4.6536380052566528e-01" purity="4.9083542823791504e-01" nType="0">
          <Node pos="l" depth="2" NCoef="0" IVar="-1" Cut="0.0000000000000000e+00" cType="1" res="5.8005713071906939e-05" rms="4.6685719490051270e-01" purity="5.0279378890991211e-01" nType="-99"/>
          <Node pos="r" depth="2" NCoef="0" IVar="-1" Cut="0.0000000000000000e+00" cType="1" res="-2.1985515486449003e-03" rms="4.4437998533248901e-01" purity="3.5428187251091003e-01" nType="-99"/>
        </Node>
        <Node pos="r" depth="1" NCoef="0" IVar="-1" Cut="0.0000000000000000e+00" cType="1" res="1.9158797804266214e-03" rms="4.4206401705741882e-01" purity="6.4470756053924561e-01" nType="-99"/>
      </Node>
    </BinaryTree>
    <BinaryTree type="DecisionTree" boostWeight="1.0000000000000000e+00" itree="559">
      <Node pos="s" depth="0" NCoef="0" IVar="0" Cut="2.2462564706802368e-01" cType="1" res="2.3693998809903860e-03" rms="4.6528434753417969e-01" purity="5.0000804662704468e-01" nType="0">
        <Node pos="l" depth="1" NCoef="0" IVar="1" Cut="4.3735226988792419e-01" cType="1" res="-9.9425006192177534e-04" rms="4.6504610776901245e-01" purity="4.9071422219276428e-01" nType="0">
          <Node pos="l" depth="2" NCoef="0" IVar="-1" Cut="0.0000000000000000e+00" cType="1" res="-2.1949708461761475e-03" rms="4.3739229440689087e-01" purity="3.0797848105430603e-01" nType="-99"/>
          <Node pos="r" depth="2" NCoef="0" IVar="-1" Cut="0.0000000000000000e+00" cType="1" res="1.2346032599452883e-04" rms="4.6753463149070740e-01" purity="5.0976085662841797e-01" nType="-99"/>
        </Node>
        <Node pos="r" depth="1" NCoef="0" IVar="-1" Cut="0.0000000000000000e+00" cType="1" res="1.1937088565900922e-03" rms="4.6616715192794800e-01" purity="6.2081092596054077e-01" nType="-99"/>
      </Node>
    </BinaryTree>
    <BinaryTree type="DecisionTree" boostWeight="1.0000000000000000e+00" itree="560">
      <Node pos="s" depth="0" NCoef="0" IVar="5" Cut="1.2615169584751129e-01" cType="1" res="1.7163931624963880e-03" rms="4.6499642729759216e-01" purity="4.9829199910163879e-01" nType="0">
        <Node pos="l" depth="1" NCoef="0" IVar="-1" Cut="0.0000000000000000e+00" cType="1" res="-1.7347256653010845e-03" rms="4.4394403696060181e-01" purity="3.5720726847648621e-01" nType="-99"/>
        <Node pos="r" depth="1" NCoef="0" IVar="2" Cut="4.3192135620117188e+02" cType="1" res="4.9245948903262615e-03" rms="4.6625787019729614e-01" purity="5.0811874866485596e-01" nType="0">
          <Node pos="l" depth="2" NCoef="0" IVar="-1" Cut="0.0000000000000000e+00" cType="1" res="-5.1405408885329962e-04" rms="4.5276549458503723e-01" purity="3.6524578928947449e-01" nType="-99"/>
          <Node pos="r" depth="2" NCoef="0" IVar="-1" Cut="0.0000000000000000e+00" cType="1" res="3.0521355802193284e-04" rms="4.7029998898506165e-01" purity="5.5342572927474976e-01" nType="-99"/>
        </Node>
      </Node>
    </BinaryTree>
    <BinaryTree type="DecisionTree" boostWeight="1.0000000000000000e+00" itree="561">
      <Node pos="s" depth="0" NCoef="0" IVar="6" Cut="2.1273624897003174e-01" cType="1" res="1.7530167242512107e-03" rms="4.6637284755706787e-01" purity="4.9921113252639771e-01" nType="0">
        <Node pos="l" depth="1" NCoef="0" IVar="0" Cut="2.2441691160202026e-01" cType="1" res="-1.4814401511102915e-03" rms="4.6625441312789917e-01" purity="4.9173331260681152e-01" nType="0">
          <Node pos="l" depth="2" NCoef="0" IVar="-1" Cut="0.0000000000000000e+00" cType="1" res="-1.4821482182014734e-04" rms="4.6554490923881531e-01" purity="4.8203867673873901e-01" nType="-99"/>
          <Node pos="r" depth="2" NCoef="0" IVar="-1" Cut="0.0000000000000000e+00" cType="1" res="9.8017696291208267e-04" rms="4.7290790081024170e-01" purity="6.0774803161621094e-01" nType="-99"/>
        </Node>
        <Node pos="r" depth="1" NCoef="0" IVar="-1" Cut="0.0000000000000000e+00" cType="1" res="1.0437755845487118e-03" rms="4.6612066030502319e-01" purity="5.8529102802276611e-01" nType="-99"/>
      </Node>
    </BinaryTree>
    <BinaryTree type="DecisionTree" boostWeight="1.0000000000000000e+00" itree="562">
      <Node pos="s" depth="0" NCoef="0" IVar="4" Cut="9.8097652196884155e-01" cType="1" res="3.1697116792201996e-03" rms="4.6493622660636902e-01" purity="5.0130182504653931e-01" nType="0">
        <Node pos="l" depth="1" NCoef="0" IVar="0" Cut="2.2513025999069214e-01" cType="1" res="-2.2386447526514530e-03" rms="4.7044771909713745e-01" purity="4.6471056342124939e-01" nType="0">
          <Node pos="l" depth="2" NCoef="0" IVar="-1" Cut="0.0000000000000000e+00" cType="1" res="-1.9638182129710913e-04" rms="4.6962437033653259e-01" purity="4.5427191257476807e-01" nType="-99"/>
          <Node pos="r" depth="2" NCoef="0" IVar="-1" Cut="0.0000000000000000e+00" cType="1" res="1.2152291601523757e-03" rms="4.7772952914237976e-01" purity="5.9279382228851318e-01" nType="-99"/>
        </Node>
        <Node pos="r" depth="1" NCoef="0" IVar="-1" Cut="0.0000000000000000e+00" cType="1" res="9.4787089619785547e-04" rms="4.2760515213012695e-01" purity="7.2850096225738525e-01" nType="-99"/>
      </Node>
    </BinaryTree>
    <BinaryTree type="DecisionTree" boostWeight="1.0000000000000000e+00" itree="563">
      <Node pos="s" depth="0" NCoef="0" IVar="0" Cut="2.2413146495819092e-01" cType="1" res="3.0550835654139519e-03" rms="4.6415805816650391e-01" purity="5.0208604335784912e-01" nType="0">
        <Node pos="l" depth="1" NCoef="0" IVar="1" Cut="4.1260874271392822e-01" cType="1" res="-6.7027605837211013e-04" rms="4.6392282843589783e-01" purity="4.9250680208206177e-01" nType="0">
          <Node pos="l" depth="2" NCoef="0" IVar="-1" Cut="0.0000000000000000e+00" cType="1" res="-2.8341731522232294e-03" rms="4.2358949780464172e-01" purity="2.8758060932159424e-01" nType="-99"/>
          <Node pos="r" depth="2" NCoef="0" IVar="-1" Cut="0.0000000000000000e+00" cType="1" res="1.1217531573493034e-04" rms="4.6633714437484741e-01" purity="5.0706171989440918e-01" nType="-99"/>
        </Node>
        <Node pos="r" depth="1" NCoef="0" IVar="-1" Cut="0.0000000000000000e+00" cType="1" res="1.2797781964763999e-03" rms="4.6455585956573486e-01" purity="6.2298643589019775e-01" nType="-99"/>
      </Node>
    </BinaryTree>
    <BinaryTree type="DecisionTree" boostWeight="1.0000000000000000e+00" itree="564">
      <Node pos="s" depth="0" NCoef="0" IVar="8" Cut="1.1708897352218628e+00" cType="1" res="1.8927910423371941e-04" rms="4.6451869606971741e-01" purity="4.9795228242874146e-01" nType="0">
        <Node pos="l" depth="1" NCoef="0" IVar="0" Cut="-8.7051978334784508e-03" cType="1" res="1.0014776140451431e-02" rms="4.6679142117500305e-01" purity="5.3347283601760864e-01" nType="0">
          <Node pos="l" depth="2" NCoef="0" IVar="-1" Cut="0.0000000000000000e+00" cType="1" res="-1.5609146794304252e-04" rms="4.6781542897224426e-01" purity="4.8428595066070557e-01" nType="-99"/>
          <Node pos="r" depth="2" NCoef="0" IVar="-1" Cut="0.0000000000000000e+00" cType="1" res="6.3031888566911221e-04" rms="4.6550023555755615e-01" purity="5.7636082172393799e-01" nType="-99"/>
        </Node>
        <Node pos="r" depth="1" NCoef="0" IVar="1" Cut="7.4590599536895752e-01" cType="1" res="-1.4980983920395374e-02" rms="4.6057620644569397e-01" purity="4.4310960173606873e-01" nType="0">
          <Node pos="l" depth="2" NCoef="0" IVar="-1" Cut="0.0000000000000000e+00" cType="1" res="-7.8138674143701792e-04" rms="4.5705661177635193e-01" purity="4.0571311116218567e-01" nType="-99"/>
          <Node pos="r" depth="2" NCoef="0" IVar="-1" Cut="0.0000000000000000e+00" cType="1" res="2.6130667538382113e-04" rms="4.7140341997146606e-01" purity="5.6894367933273315e-01" nType="-99"/>
        </Node>
      </Node>
    </BinaryTree>
    <BinaryTree type="DecisionTree" boostWeight="1.0000000000000000e+00" itree="565">
      <Node pos="s" depth="0" NCoef="0" IVar="2" Cut="9.5383428955078125e+02" cType="1" res="4.8680845648050308e-03" rms="4.6590813994407654e-01" purity="5.0231742858886719e-01" nType="0">
        <Node pos="l" depth="1" NCoef="0" IVar="6" Cut="1.4250834286212921e-01" cType="1" res="1.6807774081826210e-03" rms="4.6641945838928223e-01" purity="4.9310323596000671e-01" nType="0">
          <Node pos="l" depth="2" NCoef="0" IVar="-1" Cut="0.0000000000000000e+00" cType="1" res="-1.9842699111904949e-04" rms="4.6585613489151001e-01" purity="4.7130283713340759e-01" nType="-99"/>
          <Node pos="r" depth="2" NCoef="0" IVar="-1" Cut="0.0000000000000000e+00" cType="1" res="7.3014566441997886e-04" rms="4.6729463338851929e-01" purity="5.6081312894821167e-01" nType="-99"/>
        </Node>
        <Node pos="r" depth="1" NCoef="0" IVar="-1" Cut="0.0000000000000000e+00" cType="1" res="1.4590943465009332e-03" rms="4.5458590984344482e-01" purity="6.5009856224060059e-01" nType="-99"/>
      </Node>
    </BinaryTree>
    <BinaryTree type="DecisionTree" boostWeight="1.0000000000000000e+00" itree="566">
      <Node pos="s" depth="0" NCoef="0" IVar="6" Cut="2.1906469762325287e-01" cType="1" res="4.3694940395653248e-03" rms="4.6610170602798462e-01" purity="5.0196683406829834e-01" nType="0">
        <Node pos="l" depth="1" NCoef="0" IVar="3" Cut="7.4222618103027344e+01" cType="1" res="1.1865969281643629e-03" rms="4.6644529700279236e-01" purity="4.9488848447799683e-01" nType="0">
          <Node pos="l" depth="2" NCoef="0" IVar="-1" Cut="0.0000000000000000e+00" cType="1" res="4.9804698210209608e-04" rms="4.6725934743881226e-01" purity="4.9998405575752258e-01" nType="-99"/>
          <Node pos="r" depth="2" NCoef="0" IVar="-1" Cut="0.0000000000000000e+00" cType="1" res="-2.3519822570960969e-04" rms="4.6574658155441284e-01" purity="4.9195390939712524e-01" nType="-99"/>
        </Node>
        <Node pos="r" depth="1" NCoef="0" IVar="-1" Cut="0.0000000000000000e+00" cType="1" res="1.2222103541716933e-03" rms="4.5956110954284668e-01" purity="5.9452378749847412e-01" nType="-99"/>
      </Node>
    </BinaryTree>
    <BinaryTree type="DecisionTree" boostWeight="1.0000000000000000e+00" itree="567">
      <Node pos="s" depth="0" NCoef="0" IVar="5" Cut="5.1409637928009033e-01" cType="1" res="1.6757915727794170e-03" rms="4.6591809391975403e-01" purity="4.9844345450401306e-01" nType="0">
        <Node pos="l" depth="1" NCoef="0" IVar="0" Cut="2.0583105087280273e-01" cType="1" res="-7.6529388315975666e-03" rms="4.6513515710830688e-01" purity="4.7010886669158936e-01" nType="0">
          <Node pos="l" depth="2" NCoef="0" IVar="-1" Cut="0.0000000000000000e+00" cType="1" res="-4.4873121078126132e-04" rms="4.6409037709236145e-01" purity="4.5118138194084167e-01" nType="-99"/>
          <Node pos="r" depth="2" NCoef="0" IVar="-1" Cut="0.0000000000000000e+00" cType="1" res="9.1016973601654172e-04" rms="4.7010985016822815e-01" purity="6.0062766075134277e-01" nType="-99"/>
        </Node>
        <Node pos="r" depth="1" NCoef="0" IVar="6" Cut="1.1180681735277176e-01" cType="1" res="2.4145552888512611e-02" rms="4.6703425049781799e-01" purity="5.6669169664382935e-01" nType="0">
          <Node pos="l" depth="2" NCoef="0" IVar="-1" Cut="0.0000000000000000e+00" cType="1" res="-3.2383119105361402e-05" rms="4.7363054752349854e-01" purity="5.3868806362152100e-01" nType="-99"/>
          <Node pos="r" depth="2" NCoef="0" IVar="-1" Cut="0.0000000000000000e+00" cType="1" res="9.2850142391398549e-04" rms="4.6402236819267273e-01" purity="5.7775652408599854e-01" nType="-99"/>
        </Node>
      </Node>
    </BinaryTree>
    <BinaryTree type="DecisionTree" boostWeight="1.0000000000000000e+00" itree="568">
      <Node pos="s" depth="0" NCoef="0" IVar="4" Cut="9.4924986362457275e-01" cType="1" res="5.9023951180279255e-03" rms="4.6561062335968018e-01" purity="5.0235354900360107e-01" nType="0">
        <Node pos="l" depth="1" NCoef="0" IVar="1" Cut="4.1355133056640625e-01" cType="1" res="-5.8039161376655102e-03" rms="4.6723237633705139e-01" purity="3.9922156929969788e-01" nType="0">
          <Node pos="l" depth="2" NCoef="0" IVar="-1" Cut="0.0000000000000000e+00" cType="1" res="-1.5628655673936009e-03" rms="4.3293666839599609e-01" purity="3.0671581625938416e-01" nType="-99"/>
          <Node pos="r" depth="2" NCoef="0" IVar="-1" Cut="0.0000000000000000e+00" cType="1" res="-5.9722857258748263e-05" rms="4.7129335999488831e-01" purity="4.1106915473937988e-01" nType="-99"/>
        </Node>
        <Node pos="r" depth="1" NCoef="0" IVar="4" Cut="9.8675352334976196e-01" cType="1" res="1.5746850520372391e-02" rms="4.6401390433311462e-01" purity="5.8908283710479736e-01" nType="0">
          <Node pos="l" depth="2" NCoef="0" IVar="-1" Cut="0.0000000000000000e+00" cType="1" res="2.6240377337671816e-04" rms="4.7272098064422607e-01" purity="5.5802947282791138e-01" nType="-99"/>
          <Node pos="r" depth="2" NCoef="0" IVar="-1" Cut="0.0000000000000000e+00" cType="1" res="1.2700035003945231e-03" rms="4.1260516643524170e-01" purity="7.5543528795242310e-01" nType="-99"/>
        </Node>
      </Node>
    </BinaryTree>
    <BinaryTree type="DecisionTree" boostWeight="1.0000000000000000e+00" itree="569">
      <Node pos="s" depth="0" NCoef="0" IVar="4" Cut="9.8562657833099365e-01" cType="1" res="1.4412272721529007e-03" rms="4.6514371037483215e-01" purity="4.9902540445327759e-01" nType="0">
        <Node pos="l" depth="1" NCoef="0" IVar="2" Cut="9.2496771240234375e+02" cType="1" res="-2.2648717276751995e-03" rms="4.6946445107460022e-01" purity="4.7350719571113586e-01" nType="0">
          <Node pos="l" depth="2" NCoef="0" IVar="-1" Cut="0.0000000000000000e+00" cType="1" res="-1.7348492110613734e-04" rms="4.6961691975593567e-01" purity="4.6293488144874573e-01" nType="-99"/>
          <Node pos="r" depth="2" NCoef="0" IVar="-1" Cut="0.0000000000000000e+00" cType="1" res="1.1344351805746555e-03" rms="4.6496936678886414e-01" purity="6.2070566415786743e-01" nType="-99"/>
        </Node>
        <Node pos="r" depth="1" NCoef="0" IVar="-1" Cut="0.0000000000000000e+00" cType="1" res="9.4762956723570824e-04" rms="4.2028874158859253e-01" purity="7.4134790897369385e-01" nType="-99"/>
      </Node>
    </BinaryTree>
    <BinaryTree type="DecisionTree" boostWeight="1.0000000000000000e+00" itree="570">
      <Node pos="s" depth="0" NCoef="0" IVar="3" Cut="7.3552055358886719e+01" cType="1" res="-9.3953130999580026e-04" rms="4.6494081616401672e-01" purity="4.9692165851593018e-01" nType="0">
        <Node pos="l" depth="1" NCoef="0" IVar="0" Cut="-3.4371264278888702e-02" cType="1" res="1.6777431592345238e-02" rms="4.6326687932014465e-01" purity="5.0852531194686890e-01" nType="0">
          <Node pos="l" depth="2" NCoef="0" IVar="-1" Cut="0.0000000000000000e+00" cType="1" res="-4.3630477739498019e-04" rms="4.5415270328521729e-01" purity="4.3706506490707397e-01" nType="-99"/>
          <Node pos="r" depth="2" NCoef="0" IVar="-1" Cut="0.0000000000000000e+00" cType="1" res="9.5306854927912354e-04" rms="4.6764123439788818e-01" purity="5.5034703016281128e-01" nType="-99"/>
        </Node>
        <Node pos="r" depth="1" NCoef="0" IVar="2" Cut="7.3976556396484375e+02" cType="1" res="-1.1212951503694057e-02" rms="4.6560001373291016e-01" purity="4.9019315838813782e-01" nType="0">
          <Node pos="l" depth="2" NCoef="0" IVar="-1" Cut="0.0000000000000000e+00" cType="1" res="-6.2140007503330708e-04" rms="4.6609079837799072e-01" purity="4.5955714583396912e-01" nType="-99"/>
          <Node pos="r" depth="2" NCoef="0" IVar="-1" Cut="0.0000000000000000e+00" cType="1" res="5.6147167924791574e-04" rms="4.6232277154922485e-01" purity="6.0877519845962524e-01" nType="-99"/>
        </Node>
      </Node>
    </BinaryTree>
    <BinaryTree type="DecisionTree" boostWeight="1.0000000000000000e+00" itree="571">
      <Node pos="s" depth="0" NCoef="0" IVar="3" Cut="1.4090058898925781e+02" cType="1" res="3.5154582001268864e-03" rms="4.6526101231575012e-01" purity="5.0166952610015869e-01" nType="0">
        <Node pos="l" depth="1" NCoef="0" IVar="4" Cut="9.8549979925155640e-01" cType="1" res="-5.0490285502746701e-04" rms="4.6646061539649963e-01" purity="4.9100214242935181e-01" nType="0">
          <Node pos="l" depth="2" NCoef="0" IVar="-1" Cut="0.0000000000000000e+00" cType="1" res="-1.4037836808711290e-04" rms="4.7059291601181030e-01" purity="4.6488171815872192e-01" nType="-99"/>
          <Node pos="r" depth="2" NCoef="0" IVar="-1" Cut="0.0000000000000000e+00" cType="1" res="9.5388671616092324e-04" rms="4.2388048768043518e-01" purity="7.3626750707626343e-01" nType="-99"/>
        </Node>
        <Node pos="r" depth="1" NCoef="0" IVar="-1" Cut="0.0000000000000000e+00" cType="1" res="1.1573785450309515e-03" rms="4.5155617594718933e-01" purity="6.0547858476638794e-01" nType="-99"/>
      </Node>
    </BinaryTree>
    <BinaryTree type="DecisionTree" boostWeight="1.0000000000000000e+00" itree="572">
      <Node pos="s" depth="0" NCoef="0" IVar="3" Cut="7.4118263244628906e+01" cType="1" res="3.1186162959784269e-03" rms="4.6460133790969849e-01" purity="5.0103276968002319e-01" nType="0">
        <Node pos="l" depth="1" NCoef="0" IVar="4" Cut="9.3193787336349487e-01" cType="1" res="1.8530165776610374e-02" rms="4.6575108170509338e-01" purity="5.0656306743621826e-01" nType="0">
          <Node pos="l" depth="2" NCoef="0" IVar="-1" Cut="0.0000000000000000e+00" cType="1" res="-3.0241566128097475e-04" rms="4.5743012428283691e-01" purity="3.5386413335800171e-01" nType="-99"/>
          <Node pos="r" depth="2" NCoef="0" IVar="-1" Cut="0.0000000000000000e+00" cType="1" res="7.5357413152232766e-04" rms="4.6796822547912598e-01" purity="5.5337864160537720e-01" nType="-99"/>
        </Node>
        <Node pos="r" depth="1" NCoef="0" IVar="2" Cut="7.5095507812500000e+02" cType="1" res="-5.9125795960426331e-03" rms="4.6368831396102905e-01" purity="4.9779203534126282e-01" nType="0">
          <Node pos="l" depth="2" NCoef="0" IVar="-1" Cut="0.0000000000000000e+00" cType="1" res="-4.1422597132623196e-04" rms="4.6376445889472961e-01" purity="4.7004815936088562e-01" nType="-99"/>
          <Node pos="r" depth="2" NCoef="0" IVar="-1" Cut="0.0000000000000000e+00" cType="1" res="6.6476658685132861e-04" rms="4.6212086081504822e-01" purity="6.1416655778884888e-01" nType="-99"/>
        </Node>
      </Node>
    </BinaryTree>
    <BinaryTree type="DecisionTree" boostWeight="1.0000000000000000e+00" itree="573">
      <Node pos="s" depth="0" NCoef="0" IVar="3" Cut="1.3407221984863281e+02" cType="1" res="4.5901597477495670e-03" rms="4.6402043104171753e-01" purity="5.0476312637329102e-01" nType="0">
        <Node pos="l" depth="1" NCoef="0" IVar="4" Cut="9.3531268835067749e-01" cType="1" res="-3.3406817237846553e-04" rms="4.6499109268188477e-01" purity="4.9235254526138306e-01" nType="0">
          <Node pos="l" depth="2" NCoef="0" IVar="-1" Cut="0.0000000000000000e+00" cType="1" res="-8.9144380763173103e-04" rms="4.5691248774528503e-01" purity="3.4818735718727112e-01" nType="-99"/>
          <Node pos="r" depth="2" NCoef="0" IVar="-1" Cut="0.0000000000000000e+00" cType="1" res="2.2662589617539197e-04" rms="4.6756520867347717e-01" purity="5.4388338327407837e-01" nType="-99"/>
        </Node>
        <Node pos="r" depth="1" NCoef="0" IVar="2" Cut="5.7734613037109375e+02" cType="1" res="4.0219090878963470e-02" rms="4.5535191893577576e-01" purity="5.9455949068069458e-01" nType="0">
          <Node pos="l" depth="2" NCoef="0" IVar="-1" Cut="0.0000000000000000e+00" cType="1" res="1.3670722546521574e-04" rms="4.7006732225418091e-01" purity="4.8207795619964600e-01" nType="-99"/>
          <Node pos="r" depth="2" NCoef="0" IVar="-1" Cut="0.0000000000000000e+00" cType="1" res="1.6612651525065303e-03" rms="4.4289630651473999e-01" purity="6.7418843507766724e-01" nType="-99"/>
        </Node>
      </Node>
    </BinaryTree>
    <BinaryTree type="DecisionTree" boostWeight="1.0000000000000000e+00" itree="574">
      <Node pos="s" depth="0" NCoef="0" IVar="3" Cut="1.3554130554199219e+02" cType="1" res="-1.0478495823917910e-04" rms="4.6497809886932373e-01" purity="4.9687662720680237e-01" nType="0">
        <Node pos="l" depth="1" NCoef="0" IVar="3" Cut="6.4727378845214844e+01" cType="1" res="-5.4693575948476791e-03" rms="4.6624678373336792e-01" purity="4.8390084505081177e-01" nType="0">
          <Node pos="l" depth="2" NCoef="0" IVar="-1" Cut="0.0000000000000000e+00" cType="1" res="4.4888650882057846e-04" rms="4.6574604511260986e-01" purity="5.0356340408325195e-01" nType="-99"/>
          <Node pos="r" depth="2" NCoef="0" IVar="-1" Cut="0.0000000000000000e+00" cType="1" res="-4.5900052646175027e-04" rms="4.6618196368217468e-01" purity="4.7515302896499634e-01" nType="-99"/>
        </Node>
        <Node pos="r" depth="1" NCoef="0" IVar="5" Cut="3.4613418579101562e-01" cType="1" res="4.0848437696695328e-02" rms="4.5308801531791687e-01" purity="5.9593403339385986e-01" nType="0">
          <Node pos="l" depth="2" NCoef="0" IVar="-1" Cut="0.0000000000000000e+00" cType="1" res="8.6862681200727820e-04" rms="4.6007674932479858e-01" purity="5.3625506162643433e-01" nType="-99"/>
          <Node pos="r" depth="2" NCoef="0" IVar="-1" Cut="0.0000000000000000e+00" cType="1" res="1.2984843924641609e-03" rms="4.4713872671127319e-01" purity="6.4438700675964355e-01" nType="-99"/>
        </Node>
      </Node>
    </BinaryTree>
    <BinaryTree type="DecisionTree" boostWeight="1.0000000000000000e+00" itree="575">
      <Node pos="s" depth="0" NCoef="0" IVar="3" Cut="1.4597004699707031e+02" cType="1" res="2.5452065747231245e-03" rms="4.6532082557678223e-01" purity="5.0033855438232422e-01" nType="0">
        <Node pos="l" depth="1" NCoef="0" IVar="8" Cut="1.6651811599731445e+00" cType="1" res="-1.4506266452372074e-03" rms="4.6602162718772888e-01" purity="4.9074488878250122e-01" nType="0">
          <Node pos="l" depth="2" NCoef="0" IVar="-1" Cut="0.0000000000000000e+00" cType="1" res="9.6825417131185532e-05" rms="4.6780011057853699e-01" purity="5.0291591882705688e-01" nType="-99"/>
          <Node pos="r" depth="2" NCoef="0" IVar="-1" Cut="0.0000000000000000e+00" cType="1" res="-2.0533513743430376e-03" rms="4.4251671433448792e-01" purity="3.5572853684425354e-01" nType="-99"/>
        </Node>
        <Node pos="r" depth="1" NCoef="0" IVar="-1" Cut="0.0000000000000000e+00" cType="1" res="1.3372286921367049e-03" rms="4.5412480831146240e-01" purity="6.1519819498062134e-01" nType="-99"/>
      </Node>
    </BinaryTree>
    <BinaryTree type="DecisionTree" boostWeight="1.0000000000000000e+00" itree="576">
      <Node pos="s" depth="0" NCoef="0" IVar="4" Cut="9.8557960987091064e-01" cType="1" res="-1.8694507889449596e-03" rms="4.6453604102134705e-01" purity="4.9606969952583313e-01" nType="0">
        <Node pos="l" depth="1" NCoef="0" IVar="1" Cut="8.4322881698608398e-01" cType="1" res="-6.7438902333378792e-03" rms="4.6911051869392395e-01" purity="4.6875929832458496e-01" nType="0">
          <Node pos="l" depth="2" NCoef="0" IVar="-1" Cut="0.0000000000000000e+00" cType="1" res="-3.4272295306436718e-04" rms="4.6858698129653931e-01" purity="4.5297971367835999e-01" nType="-99"/>
          <Node pos="r" depth="2" NCoef="0" IVar="-1" Cut="0.0000000000000000e+00" cType="1" res="7.8123679850250483e-04" rms="4.7226628661155701e-01" purity="6.1223530769348145e-01" nType="-99"/>
        </Node>
        <Node pos="r" depth="1" NCoef="0" IVar="-1" Cut="0.0000000000000000e+00" cType="1" res="1.1160776484757662e-03" rms="4.1710627079010010e-01" purity="7.4902033805847168e-01" nType="-99"/>
      </Node>
    </BinaryTree>
    <BinaryTree type="DecisionTree" boostWeight="1.0000000000000000e+00" itree="577">
      <Node pos="s" depth="0" NCoef="0" IVar="6" Cut="2.1887482702732086e-01" cType="1" res="3.6891053896397352e-03" rms="4.6533867716789246e-01" purity="5.0059795379638672e-01" nType="0">
        <Node pos="l" depth="1" NCoef="0" IVar="0" Cut="2.0677691698074341e-01" cType="1" res="5.3003447828814387e-04" rms="4.6538558602333069e-01" purity="4.9392539262771606e-01" nType="0">
          <Node pos="l" depth="2" NCoef="0" IVar="-1" Cut="0.0000000000000000e+00" cType="1" res="-9.5411749498452991e-05" rms="4.6498548984527588e-01" purity="4.8199042677879333e-01" nType="-99"/>
          <Node pos="r" depth="2" NCoef="0" IVar="-1" Cut="0.0000000000000000e+00" cType="1" res="8.7676662951707840e-04" rms="4.6775838732719421e-01" purity="6.0378813743591309e-01" nType="-99"/>
        </Node>
        <Node pos="r" depth="1" NCoef="0" IVar="-1" Cut="0.0000000000000000e+00" cType="1" res="1.2151687406003475e-03" rms="4.6266466379165649e-01" purity="5.8940494060516357e-01" nType="-99"/>
      </Node>
    </BinaryTree>
    <BinaryTree type="DecisionTree" boostWeight="1.0000000000000000e+00" itree="578">
      <Node pos="s" depth="0" NCoef="0" IVar="0" Cut="2.8289511799812317e-02" cType="1" res="6.8764756433665752e-03" rms="4.6574765443801880e-01" purity="5.0487273931503296e-01" nType="0">
        <Node pos="l" depth="1" NCoef="0" IVar="1" Cut="8.1998449563980103e-01" cType="1" res="-4.8382366076111794e-03" rms="4.6236595511436462e-01" purity="4.6508279442787170e-01" nType="0">
          <Node pos="l" depth="2" NCoef="0" IVar="-1" Cut="0.0000000000000000e+00" cType="1" res="-4.9035827396437526e-04" rms="4.6280944347381592e-01" purity="4.1808262467384338e-01" nType="-99"/>
          <Node pos="r" depth="2" NCoef="0" IVar="-1" Cut="0.0000000000000000e+00" cType="1" res="7.6424353756010532e-04" rms="4.5915275812149048e-01" purity="6.3464266061782837e-01" nType="-99"/>
        </Node>
        <Node pos="r" depth="1" NCoef="0" IVar="3" Cut="7.7306472778320312e+01" cType="1" res="2.2212848067283630e-02" rms="4.6969661116600037e-01" purity="5.5696398019790649e-01" nType="0">
          <Node pos="l" depth="2" NCoef="0" IVar="-1" Cut="0.0000000000000000e+00" cType="1" res="1.0684686712920666e-03" rms="4.6941262483596802e-01" purity="5.6449711322784424e-01" nType="-99"/>
          <Node pos="r" depth="2" NCoef="0" IVar="-1" Cut="0.0000000000000000e+00" cType="1" res="2.9812753200531006e-04" rms="4.6954098343849182e-01" purity="5.5175292491912842e-01" nType="-99"/>
        </Node>
      </Node>
    </BinaryTree>
    <BinaryTree type="DecisionTree" boostWeight="1.0000000000000000e+00" itree="579">
      <Node pos="s" depth="0" NCoef="0" IVar="1" Cut="7.9639488458633423e-01" cType="1" res="-3.5062336828559637e-03" rms="4.6380767226219177e-01" purity="4.9357372522354126e-01" nType="0">
        <Node pos="l" depth="1" NCoef="0" IVar="0" Cut="2.0665340125560760e-01" cType="1" res="-1.0238293558359146e-02" rms="4.6422651410102844e-01" purity="4.6384698152542114e-01" nType="0">
          <Node pos="l" depth="2" NCoef="0" IVar="-1" Cut="0.0000000000000000e+00" cType="1" res="-5.4208957590162754e-04" rms="4.6368929743766785e-01" purity="4.4440066814422607e-01" nType="-99"/>
          <Node pos="r" depth="2" NCoef="0" IVar="-1" Cut="0.0000000000000000e+00" cType="1" res="9.7131542861461639e-04" rms="4.6551859378814697e-01" purity="6.0977113246917725e-01" nType="-99"/>
        </Node>
        <Node pos="r" depth="1" NCoef="0" IVar="4" Cut="9.4646108150482178e-01" cType="1" res="2.6970831677317619e-02" rms="4.6067759394645691e-01" purity="6.2815111875534058e-01" nType="0">
          <Node pos="l" depth="2" NCoef="0" IVar="-1" Cut="0.0000000000000000e+00" cType="1" res="6.7320339439902455e-05" rms="4.9004530906677246e-01" purity="5.0379168987274170e-01" nType="-99"/>
          <Node pos="r" depth="2" NCoef="0" IVar="-1" Cut="0.0000000000000000e+00" cType="1" res="1.0141017846763134e-03" rms="4.4304352998733521e-01" purity="6.9682973623275757e-01" nType="-99"/>
        </Node>
      </Node>
    </BinaryTree>
    <BinaryTree type="DecisionTree" boostWeight="1.0000000000000000e+00" itree="580">
      <Node pos="s" depth="0" NCoef="0" IVar="1" Cut="8.1801956892013550e-01" cType="1" res="3.2414351589977741e-03" rms="4.6498587727546692e-01" purity="5.0141882896423340e-01" nType="0">
        <Node pos="l" depth="1" NCoef="0" IVar="0" Cut="9.8108023405075073e-02" cType="1" res="-2.4578166194260120e-03" rms="4.6585226058959961e-01" purity="4.7772938013076782e-01" nType="0">
          <Node pos="l" depth="2" NCoef="0" IVar="-1" Cut="0.0000000000000000e+00" cType="1" res="-3.9379129884764552e-04" rms="4.6402564644813538e-01" purity="4.3706938624382019e-01" nType="-99"/>
          <Node pos="r" depth="2" NCoef="0" IVar="-1" Cut="0.0000000000000000e+00" cType="1" res="4.9739720998331904e-04" rms="4.6914675831794739e-01" purity="5.6620681285858154e-01" nType="-99"/>
        </Node>
        <Node pos="r" depth="1" NCoef="0" IVar="5" Cut="4.5820114016532898e-01" cType="1" res="3.6932568997144699e-02" rms="4.5838570594787598e-01" purity="6.4145910739898682e-01" nType="0">
          <Node pos="l" depth="2" NCoef="0" IVar="-1" Cut="0.0000000000000000e+00" cType="1" res="4.0075459401123226e-04" rms="4.6008217334747314e-01" purity="6.3266742229461670e-01" nType="-99"/>
          <Node pos="r" depth="2" NCoef="0" IVar="-1" Cut="0.0000000000000000e+00" cType="1" res="1.4626018237322569e-03" rms="4.5576003193855286e-01" purity="6.4995533227920532e-01" nType="-99"/>
        </Node>
      </Node>
    </BinaryTree>
    <BinaryTree type="DecisionTree" boostWeight="1.0000000000000000e+00" itree="581">
      <Node pos="s" depth="0" NCoef="0" IVar="4" Cut="9.2162841558456421e-01" cType="1" res="3.9772642776370049e-03" rms="4.6484422683715820e-01" purity="5.0180727243423462e-01" nType="0">
        <Node pos="l" depth="1" NCoef="0" IVar="7" Cut="9.7545570373535156e+01" cType="1" res="-2.9153672978281975e-02" rms="4.4878593087196350e-01" purity="3.3126378059387207e-01" nType="0">
          <Node pos="l" depth="2" NCoef="0" IVar="-1" Cut="0.0000000000000000e+00" cType="1" res="-2.3472977336496115e-03" rms="4.3595027923583984e-01" purity="2.9126760363578796e-01" nType="-99"/>
          <Node pos="r" depth="2" NCoef="0" IVar="-1" Cut="0.0000000000000000e+00" cType="1" res="-9.8662887467071414e-05" rms="4.5960512757301331e-01" purity="3.7083968520164490e-01" nType="-99"/>
        </Node>
        <Node pos="r" depth="1" NCoef="0" IVar="4" Cut="9.8702526092529297e-01" cType="1" res="9.4654858112335205e-03" rms="4.6722429990768433e-01" purity="5.3005826473236084e-01" nType="0">
          <Node pos="l" depth="2" NCoef="0" IVar="-1" Cut="0.0000000000000000e+00" cType="1" res="1.4406729314941913e-04" rms="4.7202509641647339e-01" purity="5.0588470697402954e-01" nType="-99"/>
          <Node pos="r" depth="2" NCoef="0" IVar="-1" Cut="0.0000000000000000e+00" cType="1" res="1.3181801186874509e-03" rms="4.1743412613868713e-01" purity="7.5531798601150513e-01" nType="-99"/>
        </Node>
      </Node>
    </BinaryTree>
    <BinaryTree type="DecisionTree" boostWeight="1.0000000000000000e+00" itree="582">
      <Node pos="s" depth="0" NCoef="0" IVar="6" Cut="1.8504202365875244e-01" cType="1" res="4.8208879306912422e-03" rms="4.6348044276237488e-01" purity="5.0356906652450562e-01" nType="0">
        <Node pos="l" depth="1" NCoef="0" IVar="4" Cut="9.2233806848526001e-01" cType="1" res="-8.9858185674529523e-05" rms="4.6354186534881592e-01" purity="4.9220693111419678e-01" nType="0">
          <Node pos="l" depth="2" NCoef="0" IVar="-1" Cut="0.0000000000000000e+00" cType="1" res="-1.2423587031662464e-03" rms="4.4967773556709290e-01" purity="3.2394143939018250e-01" nType="-99"/>
          <Node pos="r" depth="2" NCoef="0" IVar="-1" Cut="0.0000000000000000e+00" cType="1" res="1.5811953926458955e-04" rms="4.6573442220687866e-01" purity="5.2191483974456787e-01" nType="-99"/>
        </Node>
        <Node pos="r" depth="1" NCoef="0" IVar="1" Cut="7.3680609464645386e-01" cType="1" res="3.9476118981838226e-02" rms="4.6156382560729980e-01" purity="5.8375173807144165e-01" nType="0">
          <Node pos="l" depth="2" NCoef="0" IVar="-1" Cut="0.0000000000000000e+00" cType="1" res="5.3488975390791893e-04" rms="4.6751338243484497e-01" purity="5.2484923601150513e-01" nType="-99"/>
          <Node pos="r" depth="2" NCoef="0" IVar="-1" Cut="0.0000000000000000e+00" cType="1" res="1.4369637938216329e-03" rms="4.5576632022857666e-01" purity="6.3322728872299194e-01" nType="-99"/>
        </Node>
      </Node>
    </BinaryTree>
    <BinaryTree type="DecisionTree" boostWeight="1.0000000000000000e+00" itree="583">
      <Node pos="s" depth="0" NCoef="0" IVar="3" Cut="1.4670877075195312e+02" cType="1" res="-1.2887502089142799e-03" rms="4.6407049894332886e-01" purity="4.9706906080245972e-01" nType="0">
        <Node pos="l" depth="1" NCoef="0" IVar="4" Cut="9.4496232271194458e-01" cType="1" res="-5.0428686663508415e-03" rms="4.6470934152603149e-01" purity="4.8789691925048828e-01" nType="0">
          <Node pos="l" depth="2" NCoef="0" IVar="-1" Cut="0.0000000000000000e+00" cType="1" res="-7.8853213926777244e-04" rms="4.5984640717506409e-01" purity="3.6926773190498352e-01" nType="-99"/>
          <Node pos="r" depth="2" NCoef="0" IVar="-1" Cut="0.0000000000000000e+00" cType="1" res="1.5364743012469262e-04" rms="4.6742117404937744e-01" purity="5.6213271617889404e-01" nType="-99"/>
        </Node>
        <Node pos="r" depth="1" NCoef="0" IVar="-1" Cut="0.0000000000000000e+00" cType="1" res="1.2238729977980256e-03" rms="4.5346599817276001e-01" purity="6.1109572649002075e-01" nType="-99"/>
      </Node>
    </BinaryTree>
    <BinaryTree type="DecisionTree" boostWeight="1.0000000000000000e+00" itree="584">
      <Node pos="s" depth="0" NCoef="0" IVar="3" Cut="1.3938224792480469e+02" cType="1" res="4.5466437004506588e-03" rms="4.6613126993179321e-01" purity="5.0029069185256958e-01" nType="0">
        <Node pos="l" depth="1" NCoef="0" IVar="6" Cut="8.5719235241413116e-02" cType="1" res="6.1892904341220856e-04" rms="4.6685618162155151e-01" purity="4.8948782682418823e-01" nType="0">
          <Node pos="l" depth="2" NCoef="0" IVar="-1" Cut="0.0000000000000000e+00" cType="1" res="-3.9021018892526627e-04" rms="4.6474725008010864e-01" purity="4.5135921239852905e-01" nType="-99"/>
          <Node pos="r" depth="2" NCoef="0" IVar="-1" Cut="0.0000000000000000e+00" cType="1" res="3.9944087620824575e-04" rms="4.6868506073951721e-01" purity="5.2930599451065063e-01" nType="-99"/>
        </Node>
        <Node pos="r" depth="1" NCoef="0" IVar="-1" Cut="0.0000000000000000e+00" cType="1" res="1.1133961379528046e-03" rms="4.5787894725799561e-01" purity="5.9918040037155151e-01" nType="-99"/>
      </Node>
    </BinaryTree>
    <BinaryTree type="DecisionTree" boostWeight="1.0000000000000000e+00" itree="585">
      <Node pos="s" depth="0" NCoef="0" IVar="8" Cut="7.8544813394546509e-01" cType="1" res="2.5248378515243530e-03" rms="4.6565270423889160e-01" purity="5.0075519084930420e-01" nType="0">
        <Node pos="l" depth="1" NCoef="0" IVar="5" Cut="4.4829165935516357e-01" cType="1" res="2.6253115385770798e-02" rms="4.6621501445770264e-01" purity="5.6619822978973389e-01" nType="0">
          <Node pos="l" depth="2" NCoef="0" IVar="-1" Cut="0.0000000000000000e+00" cType="1" res="4.8022816190496087e-04" rms="4.6899390220642090e-01" purity="5.3744804859161377e-01" nType="-99"/>
          <Node pos="r" depth="2" NCoef="0" IVar="-1" Cut="0.0000000000000000e+00" cType="1" res="1.1199279688298702e-03" rms="4.6108546853065491e-01" purity="6.1428546905517578e-01" nType="-99"/>
        </Node>
        <Node pos="r" depth="1" NCoef="0" IVar="4" Cut="9.4898670911788940e-01" cType="1" res="-5.4370737634599209e-03" rms="4.6519273519515991e-01" purity="4.7879609465599060e-01" nType="0">
          <Node pos="l" depth="2" NCoef="0" IVar="-1" Cut="0.0000000000000000e+00" cType="1" res="-6.4354040659964085e-04" rms="4.6164152026176453e-01" purity="3.7256801128387451e-01" nType="-99"/>
          <Node pos="r" depth="2" NCoef="0" IVar="-1" Cut="0.0000000000000000e+00" cType="1" res="1.2893391249235719e-04" rms="4.6782886981964111e-01" purity="5.6541383266448975e-01" nType="-99"/>
        </Node>
      </Node>
    </BinaryTree>
    <BinaryTree type="DecisionTree" boostWeight="1.0000000000000000e+00" itree="586">
      <Node pos="s" depth="0" NCoef="0" IVar="2" Cut="6.0437426757812500e+02" cType="1" res="3.1537495669908822e-04" rms="4.6509343385696411e-01" purity="4.9930834770202637e-01" nType="0">
        <Node pos="l" depth="1" NCoef="0" IVar="0" Cut="-3.2647389918565750e-02" cType="1" res="-7.7216536737978458e-03" rms="4.6464225649833679e-01" purity="4.5033782720565796e-01" nType="0">
          <Node pos="l" depth="2" NCoef="0" IVar="-1" Cut="0.0000000000000000e+00" cType="1" res="-1.0171089088544250e-03" rms="4.5449405908584595e-01" purity="3.8382461667060852e-01" nType="-99"/>
          <Node pos="r" depth="2" NCoef="0" IVar="-1" Cut="0.0000000000000000e+00" cType="1" res="1.3399193994700909e-04" rms="4.7030183672904968e-01" purity="4.9086961150169373e-01" nType="-99"/>
        </Node>
        <Node pos="r" depth="1" NCoef="0" IVar="6" Cut="1.0912048816680908e-01" cType="1" res="1.5553786419332027e-02" rms="4.6556690335273743e-01" purity="5.9215772151947021e-01" nType="0">
          <Node pos="l" depth="2" NCoef="0" IVar="-1" Cut="0.0000000000000000e+00" cType="1" res="2.0785719971172512e-04" rms="4.7153702378273010e-01" purity="5.6354582309722900e-01" nType="-99"/>
          <Node pos="r" depth="2" NCoef="0" IVar="-1" Cut="0.0000000000000000e+00" cType="1" res="1.1805685935541987e-03" rms="4.4133147597312927e-01" purity="6.9853913784027100e-01" nType="-99"/>
        </Node>
      </Node>
    </BinaryTree>
    <BinaryTree type="DecisionTree" boostWeight="1.0000000000000000e+00" itree="587">
      <Node pos="s" depth="0" NCoef="0" IVar="3" Cut="8.0224533081054688e+01" cType="1" res="2.3938138037919998e-03" rms="4.6435970067977905e-01" purity="5.0032514333724976e-01" nType="0">
        <Node pos="l" depth="1" NCoef="0" IVar="0" Cut="8.9010797441005707e-02" cType="1" res="1.6610480844974518e-02" rms="4.6431684494018555e-01" purity="5.0709462165832520e-01" nType="0">
          <Node pos="l" depth="2" NCoef="0" IVar="-1" Cut="0.0000000000000000e+00" cType="1" res="1.4815083704888821e-04" rms="4.6194577217102051e-01" purity="4.7420749068260193e-01" nType="-99"/>
          <Node pos="r" depth="2" NCoef="0" IVar="-1" Cut="0.0000000000000000e+00" cType="1" res="1.1846643174067140e-03" rms="4.6861433982849121e-01" purity="5.8360314369201660e-01" nType="-99"/>
        </Node>
        <Node pos="r" depth="1" NCoef="0" IVar="3" Cut="1.3980857849121094e+02" cType="1" res="-8.4925396367907524e-03" rms="4.6409818530082703e-01" purity="4.9514141678810120e-01" nType="0">
          <Node pos="l" depth="2" NCoef="0" IVar="-1" Cut="0.0000000000000000e+00" cType="1" res="-5.3330179071053863e-04" rms="4.6654769778251648e-01" purity="4.7341558337211609e-01" nType="-99"/>
          <Node pos="r" depth="2" NCoef="0" IVar="-1" Cut="0.0000000000000000e+00" cType="1" res="8.8941579451784492e-04" rms="4.4992357492446899e-01" purity="5.9953165054321289e-01" nType="-99"/>
        </Node>
      </Node>
    </BinaryTree>
    <BinaryTree type="DecisionTree" boostWeight="1.0000000000000000e+00" itree="588">
      <Node pos="s" depth="0" NCoef="0" IVar="2" Cut="7.2353173828125000e+02" cType="1" res="9.2228048015385866e-04" rms="4.6512275934219360e-01" purity="4.9878567457199097e-01" nType="0">
        <Node pos="l" depth="1" NCoef="0" IVar="3" Cut="6.0850555419921875e+01" cType="1" res="-4.6253311447799206e-03" rms="4.6490767598152161e-01" purity="4.7348099946975708e-01" nType="0">
          <Node pos="l" depth="2" NCoef="0" IVar="-1" Cut="0.0000000000000000e+00" cType="1" res="5.7019235100597143e-04" rms="4.6422469615936279e-01" purity="5.0160187482833862e-01" nType="-99"/>
          <Node pos="r" depth="2" NCoef="0" IVar="-1" Cut="0.0000000000000000e+00" cType="1" res="-4.1829037945717573e-04" rms="4.6485796570777893e-01" purity="4.6342313289642334e-01" nType="-99"/>
        </Node>
        <Node pos="r" depth="1" NCoef="0" IVar="2" Cut="8.9030212402343750e+02" cType="1" res="2.5903476402163506e-02" rms="4.6527111530303955e-01" purity="6.1273407936096191e-01" nType="0">
          <Node pos="l" depth="2" NCoef="0" IVar="-1" Cut="0.0000000000000000e+00" cType="1" res="4.2419551755301654e-04" rms="4.6782666444778442e-01" purity="5.9589004516601562e-01" nType="-99"/>
          <Node pos="r" depth="2" NCoef="0" IVar="-1" Cut="0.0000000000000000e+00" cType="1" res="1.0570478625595570e-03" rms="4.6152043342590332e-01" purity="6.3489657640457153e-01" nType="-99"/>
        </Node>
      </Node>
    </BinaryTree>
    <BinaryTree type="DecisionTree" boostWeight="1.0000000000000000e+00" itree="589">
      <Node pos="s" depth="0" NCoef="0" IVar="4" Cut="9.2192077636718750e-01" cType="1" res="3.7826329935342073e-03" rms="4.6510270237922668e-01" purity="5.0334358215332031e-01" nType="0">
        <Node pos="l" depth="1" NCoef="0" IVar="6" Cut="7.7124647796154022e-02" cType="1" res="-2.7262853458523750e-02" rms="4.5080208778381348e-01" purity="3.3051827549934387e-01" nType="0">
          <Node pos="l" depth="2" NCoef="0" IVar="-1" Cut="0.0000000000000000e+00" cType="1" res="-2.0886564161628485e-03" rms="4.3404141068458557e-01" purity="2.9204416275024414e-01" nType="-99"/>
          <Node pos="r" depth="2" NCoef="0" IVar="-1" Cut="0.0000000000000000e+00" cType="1" res="-2.6684717158786952e-04" rms="4.6532723307609558e-01" purity="3.6714452505111694e-01" nType="-99"/>
        </Node>
        <Node pos="r" depth="1" NCoef="0" IVar="0" Cut="7.7330194413661957e-02" cType="1" res="8.9570805430412292e-03" rms="4.6724319458007812e-01" purity="5.3214889764785767e-01" nType="0">
          <Node pos="l" depth="2" NCoef="0" IVar="-1" Cut="0.0000000000000000e+00" cType="1" res="-2.1613147964671953e-06" rms="4.6745821833610535e-01" purity="5.0011467933654785e-01" nType="-99"/>
          <Node pos="r" depth="2" NCoef="0" IVar="-1" Cut="0.0000000000000000e+00" cType="1" res="7.5579847907647491e-04" rms="4.6618869900703430e-01" purity="6.0102701187133789e-01" nType="-99"/>
        </Node>
      </Node>
    </BinaryTree>
    <BinaryTree type="DecisionTree" boostWeight="1.0000000000000000e+00" itree="590">
      <Node pos="s" depth="0" NCoef="0" IVar="8" Cut="8.8180851936340332e-01" cType="1" res="1.7228570068255067e-03" rms="4.6564400196075439e-01" purity="4.9937251210212708e-01" nType="0">
        <Node pos="l" depth="1" NCoef="0" IVar="5" Cut="5.5586874485015869e-01" cType="1" res="2.0110245794057846e-02" rms="4.6611458063125610e-01" purity="5.5530512332916260e-01" nType="0">
          <Node pos="l" depth="2" NCoef="0" IVar="-1" Cut="0.0000000000000000e+00" cType="1" res="3.2873553573153913e-04" rms="4.6744146943092346e-01" purity="5.3542822599411011e-01" nType="-99"/>
          <Node pos="r" depth="2" NCoef="0" IVar="-1" Cut="0.0000000000000000e+00" cType="1" res="1.3223803834989667e-03" rms="4.6005612611770630e-01" purity="6.2538450956344604e-01" nType="-99"/>
        </Node>
        <Node pos="r" depth="1" NCoef="0" IVar="0" Cut="1.7364279925823212e-01" cType="1" res="-7.8946910798549652e-03" rms="4.6510821580886841e-01" purity="4.7011697292327881e-01" nType="0">
          <Node pos="l" depth="2" NCoef="0" IVar="-1" Cut="0.0000000000000000e+00" cType="1" res="-4.1036223410628736e-04" rms="4.6429234743118286e-01" purity="4.5241513848304749e-01" nType="-99"/>
          <Node pos="r" depth="2" NCoef="0" IVar="-1" Cut="0.0000000000000000e+00" cType="1" res="5.5061967577785254e-04" rms="4.6895518898963928e-01" purity="5.7546144723892212e-01" nType="-99"/>
        </Node>
      </Node>
    </BinaryTree>
    <BinaryTree type="DecisionTree" boostWeight="1.0000000000000000e+00" itree="591">
      <Node pos="s" depth="0" NCoef="0" IVar="4" Cut="9.8107105493545532e-01" cType="1" res="7.5822467915713787e-03" rms="4.6608126163482666e-01" purity="5.0542348623275757e-01" nType="0">
        <Node pos="l" depth="1" NCoef="0" IVar="3" Cut="7.5239089965820312e+01" cType="1" res="3.7114247679710388e-03" rms="4.7181007266044617e-01" purity="4.7030457854270935e-01" nType="0">
          <Node pos="l" depth="2" NCoef="0" IVar="-1" Cut="0.0000000000000000e+00" cType="1" res="5.0774897681549191e-04" rms="4.7365993261337280e-01" purity="4.7220346331596375e-01" nType="-99"/>
          <Node pos="r" depth="2" NCoef="0" IVar="-1" Cut="0.0000000000000000e+00" cType="1" res="-1.2835793313570321e-04" rms="4.7050192952156067e-01" purity="4.6914273500442505e-01" nType="-99"/>
        </Node>
        <Node pos="r" depth="1" NCoef="0" IVar="-1" Cut="0.0000000000000000e+00" cType="1" res="8.4466027328744531e-04" rms="4.2728540301322937e-01" purity="7.2742718458175659e-01" nType="-99"/>
      </Node>
    </BinaryTree>
    <BinaryTree type="DecisionTree" boostWeight="1.0000000000000000e+00" itree="592">
      <Node pos="s" depth="0" NCoef="0" IVar="2" Cut="4.9534689331054688e+02" cType="1" res="1.1649030493572354e-03" rms="4.6473103761672974e-01" purity="5.0006324052810669e-01" nType="0">
        <Node pos="l" depth="1" NCoef="0" IVar="8" Cut="1.3958196640014648e+00" cType="1" res="-1.2128677219152451e-02" rms="4.5898357033729553e-01" purity="4.0863868594169617e-01" nType="0">
          <Node pos="l" depth="2" NCoef="0" IVar="-1" Cut="0.0000000000000000e+00" cType="1" res="-6.1994600400794297e-05" rms="4.6387630701065063e-01" purity="4.3588626384735107e-01" nType="-99"/>
          <Node pos="r" depth="2" NCoef="0" IVar="-1" Cut="0.0000000000000000e+00" cType="1" res="-1.4725313521921635e-03" rms="4.4582706689834595e-01" purity="3.4210640192031860e-01" nType="-99"/>
        </Node>
        <Node pos="r" depth="1" NCoef="0" IVar="7" Cut="9.1175704956054688e+01" cType="1" res="1.0511011816561222e-02" rms="4.6850386261940002e-01" purity="5.6433969736099243e-01" nType="0">
          <Node pos="l" depth="2" NCoef="0" IVar="-1" Cut="0.0000000000000000e+00" cType="1" res="-3.5434635356068611e-04" rms="4.7313538193702698e-01" purity="5.3854179382324219e-01" nType="-99"/>
          <Node pos="r" depth="2" NCoef="0" IVar="-1" Cut="0.0000000000000000e+00" cType="1" res="6.1394821386784315e-04" rms="4.6573925018310547e-01" purity="5.7727801799774170e-01" nType="-99"/>
        </Node>
      </Node>
    </BinaryTree>
    <BinaryTree type="DecisionTree" boostWeight="1.0000000000000000e+00" itree="593">
      <Node pos="s" depth="0" NCoef="0" IVar="6" Cut="1.5616688132286072e-01" cType="1" res="6.1149327084422112e-03" rms="4.6545854210853577e-01" purity="5.0491797924041748e-01" nType="0">
        <Node pos="l" depth="1" NCoef="0" IVar="3" Cut="1.3262509155273438e+02" cType="1" res="6.6111725755035877e-04" rms="4.6581473946571350e-01" purity="4.8995915055274963e-01" nType="0">
          <Node pos="l" depth="2" NCoef="0" IVar="-1" Cut="0.0000000000000000e+00" cType="1" res="-1.2315934873186052e-04" rms="4.6683055162429810e-01" purity="4.7700273990631104e-01" nType="-99"/>
          <Node pos="r" depth="2" NCoef="0" IVar="-1" Cut="0.0000000000000000e+00" cType="1" res="8.2193338312208652e-04" rms="4.5832049846649170e-01" purity="5.7143354415893555e-01" nType="-99"/>
        </Node>
        <Node pos="r" depth="1" NCoef="0" IVar="2" Cut="5.1020779418945312e+02" cType="1" res="2.9024859890341759e-02" rms="4.6325850486755371e-01" purity="5.6775581836700439e-01" nType="0">
          <Node pos="l" depth="2" NCoef="0" IVar="-1" Cut="0.0000000000000000e+00" cType="1" res="4.4057870400138199e-04" rms="4.7236850857734680e-01" purity="5.0123387575149536e-01" nType="-99"/>
          <Node pos="r" depth="2" NCoef="0" IVar="-1" Cut="0.0000000000000000e+00" cType="1" res="1.3663768768310547e-03" rms="4.4506508111953735e-01" purity="6.8887782096862793e-01" nType="-99"/>
        </Node>
      </Node>
    </BinaryTree>
    <BinaryTree type="DecisionTree" boostWeight="1.0000000000000000e+00" itree="594">
      <Node pos="s" depth="0" NCoef="0" IVar="4" Cut="9.8561698198318481e-01" cType="1" res="2.3320806212723255e-03" rms="4.6562126278877258e-01" purity="4.9941903352737427e-01" nType="0">
        <Node pos="l" depth="1" NCoef="0" IVar="2" Cut="9.3816900634765625e+02" cType="1" res="-1.2431909563019872e-03" rms="4.6968427300453186e-01" purity="4.7369214892387390e-01" nType="0">
          <Node pos="l" depth="2" NCoef="0" IVar="-1" Cut="0.0000000000000000e+00" cType="1" res="-1.3368650979828089e-04" rms="4.6967276930809021e-01" purity="4.6371185779571533e-01" nType="-99"/>
          <Node pos="r" depth="2" NCoef="0" IVar="-1" Cut="0.0000000000000000e+00" cType="1" res="1.1681324103847146e-03" rms="4.6753349900245667e-01" purity="6.2232744693756104e-01" nType="-99"/>
        </Node>
        <Node pos="r" depth="1" NCoef="0" IVar="-1" Cut="0.0000000000000000e+00" cType="1" res="9.2458137078210711e-04" rms="4.2452096939086914e-01" purity="7.3880207538604736e-01" nType="-99"/>
      </Node>
    </BinaryTree>
    <BinaryTree type="DecisionTree" boostWeight="1.0000000000000000e+00" itree="595">
      <Node pos="s" depth="0" NCoef="0" IVar="4" Cut="9.8552405834197998e-01" cType="1" res="4.4211442582309246e-04" rms="4.6546784043312073e-01" purity="4.9789696931838989e-01" nType="0">
        <Node pos="l" depth="1" NCoef="0" IVar="8" Cut="1.6585787534713745e+00" cType="1" res="-3.6247917450964451e-03" rms="4.6994525194168091e-01" purity="4.7147783637046814e-01" nType="0">
          <Node pos="l" depth="2" NCoef="0" IVar="-1" Cut="0.0000000000000000e+00" cType="1" res="1.0012667189585045e-05" rms="4.7235265374183655e-01" purity="4.8201048374176025e-01" nType="-99"/>
          <Node pos="r" depth="2" NCoef="0" IVar="-1" Cut="0.0000000000000000e+00" cType="1" res="-1.3721100986003876e-03" rms="4.4764322042465210e-01" purity="3.8228407502174377e-01" nType="-99"/>
        </Node>
        <Node pos="r" depth="1" NCoef="0" IVar="-1" Cut="0.0000000000000000e+00" cType="1" res="9.8600808996707201e-04" rms="4.1970199346542358e-01" purity="7.4345195293426514e-01" nType="-99"/>
      </Node>
    </BinaryTree>
    <BinaryTree type="DecisionTree" boostWeight="1.0000000000000000e+00" itree="596">
      <Node pos="s" depth="0" NCoef="0" IVar="8" Cut="5.8561795949935913e-01" cType="1" res="1.4923129929229617e-03" rms="4.6414390206336975e-01" purity="5.0003486871719360e-01" nType="0">
        <Node pos="l" depth="1" NCoef="0" IVar="-1" Cut="0.0000000000000000e+00" cType="1" res="1.3004926731809974e-03" rms="4.6555891633033752e-01" purity="5.9160399436950684e-01" nType="-99"/>
        <Node pos="r" depth="1" NCoef="0" IVar="4" Cut="9.8551309108734131e-01" cType="1" res="-2.4407876189798117e-03" rms="4.6381044387817383e-01" purity="4.9226874113082886e-01" nType="0">
          <Node pos="l" depth="2" NCoef="0" IVar="-1" Cut="0.0000000000000000e+00" cType="1" res="-2.0100733672734350e-04" rms="4.6775734424591064e-01" purity="4.6599560976028442e-01" nType="-99"/>
          <Node pos="r" depth="2" NCoef="0" IVar="-1" Cut="0.0000000000000000e+00" cType="1" res="9.0239377459511161e-04" rms="4.2336773872375488e-01" purity="7.3762768507003784e-01" nType="-99"/>
        </Node>
      </Node>
    </BinaryTree>
    <BinaryTree type="DecisionTree" boostWeight="1.0000000000000000e+00" itree="597">
      <Node pos="s" depth="0" NCoef="0" IVar="7" Cut="9.0054191589355469e+01" cType="1" res="-4.7999972593970597e-04" rms="4.6675735712051392e-01" purity="4.9640837311744690e-01" nType="0">
        <Node pos="l" depth="1" NCoef="0" IVar="7" Cut="7.6285667419433594e+01" cType="1" res="-1.1935607530176640e-02" rms="4.6877950429916382e-01" purity="4.6878042817115784e-01" nType="0">
          <Node pos="l" depth="2" NCoef="0" IVar="-1" Cut="0.0000000000000000e+00" cType="1" res="-1.2075995618943125e-04" rms="4.6997946500778198e-01" purity="4.7535192966461182e-01" nType="-99"/>
          <Node pos="r" depth="2" NCoef="0" IVar="-1" Cut="0.0000000000000000e+00" cType="1" res="-1.1354936286807060e-03" rms="4.6455442905426025e-01" purity="4.4993981719017029e-01" nType="-99"/>
        </Node>
        <Node pos="r" depth="1" NCoef="0" IVar="2" Cut="7.4718438720703125e+02" cType="1" res="8.1854211166501045e-03" rms="4.6503445506095886e-01" purity="5.1730710268020630e-01" nType="0">
          <Node pos="l" depth="2" NCoef="0" IVar="-1" Cut="0.0000000000000000e+00" cType="1" res="-2.8868884328403510e-05" rms="4.6581006050109863e-01" purity="4.8465147614479065e-01" nType="-99"/>
          <Node pos="r" depth="2" NCoef="0" IVar="-1" Cut="0.0000000000000000e+00" cType="1" res="1.0642862180247903e-03" rms="4.6099561452865601e-01" purity="6.2934529781341553e-01" nType="-99"/>
        </Node>
      </Node>
    </BinaryTree>
    <BinaryTree type="DecisionTree" boostWeight="1.0000000000000000e+00" itree="598">
      <Node pos="s" depth="0" NCoef="0" IVar="1" Cut="4.6029996871948242e-01" cType="1" res="4.5411568135023117e-03" rms="4.6359258890151978e-01" purity="5.0430482625961304e-01" nType="0">
        <Node pos="l" depth="1" NCoef="0" IVar="0" Cut="2.0519088208675385e-01" cType="1" res="-2.4172022938728333e-02" rms="4.4616180658340454e-01" purity="4.0311428904533386e-01" nType="0">
          <Node pos="l" depth="2" NCoef="0" IVar="-1" Cut="0.0000000000000000e+00" cType="1" res="-2.2396007552742958e-03" rms="4.2853528261184692e-01" purity="2.9705718159675598e-01" nType="-99"/>
          <Node pos="r" depth="2" NCoef="0" IVar="-1" Cut="0.0000000000000000e+00" cType="1" res="5.3232832578942180e-04" rms="4.7099134325981140e-01" purity="5.8110535144805908e-01" nType="-99"/>
        </Node>
        <Node pos="r" depth="1" NCoef="0" IVar="0" Cut="1.5842027962207794e-01" cType="1" res="1.0303256101906300e-02" rms="4.6679946780204773e-01" purity="5.2461159229278564e-01" nType="0">
          <Node pos="l" depth="2" NCoef="0" IVar="-1" Cut="0.0000000000000000e+00" cType="1" res="1.7203112656716257e-04" rms="4.6746280789375305e-01" purity="5.1203995943069458e-01" nType="-99"/>
          <Node pos="r" depth="2" NCoef="0" IVar="-1" Cut="0.0000000000000000e+00" cType="1" res="1.2610373087227345e-03" rms="4.5925903320312500e-01" purity="6.3242465257644653e-01" nType="-99"/>
        </Node>
      </Node>
    </BinaryTree>
    <BinaryTree type="DecisionTree" boostWeight="1.0000000000000000e+00" itree="599">
      <Node pos="s" depth="0" NCoef="0" IVar="3" Cut="1.5134410095214844e+02" cType="1" res="2.6102556148543954e-04" rms="4.6400490403175354e-01" purity="4.9917796254158020e-01" nType="0">
        <Node pos="l" depth="1" NCoef="0" IVar="8" Cut="1.4908063411712646e+00" cType="1" res="-3.7423742469400167e-03" rms="4.6492269635200500e-01" purity="4.8950827121734619e-01" nType="0">
          <Node pos="l" depth="2" NCoef="0" IVar="-1" Cut="0.0000000000000000e+00" cType="1" res="6.3202052842825651e-05" rms="4.6633824706077576e-01" purity="5.0934594869613647e-01" nType="-99"/>
          <Node pos="r" depth="2" NCoef="0" IVar="-1" Cut="0.0000000000000000e+00" cType="1" res="-1.3162735849618912e-03" rms="4.5571476221084595e-01" purity="3.8035362958908081e-01" nType="-99"/>
        </Node>
        <Node pos="r" depth="1" NCoef="0" IVar="-1" Cut="0.0000000000000000e+00" cType="1" res="1.4949844917282462e-03" rms="4.4707140326499939e-01" purity="6.3547849655151367e-01" nType="-99"/>
      </Node>
    </BinaryTree>
    <BinaryTree type="DecisionTree" boostWeight="1.0000000000000000e+00" itree="600">
      <Node pos="s" depth="0" NCoef="0" IVar="3" Cut="1.3476176452636719e+02" cType="1" res="6.1953667318448424e-04" rms="4.6541532874107361e-01" purity="4.9743381142616272e-01" nType="0">
        <Node pos="l" depth="1" NCoef="0" IVar="8" Cut="1.5271195173263550e+00" cType="1" res="-3.2530785538256168e-03" rms="4.6630915999412537e-01" purity="4.8628610372543335e-01" nType="0">
          <Node pos="l" depth="2" NCoef="0" IVar="-1" Cut="0.0000000000000000e+00" cType="1" res="3.4451320971129462e-05" rms="4.6814581751823425e-01" purity="5.0305712223052979e-01" nType="-99"/>
          <Node pos="r" depth="2" NCoef="0" IVar="-1" Cut="0.0000000000000000e+00" cType="1" res="-1.2301297392696142e-03" rms="4.5250704884529114e-01" purity="3.7235957384109497e-01" nType="-99"/>
        </Node>
        <Node pos="r" depth="1" NCoef="0" IVar="7" Cut="1.0072906494140625e+02" cType="1" res="3.0422985553741455e-02" rms="4.5738250017166138e-01" purity="5.8322602510452271e-01" nType="0">
          <Node pos="l" depth="2" NCoef="0" IVar="-1" Cut="0.0000000000000000e+00" cType="1" res="3.3266295213252306e-04" rms="4.6343183517456055e-01" purity="5.5246460437774658e-01" nType="-99"/>
          <Node pos="r" depth="2" NCoef="0" IVar="-1" Cut="0.0000000000000000e+00" cType="1" res="1.3165525160729885e-03" rms="4.5092940330505371e-01" purity="6.1213380098342896e-01" nType="-99"/>
        </Node>
      </Node>
    </BinaryTree>
    <BinaryTree type="DecisionTree" boostWeight="1.0000000000000000e+00" itree="601">
      <Node pos="s" depth="0" NCoef="0" IVar="3" Cut="1.4014939880371094e+02" cType="1" res="4.7185700386762619e-03" rms="4.6435874700546265e-01" purity="5.0343447923660278e-01" nType="0">
        <Node pos="l" depth="1" NCoef="0" IVar="0" Cut="1.6950443387031555e-01" cType="1" res="3.8386083906516433e-04" rms="4.6577626466751099e-01" purity="4.9181845784187317e-01" nType="0">
          <Node pos="l" depth="2" NCoef="0" IVar="-1" Cut="0.0000000000000000e+00" cType="1" res="-1.2680781946983188e-04" rms="4.6480095386505127e-01" purity="4.7536605596542358e-01" nType="-99"/>
          <Node pos="r" depth="2" NCoef="0" IVar="-1" Cut="0.0000000000000000e+00" cType="1" res="6.9675059057772160e-04" rms="4.7055518627166748e-01" purity="5.8681321144104004e-01" nType="-99"/>
        </Node>
        <Node pos="r" depth="1" NCoef="0" IVar="-1" Cut="0.0000000000000000e+00" cType="1" res="1.2249313294887543e-03" rms="4.4901344180107117e-01" purity="6.1114859580993652e-01" nType="-99"/>
      </Node>
    </BinaryTree>
    <BinaryTree type="DecisionTree" boostWeight="1.0000000000000000e+00" itree="602">
      <Node pos="s" depth="0" NCoef="0" IVar="2" Cut="6.9688928222656250e+02" cType="1" res="-1.8217627657577395e-03" rms="4.6534848213195801e-01" purity="4.9530607461929321e-01" nType="0">
        <Node pos="l" depth="1" NCoef="0" IVar="2" Cut="3.6440631103515625e+02" cType="1" res="-7.6071252115070820e-03" rms="4.6482440829277039e-01" purity="4.6695929765701294e-01" nType="0">
          <Node pos="l" depth="2" NCoef="0" IVar="-1" Cut="0.0000000000000000e+00" cType="1" res="-2.5647780857980251e-03" rms="4.2724370956420898e-01" purity="2.8312894701957703e-01" nType="-99"/>
          <Node pos="r" depth="2" NCoef="0" IVar="-1" Cut="0.0000000000000000e+00" cType="1" res="-8.7743981566745788e-05" rms="4.6798053383827209e-01" purity="4.8451936244964600e-01" nType="-99"/>
        </Node>
        <Node pos="r" depth="1" NCoef="0" IVar="6" Cut="7.5851000845432281e-02" cType="1" res="2.0110879093408585e-02" rms="4.6667906641960144e-01" purity="6.0277038812637329e-01" nType="0">
          <Node pos="l" depth="2" NCoef="0" IVar="-1" Cut="0.0000000000000000e+00" cType="1" res="3.7663843249902129e-04" rms="4.7311693429946899e-01" purity="5.6923580169677734e-01" nType="-99"/>
          <Node pos="r" depth="2" NCoef="0" IVar="-1" Cut="0.0000000000000000e+00" cType="1" res="9.2400517314672470e-04" rms="4.5117262005805969e-01" purity="6.7979401350021362e-01" nType="-99"/>
        </Node>
      </Node>
    </BinaryTree>
    <BinaryTree type="DecisionTree" boostWeight="1.0000000000000000e+00" itree="603">
      <Node pos="s" depth="0" NCoef="0" IVar="4" Cut="9.5811080932617188e-01" cType="1" res="2.2386307828128338e-03" rms="4.6524816751480103e-01" purity="4.9972775578498840e-01" nType="0">
        <Node pos="l" depth="1" NCoef="0" IVar="3" Cut="1.4087265014648438e+02" cType="1" res="-7.1287457831203938e-03" rms="4.6942254900932312e-01" purity="4.1582933068275452e-01" nType="0">
          <Node pos="l" depth="2" NCoef="0" IVar="-1" Cut="0.0000000000000000e+00" cType="1" res="-3.6971218651160598e-04" rms="4.6951156854629517e-01" purity="4.0525257587432861e-01" nType="-99"/>
          <Node pos="r" depth="2" NCoef="0" IVar="-1" Cut="0.0000000000000000e+00" cType="1" res="8.6568086408078671e-04" rms="4.6686294674873352e-01" purity="5.2180272340774536e-01" nType="-99"/>
        </Node>
        <Node pos="r" depth="1" NCoef="0" IVar="0" Cut="-8.5914880037307739e-02" cType="1" res="1.5741864219307899e-02" rms="4.5882752537727356e-01" purity="6.2066894769668579e-01" nType="0">
          <Node pos="l" depth="2" NCoef="0" IVar="-1" Cut="0.0000000000000000e+00" cType="1" res="-6.2812853138893843e-04" rms="4.7176083922386169e-01" purity="5.1240271329879761e-01" nType="-99"/>
          <Node pos="r" depth="2" NCoef="0" IVar="-1" Cut="0.0000000000000000e+00" cType="1" res="6.0815946198999882e-04" rms="4.5583865046501160e-01" purity="6.4236456155776978e-01" nType="-99"/>
        </Node>
      </Node>
    </BinaryTree>
    <BinaryTree type="DecisionTree" boostWeight="1.0000000000000000e+00" itree="604">
      <Node pos="s" depth="0" NCoef="0" IVar="2" Cut="8.2235357666015625e+02" cType="1" res="2.6578949764370918e-03" rms="4.6444782614707947e-01" purity="5.0109589099884033e-01" nType="0">
        <Node pos="l" depth="1" NCoef="0" IVar="6" Cut="1.8468371033668518e-01" cType="1" res="-1.9003804773092270e-03" rms="4.6478685736656189e-01" purity="4.8443624377250671e-01" nType="0">
          <Node pos="l" depth="2" NCoef="0" IVar="-1" Cut="0.0000000000000000e+00" cType="1" res="-2.2063142387196422e-04" rms="4.6460500359535217e-01" purity="4.7106051445007324e-01" nType="-99"/>
          <Node pos="r" depth="2" NCoef="0" IVar="-1" Cut="0.0000000000000000e+00" cType="1" res="8.3966669626533985e-04" rms="4.6462613344192505e-01" purity="5.6985127925872803e-01" nType="-99"/>
        </Node>
        <Node pos="r" depth="1" NCoef="0" IVar="-1" Cut="0.0000000000000000e+00" cType="1" res="1.0270677739754319e-03" rms="4.6019262075424194e-01" purity="6.3232785463333130e-01" nType="-99"/>
      </Node>
    </BinaryTree>
    <BinaryTree type="DecisionTree" boostWeight="1.0000000000000000e+00" itree="605">
      <Node pos="s" depth="0" NCoef="0" IVar="2" Cut="4.4098339843750000e+02" cType="1" res="6.7063900642096996e-03" rms="4.6478790044784546e-01" purity="5.0580102205276489e-01" nType="0">
        <Node pos="l" depth="1" NCoef="0" IVar="2" Cut="3.5701599121093750e+02" cType="1" res="-1.2131006456911564e-02" rms="4.5431941747665405e-01" purity="3.7031558156013489e-01" nType="0">
          <Node pos="l" depth="2" NCoef="0" IVar="-1" Cut="0.0000000000000000e+00" cType="1" res="-2.2633683402091265e-03" rms="4.2526173591613770e-01" purity="2.8811073303222656e-01" nType="-99"/>
          <Node pos="r" depth="2" NCoef="0" IVar="-1" Cut="0.0000000000000000e+00" cType="1" res="-4.0947285015136003e-05" rms="4.6147868037223816e-01" purity="3.9318051934242249e-01" nType="-99"/>
        </Node>
        <Node pos="r" depth="1" NCoef="0" IVar="6" Cut="6.7736178636550903e-02" cType="1" res="1.3182645663619041e-02" rms="4.6815782785415649e-01" purity="5.5238068103790283e-01" nType="0">
          <Node pos="l" depth="2" NCoef="0" IVar="-1" Cut="0.0000000000000000e+00" cType="1" res="-7.9150813689921051e-05" rms="4.7199895977973938e-01" purity="4.9549296498298645e-01" nType="-99"/>
          <Node pos="r" depth="2" NCoef="0" IVar="-1" Cut="0.0000000000000000e+00" cType="1" res="7.0085318293422461e-04" rms="4.6456670761108398e-01" purity="5.9925103187561035e-01" nType="-99"/>
        </Node>
      </Node>
    </BinaryTree>
    <BinaryTree type="DecisionTree" boostWeight="1.0000000000000000e+00" itree="606">
      <Node pos="s" depth="0" NCoef="0" IVar="1" Cut="8.1801956892013550e-01" cType="1" res="5.0209248438477516e-03" rms="4.6618226170539856e-01" purity="5.0325876474380493e-01" nType="0">
        <Node pos="l" depth="1" NCoef="0" IVar="4" Cut="9.8546183109283447e-01" cType="1" res="4.0229779551737010e-04" rms="4.6703842282295227e-01" purity="4.8115292191505432e-01" nType="0">
          <Node pos="l" depth="2" NCoef="0" IVar="-1" Cut="0.0000000000000000e+00" cType="1" res="-8.1518315710127354e-05" rms="4.7061991691589355e-01" purity="4.5676830410957336e-01" nType="-99"/>
          <Node pos="r" depth="2" NCoef="0" IVar="-1" Cut="0.0000000000000000e+00" cType="1" res="7.7598926145583391e-04" rms="4.2866286635398865e-01" purity="7.2378730773925781e-01" nType="-99"/>
        </Node>
        <Node pos="r" depth="1" NCoef="0" IVar="7" Cut="9.1293090820312500e+01" cType="1" res="3.3154372125864029e-02" rms="4.5993214845657349e-01" purity="6.3791191577911377e-01" nType="0">
          <Node pos="l" depth="2" NCoef="0" IVar="-1" Cut="0.0000000000000000e+00" cType="1" res="1.8713873578235507e-04" rms="4.6839427947998047e-01" purity="5.8316689729690552e-01" nType="-99"/>
          <Node pos="r" depth="2" NCoef="0" IVar="-1" Cut="0.0000000000000000e+00" cType="1" res="1.4387763803824782e-03" rms="4.5054829120635986e-01" purity="6.8885815143585205e-01" nType="-99"/>
        </Node>
      </Node>
    </BinaryTree>
    <BinaryTree type="DecisionTree" boostWeight="1.0000000000000000e+00" itree="607">
      <Node pos="s" depth="0" NCoef="0" IVar="2" Cut="3.8649807739257812e+02" cType="1" res="2.5795036926865578e-03" rms="4.6533265709877014e-01" purity="5.0111001729965210e-01" nType="0">
        <Node pos="l" depth="1" NCoef="0" IVar="3" Cut="6.9917060852050781e+01" cType="1" res="-3.9555463939905167e-02" rms="4.3696334958076477e-01" purity="3.0486318469047546e-01" nType="0">
          <Node pos="l" depth="2" NCoef="0" IVar="-1" Cut="0.0000000000000000e+00" cType="1" res="-9.3940907390788198e-04" rms="4.4421306252479553e-01" purity="3.4165930747985840e-01" nType="-99"/>
          <Node pos="r" depth="2" NCoef="0" IVar="-1" Cut="0.0000000000000000e+00" cType="1" res="-2.6159991975873709e-03" rms="4.2920506000518799e-01" purity="2.6886117458343506e-01" nType="-99"/>
        </Node>
        <Node pos="r" depth="1" NCoef="0" IVar="6" Cut="2.8964890167117119e-02" cType="1" res="7.9637281596660614e-03" rms="4.6856123208999634e-01" purity="5.2618741989135742e-01" nType="0">
          <Node pos="l" depth="2" NCoef="0" IVar="-1" Cut="0.0000000000000000e+00" cType="1" res="-8.4666482871398330e-04" rms="4.6389102935791016e-01" purity="4.4023618102073669e-01" nType="-99"/>
          <Node pos="r" depth="2" NCoef="0" IVar="-1" Cut="0.0000000000000000e+00" cType="1" res="3.8637398392893374e-04" rms="4.6909597516059875e-01" purity="5.4031211137771606e-01" nType="-99"/>
        </Node>
      </Node>
    </BinaryTree>
    <BinaryTree type="DecisionTree" boostWeight="1.0000000000000000e+00" itree="608">
      <Node pos="s" depth="0" NCoef="0" IVar="6" Cut="8.2228064537048340e-02" cType="1" res="6.1204429948702455e-04" rms="4.6455562114715576e-01" purity="4.9946334958076477e-01" nType="0">
        <Node pos="l" depth="1" NCoef="0" IVar="2" Cut="7.2353173828125000e+02" cType="1" res="-1.1392429471015930e-02" rms="4.6323069930076599e-01" purity="4.6150943636894226e-01" nType="0">
          <Node pos="l" depth="2" NCoef="0" IVar="-1" Cut="0.0000000000000000e+00" cType="1" res="-7.2131125489249825e-04" rms="4.5996910333633423e-01" purity="4.1685926914215088e-01" nType="-99"/>
          <Node pos="r" depth="2" NCoef="0" IVar="-1" Cut="0.0000000000000000e+00" cType="1" res="3.9409691817127168e-04" rms="4.7072756290435791e-01" purity="5.7866239547729492e-01" nType="-99"/>
        </Node>
        <Node pos="r" depth="1" NCoef="0" IVar="2" Cut="5.6852062988281250e+02" cType="1" res="1.2250862084329128e-02" rms="4.6554112434387207e-01" purity="5.3626132011413574e-01" nType="0">
          <Node pos="l" depth="2" NCoef="0" IVar="-1" Cut="0.0000000000000000e+00" cType="1" res="8.3146762335672975e-05" rms="4.6846559643745422e-01" purity="4.8507079482078552e-01" nType="-99"/>
          <Node pos="r" depth="2" NCoef="0" IVar="-1" Cut="0.0000000000000000e+00" cType="1" res="9.1886619338765740e-04" rms="4.5746618509292603e-01" purity="6.6161894798278809e-01" nType="-99"/>
        </Node>
      </Node>
    </BinaryTree>
    <BinaryTree type="DecisionTree" boostWeight="1.0000000000000000e+00" itree="609">
      <Node pos="s" depth="0" NCoef="0" IVar="1" Cut="4.1387087106704712e-01" cType="1" res="-3.4878359292633832e-04" rms="4.6579316258430481e-01" purity="4.9597898125648499e-01" nType="0">
        <Node pos="l" depth="1" NCoef="0" IVar="-1" Cut="0.0000000000000000e+00" cType="1" res="-1.5615507727488875e-03" rms="4.4197019934654236e-01" purity="3.8103747367858887e-01" nType="-99"/>
        <Node pos="r" depth="1" NCoef="0" IVar="2" Cut="8.4086340332031250e+02" cType="1" res="4.2387042194604874e-03" rms="4.6811094880104065e-01" purity="5.0861346721649170e-01" nType="0">
          <Node pos="l" depth="2" NCoef="0" IVar="-1" Cut="0.0000000000000000e+00" cType="1" res="1.1909400200238451e-05" rms="4.6900656819343567e-01" purity="4.9332252144813538e-01" nType="-99"/>
          <Node pos="r" depth="2" NCoef="0" IVar="-1" Cut="0.0000000000000000e+00" cType="1" res="9.9276611581444740e-04" rms="4.5896723866462708e-01" purity="6.4063286781311035e-01" nType="-99"/>
        </Node>
      </Node>
    </BinaryTree>
    <BinaryTree type="DecisionTree" boostWeight="1.0000000000000000e+00" itree="610">
      <Node pos="s" depth="0" NCoef="0" IVar="1" Cut="8.6420261859893799e-01" cType="1" res="5.3610801696777344e-03" rms="4.6504423022270203e-01" purity="5.0339215993881226e-01" nType="0">
        <Node pos="l" depth="1" NCoef="0" IVar="0" Cut="1.3497839868068695e-01" cType="1" res="2.1490028593689203e-03" rms="4.6574199199676514e-01" purity="4.9069347977638245e-01" nType="0">
          <Node pos="l" depth="2" NCoef="0" IVar="-1" Cut="0.0000000000000000e+00" cType="1" res="-1.2097882427042350e-04" rms="4.6541759371757507e-01" purity="4.6538677811622620e-01" nType="-99"/>
          <Node pos="r" depth="2" NCoef="0" IVar="-1" Cut="0.0000000000000000e+00" cType="1" res="6.2956853071227670e-04" rms="4.6627944707870483e-01" purity="5.8027809858322144e-01" nType="-99"/>
        </Node>
        <Node pos="r" depth="1" NCoef="0" IVar="-1" Cut="0.0000000000000000e+00" cType="1" res="1.1039952514693141e-03" rms="4.5491001009941101e-01" purity="6.5465360879898071e-01" nType="-99"/>
      </Node>
    </BinaryTree>
    <BinaryTree type="DecisionTree" boostWeight="1.0000000000000000e+00" itree="611">
      <Node pos="s" depth="0" NCoef="0" IVar="4" Cut="9.8550927639007568e-01" cType="1" res="4.1260753641836345e-04" rms="4.6543353796005249e-01" purity="4.9763786792755127e-01" nType="0">
        <Node pos="l" depth="1" NCoef="0" IVar="6" Cut="1.9859391450881958e-01" cType="1" res="-3.6606569774448872e-03" rms="4.6966874599456787e-01" purity="4.7102761268615723e-01" nType="0">
          <Node pos="l" depth="2" NCoef="0" IVar="-1" Cut="0.0000000000000000e+00" cType="1" res="-2.2427766816690564e-04" rms="4.6938899159431458e-01" purity="4.6249350905418396e-01" nType="-99"/>
          <Node pos="r" depth="2" NCoef="0" IVar="-1" Cut="0.0000000000000000e+00" cType="1" res="7.7769666677340865e-04" rms="4.7105738520622253e-01" purity="5.5063694715499878e-01" nType="-99"/>
        </Node>
        <Node pos="r" depth="1" NCoef="0" IVar="-1" Cut="0.0000000000000000e+00" cType="1" res="9.9093455355614424e-04" rms="4.2223867774009705e-01" purity="7.4463039636611938e-01" nType="-99"/>
      </Node>
    </BinaryTree>
    <BinaryTree type="DecisionTree" boostWeight="1.0000000000000000e+00" itree="612">
      <Node pos="s" depth="0" NCoef="0" IVar="1" Cut="4.6197012066841125e-01" cType="1" res="6.2587548745796084e-04" rms="4.6466812491416931e-01" purity="4.9892666935920715e-01" nType="0">
        <Node pos="l" depth="1" NCoef="0" IVar="0" Cut="2.0583105087280273e-01" cType="1" res="-2.9465144500136375e-02" rms="4.4789743423461914e-01" purity="3.9275881648063660e-01" nType="0">
          <Node pos="l" depth="2" NCoef="0" IVar="-1" Cut="0.0000000000000000e+00" cType="1" res="-2.1319899242371321e-03" rms="4.3211263418197632e-01" purity="2.9710212349891663e-01" nType="-99"/>
          <Node pos="r" depth="2" NCoef="0" IVar="-1" Cut="0.0000000000000000e+00" cType="1" res="6.3358667830470949e-05" rms="4.7254076600074768e-01" purity="5.5989694595336914e-01" nType="-99"/>
        </Node>
        <Node pos="r" depth="1" NCoef="0" IVar="4" Cut="9.3186634778976440e-01" cType="1" res="6.6715772263705730e-03" rms="4.6773159503936768e-01" purity="5.2025723457336426e-01" nType="0">
          <Node pos="l" depth="2" NCoef="0" IVar="-1" Cut="0.0000000000000000e+00" cType="1" res="-6.7402143031358719e-04" rms="4.6175819635391235e-01" purity="3.6679607629776001e-01" nType="-99"/>
          <Node pos="r" depth="2" NCoef="0" IVar="-1" Cut="0.0000000000000000e+00" cType="1" res="3.8897755439393222e-04" rms="4.6917361021041870e-01" purity="5.6410938501358032e-01" nType="-99"/>
        </Node>
      </Node>
    </BinaryTree>
    <BinaryTree type="DecisionTree" boostWeight="1.0000000000000000e+00" itree="613">
      <Node pos="s" depth="0" NCoef="0" IVar="2" Cut="9.5623248291015625e+02" cType="1" res="3.2812971767270938e-05" rms="4.6591177582740784e-01" purity="4.9662032723426819e-01" nType="0">
        <Node pos="l" depth="1" NCoef="0" IVar="2" Cut="3.9079187011718750e+02" cType="1" res="-2.5060730986297131e-03" rms="4.6608582139015198e-01" purity="4.8787602782249451e-01" nType="0">
          <Node pos="l" depth="2" NCoef="0" IVar="-1" Cut="0.0000000000000000e+00" cType="1" res="-1.7437691567465663e-03" rms="4.3890932202339172e-01" purity="3.0236425995826721e-01" nType="-99"/>
          <Node pos="r" depth="2" NCoef="0" IVar="-1" Cut="0.0000000000000000e+00" cType="1" res="9.4604787591379136e-05" rms="4.6974354982376099e-01" purity="5.1558881998062134e-01" nType="-99"/>
        </Node>
        <Node pos="r" depth="1" NCoef="0" IVar="-1" Cut="0.0000000000000000e+00" cType="1" res="1.0786444181576371e-03" rms="4.6119117736816406e-01" purity="6.3718074560165405e-01" nType="-99"/>
      </Node>
    </BinaryTree>
    <BinaryTree type="DecisionTree" boostWeight="1.0000000000000000e+00" itree="614">
      <Node pos="s" depth="0" NCoef="0" IVar="6" Cut="1.8498536944389343e-01" cType="1" res="3.8592617493122816e-03" rms="4.6516317129135132e-01" purity="5.0224632024765015e-01" nType="0">
        <Node pos="l" depth="1" NCoef="0" IVar="2" Cut="7.2765936279296875e+02" cType="1" res="-2.2912002168595791e-04" rms="4.6505579352378845e-01" purity="4.9161916971206665e-01" nType="0">
          <Node pos="l" depth="2" NCoef="0" IVar="-1" Cut="0.0000000000000000e+00" cType="1" res="-2.0090381440240890e-04" rms="4.6464326977729797e-01" purity="4.6164661645889282e-01" nType="-99"/>
          <Node pos="r" depth="2" NCoef="0" IVar="-1" Cut="0.0000000000000000e+00" cType="1" res="6.5389240626245737e-04" rms="4.6590495109558105e-01" purity="6.1116284132003784e-01" nType="-99"/>
        </Node>
        <Node pos="r" depth="1" NCoef="0" IVar="2" Cut="4.4040380859375000e+02" cType="1" res="3.3166099339723587e-02" rms="4.6488082408905029e-01" purity="5.7842469215393066e-01" nType="0">
          <Node pos="l" depth="2" NCoef="0" IVar="-1" Cut="0.0000000000000000e+00" cType="1" res="4.5611313544213772e-04" rms="4.7541797161102295e-01" purity="4.6384459733963013e-01" nType="-99"/>
          <Node pos="r" depth="2" NCoef="0" IVar="-1" Cut="0.0000000000000000e+00" cType="1" res="1.1620883597061038e-03" rms="4.5699054002761841e-01" purity="6.5805292129516602e-01" nType="-99"/>
        </Node>
      </Node>
    </BinaryTree>
    <BinaryTree type="DecisionTree" boostWeight="1.0000000000000000e+00" itree="615">
      <Node pos="s" depth="0" NCoef="0" IVar="0" Cut="2.0227731764316559e-01" cType="1" res="4.9076005816459656e-03" rms="4.6425294876098633e-01" purity="5.0354605913162231e-01" nType="0">
        <Node pos="l" depth="1" NCoef="0" IVar="1" Cut="8.4532934427261353e-01" cType="1" res="4.7061924124136567e-04" rms="4.6382111310958862e-01" purity="4.9091696739196777e-01" nType="0">
          <Node pos="l" depth="2" NCoef="0" IVar="-1" Cut="0.0000000000000000e+00" cType="1" res="-1.3988574210088700e-04" rms="4.6473389863967896e-01" purity="4.7123703360557556e-01" nType="-99"/>
          <Node pos="r" depth="2" NCoef="0" IVar="-1" Cut="0.0000000000000000e+00" cType="1" res="1.0214423527941108e-03" rms="4.5449519157409668e-01" purity="6.4916157722473145e-01" nType="-99"/>
        </Node>
        <Node pos="r" depth="1" NCoef="0" IVar="-1" Cut="0.0000000000000000e+00" cType="1" res="1.1455629719421268e-03" rms="4.6621954441070557e-01" purity="6.1502969264984131e-01" nType="-99"/>
      </Node>
    </BinaryTree>
    <BinaryTree type="DecisionTree" boostWeight="1.0000000000000000e+00" itree="616">
      <Node pos="s" depth="0" NCoef="0" IVar="4" Cut="9.8561698198318481e-01" cType="1" res="1.1936908122152090e-03" rms="4.6371379494667053e-01" purity="4.9971207976341248e-01" nType="0">
        <Node pos="l" depth="1" NCoef="0" IVar="6" Cut="2.7774780988693237e-02" cType="1" res="-2.3859799839556217e-03" rms="4.6826356649398804e-01" purity="4.7353351116180420e-01" nType="0">
          <Node pos="l" depth="2" NCoef="0" IVar="-1" Cut="0.0000000000000000e+00" cType="1" res="-9.9275843240320683e-04" rms="4.5913645625114441e-01" purity="4.1062375903129578e-01" nType="-99"/>
          <Node pos="r" depth="2" NCoef="0" IVar="-1" Cut="0.0000000000000000e+00" cType="1" res="3.9890819607535377e-05" rms="4.6942594647407532e-01" purity="4.8244944214820862e-01" nType="-99"/>
        </Node>
        <Node pos="r" depth="1" NCoef="0" IVar="-1" Cut="0.0000000000000000e+00" cType="1" res="9.0893526794388890e-04" rms="4.1706198453903198e-01" purity="7.4566459655761719e-01" nType="-99"/>
      </Node>
    </BinaryTree>
    <BinaryTree type="DecisionTree" boostWeight="1.0000000000000000e+00" itree="617">
      <Node pos="s" depth="0" NCoef="0" IVar="6" Cut="2.1273624897003174e-01" cType="1" res="-6.1507866485044360e-04" rms="4.6387058496475220e-01" purity="4.9770206212997437e-01" nType="0">
        <Node pos="l" depth="1" NCoef="0" IVar="0" Cut="1.7036490142345428e-01" cType="1" res="-4.1470108553767204e-03" rms="4.6395248174667358e-01" purity="4.8992356657981873e-01" nType="0">
          <Node pos="l" depth="2" NCoef="0" IVar="-1" Cut="0.0000000000000000e+00" cType="1" res="-2.9136365628801286e-04" rms="4.6288594603538513e-01" purity="4.7168272733688354e-01" nType="-99"/>
          <Node pos="r" depth="2" NCoef="0" IVar="-1" Cut="0.0000000000000000e+00" cType="1" res="6.1963452026247978e-04" rms="4.6874630451202393e-01" purity="5.8857655525207520e-01" nType="-99"/>
        </Node>
        <Node pos="r" depth="1" NCoef="0" IVar="-1" Cut="0.0000000000000000e+00" cType="1" res="1.0905348462983966e-03" rms="4.6092078089714050e-01" purity="5.8840423822402954e-01" nType="-99"/>
      </Node>
    </BinaryTree>
    <BinaryTree type="DecisionTree" boostWeight="1.0000000000000000e+00" itree="618">
      <Node pos="s" depth="0" NCoef="0" IVar="1" Cut="8.4248626232147217e-01" cType="1" res="3.2599263358861208e-03" rms="4.6482828259468079e-01" purity="5.0109016895294189e-01" nType="0">
        <Node pos="l" depth="1" NCoef="0" IVar="0" Cut="9.4576217234134674e-03" cType="1" res="-4.4911587610840797e-04" rms="4.6557047963142395e-01" purity="4.8476800322532654e-01" nType="0">
          <Node pos="l" depth="2" NCoef="0" IVar="-1" Cut="0.0000000000000000e+00" cType="1" res="-5.3932867012917995e-04" rms="4.6220970153808594e-01" purity="4.2087405920028687e-01" nType="-99"/>
          <Node pos="r" depth="2" NCoef="0" IVar="-1" Cut="0.0000000000000000e+00" cType="1" res="3.8824952207505703e-04" rms="4.6821439266204834e-01" purity="5.4382252693176270e-01" nType="-99"/>
        </Node>
        <Node pos="r" depth="1" NCoef="0" IVar="-1" Cut="0.0000000000000000e+00" cType="1" res="9.3002390349283814e-04" rms="4.5691305398941040e-01" purity="6.4529109001159668e-01" nType="-99"/>
      </Node>
    </BinaryTree>
    <BinaryTree type="DecisionTree" boostWeight="1.0000000000000000e+00" itree="619">
      <Node pos="s" depth="0" NCoef="0" IVar="2" Cut="8.3694128417968750e+02" cType="1" res="2.3955593351274729e-03" rms="4.6546339988708496e-01" purity="4.9940040707588196e-01" nType="0">
        <Node pos="l" depth="1" NCoef="0" IVar="6" Cut="8.5902929306030273e-02" cType="1" res="-1.8829501932486892e-03" rms="4.6572625637054443e-01" purity="4.8365584015846252e-01" nType="0">
          <Node pos="l" depth="2" NCoef="0" IVar="-1" Cut="0.0000000000000000e+00" cType="1" res="-4.4297010754235089e-04" rms="4.6395394206047058e-01" purity="4.3685632944107056e-01" nType="-99"/>
          <Node pos="r" depth="2" NCoef="0" IVar="-1" Cut="0.0000000000000000e+00" cType="1" res="2.5880354223772883e-04" rms="4.6714365482330322e-01" purity="5.2798843383789062e-01" nType="-99"/>
        </Node>
        <Node pos="r" depth="1" NCoef="0" IVar="-1" Cut="0.0000000000000000e+00" cType="1" res="1.0364169720560312e-03" rms="4.6160069108009338e-01" purity="6.3384473323822021e-01" nType="-99"/>
      </Node>
    </BinaryTree>
    <BinaryTree type="DecisionTree" boostWeight="1.0000000000000000e+00" itree="620">
      <Node pos="s" depth="0" NCoef="0" IVar="3" Cut="7.5460464477539062e+01" cType="1" res="2.8396497946232557e-03" rms="4.6685433387756348e-01" purity="5.0025123357772827e-01" nType="0">
        <Node pos="l" depth="1" NCoef="0" IVar="4" Cut="9.2645573616027832e-01" cType="1" res="1.6585506498813629e-02" rms="4.6709010004997253e-01" purity="5.0527536869049072e-01" nType="0">
          <Node pos="l" depth="2" NCoef="0" IVar="-1" Cut="0.0000000000000000e+00" cType="1" res="-4.9730861792340875e-04" rms="4.5620441436767578e-01" purity="3.3923712372779846e-01" nType="-99"/>
          <Node pos="r" depth="2" NCoef="0" IVar="-1" Cut="0.0000000000000000e+00" cType="1" res="6.6095788497477770e-04" rms="4.6923831105232239e-01" purity="5.4244214296340942e-01" nType="-99"/>
        </Node>
        <Node pos="r" depth="1" NCoef="0" IVar="2" Cut="8.3691943359375000e+02" cType="1" res="-5.6965332478284836e-03" rms="4.6650403738021851e-01" purity="4.9713119864463806e-01" nType="0">
          <Node pos="l" depth="2" NCoef="0" IVar="-1" Cut="0.0000000000000000e+00" cType="1" res="-3.0293257441371679e-04" rms="4.6738955378532410e-01" purity="4.7863423824310303e-01" nType="-99"/>
          <Node pos="r" depth="2" NCoef="0" IVar="-1" Cut="0.0000000000000000e+00" cType="1" res="5.7939573889598250e-04" rms="4.5955127477645874e-01" purity="6.2231546640396118e-01" nType="-99"/>
        </Node>
      </Node>
    </BinaryTree>
    <BinaryTree type="DecisionTree" boostWeight="1.0000000000000000e+00" itree="621">
      <Node pos="s" depth="0" NCoef="0" IVar="2" Cut="4.0237567138671875e+02" cType="1" res="2.5853060651570559e-03" rms="4.6571785211563110e-01" purity="4.9856346845626831e-01" nType="0">
        <Node pos="l" depth="1" NCoef="0" IVar="2" Cut="3.5588534545898438e+02" cType="1" res="-2.1095346659421921e-02" rms="4.4668516516685486e-01" purity="3.3283764123916626e-01" nType="0">
          <Node pos="l" depth="2" NCoef="0" IVar="-1" Cut="0.0000000000000000e+00" cType="1" res="-3.0279387719929218e-03" rms="4.2210122942924500e-01" purity="2.6765590906143188e-01" nType="-99"/>
          <Node pos="r" depth="2" NCoef="0" IVar="-1" Cut="0.0000000000000000e+00" cType="1" res="1.2003102892776951e-04" rms="4.5793667435646057e-01" purity="3.6894968152046204e-01" nType="-99"/>
        </Node>
        <Node pos="r" depth="1" NCoef="0" IVar="6" Cut="2.0469222962856293e-01" cType="1" res="6.8996534682810307e-03" rms="4.6897348761558533e-01" purity="5.2875685691833496e-01" nType="0">
          <Node pos="l" depth="2" NCoef="0" IVar="-1" Cut="0.0000000000000000e+00" cType="1" res="8.9795306848827749e-05" rms="4.6947517991065979e-01" purity="5.1943576335906982e-01" nType="-99"/>
          <Node pos="r" depth="2" NCoef="0" IVar="-1" Cut="0.0000000000000000e+00" cType="1" res="1.3222569832578301e-03" rms="4.6069294214248657e-01" purity="6.3745534420013428e-01" nType="-99"/>
        </Node>
      </Node>
    </BinaryTree>
    <BinaryTree type="DecisionTree" boostWeight="1.0000000000000000e+00" itree="622">
      <Node pos="s" depth="0" NCoef="0" IVar="1" Cut="8.6734807491302490e-01" cType="1" res="1.5637077158316970e-03" rms="4.6496114134788513e-01" purity="5.0018292665481567e-01" nType="0">
        <Node pos="l" depth="1" NCoef="0" IVar="4" Cut="9.7188615798950195e-01" cType="1" res="-2.2906521335244179e-03" rms="4.6560552716255188e-01" purity="4.8752883076667786e-01" nType="0">
          <Node pos="l" depth="2" NCoef="0" IVar="-1" Cut="0.0000000000000000e+00" cType="1" res="-3.0022201826795936e-04" rms="4.6991187334060669e-01" purity="4.3241935968399048e-01" nType="-99"/>
          <Node pos="r" depth="2" NCoef="0" IVar="-1" Cut="0.0000000000000000e+00" cType="1" res="5.5321113904938102e-04" rms="4.5000615715980530e-01" purity="6.7330557107925415e-01" nType="-99"/>
        </Node>
        <Node pos="r" depth="1" NCoef="0" IVar="-1" Cut="0.0000000000000000e+00" cType="1" res="1.2763564009219408e-03" rms="4.5372325181961060e-01" purity="6.6246843338012695e-01" nType="-99"/>
      </Node>
    </BinaryTree>
    <BinaryTree type="DecisionTree" boostWeight="1.0000000000000000e+00" itree="623">
      <Node pos="s" depth="0" NCoef="0" IVar="3" Cut="1.3975854492187500e+02" cType="1" res="2.5005387142300606e-03" rms="4.6563073992729187e-01" purity="5.0080114603042603e-01" nType="0">
        <Node pos="l" depth="1" NCoef="0" IVar="3" Cut="7.4077964782714844e+01" cType="1" res="-1.7488696612417698e-03" rms="4.6633028984069824e-01" purity="4.8969057202339172e-01" nType="0">
          <Node pos="l" depth="2" NCoef="0" IVar="-1" Cut="0.0000000000000000e+00" cType="1" res="4.9768219469115138e-04" rms="4.6557486057281494e-01" purity="5.0732064247131348e-01" nType="-99"/>
          <Node pos="r" depth="2" NCoef="0" IVar="-1" Cut="0.0000000000000000e+00" cType="1" res="-4.5481856795959175e-04" rms="4.6642813086509705e-01" purity="4.7741904854774475e-01" nType="-99"/>
        </Node>
        <Node pos="r" depth="1" NCoef="0" IVar="-1" Cut="0.0000000000000000e+00" cType="1" res="1.1422339593991637e-03" rms="4.5724451541900635e-01" purity="6.0353666543960571e-01" nType="-99"/>
      </Node>
    </BinaryTree>
    <BinaryTree type="DecisionTree" boostWeight="1.0000000000000000e+00" itree="624">
      <Node pos="s" depth="0" NCoef="0" IVar="4" Cut="9.8091197013854980e-01" cType="1" res="1.1682470794767141e-03" rms="4.6469092369079590e-01" purity="4.9888268113136292e-01" nType="0">
        <Node pos="l" depth="1" NCoef="0" IVar="8" Cut="6.8945580720901489e-01" cType="1" res="-3.1108646653592587e-03" rms="4.6991249918937683e-01" purity="4.6237361431121826e-01" nType="0">
          <Node pos="l" depth="2" NCoef="0" IVar="-1" Cut="0.0000000000000000e+00" cType="1" res="5.8082077885046601e-04" rms="4.7295761108398438e-01" purity="5.3680711984634399e-01" nType="-99"/>
          <Node pos="r" depth="2" NCoef="0" IVar="-1" Cut="0.0000000000000000e+00" cType="1" res="-2.4310410663019866e-04" rms="4.6919980645179749e-01" purity="4.4831246137619019e-01" nType="-99"/>
        </Node>
        <Node pos="r" depth="1" NCoef="0" IVar="-1" Cut="0.0000000000000000e+00" cType="1" res="7.2085828287526965e-04" rms="4.3032130599021912e-01" purity="7.2301036119461060e-01" nType="-99"/>
      </Node>
    </BinaryTree>
    <BinaryTree type="DecisionTree" boostWeight="1.0000000000000000e+00" itree="625">
      <Node pos="s" depth="0" NCoef="0" IVar="4" Cut="9.6731382608413696e-01" cType="1" res="1.6751314979046583e-03" rms="4.6447986364364624e-01" purity="4.9948024749755859e-01" nType="0">
        <Node pos="l" depth="1" NCoef="0" IVar="3" Cut="1.4327381896972656e+02" cType="1" res="-5.9516192413866520e-03" rms="4.7027376294136047e-01" purity="4.3281066417694092e-01" nType="0">
          <Node pos="l" depth="2" NCoef="0" IVar="-1" Cut="0.0000000000000000e+00" cType="1" res="-3.2363020000047982e-04" rms="4.7069025039672852e-01" purity="4.2214071750640869e-01" nType="-99"/>
          <Node pos="r" depth="2" NCoef="0" IVar="-1" Cut="0.0000000000000000e+00" cType="1" res="1.0187741136178374e-03" rms="4.6344956755638123e-01" purity="5.5175691843032837e-01" nType="-99"/>
        </Node>
        <Node pos="r" depth="1" NCoef="0" IVar="4" Cut="9.8727732896804810e-01" cType="1" res="2.0417369902133942e-02" rms="4.4937530159950256e-01" purity="6.6331624984741211e-01" nType="0">
          <Node pos="l" depth="2" NCoef="0" IVar="-1" Cut="0.0000000000000000e+00" cType="1" res="3.1882961047813296e-04" rms="4.6128788590431213e-01" purity="6.2757402658462524e-01" nType="-99"/>
          <Node pos="r" depth="2" NCoef="0" IVar="-1" Cut="0.0000000000000000e+00" cType="1" res="1.0684313019737601e-03" rms="4.1741153597831726e-01" purity="7.5250375270843506e-01" nType="-99"/>
        </Node>
      </Node>
    </BinaryTree>
    <BinaryTree type="DecisionTree" boostWeight="1.0000000000000000e+00" itree="626">
      <Node pos="s" depth="0" NCoef="0" IVar="0" Cut="2.2066406905651093e-01" cType="1" res="2.6307704392820597e-03" rms="4.6524491906166077e-01" purity="5.0033164024353027e-01" nType="0">
        <Node pos="l" depth="1" NCoef="0" IVar="1" Cut="7.9422891139984131e-01" cType="1" res="-7.5026781996712089e-04" rms="4.6498307585716248e-01" purity="4.9054709076881409e-01" nType="0">
          <Node pos="l" depth="2" NCoef="0" IVar="-1" Cut="0.0000000000000000e+00" cType="1" res="-2.2522961080539972e-04" rms="4.6565967798233032e-01" purity="4.5671889185905457e-01" nType="-99"/>
          <Node pos="r" depth="2" NCoef="0" IVar="-1" Cut="0.0000000000000000e+00" cType="1" res="6.4641260541975498e-04" rms="4.6138393878936768e-01" purity="6.2727457284927368e-01" nType="-99"/>
        </Node>
        <Node pos="r" depth="1" NCoef="0" IVar="-1" Cut="0.0000000000000000e+00" cType="1" res="1.1293351417407393e-03" rms="4.6645769476890564e-01" purity="6.1982232332229614e-01" nType="-99"/>
      </Node>
    </BinaryTree>
    <BinaryTree type="DecisionTree" boostWeight="1.0000000000000000e+00" itree="627">
      <Node pos="s" depth="0" NCoef="0" IVar="0" Cut="-1.1284528672695160e-01" cType="1" res="2.6689183432608843e-03" rms="4.6429261565208435e-01" purity="5.0171798467636108e-01" nType="0">
        <Node pos="l" depth="1" NCoef="0" IVar="-1" Cut="0.0000000000000000e+00" cType="1" res="-1.8661941867321730e-03" rms="4.4064763188362122e-01" purity="3.5174804925918579e-01" nType="-99"/>
        <Node pos="r" depth="1" NCoef="0" IVar="7" Cut="9.7813262939453125e+01" cType="1" res="6.0134129598736763e-03" rms="4.6567261219024658e-01" purity="5.1194119453430176e-01" nType="0">
          <Node pos="l" depth="2" NCoef="0" IVar="-1" Cut="0.0000000000000000e+00" cType="1" res="-2.0140019478276372e-04" rms="4.6939772367477417e-01" purity="4.8189783096313477e-01" nType="-99"/>
          <Node pos="r" depth="2" NCoef="0" IVar="-1" Cut="0.0000000000000000e+00" cType="1" res="5.3717475384473801e-04" rms="4.6160194277763367e-01" purity="5.4178112745285034e-01" nType="-99"/>
        </Node>
      </Node>
    </BinaryTree>
    <BinaryTree type="DecisionTree" boostWeight="1.0000000000000000e+00" itree="628">
      <Node pos="s" depth="0" NCoef="0" IVar="6" Cut="1.2830458581447601e-01" cType="1" res="1.5005908207967877e-03" rms="4.6425700187683105e-01" purity="5.0205516815185547e-01" nType="0">
        <Node pos="l" depth="1" NCoef="0" IVar="2" Cut="7.3566992187500000e+02" cType="1" res="-5.7161506265401840e-03" rms="4.6460410952568054e-01" purity="4.7953248023986816e-01" nType="0">
          <Node pos="l" depth="2" NCoef="0" IVar="-1" Cut="0.0000000000000000e+00" cType="1" res="-4.7540469677187502e-04" rms="4.6387898921966553e-01" purity="4.4302058219909668e-01" nType="-99"/>
          <Node pos="r" depth="2" NCoef="0" IVar="-1" Cut="0.0000000000000000e+00" cType="1" res="6.8992923479527235e-04" rms="4.6585458517074585e-01" purity="6.0964596271514893e-01" nType="-99"/>
        </Node>
        <Node pos="r" depth="1" NCoef="0" IVar="2" Cut="4.3239718627929688e+02" cType="1" res="2.0028641447424889e-02" rms="4.6284961700439453e-01" purity="5.5987924337387085e-01" nType="0">
          <Node pos="l" depth="2" NCoef="0" IVar="-1" Cut="0.0000000000000000e+00" cType="1" res="-3.3275978057645261e-04" rms="4.7010520100593567e-01" purity="4.1059112548828125e-01" nType="-99"/>
          <Node pos="r" depth="2" NCoef="0" IVar="-1" Cut="0.0000000000000000e+00" cType="1" res="8.9043506886810064e-04" rms="4.5864582061767578e-01" purity="6.3131731748580933e-01" nType="-99"/>
        </Node>
      </Node>
    </BinaryTree>
    <BinaryTree type="DecisionTree" boostWeight="1.0000000000000000e+00" itree="629">
      <Node pos="s" depth="0" NCoef="0" IVar="0" Cut="-9.9258027970790863e-02" cType="1" res="1.9082875223830342e-03" rms="4.6387034654617310e-01" purity="5.0124061107635498e-01" nType="0">
        <Node pos="l" depth="1" NCoef="0" IVar="8" Cut="9.6797955036163330e-01" cType="1" res="-3.9211064577102661e-02" rms="4.4630655646324158e-01" purity="3.7861528992652893e-01" nType="0">
          <Node pos="l" depth="2" NCoef="0" IVar="-1" Cut="0.0000000000000000e+00" cType="1" res="-6.1447214102372527e-04" rms="4.6228772401809692e-01" purity="4.4321390986442566e-01" nType="-99"/>
          <Node pos="r" depth="2" NCoef="0" IVar="-1" Cut="0.0000000000000000e+00" cType="1" res="-2.4470430798828602e-03" rms="4.3130603432655334e-01" purity="3.2308655977249146e-01" nType="-99"/>
        </Node>
        <Node pos="r" depth="1" NCoef="0" IVar="4" Cut="9.5379573106765747e-01" cType="1" res="7.1750064380466938e-03" rms="4.6581000089645386e-01" purity="5.1694685220718384e-01" nType="0">
          <Node pos="l" depth="2" NCoef="0" IVar="-1" Cut="0.0000000000000000e+00" cType="1" res="-1.5226223331410438e-04" rms="4.7048988938331604e-01" purity="4.2063274979591370e-01" nType="-99"/>
          <Node pos="r" depth="2" NCoef="0" IVar="-1" Cut="0.0000000000000000e+00" cType="1" res="5.3574005141854286e-04" rms="4.6034327149391174e-01" purity="6.2133163213729858e-01" nType="-99"/>
        </Node>
      </Node>
    </BinaryTree>
    <BinaryTree type="DecisionTree" boostWeight="1.0000000000000000e+00" itree="630">
      <Node pos="s" depth="0" NCoef="0" IVar="6" Cut="2.7775319293141365e-02" cType="1" res="2.2962843067944050e-03" rms="4.6534186601638794e-01" purity="5.0047540664672852e-01" nType="0">
        <Node pos="l" depth="1" NCoef="0" IVar="8" Cut="8.6602067947387695e-01" cType="1" res="-2.8618736192584038e-02" rms="4.6439796686172485e-01" purity="4.2366454005241394e-01" nType="0">
          <Node pos="l" depth="2" NCoef="0" IVar="-1" Cut="0.0000000000000000e+00" cType="1" res="-9.2991773271933198e-05" rms="4.6718010306358337e-01" purity="4.9178433418273926e-01" nType="-99"/>
          <Node pos="r" depth="2" NCoef="0" IVar="-1" Cut="0.0000000000000000e+00" cType="1" res="-1.8213343573734164e-03" rms="4.6126466989517212e-01" purity="3.7100869417190552e-01" nType="-99"/>
        </Node>
        <Node pos="r" depth="1" NCoef="0" IVar="1" Cut="8.6832451820373535e-01" cType="1" res="6.5249060280621052e-03" rms="4.6531116962432861e-01" purity="5.1098173856735229e-01" nType="0">
          <Node pos="l" depth="2" NCoef="0" IVar="-1" Cut="0.0000000000000000e+00" cType="1" res="1.1561063001863658e-04" rms="4.6587434411048889e-01" purity="4.9963641166687012e-01" nType="-99"/>
          <Node pos="r" depth="2" NCoef="0" IVar="-1" Cut="0.0000000000000000e+00" cType="1" res="1.0359084699302912e-03" rms="4.5693808794021606e-01" purity="6.5111345052719116e-01" nType="-99"/>
        </Node>
      </Node>
    </BinaryTree>
    <BinaryTree type="DecisionTree" boostWeight="1.0000000000000000e+00" itree="631">
      <Node pos="s" depth="0" NCoef="0" IVar="0" Cut="1.7036490142345428e-01" cType="1" res="-3.8595753721892834e-03" rms="4.6456623077392578e-01" purity="4.9410429596900940e-01" nType="0">
        <Node pos="l" depth="1" NCoef="0" IVar="1" Cut="5.3348773717880249e-01" cType="1" res="-8.6940508335828781e-03" rms="4.6423467993736267e-01" purity="4.7725835442543030e-01" nType="0">
          <Node pos="l" depth="2" NCoef="0" IVar="-1" Cut="0.0000000000000000e+00" cType="1" res="-1.4073891798034310e-03" rms="4.3974563479423523e-01" purity="3.1635159254074097e-01" nType="-99"/>
          <Node pos="r" depth="2" NCoef="0" IVar="-1" Cut="0.0000000000000000e+00" cType="1" res="-5.4357435146812350e-05" rms="4.7069245576858521e-01" purity="5.2268767356872559e-01" nType="-99"/>
        </Node>
        <Node pos="r" depth="1" NCoef="0" IVar="0" Cut="2.3215757310390472e-01" cType="1" res="2.4135116487741470e-02" rms="4.6549540758132935e-01" purity="5.9165292978286743e-01" nType="0">
          <Node pos="l" depth="2" NCoef="0" IVar="-1" Cut="0.0000000000000000e+00" cType="1" res="2.8922347701154649e-04" rms="4.6692779660224915e-01" purity="5.6852900981903076e-01" nType="-99"/>
          <Node pos="r" depth="2" NCoef="0" IVar="-1" Cut="0.0000000000000000e+00" cType="1" res="1.0824112687259912e-03" rms="4.6307206153869629e-01" purity="6.2117904424667358e-01" nType="-99"/>
        </Node>
      </Node>
    </BinaryTree>
    <BinaryTree type="DecisionTree" boostWeight="1.0000000000000000e+00" itree="632">
      <Node pos="s" depth="0" NCoef="0" IVar="4" Cut="9.7187680006027222e-01" cType="1" res="2.0913006737828255e-03" rms="4.6500509977340698e-01" purity="4.9937149882316589e-01" nType="0">
        <Node pos="l" depth="1" NCoef="0" IVar="6" Cut="1.9055211544036865e-01" cType="1" res="-4.3230331502854824e-03" rms="4.7107526659965515e-01" purity="4.4315546751022339e-01" nType="0">
          <Node pos="l" depth="2" NCoef="0" IVar="-1" Cut="0.0000000000000000e+00" cType="1" res="-2.6655397959984839e-04" rms="4.7014278173446655e-01" purity="4.3402248620986938e-01" nType="-99"/>
          <Node pos="r" depth="2" NCoef="0" IVar="-1" Cut="0.0000000000000000e+00" cType="1" res="7.5504666892811656e-04" rms="4.7743636369705200e-01" purity="5.1734524965286255e-01" nType="-99"/>
        </Node>
        <Node pos="r" depth="1" NCoef="0" IVar="6" Cut="1.0468263924121857e-01" cType="1" res="2.3251220583915710e-02" rms="4.4373604655265808e-01" purity="6.8481987714767456e-01" nType="0">
          <Node pos="l" depth="2" NCoef="0" IVar="-1" Cut="0.0000000000000000e+00" cType="1" res="3.2516155624762177e-04" rms="4.5332637429237366e-01" purity="6.5234243869781494e-01" nType="-99"/>
          <Node pos="r" depth="2" NCoef="0" IVar="-1" Cut="0.0000000000000000e+00" cType="1" res="9.9107180722057819e-04" rms="4.3008691072463989e-01" purity="7.2833305597305298e-01" nType="-99"/>
        </Node>
      </Node>
    </BinaryTree>
    <BinaryTree type="DecisionTree" boostWeight="1.0000000000000000e+00" itree="633">
      <Node pos="s" depth="0" NCoef="0" IVar="2" Cut="3.8649807739257812e+02" cType="1" res="3.1667589209973812e-03" rms="4.6417731046676636e-01" purity="5.0152200460433960e-01" nType="0">
        <Node pos="l" depth="1" NCoef="0" IVar="2" Cut="3.5460678100585938e+02" cType="1" res="-2.9448656365275383e-02" rms="4.4291746616363525e-01" purity="3.1373471021652222e-01" nType="0">
          <Node pos="l" depth="2" NCoef="0" IVar="-1" Cut="0.0000000000000000e+00" cType="1" res="-2.1922499872744083e-03" rms="4.3106231093406677e-01" purity="2.7937236428260803e-01" nType="-99"/>
          <Node pos="r" depth="2" NCoef="0" IVar="-1" Cut="0.0000000000000000e+00" cType="1" res="-5.3231546189635992e-04" rms="4.5237633585929871e-01" purity="3.4360992908477783e-01" nType="-99"/>
        </Node>
        <Node pos="r" depth="1" NCoef="0" IVar="0" Cut="6.2515735626220703e-02" cType="1" res="7.4500553309917450e-03" rms="4.6672809123992920e-01" purity="5.2618360519409180e-01" nType="0">
          <Node pos="l" depth="2" NCoef="0" IVar="-1" Cut="0.0000000000000000e+00" cType="1" res="-2.5150186047540046e-05" rms="4.6519124507904053e-01" purity="4.9516505002975464e-01" nType="-99"/>
          <Node pos="r" depth="2" NCoef="0" IVar="-1" Cut="0.0000000000000000e+00" cType="1" res="6.2682316638529301e-04" rms="4.6919730305671692e-01" purity="5.8418112993240356e-01" nType="-99"/>
        </Node>
      </Node>
    </BinaryTree>
    <BinaryTree type="DecisionTree" boostWeight="1.0000000000000000e+00" itree="634">
      <Node pos="s" depth="0" NCoef="0" IVar="6" Cut="2.0525415241718292e-01" cType="1" res="1.2392016360536218e-03" rms="4.6543538570404053e-01" purity="4.9836981296539307e-01" nType="0">
        <Node pos="l" depth="1" NCoef="0" IVar="0" Cut="9.8465457558631897e-02" cType="1" res="-2.2970431018620729e-03" rms="4.6569737792015076e-01" purity="4.8981535434722900e-01" nType="0">
          <Node pos="l" depth="2" NCoef="0" IVar="-1" Cut="0.0000000000000000e+00" cType="1" res="-2.8433313127607107e-04" rms="4.6376034617424011e-01" purity="4.6065554022789001e-01" nType="-99"/>
          <Node pos="r" depth="2" NCoef="0" IVar="-1" Cut="0.0000000000000000e+00" cType="1" res="3.8986324216239154e-04" rms="4.7016757726669312e-01" purity="5.6359821557998657e-01" nType="-99"/>
        </Node>
        <Node pos="r" depth="1" NCoef="0" IVar="-1" Cut="0.0000000000000000e+00" cType="1" res="9.8734197672456503e-04" rms="4.6131002902984619e-01" purity="5.8404856920242310e-01" nType="-99"/>
      </Node>
    </BinaryTree>
    <BinaryTree type="DecisionTree" boostWeight="1.0000000000000000e+00" itree="635">
      <Node pos="s" depth="0" NCoef="0" IVar="0" Cut="2.2463607788085938e-01" cType="1" res="6.3820434734225273e-03" rms="4.6444651484489441e-01" purity="5.0567233562469482e-01" nType="0">
        <Node pos="l" depth="1" NCoef="0" IVar="1" Cut="4.1355133056640625e-01" cType="1" res="3.0840428080409765e-03" rms="4.6425011754035950e-01" purity="4.9631881713867188e-01" nType="0">
          <Node pos="l" depth="2" NCoef="0" IVar="-1" Cut="0.0000000000000000e+00" cType="1" res="-2.3432667367160320e-03" rms="4.3154767155647278e-01" purity="2.9188251495361328e-01" nType="-99"/>
          <Node pos="r" depth="2" NCoef="0" IVar="-1" Cut="0.0000000000000000e+00" cType="1" res="2.0868585852440447e-04" rms="4.6627256274223328e-01" purity="5.1102095842361450e-01" nType="-99"/>
        </Node>
        <Node pos="r" depth="1" NCoef="0" IVar="-1" Cut="0.0000000000000000e+00" cType="1" res="1.2656995095312595e-03" rms="4.6486201882362366e-01" purity="6.2771260738372803e-01" nType="-99"/>
      </Node>
    </BinaryTree>
    <BinaryTree type="DecisionTree" boostWeight="1.0000000000000000e+00" itree="636">
      <Node pos="s" depth="0" NCoef="0" IVar="3" Cut="1.3938224792480469e+02" cType="1" res="5.7767715770751238e-04" rms="4.6479395031929016e-01" purity="4.9806225299835205e-01" nType="0">
        <Node pos="l" depth="1" NCoef="0" IVar="3" Cut="8.8637435913085938e+01" cType="1" res="-2.7939018327742815e-03" rms="4.6580457687377930e-01" purity="4.8755231499671936e-01" nType="0">
          <Node pos="l" depth="2" NCoef="0" IVar="-1" Cut="0.0000000000000000e+00" cType="1" res="2.5094617740251124e-04" rms="4.6591168642044067e-01" purity="4.9675014615058899e-01" nType="-99"/>
          <Node pos="r" depth="2" NCoef="0" IVar="-1" Cut="0.0000000000000000e+00" cType="1" res="-5.5992213310673833e-04" rms="4.6524196863174438e-01" purity="4.7506165504455566e-01" nType="-99"/>
        </Node>
        <Node pos="r" depth="1" NCoef="0" IVar="-1" Cut="0.0000000000000000e+00" cType="1" res="8.7645847816020250e-04" rms="4.5421743392944336e-01" purity="5.9475988149642944e-01" nType="-99"/>
      </Node>
    </BinaryTree>
    <BinaryTree type="DecisionTree" boostWeight="1.0000000000000000e+00" itree="637">
      <Node pos="s" depth="0" NCoef="0" IVar="3" Cut="7.3552055358886719e+01" cType="1" res="5.0657908432185650e-03" rms="4.6449357271194458e-01" purity="5.0471293926239014e-01" nType="0">
        <Node pos="l" depth="1" NCoef="0" IVar="4" Cut="9.6747690439224243e-01" cType="1" res="2.2612761706113815e-02" rms="4.6167585253715515e-01" purity="5.1788973808288574e-01" nType="0">
          <Node pos="l" depth="2" NCoef="0" IVar="-1" Cut="0.0000000000000000e+00" cType="1" res="4.0964680374599993e-04" rms="4.6936163306236267e-01" purity="4.4610837101936340e-01" nType="-99"/>
          <Node pos="r" depth="2" NCoef="0" IVar="-1" Cut="0.0000000000000000e+00" cType="1" res="1.1752414284273982e-03" rms="4.4187858700752258e-01" purity="6.8968218564987183e-01" nType="-99"/>
        </Node>
        <Node pos="r" depth="1" NCoef="0" IVar="3" Cut="1.2893319702148438e+02" cType="1" res="-5.1575526595115662e-03" rms="4.6582275629043579e-01" purity="4.9703580141067505e-01" nType="0">
          <Node pos="l" depth="2" NCoef="0" IVar="-1" Cut="0.0000000000000000e+00" cType="1" res="-3.7899031303822994e-04" rms="4.6778979897499084e-01" purity="4.7529882192611694e-01" nType="-99"/>
          <Node pos="r" depth="2" NCoef="0" IVar="-1" Cut="0.0000000000000000e+00" cType="1" res="5.0528527935966849e-04" rms="4.5851933956146240e-01" purity="5.6892156600952148e-01" nType="-99"/>
        </Node>
      </Node>
    </BinaryTree>
    <BinaryTree type="DecisionTree" boostWeight="1.0000000000000000e+00" itree="638">
      <Node pos="s" depth="0" NCoef="0" IVar="0" Cut="1.3401569426059723e-01" cType="1" res="1.0099282953888178e-03" rms="4.6440696716308594e-01" purity="4.9888956546783447e-01" nType="0">
        <Node pos="l" depth="1" NCoef="0" IVar="5" Cut="5.4417699575424194e-01" cType="1" res="-4.5321015641093254e-03" rms="4.6336916089057922e-01" purity="4.7760877013206482e-01" nType="0">
          <Node pos="l" depth="2" NCoef="0" IVar="-1" Cut="0.0000000000000000e+00" cType="1" res="-4.1999469976872206e-04" rms="4.6186974644660950e-01" purity="4.4580674171447754e-01" nType="-99"/>
          <Node pos="r" depth="2" NCoef="0" IVar="-1" Cut="0.0000000000000000e+00" cType="1" res="4.5069187763147056e-04" rms="4.6652996540069580e-01" purity="5.5858814716339111e-01" nType="-99"/>
        </Node>
        <Node pos="r" depth="1" NCoef="0" IVar="1" Cut="4.5241656899452209e-01" cType="1" res="2.2566853091120720e-02" rms="4.6779790520668030e-01" purity="5.8166599273681641e-01" nType="0">
          <Node pos="l" depth="2" NCoef="0" IVar="-1" Cut="0.0000000000000000e+00" cType="1" res="1.8257025658385828e-05" rms="4.7304558753967285e-01" purity="5.2926886081695557e-01" nType="-99"/>
          <Node pos="r" depth="2" NCoef="0" IVar="-1" Cut="0.0000000000000000e+00" cType="1" res="9.7531097708269954e-04" rms="4.6368962526321411e-01" purity="6.1660581827163696e-01" nType="-99"/>
        </Node>
      </Node>
    </BinaryTree>
    <BinaryTree type="DecisionTree" boostWeight="1.0000000000000000e+00" itree="639">
      <Node pos="s" depth="0" NCoef="0" IVar="1" Cut="4.3732613325119019e-01" cType="1" res="4.5490241609513760e-03" rms="4.6436798572540283e-01" purity="5.0390022993087769e-01" nType="0">
        <Node pos="l" depth="1" NCoef="0" IVar="0" Cut="1.7036490142345428e-01" cType="1" res="-2.6452727615833282e-02" rms="4.4461283087730408e-01" purity="3.9513137936592102e-01" nType="0">
          <Node pos="l" depth="2" NCoef="0" IVar="-1" Cut="0.0000000000000000e+00" cType="1" res="-2.8849225491285324e-03" rms="4.1610637307167053e-01" purity="2.5244563817977905e-01" nType="-99"/>
          <Node pos="r" depth="2" NCoef="0" IVar="-1" Cut="0.0000000000000000e+00" cType="1" res="1.8234667368233204e-04" rms="4.7167021036148071e-01" purity="5.5142450332641602e-01" nType="-99"/>
        </Node>
        <Node pos="r" depth="1" NCoef="0" IVar="4" Cut="9.8551976680755615e-01" cType="1" res="9.1620376333594322e-03" rms="4.6706029772758484e-01" purity="5.2008485794067383e-01" nType="0">
          <Node pos="l" depth="2" NCoef="0" IVar="-1" Cut="0.0000000000000000e+00" cType="1" res="1.7307851521763951e-04" rms="4.7258189320564270e-01" purity="4.9316075444221497e-01" nType="-99"/>
          <Node pos="r" depth="2" NCoef="0" IVar="-1" Cut="0.0000000000000000e+00" cType="1" res="1.0252001229673624e-03" rms="4.1423511505126953e-01" purity="7.5652706623077393e-01" nType="-99"/>
        </Node>
      </Node>
    </BinaryTree>
    <BinaryTree type="DecisionTree" boostWeight="1.0000000000000000e+00" itree="640">
      <Node pos="s" depth="0" NCoef="0" IVar="3" Cut="1.3396621704101562e+02" cType="1" res="4.1469037532806396e-03" rms="4.6549645066261292e-01" purity="5.0233590602874756e-01" nType="0">
        <Node pos="l" depth="1" NCoef="0" IVar="6" Cut="1.0895778983831406e-01" cType="1" res="2.5045216898433864e-04" rms="4.6665737032890320e-01" purity="4.9001550674438477e-01" nType="0">
          <Node pos="l" depth="2" NCoef="0" IVar="-1" Cut="0.0000000000000000e+00" cType="1" res="-2.4004433362279087e-04" rms="4.6557196974754333e-01" purity="4.6233564615249634e-01" nType="-99"/>
          <Node pos="r" depth="2" NCoef="0" IVar="-1" Cut="0.0000000000000000e+00" cType="1" res="3.8947834400460124e-04" rms="4.6822991967201233e-01" purity="5.3785926103591919e-01" nType="-99"/>
        </Node>
        <Node pos="r" depth="1" NCoef="0" IVar="2" Cut="5.8531079101562500e+02" cType="1" res="3.1585190445184708e-02" rms="4.5629671216011047e-01" purity="5.8909410238265991e-01" nType="0">
          <Node pos="l" depth="2" NCoef="0" IVar="-1" Cut="0.0000000000000000e+00" cType="1" res="9.0042281954083592e-05" rms="4.6362718939781189e-01" purity="4.8876878619194031e-01" nType="-99"/>
          <Node pos="r" depth="2" NCoef="0" IVar="-1" Cut="0.0000000000000000e+00" cType="1" res="1.3845465146005154e-03" rms="4.4921755790710449e-01" purity="6.6750150918960571e-01" nType="-99"/>
        </Node>
      </Node>
    </BinaryTree>
    <BinaryTree type="DecisionTree" boostWeight="1.0000000000000000e+00" itree="641">
      <Node pos="s" depth="0" NCoef="0" IVar="4" Cut="9.6731382608413696e-01" cType="1" res="1.7743749776855111e-03" rms="4.6493911743164062e-01" purity="5.0083601474761963e-01" nType="0">
        <Node pos="l" depth="1" NCoef="0" IVar="3" Cut="1.3913024902343750e+02" cType="1" res="-4.9637323245406151e-03" rms="4.7075489163398743e-01" purity="4.3577089905738831e-01" nType="0">
          <Node pos="l" depth="2" NCoef="0" IVar="-1" Cut="0.0000000000000000e+00" cType="1" res="-2.6957356021739542e-04" rms="4.7085571289062500e-01" purity="4.2423111200332642e-01" nType="-99"/>
          <Node pos="r" depth="2" NCoef="0" IVar="-1" Cut="0.0000000000000000e+00" cType="1" res="6.8341492442414165e-04" rms="4.6881502866744995e-01" purity="5.4112774133682251e-01" nType="-99"/>
        </Node>
        <Node pos="r" depth="1" NCoef="0" IVar="2" Cut="4.8332617187500000e+02" cType="1" res="1.8406337127089500e-02" rms="4.4983053207397461e-01" purity="6.6143888235092163e-01" nType="0">
          <Node pos="l" depth="2" NCoef="0" IVar="-1" Cut="0.0000000000000000e+00" cType="1" res="-5.2242423407733440e-05" rms="4.7011512517929077e-01" purity="5.7642889022827148e-01" nType="-99"/>
          <Node pos="r" depth="2" NCoef="0" IVar="-1" Cut="0.0000000000000000e+00" cType="1" res="7.7693600906059146e-04" rms="4.3776074051856995e-01" purity="7.0862036943435669e-01" nType="-99"/>
        </Node>
      </Node>
    </BinaryTree>
    <BinaryTree type="DecisionTree" boostWeight="1.0000000000000000e+00" itree="642">
      <Node pos="s" depth="0" NCoef="0" IVar="3" Cut="1.3396621704101562e+02" cType="1" res="9.5183541998267174e-04" rms="4.6429681777954102e-01" purity="5.0019884109497070e-01" nType="0">
        <Node pos="l" depth="1" NCoef="0" IVar="3" Cut="6.3020473480224609e+01" cType="1" res="-2.8993384912610054e-03" rms="4.6546763181686401e-01" purity="4.8789030313491821e-01" nType="0">
          <Node pos="l" depth="2" NCoef="0" IVar="-1" Cut="0.0000000000000000e+00" cType="1" res="4.5924130245111883e-04" rms="4.6479266881942749e-01" purity="5.0879639387130737e-01" nType="-99"/>
          <Node pos="r" depth="2" NCoef="0" IVar="-1" Cut="0.0000000000000000e+00" cType="1" res="-3.2872980227693915e-04" rms="4.6553570032119751e-01" purity="4.7922825813293457e-01" nType="-99"/>
        </Node>
        <Node pos="r" depth="1" NCoef="0" IVar="2" Cut="5.9569635009765625e+02" cType="1" res="2.8372880071401596e-02" rms="4.5493206381797791e-01" purity="5.8783799409866333e-01" nType="0">
          <Node pos="l" depth="2" NCoef="0" IVar="-1" Cut="0.0000000000000000e+00" cType="1" res="2.0850903820246458e-04" rms="4.6326667070388794e-01" purity="4.9691435694694519e-01" nType="-99"/>
          <Node pos="r" depth="2" NCoef="0" IVar="-1" Cut="0.0000000000000000e+00" cType="1" res="1.2322136899456382e-03" rms="4.4660064578056335e-01" purity="6.6797947883605957e-01" nType="-99"/>
        </Node>
      </Node>
    </BinaryTree>
    <BinaryTree type="DecisionTree" boostWeight="1.0000000000000000e+00" itree="643">
      <Node pos="s" depth="0" NCoef="0" IVar="0" Cut="4.6138249337673187e-02" cType="1" res="2.7378532104194164e-03" rms="4.6538183093070984e-01" purity="5.0041675567626953e-01" nType="0">
        <Node pos="l" depth="1" NCoef="0" IVar="1" Cut="7.9533076286315918e-01" cType="1" res="-6.3776499591767788e-03" rms="4.6289539337158203e-01" purity="4.6349838376045227e-01" nType="0">
          <Node pos="l" depth="2" NCoef="0" IVar="-1" Cut="0.0000000000000000e+00" cType="1" res="-5.1451660692691803e-04" rms="4.6192532777786255e-01" purity="4.0709146857261658e-01" nType="-99"/>
          <Node pos="r" depth="2" NCoef="0" IVar="-1" Cut="0.0000000000000000e+00" cType="1" res="4.1930741281248629e-04" rms="4.6477040648460388e-01" purity="6.1566120386123657e-01" nType="-99"/>
        </Node>
        <Node pos="r" depth="1" NCoef="0" IVar="1" Cut="3.9317920804023743e-01" cType="1" res="1.6962515190243721e-02" rms="4.6888163685798645e-01" purity="5.5802774429321289e-01" nType="0">
          <Node pos="l" depth="2" NCoef="0" IVar="-1" Cut="0.0000000000000000e+00" cType="1" res="-4.5785692054778337e-04" rms="4.6281483769416809e-01" purity="4.8510980606079102e-01" nType="-99"/>
          <Node pos="r" depth="2" NCoef="0" IVar="-1" Cut="0.0000000000000000e+00" cType="1" res="6.0877931537106633e-04" rms="4.6963557600975037e-01" purity="5.6962561607360840e-01" nType="-99"/>
        </Node>
      </Node>
    </BinaryTree>
    <BinaryTree type="DecisionTree" boostWeight="1.0000000000000000e+00" itree="644">
      <Node pos="s" depth="0" NCoef="0" IVar="4" Cut="9.8551738262176514e-01" cType="1" res="2.6851384900510311e-03" rms="4.6630853414535522e-01" purity="5.0115990638732910e-01" nType="0">
        <Node pos="l" depth="1" NCoef="0" IVar="6" Cut="2.1912746131420135e-01" cType="1" res="-4.0989194530993700e-04" rms="4.7063520550727844e-01" purity="4.7558155655860901e-01" nType="0">
          <Node pos="l" depth="2" NCoef="0" IVar="-1" Cut="0.0000000000000000e+00" cType="1" res="-1.0185547580476850e-04" rms="4.7007319331169128e-01" purity="4.6962115168571472e-01" nType="-99"/>
          <Node pos="r" depth="2" NCoef="0" IVar="-1" Cut="0.0000000000000000e+00" cType="1" res="1.0635392973199487e-03" rms="4.7664022445678711e-01" purity="5.5873030424118042e-01" nType="-99"/>
        </Node>
        <Node pos="r" depth="1" NCoef="0" IVar="-1" Cut="0.0000000000000000e+00" cType="1" res="8.2739378558471799e-04" rms="4.2280051112174988e-01" purity="7.3942995071411133e-01" nType="-99"/>
      </Node>
    </BinaryTree>
    <BinaryTree type="DecisionTree" boostWeight="1.0000000000000000e+00" itree="645">
      <Node pos="s" depth="0" NCoef="0" IVar="3" Cut="4.4350814819335938e+01" cType="1" res="2.2898830939084291e-03" rms="4.6476686000823975e-01" purity="5.0009369850158691e-01" nType="0">
        <Node pos="l" depth="1" NCoef="0" IVar="-1" Cut="0.0000000000000000e+00" cType="1" res="1.0036658495664597e-03" rms="4.6128562092781067e-01" purity="5.2823251485824585e-01" nType="-99"/>
        <Node pos="r" depth="1" NCoef="0" IVar="4" Cut="9.8559278249740601e-01" cType="1" res="-1.1884272098541260e-03" rms="4.6500140428543091e-01" purity="4.9709415435791016e-01" nType="0">
          <Node pos="l" depth="2" NCoef="0" IVar="-1" Cut="0.0000000000000000e+00" cType="1" res="-1.3633421622216702e-04" rms="4.6918094158172607e-01" purity="4.7147572040557861e-01" nType="-99"/>
          <Node pos="r" depth="2" NCoef="0" IVar="-1" Cut="0.0000000000000000e+00" cType="1" res="7.5818871846422553e-04" rms="4.2232182621955872e-01" purity="7.3907774686813354e-01" nType="-99"/>
        </Node>
      </Node>
    </BinaryTree>
    <BinaryTree type="DecisionTree" boostWeight="1.0000000000000000e+00" itree="646">
      <Node pos="s" depth="0" NCoef="0" IVar="8" Cut="7.6854038238525391e-01" cType="1" res="4.9222167581319809e-03" rms="4.6468999981880188e-01" purity="5.0309830904006958e-01" nType="0">
        <Node pos="l" depth="1" NCoef="0" IVar="0" Cut="-7.5177787803113461e-03" cType="1" res="2.5362925603985786e-02" rms="4.6342238783836365e-01" purity="5.6915462017059326e-01" nType="0">
          <Node pos="l" depth="2" NCoef="0" IVar="-1" Cut="0.0000000000000000e+00" cType="1" res="1.7275290156248957e-04" rms="4.6425700187683105e-01" purity="5.1911634206771851e-01" nType="-99"/>
          <Node pos="r" depth="2" NCoef="0" IVar="-1" Cut="0.0000000000000000e+00" cType="1" res="1.1478062951937318e-03" rms="4.6196526288986206e-01" purity="6.1399930715560913e-01" nType="-99"/>
        </Node>
        <Node pos="r" depth="1" NCoef="0" IVar="6" Cut="2.7939571067690849e-02" cType="1" res="-1.3306554174050689e-03" rms="4.6489760279655457e-01" purity="4.8289147019386292e-01" nType="0">
          <Node pos="l" depth="2" NCoef="0" IVar="-1" Cut="0.0000000000000000e+00" cType="1" res="-1.3006374938413501e-03" rms="4.5260718464851379e-01" purity="3.9174798130989075e-01" nType="-99"/>
          <Node pos="r" depth="2" NCoef="0" IVar="-1" Cut="0.0000000000000000e+00" cType="1" res="8.1633064837660640e-05" rms="4.6613538265228271e-01" purity="4.9345508217811584e-01" nType="-99"/>
        </Node>
      </Node>
    </BinaryTree>
    <BinaryTree type="DecisionTree" boostWeight="1.0000000000000000e+00" itree="647">
      <Node pos="s" depth="0" NCoef="0" IVar="1" Cut="4.3336758017539978e-01" cType="1" res="-9.3048729468137026e-05" rms="4.6560189127922058e-01" purity="4.9977394938468933e-01" nType="0">
        <Node pos="l" depth="1" NCoef="0" IVar="0" Cut="1.8726487457752228e-01" cType="1" res="-3.0295943841338158e-02" rms="4.4646909832954407e-01" purity="3.9149394631385803e-01" nType="0">
          <Node pos="l" depth="2" NCoef="0" IVar="-1" Cut="0.0000000000000000e+00" cType="1" res="-2.6048105210065842e-03" rms="4.2389112710952759e-01" purity="2.6482027769088745e-01" nType="-99"/>
          <Node pos="r" depth="2" NCoef="0" IVar="-1" Cut="0.0000000000000000e+00" cType="1" res="-7.4663468694780022e-05" rms="4.7130089998245239e-01" purity="5.4731196165084839e-01" nType="-99"/>
        </Node>
        <Node pos="r" depth="1" NCoef="0" IVar="6" Cut="2.2771863639354706e-01" cType="1" res="4.1955458000302315e-03" rms="4.6809726953506470e-01" purity="5.1514893770217896e-01" nType="0">
          <Node pos="l" depth="2" NCoef="0" IVar="-1" Cut="0.0000000000000000e+00" cType="1" res="4.1282371967099607e-05" rms="4.6845266222953796e-01" purity="5.0913155078887939e-01" nType="-99"/>
          <Node pos="r" depth="2" NCoef="0" IVar="-1" Cut="0.0000000000000000e+00" cType="1" res="1.1233354452997446e-03" rms="4.6156358718872070e-01" purity="5.9658503532409668e-01" nType="-99"/>
        </Node>
      </Node>
    </BinaryTree>
    <BinaryTree type="DecisionTree" boostWeight="1.0000000000000000e+00" itree="648">
      <Node pos="s" depth="0" NCoef="0" IVar="8" Cut="6.8232589960098267e-01" cType="1" res="1.1656061979010701e-03" rms="4.6567839384078979e-01" purity="4.9896866083145142e-01" nType="0">
        <Node pos="l" depth="1" NCoef="0" IVar="4" Cut="9.5454353094100952e-01" cType="1" res="3.1995333731174469e-02" rms="4.7130408883094788e-01" purity="5.7323920726776123e-01" nType="0">
          <Node pos="l" depth="2" NCoef="0" IVar="-1" Cut="0.0000000000000000e+00" cType="1" res="1.3320699799805880e-03" rms="4.8521229624748230e-01" purity="5.1148712635040283e-01" nType="-99"/>
          <Node pos="r" depth="2" NCoef="0" IVar="-1" Cut="0.0000000000000000e+00" cType="1" res="3.9842852856963873e-04" rms="4.5335593819618225e-01" purity="6.4776009321212769e-01" nType="-99"/>
        </Node>
        <Node pos="r" depth="1" NCoef="0" IVar="2" Cut="7.3589990234375000e+02" cType="1" res="-4.4552977196872234e-03" rms="4.6442484855651855e-01" purity="4.8542761802673340e-01" nType="0">
          <Node pos="l" depth="2" NCoef="0" IVar="-1" Cut="0.0000000000000000e+00" cType="1" res="-2.9424368403851986e-04" rms="4.6475154161453247e-01" purity="4.6348905563354492e-01" nType="-99"/>
          <Node pos="r" depth="2" NCoef="0" IVar="-1" Cut="0.0000000000000000e+00" cType="1" res="6.4306537387892604e-04" rms="4.6151566505432129e-01" purity="6.1367207765579224e-01" nType="-99"/>
        </Node>
      </Node>
    </BinaryTree>
    <BinaryTree type="DecisionTree" boostWeight="1.0000000000000000e+00" itree="649">
      <Node pos="s" depth="0" NCoef="0" IVar="6" Cut="2.0530593395233154e-01" cType="1" res="8.8089343626052141e-04" rms="4.6391597390174866e-01" purity="5.0023633241653442e-01" nType="0">
        <Node pos="l" depth="1" NCoef="0" IVar="0" Cut="1.5525145828723907e-01" cType="1" res="-3.2035189215093851e-03" rms="4.6396106481552124e-01" purity="4.9064379930496216e-01" nType="0">
          <Node pos="l" depth="2" NCoef="0" IVar="-1" Cut="0.0000000000000000e+00" cType="1" res="-2.6824566884897649e-04" rms="4.6339273452758789e-01" purity="4.6894350647926331e-01" nType="-99"/>
          <Node pos="r" depth="2" NCoef="0" IVar="-1" Cut="0.0000000000000000e+00" cType="1" res="5.3422694327309728e-04" rms="4.6576961874961853e-01" purity="5.8607250452041626e-01" nType="-99"/>
        </Node>
        <Node pos="r" depth="1" NCoef="0" IVar="-1" Cut="0.0000000000000000e+00" cType="1" res="1.1215645354241133e-03" rms="4.6145167946815491e-01" purity="5.9681701660156250e-01" nType="-99"/>
      </Node>
    </BinaryTree>
    <BinaryTree type="DecisionTree" boostWeight="1.0000000000000000e+00" itree="650">
      <Node pos="s" depth="0" NCoef="0" IVar="4" Cut="9.8572379350662231e-01" cType="1" res="-1.0715929092839360e-03" rms="4.6487492322921753e-01" purity="4.9756985902786255e-01" nType="0">
        <Node pos="l" depth="1" NCoef="0" IVar="2" Cut="3.8966079711914062e+02" cType="1" res="-4.5440453104674816e-03" rms="4.6926352381706238e-01" purity="4.7165164351463318e-01" nType="0">
          <Node pos="l" depth="2" NCoef="0" IVar="-1" Cut="0.0000000000000000e+00" cType="1" res="-1.4766387175768614e-03" rms="4.4014817476272583e-01" purity="2.9124918580055237e-01" nType="-99"/>
          <Node pos="r" depth="2" NCoef="0" IVar="-1" Cut="0.0000000000000000e+00" cType="1" res="-1.2605037227331195e-05" rms="4.7307574748992920e-01" purity="4.9706566333770752e-01" nType="-99"/>
        </Node>
        <Node pos="r" depth="1" NCoef="0" IVar="-1" Cut="0.0000000000000000e+00" cType="1" res="8.3934748545289040e-04" rms="4.1947567462921143e-01" purity="7.4379330873489380e-01" nType="-99"/>
      </Node>
    </BinaryTree>
    <BinaryTree type="DecisionTree" boostWeight="1.0000000000000000e+00" itree="651">
      <Node pos="s" depth="0" NCoef="0" IVar="8" Cut="1.1440463066101074e+00" cType="1" res="4.7955135814845562e-03" rms="4.6349394321441650e-01" purity="5.0429874658584595e-01" nType="0">
        <Node pos="l" depth="1" NCoef="0" IVar="4" Cut="9.6734958887100220e-01" cType="1" res="1.5219958499073982e-02" rms="4.6631097793579102e-01" purity="5.4183626174926758e-01" nType="0">
          <Node pos="l" depth="2" NCoef="0" IVar="-1" Cut="0.0000000000000000e+00" cType="1" res="2.7561571914702654e-04" rms="4.7661188244819641e-01" purity="4.7988557815551758e-01" nType="-99"/>
          <Node pos="r" depth="2" NCoef="0" IVar="-1" Cut="0.0000000000000000e+00" cType="1" res="7.9098454443737864e-04" rms="4.3935051560401917e-01" purity="6.9559401273727417e-01" nType="-99"/>
        </Node>
        <Node pos="r" depth="1" NCoef="0" IVar="0" Cut="-6.0295078903436661e-02" cType="1" res="-1.0022610425949097e-02" rms="4.5905262231826782e-01" purity="4.5093992352485657e-01" nType="0">
          <Node pos="l" depth="2" NCoef="0" IVar="-1" Cut="0.0000000000000000e+00" cType="1" res="-1.1177246924489737e-03" rms="4.4538527727127075e-01" purity="3.6816561222076416e-01" nType="-99"/>
          <Node pos="r" depth="2" NCoef="0" IVar="-1" Cut="0.0000000000000000e+00" cType="1" res="-8.3349135820753872e-05" rms="4.6405214071273804e-01" purity="4.8313248157501221e-01" nType="-99"/>
        </Node>
      </Node>
    </BinaryTree>
    <BinaryTree type="DecisionTree" boostWeight="1.0000000000000000e+00" itree="652">
      <Node pos="s" depth="0" NCoef="0" IVar="2" Cut="5.3317089843750000e+02" cType="1" res="2.9797130264341831e-04" rms="4.6418964862823486e-01" purity="4.9945470690727234e-01" nType="0">
        <Node pos="l" depth="1" NCoef="0" IVar="2" Cut="3.6231039428710938e+02" cType="1" res="-9.7291478887200356e-03" rms="4.6157735586166382e-01" purity="4.2342704534530640e-01" nType="0">
          <Node pos="l" depth="2" NCoef="0" IVar="-1" Cut="0.0000000000000000e+00" cType="1" res="-2.3496188223361969e-03" rms="4.2602548003196716e-01" purity="2.8372848033905029e-01" nType="-99"/>
          <Node pos="r" depth="2" NCoef="0" IVar="-1" Cut="0.0000000000000000e+00" cType="1" res="-1.1536834063008428e-04" rms="4.6625003218650818e-01" purity="4.4393762946128845e-01" nType="-99"/>
        </Node>
        <Node pos="r" depth="1" NCoef="0" IVar="4" Cut="9.3103086948394775e-01" cType="1" res="1.0599007830023766e-02" rms="4.6663379669189453e-01" purity="5.7755935192108154e-01" nType="0">
          <Node pos="l" depth="2" NCoef="0" IVar="-1" Cut="0.0000000000000000e+00" cType="1" res="-3.8565421709790826e-04" rms="4.7843098640441895e-01" purity="4.2895916104316711e-01" nType="-99"/>
          <Node pos="r" depth="2" NCoef="0" IVar="-1" Cut="0.0000000000000000e+00" cType="1" res="4.5345214311964810e-04" rms="4.6319472789764404e-01" purity="6.1782884597778320e-01" nType="-99"/>
        </Node>
      </Node>
    </BinaryTree>
    <BinaryTree type="DecisionTree" boostWeight="1.0000000000000000e+00" itree="653">
      <Node pos="s" depth="0" NCoef="0" IVar="6" Cut="7.1544654667377472e-02" cType="1" res="1.3831203104928136e-03" rms="4.6486902236938477e-01" purity="4.9925136566162109e-01" nType="0">
        <Node pos="l" depth="1" NCoef="0" IVar="2" Cut="7.2936712646484375e+02" cType="1" res="-1.1506317183375359e-02" rms="4.6258985996246338e-01" purity="4.5629093050956726e-01" nType="0">
          <Node pos="l" depth="2" NCoef="0" IVar="-1" Cut="0.0000000000000000e+00" cType="1" res="-7.4128480628132820e-04" rms="4.5767456293106079e-01" purity="4.0904748439788818e-01" nType="-99"/>
          <Node pos="r" depth="2" NCoef="0" IVar="-1" Cut="0.0000000000000000e+00" cType="1" res="3.6358681973069906e-04" rms="4.7385656833648682e-01" purity="5.7524871826171875e-01" nType="-99"/>
        </Node>
        <Node pos="r" depth="1" NCoef="0" IVar="3" Cut="7.6828041076660156e+01" cType="1" res="1.1062866076827049e-02" rms="4.6633917093276978e-01" purity="5.3151398897171021e-01" nType="0">
          <Node pos="l" depth="2" NCoef="0" IVar="-1" Cut="0.0000000000000000e+00" cType="1" res="7.2982104029506445e-04" rms="4.6680411696434021e-01" purity="5.3799885511398315e-01" nType="-99"/>
          <Node pos="r" depth="2" NCoef="0" IVar="-1" Cut="0.0000000000000000e+00" cType="1" res="3.1519652111455798e-05" rms="4.6575370430946350e-01" purity="5.2698707580566406e-01" nType="-99"/>
        </Node>
      </Node>
    </BinaryTree>
    <BinaryTree type="DecisionTree" boostWeight="1.0000000000000000e+00" itree="654">
      <Node pos="s" depth="0" NCoef="0" IVar="1" Cut="8.6734807491302490e-01" cType="1" res="2.9125174041837454e-03" rms="4.6417912840843201e-01" purity="5.0249689817428589e-01" nType="0">
        <Node pos="l" depth="1" NCoef="0" IVar="3" Cut="7.4222618103027344e+01" cType="1" res="1.9135048205498606e-04" rms="4.6455690264701843e-01" purity="4.9120950698852539e-01" nType="0">
          <Node pos="l" depth="2" NCoef="0" IVar="-1" Cut="0.0000000000000000e+00" cType="1" res="4.6404352178797126e-04" rms="4.6608501672744751e-01" purity="4.9969148635864258e-01" nType="-99"/>
          <Node pos="r" depth="2" NCoef="0" IVar="-1" Cut="0.0000000000000000e+00" cType="1" res="-2.7296066400595009e-04" rms="4.6342018246650696e-01" purity="4.8619401454925537e-01" nType="-99"/>
        </Node>
        <Node pos="r" depth="1" NCoef="0" IVar="-1" Cut="0.0000000000000000e+00" cType="1" res="9.7844726406037807e-04" rms="4.5770636200904846e-01" purity="6.5042668581008911e-01" nType="-99"/>
      </Node>
    </BinaryTree>
    <BinaryTree type="DecisionTree" boostWeight="1.0000000000000000e+00" itree="655">
      <Node pos="s" depth="0" NCoef="0" IVar="1" Cut="3.9002650976181030e-01" cType="1" res="1.9721377175301313e-03" rms="4.6626937389373779e-01" purity="4.9898391962051392e-01" nType="0">
        <Node pos="l" depth="1" NCoef="0" IVar="-1" Cut="0.0000000000000000e+00" cType="1" res="-1.5591082628816366e-03" rms="4.4051787257194519e-01" purity="3.7345930933952332e-01" nType="-99"/>
        <Node pos="r" depth="1" NCoef="0" IVar="3" Cut="1.4093783569335938e+02" cType="1" res="5.2450653165578842e-03" rms="4.6798196434974670e-01" purity="5.0840914249420166e-01" nType="0">
          <Node pos="l" depth="2" NCoef="0" IVar="-1" Cut="0.0000000000000000e+00" cType="1" res="3.8142479752423242e-05" rms="4.6939843893051147e-01" purity="4.9706965684890747e-01" nType="-99"/>
          <Node pos="r" depth="2" NCoef="0" IVar="-1" Cut="0.0000000000000000e+00" cType="1" res="1.1530224001035094e-03" rms="4.5245885848999023e-01" purity="6.1668682098388672e-01" nType="-99"/>
        </Node>
      </Node>
    </BinaryTree>
    <BinaryTree type="DecisionTree" boostWeight="1.0000000000000000e+00" itree="656">
      <Node pos="s" depth="0" NCoef="0" IVar="0" Cut="2.2463607788085938e-01" cType="1" res="3.4327751491218805e-03" rms="4.6570673584938049e-01" purity="5.0098568201065063e-01" nType="0">
        <Node pos="l" depth="1" NCoef="0" IVar="1" Cut="4.1563975811004639e-01" cType="1" res="3.1707240850664675e-04" rms="4.6535733342170715e-01" purity="4.9155333638191223e-01" nType="0">
          <Node pos="l" depth="2" NCoef="0" IVar="-1" Cut="0.0000000000000000e+00" cType="1" res="-1.8850703490898013e-03" rms="4.3013596534729004e-01" purity="2.9840949177742004e-01" nType="-99"/>
          <Node pos="r" depth="2" NCoef="0" IVar="-1" Cut="0.0000000000000000e+00" cType="1" res="1.0540157381910831e-04" rms="4.6772411465644836e-01" purity="5.0596815347671509e-01" nType="-99"/>
        </Node>
        <Node pos="r" depth="1" NCoef="0" IVar="-1" Cut="0.0000000000000000e+00" cType="1" res="1.1253049597144127e-03" rms="4.6833124756813049e-01" purity="6.2205445766448975e-01" nType="-99"/>
      </Node>
    </BinaryTree>
    <BinaryTree type="DecisionTree" boostWeight="1.0000000000000000e+00" itree="657">
      <Node pos="s" depth="0" NCoef="0" IVar="4" Cut="9.6723002195358276e-01" cType="1" res="-9.5433794194832444e-04" rms="4.6410998702049255e-01" purity="4.9546825885772705e-01" nType="0">
        <Node pos="l" depth="1" NCoef="0" IVar="3" Cut="1.3476176452636719e+02" cType="1" res="-7.2053177282214165e-03" rms="4.6944835782051086e-01" purity="4.3057009577751160e-01" nType="0">
          <Node pos="l" depth="2" NCoef="0" IVar="-1" Cut="0.0000000000000000e+00" cType="1" res="-3.5076693166047335e-04" rms="4.6949481964111328e-01" purity="4.1937631368637085e-01" nType="-99"/>
          <Node pos="r" depth="2" NCoef="0" IVar="-1" Cut="0.0000000000000000e+00" cType="1" res="5.4926087614148855e-04" rms="4.6826577186584473e-01" purity="5.1792675256729126e-01" nType="-99"/>
        </Node>
        <Node pos="r" depth="1" NCoef="0" IVar="7" Cut="1.3715600585937500e+02" cType="1" res="1.4719625934958458e-02" rms="4.5006462931632996e-01" purity="6.5819650888442993e-01" nType="0">
          <Node pos="l" depth="2" NCoef="0" IVar="-1" Cut="0.0000000000000000e+00" cType="1" res="6.3084275461733341e-04" rms="4.4770446419715881e-01" purity="6.6516000032424927e-01" nType="-99"/>
          <Node pos="r" depth="2" NCoef="0" IVar="-1" Cut="0.0000000000000000e+00" cType="1" res="-5.5138923926278949e-04" rms="4.5718765258789062e-01" purity="6.3210165500640869e-01" nType="-99"/>
        </Node>
      </Node>
    </BinaryTree>
    <BinaryTree type="DecisionTree" boostWeight="1.0000000000000000e+00" itree="658">
      <Node pos="s" depth="0" NCoef="0" IVar="8" Cut="9.5780783891677856e-01" cType="1" res="3.3631124097155407e-05" rms="4.6507999300956726e-01" purity="4.9841889739036560e-01" nType="0">
        <Node pos="l" depth="1" NCoef="0" IVar="5" Cut="4.9463823437690735e-01" cType="1" res="1.1818553321063519e-02" rms="4.6844190359115601e-01" purity="5.4737460613250732e-01" nType="0">
          <Node pos="l" depth="2" NCoef="0" IVar="-1" Cut="0.0000000000000000e+00" cType="1" res="1.4542514691129327e-04" rms="4.6890100836753845e-01" purity="5.2475225925445557e-01" nType="-99"/>
          <Node pos="r" depth="2" NCoef="0" IVar="-1" Cut="0.0000000000000000e+00" cType="1" res="7.2691304376348853e-04" rms="4.6704563498497009e-01" purity="5.9796386957168579e-01" nType="-99"/>
        </Node>
        <Node pos="r" depth="1" NCoef="0" IVar="2" Cut="5.6260577392578125e+02" cType="1" res="-8.3032520487904549e-03" rms="4.6250563859939575e-01" purity="4.6378663182258606e-01" nType="0">
          <Node pos="l" depth="2" NCoef="0" IVar="-1" Cut="0.0000000000000000e+00" cType="1" res="-5.9570744633674622e-04" rms="4.6002447605133057e-01" purity="4.0689530968666077e-01" nType="-99"/>
          <Node pos="r" depth="2" NCoef="0" IVar="-1" Cut="0.0000000000000000e+00" cType="1" res="2.0023599790874869e-04" rms="4.6642750501632690e-01" purity="5.6357389688491821e-01" nType="-99"/>
        </Node>
      </Node>
    </BinaryTree>
    <BinaryTree type="DecisionTree" boostWeight="1.0000000000000000e+00" itree="659">
      <Node pos="s" depth="0" NCoef="0" IVar="6" Cut="1.9921992719173431e-01" cType="1" res="1.4398084022104740e-03" rms="4.6403276920318604e-01" purity="5.0113093852996826e-01" nType="0">
        <Node pos="l" depth="1" NCoef="0" IVar="2" Cut="9.4207617187500000e+02" cType="1" res="-2.2706470917910337e-03" rms="4.6398261189460754e-01" purity="4.9186024069786072e-01" nType="0">
          <Node pos="l" depth="2" NCoef="0" IVar="-1" Cut="0.0000000000000000e+00" cType="1" res="-1.7371962894685566e-04" rms="4.6436929702758789e-01" purity="4.8060676455497742e-01" nType="-99"/>
          <Node pos="r" depth="2" NCoef="0" IVar="-1" Cut="0.0000000000000000e+00" cType="1" res="1.0931182187050581e-03" rms="4.5649510622024536e-01" purity="6.4314043521881104e-01" nType="-99"/>
        </Node>
        <Node pos="r" depth="1" NCoef="0" IVar="-1" Cut="0.0000000000000000e+00" cType="1" res="9.7075063968077302e-04" rms="4.6308708190917969e-01" purity="5.8696687221527100e-01" nType="-99"/>
      </Node>
    </BinaryTree>
    <BinaryTree type="DecisionTree" boostWeight="1.0000000000000000e+00" itree="660">
      <Node pos="s" depth="0" NCoef="0" IVar="6" Cut="5.7328697293996811e-02" cType="1" res="7.9714559251442552e-04" rms="4.6611610054969788e-01" purity="4.9864175915718079e-01" nType="0">
        <Node pos="l" depth="1" NCoef="0" IVar="0" Cut="1.1753321439027786e-01" cType="1" res="-1.2133791111409664e-02" rms="4.6402129530906677e-01" purity="4.5017275214195251e-01" nType="0">
          <Node pos="l" depth="2" NCoef="0" IVar="-1" Cut="0.0000000000000000e+00" cType="1" res="-7.8842381481081247e-04" rms="4.5842152833938599e-01" purity="4.0447667241096497e-01" nType="-99"/>
          <Node pos="r" depth="2" NCoef="0" IVar="-1" Cut="0.0000000000000000e+00" cType="1" res="3.0135113047435880e-04" rms="4.7587287425994873e-01" purity="5.5535358190536499e-01" nType="-99"/>
        </Node>
        <Node pos="r" depth="1" NCoef="0" IVar="2" Cut="4.0258078002929688e+02" cType="1" res="7.1881809271872044e-03" rms="4.6701577305793762e-01" purity="5.2259725332260132e-01" nType="0">
          <Node pos="l" depth="2" NCoef="0" IVar="-1" Cut="0.0000000000000000e+00" cType="1" res="-6.1660213395953178e-04" rms="4.5706138014793396e-01" purity="3.4986418485641479e-01" nType="-99"/>
          <Node pos="r" depth="2" NCoef="0" IVar="-1" Cut="0.0000000000000000e+00" cType="1" res="3.4711929038167000e-04" rms="4.6906793117523193e-01" purity="5.6139987707138062e-01" nType="-99"/>
        </Node>
      </Node>
    </BinaryTree>
    <BinaryTree type="DecisionTree" boostWeight="1.0000000000000000e+00" itree="661">
      <Node pos="s" depth="0" NCoef="0" IVar="0" Cut="6.1782848089933395e-02" cType="1" res="-1.8183558131568134e-04" rms="4.6420186758041382e-01" purity="4.9951457977294922e-01" nType="0">
        <Node pos="l" depth="1" NCoef="0" IVar="1" Cut="8.6430078744888306e-01" cType="1" res="-8.2355709746479988e-03" rms="4.6148574352264404e-01" purity="4.6656900644302368e-01" nType="0">
          <Node pos="l" depth="2" NCoef="0" IVar="-1" Cut="0.0000000000000000e+00" cType="1" res="-4.4180647819302976e-04" rms="4.6129921078681946e-01" purity="4.4516438245773315e-01" nType="-99"/>
          <Node pos="r" depth="2" NCoef="0" IVar="-1" Cut="0.0000000000000000e+00" cType="1" res="8.6305331205949187e-04" rms="4.6090269088745117e-01" purity="6.4342063665390015e-01" nType="-99"/>
        </Node>
        <Node pos="r" depth="1" NCoef="0" IVar="8" Cut="8.7146365642547607e-01" cType="1" res="1.4589486643671989e-02" rms="4.6878316998481750e-01" purity="5.5993992090225220e-01" nType="0">
          <Node pos="l" depth="2" NCoef="0" IVar="-1" Cut="0.0000000000000000e+00" cType="1" res="8.6040125461295247e-04" rms="4.6524554491043091e-01" purity="6.1628746986389160e-01" nType="-99"/>
          <Node pos="r" depth="2" NCoef="0" IVar="-1" Cut="0.0000000000000000e+00" cType="1" res="1.5890740905888379e-04" rms="4.7031155228614807e-01" purity="5.3126978874206543e-01" nType="-99"/>
        </Node>
      </Node>
    </BinaryTree>
    <BinaryTree type="DecisionTree" boostWeight="1.0000000000000000e+00" itree="662">
      <Node pos="s" depth="0" NCoef="0" IVar="4" Cut="9.8562127351760864e-01" cType="1" res="1.4302912168204784e-03" rms="4.6425771713256836e-01" purity="4.9991083145141602e-01" nType="0">
        <Node pos="l" depth="1" NCoef="0" IVar="6" Cut="1.3708566129207611e-01" cType="1" res="-1.9256507512181997e-03" rms="4.6823295950889587e-01" purity="4.7415059804916382e-01" nType="0">
          <Node pos="l" depth="2" NCoef="0" IVar="-1" Cut="0.0000000000000000e+00" cType="1" res="-2.5378353893756866e-04" rms="4.6721094846725464e-01" purity="4.5548835396766663e-01" nType="-99"/>
          <Node pos="r" depth="2" NCoef="0" IVar="-1" Cut="0.0000000000000000e+00" cType="1" res="4.6387242036871612e-04" rms="4.7088375687599182e-01" purity="5.3141963481903076e-01" nType="-99"/>
        </Node>
        <Node pos="r" depth="1" NCoef="0" IVar="-1" Cut="0.0000000000000000e+00" cType="1" res="8.6568284314125776e-04" rms="4.2363423109054565e-01" purity="7.4286758899688721e-01" nType="-99"/>
      </Node>
    </BinaryTree>
    <BinaryTree type="DecisionTree" boostWeight="1.0000000000000000e+00" itree="663">
      <Node pos="s" depth="0" NCoef="0" IVar="5" Cut="1.2676575779914856e-01" cType="1" res="2.3890235461294651e-03" rms="4.6461674571037292e-01" purity="5.0044977664947510e-01" nType="0">
        <Node pos="l" depth="1" NCoef="0" IVar="-1" Cut="0.0000000000000000e+00" cType="1" res="-1.7048950539901853e-03" rms="4.4574946165084839e-01" purity="3.4529393911361694e-01" nType="-99"/>
        <Node pos="r" depth="1" NCoef="0" IVar="0" Cut="1.4337265491485596e-01" cType="1" res="5.5776936933398247e-03" rms="4.6573930978775024e-01" purity="5.1129043102264404e-01" nType="0">
          <Node pos="l" depth="2" NCoef="0" IVar="-1" Cut="0.0000000000000000e+00" cType="1" res="1.5703779354225844e-05" rms="4.6578446030616760e-01" purity="4.9171501398086548e-01" nType="-99"/>
          <Node pos="r" depth="2" NCoef="0" IVar="-1" Cut="0.0000000000000000e+00" cType="1" res="7.4438989395275712e-04" rms="4.6489441394805908e-01" purity="5.9678471088409424e-01" nType="-99"/>
        </Node>
      </Node>
    </BinaryTree>
    <BinaryTree type="DecisionTree" boostWeight="1.0000000000000000e+00" itree="664">
      <Node pos="s" depth="0" NCoef="0" IVar="2" Cut="6.7028039550781250e+02" cType="1" res="3.7138781044632196e-03" rms="4.6523836255073547e-01" purity="5.0162547826766968e-01" nType="0">
        <Node pos="l" depth="1" NCoef="0" IVar="3" Cut="7.8227043151855469e+01" cType="1" res="-2.5604406837373972e-03" rms="4.6467518806457520e-01" purity="4.6871966123580933e-01" nType="0">
          <Node pos="l" depth="2" NCoef="0" IVar="-1" Cut="0.0000000000000000e+00" cType="1" res="4.3735487270168960e-04" rms="4.6554055809974670e-01" purity="4.8805496096611023e-01" nType="-99"/>
          <Node pos="r" depth="2" NCoef="0" IVar="-1" Cut="0.0000000000000000e+00" cType="1" res="-5.4130586795508862e-04" rms="4.6347522735595703e-01" purity="4.5247077941894531e-01" nType="-99"/>
        </Node>
        <Node pos="r" depth="1" NCoef="0" IVar="7" Cut="1.0000659942626953e+02" cType="1" res="2.3670282214879990e-02" rms="4.6646434068679810e-01" purity="6.0628741979598999e-01" nType="0">
          <Node pos="l" depth="2" NCoef="0" IVar="-1" Cut="0.0000000000000000e+00" cType="1" res="-9.2944777861703187e-05" rms="4.7677198052406311e-01" purity="5.7524436712265015e-01" nType="-99"/>
          <Node pos="r" depth="2" NCoef="0" IVar="-1" Cut="0.0000000000000000e+00" cType="1" res="9.6806645160540938e-04" rms="4.6127563714981079e-01" purity="6.2015134096145630e-01" nType="-99"/>
        </Node>
      </Node>
    </BinaryTree>
    <BinaryTree type="DecisionTree" boostWeight="1.0000000000000000e+00" itree="665">
      <Node pos="s" depth="0" NCoef="0" IVar="2" Cut="7.4685943603515625e+02" cType="1" res="4.8753872397355735e-04" rms="4.6415391564369202e-01" purity="4.9878671765327454e-01" nType="0">
        <Node pos="l" depth="1" NCoef="0" IVar="6" Cut="8.2432344555854797e-02" cType="1" res="-4.7463430091738701e-03" rms="4.6447575092315674e-01" purity="4.7462183237075806e-01" nType="0">
          <Node pos="l" depth="2" NCoef="0" IVar="-1" Cut="0.0000000000000000e+00" cType="1" res="-6.3653540564700961e-04" rms="4.6092954277992249e-01" purity="4.1710281372070312e-01" nType="-99"/>
          <Node pos="r" depth="2" NCoef="0" IVar="-1" Cut="0.0000000000000000e+00" cType="1" res="1.8265249673277140e-04" rms="4.6699652075767517e-01" purity="5.2051907777786255e-01" nType="-99"/>
        </Node>
        <Node pos="r" depth="1" NCoef="0" IVar="2" Cut="9.2150537109375000e+02" cType="1" res="2.7076441794633865e-02" rms="4.6159982681274414e-01" purity="6.2154829502105713e-01" nType="0">
          <Node pos="l" depth="2" NCoef="0" IVar="-1" Cut="0.0000000000000000e+00" cType="1" res="4.1520359809510410e-04" rms="4.6575108170509338e-01" purity="6.0332244634628296e-01" nType="-99"/>
          <Node pos="r" depth="2" NCoef="0" IVar="-1" Cut="0.0000000000000000e+00" cType="1" res="1.1530930642038584e-03" rms="4.5537817478179932e-01" purity="6.4634209871292114e-01" nType="-99"/>
        </Node>
      </Node>
    </BinaryTree>
    <BinaryTree type="DecisionTree" boostWeight="1.0000000000000000e+00" itree="666">
      <Node pos="s" depth="0" NCoef="0" IVar="2" Cut="5.2811322021484375e+02" cType="1" res="-6.3060218235477805e-04" rms="4.6534264087677002e-01" purity="4.9632129073143005e-01" nType="0">
        <Node pos="l" depth="1" NCoef="0" IVar="3" Cut="7.3085578918457031e+01" cType="1" res="-1.0862734168767929e-02" rms="4.6173250675201416e-01" purity="4.1893357038497925e-01" nType="0">
          <Node pos="l" depth="2" NCoef="0" IVar="-1" Cut="0.0000000000000000e+00" cType="1" res="1.7645127081777900e-04" rms="4.6366867423057556e-01" purity="4.4657883048057556e-01" nType="-99"/>
          <Node pos="r" depth="2" NCoef="0" IVar="-1" Cut="0.0000000000000000e+00" cType="1" res="-8.3912297850474715e-04" rms="4.5978161692619324e-01" purity="3.9702269434928894e-01" nType="-99"/>
        </Node>
        <Node pos="r" depth="1" NCoef="0" IVar="3" Cut="1.3938224792480469e+02" cType="1" res="9.4387801364064217e-03" rms="4.6865019202232361e-01" purity="5.7247799634933472e-01" nType="0">
          <Node pos="l" depth="2" NCoef="0" IVar="-1" Cut="0.0000000000000000e+00" cType="1" res="1.2183643411844969e-04" rms="4.7022119164466858e-01" purity="5.6071430444717407e-01" nType="-99"/>
          <Node pos="r" depth="2" NCoef="0" IVar="-1" Cut="0.0000000000000000e+00" cType="1" res="1.1136921821162105e-03" rms="4.5733377337455750e-01" purity="6.4637446403503418e-01" nType="-99"/>
        </Node>
      </Node>
    </BinaryTree>
    <BinaryTree type="DecisionTree" boostWeight="1.0000000000000000e+00" itree="667">
      <Node pos="s" depth="0" NCoef="0" IVar="4" Cut="9.8551976680755615e-01" cType="1" res="9.4155475380830467e-05" rms="4.6410328149795532e-01" purity="4.9871870875358582e-01" nType="0">
        <Node pos="l" depth="1" NCoef="0" IVar="2" Cut="9.2119647216796875e+02" cType="1" res="-3.4913797862827778e-03" rms="4.6838372945785522e-01" purity="4.7212204337120056e-01" nType="0">
          <Node pos="l" depth="2" NCoef="0" IVar="-1" Cut="0.0000000000000000e+00" cType="1" res="-2.1165401267353445e-04" rms="4.6883347630500793e-01" purity="4.6023553609848022e-01" nType="-99"/>
          <Node pos="r" depth="2" NCoef="0" IVar="-1" Cut="0.0000000000000000e+00" cType="1" res="1.0214413050562143e-03" rms="4.6041795611381531e-01" purity="6.2766784429550171e-01" nType="-99"/>
        </Node>
        <Node pos="r" depth="1" NCoef="0" IVar="-1" Cut="0.0000000000000000e+00" cType="1" res="8.8495056843385100e-04" rms="4.2063841223716736e-01" purity="7.4671357870101929e-01" nType="-99"/>
      </Node>
    </BinaryTree>
    <BinaryTree type="DecisionTree" boostWeight="1.0000000000000000e+00" itree="668">
      <Node pos="s" depth="0" NCoef="0" IVar="2" Cut="6.4339544677734375e+02" cType="1" res="1.9176292698830366e-03" rms="4.6362945437431335e-01" purity="5.0070536136627197e-01" nType="0">
        <Node pos="l" depth="1" NCoef="0" IVar="6" Cut="1.9937294721603394e-01" cType="1" res="-4.5386813580989838e-03" rms="4.6269288659095764e-01" purity="4.6158370375633240e-01" nType="0">
          <Node pos="l" depth="2" NCoef="0" IVar="-1" Cut="0.0000000000000000e+00" cType="1" res="-3.0294747557491064e-04" rms="4.6200710535049438e-01" purity="4.4716012477874756e-01" nType="-99"/>
          <Node pos="r" depth="2" NCoef="0" IVar="-1" Cut="0.0000000000000000e+00" cType="1" res="8.1245496403425932e-04" rms="4.6622028946876526e-01" purity="5.6678009033203125e-01" nType="-99"/>
        </Node>
        <Node pos="r" depth="1" NCoef="0" IVar="7" Cut="9.3502265930175781e+01" cType="1" res="1.8327591940760612e-02" rms="4.6559867262840271e-01" purity="6.0014063119888306e-01" nType="0">
          <Node pos="l" depth="2" NCoef="0" IVar="-1" Cut="0.0000000000000000e+00" cType="1" res="-3.1970054260455072e-04" rms="4.7450026869773865e-01" purity="5.6364631652832031e-01" nType="-99"/>
          <Node pos="r" depth="2" NCoef="0" IVar="-1" Cut="0.0000000000000000e+00" cType="1" res="8.0087868263944983e-04" rms="4.6180602908134460e-01" purity="6.1355602741241455e-01" nType="-99"/>
        </Node>
      </Node>
    </BinaryTree>
    <BinaryTree type="DecisionTree" boostWeight="1.0000000000000000e+00" itree="669">
      <Node pos="s" depth="0" NCoef="0" IVar="4" Cut="9.4926565885543823e-01" cType="1" res="3.9088795892894268e-03" rms="4.6484434604644775e-01" purity="5.0085824728012085e-01" nType="0">
        <Node pos="l" depth="1" NCoef="0" IVar="0" Cut="1.3388319313526154e-01" cType="1" res="-6.3620451837778091e-03" rms="4.6563148498535156e-01" purity="3.9613309502601624e-01" nType="0">
          <Node pos="l" depth="2" NCoef="0" IVar="-1" Cut="0.0000000000000000e+00" cType="1" res="-4.5865069841966033e-04" rms="4.6085694432258606e-01" purity="3.7237027287483215e-01" nType="-99"/>
          <Node pos="r" depth="2" NCoef="0" IVar="-1" Cut="0.0000000000000000e+00" cType="1" res="4.8631199751980603e-04" rms="4.8258757591247559e-01" purity="4.8619398474693298e-01" nType="-99"/>
        </Node>
        <Node pos="r" depth="1" NCoef="0" IVar="2" Cut="4.8332617187500000e+02" cType="1" res="1.2438607402145863e-02" rms="4.6401685476303101e-01" purity="5.8782964944839478e-01" nType="0">
          <Node pos="l" depth="2" NCoef="0" IVar="-1" Cut="0.0000000000000000e+00" cType="1" res="-1.8215161981061101e-04" rms="4.7273480892181396e-01" purity="4.8893705010414124e-01" nType="-99"/>
          <Node pos="r" depth="2" NCoef="0" IVar="-1" Cut="0.0000000000000000e+00" cType="1" res="6.1291165184229612e-04" rms="4.5854663848876953e-01" purity="6.4516085386276245e-01" nType="-99"/>
        </Node>
      </Node>
    </BinaryTree>
    <BinaryTree type="DecisionTree" boostWeight="1.0000000000000000e+00" itree="670">
      <Node pos="s" depth="0" NCoef="0" IVar="6" Cut="2.7806166559457779e-02" cType="1" res="6.0115158557891846e-03" rms="4.6576344966888428e-01" purity="5.0373983383178711e-01" nType="0">
        <Node pos="l" depth="1" NCoef="0" IVar="6" Cut="1.8465127795934677e-02" cType="1" res="-2.1911922842264175e-02" rms="4.6405363082885742e-01" purity="4.2504322528839111e-01" nType="0">
          <Node pos="l" depth="2" NCoef="0" IVar="-1" Cut="0.0000000000000000e+00" cType="1" res="-1.1682059848681092e-03" rms="4.6040114760398865e-01" purity="4.0875560045242310e-01" nType="-99"/>
          <Node pos="r" depth="2" NCoef="0" IVar="-1" Cut="0.0000000000000000e+00" cType="1" res="-3.7128577241674066e-04" rms="4.6734079718589783e-01" purity="4.4095829129219055e-01" nType="-99"/>
        </Node>
        <Node pos="r" depth="1" NCoef="0" IVar="8" Cut="1.1229634284973145e+00" cType="1" res="9.6839731559157372e-03" rms="4.6586334705352783e-01" purity="5.1408994197845459e-01" nType="0">
          <Node pos="l" depth="2" NCoef="0" IVar="-1" Cut="0.0000000000000000e+00" cType="1" res="5.4550066124647856e-04" rms="4.6674948930740356e-01" purity="5.5497187376022339e-01" nType="-99"/>
          <Node pos="r" depth="2" NCoef="0" IVar="-1" Cut="0.0000000000000000e+00" cType="1" res="-7.2314891440328211e-05" rms="4.6447634696960449e-01" purity="4.6293598413467407e-01" nType="-99"/>
        </Node>
      </Node>
    </BinaryTree>
    <BinaryTree type="DecisionTree" boostWeight="1.0000000000000000e+00" itree="671">
      <Node pos="s" depth="0" NCoef="0" IVar="0" Cut="2.2378487884998322e-01" cType="1" res="2.1270711440593004e-03" rms="4.6540778875350952e-01" purity="4.9982720613479614e-01" nType="0">
        <Node pos="l" depth="1" NCoef="0" IVar="1" Cut="4.6320971846580505e-01" cType="1" res="-4.7658832045271993e-04" rms="4.6512284874916077e-01" purity="4.9088081717491150e-01" nType="0">
          <Node pos="l" depth="2" NCoef="0" IVar="-1" Cut="0.0000000000000000e+00" cType="1" res="-1.5758068766444921e-03" rms="4.4258823990821838e-01" purity="3.1587436795234680e-01" nType="-99"/>
          <Node pos="r" depth="2" NCoef="0" IVar="-1" Cut="0.0000000000000000e+00" cType="1" res="1.4036548964213580e-04" rms="4.6807089447975159e-01" purity="5.1624625921249390e-01" nType="-99"/>
        </Node>
        <Node pos="r" depth="1" NCoef="0" IVar="-1" Cut="0.0000000000000000e+00" cType="1" res="9.3128450680524111e-04" rms="4.6776461601257324e-01" purity="6.1466073989868164e-01" nType="-99"/>
      </Node>
    </BinaryTree>
    <BinaryTree type="DecisionTree" boostWeight="1.0000000000000000e+00" itree="672">
      <Node pos="s" depth="0" NCoef="0" IVar="0" Cut="4.3196510523557663e-02" cType="1" res="-1.9260148983448744e-03" rms="4.6421584486961365e-01" purity="4.9550735950469971e-01" nType="0">
        <Node pos="l" depth="1" NCoef="0" IVar="5" Cut="6.0348033905029297e-01" cType="1" res="-1.0706364177167416e-02" rms="4.6155285835266113e-01" purity="4.5897600054740906e-01" nType="0">
          <Node pos="l" depth="2" NCoef="0" IVar="-1" Cut="0.0000000000000000e+00" cType="1" res="-5.8467331109568477e-04" rms="4.5993441343307495e-01" purity="4.3732208013534546e-01" nType="-99"/>
          <Node pos="r" depth="2" NCoef="0" IVar="-1" Cut="0.0000000000000000e+00" cType="1" res="4.8220841563306749e-04" rms="4.6746978163719177e-01" purity="5.5276799201965332e-01" nType="-99"/>
        </Node>
        <Node pos="r" depth="1" NCoef="0" IVar="8" Cut="9.5328330993652344e-01" cType="1" res="1.1518995277583599e-02" rms="4.6794506907463074e-01" purity="5.5144643783569336e-01" nType="0">
          <Node pos="l" depth="2" NCoef="0" IVar="-1" Cut="0.0000000000000000e+00" cType="1" res="7.7635515481233597e-04" rms="4.6463099122047424e-01" purity="6.0186052322387695e-01" nType="-99"/>
          <Node pos="r" depth="2" NCoef="0" IVar="-1" Cut="0.0000000000000000e+00" cType="1" res="-2.2095819076639600e-05" rms="4.6988633275032043e-01" purity="5.1582109928131104e-01" nType="-99"/>
        </Node>
      </Node>
    </BinaryTree>
    <BinaryTree type="DecisionTree" boostWeight="1.0000000000000000e+00" itree="673">
      <Node pos="s" depth="0" NCoef="0" IVar="2" Cut="5.3990887451171875e+02" cType="1" res="1.6886733646970242e-04" rms="4.6373292803764343e-01" purity="4.9947565793991089e-01" nType="0">
        <Node pos="l" depth="1" NCoef="0" IVar="3" Cut="8.7843780517578125e+01" cType="1" res="-1.0338568128645420e-02" rms="4.6129325032234192e-01" purity="4.2691814899444580e-01" nType="0">
          <Node pos="l" depth="2" NCoef="0" IVar="-1" Cut="0.0000000000000000e+00" cType="1" res="4.2530227801762521e-05" rms="4.6460217237472534e-01" purity="4.4373154640197754e-01" nType="-99"/>
          <Node pos="r" depth="2" NCoef="0" IVar="-1" Cut="0.0000000000000000e+00" cType="1" res="-9.6848135581240058e-04" rms="4.5576950907707214e-01" purity="4.0187817811965942e-01" nType="-99"/>
        </Node>
        <Node pos="r" depth="1" NCoef="0" IVar="3" Cut="1.4079681396484375e+02" cType="1" res="1.1705626733601093e-02" rms="4.6612417697906494e-01" purity="5.7914102077484131e-01" nType="0">
          <Node pos="l" depth="2" NCoef="0" IVar="-1" Cut="0.0000000000000000e+00" cType="1" res="1.3456091983243823e-04" rms="4.6932235360145569e-01" purity="5.6429308652877808e-01" nType="-99"/>
          <Node pos="r" depth="2" NCoef="0" IVar="-1" Cut="0.0000000000000000e+00" cType="1" res="1.4805712271481752e-03" rms="4.4269147515296936e-01" purity="6.7357373237609863e-01" nType="-99"/>
        </Node>
      </Node>
    </BinaryTree>
    <BinaryTree type="DecisionTree" boostWeight="1.0000000000000000e+00" itree="674">
      <Node pos="s" depth="0" NCoef="0" IVar="3" Cut="7.4789901733398438e+01" cType="1" res="4.3634008616209030e-03" rms="4.6471288800239563e-01" purity="5.0226825475692749e-01" nType="0">
        <Node pos="l" depth="1" NCoef="0" IVar="0" Cut="-1.8984932452440262e-02" cType="1" res="1.7781605944037437e-02" rms="4.6594876050949097e-01" purity="5.1027262210845947e-01" nType="0">
          <Node pos="l" depth="2" NCoef="0" IVar="-1" Cut="0.0000000000000000e+00" cType="1" res="9.5070688985288143e-05" rms="4.5882096886634827e-01" purity="4.5871230959892273e-01" nType="-99"/>
          <Node pos="r" depth="2" NCoef="0" IVar="-1" Cut="0.0000000000000000e+00" cType="1" res="8.1767846131697297e-04" rms="4.7092318534851074e-01" purity="5.4900217056274414e-01" nType="-99"/>
        </Node>
        <Node pos="r" depth="1" NCoef="0" IVar="1" Cut="4.0848627686500549e-01" cType="1" res="-3.7346454337239265e-03" rms="4.6377763152122498e-01" purity="4.9743759632110596e-01" nType="0">
          <Node pos="l" depth="2" NCoef="0" IVar="-1" Cut="0.0000000000000000e+00" cType="1" res="-1.7421133816242218e-03" rms="4.4161301851272583e-01" purity="3.6730080842971802e-01" nType="-99"/>
          <Node pos="r" depth="2" NCoef="0" IVar="-1" Cut="0.0000000000000000e+00" cType="1" res="1.2318348126427736e-05" rms="4.6571922302246094e-01" purity="5.1037043333053589e-01" nType="-99"/>
        </Node>
      </Node>
    </BinaryTree>
    <BinaryTree type="DecisionTree" boostWeight="1.0000000000000000e+00" itree="675">
      <Node pos="s" depth="0" NCoef="0" IVar="3" Cut="6.5006515502929688e+01" cType="1" res="2.1107753273099661e-03" rms="4.6477708220481873e-01" purity="5.0126856565475464e-01" nType="0">
        <Node pos="l" depth="1" NCoef="0" IVar="0" Cut="8.4890194237232208e-02" cType="1" res="1.5752561390399933e-02" rms="4.6428284049034119e-01" purity="5.0922542810440063e-01" nType="0">
          <Node pos="l" depth="2" NCoef="0" IVar="-1" Cut="0.0000000000000000e+00" cType="1" res="1.6274230438284576e-04" rms="4.6156275272369385e-01" purity="4.7625282406806946e-01" nType="-99"/>
          <Node pos="r" depth="2" NCoef="0" IVar="-1" Cut="0.0000000000000000e+00" cType="1" res="1.0625391732901335e-03" rms="4.6948790550231934e-01" purity="5.8360445499420166e-01" nType="-99"/>
        </Node>
        <Node pos="r" depth="1" NCoef="0" IVar="2" Cut="7.4685943603515625e+02" cType="1" res="-3.0817063525319099e-03" rms="4.6485990285873413e-01" purity="4.9823990464210510e-01" nType="0">
          <Node pos="l" depth="2" NCoef="0" IVar="-1" Cut="0.0000000000000000e+00" cType="1" res="-2.6099156821146607e-04" rms="4.6510142087936401e-01" purity="4.7083654999732971e-01" nType="-99"/>
          <Node pos="r" depth="2" NCoef="0" IVar="-1" Cut="0.0000000000000000e+00" cType="1" res="5.1243725465610623e-04" rms="4.6320706605911255e-01" purity="6.1354017257690430e-01" nType="-99"/>
        </Node>
      </Node>
    </BinaryTree>
    <BinaryTree type="DecisionTree" boostWeight="1.0000000000000000e+00" itree="676">
      <Node pos="s" depth="0" NCoef="0" IVar="1" Cut="8.1801956892013550e-01" cType="1" res="7.8269682126119733e-04" rms="4.6320417523384094e-01" purity="4.9980297684669495e-01" nType="0">
        <Node pos="l" depth="1" NCoef="0" IVar="0" Cut="1.8950223922729492e-01" cType="1" res="-3.4754993394017220e-03" rms="4.6439379453659058e-01" purity="4.7694420814514160e-01" nType="0">
          <Node pos="l" depth="2" NCoef="0" IVar="-1" Cut="0.0000000000000000e+00" cType="1" res="-2.6864421670325100e-04" rms="4.6408590674400330e-01" purity="4.5710882544517517e-01" nType="-99"/>
          <Node pos="r" depth="2" NCoef="0" IVar="-1" Cut="0.0000000000000000e+00" cType="1" res="7.2057190118357539e-04" rms="4.6517518162727356e-01" purity="6.0210186243057251e-01" nType="-99"/>
        </Node>
        <Node pos="r" depth="1" NCoef="0" IVar="4" Cut="9.4993561506271362e-01" cType="1" res="2.6738733053207397e-02" rms="4.5502474904060364e-01" purity="6.3913983106613159e-01" nType="0">
          <Node pos="l" depth="2" NCoef="0" IVar="-1" Cut="0.0000000000000000e+00" cType="1" res="1.2345683353487402e-04" rms="4.8408553004264832e-01" purity="5.2165013551712036e-01" nType="-99"/>
          <Node pos="r" depth="2" NCoef="0" IVar="-1" Cut="0.0000000000000000e+00" cType="1" res="1.0604748968034983e-03" rms="4.3340402841567993e-01" purity="7.1939015388488770e-01" nType="-99"/>
        </Node>
      </Node>
    </BinaryTree>
    <BinaryTree type="DecisionTree" boostWeight="1.0000000000000000e+00" itree="677">
      <Node pos="s" depth="0" NCoef="0" IVar="3" Cut="1.3836309814453125e+02" cType="1" res="-5.8765546418726444e-04" rms="4.6480536460876465e-01" purity="4.9779322743415833e-01" nType="0">
        <Node pos="l" depth="1" NCoef="0" IVar="4" Cut="9.3531268835067749e-01" cType="1" res="-4.9459114670753479e-03" rms="4.6632647514343262e-01" purity="4.8528021574020386e-01" nType="0">
          <Node pos="l" depth="2" NCoef="0" IVar="-1" Cut="0.0000000000000000e+00" cType="1" res="-9.3428028048947453e-04" rms="4.5633807778358459e-01" purity="3.4260582923889160e-01" nType="-99"/>
          <Node pos="r" depth="2" NCoef="0" IVar="-1" Cut="0.0000000000000000e+00" cType="1" res="5.8353518397780135e-05" rms="4.6968451142311096e-01" purity="5.3676635026931763e-01" nType="-99"/>
        </Node>
        <Node pos="r" depth="1" NCoef="0" IVar="-1" Cut="0.0000000000000000e+00" cType="1" res="1.0075347963720560e-03" rms="4.4989126920700073e-01" purity="6.0464513301849365e-01" nType="-99"/>
      </Node>
    </BinaryTree>
    <BinaryTree type="DecisionTree" boostWeight="1.0000000000000000e+00" itree="678">
      <Node pos="s" depth="0" NCoef="0" IVar="3" Cut="1.5280668640136719e+02" cType="1" res="3.0512076336890459e-03" rms="4.6388396620750427e-01" purity="5.0216078758239746e-01" nType="0">
        <Node pos="l" depth="1" NCoef="0" IVar="3" Cut="6.3201702117919922e+01" cType="1" res="-9.1415602946653962e-04" rms="4.6507346630096436e-01" purity="4.9231439828872681e-01" nType="0">
          <Node pos="l" depth="2" NCoef="0" IVar="-1" Cut="0.0000000000000000e+00" cType="1" res="5.6343246251344681e-04" rms="4.6594753861427307e-01" purity="5.1488590240478516e-01" nType="-99"/>
          <Node pos="r" depth="2" NCoef="0" IVar="-1" Cut="0.0000000000000000e+00" cType="1" res="-2.6770497788675129e-04" rms="4.6451127529144287e-01" purity="4.8369711637496948e-01" nType="-99"/>
        </Node>
        <Node pos="r" depth="1" NCoef="0" IVar="-1" Cut="0.0000000000000000e+00" cType="1" res="1.6151377931237221e-03" rms="4.4232159852981567e-01" purity="6.4483124017715454e-01" nType="-99"/>
      </Node>
    </BinaryTree>
    <BinaryTree type="DecisionTree" boostWeight="1.0000000000000000e+00" itree="679">
      <Node pos="s" depth="0" NCoef="0" IVar="4" Cut="9.8583322763442993e-01" cType="1" res="-1.8971748650074005e-03" rms="4.6435844898223877e-01" purity="4.9585273861885071e-01" nType="0">
        <Node pos="l" depth="1" NCoef="0" IVar="3" Cut="1.3396621704101562e+02" cType="1" res="-4.8698885366320610e-03" rms="4.6839639544487000e-01" purity="4.7081932425498962e-01" nType="0">
          <Node pos="l" depth="2" NCoef="0" IVar="-1" Cut="0.0000000000000000e+00" cType="1" res="-2.5883797206915915e-04" rms="4.6942725777626038e-01" purity="4.5849457383155823e-01" nType="-99"/>
          <Node pos="r" depth="2" NCoef="0" IVar="-1" Cut="0.0000000000000000e+00" cType="1" res="5.2108312956988811e-04" rms="4.6020403504371643e-01" purity="5.5979585647583008e-01" nType="-99"/>
        </Node>
        <Node pos="r" depth="1" NCoef="0" IVar="-1" Cut="0.0000000000000000e+00" cType="1" res="7.1945873787626624e-04" rms="4.2190709710121155e-01" purity="7.3976570367813110e-01" nType="-99"/>
      </Node>
    </BinaryTree>
    <BinaryTree type="DecisionTree" boostWeight="1.0000000000000000e+00" itree="680">
      <Node pos="s" depth="0" NCoef="0" IVar="6" Cut="2.7841225266456604e-02" cType="1" res="9.1942312428727746e-04" rms="4.6431460976600647e-01" purity="5.0011909008026123e-01" nType="0">
        <Node pos="l" depth="1" NCoef="0" IVar="4" Cut="9.4523870944976807e-01" cType="1" res="-2.1668825298547745e-02" rms="4.5942249894142151e-01" purity="4.2971390485763550e-01" nType="0">
          <Node pos="l" depth="2" NCoef="0" IVar="-1" Cut="0.0000000000000000e+00" cType="1" res="-1.8485701875761151e-03" rms="4.4465982913970947e-01" purity="3.2135403156280518e-01" nType="-99"/>
          <Node pos="r" depth="2" NCoef="0" IVar="-1" Cut="0.0000000000000000e+00" cType="1" res="-1.4512518828269094e-04" rms="4.6940317749977112e-01" purity="5.1037549972534180e-01" nType="-99"/>
        </Node>
        <Node pos="r" depth="1" NCoef="0" IVar="0" Cut="1.9671671092510223e-01" cType="1" res="4.0116263553500175e-03" rms="4.6489489078521729e-01" purity="5.0975722074508667e-01" nType="0">
          <Node pos="l" depth="2" NCoef="0" IVar="-1" Cut="0.0000000000000000e+00" cType="1" res="1.3866781046090182e-05" rms="4.6520969271659851e-01" purity="4.9831321835517883e-01" nType="-99"/>
          <Node pos="r" depth="2" NCoef="0" IVar="-1" Cut="0.0000000000000000e+00" cType="1" res="9.2874228721484542e-04" rms="4.6096077561378479e-01" purity="6.0991293191909790e-01" nType="-99"/>
        </Node>
      </Node>
    </BinaryTree>
    <BinaryTree type="DecisionTree" boostWeight="1.0000000000000000e+00" itree="681">
      <Node pos="s" depth="0" NCoef="0" IVar="0" Cut="-6.3308298587799072e-02" cType="1" res="2.7077435515820980e-03" rms="4.6489712595939636e-01" purity="5.0089669227600098e-01" nType="0">
        <Node pos="l" depth="1" NCoef="0" IVar="1" Cut="8.2016545534133911e-01" cType="1" res="-1.2625809758901596e-02" rms="4.5711338520050049e-01" purity="4.3196496367454529e-01" nType="0">
          <Node pos="l" depth="2" NCoef="0" IVar="-1" Cut="0.0000000000000000e+00" cType="1" res="-8.0064783105626702e-04" rms="4.5469087362289429e-01" purity="3.7738311290740967e-01" nType="-99"/>
          <Node pos="r" depth="2" NCoef="0" IVar="-1" Cut="0.0000000000000000e+00" cType="1" res="4.4115350465290248e-04" rms="4.6403077244758606e-01" purity="6.1694866418838501e-01" nType="-99"/>
        </Node>
        <Node pos="r" depth="1" NCoef="0" IVar="0" Cut="2.3327805101871490e-01" cType="1" res="8.5204178467392921e-03" rms="4.6768257021903992e-01" purity="5.2702748775482178e-01" nType="0">
          <Node pos="l" depth="2" NCoef="0" IVar="-1" Cut="0.0000000000000000e+00" cType="1" res="1.5988686936907470e-04" rms="4.6769675612449646e-01" purity="5.1826912164688110e-01" nType="-99"/>
          <Node pos="r" depth="2" NCoef="0" IVar="-1" Cut="0.0000000000000000e+00" cType="1" res="1.1065212311223149e-03" rms="4.6617150306701660e-01" purity="6.2185972929000854e-01" nType="-99"/>
        </Node>
      </Node>
    </BinaryTree>
    <BinaryTree type="DecisionTree" boostWeight="1.0000000000000000e+00" itree="682">
      <Node pos="s" depth="0" NCoef="0" IVar="0" Cut="6.0513295233249664e-02" cType="1" res="3.3603345509618521e-03" rms="4.6487241983413696e-01" purity="5.0082224607467651e-01" nType="0">
        <Node pos="l" depth="1" NCoef="0" IVar="1" Cut="8.6710393428802490e-01" cType="1" res="-4.1283983737230301e-03" rms="4.6179339289665222e-01" purity="4.6931293606758118e-01" nType="0">
          <Node pos="l" depth="2" NCoef="0" IVar="-1" Cut="0.0000000000000000e+00" cType="1" res="-2.7522761956788599e-04" rms="4.6214598417282104e-01" purity="4.4888988137245178e-01" nType="-99"/>
          <Node pos="r" depth="2" NCoef="0" IVar="-1" Cut="0.0000000000000000e+00" cType="1" res="8.1890623550862074e-04" rms="4.5719221234321594e-01" purity="6.4354383945465088e-01" nType="-99"/>
        </Node>
        <Node pos="r" depth="1" NCoef="0" IVar="6" Cut="2.9331425204873085e-02" cType="1" res="1.7189992591738701e-02" rms="4.7019216418266296e-01" purity="5.5901134014129639e-01" nType="0">
          <Node pos="l" depth="2" NCoef="0" IVar="-1" Cut="0.0000000000000000e+00" cType="1" res="-3.1212775502353907e-04" rms="4.7196894884109497e-01" purity="5.2293616533279419e-01" nType="-99"/>
          <Node pos="r" depth="2" NCoef="0" IVar="-1" Cut="0.0000000000000000e+00" cType="1" res="6.2257499666884542e-04" rms="4.6968629956245422e-01" purity="5.6563180685043335e-01" nType="-99"/>
        </Node>
      </Node>
    </BinaryTree>
    <BinaryTree type="DecisionTree" boostWeight="1.0000000000000000e+00" itree="683">
      <Node pos="s" depth="0" NCoef="0" IVar="0" Cut="1.0106768459081650e-02" cType="1" res="-2.3981023114174604e-03" rms="4.6470203995704651e-01" purity="4.9522930383682251e-01" nType="0">
        <Node pos="l" depth="1" NCoef="0" IVar="1" Cut="7.9848730564117432e-01" cType="1" res="-1.0852136649191380e-02" rms="4.6122777462005615e-01" purity="4.5442491769790649e-01" nType="0">
          <Node pos="l" depth="2" NCoef="0" IVar="-1" Cut="0.0000000000000000e+00" cType="1" res="-7.2223047027364373e-04" rms="4.5966887474060059e-01" purity="3.9272218942642212e-01" nType="-99"/>
          <Node pos="r" depth="2" NCoef="0" IVar="-1" Cut="0.0000000000000000e+00" cType="1" res="3.3996650017797947e-04" rms="4.6437990665435791e-01" purity="6.1293631792068481e-01" nType="-99"/>
        </Node>
        <Node pos="r" depth="1" NCoef="0" IVar="8" Cut="8.5729503631591797e-01" cType="1" res="6.7999986931681633e-03" rms="4.6827948093414307e-01" purity="5.3962498903274536e-01" nType="0">
          <Node pos="l" depth="2" NCoef="0" IVar="-1" Cut="0.0000000000000000e+00" cType="1" res="7.4379768921062350e-04" rms="4.6606513857841492e-01" purity="6.0036265850067139e-01" nType="-99"/>
          <Node pos="r" depth="2" NCoef="0" IVar="-1" Cut="0.0000000000000000e+00" cType="1" res="-8.6571824795100838e-05" rms="4.6900704503059387e-01" purity="5.1096832752227783e-01" nType="-99"/>
        </Node>
      </Node>
    </BinaryTree>
    <BinaryTree type="DecisionTree" boostWeight="1.0000000000000000e+00" itree="684">
      <Node pos="s" depth="0" NCoef="0" IVar="4" Cut="9.8577696084976196e-01" cType="1" res="2.9954032506793737e-03" rms="4.6360006928443909e-01" purity="5.0200635194778442e-01" nType="0">
        <Node pos="l" depth="1" NCoef="0" IVar="8" Cut="1.4127639532089233e+00" cType="1" res="-4.4736210838891566e-04" rms="4.6834799647331238e-01" purity="4.7563403844833374e-01" nType="0">
          <Node pos="l" depth="2" NCoef="0" IVar="-1" Cut="0.0000000000000000e+00" cType="1" res="1.3457170280162245e-04" rms="4.7114977240562439e-01" purity="4.9641466140747070e-01" nType="-99"/>
          <Node pos="r" depth="2" NCoef="0" IVar="-1" Cut="0.0000000000000000e+00" cType="1" res="-6.4577918965369463e-04" rms="4.5764967799186707e-01" purity="4.0060299634933472e-01" nType="-99"/>
        </Node>
        <Node pos="r" depth="1" NCoef="0" IVar="-1" Cut="0.0000000000000000e+00" cType="1" res="9.3404250219464302e-04" rms="4.1495010256767273e-01" purity="7.4984693527221680e-01" nType="-99"/>
      </Node>
    </BinaryTree>
    <BinaryTree type="DecisionTree" boostWeight="1.0000000000000000e+00" itree="685">
      <Node pos="s" depth="0" NCoef="0" IVar="0" Cut="-8.3506830036640167e-02" cType="1" res="5.9462548233568668e-04" rms="4.6511009335517883e-01" purity="4.9786484241485596e-01" nType="0">
        <Node pos="l" depth="1" NCoef="0" IVar="8" Cut="8.8770461082458496e-01" cType="1" res="-1.8743323162198067e-02" rms="4.5749863982200623e-01" purity="4.0721628069877625e-01" nType="0">
          <Node pos="l" depth="2" NCoef="0" IVar="-1" Cut="0.0000000000000000e+00" cType="1" res="2.1012057914049365e-05" rms="4.6938762068748474e-01" purity="4.7694316506385803e-01" nType="-99"/>
          <Node pos="r" depth="2" NCoef="0" IVar="-1" Cut="0.0000000000000000e+00" cType="1" res="-1.1748042888939381e-03" rms="4.5002299547195435e-01" purity="3.6649411916732788e-01" nType="-99"/>
        </Node>
        <Node pos="r" depth="1" NCoef="0" IVar="2" Cut="3.7989859008789062e+02" cType="1" res="5.0046341493725777e-03" rms="4.6671631932258606e-01" purity="5.1853728294372559e-01" nType="0">
          <Node pos="l" depth="2" NCoef="0" IVar="-1" Cut="0.0000000000000000e+00" cType="1" res="-1.2260108487680554e-03" rms="4.4028231501579285e-01" purity="3.2782882452011108e-01" nType="-99"/>
          <Node pos="r" depth="2" NCoef="0" IVar="-1" Cut="0.0000000000000000e+00" cType="1" res="2.6064319536089897e-04" rms="4.6945554018020630e-01" purity="5.4021555185317993e-01" nType="-99"/>
        </Node>
      </Node>
    </BinaryTree>
    <BinaryTree type="DecisionTree" boostWeight="1.0000000000000000e+00" itree="686">
      <Node pos="s" depth="0" NCoef="0" IVar="0" Cut="1.5323069691658020e-01" cType="1" res="-1.2232101289555430e-03" rms="4.6496218442916870e-01" purity="4.9703523516654968e-01" nType="0">
        <Node pos="l" depth="1" NCoef="0" IVar="8" Cut="1.3941900730133057e+00" cType="1" res="-5.5529391393065453e-03" rms="4.6452262997627258e-01" purity="4.7748088836669922e-01" nType="0">
          <Node pos="l" depth="2" NCoef="0" IVar="-1" Cut="0.0000000000000000e+00" cType="1" res="-2.3797525500413030e-05" rms="4.6685549616813660e-01" purity="4.9971908330917358e-01" nType="-99"/>
          <Node pos="r" depth="2" NCoef="0" IVar="-1" Cut="0.0000000000000000e+00" cType="1" res="-7.8355061123147607e-04" rms="4.5616191625595093e-01" purity="4.0216296911239624e-01" nType="-99"/>
        </Node>
        <Node pos="r" depth="1" NCoef="0" IVar="7" Cut="8.7067787170410156e+01" cType="1" res="1.9089795649051666e-02" rms="4.6648263931274414e-01" purity="5.8877456188201904e-01" nType="0">
          <Node pos="l" depth="2" NCoef="0" IVar="-1" Cut="0.0000000000000000e+00" cType="1" res="-2.2502892534248531e-05" rms="4.7132465243339539e-01" purity="5.4545807838439941e-01" nType="-99"/>
          <Node pos="r" depth="2" NCoef="0" IVar="-1" Cut="0.0000000000000000e+00" cType="1" res="9.4333075685426593e-04" rms="4.6165660023689270e-01" purity="6.2557220458984375e-01" nType="-99"/>
        </Node>
      </Node>
    </BinaryTree>
    <BinaryTree type="DecisionTree" boostWeight="1.0000000000000000e+00" itree="687">
      <Node pos="s" depth="0" NCoef="0" IVar="4" Cut="9.0955030918121338e-01" cType="1" res="2.1228040568530560e-03" rms="4.6494007110595703e-01" purity="5.0012224912643433e-01" nType="0">
        <Node pos="l" depth="1" NCoef="0" IVar="-1" Cut="0.0000000000000000e+00" cType="1" res="-1.3074809685349464e-03" rms="4.4395244121551514e-01" purity="3.2071897387504578e-01" nType="-99"/>
        <Node pos="r" depth="1" NCoef="0" IVar="6" Cut="1.0914453119039536e-01" cType="1" res="4.7122356481850147e-03" rms="4.6636632084846497e-01" purity="5.1352196931838989e-01" nType="0">
          <Node pos="l" depth="2" NCoef="0" IVar="-1" Cut="0.0000000000000000e+00" cType="1" res="-8.1936908827628940e-05" rms="4.6612927317619324e-01" purity="4.8783046007156372e-01" nType="-99"/>
          <Node pos="r" depth="2" NCoef="0" IVar="-1" Cut="0.0000000000000000e+00" cType="1" res="4.9957406008616090e-04" rms="4.6650356054306030e-01" purity="5.5894809961318970e-01" nType="-99"/>
        </Node>
      </Node>
    </BinaryTree>
    <BinaryTree type="DecisionTree" boostWeight="1.0000000000000000e+00" itree="688">
      <Node pos="s" depth="0" NCoef="0" IVar="2" Cut="5.2588793945312500e+02" cType="1" res="1.1422007810324430e-03" rms="4.6435046195983887e-01" purity="4.9896651506423950e-01" nType="0">
        <Node pos="l" depth="1" NCoef="0" IVar="5" Cut="4.8243263363838196e-01" cType="1" res="-9.2012593522667885e-03" rms="4.6073499321937561e-01" purity="4.2163774371147156e-01" nType="0">
          <Node pos="l" depth="2" NCoef="0" IVar="-1" Cut="0.0000000000000000e+00" cType="1" res="-8.5215119179338217e-04" rms="4.5203500986099243e-01" purity="3.6920782923698425e-01" nType="-99"/>
          <Node pos="r" depth="2" NCoef="0" IVar="-1" Cut="0.0000000000000000e+00" cType="1" res="3.2441539224237204e-04" rms="4.7269752621650696e-01" purity="4.9986100196838379e-01" nType="-99"/>
        </Node>
        <Node pos="r" depth="1" NCoef="0" IVar="3" Cut="1.3396621704101562e+02" cType="1" res="1.1138342320919037e-02" rms="4.6760061383247375e-01" purity="5.7369869947433472e-01" nType="0">
          <Node pos="l" depth="2" NCoef="0" IVar="-1" Cut="0.0000000000000000e+00" cType="1" res="1.3064454833511263e-04" rms="4.6987780928611755e-01" purity="5.5915963649749756e-01" nType="-99"/>
          <Node pos="r" depth="2" NCoef="0" IVar="-1" Cut="0.0000000000000000e+00" cType="1" res="1.1593528324738145e-03" rms="4.5461377501487732e-01" purity="6.4650523662567139e-01" nType="-99"/>
        </Node>
      </Node>
    </BinaryTree>
    <BinaryTree type="DecisionTree" boostWeight="1.0000000000000000e+00" itree="689">
      <Node pos="s" depth="0" NCoef="0" IVar="3" Cut="7.3552055358886719e+01" cType="1" res="-4.0837819688022137e-04" rms="4.6446138620376587e-01" purity="4.9768084287643433e-01" nType="0">
        <Node pos="l" depth="1" NCoef="0" IVar="4" Cut="9.2287194728851318e-01" cType="1" res="1.1787390336394310e-02" rms="4.6169784665107727e-01" purity="5.0575888156890869e-01" nType="0">
          <Node pos="l" depth="2" NCoef="0" IVar="-1" Cut="0.0000000000000000e+00" cType="1" res="-9.8772079218178988e-04" rms="4.4347694516181946e-01" purity="3.2711824774742126e-01" nType="-99"/>
          <Node pos="r" depth="2" NCoef="0" IVar="-1" Cut="0.0000000000000000e+00" cType="1" res="5.3078919881954789e-04" rms="4.6459016203880310e-01" purity="5.3785401582717896e-01" nType="-99"/>
        </Node>
        <Node pos="r" depth="1" NCoef="0" IVar="2" Cut="8.4086340332031250e+02" cType="1" res="-7.4369725771248341e-03" rms="4.6590161323547363e-01" purity="4.9302539229393005e-01" nType="0">
          <Node pos="l" depth="2" NCoef="0" IVar="-1" Cut="0.0000000000000000e+00" cType="1" res="-3.9145949995145202e-04" rms="4.6636748313903809e-01" purity="4.7328752279281616e-01" nType="-99"/>
          <Node pos="r" depth="2" NCoef="0" IVar="-1" Cut="0.0000000000000000e+00" cType="1" res="7.1375811239704490e-04" rms="4.6130457520484924e-01" purity="6.2831789255142212e-01" nType="-99"/>
        </Node>
      </Node>
    </BinaryTree>
    <BinaryTree type="DecisionTree" boostWeight="1.0000000000000000e+00" itree="690">
      <Node pos="s" depth="0" NCoef="0" IVar="4" Cut="9.8561698198318481e-01" cType="1" res="1.7622448503971100e-03" rms="4.6419307589530945e-01" purity="5.0078368186950684e-01" nType="0">
        <Node pos="l" depth="1" NCoef="0" IVar="1" Cut="3.8960206508636475e-01" cType="1" res="-1.3852862175554037e-03" rms="4.6867161989212036e-01" purity="4.7445365786552429e-01" nType="0">
          <Node pos="l" depth="2" NCoef="0" IVar="-1" Cut="0.0000000000000000e+00" cType="1" res="-1.1777944164350629e-03" rms="4.4602680206298828e-01" purity="3.7433749437332153e-01" nType="-99"/>
          <Node pos="r" depth="2" NCoef="0" IVar="-1" Cut="0.0000000000000000e+00" cType="1" res="2.9365031878114678e-05" rms="4.7032356262207031e-01" purity="4.8231461644172668e-01" nType="-99"/>
        </Node>
        <Node pos="r" depth="1" NCoef="0" IVar="-1" Cut="0.0000000000000000e+00" cType="1" res="8.1732572289183736e-04" rms="4.1902890801429749e-01" purity="7.4617630243301392e-01" nType="-99"/>
      </Node>
    </BinaryTree>
    <BinaryTree type="DecisionTree" boostWeight="1.0000000000000000e+00" itree="691">
      <Node pos="s" depth="0" NCoef="0" IVar="6" Cut="5.5030360817909241e-02" cType="1" res="-1.1656042188405991e-03" rms="4.6413698792457581e-01" purity="4.9695867300033569e-01" nType="0">
        <Node pos="l" depth="1" NCoef="0" IVar="4" Cut="9.7172373533248901e-01" cType="1" res="-2.0107874646782875e-02" rms="4.5902201533317566e-01" purity="4.4374558329582214e-01" nType="0">
          <Node pos="l" depth="2" NCoef="0" IVar="-1" Cut="0.0000000000000000e+00" cType="1" res="-9.4771012663841248e-04" rms="4.6028473973274231e-01" purity="3.9349743723869324e-01" nType="-99"/>
          <Node pos="r" depth="2" NCoef="0" IVar="-1" Cut="0.0000000000000000e+00" cType="1" res="1.2947135837748647e-04" rms="4.5337903499603271e-01" purity="6.3278990983963013e-01" nType="-99"/>
        </Node>
        <Node pos="r" depth="1" NCoef="0" IVar="1" Cut="8.5182249546051025e-01" cType="1" res="7.4234134517610073e-03" rms="4.6618425846099854e-01" purity="5.2108716964721680e-01" nType="0">
          <Node pos="l" depth="2" NCoef="0" IVar="-1" Cut="0.0000000000000000e+00" cType="1" res="1.0806323552969843e-04" rms="4.6755933761596680e-01" purity="5.0468379259109497e-01" nType="-99"/>
          <Node pos="r" depth="2" NCoef="0" IVar="-1" Cut="0.0000000000000000e+00" cType="1" res="9.8511856049299240e-04" rms="4.5392659306526184e-01" purity="6.5163713693618774e-01" nType="-99"/>
        </Node>
      </Node>
    </BinaryTree>
    <BinaryTree type="DecisionTree" boostWeight="1.0000000000000000e+00" itree="692">
      <Node pos="s" depth="0" NCoef="0" IVar="6" Cut="2.2689504921436310e-01" cType="1" res="1.6505015082657337e-03" rms="4.6477049589157104e-01" purity="5.0027358531951904e-01" nType="0">
        <Node pos="l" depth="1" NCoef="0" IVar="3" Cut="1.4272422790527344e+02" cType="1" res="-1.1894315248355269e-03" rms="4.6455839276313782e-01" purity="4.9403020739555359e-01" nType="0">
          <Node pos="l" depth="2" NCoef="0" IVar="-1" Cut="0.0000000000000000e+00" cType="1" res="-1.3954122550785542e-04" rms="4.6569240093231201e-01" purity="4.8341506719589233e-01" nType="-99"/>
          <Node pos="r" depth="2" NCoef="0" IVar="-1" Cut="0.0000000000000000e+00" cType="1" res="9.1554061509668827e-04" rms="4.5117491483688354e-01" purity="6.0449093580245972e-01" nType="-99"/>
        </Node>
        <Node pos="r" depth="1" NCoef="0" IVar="-1" Cut="0.0000000000000000e+00" cType="1" res="1.2047755299136043e-03" rms="4.6584370732307434e-01" purity="5.9640157222747803e-01" nType="-99"/>
      </Node>
    </BinaryTree>
    <BinaryTree type="DecisionTree" boostWeight="1.0000000000000000e+00" itree="693">
      <Node pos="s" depth="0" NCoef="0" IVar="3" Cut="1.4670877075195312e+02" cType="1" res="4.9184984527528286e-04" rms="4.6361014246940613e-01" purity="4.9927261471748352e-01" nType="0">
        <Node pos="l" depth="1" NCoef="0" IVar="4" Cut="9.7683858871459961e-01" cType="1" res="-2.6607187464833260e-03" rms="4.6456930041313171e-01" purity="4.8980790376663208e-01" nType="0">
          <Node pos="l" depth="2" NCoef="0" IVar="-1" Cut="0.0000000000000000e+00" cType="1" res="-2.5531643768772483e-04" rms="4.6998712420463562e-01" purity="4.4377848505973816e-01" nType="-99"/>
          <Node pos="r" depth="2" NCoef="0" IVar="-1" Cut="0.0000000000000000e+00" cType="1" res="5.6811794638633728e-04" rms="4.3813893198966980e-01" purity="7.0033556222915649e-01" nType="-99"/>
        </Node>
        <Node pos="r" depth="1" NCoef="0" IVar="-1" Cut="0.0000000000000000e+00" cType="1" res="1.0643252171576023e-03" rms="4.4975984096527100e-01" purity="6.1630344390869141e-01" nType="-99"/>
      </Node>
    </BinaryTree>
    <BinaryTree type="DecisionTree" boostWeight="1.0000000000000000e+00" itree="694">
      <Node pos="s" depth="0" NCoef="0" IVar="2" Cut="6.4605798339843750e+02" cType="1" res="3.1048764940351248e-03" rms="4.6492761373519897e-01" purity="5.0158894062042236e-01" nType="0">
        <Node pos="l" depth="1" NCoef="0" IVar="2" Cut="3.6173080444335938e+02" cType="1" res="-3.0663036741316319e-03" rms="4.6528270840644836e-01" purity="4.6187105774879456e-01" nType="0">
          <Node pos="l" depth="2" NCoef="0" IVar="-1" Cut="0.0000000000000000e+00" cType="1" res="-2.1523328032344580e-03" rms="4.2241698503494263e-01" purity="2.8712570667266846e-01" nType="-99"/>
          <Node pos="r" depth="2" NCoef="0" IVar="-1" Cut="0.0000000000000000e+00" cType="1" res="3.6140088923275471e-05" rms="4.6890243887901306e-01" purity="4.7835233807563782e-01" nType="-99"/>
        </Node>
        <Node pos="r" depth="1" NCoef="0" IVar="7" Cut="9.1505119323730469e+01" cType="1" res="1.9007626920938492e-02" rms="4.6363285183906555e-01" purity="6.0393959283828735e-01" nType="0">
          <Node pos="l" depth="2" NCoef="0" IVar="-1" Cut="0.0000000000000000e+00" cType="1" res="-1.9537609477993101e-04" rms="4.7052156925201416e-01" purity="5.7507312297821045e-01" nType="-99"/>
          <Node pos="r" depth="2" NCoef="0" IVar="-1" Cut="0.0000000000000000e+00" cType="1" res="7.7583041274920106e-04" rms="4.6072342991828918e-01" purity="6.1448818445205688e-01" nType="-99"/>
        </Node>
      </Node>
    </BinaryTree>
    <BinaryTree type="DecisionTree" boostWeight="1.0000000000000000e+00" itree="695">
      <Node pos="s" depth="0" NCoef="0" IVar="0" Cut="2.0449595153331757e-01" cType="1" res="-1.2364725989755243e-04" rms="4.6473643183708191e-01" purity="4.9772348999977112e-01" nType="0">
        <Node pos="l" depth="1" NCoef="0" IVar="4" Cut="9.4015806913375854e-01" cType="1" res="-3.3372160978615284e-03" rms="4.6433091163635254e-01" purity="4.8606982827186584e-01" nType="0">
          <Node pos="l" depth="2" NCoef="0" IVar="-1" Cut="0.0000000000000000e+00" cType="1" res="-6.9616117980331182e-04" rms="4.5647779107093811e-01" purity="3.5573479533195496e-01" nType="-99"/>
          <Node pos="r" depth="2" NCoef="0" IVar="-1" Cut="0.0000000000000000e+00" cType="1" res="1.0999182268278673e-04" rms="4.6781092882156372e-01" purity="5.4741072654724121e-01" nType="-99"/>
        </Node>
        <Node pos="r" depth="1" NCoef="0" IVar="-1" Cut="0.0000000000000000e+00" cType="1" res="7.9474830999970436e-04" rms="4.6742564439773560e-01" purity="6.0558462142944336e-01" nType="-99"/>
      </Node>
    </BinaryTree>
    <BinaryTree type="DecisionTree" boostWeight="1.0000000000000000e+00" itree="696">
      <Node pos="s" depth="0" NCoef="0" IVar="3" Cut="1.5241690063476562e+02" cType="1" res="2.5896863080561161e-03" rms="4.6427172422409058e-01" purity="5.0081574916839600e-01" nType="0">
        <Node pos="l" depth="1" NCoef="0" IVar="4" Cut="9.7652518749237061e-01" cType="1" res="-1.1046322761103511e-03" rms="4.6543020009994507e-01" purity="4.9144050478935242e-01" nType="0">
          <Node pos="l" depth="2" NCoef="0" IVar="-1" Cut="0.0000000000000000e+00" cType="1" res="-2.0091293845325708e-04" rms="4.7072017192840576e-01" purity="4.4510257244110107e-01" nType="-99"/>
          <Node pos="r" depth="2" NCoef="0" IVar="-1" Cut="0.0000000000000000e+00" cType="1" res="5.7920691324397922e-04" rms="4.4034662842750549e-01" purity="6.9801652431488037e-01" nType="-99"/>
        </Node>
        <Node pos="r" depth="1" NCoef="0" IVar="-1" Cut="0.0000000000000000e+00" cType="1" res="1.5098557341843843e-03" rms="4.4325962662696838e-01" purity="6.3917952775955200e-01" nType="-99"/>
      </Node>
    </BinaryTree>
    <BinaryTree type="DecisionTree" boostWeight="1.0000000000000000e+00" itree="697">
      <Node pos="s" depth="0" NCoef="0" IVar="4" Cut="9.5834159851074219e-01" cType="1" res="1.6080434434115887e-03" rms="4.6456110477447510e-01" purity="4.9957892298698425e-01" nType="0">
        <Node pos="l" depth="1" NCoef="0" IVar="7" Cut="1.0157047271728516e+02" cType="1" res="-6.1954809352755547e-03" rms="4.6882992982864380e-01" purity="4.1581049561500549e-01" nType="0">
          <Node pos="l" depth="2" NCoef="0" IVar="-1" Cut="0.0000000000000000e+00" cType="1" res="-6.4379459945484996e-04" rms="4.6483838558197021e-01" purity="3.8871505856513977e-01" nType="-99"/>
          <Node pos="r" depth="2" NCoef="0" IVar="-1" Cut="0.0000000000000000e+00" cType="1" res="2.6561826234683394e-04" rms="4.7296908497810364e-01" purity="4.4697442650794983e-01" nType="-99"/>
        </Node>
        <Node pos="r" depth="1" NCoef="0" IVar="0" Cut="-8.8101729750633240e-02" cType="1" res="1.3062426820397377e-02" rms="4.5798233151435852e-01" purity="6.2253826856613159e-01" nType="0">
          <Node pos="l" depth="2" NCoef="0" IVar="-1" Cut="0.0000000000000000e+00" cType="1" res="-5.6136370403692126e-04" rms="4.6819356083869934e-01" purity="5.1646471023559570e-01" nType="-99"/>
          <Node pos="r" depth="2" NCoef="0" IVar="-1" Cut="0.0000000000000000e+00" cType="1" res="5.0915958127006888e-04" rms="4.5577579736709595e-01" purity="6.4261579513549805e-01" nType="-99"/>
        </Node>
      </Node>
    </BinaryTree>
    <BinaryTree type="DecisionTree" boostWeight="1.0000000000000000e+00" itree="698">
      <Node pos="s" depth="0" NCoef="0" IVar="4" Cut="9.1786682605743408e-01" cType="1" res="7.9459807602688670e-04" rms="4.6554428339004517e-01" purity="4.9813020229339600e-01" nType="0">
        <Node pos="l" depth="1" NCoef="0" IVar="7" Cut="9.8333114624023438e+01" cType="1" res="-2.2656887769699097e-02" rms="4.4972163438796997e-01" purity="3.3114591240882874e-01" nType="0">
          <Node pos="l" depth="2" NCoef="0" IVar="-1" Cut="0.0000000000000000e+00" cType="1" res="-1.3198592932894826e-03" rms="4.4667887687683105e-01" purity="3.0438420176506042e-01" nType="-99"/>
          <Node pos="r" depth="2" NCoef="0" IVar="-1" Cut="0.0000000000000000e+00" cType="1" res="-5.0270213978365064e-04" rms="4.5274224877357483e-01" purity="3.5967290401458740e-01" nType="-99"/>
        </Node>
        <Node pos="r" depth="1" NCoef="0" IVar="8" Cut="1.1516556739807129e+00" cType="1" res="3.8895427715033293e-03" rms="4.6750456094741821e-01" purity="5.2016746997833252e-01" nType="0">
          <Node pos="l" depth="2" NCoef="0" IVar="-1" Cut="0.0000000000000000e+00" cType="1" res="3.0164705822244287e-04" rms="4.6857717633247375e-01" purity="5.5587798357009888e-01" nType="-99"/>
          <Node pos="r" depth="2" NCoef="0" IVar="-1" Cut="0.0000000000000000e+00" cType="1" res="-1.8978043226525187e-04" rms="4.6575567126274109e-01" purity="4.6790319681167603e-01" nType="-99"/>
        </Node>
      </Node>
    </BinaryTree>
    <BinaryTree type="DecisionTree" boostWeight="1.0000000000000000e+00" itree="699">
      <Node pos="s" depth="0" NCoef="0" IVar="4" Cut="9.8546850681304932e-01" cType="1" res="3.9034185465425253e-04" rms="4.6450316905975342e-01" purity="4.9769866466522217e-01" nType="0">
        <Node pos="l" depth="1" NCoef="0" IVar="6" Cut="1.4242011308670044e-01" cType="1" res="-2.8889630921185017e-03" rms="4.6865615248680115e-01" purity="4.7165238857269287e-01" nType="0">
          <Node pos="l" depth="2" NCoef="0" IVar="-1" Cut="0.0000000000000000e+00" cType="1" res="-2.3520863032899797e-04" rms="4.6649333834648132e-01" purity="4.5710691809654236e-01" nType="-99"/>
          <Node pos="r" depth="2" NCoef="0" IVar="-1" Cut="0.0000000000000000e+00" cType="1" res="3.5465697874315083e-04" rms="4.7569838166236877e-01" purity="5.2164685726165771e-01" nType="-99"/>
        </Node>
        <Node pos="r" depth="1" NCoef="0" IVar="-1" Cut="0.0000000000000000e+00" cType="1" res="8.2597031723707914e-04" rms="4.2227128148078918e-01" purity="7.4234431982040405e-01" nType="-99"/>
      </Node>
    </BinaryTree>
    <BinaryTree type="DecisionTree" boostWeight="1.0000000000000000e+00" itree="700">
      <Node pos="s" depth="0" NCoef="0" IVar="1" Cut="8.6334657669067383e-01" cType="1" res="5.2237017080187798e-03" rms="4.6390476822853088e-01" purity="5.0412982702255249e-01" nType="0">
        <Node pos="l" depth="1" NCoef="0" IVar="0" Cut="1.0090301185846329e-01" cType="1" res="1.4009496662765741e-03" rms="4.6477338671684265e-01" purity="4.9013414978981018e-01" nType="0">
          <Node pos="l" depth="2" NCoef="0" IVar="-1" Cut="0.0000000000000000e+00" cType="1" res="-2.1702591038774699e-04" rms="4.6323221921920776e-01" purity="4.5618730783462524e-01" nType="-99"/>
          <Node pos="r" depth="2" NCoef="0" IVar="-1" Cut="0.0000000000000000e+00" cType="1" res="5.9549015713855624e-04" rms="4.6799775958061218e-01" purity="5.7498687505722046e-01" nType="-99"/>
        </Node>
        <Node pos="r" depth="1" NCoef="0" IVar="-1" Cut="0.0000000000000000e+00" cType="1" res="1.2663034722208977e-03" rms="4.5124211907386780e-01" purity="6.6762363910675049e-01" nType="-99"/>
      </Node>
    </BinaryTree>
    <BinaryTree type="DecisionTree" boostWeight="1.0000000000000000e+00" itree="701">
      <Node pos="s" depth="0" NCoef="0" IVar="8" Cut="5.8816432952880859e-01" cType="1" res="2.5418046861886978e-03" rms="4.6551170945167542e-01" purity="5.0128775835037231e-01" nType="0">
        <Node pos="l" depth="1" NCoef="0" IVar="-1" Cut="0.0000000000000000e+00" cType="1" res="1.0711690410971642e-03" rms="4.6721765398979187e-01" purity="5.8676952123641968e-01" nType="-99"/>
        <Node pos="r" depth="1" NCoef="0" IVar="7" Cut="9.6452308654785156e+01" cType="1" res="-5.7234376436099410e-04" rms="4.6523338556289673e-01" purity="4.9401929974555969e-01" nType="0">
          <Node pos="l" depth="2" NCoef="0" IVar="-1" Cut="0.0000000000000000e+00" cType="1" res="-3.2558868406340480e-04" rms="4.6577441692352295e-01" purity="4.6892005205154419e-01" nType="-99"/>
          <Node pos="r" depth="2" NCoef="0" IVar="-1" Cut="0.0000000000000000e+00" cType="1" res="2.6368847466073930e-04" rms="4.6452537178993225e-01" purity="5.1802015304565430e-01" nType="-99"/>
        </Node>
      </Node>
    </BinaryTree>
    <BinaryTree type="DecisionTree" boostWeight="1.0000000000000000e+00" itree="702">
      <Node pos="s" depth="0" NCoef="0" IVar="3" Cut="1.5134410095214844e+02" cType="1" res="2.9750943649560213e-03" rms="4.6470972895622253e-01" purity="5.0074809789657593e-01" nType="0">
        <Node pos="l" depth="1" NCoef="0" IVar="6" Cut="1.3702216744422913e-01" cType="1" res="-6.0464674606919289e-04" rms="4.6634730696678162e-01" purity="4.9081313610076904e-01" nType="0">
          <Node pos="l" depth="2" NCoef="0" IVar="-1" Cut="0.0000000000000000e+00" cType="1" res="-2.0968697208445519e-04" rms="4.6565830707550049e-01" purity="4.7117757797241211e-01" nType="-99"/>
          <Node pos="r" depth="2" NCoef="0" IVar="-1" Cut="0.0000000000000000e+00" cType="1" res="4.9251725431531668e-04" rms="4.6794354915618896e-01" purity="5.4945522546768188e-01" nType="-99"/>
        </Node>
        <Node pos="r" depth="1" NCoef="0" IVar="-1" Cut="0.0000000000000000e+00" cType="1" res="1.4153083320707083e-03" rms="4.3819329142570496e-01" purity="6.3934201002120972e-01" nType="-99"/>
      </Node>
    </BinaryTree>
    <BinaryTree type="DecisionTree" boostWeight="1.0000000000000000e+00" itree="703">
      <Node pos="s" depth="0" NCoef="0" IVar="3" Cut="1.5241690063476562e+02" cType="1" res="2.4538766592741013e-03" rms="4.6310546994209290e-01" purity="5.0225472450256348e-01" nType="0">
        <Node pos="l" depth="1" NCoef="0" IVar="6" Cut="5.7199250906705856e-02" cType="1" res="-1.4028056757524610e-03" rms="4.6441110968589783e-01" purity="4.9232524633407593e-01" nType="0">
          <Node pos="l" depth="2" NCoef="0" IVar="-1" Cut="0.0000000000000000e+00" cType="1" res="-5.6656834203749895e-04" rms="4.6114230155944824e-01" purity="4.4014292955398560e-01" nType="-99"/>
          <Node pos="r" depth="2" NCoef="0" IVar="-1" Cut="0.0000000000000000e+00" cType="1" res="1.8010608619078994e-04" rms="4.6578776836395264e-01" purity="5.1736569404602051e-01" nType="-99"/>
        </Node>
        <Node pos="r" depth="1" NCoef="0" IVar="-1" Cut="0.0000000000000000e+00" cType="1" res="1.5173142310231924e-03" rms="4.4038519263267517e-01" purity="6.4398294687271118e-01" nType="-99"/>
      </Node>
    </BinaryTree>
    <BinaryTree type="DecisionTree" boostWeight="1.0000000000000000e+00" itree="704">
      <Node pos="s" depth="0" NCoef="0" IVar="2" Cut="4.3479916381835938e+02" cType="1" res="3.2873153686523438e-03" rms="4.6455478668212891e-01" purity="5.0210189819335938e-01" nType="0">
        <Node pos="l" depth="1" NCoef="0" IVar="2" Cut="3.5261041259765625e+02" cType="1" res="-1.5228236094117165e-02" rms="4.5165732502937317e-01" purity="3.5787609219551086e-01" nType="0">
          <Node pos="l" depth="2" NCoef="0" IVar="-1" Cut="0.0000000000000000e+00" cType="1" res="-2.1680220961570740e-03" rms="4.3131735920906067e-01" purity="2.7466076612472534e-01" nType="-99"/>
          <Node pos="r" depth="2" NCoef="0" IVar="-1" Cut="0.0000000000000000e+00" cType="1" res="-2.5253018247894943e-04" rms="4.5659470558166504e-01" purity="3.8015207648277283e-01" nType="-99"/>
        </Node>
        <Node pos="r" depth="1" NCoef="0" IVar="3" Cut="1.3566885375976562e+02" cType="1" res="9.1392928734421730e-03" rms="4.6840509772300720e-01" purity="5.4768550395965576e-01" nType="0">
          <Node pos="l" depth="2" NCoef="0" IVar="-1" Cut="0.0000000000000000e+00" cType="1" res="1.3478081382345408e-04" rms="4.7045603394508362e-01" purity="5.3543907403945923e-01" nType="-99"/>
          <Node pos="r" depth="2" NCoef="0" IVar="-1" Cut="0.0000000000000000e+00" cType="1" res="1.0246381862089038e-03" rms="4.5400449633598328e-01" purity="6.2608456611633301e-01" nType="-99"/>
        </Node>
      </Node>
    </BinaryTree>
    <BinaryTree type="DecisionTree" boostWeight="1.0000000000000000e+00" itree="705">
      <Node pos="s" depth="0" NCoef="0" IVar="0" Cut="-9.5729008316993713e-03" cType="1" res="5.1377812633290887e-04" rms="4.6371397376060486e-01" purity="4.9890813231468201e-01" nType="0">
        <Node pos="l" depth="1" NCoef="0" IVar="8" Cut="7.3899310827255249e-01" cType="1" res="-1.3316104188561440e-02" rms="4.5963940024375916e-01" purity="4.4701823592185974e-01" nType="0">
          <Node pos="l" depth="2" NCoef="0" IVar="-1" Cut="0.0000000000000000e+00" cType="1" res="4.2439985554665327e-04" rms="4.6779736876487732e-01" purity="5.2852398157119751e-01" nType="-99"/>
          <Node pos="r" depth="2" NCoef="0" IVar="-1" Cut="0.0000000000000000e+00" cType="1" res="-7.1652431506663561e-04" rms="4.5713162422180176e-01" purity="4.2505291104316711e-01" nType="-99"/>
        </Node>
        <Node pos="r" depth="1" NCoef="0" IVar="6" Cut="1.2826722860336304e-01" cType="1" res="1.2431119568645954e-02" rms="4.6686807274818420e-01" purity="5.4362207651138306e-01" nType="0">
          <Node pos="l" depth="2" NCoef="0" IVar="-1" Cut="0.0000000000000000e+00" cType="1" res="9.0965520939789712e-05" rms="4.6988362073898315e-01" purity="5.2105593681335449e-01" nType="-99"/>
          <Node pos="r" depth="2" NCoef="0" IVar="-1" Cut="0.0000000000000000e+00" cType="1" res="1.0115581098943949e-03" rms="4.5773607492446899e-01" purity="6.0416829586029053e-01" nType="-99"/>
        </Node>
      </Node>
    </BinaryTree>
    <BinaryTree type="DecisionTree" boostWeight="1.0000000000000000e+00" itree="706">
      <Node pos="s" depth="0" NCoef="0" IVar="3" Cut="1.5183480834960938e+02" cType="1" res="-1.1655564594548196e-04" rms="4.6344986557960510e-01" purity="4.9856105446815491e-01" nType="0">
        <Node pos="l" depth="1" NCoef="0" IVar="6" Cut="6.8919911980628967e-02" cType="1" res="-3.1351782381534576e-03" rms="4.6425801515579224e-01" purity="4.8993113636970520e-01" nType="0">
          <Node pos="l" depth="2" NCoef="0" IVar="-1" Cut="0.0000000000000000e+00" cType="1" res="-6.2467582756653428e-04" rms="4.6146845817565918e-01" purity="4.4123992323875427e-01" nType="-99"/>
          <Node pos="r" depth="2" NCoef="0" IVar="-1" Cut="0.0000000000000000e+00" cType="1" res="2.2108701523393393e-04" rms="4.6586111187934875e-01" purity="5.2329218387603760e-01" nType="-99"/>
        </Node>
        <Node pos="r" depth="1" NCoef="0" IVar="-1" Cut="0.0000000000000000e+00" cType="1" res="1.2173702707514167e-03" rms="4.4896090030670166e-01" purity="6.2622630596160889e-01" nType="-99"/>
      </Node>
    </BinaryTree>
    <BinaryTree type="DecisionTree" boostWeight="1.0000000000000000e+00" itree="707">
      <Node pos="s" depth="0" NCoef="0" IVar="6" Cut="1.9921992719173431e-01" cType="1" res="-4.0183560922741890e-03" rms="4.6512427926063538e-01" purity="4.9289491772651672e-01" nType="0">
        <Node pos="l" depth="1" NCoef="0" IVar="3" Cut="7.5074989318847656e+01" cType="1" res="-7.3031210340559483e-03" rms="4.6511635184288025e-01" purity="4.8374372720718384e-01" nType="0">
          <Node pos="l" depth="2" NCoef="0" IVar="-1" Cut="0.0000000000000000e+00" cType="1" res="1.5272699238266796e-04" rms="4.6724766492843628e-01" purity="4.8966079950332642e-01" nType="-99"/>
          <Node pos="r" depth="2" NCoef="0" IVar="-1" Cut="0.0000000000000000e+00" cType="1" res="-4.6129507245495915e-04" rms="4.6369343996047974e-01" purity="4.8023036122322083e-01" nType="-99"/>
        </Node>
        <Node pos="r" depth="1" NCoef="0" IVar="-1" Cut="0.0000000000000000e+00" cType="1" res="7.0915429387241602e-04" rms="4.6412464976310730e-01" purity="5.7636648416519165e-01" nType="-99"/>
      </Node>
    </BinaryTree>
    <BinaryTree type="DecisionTree" boostWeight="1.0000000000000000e+00" itree="708">
      <Node pos="s" depth="0" NCoef="0" IVar="6" Cut="1.1373984068632126e-01" cType="1" res="4.7972705215215683e-03" rms="4.6527200937271118e-01" purity="5.0372606515884399e-01" nType="0">
        <Node pos="l" depth="1" NCoef="0" IVar="2" Cut="7.5379919433593750e+02" cType="1" res="-3.1897681765258312e-03" rms="4.6564233303070068e-01" purity="4.7579142451286316e-01" nType="0">
          <Node pos="l" depth="2" NCoef="0" IVar="-1" Cut="0.0000000000000000e+00" cType="1" res="-2.9302138136699796e-04" rms="4.6501603722572327e-01" purity="4.4258269667625427e-01" nType="-99"/>
          <Node pos="r" depth="2" NCoef="0" IVar="-1" Cut="0.0000000000000000e+00" cType="1" res="5.0263432785868645e-04" rms="4.6738183498382568e-01" purity="6.0130608081817627e-01" nType="-99"/>
        </Node>
        <Node pos="r" depth="1" NCoef="0" IVar="2" Cut="4.2922772216796875e+02" cType="1" res="2.0055918022990227e-02" rms="4.6418178081512451e-01" purity="5.5709314346313477e-01" nType="0">
          <Node pos="l" depth="2" NCoef="0" IVar="-1" Cut="0.0000000000000000e+00" cType="1" res="-1.4790639397688210e-04" rms="4.6525999903678894e-01" purity="4.1340222954750061e-01" nType="-99"/>
          <Node pos="r" depth="2" NCoef="0" IVar="-1" Cut="0.0000000000000000e+00" cType="1" res="8.2197430310770869e-04" rms="4.6326014399528503e-01" purity="6.2260121107101440e-01" nType="-99"/>
        </Node>
      </Node>
    </BinaryTree>
    <BinaryTree type="DecisionTree" boostWeight="1.0000000000000000e+00" itree="709">
      <Node pos="s" depth="0" NCoef="0" IVar="2" Cut="8.2636584472656250e+02" cType="1" res="3.9110011421144009e-03" rms="4.6410611271858215e-01" purity="5.0314462184906006e-01" nType="0">
        <Node pos="l" depth="1" NCoef="0" IVar="0" Cut="1.9060729444026947e-01" cType="1" res="4.0671392343938351e-04" rms="4.6451982855796814e-01" purity="4.8700708150863647e-01" nType="0">
          <Node pos="l" depth="2" NCoef="0" IVar="-1" Cut="0.0000000000000000e+00" cType="1" res="-1.2182209320599213e-04" rms="4.6380814909934998e-01" purity="4.7153785824775696e-01" nType="-99"/>
          <Node pos="r" depth="2" NCoef="0" IVar="-1" Cut="0.0000000000000000e+00" cType="1" res="8.0321345012634993e-04" rms="4.6843263506889343e-01" purity="5.9649097919464111e-01" nType="-99"/>
        </Node>
        <Node pos="r" depth="1" NCoef="0" IVar="-1" Cut="0.0000000000000000e+00" cType="1" res="8.6615874897688627e-04" rms="4.5978805422782898e-01" purity="6.3310945034027100e-01" nType="-99"/>
      </Node>
    </BinaryTree>
    <BinaryTree type="DecisionTree" boostWeight="1.0000000000000000e+00" itree="710">
      <Node pos="s" depth="0" NCoef="0" IVar="3" Cut="1.5268786621093750e+02" cType="1" res="3.3157007419504225e-04" rms="4.6479463577270508e-01" purity="4.9757060408592224e-01" nType="0">
        <Node pos="l" depth="1" NCoef="0" IVar="3" Cut="7.5865699768066406e+01" cType="1" res="-2.6483966503292322e-03" rms="4.6614161133766174e-01" purity="4.8860052227973938e-01" nType="0">
          <Node pos="l" depth="2" NCoef="0" IVar="-1" Cut="0.0000000000000000e+00" cType="1" res="4.0264040580950677e-04" rms="4.6519970893859863e-01" purity="5.0398457050323486e-01" nType="-99"/>
          <Node pos="r" depth="2" NCoef="0" IVar="-1" Cut="0.0000000000000000e+00" cType="1" res="-4.3421369628049433e-04" rms="4.6647560596466064e-01" purity="4.7786676883697510e-01" nType="-99"/>
        </Node>
        <Node pos="r" depth="1" NCoef="0" IVar="-1" Cut="0.0000000000000000e+00" cType="1" res="1.2435110984370112e-03" rms="4.4129955768585205e-01" purity="6.3416117429733276e-01" nType="-99"/>
      </Node>
    </BinaryTree>
    <BinaryTree type="DecisionTree" boostWeight="1.0000000000000000e+00" itree="711">
      <Node pos="s" depth="0" NCoef="0" IVar="0" Cut="9.8108023405075073e-02" cType="1" res="1.1264734202995896e-03" rms="4.6344420313835144e-01" purity="4.9990299344062805e-01" nType="0">
        <Node pos="l" depth="1" NCoef="0" IVar="6" Cut="2.8014494106173515e-02" cType="1" res="-5.6923939846456051e-03" rms="4.6205693483352661e-01" purity="4.7203150391578674e-01" nType="0">
          <Node pos="l" depth="2" NCoef="0" IVar="-1" Cut="0.0000000000000000e+00" cType="1" res="-1.7395659815520048e-03" rms="4.4400703907012939e-01" purity="3.6084899306297302e-01" nType="-99"/>
          <Node pos="r" depth="2" NCoef="0" IVar="-1" Cut="0.0000000000000000e+00" cType="1" res="-2.9475017072400078e-05" rms="4.6399316191673279e-01" purity="4.8562958836555481e-01" nType="-99"/>
        </Node>
        <Node pos="r" depth="1" NCoef="0" IVar="4" Cut="9.3617576360702515e-01" cType="1" res="1.9165897741913795e-02" rms="4.6661415696144104e-01" purity="5.7363742589950562e-01" nType="0">
          <Node pos="l" depth="2" NCoef="0" IVar="-1" Cut="0.0000000000000000e+00" cType="1" res="-1.6919428890105337e-04" rms="4.7989645600318909e-01" purity="4.2752808332443237e-01" nType="-99"/>
          <Node pos="r" depth="2" NCoef="0" IVar="-1" Cut="0.0000000000000000e+00" cType="1" res="7.5484713306650519e-04" rms="4.6101453900337219e-01" purity="6.3025015592575073e-01" nType="-99"/>
        </Node>
      </Node>
    </BinaryTree>
    <BinaryTree type="DecisionTree" boostWeight="1.0000000000000000e+00" itree="712">
      <Node pos="s" depth="0" NCoef="0" IVar="3" Cut="7.4404434204101562e+01" cType="1" res="-1.5429142513312399e-04" rms="4.6361669898033142e-01" purity="4.9856883287429810e-01" nType="0">
        <Node pos="l" depth="1" NCoef="0" IVar="4" Cut="9.2191386222839355e-01" cType="1" res="1.2917320244014263e-02" rms="4.6520203351974487e-01" purity="5.0534802675247192e-01" nType="0">
          <Node pos="l" depth="2" NCoef="0" IVar="-1" Cut="0.0000000000000000e+00" cType="1" res="-7.0955295814201236e-04" rms="4.4931101799011230e-01" purity="3.2664665579795837e-01" nType="-99"/>
          <Node pos="r" depth="2" NCoef="0" IVar="-1" Cut="0.0000000000000000e+00" cType="1" res="5.2390055498108268e-04" rms="4.6763056516647339e-01" purity="5.3551584482192993e-01" nType="-99"/>
        </Node>
        <Node pos="r" depth="1" NCoef="0" IVar="3" Cut="1.2973387145996094e+02" cType="1" res="-7.9240128397941589e-03" rms="4.6249681711196899e-01" purity="4.9453929066658020e-01" nType="0">
          <Node pos="l" depth="2" NCoef="0" IVar="-1" Cut="0.0000000000000000e+00" cType="1" res="-4.6446477063000202e-04" rms="4.6303477883338928e-01" purity="4.7335878014564514e-01" nType="-99"/>
          <Node pos="r" depth="2" NCoef="0" IVar="-1" Cut="0.0000000000000000e+00" cType="1" res="4.1211303323507309e-04" rms="4.5999136567115784e-01" purity="5.6563860177993774e-01" nType="-99"/>
        </Node>
      </Node>
    </BinaryTree>
    <BinaryTree type="DecisionTree" boostWeight="1.0000000000000000e+00" itree="713">
      <Node pos="s" depth="0" NCoef="0" IVar="0" Cut="-6.3308298587799072e-02" cType="1" res="-4.5160454465076327e-04" rms="4.6433666348457336e-01" purity="4.9751964211463928e-01" nType="0">
        <Node pos="l" depth="1" NCoef="0" IVar="2" Cut="6.9766070556640625e+02" cType="1" res="-1.7691068351268768e-02" rms="4.5693889260292053e-01" purity="4.2420175671577454e-01" nType="0">
          <Node pos="l" depth="2" NCoef="0" IVar="-1" Cut="0.0000000000000000e+00" cType="1" res="-8.8176992721855640e-04" rms="4.4968929886817932e-01" purity="3.8945120573043823e-01" nType="-99"/>
          <Node pos="r" depth="2" NCoef="0" IVar="-1" Cut="0.0000000000000000e+00" cType="1" res="1.0074409510707483e-04" rms="4.7942358255386353e-01" purity="5.3859364986419678e-01" nType="-99"/>
        </Node>
        <Node pos="r" depth="1" NCoef="0" IVar="1" Cut="4.8248100280761719e-01" cType="1" res="5.9876474551856518e-03" rms="4.6690654754638672e-01" purity="5.2490520477294922e-01" nType="0">
          <Node pos="l" depth="2" NCoef="0" IVar="-1" Cut="0.0000000000000000e+00" cType="1" res="-4.1834704461507499e-04" rms="4.5887219905853271e-01" purity="4.4774806499481201e-01" nType="-99"/>
          <Node pos="r" depth="2" NCoef="0" IVar="-1" Cut="0.0000000000000000e+00" cType="1" res="3.2765258220024407e-04" rms="4.6908646821975708e-01" purity="5.4744881391525269e-01" nType="-99"/>
        </Node>
      </Node>
    </BinaryTree>
    <BinaryTree type="DecisionTree" boostWeight="1.0000000000000000e+00" itree="714">
      <Node pos="s" depth="0" NCoef="0" IVar="8" Cut="1.6529328823089600e+00" cType="1" res="4.3785702437162399e-03" rms="4.6583768725395203e-01" purity="5.0175964832305908e-01" nType="0">
        <Node pos="l" depth="1" NCoef="0" IVar="0" Cut="2.2378487884998322e-01" cType="1" res="7.4152206070721149e-03" rms="4.6712005138397217e-01" purity="5.1279199123382568e-01" nType="0">
          <Node pos="l" depth="2" NCoef="0" IVar="-1" Cut="0.0000000000000000e+00" cType="1" res="1.4355700113810599e-04" rms="4.6751883625984192e-01" purity="5.0353610515594482e-01" nType="-99"/>
          <Node pos="r" depth="2" NCoef="0" IVar="-1" Cut="0.0000000000000000e+00" cType="1" res="1.0981523664668202e-03" rms="4.6053263545036316e-01" purity="6.3204705715179443e-01" nType="-99"/>
        </Node>
        <Node pos="r" depth="1" NCoef="0" IVar="5" Cut="3.7796634435653687e-01" cType="1" res="-2.1633153781294823e-02" rms="4.5387345552444458e-01" purity="4.0725713968276978e-01" nType="0">
          <Node pos="l" depth="2" NCoef="0" IVar="-1" Cut="0.0000000000000000e+00" cType="1" res="-1.4392553130164742e-03" rms="4.3946823477745056e-01" purity="3.3977946639060974e-01" nType="-99"/>
          <Node pos="r" depth="2" NCoef="0" IVar="-1" Cut="0.0000000000000000e+00" cType="1" res="-2.7236912865191698e-04" rms="4.6738877892494202e-01" purity="4.7432503104209900e-01" nType="-99"/>
        </Node>
      </Node>
    </BinaryTree>
    <BinaryTree type="DecisionTree" boostWeight="1.0000000000000000e+00" itree="715">
      <Node pos="s" depth="0" NCoef="0" IVar="4" Cut="9.8556572198867798e-01" cType="1" res="-2.4893688969314098e-03" rms="4.6335446834564209e-01" purity="4.9689158797264099e-01" nType="0">
        <Node pos="l" depth="1" NCoef="0" IVar="1" Cut="8.6615097522735596e-01" cType="1" res="-5.7227760553359985e-03" rms="4.6772038936614990e-01" purity="4.7012755274772644e-01" nType="0">
          <Node pos="l" depth="2" NCoef="0" IVar="-1" Cut="0.0000000000000000e+00" cType="1" res="-2.6605246239341795e-04" rms="4.6764084696769714e-01" purity="4.5883697271347046e-01" nType="-99"/>
          <Node pos="r" depth="2" NCoef="0" IVar="-1" Cut="0.0000000000000000e+00" cType="1" res="7.5415789615362883e-04" rms="4.6736401319503784e-01" purity="6.2138569355010986e-01" nType="-99"/>
        </Node>
        <Node pos="r" depth="1" NCoef="0" IVar="-1" Cut="0.0000000000000000e+00" cType="1" res="7.2261504828929901e-04" rms="4.2015758156776428e-01" purity="7.4177795648574829e-01" nType="-99"/>
      </Node>
    </BinaryTree>
    <BinaryTree type="DecisionTree" boostWeight="1.0000000000000000e+00" itree="716">
      <Node pos="s" depth="0" NCoef="0" IVar="2" Cut="8.3979327392578125e+02" cType="1" res="4.2711123824119568e-03" rms="4.6682998538017273e-01" purity="5.0093847513198853e-01" nType="0">
        <Node pos="l" depth="1" NCoef="0" IVar="0" Cut="2.2839745879173279e-01" cType="1" res="1.1314213043078780e-03" rms="4.6782901883125305e-01" purity="4.8518073558807373e-01" nType="0">
          <Node pos="l" depth="2" NCoef="0" IVar="-1" Cut="0.0000000000000000e+00" cType="1" res="-3.6698609619634226e-05" rms="4.6786561608314514e-01" purity="4.7603103518486023e-01" nType="-99"/>
          <Node pos="r" depth="2" NCoef="0" IVar="-1" Cut="0.0000000000000000e+00" cType="1" res="8.2881422713398933e-04" rms="4.6627479791641235e-01" purity="6.0662221908569336e-01" nType="-99"/>
        </Node>
        <Node pos="r" depth="1" NCoef="0" IVar="-1" Cut="0.0000000000000000e+00" cType="1" res="8.5127295460551977e-04" rms="4.5727667212486267e-01" purity="6.3623070716857910e-01" nType="-99"/>
      </Node>
    </BinaryTree>
    <BinaryTree type="DecisionTree" boostWeight="1.0000000000000000e+00" itree="717">
      <Node pos="s" depth="0" NCoef="0" IVar="6" Cut="8.2123793661594391e-02" cType="1" res="-1.8399007385596633e-03" rms="4.6457028388977051e-01" purity="4.9479228258132935e-01" nType="0">
        <Node pos="l" depth="1" NCoef="0" IVar="4" Cut="9.6724122762680054e-01" cType="1" res="-1.3412053696811199e-02" rms="4.6256598830223083e-01" purity="4.5549565553665161e-01" nType="0">
          <Node pos="l" depth="2" NCoef="0" IVar="-1" Cut="0.0000000000000000e+00" cType="1" res="-7.1852421388030052e-04" rms="4.6357855200767517e-01" purity="3.9548557996749878e-01" nType="-99"/>
          <Node pos="r" depth="2" NCoef="0" IVar="-1" Cut="0.0000000000000000e+00" cType="1" res="1.6466040688101202e-04" rms="4.5921003818511963e-01" purity="6.2063652276992798e-01" nType="-99"/>
        </Node>
        <Node pos="r" depth="1" NCoef="0" IVar="0" Cut="-7.6579503715038300e-02" cType="1" res="9.3480013310909271e-03" rms="4.6622684597969055e-01" purity="5.3278410434722900e-01" nType="0">
          <Node pos="l" depth="2" NCoef="0" IVar="-1" Cut="0.0000000000000000e+00" cType="1" res="-5.8856623945757747e-04" rms="4.6293121576309204e-01" purity="4.4999492168426514e-01" nType="-99"/>
          <Node pos="r" depth="2" NCoef="0" IVar="-1" Cut="0.0000000000000000e+00" cType="1" res="4.3436468695290387e-04" rms="4.6673250198364258e-01" purity="5.5077791213989258e-01" nType="-99"/>
        </Node>
      </Node>
    </BinaryTree>
    <BinaryTree type="DecisionTree" boostWeight="1.0000000000000000e+00" itree="718">
      <Node pos="s" depth="0" NCoef="0" IVar="4" Cut="9.4472122192382812e-01" cType="1" res="1.9454980792943388e-04" rms="4.6403050422668457e-01" purity="4.9942505359649658e-01" nType="0">
        <Node pos="l" depth="1" NCoef="0" IVar="8" Cut="8.3817750215530396e-01" cType="1" res="-1.3462970964610577e-02" rms="4.6224266290664673e-01" purity="3.7936064600944519e-01" nType="0">
          <Node pos="l" depth="2" NCoef="0" IVar="-1" Cut="0.0000000000000000e+00" cType="1" res="1.2633549340534955e-04" rms="4.7820344567298889e-01" purity="4.4108039140701294e-01" nType="-99"/>
          <Node pos="r" depth="2" NCoef="0" IVar="-1" Cut="0.0000000000000000e+00" cType="1" res="-7.7514140866696835e-04" rms="4.5539814233779907e-01" purity="3.5424762964248657e-01" nType="-99"/>
        </Node>
        <Node pos="r" depth="1" NCoef="0" IVar="7" Cut="1.5203596496582031e+02" cType="1" res="8.5311690345406532e-03" rms="4.6492129564285278e-01" purity="5.7271295785903931e-01" nType="0">
          <Node pos="l" depth="2" NCoef="0" IVar="-1" Cut="0.0000000000000000e+00" cType="1" res="3.6250543780624866e-04" rms="4.6494111418724060e-01" purity="5.7422870397567749e-01" nType="-99"/>
          <Node pos="r" depth="2" NCoef="0" IVar="-1" Cut="0.0000000000000000e+00" cType="1" res="-4.9772800412029028e-04" rms="4.6399763226509094e-01" purity="5.6403225660324097e-01" nType="-99"/>
        </Node>
      </Node>
    </BinaryTree>
    <BinaryTree type="DecisionTree" boostWeight="1.0000000000000000e+00" itree="719">
      <Node pos="s" depth="0" NCoef="0" IVar="4" Cut="9.7629863023757935e-01" cType="1" res="8.8402675464749336e-04" rms="4.6286398172378540e-01" purity="5.0021028518676758e-01" nType="0">
        <Node pos="l" depth="1" NCoef="0" IVar="1" Cut="7.9654276371002197e-01" cType="1" res="-4.4253105297684669e-03" rms="4.6875837445259094e-01" purity="4.5251059532165527e-01" nType="0">
          <Node pos="l" depth="2" NCoef="0" IVar="-1" Cut="0.0000000000000000e+00" cType="1" res="-3.0321400845423341e-04" rms="4.6719032526016235e-01" purity="4.2547833919525146e-01" nType="-99"/>
          <Node pos="r" depth="2" NCoef="0" IVar="-1" Cut="0.0000000000000000e+00" cType="1" res="4.7680921852588654e-04" rms="4.7562584280967712e-01" purity="5.8326590061187744e-01" nType="-99"/>
        </Node>
        <Node pos="r" depth="1" NCoef="0" IVar="4" Cut="9.8764038085937500e-01" cType="1" res="2.3845706135034561e-02" rms="4.3571215867996216e-01" purity="7.0650070905685425e-01" nType="0">
          <Node pos="l" depth="2" NCoef="0" IVar="-1" Cut="0.0000000000000000e+00" cType="1" res="3.1588930869475007e-04" rms="4.5170739293098450e-01" purity="6.6724222898483276e-01" nType="-99"/>
          <Node pos="r" depth="2" NCoef="0" IVar="-1" Cut="0.0000000000000000e+00" cType="1" res="1.0297297267243266e-03" rms="4.1373983025550842e-01" purity="7.5692260265350342e-01" nType="-99"/>
        </Node>
      </Node>
    </BinaryTree>
    <BinaryTree type="DecisionTree" boostWeight="1.0000000000000000e+00" itree="720">
      <Node pos="s" depth="0" NCoef="0" IVar="4" Cut="9.8545533418655396e-01" cType="1" res="2.4115703126881272e-04" rms="4.6463611721992493e-01" purity="4.9805623292922974e-01" nType="0">
        <Node pos="l" depth="1" NCoef="0" IVar="8" Cut="1.1708897352218628e+00" cType="1" res="-2.9328952077776194e-03" rms="4.6929138898849487e-01" purity="4.7104308009147644e-01" nType="0">
          <Node pos="l" depth="2" NCoef="0" IVar="-1" Cut="0.0000000000000000e+00" cType="1" res="1.4293658023234457e-04" rms="4.7333404421806335e-01" purity="5.0669842958450317e-01" nType="-99"/>
          <Node pos="r" depth="2" NCoef="0" IVar="-1" Cut="0.0000000000000000e+00" cType="1" res="-5.1223754417151213e-04" rms="4.6271911263465881e-01" purity="4.1595306992530823e-01" nType="-99"/>
        </Node>
        <Node pos="r" depth="1" NCoef="0" IVar="-1" Cut="0.0000000000000000e+00" cType="1" res="7.7716069063171744e-04" rms="4.1851398348808289e-01" purity="7.4532032012939453e-01" nType="-99"/>
      </Node>
    </BinaryTree>
    <BinaryTree type="DecisionTree" boostWeight="1.0000000000000000e+00" itree="721">
      <Node pos="s" depth="0" NCoef="0" IVar="0" Cut="2.2395765781402588e-01" cType="1" res="6.2625179998576641e-03" rms="4.6506676077842712e-01" purity="5.0403571128845215e-01" nType="0">
        <Node pos="l" depth="1" NCoef="0" IVar="1" Cut="4.1338822245597839e-01" cType="1" res="3.4318026155233383e-03" rms="4.6483817696571350e-01" purity="4.9463376402854919e-01" nType="0">
          <Node pos="l" depth="2" NCoef="0" IVar="-1" Cut="0.0000000000000000e+00" cType="1" res="-2.2161717060953379e-03" rms="4.3396735191345215e-01" purity="2.8592413663864136e-01" nType="-99"/>
          <Node pos="r" depth="2" NCoef="0" IVar="-1" Cut="0.0000000000000000e+00" cType="1" res="2.1069189824629575e-04" rms="4.6675062179565430e-01" purity="5.0947183370590210e-01" nType="-99"/>
        </Node>
        <Node pos="r" depth="1" NCoef="0" IVar="-1" Cut="0.0000000000000000e+00" cType="1" res="1.0782893514260650e-03" rms="4.6646767854690552e-01" purity="6.2187862396240234e-01" nType="-99"/>
      </Node>
    </BinaryTree>
    <BinaryTree type="DecisionTree" boostWeight="1.0000000000000000e+00" itree="722">
      <Node pos="s" depth="0" NCoef="0" IVar="1" Cut="8.6615097522735596e-01" cType="1" res="7.0549524389207363e-03" rms="4.6471348404884338e-01" purity="5.0491440296173096e-01" nType="0">
        <Node pos="l" depth="1" NCoef="0" IVar="6" Cut="7.1312807500362396e-02" cType="1" res="4.3102642521262169e-03" rms="4.6550089120864868e-01" purity="4.9263575673103333e-01" nType="0">
          <Node pos="l" depth="2" NCoef="0" IVar="-1" Cut="0.0000000000000000e+00" cType="1" res="-2.2196212376002222e-04" rms="4.6365344524383545e-01" purity="4.5220494270324707e-01" nType="-99"/>
          <Node pos="r" depth="2" NCoef="0" IVar="-1" Cut="0.0000000000000000e+00" cType="1" res="3.8040115032345057e-04" rms="4.6676146984100342e-01" purity="5.2431470155715942e-01" nType="-99"/>
        </Node>
        <Node pos="r" depth="1" NCoef="0" IVar="-1" Cut="0.0000000000000000e+00" cType="1" res="1.0663549182936549e-03" rms="4.5311558246612549e-01" purity="6.6127145290374756e-01" nType="-99"/>
      </Node>
    </BinaryTree>
    <BinaryTree type="DecisionTree" boostWeight="1.0000000000000000e+00" itree="723">
      <Node pos="s" depth="0" NCoef="0" IVar="4" Cut="9.0795499086380005e-01" cType="1" res="-3.1531550921499729e-03" rms="4.6358203887939453e-01" purity="4.9530309438705444e-01" nType="0">
        <Node pos="l" depth="1" NCoef="0" IVar="-1" Cut="0.0000000000000000e+00" cType="1" res="-1.4148120535537601e-03" rms="4.4077685475349426e-01" purity="3.1301757693290710e-01" nType="-99"/>
        <Node pos="r" depth="1" NCoef="0" IVar="4" Cut="9.8774856328964233e-01" cType="1" res="-1.1248673545196652e-03" rms="4.6496593952178955e-01" purity="5.0725185871124268e-01" nType="0">
          <Node pos="l" depth="2" NCoef="0" IVar="-1" Cut="0.0000000000000000e+00" cType="1" res="-1.1444136180216447e-04" rms="4.6895167231559753e-01" purity="4.8588621616363525e-01" nType="-99"/>
          <Node pos="r" depth="2" NCoef="0" IVar="-1" Cut="0.0000000000000000e+00" cType="1" res="7.4086181120947003e-04" rms="4.1648897528648376e-01" purity="7.4724763631820679e-01" nType="-99"/>
        </Node>
      </Node>
    </BinaryTree>
    <BinaryTree type="DecisionTree" boostWeight="1.0000000000000000e+00" itree="724">
      <Node pos="s" depth="0" NCoef="0" IVar="4" Cut="9.4472122192382812e-01" cType="1" res="-3.8038651109673083e-04" rms="4.6385535597801208e-01" purity="4.9784544110298157e-01" nType="0">
        <Node pos="l" depth="1" NCoef="0" IVar="3" Cut="7.5074989318847656e+01" cType="1" res="-1.6399119049310684e-02" rms="4.6236574649810791e-01" purity="3.7537419795989990e-01" nType="0">
          <Node pos="l" depth="2" NCoef="0" IVar="-1" Cut="0.0000000000000000e+00" cType="1" res="4.3465079215820879e-06" rms="4.6494162082672119e-01" purity="3.8360983133316040e-01" nType="-99"/>
          <Node pos="r" depth="2" NCoef="0" IVar="-1" Cut="0.0000000000000000e+00" cType="1" res="-9.6811534604057670e-04" rms="4.6048885583877563e-01" purity="3.7033128738403320e-01" nType="-99"/>
        </Node>
        <Node pos="r" depth="1" NCoef="0" IVar="2" Cut="6.4348901367187500e+02" cType="1" res="9.4278603792190552e-03" rms="4.6449247002601624e-01" purity="5.7283443212509155e-01" nType="0">
          <Node pos="l" depth="2" NCoef="0" IVar="-1" Cut="0.0000000000000000e+00" cType="1" res="6.3943713030312210e-05" rms="4.6823069453239441e-01" purity="5.3548300266265869e-01" nType="-99"/>
          <Node pos="r" depth="2" NCoef="0" IVar="-1" Cut="0.0000000000000000e+00" cType="1" res="7.3588785016909242e-04" rms="4.5427727699279785e-01" purity="6.6828519105911255e-01" nType="-99"/>
        </Node>
      </Node>
    </BinaryTree>
    <BinaryTree type="DecisionTree" boostWeight="1.0000000000000000e+00" itree="725">
      <Node pos="s" depth="0" NCoef="0" IVar="5" Cut="6.0360312461853027e-01" cType="1" res="1.7905655549839139e-03" rms="4.6364837884902954e-01" purity="5.0016510486602783e-01" nType="0">
        <Node pos="l" depth="1" NCoef="0" IVar="3" Cut="1.3938224792480469e+02" cType="1" res="-2.6194646488875151e-03" rms="4.6272993087768555e-01" purity="4.8435083031654358e-01" nType="0">
          <Node pos="l" depth="2" NCoef="0" IVar="-1" Cut="0.0000000000000000e+00" cType="1" res="-1.8430777708999813e-04" rms="4.6348449587821960e-01" purity="4.7295984625816345e-01" nType="-99"/>
          <Node pos="r" depth="2" NCoef="0" IVar="-1" Cut="0.0000000000000000e+00" cType="1" res="7.2589301271364093e-04" rms="4.5490163564682007e-01" purity="5.8676332235336304e-01" nType="-99"/>
        </Node>
        <Node pos="r" depth="1" NCoef="0" IVar="1" Cut="6.9560867547988892e-01" cType="1" res="2.3719545453786850e-02" rms="4.6757128834724426e-01" purity="5.7880151271820068e-01" nType="0">
          <Node pos="l" depth="2" NCoef="0" IVar="-1" Cut="0.0000000000000000e+00" cType="1" res="9.8334676295053214e-05" rms="4.7090381383895874e-01" purity="5.2679151296615601e-01" nType="-99"/>
          <Node pos="r" depth="2" NCoef="0" IVar="-1" Cut="0.0000000000000000e+00" cType="1" res="8.7729940423741937e-04" rms="4.6572253108024597e-01" purity="6.0284459590911865e-01" nType="-99"/>
        </Node>
      </Node>
    </BinaryTree>
    <BinaryTree type="DecisionTree" boostWeight="1.0000000000000000e+00" itree="726">
      <Node pos="s" depth="0" NCoef="0" IVar="6" Cut="2.0409421622753143e-01" cType="1" res="5.5482971947640181e-04" rms="4.6450713276863098e-01" purity="4.9827158451080322e-01" nType="0">
        <Node pos="l" depth="1" NCoef="0" IVar="0" Cut="1.6992336511611938e-01" cType="1" res="-2.7937169652432203e-03" rms="4.6462100744247437e-01" purity="4.8905286192893982e-01" nType="0">
          <Node pos="l" depth="2" NCoef="0" IVar="-1" Cut="0.0000000000000000e+00" cType="1" res="-2.5756791001185775e-04" rms="4.6391952037811279e-01" purity="4.6877017617225647e-01" nType="-99"/>
          <Node pos="r" depth="2" NCoef="0" IVar="-1" Cut="0.0000000000000000e+00" cType="1" res="6.5207603620365262e-04" rms="4.6731105446815491e-01" purity="5.9440845251083374e-01" nType="-99"/>
        </Node>
        <Node pos="r" depth="1" NCoef="0" IVar="-1" Cut="0.0000000000000000e+00" cType="1" res="9.0771517716348171e-04" rms="4.6210616827011108e-01" purity="5.8864885568618774e-01" nType="-99"/>
      </Node>
    </BinaryTree>
    <BinaryTree type="DecisionTree" boostWeight="1.0000000000000000e+00" itree="727">
      <Node pos="s" depth="0" NCoef="0" IVar="0" Cut="-1.1616827547550201e-01" cType="1" res="3.5661256406456232e-03" rms="4.6486547589302063e-01" purity="5.0219208002090454e-01" nType="0">
        <Node pos="l" depth="1" NCoef="0" IVar="-1" Cut="0.0000000000000000e+00" cType="1" res="-1.7309164395555854e-03" rms="4.4499671459197998e-01" purity="3.4432384371757507e-01" nType="-99"/>
        <Node pos="r" depth="1" NCoef="0" IVar="3" Cut="1.3407221984863281e+02" cType="1" res="6.0622626915574074e-03" rms="4.6580997109413147e-01" purity="5.1090812683105469e-01" nType="0">
          <Node pos="l" depth="2" NCoef="0" IVar="-1" Cut="0.0000000000000000e+00" cType="1" res="7.8290853707585484e-05" rms="4.6717098355293274e-01" purity="4.9884998798370361e-01" nType="-99"/>
          <Node pos="r" depth="2" NCoef="0" IVar="-1" Cut="0.0000000000000000e+00" cType="1" res="8.7026011897251010e-04" rms="4.5491710305213928e-01" purity="5.9909069538116455e-01" nType="-99"/>
        </Node>
      </Node>
    </BinaryTree>
    <BinaryTree type="DecisionTree" boostWeight="1.0000000000000000e+00" itree="728">
      <Node pos="s" depth="0" NCoef="0" IVar="0" Cut="1.7107942700386047e-01" cType="1" res="-3.2857627957127988e-04" rms="4.6569198369979858e-01" purity="4.9744772911071777e-01" nType="0">
        <Node pos="l" depth="1" NCoef="0" IVar="8" Cut="6.7107474803924561e-01" cType="1" res="-4.0970747359097004e-03" rms="4.6477401256561279e-01" purity="4.8153740167617798e-01" nType="0">
          <Node pos="l" depth="2" NCoef="0" IVar="-1" Cut="0.0000000000000000e+00" cType="1" res="4.8602590686641634e-04" rms="4.6621754765510559e-01" purity="5.5698192119598389e-01" nType="-99"/>
          <Node pos="r" depth="2" NCoef="0" IVar="-1" Cut="0.0000000000000000e+00" cType="1" res="-2.4658141774125397e-04" rms="4.6443200111389160e-01" purity="4.6864688396453857e-01" nType="-99"/>
        </Node>
        <Node pos="r" depth="1" NCoef="0" IVar="0" Cut="2.3243474960327148e-01" cType="1" res="2.1995531395077705e-02" rms="4.7047463059425354e-01" purity="5.9169846773147583e-01" nType="0">
          <Node pos="l" depth="2" NCoef="0" IVar="-1" Cut="0.0000000000000000e+00" cType="1" res="1.9548035925254226e-04" rms="4.7197878360748291e-01" purity="5.6736171245574951e-01" nType="-99"/>
          <Node pos="r" depth="2" NCoef="0" IVar="-1" Cut="0.0000000000000000e+00" cType="1" res="1.0754746617749333e-03" rms="4.6776926517486572e-01" purity="6.2363290786743164e-01" nType="-99"/>
        </Node>
      </Node>
    </BinaryTree>
    <BinaryTree type="DecisionTree" boostWeight="1.0000000000000000e+00" itree="729">
      <Node pos="s" depth="0" NCoef="0" IVar="4" Cut="9.2199891805648804e-01" cType="1" res="3.2313680276274681e-03" rms="4.6306729316711426e-01" purity="5.0123375654220581e-01" nType="0">
        <Node pos="l" depth="1" NCoef="0" IVar="5" Cut="4.5281061530113220e-01" cType="1" res="-2.0758884027600288e-02" rms="4.4944107532501221e-01" purity="3.3374634385108948e-01" nType="0">
          <Node pos="l" depth="2" NCoef="0" IVar="-1" Cut="0.0000000000000000e+00" cType="1" res="-1.5828819014132023e-03" rms="4.3614107370376587e-01" purity="2.9641863703727722e-01" nType="-99"/>
          <Node pos="r" depth="2" NCoef="0" IVar="-1" Cut="0.0000000000000000e+00" cType="1" res="2.5791348889470100e-04" rms="4.7161033749580383e-01" purity="4.0241459012031555e-01" nType="-99"/>
        </Node>
        <Node pos="r" depth="1" NCoef="0" IVar="0" Cut="8.0154187977313995e-02" cType="1" res="7.3271160945296288e-03" rms="4.6523016691207886e-01" purity="5.2982813119888306e-01" nType="0">
          <Node pos="l" depth="2" NCoef="0" IVar="-1" Cut="0.0000000000000000e+00" cType="1" res="5.3841446060687304e-05" rms="4.6535310149192810e-01" purity="5.0105512142181396e-01" nType="-99"/>
          <Node pos="r" depth="2" NCoef="0" IVar="-1" Cut="0.0000000000000000e+00" cType="1" res="5.3755554836243391e-04" rms="4.6470826864242554e-01" purity="5.9463202953338623e-01" nType="-99"/>
        </Node>
      </Node>
    </BinaryTree>
    <BinaryTree type="DecisionTree" boostWeight="1.0000000000000000e+00" itree="730">
      <Node pos="s" depth="0" NCoef="0" IVar="1" Cut="7.7090799808502197e-01" cType="1" res="-6.6296476870775223e-04" rms="4.6293288469314575e-01" purity="4.9857637286186218e-01" nType="0">
        <Node pos="l" depth="1" NCoef="0" IVar="0" Cut="-5.8842219412326813e-02" cType="1" res="-6.2837987206876278e-03" rms="4.6287253499031067e-01" purity="4.6318769454956055e-01" nType="0">
          <Node pos="l" depth="2" NCoef="0" IVar="-1" Cut="0.0000000000000000e+00" cType="1" res="-1.4493827475234866e-03" rms="4.4547370076179504e-01" purity="3.3507779240608215e-01" nType="-99"/>
          <Node pos="r" depth="2" NCoef="0" IVar="-1" Cut="0.0000000000000000e+00" cType="1" res="1.0535094043007120e-04" rms="4.6812930703163147e-01" purity="5.0595134496688843e-01" nType="-99"/>
        </Node>
        <Node pos="r" depth="1" NCoef="0" IVar="5" Cut="4.3778601288795471e-01" cType="1" res="1.8630681559443474e-02" rms="4.6262073516845703e-01" purity="6.2004888057708740e-01" nType="0">
          <Node pos="l" depth="2" NCoef="0" IVar="-1" Cut="0.0000000000000000e+00" cType="1" res="-1.0019059845944867e-04" rms="4.6641483902931213e-01" purity="6.1036008596420288e-01" nType="-99"/>
          <Node pos="r" depth="2" NCoef="0" IVar="-1" Cut="0.0000000000000000e+00" cType="1" res="9.0437498874962330e-04" rms="4.5924517512321472e-01" purity="6.2693625688552856e-01" nType="-99"/>
        </Node>
      </Node>
    </BinaryTree>
    <BinaryTree type="DecisionTree" boostWeight="1.0000000000000000e+00" itree="731">
      <Node pos="s" depth="0" NCoef="0" IVar="1" Cut="8.6615097522735596e-01" cType="1" res="2.7350937016308308e-03" rms="4.6513393521308899e-01" purity="5.0070929527282715e-01" nType="0">
        <Node pos="l" depth="1" NCoef="0" IVar="0" Cut="2.2428949177265167e-01" cType="1" res="-1.3914021837990731e-04" rms="4.6603181958198547e-01" purity="4.8811551928520203e-01" nType="0">
          <Node pos="l" depth="2" NCoef="0" IVar="-1" Cut="0.0000000000000000e+00" cType="1" res="-1.0394929995527491e-04" rms="4.6606495976448059e-01" purity="4.7663420438766479e-01" nType="-99"/>
          <Node pos="r" depth="2" NCoef="0" IVar="-1" Cut="0.0000000000000000e+00" cType="1" res="9.4989675562828779e-04" rms="4.6409502625465393e-01" purity="6.2148576974868774e-01" nType="-99"/>
        </Node>
        <Node pos="r" depth="1" NCoef="0" IVar="-1" Cut="0.0000000000000000e+00" cType="1" res="9.9190720357000828e-04" rms="4.5220270752906799e-01" purity="6.5834033489227295e-01" nType="-99"/>
      </Node>
    </BinaryTree>
    <BinaryTree type="DecisionTree" boostWeight="1.0000000000000000e+00" itree="732">
      <Node pos="s" depth="0" NCoef="0" IVar="0" Cut="2.2462564706802368e-01" cType="1" res="-9.1894133947789669e-04" rms="4.6458169817924500e-01" purity="4.9777662754058838e-01" nType="0">
        <Node pos="l" depth="1" NCoef="0" IVar="1" Cut="5.3181117773056030e-01" cType="1" res="-3.3796736970543861e-03" rms="4.6461728215217590e-01" purity="4.8827815055847168e-01" nType="0">
          <Node pos="l" depth="2" NCoef="0" IVar="-1" Cut="0.0000000000000000e+00" cType="1" res="-9.0054864995181561e-04" rms="4.5080238580703735e-01" purity="3.5396796464920044e-01" nType="-99"/>
          <Node pos="r" depth="2" NCoef="0" IVar="-1" Cut="0.0000000000000000e+00" cType="1" res="8.3776474639307708e-05" rms="4.6881639957427979e-01" purity="5.3160548210144043e-01" nType="-99"/>
        </Node>
        <Node pos="r" depth="1" NCoef="0" IVar="-1" Cut="0.0000000000000000e+00" cType="1" res="7.9061306314542890e-04" rms="4.6302866935729980e-01" purity="6.1678349971771240e-01" nType="-99"/>
      </Node>
    </BinaryTree>
    <BinaryTree type="DecisionTree" boostWeight="1.0000000000000000e+00" itree="733">
      <Node pos="s" depth="0" NCoef="0" IVar="8" Cut="6.8974155187606812e-01" cType="1" res="1.2636160245165229e-03" rms="4.6418577432632446e-01" purity="4.9999201297760010e-01" nType="0">
        <Node pos="l" depth="1" NCoef="0" IVar="2" Cut="5.2212805175781250e+02" cType="1" res="2.2110452875494957e-02" rms="4.6513760089874268e-01" purity="5.7109260559082031e-01" nType="0">
          <Node pos="l" depth="2" NCoef="0" IVar="-1" Cut="0.0000000000000000e+00" cType="1" res="1.2562779011204839e-04" rms="4.7282686829566956e-01" purity="4.7667470574378967e-01" nType="-99"/>
          <Node pos="r" depth="2" NCoef="0" IVar="-1" Cut="0.0000000000000000e+00" cType="1" res="8.6860283045098186e-04" rms="4.6057602763175964e-01" purity="6.2276947498321533e-01" nType="-99"/>
        </Node>
        <Node pos="r" depth="1" NCoef="0" IVar="4" Cut="9.4017672538757324e-01" cType="1" res="-2.7974059339612722e-03" rms="4.6389108896255493e-01" purity="4.8614147305488586e-01" nType="0">
          <Node pos="l" depth="2" NCoef="0" IVar="-1" Cut="0.0000000000000000e+00" cType="1" res="-6.1980535974726081e-04" rms="4.5704713463783264e-01" purity="3.5807588696479797e-01" nType="-99"/>
          <Node pos="r" depth="2" NCoef="0" IVar="-1" Cut="0.0000000000000000e+00" cType="1" res="1.0608937009237707e-04" rms="4.6693786978721619e-01" purity="5.4643189907073975e-01" nType="-99"/>
        </Node>
      </Node>
    </BinaryTree>
    <BinaryTree type="DecisionTree" boostWeight="1.0000000000000000e+00" itree="734">
      <Node pos="s" depth="0" NCoef="0" IVar="2" Cut="9.4368658447265625e+02" cType="1" res="-7.4522412614896894e-04" rms="4.6442905068397522e-01" purity="4.9737501144409180e-01" nType="0">
        <Node pos="l" depth="1" NCoef="0" IVar="2" Cut="3.7550366210937500e+02" cType="1" res="-3.3543335739523172e-03" rms="4.6487575769424438e-01" purity="4.8778542876243591e-01" nType="0">
          <Node pos="l" depth="2" NCoef="0" IVar="-1" Cut="0.0000000000000000e+00" cType="1" res="-1.4933201018720865e-03" rms="4.3277478218078613e-01" purity="3.0503189563751221e-01" nType="-99"/>
          <Node pos="r" depth="2" NCoef="0" IVar="-1" Cut="0.0000000000000000e+00" cType="1" res="-1.0607665217321482e-06" rms="4.6806305646896362e-01" purity="5.0736647844314575e-01" nType="-99"/>
        </Node>
        <Node pos="r" depth="1" NCoef="0" IVar="-1" Cut="0.0000000000000000e+00" cType="1" res="1.0329299839213490e-03" rms="4.5588806271553040e-01" purity="6.4121532440185547e-01" nType="-99"/>
      </Node>
    </BinaryTree>
    <BinaryTree type="DecisionTree" boostWeight="1.0000000000000000e+00" itree="735">
      <Node pos="s" depth="0" NCoef="0" IVar="5" Cut="6.7869091033935547e-01" cType="1" res="-2.8558571357280016e-03" rms="4.6397507190704346e-01" purity="4.9439132213592529e-01" nType="0">
        <Node pos="l" depth="1" NCoef="0" IVar="7" Cut="9.0405891418457031e+01" cType="1" res="-5.3215837106108665e-03" rms="4.6390768885612488e-01" purity="4.8597389459609985e-01" nType="0">
          <Node pos="l" depth="2" NCoef="0" IVar="-1" Cut="0.0000000000000000e+00" cType="1" res="-4.7482855734415352e-04" rms="4.6495264768600464e-01" purity="4.5894885063171387e-01" nType="-99"/>
          <Node pos="r" depth="2" NCoef="0" IVar="-1" Cut="0.0000000000000000e+00" cType="1" res="5.3209001634968445e-05" rms="4.6300041675567627e-01" purity="5.0615769624710083e-01" nType="-99"/>
        </Node>
        <Node pos="r" depth="1" NCoef="0" IVar="-1" Cut="0.0000000000000000e+00" cType="1" res="6.5628177253529429e-04" rms="4.6387240290641785e-01" purity="5.8483266830444336e-01" nType="-99"/>
      </Node>
    </BinaryTree>
    <BinaryTree type="DecisionTree" boostWeight="1.0000000000000000e+00" itree="736">
      <Node pos="s" depth="0" NCoef="0" IVar="8" Cut="7.8580349683761597e-01" cType="1" res="-1.3891095295548439e-03" rms="4.6558338403701782e-01" purity="4.9484208226203918e-01" nType="0">
        <Node pos="l" depth="1" NCoef="0" IVar="2" Cut="4.4919097900390625e+02" cType="1" res="1.2288929894566536e-02" rms="4.6708378195762634e-01" purity="5.5479484796524048e-01" nType="0">
          <Node pos="l" depth="2" NCoef="0" IVar="-1" Cut="0.0000000000000000e+00" cType="1" res="-3.4376242547295988e-04" rms="4.6708357334136963e-01" purity="4.2031878232955933e-01" nType="-99"/>
          <Node pos="r" depth="2" NCoef="0" IVar="-1" Cut="0.0000000000000000e+00" cType="1" res="5.1069923210889101e-04" rms="4.6688967943191528e-01" purity="5.9200209379196167e-01" nType="-99"/>
        </Node>
        <Node pos="r" depth="1" NCoef="0" IVar="6" Cut="7.1618884801864624e-02" cType="1" res="-5.8625275269150734e-03" rms="4.6500432491302490e-01" purity="4.7523450851440430e-01" nType="0">
          <Node pos="l" depth="2" NCoef="0" IVar="-1" Cut="0.0000000000000000e+00" cType="1" res="-5.5896892445161939e-04" rms="4.6149453520774841e-01" purity="4.2449983954429626e-01" nType="-99"/>
          <Node pos="r" depth="2" NCoef="0" IVar="-1" Cut="0.0000000000000000e+00" cType="1" res="3.1115985620999709e-05" rms="4.6720540523529053e-01" purity="5.0910305976867676e-01" nType="-99"/>
        </Node>
      </Node>
    </BinaryTree>
    <BinaryTree type="DecisionTree" boostWeight="1.0000000000000000e+00" itree="737">
      <Node pos="s" depth="0" NCoef="0" IVar="5" Cut="4.2030930519104004e-01" cType="1" res="5.5441139265894890e-03" rms="4.6453869342803955e-01" purity="5.0237995386123657e-01" nType="0">
        <Node pos="l" depth="1" NCoef="0" IVar="2" Cut="8.2636584472656250e+02" cType="1" res="-2.3817901965230703e-03" rms="4.6192961931228638e-01" purity="4.6132037043571472e-01" nType="0">
          <Node pos="l" depth="2" NCoef="0" IVar="-1" Cut="0.0000000000000000e+00" cType="1" res="-2.3411422444041818e-04" rms="4.6190142631530762e-01" purity="4.3701833486557007e-01" nType="-99"/>
          <Node pos="r" depth="2" NCoef="0" IVar="-1" Cut="0.0000000000000000e+00" cType="1" res="7.2084681596606970e-04" rms="4.6108022332191467e-01" purity="6.1203396320343018e-01" nType="-99"/>
        </Node>
        <Node pos="r" depth="1" NCoef="0" IVar="8" Cut="7.5929605960845947e-01" cType="1" res="1.5511468052864075e-02" rms="4.6760848164558411e-01" purity="5.5401504039764404e-01" nType="0">
          <Node pos="l" depth="2" NCoef="0" IVar="-1" Cut="0.0000000000000000e+00" cType="1" res="9.2962488997727633e-04" rms="4.6219351887702942e-01" purity="6.1138319969177246e-01" nType="-99"/>
          <Node pos="r" depth="2" NCoef="0" IVar="-1" Cut="0.0000000000000000e+00" cType="1" res="3.0361872632056475e-04" rms="4.6887022256851196e-01" purity="5.3916621208190918e-01" nType="-99"/>
        </Node>
      </Node>
    </BinaryTree>
    <BinaryTree type="DecisionTree" boostWeight="1.0000000000000000e+00" itree="738">
      <Node pos="s" depth="0" NCoef="0" IVar="3" Cut="7.4222618103027344e+01" cType="1" res="4.3132044374942780e-03" rms="4.6527057886123657e-01" purity="5.0191783905029297e-01" nType="0">
        <Node pos="l" depth="1" NCoef="0" IVar="0" Cut="-9.3184448778629303e-02" cType="1" res="1.8052106723189354e-02" rms="4.6669873595237732e-01" purity="5.0987052917480469e-01" nType="0">
          <Node pos="l" depth="2" NCoef="0" IVar="-1" Cut="0.0000000000000000e+00" cType="1" res="-6.6170137142762542e-04" rms="4.5179742574691772e-01" purity="3.9206048846244812e-01" nType="-99"/>
          <Node pos="r" depth="2" NCoef="0" IVar="-1" Cut="0.0000000000000000e+00" cType="1" res="6.9052283652126789e-04" rms="4.6877706050872803e-01" purity="5.2867674827575684e-01" nType="-99"/>
        </Node>
        <Node pos="r" depth="1" NCoef="0" IVar="2" Cut="5.3317089843750000e+02" cType="1" res="-3.8533019833266735e-03" rms="4.6422696113586426e-01" purity="4.9719074368476868e-01" nType="0">
          <Node pos="l" depth="2" NCoef="0" IVar="-1" Cut="0.0000000000000000e+00" cType="1" res="-5.3102499805390835e-04" rms="4.6016821265220642e-01" purity="4.0501525998115540e-01" nType="-99"/>
          <Node pos="r" depth="2" NCoef="0" IVar="-1" Cut="0.0000000000000000e+00" cType="1" res="1.4427883434109390e-04" rms="4.6721315383911133e-01" purity="5.6995093822479248e-01" nType="-99"/>
        </Node>
      </Node>
    </BinaryTree>
    <BinaryTree type="DecisionTree" boostWeight="1.0000000000000000e+00" itree="739">
      <Node pos="s" depth="0" NCoef="0" IVar="3" Cut="1.5134410095214844e+02" cType="1" res="4.7958809882402420e-03" rms="4.6337953209877014e-01" purity="5.0421488285064697e-01" nType="0">
        <Node pos="l" depth="1" NCoef="0" IVar="0" Cut="8.0490596592426300e-02" cType="1" res="1.6653278144076467e-03" rms="4.6465587615966797e-01" purity="4.9480625987052917e-01" nType="0">
          <Node pos="l" depth="2" NCoef="0" IVar="-1" Cut="0.0000000000000000e+00" cType="1" res="-1.7215496336575598e-04" rms="4.6244820952415466e-01" purity="4.6520265936851501e-01" nType="-99"/>
          <Node pos="r" depth="2" NCoef="0" IVar="-1" Cut="0.0000000000000000e+00" cType="1" res="4.8121539293788373e-04" rms="4.6916171908378601e-01" purity="5.6074100732803345e-01" nType="-99"/>
        </Node>
        <Node pos="r" depth="1" NCoef="0" IVar="-1" Cut="0.0000000000000000e+00" cType="1" res="1.3199519598856568e-03" rms="4.4234409928321838e-01" purity="6.3856518268585205e-01" nType="-99"/>
      </Node>
    </BinaryTree>
    <BinaryTree type="DecisionTree" boostWeight="1.0000000000000000e+00" itree="740">
      <Node pos="s" depth="0" NCoef="0" IVar="1" Cut="4.3692710995674133e-01" cType="1" res="1.7198256682604551e-03" rms="4.6474543213844299e-01" purity="5.0008195638656616e-01" nType="0">
        <Node pos="l" depth="1" NCoef="0" IVar="0" Cut="1.8833976984024048e-01" cType="1" res="-2.6108684018254280e-02" rms="4.4529297947883606e-01" purity="3.8846576213836670e-01" nType="0">
          <Node pos="l" depth="2" NCoef="0" IVar="-1" Cut="0.0000000000000000e+00" cType="1" res="-1.9818812143057585e-03" rms="4.2306140065193176e-01" purity="2.7003329992294312e-01" nType="-99"/>
          <Node pos="r" depth="2" NCoef="0" IVar="-1" Cut="0.0000000000000000e+00" cType="1" res="-2.3839552886784077e-04" rms="4.7174924612045288e-01" purity="5.4073810577392578e-01" nType="-99"/>
        </Node>
        <Node pos="r" depth="1" NCoef="0" IVar="0" Cut="8.8868640363216400e-02" cType="1" res="5.8073122054338455e-03" rms="4.6739494800567627e-01" purity="5.1647633314132690e-01" nType="0">
          <Node pos="l" depth="2" NCoef="0" IVar="-1" Cut="0.0000000000000000e+00" cType="1" res="2.7438472898211330e-05" rms="4.6669071912765503e-01" purity="4.9463754892349243e-01" nType="-99"/>
          <Node pos="r" depth="2" NCoef="0" IVar="-1" Cut="0.0000000000000000e+00" cType="1" res="5.7929661124944687e-04" rms="4.6926242113113403e-01" purity="5.8497780561447144e-01" nType="-99"/>
        </Node>
      </Node>
    </BinaryTree>
    <BinaryTree type="DecisionTree" boostWeight="1.0000000000000000e+00" itree="741">
      <Node pos="s" depth="0" NCoef="0" IVar="0" Cut="-6.2268532812595367e-02" cType="1" res="1.1138669215142727e-03" rms="4.6377807855606079e-01" purity="5.0001716613769531e-01" nType="0">
        <Node pos="l" depth="1" NCoef="0" IVar="1" Cut="7.4851906299591064e-01" cType="1" res="-1.7285887151956558e-02" rms="4.5378655195236206e-01" purity="4.2558112740516663e-01" nType="0">
          <Node pos="l" depth="2" NCoef="0" IVar="-1" Cut="0.0000000000000000e+00" cType="1" res="-1.2799362884834409e-03" rms="4.4405874609947205e-01" purity="3.2867935299873352e-01" nType="-99"/>
          <Node pos="r" depth="2" NCoef="0" IVar="-1" Cut="0.0000000000000000e+00" cType="1" res="1.1650611850200221e-04" rms="4.6839198470115662e-01" purity="5.8331447839736938e-01" nType="-99"/>
        </Node>
        <Node pos="r" depth="1" NCoef="0" IVar="4" Cut="9.2642617225646973e-01" cType="1" res="8.0686127766966820e-03" rms="4.6731042861938477e-01" purity="5.2815252542495728e-01" nType="0">
          <Node pos="l" depth="2" NCoef="0" IVar="-1" Cut="0.0000000000000000e+00" cType="1" res="-4.3520782492123544e-04" rms="4.6333646774291992e-01" purity="3.6770990490913391e-01" nType="-99"/>
          <Node pos="r" depth="2" NCoef="0" IVar="-1" Cut="0.0000000000000000e+00" cType="1" res="3.5104682319797575e-04" rms="4.6805450320243835e-01" purity="5.6296843290328979e-01" nType="-99"/>
        </Node>
      </Node>
    </BinaryTree>
    <BinaryTree type="DecisionTree" boostWeight="1.0000000000000000e+00" itree="742">
      <Node pos="s" depth="0" NCoef="0" IVar="5" Cut="6.2446963787078857e-01" cType="1" res="-1.4136175741441548e-04" rms="4.6537461876869202e-01" purity="4.9659651517868042e-01" nType="0">
        <Node pos="l" depth="1" NCoef="0" IVar="2" Cut="8.2235357666015625e+02" cType="1" res="-3.8300899323076010e-03" rms="4.6453943848609924e-01" purity="4.8370876908302307e-01" nType="0">
          <Node pos="l" depth="2" NCoef="0" IVar="-1" Cut="0.0000000000000000e+00" cType="1" res="-2.3982329003047198e-04" rms="4.6482664346694946e-01" purity="4.6522784233093262e-01" nType="-99"/>
          <Node pos="r" depth="2" NCoef="0" IVar="-1" Cut="0.0000000000000000e+00" cType="1" res="6.2103505479171872e-04" rms="4.6156617999076843e-01" purity="6.1861705780029297e-01" nType="-99"/>
        </Node>
        <Node pos="r" depth="1" NCoef="0" IVar="0" Cut="-2.5585994124412537e-02" cType="1" res="2.2036500275135040e-02" rms="4.6975451707839966e-01" purity="5.7408213615417480e-01" nType="0">
          <Node pos="l" depth="2" NCoef="0" IVar="-1" Cut="0.0000000000000000e+00" cType="1" res="1.0809922823682427e-03" rms="4.7353762388229370e-01" purity="5.5941855907440186e-01" nType="-99"/>
          <Node pos="r" depth="2" NCoef="0" IVar="-1" Cut="0.0000000000000000e+00" cType="1" res="2.5346863549202681e-04" rms="4.6648576855659485e-01" purity="5.8507770299911499e-01" nType="-99"/>
        </Node>
      </Node>
    </BinaryTree>
    <BinaryTree type="DecisionTree" boostWeight="1.0000000000000000e+00" itree="743">
      <Node pos="s" depth="0" NCoef="0" IVar="6" Cut="1.1405631154775620e-01" cType="1" res="1.8159337341785431e-03" rms="4.6509858965873718e-01" purity="4.9982622265815735e-01" nType="0">
        <Node pos="l" depth="1" NCoef="0" IVar="0" Cut="2.2413146495819092e-01" cType="1" res="-3.7217552307993174e-03" rms="4.6529847383499146e-01" purity="4.7309255599975586e-01" nType="0">
          <Node pos="l" depth="2" NCoef="0" IVar="-1" Cut="0.0000000000000000e+00" cType="1" res="-2.3690429225098342e-04" rms="4.6515104174613953e-01" purity="4.5736542344093323e-01" nType="-99"/>
          <Node pos="r" depth="2" NCoef="0" IVar="-1" Cut="0.0000000000000000e+00" cType="1" res="7.6433515641838312e-04" rms="4.6539455652236938e-01" purity="6.1838006973266602e-01" nType="-99"/>
        </Node>
        <Node pos="r" depth="1" NCoef="0" IVar="0" Cut="-3.4280806779861450e-02" cType="1" res="1.2524725869297981e-02" rms="4.6452459692955017e-01" purity="5.5152386426925659e-01" nType="0">
          <Node pos="l" depth="2" NCoef="0" IVar="-1" Cut="0.0000000000000000e+00" cType="1" res="-1.7605150060262531e-04" rms="4.6691766381263733e-01" purity="4.9610775709152222e-01" nType="-99"/>
          <Node pos="r" depth="2" NCoef="0" IVar="-1" Cut="0.0000000000000000e+00" cType="1" res="6.3924700953066349e-04" rms="4.6277529001235962e-01" purity="5.8412653207778931e-01" nType="-99"/>
        </Node>
      </Node>
    </BinaryTree>
    <BinaryTree type="DecisionTree" boostWeight="1.0000000000000000e+00" itree="744">
      <Node pos="s" depth="0" NCoef="0" IVar="3" Cut="1.5280619812011719e+02" cType="1" res="-1.5602273633703589e-03" rms="4.6374854445457458e-01" purity="4.9624994397163391e-01" nType="0">
        <Node pos="l" depth="1" NCoef="0" IVar="0" Cut="1.0693076997995377e-02" cType="1" res="-4.8131416551768780e-03" rms="4.6523058414459229e-01" purity="4.8654499650001526e-01" nType="0">
          <Node pos="l" depth="2" NCoef="0" IVar="-1" Cut="0.0000000000000000e+00" cType="1" res="-4.1822716593742371e-04" rms="4.6215060353279114e-01" purity="4.4405803084373474e-01" nType="-99"/>
          <Node pos="r" depth="2" NCoef="0" IVar="-1" Cut="0.0000000000000000e+00" cType="1" res="1.0828280210262164e-04" rms="4.6845763921737671e-01" purity="5.3342509269714355e-01" nType="-99"/>
        </Node>
        <Node pos="r" depth="1" NCoef="0" IVar="-1" Cut="0.0000000000000000e+00" cType="1" res="1.2766536092385650e-03" rms="4.3811514973640442e-01" purity="6.4140653610229492e-01" nType="-99"/>
      </Node>
    </BinaryTree>
    <BinaryTree type="DecisionTree" boostWeight="1.0000000000000000e+00" itree="745">
      <Node pos="s" depth="0" NCoef="0" IVar="8" Cut="6.9049024581909180e-01" cType="1" res="3.6834209458902478e-04" rms="4.6363255381584167e-01" purity="4.9892947077751160e-01" nType="0">
        <Node pos="l" depth="1" NCoef="0" IVar="0" Cut="5.0179734826087952e-03" cType="1" res="2.5258358567953110e-02" rms="4.6320638060569763e-01" purity="5.7642543315887451e-01" nType="0">
          <Node pos="l" depth="2" NCoef="0" IVar="-1" Cut="0.0000000000000000e+00" cType="1" res="8.0579093264532275e-06" rms="4.6763053536415100e-01" purity="5.1840215921401978e-01" nType="-99"/>
          <Node pos="r" depth="2" NCoef="0" IVar="-1" Cut="0.0000000000000000e+00" cType="1" res="1.3137443456798792e-03" rms="4.5746803283691406e-01" purity="6.3363081216812134e-01" nType="-99"/>
        </Node>
        <Node pos="r" depth="1" NCoef="0" IVar="3" Cut="1.4517813110351562e+02" cType="1" res="-4.5121419243514538e-03" rms="4.6355938911437988e-01" purity="4.8373392224311829e-01" nType="0">
          <Node pos="l" depth="2" NCoef="0" IVar="-1" Cut="0.0000000000000000e+00" cType="1" res="-2.3668206995353103e-04" rms="4.6466127038002014e-01" purity="4.7252777218818665e-01" nType="-99"/>
          <Node pos="r" depth="2" NCoef="0" IVar="-1" Cut="0.0000000000000000e+00" cType="1" res="7.2058354271575809e-04" rms="4.5085757970809937e-01" purity="5.9991288185119629e-01" nType="-99"/>
        </Node>
      </Node>
    </BinaryTree>
    <BinaryTree type="DecisionTree" boostWeight="1.0000000000000000e+00" itree="746">
      <Node pos="s" depth="0" NCoef="0" IVar="3" Cut="7.8065223693847656e+01" cType="1" res="4.5696333982050419e-03" rms="4.6432951092720032e-01" purity="5.0347095727920532e-01" nType="0">
        <Node pos="l" depth="1" NCoef="0" IVar="4" Cut="9.3586158752441406e-01" cType="1" res="1.6439512372016907e-02" rms="4.6546056866645813e-01" purity="5.0838065147399902e-01" nType="0">
          <Node pos="l" depth="2" NCoef="0" IVar="-1" Cut="0.0000000000000000e+00" cType="1" res="-1.1599155550356954e-04" rms="4.6107399463653564e-01" purity="3.6127462983131409e-01" nType="-99"/>
          <Node pos="r" depth="2" NCoef="0" IVar="-1" Cut="0.0000000000000000e+00" cType="1" res="6.6531053744256496e-04" rms="4.6686220169067383e-01" purity="5.6264531612396240e-01" nType="-99"/>
        </Node>
        <Node pos="r" depth="1" NCoef="0" IVar="2" Cut="6.0434106445312500e+02" cType="1" res="-3.7236574571579695e-03" rms="4.6335721015930176e-01" purity="5.0004065036773682e-01" nType="0">
          <Node pos="l" depth="2" NCoef="0" IVar="-1" Cut="0.0000000000000000e+00" cType="1" res="-4.7879287740215659e-04" rms="4.6227258443832397e-01" purity="4.3511891365051270e-01" nType="-99"/>
          <Node pos="r" depth="2" NCoef="0" IVar="-1" Cut="0.0000000000000000e+00" cType="1" res="3.2593458308838308e-04" rms="4.6448552608489990e-01" purity="5.9350615739822388e-01" nType="-99"/>
        </Node>
      </Node>
    </BinaryTree>
    <BinaryTree type="DecisionTree" boostWeight="1.0000000000000000e+00" itree="747">
      <Node pos="s" depth="0" NCoef="0" IVar="3" Cut="1.3315354919433594e+02" cType="1" res="1.0974502220051363e-04" rms="4.6447962522506714e-01" purity="4.9868035316467285e-01" nType="0">
        <Node pos="l" depth="1" NCoef="0" IVar="3" Cut="5.5667995452880859e+01" cType="1" res="-3.4832828678190708e-03" rms="4.6588596701622009e-01" purity="4.8616176843643188e-01" nType="0">
          <Node pos="l" depth="2" NCoef="0" IVar="-1" Cut="0.0000000000000000e+00" cType="1" res="6.2290974892675877e-04" rms="4.6344026923179626e-01" purity="5.2208566665649414e-01" nType="-99"/>
          <Node pos="r" depth="2" NCoef="0" IVar="-1" Cut="0.0000000000000000e+00" cType="1" res="-3.3133671968244016e-04" rms="4.6634241938591003e-01" purity="4.7596788406372070e-01" nType="-99"/>
        </Node>
        <Node pos="r" depth="1" NCoef="0" IVar="2" Cut="6.0143029785156250e+02" cType="1" res="2.4982148781418800e-02" rms="4.5384567975997925e-01" purity="5.8533918857574463e-01" nType="0">
          <Node pos="l" depth="2" NCoef="0" IVar="-1" Cut="0.0000000000000000e+00" cType="1" res="-8.8649503595661372e-05" rms="4.6337926387786865e-01" purity="4.8601761460304260e-01" nType="-99"/>
          <Node pos="r" depth="2" NCoef="0" IVar="-1" Cut="0.0000000000000000e+00" cType="1" res="1.2989024398848414e-03" rms="4.4368922710418701e-01" purity="6.7399728298187256e-01" nType="-99"/>
        </Node>
      </Node>
    </BinaryTree>
    <BinaryTree type="DecisionTree" boostWeight="1.0000000000000000e+00" itree="748">
      <Node pos="s" depth="0" NCoef="0" IVar="1" Cut="8.6369317770004272e-01" cType="1" res="2.8253893833607435e-03" rms="4.6551233530044556e-01" purity="5.0074630975723267e-01" nType="0">
        <Node pos="l" depth="1" NCoef="0" IVar="0" Cut="-9.3837156891822815e-03" cType="1" res="-1.2750084351864643e-05" rms="4.6620550751686096e-01" purity="4.8821508884429932e-01" nType="0">
          <Node pos="l" depth="2" NCoef="0" IVar="-1" Cut="0.0000000000000000e+00" cType="1" res="-4.2795462650246918e-04" rms="4.6313267946243286e-01" purity="4.2351788282394409e-01" nType="-99"/>
          <Node pos="r" depth="2" NCoef="0" IVar="-1" Cut="0.0000000000000000e+00" cType="1" res="2.7422976563684642e-04" rms="4.6833446621894836e-01" purity="5.3799533843994141e-01" nType="-99"/>
        </Node>
        <Node pos="r" depth="1" NCoef="0" IVar="-1" Cut="0.0000000000000000e+00" cType="1" res="9.5871777739375830e-04" rms="4.5547974109649658e-01" purity="6.5456432104110718e-01" nType="-99"/>
      </Node>
    </BinaryTree>
    <BinaryTree type="DecisionTree" boostWeight="1.0000000000000000e+00" itree="749">
      <Node pos="s" depth="0" NCoef="0" IVar="3" Cut="7.4222618103027344e+01" cType="1" res="7.5556471711024642e-04" rms="4.6321627497673035e-01" purity="5.0102519989013672e-01" nType="0">
        <Node pos="l" depth="1" NCoef="0" IVar="0" Cut="-8.5919253528118134e-02" cType="1" res="1.2638506479561329e-02" rms="4.6459975838661194e-01" purity="5.0634235143661499e-01" nType="0">
          <Node pos="l" depth="2" NCoef="0" IVar="-1" Cut="0.0000000000000000e+00" cType="1" res="-6.8454968277364969e-04" rms="4.5613977313041687e-01" purity="3.9038932323455811e-01" nType="-99"/>
          <Node pos="r" depth="2" NCoef="0" IVar="-1" Cut="0.0000000000000000e+00" cType="1" res="5.5391801288351417e-04" rms="4.6603712439537048e-01" purity="5.2976381778717041e-01" nType="-99"/>
        </Node>
        <Node pos="r" depth="1" NCoef="0" IVar="2" Cut="7.4967999267578125e+02" cType="1" res="-6.1951647512614727e-03" rms="4.6226355433464050e-01" purity="4.9791499972343445e-01" nType="0">
          <Node pos="l" depth="2" NCoef="0" IVar="-1" Cut="0.0000000000000000e+00" cType="1" res="-4.1247165063396096e-04" rms="4.6225062012672424e-01" purity="4.6791633963584900e-01" nType="-99"/>
          <Node pos="r" depth="2" NCoef="0" IVar="-1" Cut="0.0000000000000000e+00" cType="1" res="5.8835122035816312e-04" rms="4.6130016446113586e-01" purity="6.2099850177764893e-01" nType="-99"/>
        </Node>
      </Node>
    </BinaryTree>
    <BinaryTree type="DecisionTree" boostWeight="1.0000000000000000e+00" itree="750">
      <Node pos="s" depth="0" NCoef="0" IVar="4" Cut="9.0795218944549561e-01" cType="1" res="2.5835854467004538e-03" rms="4.6335685253143311e-01" purity="5.0191789865493774e-01" nType="0">
        <Node pos="l" depth="1" NCoef="0" IVar="-1" Cut="0.0000000000000000e+00" cType="1" res="-1.5991610707715154e-03" rms="4.4501283764839172e-01" purity="3.0539262294769287e-01" nType="-99"/>
        <Node pos="r" depth="1" NCoef="0" IVar="3" Cut="7.5239654541015625e+01" cType="1" res="5.1229228265583515e-03" rms="4.6437862515449524e-01" purity="5.1437377929687500e-01" nType="0">
          <Node pos="l" depth="2" NCoef="0" IVar="-1" Cut="0.0000000000000000e+00" cType="1" res="5.7768757687881589e-04" rms="4.6599647402763367e-01" purity="5.2464020252227783e-01" nType="-99"/>
          <Node pos="r" depth="2" NCoef="0" IVar="-1" Cut="0.0000000000000000e+00" cType="1" res="-1.1684258060995489e-04" rms="4.6314272284507751e-01" purity="5.0797802209854126e-01" nType="-99"/>
        </Node>
      </Node>
    </BinaryTree>
    <BinaryTree type="DecisionTree" boostWeight="1.0000000000000000e+00" itree="751">
      <Node pos="s" depth="0" NCoef="0" IVar="1" Cut="8.1486147642135620e-01" cType="1" res="-3.7030421663075686e-04" rms="4.6422812342643738e-01" purity="4.9871489405632019e-01" nType="0">
        <Node pos="l" depth="1" NCoef="0" IVar="4" Cut="9.8546969890594482e-01" cType="1" res="-3.6696684546768665e-03" rms="4.6464824676513672e-01" purity="4.7613406181335449e-01" nType="0">
          <Node pos="l" depth="2" NCoef="0" IVar="-1" Cut="0.0000000000000000e+00" cType="1" res="-1.9659614190459251e-04" rms="4.6810513734817505e-01" purity="4.5098164677619934e-01" nType="-99"/>
          <Node pos="r" depth="2" NCoef="0" IVar="-1" Cut="0.0000000000000000e+00" cType="1" res="5.2765023428946733e-04" rms="4.2858931422233582e-01" purity="7.2264260053634644e-01" nType="-99"/>
        </Node>
        <Node pos="r" depth="1" NCoef="0" IVar="4" Cut="9.5143848657608032e-01" cType="1" res="1.8594818189740181e-02" rms="4.6134826540946960e-01" purity="6.2851208448410034e-01" nType="0">
          <Node pos="l" depth="2" NCoef="0" IVar="-1" Cut="0.0000000000000000e+00" cType="1" res="2.1514118998311460e-05" rms="4.8602801561355591e-01" purity="5.2087843418121338e-01" nType="-99"/>
          <Node pos="r" depth="2" NCoef="0" IVar="-1" Cut="0.0000000000000000e+00" cType="1" res="8.2744268001988530e-04" rms="4.4062194228172302e-01" purity="7.1254009008407593e-01" nType="-99"/>
        </Node>
      </Node>
    </BinaryTree>
    <BinaryTree type="DecisionTree" boostWeight="1.0000000000000000e+00" itree="752">
      <Node pos="s" depth="0" NCoef="0" IVar="4" Cut="9.8561698198318481e-01" cType="1" res="-4.0276828804053366e-04" rms="4.6299088001251221e-01" purity="4.9867284297943115e-01" nType="0">
        <Node pos="l" depth="1" NCoef="0" IVar="8" Cut="1.4607859849929810e+00" cType="1" res="-3.5985540598630905e-03" rms="4.6735614538192749e-01" purity="4.7149616479873657e-01" nType="0">
          <Node pos="l" depth="2" NCoef="0" IVar="-1" Cut="0.0000000000000000e+00" cType="1" res="1.3384766134549864e-05" rms="4.7038748860359192e-01" purity="4.8947927355766296e-01" nType="-99"/>
          <Node pos="r" depth="2" NCoef="0" IVar="-1" Cut="0.0000000000000000e+00" cType="1" res="-7.3950632940977812e-04" rms="4.5392498373985291e-01" purity="3.9549490809440613e-01" nType="-99"/>
        </Node>
        <Node pos="r" depth="1" NCoef="0" IVar="-1" Cut="0.0000000000000000e+00" cType="1" res="7.6591846300289035e-04" rms="4.2015418410301208e-01" purity="7.4556863307952881e-01" nType="-99"/>
      </Node>
    </BinaryTree>
    <BinaryTree type="DecisionTree" boostWeight="1.0000000000000000e+00" itree="753">
      <Node pos="s" depth="0" NCoef="0" IVar="2" Cut="4.2421990966796875e+02" cType="1" res="3.2034066971391439e-03" rms="4.6515488624572754e-01" purity="5.0145316123962402e-01" nType="0">
        <Node pos="l" depth="1" NCoef="0" IVar="3" Cut="7.9161697387695312e+01" cType="1" res="-1.7030673101544380e-02" rms="4.4876685738563538e-01" purity="3.4724098443984985e-01" nType="0">
          <Node pos="l" depth="2" NCoef="0" IVar="-1" Cut="0.0000000000000000e+00" cType="1" res="-1.0177280637435615e-04" rms="4.5521995425224304e-01" purity="3.7834486365318298e-01" nType="-99"/>
          <Node pos="r" depth="2" NCoef="0" IVar="-1" Cut="0.0000000000000000e+00" cType="1" res="-1.5725676203146577e-03" rms="4.3907624483108521e-01" purity="3.0485466122627258e-01" nType="-99"/>
        </Node>
        <Node pos="r" depth="1" NCoef="0" IVar="3" Cut="1.3938224792480469e+02" cType="1" res="8.5982196033000946e-03" rms="4.6928036212921143e-01" purity="5.4256927967071533e-01" nType="0">
          <Node pos="l" depth="2" NCoef="0" IVar="-1" Cut="0.0000000000000000e+00" cType="1" res="1.3706953905057162e-04" rms="4.7136166691780090e-01" purity="5.3133386373519897e-01" nType="-99"/>
          <Node pos="r" depth="2" NCoef="0" IVar="-1" Cut="0.0000000000000000e+00" cType="1" res="1.0265695163980126e-03" rms="4.5214164257049561e-01" purity="6.2750440835952759e-01" nType="-99"/>
        </Node>
      </Node>
    </BinaryTree>
    <BinaryTree type="DecisionTree" boostWeight="1.0000000000000000e+00" itree="754">
      <Node pos="s" depth="0" NCoef="0" IVar="0" Cut="1.3441517949104309e-01" cType="1" res="2.8664651326835155e-03" rms="4.6468478441238403e-01" purity="5.0170099735260010e-01" nType="0">
        <Node pos="l" depth="1" NCoef="0" IVar="1" Cut="8.4107494354248047e-01" cType="1" res="-2.1277617197483778e-03" rms="4.6318680047988892e-01" purity="4.7995558381080627e-01" nType="0">
          <Node pos="l" depth="2" NCoef="0" IVar="-1" Cut="0.0000000000000000e+00" cType="1" res="-2.1548959193751216e-04" rms="4.6340328454971313e-01" purity="4.5533874630928040e-01" nType="-99"/>
          <Node pos="r" depth="2" NCoef="0" IVar="-1" Cut="0.0000000000000000e+00" cType="1" res="7.1183772524818778e-04" rms="4.6069478988647461e-01" purity="6.4165264368057251e-01" nType="-99"/>
        </Node>
        <Node pos="r" depth="1" NCoef="0" IVar="0" Cut="2.2935061156749725e-01" cType="1" res="2.2209215909242630e-02" rms="4.6994096040725708e-01" purity="5.8592170476913452e-01" nType="0">
          <Node pos="l" depth="2" NCoef="0" IVar="-1" Cut="0.0000000000000000e+00" cType="1" res="3.2338689197786152e-04" rms="4.6940365433692932e-01" purity="5.6644999980926514e-01" nType="-99"/>
          <Node pos="r" depth="2" NCoef="0" IVar="-1" Cut="0.0000000000000000e+00" cType="1" res="1.1257018195465207e-03" rms="4.7029116749763489e-01" purity="6.2597769498825073e-01" nType="-99"/>
        </Node>
      </Node>
    </BinaryTree>
    <BinaryTree type="DecisionTree" boostWeight="1.0000000000000000e+00" itree="755">
      <Node pos="s" depth="0" NCoef="0" IVar="4" Cut="9.0795063972473145e-01" cType="1" res="-2.0579349074978381e-04" rms="4.6465888619422913e-01" purity="4.9730858206748962e-01" nType="0">
        <Node pos="l" depth="1" NCoef="0" IVar="-1" Cut="0.0000000000000000e+00" cType="1" res="-1.4483111444860697e-03" rms="4.4664874672889709e-01" purity="3.0935016274452209e-01" nType="-99"/>
        <Node pos="r" depth="1" NCoef="0" IVar="2" Cut="5.0742590332031250e+02" cType="1" res="2.0580063574016094e-03" rms="4.6571058034896851e-01" purity="5.0947904586791992e-01" nType="0">
          <Node pos="l" depth="2" NCoef="0" IVar="-1" Cut="0.0000000000000000e+00" cType="1" res="-2.6455332408659160e-04" rms="4.6196353435516357e-01" purity="4.2410066723823547e-01" nType="-99"/>
          <Node pos="r" depth="2" NCoef="0" IVar="-1" Cut="0.0000000000000000e+00" cType="1" res="2.8015399584546685e-04" rms="4.6852865815162659e-01" purity="5.7759153842926025e-01" nType="-99"/>
        </Node>
      </Node>
    </BinaryTree>
    <BinaryTree type="DecisionTree" boostWeight="1.0000000000000000e+00" itree="756">
      <Node pos="s" depth="0" NCoef="0" IVar="8" Cut="1.6091887950897217e+00" cType="1" res="4.4681956060230732e-03" rms="4.6486169099807739e-01" purity="5.0275021791458130e-01" nType="0">
        <Node pos="l" depth="1" NCoef="0" IVar="6" Cut="1.3630300760269165e-01" cType="1" res="7.1418765000998974e-03" rms="4.6651753783226013e-01" purity="5.1448273658752441e-01" nType="0">
          <Node pos="l" depth="2" NCoef="0" IVar="-1" Cut="0.0000000000000000e+00" cType="1" res="7.0474954554811120e-05" rms="4.6687561273574829e-01" purity="4.9684190750122070e-01" nType="-99"/>
          <Node pos="r" depth="2" NCoef="0" IVar="-1" Cut="0.0000000000000000e+00" cType="1" res="6.0662685427814722e-04" rms="4.6510696411132812e-01" purity="5.6835800409317017e-01" nType="-99"/>
        </Node>
        <Node pos="r" depth="1" NCoef="0" IVar="8" Cut="1.8299391269683838e+00" cType="1" res="-1.4817104674875736e-02" rms="4.5227077603340149e-01" purity="4.1812327504158020e-01" nType="0">
          <Node pos="l" depth="2" NCoef="0" IVar="-1" Cut="0.0000000000000000e+00" cType="1" res="-7.2212649683933705e-05" rms="4.6050292253494263e-01" purity="4.3079483509063721e-01" nType="-99"/>
          <Node pos="r" depth="2" NCoef="0" IVar="-1" Cut="0.0000000000000000e+00" cType="1" res="-1.1045263381674886e-03" rms="4.4201478362083435e-01" purity="4.0334486961364746e-01" nType="-99"/>
        </Node>
      </Node>
    </BinaryTree>
    <BinaryTree type="DecisionTree" boostWeight="1.0000000000000000e+00" itree="757">
      <Node pos="s" depth="0" NCoef="0" IVar="6" Cut="2.2753171622753143e-01" cType="1" res="7.2149845072999597e-04" rms="4.6366372704505920e-01" purity="4.9970865249633789e-01" nType="0">
        <Node pos="l" depth="1" NCoef="0" IVar="6" Cut="5.0271656364202499e-02" cType="1" res="-1.7532982164993882e-03" rms="4.6378004550933838e-01" purity="4.9341934919357300e-01" nType="0">
          <Node pos="l" depth="2" NCoef="0" IVar="-1" Cut="0.0000000000000000e+00" cType="1" res="-5.5738521041348577e-04" rms="4.5959943532943726e-01" purity="4.4481521844863892e-01" nType="-99"/>
          <Node pos="r" depth="2" NCoef="0" IVar="-1" Cut="0.0000000000000000e+00" cType="1" res="1.3790528464596719e-04" rms="4.6540394425392151e-01" purity="5.1410812139511108e-01" nType="-99"/>
        </Node>
        <Node pos="r" depth="1" NCoef="0" IVar="-1" Cut="0.0000000000000000e+00" cType="1" res="1.0434719733893871e-03" rms="4.6019998192787170e-01" purity="5.9639477729797363e-01" nType="-99"/>
      </Node>
    </BinaryTree>
    <BinaryTree type="DecisionTree" boostWeight="1.0000000000000000e+00" itree="758">
      <Node pos="s" depth="0" NCoef="0" IVar="3" Cut="1.5183480834960938e+02" cType="1" res="5.3538667270913720e-04" rms="4.6557390689849854e-01" purity="4.9626928567886353e-01" nType="0">
        <Node pos="l" depth="1" NCoef="0" IVar="3" Cut="7.9182441711425781e+01" cType="1" res="-1.8816754454746842e-03" rms="4.6639990806579590e-01" purity="4.8793074488639832e-01" nType="0">
          <Node pos="l" depth="2" NCoef="0" IVar="-1" Cut="0.0000000000000000e+00" cType="1" res="3.2883801031857729e-04" rms="4.6630167961120605e-01" purity="5.0055640935897827e-01" nType="-99"/>
          <Node pos="r" depth="2" NCoef="0" IVar="-1" Cut="0.0000000000000000e+00" cType="1" res="-3.8949656300246716e-04" rms="4.6622350811958313e-01" purity="4.7755151987075806e-01" nType="-99"/>
        </Node>
        <Node pos="r" depth="1" NCoef="0" IVar="-1" Cut="0.0000000000000000e+00" cType="1" res="1.0175268398597836e-03" rms="4.5135793089866638e-01" purity="6.2209868431091309e-01" nType="-99"/>
      </Node>
    </BinaryTree>
    <BinaryTree type="DecisionTree" boostWeight="1.0000000000000000e+00" itree="759">
      <Node pos="s" depth="0" NCoef="0" IVar="3" Cut="1.3989184570312500e+02" cType="1" res="4.5393970794975758e-03" rms="4.6439915895462036e-01" purity="5.0298231840133667e-01" nType="0">
        <Node pos="l" depth="1" NCoef="0" IVar="3" Cut="7.3585899353027344e+01" cType="1" res="1.4958158135414124e-03" rms="4.6571445465087891e-01" purity="4.9168261885643005e-01" nType="0">
          <Node pos="l" depth="2" NCoef="0" IVar="-1" Cut="0.0000000000000000e+00" cType="1" res="5.4524856386706233e-04" rms="4.6523442864418030e-01" purity="5.1119959354400635e-01" nType="-99"/>
          <Node pos="r" depth="2" NCoef="0" IVar="-1" Cut="0.0000000000000000e+00" cType="1" res="-3.0401066760532558e-04" rms="4.6570512652397156e-01" purity="4.7861737012863159e-01" nType="-99"/>
        </Node>
        <Node pos="r" depth="1" NCoef="0" IVar="-1" Cut="0.0000000000000000e+00" cType="1" res="9.1557408450171351e-04" rms="4.5098483562469482e-01" purity="6.0818672180175781e-01" nType="-99"/>
      </Node>
    </BinaryTree>
    <BinaryTree type="DecisionTree" boostWeight="1.0000000000000000e+00" itree="760">
      <Node pos="s" depth="0" NCoef="0" IVar="6" Cut="1.4244273304939270e-01" cType="1" res="1.5996532747521996e-03" rms="4.6359851956367493e-01" purity="5.0016123056411743e-01" nType="0">
        <Node pos="l" depth="1" NCoef="0" IVar="3" Cut="1.4597004699707031e+02" cType="1" res="-3.0668568797409534e-03" rms="4.6396109461784363e-01" purity="4.8214223980903625e-01" nType="0">
          <Node pos="l" depth="2" NCoef="0" IVar="-1" Cut="0.0000000000000000e+00" cType="1" res="-1.8533947877585888e-04" rms="4.6502792835235596e-01" purity="4.7194659709930420e-01" nType="-99"/>
          <Node pos="r" depth="2" NCoef="0" IVar="-1" Cut="0.0000000000000000e+00" cType="1" res="7.9919671406969428e-04" rms="4.5034500956535339e-01" purity="5.9927880764007568e-01" nType="-99"/>
        </Node>
        <Node pos="r" depth="1" NCoef="0" IVar="2" Cut="5.0468649291992188e+02" cType="1" res="1.7311131581664085e-02" rms="4.6202927827835083e-01" purity="5.6082850694656372e-01" nType="0">
          <Node pos="l" depth="2" NCoef="0" IVar="-1" Cut="0.0000000000000000e+00" cType="1" res="9.6156305517069995e-05" rms="4.7090387344360352e-01" purity="4.8562234640121460e-01" nType="-99"/>
          <Node pos="r" depth="2" NCoef="0" IVar="-1" Cut="0.0000000000000000e+00" cType="1" res="1.0108482092618942e-03" rms="4.4686245918273926e-01" purity="6.7877930402755737e-01" nType="-99"/>
        </Node>
      </Node>
    </BinaryTree>
    <BinaryTree type="DecisionTree" boostWeight="1.0000000000000000e+00" itree="761">
      <Node pos="s" depth="0" NCoef="0" IVar="2" Cut="4.9565457153320312e+02" cType="1" res="-1.2754345079883933e-03" rms="4.6351429820060730e-01" purity="4.9869719147682190e-01" nType="0">
        <Node pos="l" depth="1" NCoef="0" IVar="7" Cut="7.1540420532226562e+01" cType="1" res="-1.2310572899878025e-02" rms="4.5816382765769958e-01" purity="4.0605664253234863e-01" nType="0">
          <Node pos="l" depth="2" NCoef="0" IVar="-1" Cut="0.0000000000000000e+00" cType="1" res="1.3101920194458216e-04" rms="4.6326631307601929e-01" purity="4.2711567878723145e-01" nType="-99"/>
          <Node pos="r" depth="2" NCoef="0" IVar="-1" Cut="0.0000000000000000e+00" cType="1" res="-8.1623939331620932e-04" rms="4.5456254482269287e-01" purity="3.9256739616394043e-01" nType="-99"/>
        </Node>
        <Node pos="r" depth="1" NCoef="0" IVar="3" Cut="1.3938224792480469e+02" cType="1" res="6.4634955488145351e-03" rms="4.6707451343536377e-01" purity="5.6366586685180664e-01" nType="0">
          <Node pos="l" depth="2" NCoef="0" IVar="-1" Cut="0.0000000000000000e+00" cType="1" res="1.3751121514360420e-05" rms="4.6945095062255859e-01" purity="5.4966998100280762e-01" nType="-99"/>
          <Node pos="r" depth="2" NCoef="0" IVar="-1" Cut="0.0000000000000000e+00" cType="1" res="1.2266951380297542e-03" rms="4.4885432720184326e-01" purity="6.5706813335418701e-01" nType="-99"/>
        </Node>
      </Node>
    </BinaryTree>
    <BinaryTree type="DecisionTree" boostWeight="1.0000000000000000e+00" itree="762">
      <Node pos="s" depth="0" NCoef="0" IVar="4" Cut="9.8545533418655396e-01" cType="1" res="1.7379234777763486e-03" rms="4.6425381302833557e-01" purity="4.9939784407615662e-01" nType="0">
        <Node pos="l" depth="1" NCoef="0" IVar="3" Cut="1.4049632263183594e+02" cType="1" res="-1.4566587051376700e-03" rms="4.6874937415122986e-01" purity="4.7273579239845276e-01" nType="0">
          <Node pos="l" depth="2" NCoef="0" IVar="-1" Cut="0.0000000000000000e+00" cType="1" res="-1.3143816613592207e-04" rms="4.6957322955131531e-01" purity="4.6142765879631042e-01" nType="-99"/>
          <Node pos="r" depth="2" NCoef="0" IVar="-1" Cut="0.0000000000000000e+00" cType="1" res="6.8567256676033139e-04" rms="4.5985311269760132e-01" purity="5.8261334896087646e-01" nType="-99"/>
        </Node>
        <Node pos="r" depth="1" NCoef="0" IVar="-1" Cut="0.0000000000000000e+00" cType="1" res="8.4312661783769727e-04" rms="4.1896420717239380e-01" purity="7.4744820594787598e-01" nType="-99"/>
      </Node>
    </BinaryTree>
    <BinaryTree type="DecisionTree" boostWeight="1.0000000000000000e+00" itree="763">
      <Node pos="s" depth="0" NCoef="0" IVar="3" Cut="7.4118263244628906e+01" cType="1" res="5.6875273585319519e-03" rms="4.6406456828117371e-01" purity="5.0473541021347046e-01" nType="0">
        <Node pos="l" depth="1" NCoef="0" IVar="0" Cut="1.1552702635526657e-01" cType="1" res="1.7271582037210464e-02" rms="4.6375486254692078e-01" purity="5.1189553737640381e-01" nType="0">
          <Node pos="l" depth="2" NCoef="0" IVar="-1" Cut="0.0000000000000000e+00" cType="1" res="3.4876680001616478e-04" rms="4.6261847019195557e-01" purity="4.8602589964866638e-01" nType="-99"/>
          <Node pos="r" depth="2" NCoef="0" IVar="-1" Cut="0.0000000000000000e+00" cType="1" res="9.6939312061294913e-04" rms="4.6670240163803101e-01" purity="5.9037715196609497e-01" nType="-99"/>
        </Node>
        <Node pos="r" depth="1" NCoef="0" IVar="6" Cut="1.2830458581447601e-01" cType="1" res="-1.0817813454195857e-03" rms="4.6411165595054626e-01" purity="5.0055122375488281e-01" nType="0">
          <Node pos="l" depth="2" NCoef="0" IVar="-1" Cut="0.0000000000000000e+00" cType="1" res="-2.7896516257897019e-04" rms="4.6406719088554382e-01" purity="4.7778668999671936e-01" nType="-99"/>
          <Node pos="r" depth="2" NCoef="0" IVar="-1" Cut="0.0000000000000000e+00" cType="1" res="5.4577336413785815e-04" rms="4.6361595392227173e-01" purity="5.6130230426788330e-01" nType="-99"/>
        </Node>
      </Node>
    </BinaryTree>
    <BinaryTree type="DecisionTree" boostWeight="1.0000000000000000e+00" itree="764">
      <Node pos="s" depth="0" NCoef="0" IVar="1" Cut="7.9639488458633423e-01" cType="1" res="1.6473283758386970e-03" rms="4.6418845653533936e-01" purity="5.0108122825622559e-01" nType="0">
        <Node pos="l" depth="1" NCoef="0" IVar="0" Cut="6.2515735626220703e-02" cType="1" res="-2.3224386386573315e-03" rms="4.6449792385101318e-01" purity="4.7324717044830322e-01" nType="0">
          <Node pos="l" depth="2" NCoef="0" IVar="-1" Cut="0.0000000000000000e+00" cType="1" res="-3.8417687756009400e-04" rms="4.6090409159660339e-01" purity="4.1609501838684082e-01" nType="-99"/>
          <Node pos="r" depth="2" NCoef="0" IVar="-1" Cut="0.0000000000000000e+00" cType="1" res="2.8656297945417464e-04" rms="4.6932750940322876e-01" purity="5.5525326728820801e-01" nType="-99"/>
        </Node>
        <Node pos="r" depth="1" NCoef="0" IVar="2" Cut="5.2110559082031250e+02" cType="1" res="1.9557429477572441e-02" rms="4.6236598491668701e-01" purity="6.2665826082229614e-01" nType="0">
          <Node pos="l" depth="2" NCoef="0" IVar="-1" Cut="0.0000000000000000e+00" cType="1" res="8.0693134805187583e-06" rms="4.8307770490646362e-01" purity="5.2653741836547852e-01" nType="-99"/>
          <Node pos="r" depth="2" NCoef="0" IVar="-1" Cut="0.0000000000000000e+00" cType="1" res="7.9830910544842482e-04" rms="4.4891327619552612e-01" purity="6.8748515844345093e-01" nType="-99"/>
        </Node>
      </Node>
    </BinaryTree>
    <BinaryTree type="DecisionTree" boostWeight="1.0000000000000000e+00" itree="765">
      <Node pos="s" depth="0" NCoef="0" IVar="7" Cut="8.8998001098632812e+01" cType="1" res="1.9079366466030478e-03" rms="4.6401759982109070e-01" purity="5.0108337402343750e-01" nType="0">
        <Node pos="l" depth="1" NCoef="0" IVar="2" Cut="5.9963134765625000e+02" cType="1" res="-1.0014634579420090e-02" rms="4.6556773781776428e-01" purity="4.6997949481010437e-01" nType="0">
          <Node pos="l" depth="2" NCoef="0" IVar="-1" Cut="0.0000000000000000e+00" cType="1" res="-5.1447503210511059e-05" rms="4.6428781747817993e-01" purity="4.5218506455421448e-01" nType="-99"/>
          <Node pos="r" depth="2" NCoef="0" IVar="-1" Cut="0.0000000000000000e+00" cType="1" res="-1.2255426263436675e-03" rms="4.6897560358047485e-01" purity="5.3620260953903198e-01" nType="-99"/>
        </Node>
        <Node pos="r" depth="1" NCoef="0" IVar="1" Cut="5.2717435359954834e-01" cType="1" res="1.0561597533524036e-02" rms="4.6269685029983521e-01" purity="5.2365922927856445e-01" nType="0">
          <Node pos="l" depth="2" NCoef="0" IVar="-1" Cut="0.0000000000000000e+00" cType="1" res="-2.9491141322068870e-04" rms="4.5316737890243530e-01" purity="4.2170023918151855e-01" nType="-99"/>
          <Node pos="r" depth="2" NCoef="0" IVar="-1" Cut="0.0000000000000000e+00" cType="1" res="5.1617983262985945e-04" rms="4.6629428863525391e-01" purity="5.6506729125976562e-01" nType="-99"/>
        </Node>
      </Node>
    </BinaryTree>
    <BinaryTree type="DecisionTree" boostWeight="1.0000000000000000e+00" itree="766">
      <Node pos="s" depth="0" NCoef="0" IVar="8" Cut="1.2672500610351562e+00" cType="1" res="4.6182709047570825e-04" rms="4.6451961994171143e-01" purity="4.9896815419197083e-01" nType="0">
        <Node pos="l" depth="1" NCoef="0" IVar="1" Cut="6.5276741981506348e-01" cType="1" res="7.5195631943643093e-03" rms="4.6810248494148254e-01" purity="5.2826809883117676e-01" nType="0">
          <Node pos="l" depth="2" NCoef="0" IVar="-1" Cut="0.0000000000000000e+00" cType="1" res="4.9911334645003080e-04" rms="4.6771377325057983e-01" purity="4.8148500919342041e-01" nType="-99"/>
          <Node pos="r" depth="2" NCoef="0" IVar="-1" Cut="0.0000000000000000e+00" cType="1" res="-4.3318879761500284e-05" rms="4.6835604310035706e-01" purity="5.7915705442428589e-01" nType="-99"/>
        </Node>
        <Node pos="r" depth="1" NCoef="0" IVar="1" Cut="4.6028485894203186e-01" cType="1" res="-1.4860494993627071e-02" rms="4.5626890659332275e-01" purity="4.3535807728767395e-01" nType="0">
          <Node pos="l" depth="2" NCoef="0" IVar="-1" Cut="0.0000000000000000e+00" cType="1" res="-1.8572962144389749e-03" rms="4.3076208233833313e-01" purity="3.2843136787414551e-01" nType="-99"/>
          <Node pos="r" depth="2" NCoef="0" IVar="-1" Cut="0.0000000000000000e+00" cType="1" res="-2.5035341968759894e-04" rms="4.6211293339729309e-01" purity="4.6193221211433411e-01" nType="-99"/>
        </Node>
      </Node>
    </BinaryTree>
    <BinaryTree type="DecisionTree" boostWeight="1.0000000000000000e+00" itree="767">
      <Node pos="s" depth="0" NCoef="0" IVar="3" Cut="7.4404434204101562e+01" cType="1" res="-5.5146362865343690e-04" rms="4.6469810605049133e-01" purity="4.9697321653366089e-01" nType="0">
        <Node pos="l" depth="1" NCoef="0" IVar="7" Cut="9.0592651367187500e+01" cType="1" res="1.3703734613955021e-02" rms="4.6543690562248230e-01" purity="5.0643807649612427e-01" nType="0">
          <Node pos="l" depth="2" NCoef="0" IVar="-1" Cut="0.0000000000000000e+00" cType="1" res="1.2488025276979897e-05" rms="4.6613022685050964e-01" purity="4.7845751047134399e-01" nType="-99"/>
          <Node pos="r" depth="2" NCoef="0" IVar="-1" Cut="0.0000000000000000e+00" cType="1" res="7.5435283361002803e-04" rms="4.6449077129364014e-01" purity="5.3152132034301758e-01" nType="-99"/>
        </Node>
        <Node pos="r" depth="1" NCoef="0" IVar="3" Cut="1.2973272705078125e+02" cType="1" res="-8.9818891137838364e-03" rms="4.6405461430549622e-01" purity="4.9137580394744873e-01" nType="0">
          <Node pos="l" depth="2" NCoef="0" IVar="-1" Cut="0.0000000000000000e+00" cType="1" res="-5.2487518405541778e-04" rms="4.6551376581192017e-01" purity="4.6768325567245483e-01" nType="-99"/>
          <Node pos="r" depth="2" NCoef="0" IVar="-1" Cut="0.0000000000000000e+00" cType="1" res="4.3887834181077778e-04" rms="4.5833197236061096e-01" purity="5.7017689943313599e-01" nType="-99"/>
        </Node>
      </Node>
    </BinaryTree>
    <BinaryTree type="DecisionTree" boostWeight="1.0000000000000000e+00" itree="768">
      <Node pos="s" depth="0" NCoef="0" IVar="0" Cut="2.2462564706802368e-01" cType="1" res="3.6067233886569738e-03" rms="4.6371340751647949e-01" purity="5.0282752513885498e-01" nType="0">
        <Node pos="l" depth="1" NCoef="0" IVar="6" Cut="4.3176613748073578e-02" cType="1" res="9.4493245705962181e-04" rms="4.6373787522315979e-01" purity="4.9337974190711975e-01" nType="0">
          <Node pos="l" depth="2" NCoef="0" IVar="-1" Cut="0.0000000000000000e+00" cType="1" res="-6.7157077137380838e-04" rms="4.6154844760894775e-01" purity="4.1886785626411438e-01" nType="-99"/>
          <Node pos="r" depth="2" NCoef="0" IVar="-1" Cut="0.0000000000000000e+00" cType="1" res="1.9590488227549940e-04" rms="4.6419009566307068e-01" purity="5.1407617330551147e-01" nType="-99"/>
        </Node>
        <Node pos="r" depth="1" NCoef="0" IVar="-1" Cut="0.0000000000000000e+00" cType="1" res="9.9502713419497013e-04" rms="4.6199303865432739e-01" purity="6.2601584196090698e-01" nType="-99"/>
      </Node>
    </BinaryTree>
    <BinaryTree type="DecisionTree" boostWeight="1.0000000000000000e+00" itree="769">
      <Node pos="s" depth="0" NCoef="0" IVar="3" Cut="1.4743214416503906e+02" cType="1" res="1.7000073567032814e-03" rms="4.6296960115432739e-01" purity="5.0127369165420532e-01" nType="0">
        <Node pos="l" depth="1" NCoef="0" IVar="4" Cut="9.8561698198318481e-01" cType="1" res="-1.4416717458516359e-03" rms="4.6416184306144714e-01" purity="4.9142068624496460e-01" nType="0">
          <Node pos="l" depth="2" NCoef="0" IVar="-1" Cut="0.0000000000000000e+00" cType="1" res="-1.5519611770287156e-04" rms="4.6867737174034119e-01" purity="4.6429929137229919e-01" nType="-99"/>
          <Node pos="r" depth="2" NCoef="0" IVar="-1" Cut="0.0000000000000000e+00" cType="1" res="8.2140159793198109e-04" rms="4.1826379299163818e-01" purity="7.4478900432586670e-01" nType="-99"/>
        </Node>
        <Node pos="r" depth="1" NCoef="0" IVar="-1" Cut="0.0000000000000000e+00" cType="1" res="1.1277708690613508e-03" rms="4.4558516144752502e-01" purity="6.2668842077255249e-01" nType="-99"/>
      </Node>
    </BinaryTree>
    <BinaryTree type="DecisionTree" boostWeight="1.0000000000000000e+00" itree="770">
      <Node pos="s" depth="0" NCoef="0" IVar="4" Cut="9.8551309108734131e-01" cType="1" res="1.9623760599642992e-03" rms="4.6443170309066772e-01" purity="5.0112164020538330e-01" nType="0">
        <Node pos="l" depth="1" NCoef="0" IVar="6" Cut="2.1827544271945953e-01" cType="1" res="-7.6906860340386629e-04" rms="4.6904316544532776e-01" purity="4.7461009025573730e-01" nType="0">
          <Node pos="l" depth="2" NCoef="0" IVar="-1" Cut="0.0000000000000000e+00" cType="1" res="-1.0170428140554577e-04" rms="4.6871054172515869e-01" purity="4.6835204958915710e-01" nType="-99"/>
          <Node pos="r" depth="2" NCoef="0" IVar="-1" Cut="0.0000000000000000e+00" cType="1" res="8.5904891602694988e-04" rms="4.7222083806991577e-01" purity="5.5714440345764160e-01" nType="-99"/>
        </Node>
        <Node pos="r" depth="1" NCoef="0" IVar="-1" Cut="0.0000000000000000e+00" cType="1" res="7.2786351665854454e-04" rms="4.1879597306251526e-01" purity="7.4504899978637695e-01" nType="-99"/>
      </Node>
    </BinaryTree>
    <BinaryTree type="DecisionTree" boostWeight="1.0000000000000000e+00" itree="771">
      <Node pos="s" depth="0" NCoef="0" IVar="4" Cut="9.8090243339538574e-01" cType="1" res="4.7164792194962502e-03" rms="4.6495360136032104e-01" purity="5.0312513113021851e-01" nType="0">
        <Node pos="l" depth="1" NCoef="0" IVar="1" Cut="8.4323805570602417e-01" cType="1" res="1.1965811718255281e-03" rms="4.7040823101997375e-01" purity="4.6665889024734497e-01" nType="0">
          <Node pos="l" depth="2" NCoef="0" IVar="-1" Cut="0.0000000000000000e+00" cType="1" res="-6.5525542595423758e-05" rms="4.6996402740478516e-01" purity="4.5074251294136047e-01" nType="-99"/>
          <Node pos="r" depth="2" NCoef="0" IVar="-1" Cut="0.0000000000000000e+00" cType="1" res="7.8378571197390556e-04" rms="4.7343021631240845e-01" purity="6.1226648092269897e-01" nType="-99"/>
        </Node>
        <Node pos="r" depth="1" NCoef="0" IVar="-1" Cut="0.0000000000000000e+00" cType="1" res="7.0264411624521017e-04" rms="4.2932191491127014e-01" purity="7.2699129581451416e-01" nType="-99"/>
      </Node>
    </BinaryTree>
    <BinaryTree type="DecisionTree" boostWeight="1.0000000000000000e+00" itree="772">
      <Node pos="s" depth="0" NCoef="0" IVar="0" Cut="1.8787720799446106e-01" cType="1" res="-8.0711714690551162e-04" rms="4.6456763148307800e-01" purity="4.9684849381446838e-01" nType="0">
        <Node pos="l" depth="1" NCoef="0" IVar="1" Cut="4.1383188962936401e-01" cType="1" res="-4.5409956946969032e-03" rms="4.6409013867378235e-01" purity="4.8179000616073608e-01" nType="0">
          <Node pos="l" depth="2" NCoef="0" IVar="-1" Cut="0.0000000000000000e+00" cType="1" res="-2.6828094851225615e-03" rms="4.1573786735534668e-01" purity="2.5112485885620117e-01" nType="-99"/>
          <Node pos="r" depth="2" NCoef="0" IVar="-1" Cut="0.0000000000000000e+00" cType="1" res="-4.5775850594509393e-05" rms="4.6686819195747375e-01" purity="4.9664893746376038e-01" nType="-99"/>
        </Node>
        <Node pos="r" depth="1" NCoef="0" IVar="0" Cut="2.3277178406715393e-01" cType="1" res="2.6063097640872002e-02" rms="4.6711009740829468e-01" purity="6.0521459579467773e-01" nType="0">
          <Node pos="l" depth="2" NCoef="0" IVar="-1" Cut="0.0000000000000000e+00" cType="1" res="3.5663862945511937e-04" rms="4.6657639741897583e-01" purity="5.8407461643218994e-01" nType="-99"/>
          <Node pos="r" depth="2" NCoef="0" IVar="-1" Cut="0.0000000000000000e+00" cType="1" res="9.9574390333145857e-04" rms="4.6727117896080017e-01" purity="6.2466347217559814e-01" nType="-99"/>
        </Node>
      </Node>
    </BinaryTree>
    <BinaryTree type="DecisionTree" boostWeight="1.0000000000000000e+00" itree="773">
      <Node pos="s" depth="0" NCoef="0" IVar="6" Cut="1.1405631154775620e-01" cType="1" res="1.9558821804821491e-03" rms="4.6295696496963501e-01" purity="5.0269734859466553e-01" nType="0">
        <Node pos="l" depth="1" NCoef="0" IVar="0" Cut="1.3462948799133301e-01" cType="1" res="-5.5123502388596535e-03" rms="4.6283885836601257e-01" purity="4.7477045655250549e-01" nType="0">
          <Node pos="l" depth="2" NCoef="0" IVar="-1" Cut="0.0000000000000000e+00" cType="1" res="-4.0026643546298146e-04" rms="4.5993265509605408e-01" purity="4.4327390193939209e-01" nType="-99"/>
          <Node pos="r" depth="2" NCoef="0" IVar="-1" Cut="0.0000000000000000e+00" cType="1" res="3.8862702785991132e-04" rms="4.7105342149734497e-01" purity="5.7080674171447754e-01" nType="-99"/>
        </Node>
        <Node pos="r" depth="1" NCoef="0" IVar="1" Cut="6.1036175489425659e-01" cType="1" res="1.6326451674103737e-02" rms="4.6284526586532593e-01" purity="5.5643498897552490e-01" nType="0">
          <Node pos="l" depth="2" NCoef="0" IVar="-1" Cut="0.0000000000000000e+00" cType="1" res="-3.0076908296905458e-04" rms="4.5821100473403931e-01" purity="4.5896738767623901e-01" nType="-99"/>
          <Node pos="r" depth="2" NCoef="0" IVar="-1" Cut="0.0000000000000000e+00" cType="1" res="6.3214410329237580e-04" rms="4.6381893754005432e-01" purity="5.8190929889678955e-01" nType="-99"/>
        </Node>
      </Node>
    </BinaryTree>
    <BinaryTree type="DecisionTree" boostWeight="1.0000000000000000e+00" itree="774">
      <Node pos="s" depth="0" NCoef="0" IVar="6" Cut="1.9861660897731781e-01" cType="1" res="2.7769028674811125e-03" rms="4.6482533216476440e-01" purity="5.0069493055343628e-01" nType="0">
        <Node pos="l" depth="1" NCoef="0" IVar="1" Cut="8.6511003971099854e-01" cType="1" res="4.0772734791971743e-05" rms="4.6418899297714233e-01" purity="4.9224054813385010e-01" nType="0">
          <Node pos="l" depth="2" NCoef="0" IVar="-1" Cut="0.0000000000000000e+00" cType="1" res="-7.0957168645691127e-05" rms="4.6483424305915833e-01" purity="4.7955384850502014e-01" nType="-99"/>
          <Node pos="r" depth="2" NCoef="0" IVar="-1" Cut="0.0000000000000000e+00" cType="1" res="7.4581027729436755e-04" rms="4.5499172806739807e-01" purity="6.5225887298583984e-01" nType="-99"/>
        </Node>
        <Node pos="r" depth="1" NCoef="0" IVar="-1" Cut="0.0000000000000000e+00" cType="1" res="7.7790091745555401e-04" rms="4.6999594569206238e-01" purity="5.8032751083374023e-01" nType="-99"/>
      </Node>
    </BinaryTree>
    <BinaryTree type="DecisionTree" boostWeight="1.0000000000000000e+00" itree="775">
      <Node pos="s" depth="0" NCoef="0" IVar="3" Cut="1.3566885375976562e+02" cType="1" res="4.2407196015119553e-03" rms="4.6622121334075928e-01" purity="5.0207966566085815e-01" nType="0">
        <Node pos="l" depth="1" NCoef="0" IVar="8" Cut="1.5266685485839844e+00" cType="1" res="1.9644475542008877e-03" rms="4.6754217147827148e-01" purity="4.9117884039878845e-01" nType="0">
          <Node pos="l" depth="2" NCoef="0" IVar="-1" Cut="0.0000000000000000e+00" cType="1" res="1.4802739315200597e-04" rms="4.6879974007606506e-01" purity="5.0725531578063965e-01" nType="-99"/>
          <Node pos="r" depth="2" NCoef="0" IVar="-1" Cut="0.0000000000000000e+00" cType="1" res="-6.3617771957069635e-04" rms="4.5867085456848145e-01" purity="3.8481292128562927e-01" nType="-99"/>
        </Node>
        <Node pos="r" depth="1" NCoef="0" IVar="5" Cut="3.4973913431167603e-01" cType="1" res="2.2215714678168297e-02" rms="4.5525601506233215e-01" purity="5.8815985918045044e-01" nType="0">
          <Node pos="l" depth="2" NCoef="0" IVar="-1" Cut="0.0000000000000000e+00" cType="1" res="6.9771276321262121e-04" rms="4.6058228611946106e-01" purity="5.4080241918563843e-01" nType="-99"/>
          <Node pos="r" depth="2" NCoef="0" IVar="-1" Cut="0.0000000000000000e+00" cType="1" res="5.7627144269645214e-04" rms="4.5062261819839478e-01" purity="6.2886875867843628e-01" nType="-99"/>
        </Node>
      </Node>
    </BinaryTree>
    <BinaryTree type="DecisionTree" boostWeight="1.0000000000000000e+00" itree="776">
      <Node pos="s" depth="0" NCoef="0" IVar="0" Cut="2.2428949177265167e-01" cType="1" res="-3.2677331473678350e-03" rms="4.6420067548751831e-01" purity="4.9504339694976807e-01" nType="0">
        <Node pos="l" depth="1" NCoef="0" IVar="1" Cut="4.1306060552597046e-01" cType="1" res="-6.1201737262308598e-03" rms="4.6433120965957642e-01" purity="4.8516097664833069e-01" nType="0">
          <Node pos="l" depth="2" NCoef="0" IVar="-1" Cut="0.0000000000000000e+00" cType="1" res="-2.1171655971556902e-03" rms="4.2472842335700989e-01" purity="2.8469085693359375e-01" nType="-99"/>
          <Node pos="r" depth="2" NCoef="0" IVar="-1" Cut="0.0000000000000000e+00" cType="1" res="-9.9253484222572297e-05" rms="4.6698579192161560e-01" purity="4.9992331862449646e-01" nType="-99"/>
        </Node>
        <Node pos="r" depth="1" NCoef="0" IVar="-1" Cut="0.0000000000000000e+00" cType="1" res="8.7764865020290017e-04" rms="4.6096393465995789e-01" purity="6.2171274423599243e-01" nType="-99"/>
      </Node>
    </BinaryTree>
    <BinaryTree type="DecisionTree" boostWeight="1.0000000000000000e+00" itree="777">
      <Node pos="s" depth="0" NCoef="0" IVar="1" Cut="8.6701148748397827e-01" cType="1" res="1.9988287240266800e-03" rms="4.6435719728469849e-01" purity="5.0132721662521362e-01" nType="0">
        <Node pos="l" depth="1" NCoef="0" IVar="2" Cut="5.2588793945312500e+02" cType="1" res="-7.1255286457017064e-04" rms="4.6486383676528931e-01" purity="4.8936718702316284e-01" nType="0">
          <Node pos="l" depth="2" NCoef="0" IVar="-1" Cut="0.0000000000000000e+00" cType="1" res="-3.3278058981522918e-04" rms="4.6028998494148254e-01" purity="4.1196927428245544e-01" nType="-99"/>
          <Node pos="r" depth="2" NCoef="0" IVar="-1" Cut="0.0000000000000000e+00" cType="1" res="2.2893668210599571e-04" rms="4.6915704011917114e-01" purity="5.6553781032562256e-01" nType="-99"/>
        </Node>
        <Node pos="r" depth="1" NCoef="0" IVar="-1" Cut="0.0000000000000000e+00" cType="1" res="9.6307322382926941e-04" rms="4.5617526769638062e-01" purity="6.5811860561370850e-01" nType="-99"/>
      </Node>
    </BinaryTree>
    <BinaryTree type="DecisionTree" boostWeight="1.0000000000000000e+00" itree="778">
      <Node pos="s" depth="0" NCoef="0" IVar="6" Cut="1.8498979508876801e-01" cType="1" res="9.0278813149780035e-04" rms="4.6477645635604858e-01" purity="4.9880537390708923e-01" nType="0">
        <Node pos="l" depth="1" NCoef="0" IVar="2" Cut="7.5208538818359375e+02" cType="1" res="-2.6709632948040962e-03" rms="4.6544000506401062e-01" purity="4.8672586679458618e-01" nType="0">
          <Node pos="l" depth="2" NCoef="0" IVar="-1" Cut="0.0000000000000000e+00" cType="1" res="-2.2930922568775713e-04" rms="4.6533951163291931e-01" purity="4.6027165651321411e-01" nType="-99"/>
          <Node pos="r" depth="2" NCoef="0" IVar="-1" Cut="0.0000000000000000e+00" cType="1" res="5.0138647202402353e-04" rms="4.6534925699234009e-01" purity="6.1075866222381592e-01" nType="-99"/>
        </Node>
        <Node pos="r" depth="1" NCoef="0" IVar="0" Cut="-1.4951832592487335e-02" cType="1" res="2.6848923414945602e-02" rms="4.5909675955772400e-01" purity="5.8650493621826172e-01" nType="0">
          <Node pos="l" depth="2" NCoef="0" IVar="-1" Cut="0.0000000000000000e+00" cType="1" res="3.2542028930038214e-04" rms="4.6548086404800415e-01" purity="5.4206901788711548e-01" nType="-99"/>
          <Node pos="r" depth="2" NCoef="0" IVar="-1" Cut="0.0000000000000000e+00" cType="1" res="1.0618169326335192e-03" rms="4.5314481854438782e-01" purity="6.2447649240493774e-01" nType="-99"/>
        </Node>
      </Node>
    </BinaryTree>
    <BinaryTree type="DecisionTree" boostWeight="1.0000000000000000e+00" itree="779">
      <Node pos="s" depth="0" NCoef="0" IVar="0" Cut="1.0054557770490646e-01" cType="1" res="6.1769376043230295e-04" rms="4.6452048420906067e-01" purity="4.9985525012016296e-01" nType="0">
        <Node pos="l" depth="1" NCoef="0" IVar="1" Cut="8.6820864677429199e-01" cType="1" res="-5.6649292819201946e-03" rms="4.6345788240432739e-01" purity="4.7193440794944763e-01" nType="0">
          <Node pos="l" depth="2" NCoef="0" IVar="-1" Cut="0.0000000000000000e+00" cType="1" res="-2.7695903554558754e-04" rms="4.6402227878570557e-01" purity="4.5448669791221619e-01" nType="-99"/>
          <Node pos="r" depth="2" NCoef="0" IVar="-1" Cut="0.0000000000000000e+00" cType="1" res="5.3591589676216245e-04" rms="4.5715400576591492e-01" purity="6.4011985063552856e-01" nType="-99"/>
        </Node>
        <Node pos="r" depth="1" NCoef="0" IVar="4" Cut="9.6747994422912598e-01" cType="1" res="1.7544120550155640e-02" rms="4.6695077419281006e-01" purity="5.7507854700088501e-01" nType="0">
          <Node pos="l" depth="2" NCoef="0" IVar="-1" Cut="0.0000000000000000e+00" cType="1" res="2.3912826145533472e-04" rms="4.8079854249954224e-01" purity="5.1052391529083252e-01" nType="-99"/>
          <Node pos="r" depth="2" NCoef="0" IVar="-1" Cut="0.0000000000000000e+00" cType="1" res="1.0408133966848254e-03" rms="4.2900571227073669e-01" purity="7.3862057924270630e-01" nType="-99"/>
        </Node>
      </Node>
    </BinaryTree>
    <BinaryTree type="DecisionTree" boostWeight="1.0000000000000000e+00" itree="780">
      <Node pos="s" depth="0" NCoef="0" IVar="2" Cut="4.1974411010742188e+02" cType="1" res="2.0207359921187162e-03" rms="4.6559473872184753e-01" purity="4.9785053730010986e-01" nType="0">
        <Node pos="l" depth="1" NCoef="0" IVar="2" Cut="3.5620779418945312e+02" cType="1" res="-1.2237967923283577e-02" rms="4.5058482885360718e-01" purity="3.4695222973823547e-01" nType="0">
          <Node pos="l" depth="2" NCoef="0" IVar="-1" Cut="0.0000000000000000e+00" cType="1" res="-2.5996083859354258e-03" rms="4.2253190279006958e-01" purity="2.6859000325202942e-01" nType="-99"/>
          <Node pos="r" depth="2" NCoef="0" IVar="-1" Cut="0.0000000000000000e+00" cType="1" res="1.4973060751799494e-04" rms="4.5986747741699219e-01" purity="3.7704083323478699e-01" nType="-99"/>
        </Node>
        <Node pos="r" depth="1" NCoef="0" IVar="6" Cut="1.2348005175590515e-01" cType="1" res="5.6173321790993214e-03" rms="4.6923658251762390e-01" purity="5.3591293096542358e-01" nType="0">
          <Node pos="l" depth="2" NCoef="0" IVar="-1" Cut="0.0000000000000000e+00" cType="1" res="7.9294632087112404e-06" rms="4.7096422314643860e-01" purity="5.0796347856521606e-01" nType="-99"/>
          <Node pos="r" depth="2" NCoef="0" IVar="-1" Cut="0.0000000000000000e+00" cType="1" res="5.4598145652562380e-04" rms="4.6413654088973999e-01" purity="6.1273699998855591e-01" nType="-99"/>
        </Node>
      </Node>
    </BinaryTree>
    <BinaryTree type="DecisionTree" boostWeight="1.0000000000000000e+00" itree="781">
      <Node pos="s" depth="0" NCoef="0" IVar="4" Cut="9.3180936574935913e-01" cType="1" res="3.6185833159834146e-03" rms="4.6398970484733582e-01" purity="5.0345665216445923e-01" nType="0">
        <Node pos="l" depth="1" NCoef="0" IVar="8" Cut="1.3448622226715088e+00" cType="1" res="-1.2873439118266106e-02" rms="4.5618867874145508e-01" purity="3.5160753130912781e-01" nType="0">
          <Node pos="l" depth="2" NCoef="0" IVar="-1" Cut="0.0000000000000000e+00" cType="1" res="-1.9083189545199275e-04" rms="4.6471405029296875e-01" purity="3.7816452980041504e-01" nType="-99"/>
          <Node pos="r" depth="2" NCoef="0" IVar="-1" Cut="0.0000000000000000e+00" cType="1" res="-1.5607972163707018e-03" rms="4.3087601661682129e-01" purity="2.7768385410308838e-01" nType="-99"/>
        </Node>
        <Node pos="r" depth="1" NCoef="0" IVar="2" Cut="4.0187716674804688e+02" cType="1" res="8.4962546825408936e-03" rms="4.6616011857986450e-01" purity="5.4836738109588623e-01" nType="0">
          <Node pos="l" depth="2" NCoef="0" IVar="-1" Cut="0.0000000000000000e+00" cType="1" res="-5.3277681581676006e-04" rms="4.6482837200164795e-01" purity="3.7306773662567139e-01" nType="-99"/>
          <Node pos="r" depth="2" NCoef="0" IVar="-1" Cut="0.0000000000000000e+00" cType="1" res="3.4296998637728393e-04" rms="4.6627119183540344e-01" purity="5.7702839374542236e-01" nType="-99"/>
        </Node>
      </Node>
    </BinaryTree>
    <BinaryTree type="DecisionTree" boostWeight="1.0000000000000000e+00" itree="782">
      <Node pos="s" depth="0" NCoef="0" IVar="4" Cut="9.6280157566070557e-01" cType="1" res="6.1665927059948444e-03" rms="4.6306985616683960e-01" purity="5.0610321760177612e-01" nType="0">
        <Node pos="l" depth="1" NCoef="0" IVar="4" Cut="9.0829360485076904e-01" cType="1" res="-7.3857419192790985e-04" rms="4.6886453032493591e-01" purity="4.3016430735588074e-01" nType="0">
          <Node pos="l" depth="2" NCoef="0" IVar="-1" Cut="0.0000000000000000e+00" cType="1" res="-1.1090313782915473e-03" rms="4.4756716489791870e-01" purity="3.1946715712547302e-01" nType="-99"/>
          <Node pos="r" depth="2" NCoef="0" IVar="-1" Cut="0.0000000000000000e+00" cType="1" res="6.3720173784531653e-05" rms="4.7096648812294006e-01" purity="4.4180837273597717e-01" nType="-99"/>
        </Node>
        <Node pos="r" depth="1" NCoef="0" IVar="7" Cut="9.6877845764160156e+01" cType="1" res="1.9154202193021774e-02" rms="4.5168381929397583e-01" purity="6.4893317222595215e-01" nType="0">
          <Node pos="l" depth="2" NCoef="0" IVar="-1" Cut="0.0000000000000000e+00" cType="1" res="2.6626247563399374e-04" rms="4.5839652419090271e-01" purity="6.2821406126022339e-01" nType="-99"/>
          <Node pos="r" depth="2" NCoef="0" IVar="-1" Cut="0.0000000000000000e+00" cType="1" res="7.5035088229924440e-04" rms="4.4514375925064087e-01" purity="6.6828447580337524e-01" nType="-99"/>
        </Node>
      </Node>
    </BinaryTree>
    <BinaryTree type="DecisionTree" boostWeight="1.0000000000000000e+00" itree="783">
      <Node pos="s" depth="0" NCoef="0" IVar="8" Cut="1.3636105060577393e+00" cType="1" res="1.6445916844531894e-03" rms="4.6324098110198975e-01" purity="5.0059753656387329e-01" nType="0">
        <Node pos="l" depth="1" NCoef="0" IVar="0" Cut="-4.1785083711147308e-02" cType="1" res="8.7725743651390076e-03" rms="4.6637219190597534e-01" purity="5.2557373046875000e-01" nType="0">
          <Node pos="l" depth="2" NCoef="0" IVar="-1" Cut="0.0000000000000000e+00" cType="1" res="-1.1608448403421789e-04" rms="4.6301430463790894e-01" purity="4.6730202436447144e-01" nType="-99"/>
          <Node pos="r" depth="2" NCoef="0" IVar="-1" Cut="0.0000000000000000e+00" cType="1" res="4.4277397682890296e-04" rms="4.6809050440788269e-01" purity="5.5802673101425171e-01" nType="-99"/>
        </Node>
        <Node pos="r" depth="1" NCoef="0" IVar="2" Cut="5.6260577392578125e+02" cType="1" res="-1.9981045275926590e-02" rms="4.5292299985885620e-01" purity="4.2482218146324158e-01" nType="0">
          <Node pos="l" depth="2" NCoef="0" IVar="-1" Cut="0.0000000000000000e+00" cType="1" res="-1.2759008677676320e-03" rms="4.4529312849044800e-01" purity="3.6651241779327393e-01" nType="-99"/>
          <Node pos="r" depth="2" NCoef="0" IVar="-1" Cut="0.0000000000000000e+00" cType="1" res="3.0718781636096537e-04" rms="4.6805492043495178e-01" purity="5.5499577522277832e-01" nType="-99"/>
        </Node>
      </Node>
    </BinaryTree>
    <BinaryTree type="DecisionTree" boostWeight="1.0000000000000000e+00" itree="784">
      <Node pos="s" depth="0" NCoef="0" IVar="4" Cut="9.0799522399902344e-01" cType="1" res="3.6230143159627914e-03" rms="4.6479767560958862e-01" purity="5.0273704528808594e-01" nType="0">
        <Node pos="l" depth="1" NCoef="0" IVar="-1" Cut="0.0000000000000000e+00" cType="1" res="-1.4649836812168360e-03" rms="4.4175928831100464e-01" purity="3.1229102611541748e-01" nType="-99"/>
        <Node pos="r" depth="1" NCoef="0" IVar="7" Cut="4.2813934326171875e+01" cType="1" res="6.1250291764736176e-03" rms="4.6614193916320801e-01" purity="5.1508551836013794e-01" nType="0">
          <Node pos="l" depth="2" NCoef="0" IVar="-1" Cut="0.0000000000000000e+00" cType="1" res="-9.3178550014272332e-04" rms="4.7445008158683777e-01" purity="4.3903332948684692e-01" nType="-99"/>
          <Node pos="r" depth="2" NCoef="0" IVar="-1" Cut="0.0000000000000000e+00" cType="1" res="2.5567563716322184e-04" rms="4.6547695994377136e-01" purity="5.2027213573455811e-01" nType="-99"/>
        </Node>
      </Node>
    </BinaryTree>
    <BinaryTree type="DecisionTree" boostWeight="1.0000000000000000e+00" itree="785">
      <Node pos="s" depth="0" NCoef="0" IVar="0" Cut="1.5290993452072144e-01" cType="1" res="4.0459915180690587e-04" rms="4.6298280358314514e-01" purity="5.0051331520080566e-01" nType="0">
        <Node pos="l" depth="1" NCoef="0" IVar="1" Cut="8.4216636419296265e-01" cType="1" res="-4.2942794971168041e-03" rms="4.6164861321449280e-01" purity="4.8166248202323914e-01" nType="0">
          <Node pos="l" depth="2" NCoef="0" IVar="-1" Cut="0.0000000000000000e+00" cType="1" res="-2.7454618248157203e-04" rms="4.6257457137107849e-01" purity="4.5774322748184204e-01" nType="-99"/>
          <Node pos="r" depth="2" NCoef="0" IVar="-1" Cut="0.0000000000000000e+00" cType="1" res="6.1658979393541813e-04" rms="4.5433607697486877e-01" purity="6.4398020505905151e-01" nType="-99"/>
        </Node>
        <Node pos="r" depth="1" NCoef="0" IVar="3" Cut="9.4570960998535156e+01" cType="1" res="2.3024471476674080e-02" rms="4.6869373321533203e-01" purity="5.9125888347625732e-01" nType="0">
          <Node pos="l" depth="2" NCoef="0" IVar="-1" Cut="0.0000000000000000e+00" cType="1" res="9.2914619017392397e-04" rms="4.6938115358352661e-01" purity="5.9561967849731445e-01" nType="-99"/>
          <Node pos="r" depth="2" NCoef="0" IVar="-1" Cut="0.0000000000000000e+00" cType="1" res="1.4907908916939050e-04" rms="4.6710696816444397e-01" purity="5.8475697040557861e-01" nType="-99"/>
        </Node>
      </Node>
    </BinaryTree>
    <BinaryTree type="DecisionTree" boostWeight="1.0000000000000000e+00" itree="786">
      <Node pos="s" depth="0" NCoef="0" IVar="2" Cut="9.5385522460937500e+02" cType="1" res="2.4820521939545870e-03" rms="4.6365615725517273e-01" purity="5.0166332721710205e-01" nType="0">
        <Node pos="l" depth="1" NCoef="0" IVar="2" Cut="3.6526565551757812e+02" cType="1" res="-2.2992020240053535e-04" rms="4.6419352293014526e-01" purity="4.9193719029426575e-01" nType="0">
          <Node pos="l" depth="2" NCoef="0" IVar="-1" Cut="0.0000000000000000e+00" cType="1" res="-1.8576305592432618e-03" rms="4.2535832524299622e-01" purity="2.8925582766532898e-01" nType="-99"/>
          <Node pos="r" depth="2" NCoef="0" IVar="-1" Cut="0.0000000000000000e+00" cType="1" res="9.4967930635903031e-05" rms="4.6707493066787720e-01" purity="5.0855815410614014e-01" nType="-99"/>
        </Node>
        <Node pos="r" depth="1" NCoef="0" IVar="-1" Cut="0.0000000000000000e+00" cType="1" res="1.1777007021009922e-03" rms="4.5314794778823853e-01" purity="6.5274971723556519e-01" nType="-99"/>
      </Node>
    </BinaryTree>
    <BinaryTree type="DecisionTree" boostWeight="1.0000000000000000e+00" itree="787">
      <Node pos="s" depth="0" NCoef="0" IVar="3" Cut="7.3552055358886719e+01" cType="1" res="5.2433763630688190e-04" rms="4.6455144882202148e-01" purity="4.9890226125717163e-01" nType="0">
        <Node pos="l" depth="1" NCoef="0" IVar="2" Cut="5.1196228027343750e+02" cType="1" res="1.1361178942024708e-02" rms="4.6512091159820557e-01" purity="5.0630110502243042e-01" nType="0">
          <Node pos="l" depth="2" NCoef="0" IVar="-1" Cut="0.0000000000000000e+00" cType="1" res="4.4870605051983148e-05" rms="4.6574860811233521e-01" purity="4.3803259730339050e-01" nType="-99"/>
          <Node pos="r" depth="2" NCoef="0" IVar="-1" Cut="0.0000000000000000e+00" cType="1" res="6.6686101490631700e-04" rms="4.6398359537124634e-01" purity="5.9497934579849243e-01" nType="-99"/>
        </Node>
        <Node pos="r" depth="1" NCoef="0" IVar="2" Cut="6.9685723876953125e+02" cType="1" res="-5.7132407091557980e-03" rms="4.6410864591598511e-01" purity="4.9464353919029236e-01" nType="0">
          <Node pos="l" depth="2" NCoef="0" IVar="-1" Cut="0.0000000000000000e+00" cType="1" res="-3.9860839024186134e-04" rms="4.6341499686241150e-01" purity="4.5672306418418884e-01" nType="-99"/>
          <Node pos="r" depth="2" NCoef="0" IVar="-1" Cut="0.0000000000000000e+00" cType="1" res="3.7678336957469583e-04" rms="4.6558636426925659e-01" purity="6.0505288839340210e-01" nType="-99"/>
        </Node>
      </Node>
    </BinaryTree>
    <BinaryTree type="DecisionTree" boostWeight="1.0000000000000000e+00" itree="788">
      <Node pos="s" depth="0" NCoef="0" IVar="0" Cut="-2.8869174420833588e-02" cType="1" res="-1.0636729421094060e-03" rms="4.6459487080574036e-01" purity="4.9855372309684753e-01" nType="0">
        <Node pos="l" depth="1" NCoef="0" IVar="1" Cut="8.2033282518386841e-01" cType="1" res="-1.0480971075594425e-02" rms="4.5957848429679871e-01" purity="4.4561779499053955e-01" nType="0">
          <Node pos="l" depth="2" NCoef="0" IVar="-1" Cut="0.0000000000000000e+00" cType="1" res="-6.8694120272994041e-04" rms="4.5732331275939941e-01" purity="3.9091795682907104e-01" nType="-99"/>
          <Node pos="r" depth="2" NCoef="0" IVar="-1" Cut="0.0000000000000000e+00" cType="1" res="4.3907167855650187e-04" rms="4.6581003069877625e-01" purity="6.2308323383331299e-01" nType="-99"/>
        </Node>
        <Node pos="r" depth="1" NCoef="0" IVar="6" Cut="2.7823520824313164e-02" cType="1" res="5.2148122340440750e-03" rms="4.6780407428741455e-01" purity="5.3384602069854736e-01" nType="0">
          <Node pos="l" depth="2" NCoef="0" IVar="-1" Cut="0.0000000000000000e+00" cType="1" res="-7.1088940603658557e-04" rms="4.6798285841941833e-01" purity="4.7742903232574463e-01" nType="-99"/>
          <Node pos="r" depth="2" NCoef="0" IVar="-1" Cut="0.0000000000000000e+00" cType="1" res="2.5878835003823042e-04" rms="4.6765512228012085e-01" purity="5.4141271114349365e-01" nType="-99"/>
        </Node>
      </Node>
    </BinaryTree>
    <BinaryTree type="DecisionTree" boostWeight="1.0000000000000000e+00" itree="789">
      <Node pos="s" depth="0" NCoef="0" IVar="8" Cut="8.6979174613952637e-01" cType="1" res="-1.8245184328407049e-03" rms="4.6429979801177979e-01" purity="4.9603253602981567e-01" nType="0">
        <Node pos="l" depth="1" NCoef="0" IVar="0" Cut="4.6067230403423309e-02" cType="1" res="1.3389287516474724e-02" rms="4.6589526534080505e-01" purity="5.5573564767837524e-01" nType="0">
          <Node pos="l" depth="2" NCoef="0" IVar="-1" Cut="0.0000000000000000e+00" cType="1" res="4.2855819629039615e-05" rms="4.6839213371276855e-01" purity="5.1640033721923828e-01" nType="-99"/>
          <Node pos="r" depth="2" NCoef="0" IVar="-1" Cut="0.0000000000000000e+00" cType="1" res="8.4280635928735137e-04" rms="4.6149605512619019e-01" purity="6.1533010005950928e-01" nType="-99"/>
        </Node>
        <Node pos="r" depth="1" NCoef="0" IVar="4" Cut="9.3561214208602905e-01" cType="1" res="-9.3752238899469376e-03" rms="4.6332046389579773e-01" purity="4.6640154719352722e-01" nType="0">
          <Node pos="l" depth="2" NCoef="0" IVar="-1" Cut="0.0000000000000000e+00" cType="1" res="-1.0506622493267059e-03" rms="4.4736820459365845e-01" purity="3.2389640808105469e-01" nType="-99"/>
          <Node pos="r" depth="2" NCoef="0" IVar="-1" Cut="0.0000000000000000e+00" cType="1" res="-9.8440767033025622e-05" rms="4.6893516182899475e-01" purity="5.1909571886062622e-01" nType="-99"/>
        </Node>
      </Node>
    </BinaryTree>
    <BinaryTree type="DecisionTree" boostWeight="1.0000000000000000e+00" itree="790">
      <Node pos="s" depth="0" NCoef="0" IVar="8" Cut="1.0329111814498901e+00" cType="1" res="3.3416980877518654e-03" rms="4.6376448869705200e-01" purity="5.0165694952011108e-01" nType="0">
        <Node pos="l" depth="1" NCoef="0" IVar="3" Cut="1.0572521972656250e+02" cType="1" res="1.2068592011928558e-02" rms="4.6641674637794495e-01" purity="5.4581373929977417e-01" nType="0">
          <Node pos="l" depth="2" NCoef="0" IVar="-1" Cut="0.0000000000000000e+00" cType="1" res="1.7305323854088783e-04" rms="4.6677559614181519e-01" purity="5.3178501129150391e-01" nType="-99"/>
          <Node pos="r" depth="2" NCoef="0" IVar="-1" Cut="0.0000000000000000e+00" cType="1" res="9.7982259467244148e-04" rms="4.6428760886192322e-01" purity="5.9929335117340088e-01" nType="-99"/>
        </Node>
        <Node pos="r" depth="1" NCoef="0" IVar="0" Cut="6.5129019320011139e-02" cType="1" res="-4.8101507127285004e-03" rms="4.6112403273582458e-01" purity="4.6040979027748108e-01" nType="0">
          <Node pos="l" depth="2" NCoef="0" IVar="-1" Cut="0.0000000000000000e+00" cType="1" res="-4.2725208913907409e-04" rms="4.5604699850082397e-01" purity="4.2571404576301575e-01" nType="-99"/>
          <Node pos="r" depth="2" NCoef="0" IVar="-1" Cut="0.0000000000000000e+00" cType="1" res="2.7743689133785665e-04" rms="4.7031795978546143e-01" purity="5.2656084299087524e-01" nType="-99"/>
        </Node>
      </Node>
    </BinaryTree>
    <BinaryTree type="DecisionTree" boostWeight="1.0000000000000000e+00" itree="791">
      <Node pos="s" depth="0" NCoef="0" IVar="7" Cut="9.0054191589355469e+01" cType="1" res="2.9367408715188503e-03" rms="4.6488970518112183e-01" purity="5.0207346677780151e-01" nType="0">
        <Node pos="l" depth="1" NCoef="0" IVar="6" Cut="4.3490946292877197e-02" cType="1" res="-5.4391226731240749e-03" rms="4.6783339977264404e-01" purity="4.7514945268630981e-01" nType="0">
          <Node pos="l" depth="2" NCoef="0" IVar="-1" Cut="0.0000000000000000e+00" cType="1" res="-1.0241676354780793e-03" rms="4.6376261115074158e-01" purity="4.0697500109672546e-01" nType="-99"/>
          <Node pos="r" depth="2" NCoef="0" IVar="-1" Cut="0.0000000000000000e+00" cType="1" res="2.0464287445065565e-05" rms="4.6869266033172607e-01" purity="4.9286863207817078e-01" nType="-99"/>
        </Node>
        <Node pos="r" depth="1" NCoef="0" IVar="0" Cut="1.6698370873928070e-01" cType="1" res="9.2801824212074280e-03" rms="4.6254688501358032e-01" purity="5.2246427536010742e-01" nType="0">
          <Node pos="l" depth="2" NCoef="0" IVar="-1" Cut="0.0000000000000000e+00" cType="1" res="1.5209484263323247e-04" rms="4.6291956305503845e-01" purity="5.0489848852157593e-01" nType="-99"/>
          <Node pos="r" depth="2" NCoef="0" IVar="-1" Cut="0.0000000000000000e+00" cType="1" res="9.9510548170655966e-04" rms="4.5911037921905518e-01" purity="6.3648182153701782e-01" nType="-99"/>
        </Node>
      </Node>
    </BinaryTree>
    <BinaryTree type="DecisionTree" boostWeight="1.0000000000000000e+00" itree="792">
      <Node pos="s" depth="0" NCoef="0" IVar="1" Cut="8.2093977928161621e-01" cType="1" res="-2.5662331609055400e-04" rms="4.6420156955718994e-01" purity="4.9839091300964355e-01" nType="0">
        <Node pos="l" depth="1" NCoef="0" IVar="4" Cut="9.7178369760513306e-01" cType="1" res="-4.1171242482960224e-03" rms="4.6500954031944275e-01" purity="4.7560358047485352e-01" nType="0">
          <Node pos="l" depth="2" NCoef="0" IVar="-1" Cut="0.0000000000000000e+00" cType="1" res="-2.9221895965747535e-04" rms="4.6846118569374084e-01" purity="4.2211163043975830e-01" nType="-99"/>
          <Node pos="r" depth="2" NCoef="0" IVar="-1" Cut="0.0000000000000000e+00" cType="1" res="3.1372852390632033e-04" rms="4.5260608196258545e-01" purity="6.5926170349121094e-01" nType="-99"/>
        </Node>
        <Node pos="r" depth="1" NCoef="0" IVar="5" Cut="4.6533763408660889e-01" cType="1" res="2.3466689512133598e-02" rms="4.5849218964576721e-01" purity="6.3842195272445679e-01" nType="0">
          <Node pos="l" depth="2" NCoef="0" IVar="-1" Cut="0.0000000000000000e+00" cType="1" res="1.6111637523863465e-04" rms="4.6252965927124023e-01" purity="6.2936025857925415e-01" nType="-99"/>
          <Node pos="r" depth="2" NCoef="0" IVar="-1" Cut="0.0000000000000000e+00" cType="1" res="1.0810411768034101e-03" rms="4.5361226797103882e-01" purity="6.4772844314575195e-01" nType="-99"/>
        </Node>
      </Node>
    </BinaryTree>
    <BinaryTree type="DecisionTree" boostWeight="1.0000000000000000e+00" itree="793">
      <Node pos="s" depth="0" NCoef="0" IVar="7" Cut="8.9772880554199219e+01" cType="1" res="-1.4080406399443746e-03" rms="4.6500119566917419e-01" purity="4.9677062034606934e-01" nType="0">
        <Node pos="l" depth="1" NCoef="0" IVar="1" Cut="5.1018482446670532e-01" cType="1" res="-1.5062621794641018e-02" rms="4.6600741147994995e-01" purity="4.6341049671173096e-01" nType="0">
          <Node pos="l" depth="2" NCoef="0" IVar="-1" Cut="0.0000000000000000e+00" cType="1" res="3.0567095382139087e-04" rms="4.6108001470565796e-01" purity="4.1804891824722290e-01" nType="-99"/>
          <Node pos="r" depth="2" NCoef="0" IVar="-1" Cut="0.0000000000000000e+00" cType="1" res="-7.2737294249236584e-04" rms="4.6744942665100098e-01" purity="4.7946956753730774e-01" nType="-99"/>
        </Node>
        <Node pos="r" depth="1" NCoef="0" IVar="2" Cut="7.0746026611328125e+02" cType="1" res="8.5929259657859802e-03" rms="4.6400800347328186e-01" purity="5.2120447158813477e-01" nType="0">
          <Node pos="l" depth="2" NCoef="0" IVar="-1" Cut="0.0000000000000000e+00" cType="1" res="6.0941241827094927e-05" rms="4.6439144015312195e-01" purity="4.8416352272033691e-01" nType="-99"/>
          <Node pos="r" depth="2" NCoef="0" IVar="-1" Cut="0.0000000000000000e+00" cType="1" res="7.3339173104614019e-04" rms="4.6250641345977783e-01" purity="6.2047761678695679e-01" nType="-99"/>
        </Node>
      </Node>
    </BinaryTree>
    <BinaryTree type="DecisionTree" boostWeight="1.0000000000000000e+00" itree="794">
      <Node pos="s" depth="0" NCoef="0" IVar="3" Cut="1.5208282470703125e+02" cType="1" res="2.3461028467863798e-03" rms="4.6364519000053406e-01" purity="5.0164818763732910e-01" nType="0">
        <Node pos="l" depth="1" NCoef="0" IVar="8" Cut="1.7144455909729004e+00" cType="1" res="-3.7109851837158203e-04" rms="4.6476909518241882e-01" purity="4.9256661534309387e-01" nType="0">
          <Node pos="l" depth="2" NCoef="0" IVar="-1" Cut="0.0000000000000000e+00" cType="1" res="6.3234896515496075e-05" rms="4.6606221795082092e-01" purity="5.0248187780380249e-01" nType="-99"/>
          <Node pos="r" depth="2" NCoef="0" IVar="-1" Cut="0.0000000000000000e+00" cType="1" res="-1.2828649487346411e-03" rms="4.4580152630805969e-01" purity="3.5976138710975647e-01" nType="-99"/>
        </Node>
        <Node pos="r" depth="1" NCoef="0" IVar="-1" Cut="0.0000000000000000e+00" cType="1" res="1.1495210928842425e-03" rms="4.4511508941650391e-01" purity="6.3368993997573853e-01" nType="-99"/>
      </Node>
    </BinaryTree>
    <BinaryTree type="DecisionTree" boostWeight="1.0000000000000000e+00" itree="795">
      <Node pos="s" depth="0" NCoef="0" IVar="3" Cut="1.3378042602539062e+02" cType="1" res="3.4678198862820864e-03" rms="4.6364247798919678e-01" purity="5.0372487306594849e-01" nType="0">
        <Node pos="l" depth="1" NCoef="0" IVar="4" Cut="9.8572379350662231e-01" cType="1" res="-3.4678913652896881e-04" rms="4.6456071734428406e-01" purity="4.9064478278160095e-01" nType="0">
          <Node pos="l" depth="2" NCoef="0" IVar="-1" Cut="0.0000000000000000e+00" cType="1" res="-1.0997601202689111e-04" rms="4.6907103061676025e-01" purity="4.6348917484283447e-01" nType="-99"/>
          <Node pos="r" depth="2" NCoef="0" IVar="-1" Cut="0.0000000000000000e+00" cType="1" res="7.6967931818217039e-04" rms="4.1882514953613281e-01" purity="7.4514055252075195e-01" nType="-99"/>
        </Node>
        <Node pos="r" depth="1" NCoef="0" IVar="2" Cut="5.8724090576171875e+02" cType="1" res="3.0240330845117569e-02" rms="4.5624947547912598e-01" purity="5.9552615880966187e-01" nType="0">
          <Node pos="l" depth="2" NCoef="0" IVar="-1" Cut="0.0000000000000000e+00" cType="1" res="4.9090333050116897e-04" rms="4.6680170297622681e-01" purity="5.0391131639480591e-01" nType="-99"/>
          <Node pos="r" depth="2" NCoef="0" IVar="-1" Cut="0.0000000000000000e+00" cType="1" res="1.0836382862180471e-03" rms="4.4735607504844666e-01" purity="6.6857343912124634e-01" nType="-99"/>
        </Node>
      </Node>
    </BinaryTree>
    <BinaryTree type="DecisionTree" boostWeight="1.0000000000000000e+00" itree="796">
      <Node pos="s" depth="0" NCoef="0" IVar="3" Cut="1.5183480834960938e+02" cType="1" res="2.9233882669359446e-03" rms="4.6397483348846436e-01" purity="5.0218290090560913e-01" nType="0">
        <Node pos="l" depth="1" NCoef="0" IVar="3" Cut="7.4909141540527344e+01" cType="1" res="-5.8318360242992640e-04" rms="4.6525490283966064e-01" purity="4.9175131320953369e-01" nType="0">
          <Node pos="l" depth="2" NCoef="0" IVar="-1" Cut="0.0000000000000000e+00" cType="1" res="3.8233536179177463e-04" rms="4.6527913212776184e-01" purity="5.0726038217544556e-01" nType="-99"/>
          <Node pos="r" depth="2" NCoef="0" IVar="-1" Cut="0.0000000000000000e+00" cType="1" res="-2.9976008227095008e-04" rms="4.6502697467803955e-01" purity="4.8132443428039551e-01" nType="-99"/>
        </Node>
        <Node pos="r" depth="1" NCoef="0" IVar="-1" Cut="0.0000000000000000e+00" cType="1" res="1.3992311432957649e-03" rms="4.4284713268280029e-01" purity="6.4771199226379395e-01" nType="-99"/>
      </Node>
    </BinaryTree>
    <BinaryTree type="DecisionTree" boostWeight="1.0000000000000000e+00" itree="797">
      <Node pos="s" depth="0" NCoef="0" IVar="8" Cut="5.9369474649429321e-01" cType="1" res="-3.8781180046498775e-03" rms="4.6436703205108643e-01" purity="4.9393743276596069e-01" nType="0">
        <Node pos="l" depth="1" NCoef="0" IVar="-1" Cut="0.0000000000000000e+00" cType="1" res="5.9452443383634090e-04" rms="4.6510532498359680e-01" purity="5.7903617620468140e-01" nType="-99"/>
        <Node pos="r" depth="1" NCoef="0" IVar="2" Cut="4.9534689331054688e+02" cType="1" res="-6.1607914976775646e-03" rms="4.6423250436782837e-01" purity="4.8619282245635986e-01" nType="0">
          <Node pos="l" depth="2" NCoef="0" IVar="-1" Cut="0.0000000000000000e+00" cType="1" res="-5.3088465938344598e-04" rms="4.5958974957466125e-01" purity="3.9692875742912292e-01" nType="-99"/>
          <Node pos="r" depth="2" NCoef="0" IVar="-1" Cut="0.0000000000000000e+00" cType="1" res="8.3831801021005958e-06" rms="4.6752515435218811e-01" purity="5.5208170413970947e-01" nType="-99"/>
        </Node>
      </Node>
    </BinaryTree>
    <BinaryTree type="DecisionTree" boostWeight="1.0000000000000000e+00" itree="798">
      <Node pos="s" depth="0" NCoef="0" IVar="0" Cut="6.2200352549552917e-02" cType="1" res="1.4267441583797336e-03" rms="4.6499517560005188e-01" purity="4.9811241030693054e-01" nType="0">
        <Node pos="l" depth="1" NCoef="0" IVar="1" Cut="8.4467303752899170e-01" cType="1" res="-4.1012223809957504e-03" rms="4.6271634101867676e-01" purity="4.6545246243476868e-01" nType="0">
          <Node pos="l" depth="2" NCoef="0" IVar="-1" Cut="0.0000000000000000e+00" cType="1" res="-2.6937256916426122e-04" rms="4.6206897497177124e-01" purity="4.3743357062339783e-01" nType="-99"/>
          <Node pos="r" depth="2" NCoef="0" IVar="-1" Cut="0.0000000000000000e+00" cType="1" res="4.8472400521859527e-04" rms="4.6584552526473999e-01" purity="6.2930935621261597e-01" nType="-99"/>
        </Node>
        <Node pos="r" depth="1" NCoef="0" IVar="1" Cut="4.6417135000228882e-01" cType="1" res="1.1701047420501709e-02" rms="4.6902817487716675e-01" purity="5.5881440639495850e-01" nType="0">
          <Node pos="l" depth="2" NCoef="0" IVar="-1" Cut="0.0000000000000000e+00" cType="1" res="-1.5122530749067664e-04" rms="4.6968418359756470e-01" purity="5.0194042921066284e-01" nType="-99"/>
          <Node pos="r" depth="2" NCoef="0" IVar="-1" Cut="0.0000000000000000e+00" cType="1" res="5.3796265274286270e-04" rms="4.6852529048919678e-01" purity="5.8502584695816040e-01" nType="-99"/>
        </Node>
      </Node>
    </BinaryTree>
    <BinaryTree type="DecisionTree" boostWeight="1.0000000000000000e+00" itree="799">
      <Node pos="s" depth="0" NCoef="0" IVar="3" Cut="5.8309360504150391e+01" cType="1" res="4.1309832595288754e-03" rms="4.6442300081253052e-01" purity="5.0361573696136475e-01" nType="0">
        <Node pos="l" depth="1" NCoef="0" IVar="0" Cut="-2.6475954800844193e-02" cType="1" res="2.6101695373654366e-02" rms="4.6518015861511230e-01" purity="5.2426254749298096e-01" nType="0">
          <Node pos="l" depth="2" NCoef="0" IVar="-1" Cut="0.0000000000000000e+00" cType="1" res="1.9176201021764427e-04" rms="4.6037364006042480e-01" purity="4.5896679162979126e-01" nType="-99"/>
          <Node pos="r" depth="2" NCoef="0" IVar="-1" Cut="0.0000000000000000e+00" cType="1" res="1.0953928576782346e-03" rms="4.6792322397232056e-01" purity="5.6865733861923218e-01" nType="-99"/>
        </Node>
        <Node pos="r" depth="1" NCoef="0" IVar="2" Cut="9.2496771240234375e+02" cType="1" res="-1.9868228118866682e-03" rms="4.6402680873870850e-01" purity="4.9786663055419922e-01" nType="0">
          <Node pos="l" depth="2" NCoef="0" IVar="-1" Cut="0.0000000000000000e+00" cType="1" res="-1.5571358380839229e-04" rms="4.6453368663787842e-01" purity="4.8612335324287415e-01" nType="-99"/>
          <Node pos="r" depth="2" NCoef="0" IVar="-1" Cut="0.0000000000000000e+00" cType="1" res="9.2772115021944046e-04" rms="4.5619025826454163e-01" purity="6.4166641235351562e-01" nType="-99"/>
        </Node>
      </Node>
    </BinaryTree>
    <BinaryTree type="DecisionTree" boostWeight="1.0000000000000000e+00" itree="800">
      <Node pos="s" depth="0" NCoef="0" IVar="4" Cut="9.6771156787872314e-01" cType="1" res="-1.7350810812786222e-03" rms="4.6435514092445374e-01" purity="4.9605423212051392e-01" nType="0">
        <Node pos="l" depth="1" NCoef="0" IVar="6" Cut="1.7794850468635559e-01" cType="1" res="-6.6238148137927055e-03" rms="4.6960234642028809e-01" purity="4.3304872512817383e-01" nType="0">
          <Node pos="l" depth="2" NCoef="0" IVar="-1" Cut="0.0000000000000000e+00" cType="1" res="-3.1777427648194134e-04" rms="4.6843367815017700e-01" purity="4.2317837476730347e-01" nType="-99"/>
          <Node pos="r" depth="2" NCoef="0" IVar="-1" Cut="0.0000000000000000e+00" cType="1" res="3.6378594813868403e-04" rms="4.7703832387924194e-01" purity="5.0031727552413940e-01" nType="-99"/>
        </Node>
        <Node pos="r" depth="1" NCoef="0" IVar="0" Cut="8.4516115486621857e-02" cType="1" res="1.0781228542327881e-02" rms="4.5040088891983032e-01" purity="6.5736329555511475e-01" nType="0">
          <Node pos="l" depth="2" NCoef="0" IVar="-1" Cut="0.0000000000000000e+00" cType="1" res="7.3829425673466176e-05" rms="4.5877692103385925e-01" purity="6.2781769037246704e-01" nType="-99"/>
          <Node pos="r" depth="2" NCoef="0" IVar="-1" Cut="0.0000000000000000e+00" cType="1" res="7.9435372026637197e-04" rms="4.2894116044044495e-01" purity="7.2848391532897949e-01" nType="-99"/>
        </Node>
      </Node>
    </BinaryTree>
    <BinaryTree type="DecisionTree" boostWeight="1.0000000000000000e+00" itree="801">
      <Node pos="s" depth="0" NCoef="0" IVar="4" Cut="9.8551088571548462e-01" cType="1" res="-2.9155824449844658e-04" rms="4.6505567431449890e-01" purity="4.9686923623085022e-01" nType="0">
        <Node pos="l" depth="1" NCoef="0" IVar="2" Cut="8.3694128417968750e+02" cType="1" res="-2.5353441014885902e-03" rms="4.6948531270027161e-01" purity="4.7080415487289429e-01" nType="0">
          <Node pos="l" depth="2" NCoef="0" IVar="-1" Cut="0.0000000000000000e+00" cType="1" res="-1.6031975974328816e-04" rms="4.6950137615203857e-01" purity="4.5441901683807373e-01" nType="-99"/>
          <Node pos="r" depth="2" NCoef="0" IVar="-1" Cut="0.0000000000000000e+00" cType="1" res="4.9239292275160551e-04" rms="4.6885424852371216e-01" purity="6.0700672864913940e-01" nType="-99"/>
        </Node>
        <Node pos="r" depth="1" NCoef="0" IVar="-1" Cut="0.0000000000000000e+00" cType="1" res="5.6239817058667541e-04" rms="4.2088705301284790e-01" purity="7.4019432067871094e-01" nType="-99"/>
      </Node>
    </BinaryTree>
    <BinaryTree type="DecisionTree" boostWeight="1.0000000000000000e+00" itree="802">
      <Node pos="s" depth="0" NCoef="0" IVar="0" Cut="1.3676559925079346e-01" cType="1" res="-5.7442876277491450e-04" rms="4.6222910284996033e-01" purity="4.9972429871559143e-01" nType="0">
        <Node pos="l" depth="1" NCoef="0" IVar="2" Cut="8.8200457763671875e+02" cType="1" res="-4.9099600873887539e-03" rms="4.6087095141410828e-01" purity="4.7916164994239807e-01" nType="0">
          <Node pos="l" depth="2" NCoef="0" IVar="-1" Cut="0.0000000000000000e+00" cType="1" res="-2.6716454885900021e-04" rms="4.6115565299987793e-01" purity="4.6483218669891357e-01" nType="-99"/>
          <Node pos="r" depth="2" NCoef="0" IVar="-1" Cut="0.0000000000000000e+00" cType="1" res="7.9921237193048000e-04" rms="4.5655304193496704e-01" purity="6.2572836875915527e-01" nType="-99"/>
        </Node>
        <Node pos="r" depth="1" NCoef="0" IVar="6" Cut="6.6357627511024475e-02" cType="1" res="1.6781719401478767e-02" rms="4.6722379326820374e-01" purity="5.8204144239425659e-01" nType="0">
          <Node pos="l" depth="2" NCoef="0" IVar="-1" Cut="0.0000000000000000e+00" cType="1" res="1.4460117381531745e-04" rms="4.7146144509315491e-01" purity="5.6133365631103516e-01" nType="-99"/>
          <Node pos="r" depth="2" NCoef="0" IVar="-1" Cut="0.0000000000000000e+00" cType="1" res="7.9818326048552990e-04" rms="4.6214210987091064e-01" purity="6.0497671365737915e-01" nType="-99"/>
        </Node>
      </Node>
    </BinaryTree>
    <BinaryTree type="DecisionTree" boostWeight="1.0000000000000000e+00" itree="803">
      <Node pos="s" depth="0" NCoef="0" IVar="0" Cut="9.8757877945899963e-02" cType="1" res="4.8917238600552082e-03" rms="4.6587368845939636e-01" purity="5.0243908166885376e-01" nType="0">
        <Node pos="l" depth="1" NCoef="0" IVar="2" Cut="6.4339544677734375e+02" cType="1" res="3.3059265115298331e-04" rms="4.6385252475738525e-01" purity="4.7768631577491760e-01" nType="0">
          <Node pos="l" depth="2" NCoef="0" IVar="-1" Cut="0.0000000000000000e+00" cType="1" res="-1.7893374024424702e-04" rms="4.6205323934555054e-01" purity="4.3595191836357117e-01" nType="-99"/>
          <Node pos="r" depth="2" NCoef="0" IVar="-1" Cut="0.0000000000000000e+00" cType="1" res="4.0383567102253437e-04" rms="4.6801051497459412e-01" purity="5.8166199922561646e-01" nType="-99"/>
        </Node>
        <Node pos="r" depth="1" NCoef="0" IVar="2" Cut="5.2920526123046875e+02" cType="1" res="1.7377682030200958e-02" rms="4.7113642096519470e-01" purity="5.7019901275634766e-01" nType="0">
          <Node pos="l" depth="2" NCoef="0" IVar="-1" Cut="0.0000000000000000e+00" cType="1" res="7.9887139145284891e-04" rms="4.7897645831108093e-01" purity="5.1671612262725830e-01" nType="-99"/>
          <Node pos="r" depth="2" NCoef="0" IVar="-1" Cut="0.0000000000000000e+00" cType="1" res="1.6775340191088617e-04" rms="4.6227988600730896e-01" purity="6.2782275676727295e-01" nType="-99"/>
        </Node>
      </Node>
    </BinaryTree>
    <BinaryTree type="DecisionTree" boostWeight="1.0000000000000000e+00" itree="804">
      <Node pos="s" depth="0" NCoef="0" IVar="4" Cut="9.5825618505477905e-01" cType="1" res="2.1835274528712034e-03" rms="4.6451097726821899e-01" purity="5.0042337179183960e-01" nType="0">
        <Node pos="l" depth="1" NCoef="0" IVar="1" Cut="8.2069855928421021e-01" cType="1" res="-3.8376322481781244e-03" rms="4.6883282065391541e-01" purity="4.1655042767524719e-01" nType="0">
          <Node pos="l" depth="2" NCoef="0" IVar="-1" Cut="0.0000000000000000e+00" cType="1" res="-2.4619180476292968e-04" rms="4.6634778380393982e-01" purity="3.9592400193214417e-01" nType="-99"/>
          <Node pos="r" depth="2" NCoef="0" IVar="-1" Cut="0.0000000000000000e+00" cType="1" res="4.7472649021074176e-04" rms="4.8483955860137939e-01" purity="5.5690789222717285e-01" nType="-99"/>
        </Node>
        <Node pos="r" depth="1" NCoef="0" IVar="7" Cut="1.4705815124511719e+02" cType="1" res="1.0998656973242760e-02" rms="4.5796734094619751e-01" purity="6.2321561574935913e-01" nType="0">
          <Node pos="l" depth="2" NCoef="0" IVar="-1" Cut="0.0000000000000000e+00" cType="1" res="4.4970578164793551e-04" rms="4.5770424604415894e-01" purity="6.2573933601379395e-01" nType="-99"/>
          <Node pos="r" depth="2" NCoef="0" IVar="-1" Cut="0.0000000000000000e+00" cType="1" res="-4.7842290950939059e-04" rms="4.5827248692512512e-01" purity="6.1074930429458618e-01" nType="-99"/>
        </Node>
      </Node>
    </BinaryTree>
    <BinaryTree type="DecisionTree" boostWeight="1.0000000000000000e+00" itree="805">
      <Node pos="s" depth="0" NCoef="0" IVar="4" Cut="9.0799522399902344e-01" cType="1" res="9.8158547189086676e-04" rms="4.6340954303741455e-01" purity="4.9999526143074036e-01" nType="0">
        <Node pos="l" depth="1" NCoef="0" IVar="-1" Cut="0.0000000000000000e+00" cType="1" res="-1.2860686983913183e-03" rms="4.4335541129112244e-01" purity="3.1289196014404297e-01" nType="-99"/>
        <Node pos="r" depth="1" NCoef="0" IVar="2" Cut="5.8872833251953125e+02" cType="1" res="3.0759191140532494e-03" rms="4.6461057662963867e-01" purity="5.1220035552978516e-01" nType="0">
          <Node pos="l" depth="2" NCoef="0" IVar="-1" Cut="0.0000000000000000e+00" cType="1" res="-1.3474513252731413e-04" rms="4.6454945206642151e-01" purity="4.5797201991081238e-01" nType="-99"/>
          <Node pos="r" depth="2" NCoef="0" IVar="-1" Cut="0.0000000000000000e+00" cType="1" res="4.2180714081041515e-04" rms="4.6445751190185547e-01" purity="6.0317069292068481e-01" nType="-99"/>
        </Node>
      </Node>
    </BinaryTree>
    <BinaryTree type="DecisionTree" boostWeight="1.0000000000000000e+00" itree="806">
      <Node pos="s" depth="0" NCoef="0" IVar="1" Cut="4.6346879005432129e-01" cType="1" res="4.1924719698727131e-03" rms="4.6254453063011169e-01" purity="5.0377643108367920e-01" nType="0">
        <Node pos="l" depth="1" NCoef="0" IVar="0" Cut="1.8447798490524292e-01" cType="1" res="-1.4781560748815536e-02" rms="4.4496655464172363e-01" purity="4.0436547994613647e-01" nType="0">
          <Node pos="l" depth="2" NCoef="0" IVar="-1" Cut="0.0000000000000000e+00" cType="1" res="-1.6782685415819287e-03" rms="4.2518550157546997e-01" purity="2.8514027595520020e-01" nType="-99"/>
          <Node pos="r" depth="2" NCoef="0" IVar="-1" Cut="0.0000000000000000e+00" cType="1" res="3.9538426790386438e-04" rms="4.6972340345382690e-01" purity="5.7133895158767700e-01" nType="-99"/>
        </Node>
        <Node pos="r" depth="1" NCoef="0" IVar="0" Cut="4.6016320586204529e-02" cType="1" res="8.1292157992720604e-03" rms="4.6601185202598572e-01" purity="5.2440220117568970e-01" nType="0">
          <Node pos="l" depth="2" NCoef="0" IVar="-1" Cut="0.0000000000000000e+00" cType="1" res="4.7965331759769469e-05" rms="4.6551680564880371e-01" purity="4.9495181441307068e-01" nType="-99"/>
          <Node pos="r" depth="2" NCoef="0" IVar="-1" Cut="0.0000000000000000e+00" cType="1" res="5.9668248286470771e-04" rms="4.6673339605331421e-01" purity="5.8458608388900757e-01" nType="-99"/>
        </Node>
      </Node>
    </BinaryTree>
    <BinaryTree type="DecisionTree" boostWeight="1.0000000000000000e+00" itree="807">
      <Node pos="s" depth="0" NCoef="0" IVar="7" Cut="8.9772880554199219e+01" cType="1" res="-1.4038478548172861e-04" rms="4.6381774544715881e-01" purity="4.9864110350608826e-01" nType="0">
        <Node pos="l" depth="1" NCoef="0" IVar="6" Cut="1.8467704951763153e-01" cType="1" res="-1.0732321999967098e-02" rms="4.6658104658126831e-01" purity="4.6773165464401245e-01" nType="0">
          <Node pos="l" depth="2" NCoef="0" IVar="-1" Cut="0.0000000000000000e+00" cType="1" res="-4.6800990821793675e-04" rms="4.6661680936813354e-01" purity="4.5505714416503906e-01" nType="-99"/>
          <Node pos="r" depth="2" NCoef="0" IVar="-1" Cut="0.0000000000000000e+00" cType="1" res="3.4688031882978976e-04" rms="4.6569502353668213e-01" purity="5.4512590169906616e-01" nType="-99"/>
        </Node>
        <Node pos="r" depth="1" NCoef="0" IVar="2" Cut="7.0349426269531250e+02" cType="1" res="7.8497081995010376e-03" rms="4.6156150102615356e-01" purity="5.2195781469345093e-01" nType="0">
          <Node pos="l" depth="2" NCoef="0" IVar="-1" Cut="0.0000000000000000e+00" cType="1" res="-2.2043632270651869e-06" rms="4.6130841970443726e-01" purity="4.8258528113365173e-01" nType="-99"/>
          <Node pos="r" depth="2" NCoef="0" IVar="-1" Cut="0.0000000000000000e+00" cType="1" res="7.8506499994546175e-04" rms="4.6158713102340698e-01" purity="6.2344342470169067e-01" nType="-99"/>
        </Node>
      </Node>
    </BinaryTree>
    <BinaryTree type="DecisionTree" boostWeight="1.0000000000000000e+00" itree="808">
      <Node pos="s" depth="0" NCoef="0" IVar="2" Cut="5.2866986083984375e+02" cType="1" res="2.4767564609646797e-03" rms="4.6324294805526733e-01" purity="5.0271660089492798e-01" nType="0">
        <Node pos="l" depth="1" NCoef="0" IVar="7" Cut="7.0817207336425781e+01" cType="1" res="-4.8549263738095760e-03" rms="4.6139410138130188e-01" purity="4.2582395672798157e-01" nType="0">
          <Node pos="l" depth="2" NCoef="0" IVar="-1" Cut="0.0000000000000000e+00" cType="1" res="4.1078563663177192e-04" rms="4.6719673275947571e-01" purity="4.4881978631019592e-01" nType="-99"/>
          <Node pos="r" depth="2" NCoef="0" IVar="-1" Cut="0.0000000000000000e+00" cType="1" res="-5.3189235040917993e-04" rms="4.5762488245964050e-01" purity="4.1227507591247559e-01" nType="-99"/>
        </Node>
        <Node pos="r" depth="1" NCoef="0" IVar="3" Cut="1.3649006652832031e+02" cType="1" res="9.7281830385327339e-03" rms="4.6495062112808228e-01" purity="5.7876741886138916e-01" nType="0">
          <Node pos="l" depth="2" NCoef="0" IVar="-1" Cut="0.0000000000000000e+00" cType="1" res="1.0152789764106274e-04" rms="4.6826326847076416e-01" purity="5.6251108646392822e-01" nType="-99"/>
          <Node pos="r" depth="2" NCoef="0" IVar="-1" Cut="0.0000000000000000e+00" cType="1" res="1.1308206012472510e-03" rms="4.4563987851142883e-01" purity="6.6456043720245361e-01" nType="-99"/>
        </Node>
      </Node>
    </BinaryTree>
    <BinaryTree type="DecisionTree" boostWeight="1.0000000000000000e+00" itree="809">
      <Node pos="s" depth="0" NCoef="0" IVar="7" Cut="8.1182182312011719e+01" cType="1" res="6.8560899235308170e-03" rms="4.6493211388587952e-01" purity="5.0486415624618530e-01" nType="0">
        <Node pos="l" depth="1" NCoef="0" IVar="1" Cut="6.7610317468643188e-01" cType="1" res="-2.5601740926504135e-03" rms="4.6886360645294189e-01" purity="4.7236260771751404e-01" nType="0">
          <Node pos="l" depth="2" NCoef="0" IVar="-1" Cut="0.0000000000000000e+00" cType="1" res="2.3264587798621505e-04" rms="4.6375510096549988e-01" purity="4.3684446811676025e-01" nType="-99"/>
          <Node pos="r" depth="2" NCoef="0" IVar="-1" Cut="0.0000000000000000e+00" cType="1" res="-4.6732692862860858e-04" rms="4.7575736045837402e-01" purity="5.2327001094818115e-01" nType="-99"/>
        </Node>
        <Node pos="r" depth="1" NCoef="0" IVar="2" Cut="5.4007177734375000e+02" cType="1" res="1.1950808577239513e-02" rms="4.6271118521690369e-01" purity="5.2244931459426880e-01" nType="0">
          <Node pos="l" depth="2" NCoef="0" IVar="-1" Cut="0.0000000000000000e+00" cType="1" res="7.4542891525197774e-05" rms="4.6143382787704468e-01" purity="4.3371352553367615e-01" nType="-99"/>
          <Node pos="r" depth="2" NCoef="0" IVar="-1" Cut="0.0000000000000000e+00" cType="1" res="5.4782058577984571e-04" rms="4.6356487274169922e-01" purity="5.9182190895080566e-01" nType="-99"/>
        </Node>
      </Node>
    </BinaryTree>
    <BinaryTree type="DecisionTree" boostWeight="1.0000000000000000e+00" itree="810">
      <Node pos="s" depth="0" NCoef="0" IVar="8" Cut="1.6656050682067871e+00" cType="1" res="1.4552240027114749e-03" rms="4.6355193853378296e-01" purity="5.0024336576461792e-01" nType="0">
        <Node pos="l" depth="1" NCoef="0" IVar="4" Cut="9.7212535142898560e-01" cType="1" res="4.1925753466784954e-03" rms="4.6502980589866638e-01" purity="5.1075512170791626e-01" nType="0">
          <Node pos="l" depth="2" NCoef="0" IVar="-1" Cut="0.0000000000000000e+00" cType="1" res="-2.3651136871194467e-05" rms="4.7179543972015381e-01" purity="4.5500200986862183e-01" nType="-99"/>
          <Node pos="r" depth="2" NCoef="0" IVar="-1" Cut="0.0000000000000000e+00" cType="1" res="5.4776761680841446e-04" rms="4.4168478250503540e-01" purity="6.9392627477645874e-01" nType="-99"/>
        </Node>
        <Node pos="r" depth="1" NCoef="0" IVar="-1" Cut="0.0000000000000000e+00" cType="1" res="-8.7006483227014542e-04" rms="4.4896486401557922e-01" purity="4.0365642309188843e-01" nType="-99"/>
      </Node>
    </BinaryTree>
    <BinaryTree type="DecisionTree" boostWeight="1.0000000000000000e+00" itree="811">
      <Node pos="s" depth="0" NCoef="0" IVar="3" Cut="1.5183480834960938e+02" cType="1" res="2.9467351268976927e-03" rms="4.6412721276283264e-01" purity="5.0255966186523438e-01" nType="0">
        <Node pos="l" depth="1" NCoef="0" IVar="3" Cut="9.6271797180175781e+01" cType="1" res="5.1769352285191417e-04" rms="4.6557250618934631e-01" purity="4.9380677938461304e-01" nType="0">
          <Node pos="l" depth="2" NCoef="0" IVar="-1" Cut="0.0000000000000000e+00" cType="1" res="2.5672576157376170e-04" rms="4.6551191806793213e-01" purity="4.9807494878768921e-01" nType="-99"/>
          <Node pos="r" depth="2" NCoef="0" IVar="-1" Cut="0.0000000000000000e+00" cType="1" res="-4.1832422721199691e-04" rms="4.6535971760749817e-01" purity="4.8630267381668091e-01" nType="-99"/>
        </Node>
        <Node pos="r" depth="1" NCoef="0" IVar="-1" Cut="0.0000000000000000e+00" cType="1" res="1.0535098845139146e-03" rms="4.4104534387588501e-01" purity="6.2995576858520508e-01" nType="-99"/>
      </Node>
    </BinaryTree>
    <BinaryTree type="DecisionTree" boostWeight="1.0000000000000000e+00" itree="812">
      <Node pos="s" depth="0" NCoef="0" IVar="2" Cut="5.8121710205078125e+02" cType="1" res="3.7271257024258375e-03" rms="4.6518951654434204e-01" purity="5.0215345621109009e-01" nType="0">
        <Node pos="l" depth="1" NCoef="0" IVar="5" Cut="5.3588682413101196e-01" cType="1" res="-3.9483290165662766e-03" rms="4.6347549557685852e-01" purity="4.4601482152938843e-01" nType="0">
          <Node pos="l" depth="2" NCoef="0" IVar="-1" Cut="0.0000000000000000e+00" cType="1" res="-3.8429902633652091e-04" rms="4.5860451459884644e-01" purity="4.0991842746734619e-01" nType="-99"/>
          <Node pos="r" depth="2" NCoef="0" IVar="-1" Cut="0.0000000000000000e+00" cType="1" res="3.5168670001439750e-04" rms="4.7410529851913452e-01" purity="5.2912592887878418e-01" nType="-99"/>
        </Node>
        <Node pos="r" depth="1" NCoef="0" IVar="7" Cut="6.8942214965820312e+01" cType="1" res="1.5849906951189041e-02" rms="4.6762737631797791e-01" purity="5.9082001447677612e-01" nType="0">
          <Node pos="l" depth="2" NCoef="0" IVar="-1" Cut="0.0000000000000000e+00" cType="1" res="-3.8253865204751492e-04" rms="4.7342714667320251e-01" purity="5.5495375394821167e-01" nType="-99"/>
          <Node pos="r" depth="2" NCoef="0" IVar="-1" Cut="0.0000000000000000e+00" cType="1" res="5.7461857795715332e-04" rms="4.6650111675262451e-01" purity="5.9666800498962402e-01" nType="-99"/>
        </Node>
      </Node>
    </BinaryTree>
    <BinaryTree type="DecisionTree" boostWeight="1.0000000000000000e+00" itree="813">
      <Node pos="s" depth="0" NCoef="0" IVar="0" Cut="-1.1606314778327942e-01" cType="1" res="1.5313498442992568e-03" rms="4.6426087617874146e-01" purity="4.9942249059677124e-01" nType="0">
        <Node pos="l" depth="1" NCoef="0" IVar="-1" Cut="0.0000000000000000e+00" cType="1" res="-1.5620350604876876e-03" rms="4.4705429673194885e-01" purity="3.4134539961814880e-01" nType="-99"/>
        <Node pos="r" depth="1" NCoef="0" IVar="4" Cut="9.8580503463745117e-01" cType="1" res="3.6784438416361809e-03" rms="4.6512201428413391e-01" purity="5.0835925340652466e-01" nType="0">
          <Node pos="l" depth="2" NCoef="0" IVar="-1" Cut="0.0000000000000000e+00" cType="1" res="3.0644576327176765e-05" rms="4.6996042132377625e-01" purity="4.8241078853607178e-01" nType="-99"/>
          <Node pos="r" depth="2" NCoef="0" IVar="-1" Cut="0.0000000000000000e+00" cType="1" res="7.7877828152850270e-04" rms="4.1576367616653442e-01" purity="7.5363868474960327e-01" nType="-99"/>
        </Node>
      </Node>
    </BinaryTree>
    <BinaryTree type="DecisionTree" boostWeight="1.0000000000000000e+00" itree="814">
      <Node pos="s" depth="0" NCoef="0" IVar="5" Cut="5.6320434808731079e-01" cType="1" res="4.6587320975959301e-03" rms="4.6481636166572571e-01" purity="5.0318050384521484e-01" nType="0">
        <Node pos="l" depth="1" NCoef="0" IVar="0" Cut="1.7214947938919067e-01" cType="1" res="-8.5357559146359563e-04" rms="4.6447372436523438e-01" purity="4.8129111528396606e-01" nType="0">
          <Node pos="l" depth="2" NCoef="0" IVar="-1" Cut="0.0000000000000000e+00" cType="1" res="-2.2337843256536871e-04" rms="4.6359997987747192e-01" purity="4.5641684532165527e-01" nType="-99"/>
          <Node pos="r" depth="2" NCoef="0" IVar="-1" Cut="0.0000000000000000e+00" cType="1" res="7.2809739504009485e-04" rms="4.6757200360298157e-01" purity="5.9883600473403931e-01" nType="-99"/>
        </Node>
        <Node pos="r" depth="1" NCoef="0" IVar="6" Cut="1.3095438480377197e-01" cType="1" res="2.3941230028867722e-02" rms="4.6549969911575317e-01" purity="5.7975149154663086e-01" nType="0">
          <Node pos="l" depth="2" NCoef="0" IVar="-1" Cut="0.0000000000000000e+00" cType="1" res="1.8672864825930446e-04" rms="4.7295311093330383e-01" purity="5.5386829376220703e-01" nType="-99"/>
          <Node pos="r" depth="2" NCoef="0" IVar="-1" Cut="0.0000000000000000e+00" cType="1" res="8.8016170775517821e-04" rms="4.6159577369689941e-01" purity="5.9233605861663818e-01" nType="-99"/>
        </Node>
      </Node>
    </BinaryTree>
    <BinaryTree type="DecisionTree" boostWeight="1.0000000000000000e+00" itree="815">
      <Node pos="s" depth="0" NCoef="0" IVar="4" Cut="9.3537300825119019e-01" cType="1" res="-1.4178880956023932e-03" rms="4.6431523561477661e-01" purity="4.9682635068893433e-01" nType="0">
        <Node pos="l" depth="1" NCoef="0" IVar="7" Cut="9.1906555175781250e+01" cType="1" res="-1.7267527058720589e-02" rms="4.5683729648590088e-01" purity="3.5326525568962097e-01" nType="0">
          <Node pos="l" depth="2" NCoef="0" IVar="-1" Cut="0.0000000000000000e+00" cType="1" res="-1.2666844995692372e-03" rms="4.4841009378433228e-01" purity="3.2146805524826050e-01" nType="-99"/>
          <Node pos="r" depth="2" NCoef="0" IVar="-1" Cut="0.0000000000000000e+00" cType="1" res="-1.8325394194107503e-04" rms="4.6337425708770752e-01" purity="3.7971165776252747e-01" nType="-99"/>
        </Node>
        <Node pos="r" depth="1" NCoef="0" IVar="2" Cut="3.9603918457031250e+02" cType="1" res="4.2762411758303642e-03" rms="4.6684113144874573e-01" purity="5.4840195178985596e-01" nType="0">
          <Node pos="l" depth="2" NCoef="0" IVar="-1" Cut="0.0000000000000000e+00" cType="1" res="-6.5633351914584637e-04" rms="4.6376579999923706e-01" purity="3.7717455625534058e-01" nType="-99"/>
          <Node pos="r" depth="2" NCoef="0" IVar="-1" Cut="0.0000000000000000e+00" cType="1" res="2.1548870427068323e-04" rms="4.6721166372299194e-01" purity="5.7414263486862183e-01" nType="-99"/>
        </Node>
      </Node>
    </BinaryTree>
    <BinaryTree type="DecisionTree" boostWeight="1.0000000000000000e+00" itree="816">
      <Node pos="s" depth="0" NCoef="0" IVar="6" Cut="2.0523272454738617e-01" cType="1" res="5.0365743227303028e-03" rms="4.6473607420921326e-01" purity="5.0544869899749756e-01" nType="0">
        <Node pos="l" depth="1" NCoef="0" IVar="3" Cut="7.4222618103027344e+01" cType="1" res="2.4970662780106068e-03" rms="4.6487182378768921e-01" purity="4.9717551469802856e-01" nType="0">
          <Node pos="l" depth="2" NCoef="0" IVar="-1" Cut="0.0000000000000000e+00" cType="1" res="4.2244911310262978e-04" rms="4.6465101838111877e-01" purity="5.0456464290618896e-01" nType="-99"/>
          <Node pos="r" depth="2" NCoef="0" IVar="-1" Cut="0.0000000000000000e+00" cType="1" res="-1.2827383761759847e-04" rms="4.6487390995025635e-01" purity="4.9287551641464233e-01" nType="-99"/>
        </Node>
        <Node pos="r" depth="1" NCoef="0" IVar="-1" Cut="0.0000000000000000e+00" cType="1" res="8.3731999620795250e-04" rms="4.6260148286819458e-01" purity="5.8844232559204102e-01" nType="-99"/>
      </Node>
    </BinaryTree>
    <BinaryTree type="DecisionTree" boostWeight="1.0000000000000000e+00" itree="817">
      <Node pos="s" depth="0" NCoef="0" IVar="4" Cut="9.6787935495376587e-01" cType="1" res="1.4399792999029160e-03" rms="4.6221536397933960e-01" purity="5.0096458196640015e-01" nType="0">
        <Node pos="l" depth="1" NCoef="0" IVar="3" Cut="1.3938224792480469e+02" cType="1" res="-3.8725628983229399e-03" rms="4.6820187568664551e-01" purity="4.3651646375656128e-01" nType="0">
          <Node pos="l" depth="2" NCoef="0" IVar="-1" Cut="0.0000000000000000e+00" cType="1" res="-2.2266637824941427e-04" rms="4.6895709633827209e-01" purity="4.2439886927604675e-01" nType="-99"/>
          <Node pos="r" depth="2" NCoef="0" IVar="-1" Cut="0.0000000000000000e+00" cType="1" res="6.4187159296125174e-04" rms="4.6026447415351868e-01" purity="5.4923099279403687e-01" nType="-99"/>
        </Node>
        <Node pos="r" depth="1" NCoef="0" IVar="8" Cut="1.3618127107620239e+00" cType="1" res="1.5224572271108627e-02" rms="4.4601264595985413e-01" purity="6.6818982362747192e-01" nType="0">
          <Node pos="l" depth="2" NCoef="0" IVar="-1" Cut="0.0000000000000000e+00" cType="1" res="6.1632203869521618e-04" rms="4.3981838226318359e-01" purity="6.9091612100601196e-01" nType="-99"/>
          <Node pos="r" depth="2" NCoef="0" IVar="-1" Cut="0.0000000000000000e+00" cType="1" res="-2.7342734392732382e-04" rms="4.6420961618423462e-01" purity="5.9623730182647705e-01" nType="-99"/>
        </Node>
      </Node>
    </BinaryTree>
    <BinaryTree type="DecisionTree" boostWeight="1.0000000000000000e+00" itree="818">
      <Node pos="s" depth="0" NCoef="0" IVar="6" Cut="1.1405631154775620e-01" cType="1" res="5.8583803474903107e-03" rms="4.6435031294822693e-01" purity="5.0485861301422119e-01" nType="0">
        <Node pos="l" depth="1" NCoef="0" IVar="0" Cut="2.0670454204082489e-01" cType="1" res="-1.2564804637804627e-04" rms="4.6345663070678711e-01" purity="4.7857007384300232e-01" nType="0">
          <Node pos="l" depth="2" NCoef="0" IVar="-1" Cut="0.0000000000000000e+00" cType="1" res="-1.2054918624926358e-04" rms="4.6219259500503540e-01" purity="4.6122822165489197e-01" nType="-99"/>
          <Node pos="r" depth="2" NCoef="0" IVar="-1" Cut="0.0000000000000000e+00" cType="1" res="6.6545623121783137e-04" rms="4.7147202491760254e-01" purity="6.0020536184310913e-01" nType="-99"/>
        </Node>
        <Node pos="r" depth="1" NCoef="0" IVar="2" Cut="4.2189691162109375e+02" cType="1" res="1.7432736232876778e-02" rms="4.6585592627525330e-01" purity="5.5570608377456665e-01" nType="0">
          <Node pos="l" depth="2" NCoef="0" IVar="-1" Cut="0.0000000000000000e+00" cType="1" res="3.7544068618444726e-05" rms="4.6940192580223083e-01" purity="4.0869554877281189e-01" nType="-99"/>
          <Node pos="r" depth="2" NCoef="0" IVar="-1" Cut="0.0000000000000000e+00" cType="1" res="6.3751655397936702e-04" rms="4.6429279446601868e-01" purity="6.1366212368011475e-01" nType="-99"/>
        </Node>
      </Node>
    </BinaryTree>
    <BinaryTree type="DecisionTree" boostWeight="1.0000000000000000e+00" itree="819">
      <Node pos="s" depth="0" NCoef="0" IVar="1" Cut="7.9639488458633423e-01" cType="1" res="3.4123079385608435e-03" rms="4.6529164910316467e-01" purity="5.0178831815719604e-01" nType="0">
        <Node pos="l" depth="1" NCoef="0" IVar="8" Cut="6.7754286527633667e-01" cType="1" res="-2.9953959165140986e-04" rms="4.6623399853706360e-01" purity="4.7372558712959290e-01" nType="0">
          <Node pos="l" depth="2" NCoef="0" IVar="-1" Cut="0.0000000000000000e+00" cType="1" res="5.7319184998050332e-04" rms="4.7257804870605469e-01" purity="5.4810094833374023e-01" nType="-99"/>
          <Node pos="r" depth="2" NCoef="0" IVar="-1" Cut="0.0000000000000000e+00" cType="1" res="-1.1932331835851073e-04" rms="4.6507573127746582e-01" purity="4.6125009655952454e-01" nType="-99"/>
        </Node>
        <Node pos="r" depth="1" NCoef="0" IVar="0" Cut="-6.0459151864051819e-02" cType="1" res="2.0477898418903351e-02" rms="4.6054956316947937e-01" purity="6.3080942630767822e-01" nType="0">
          <Node pos="l" depth="2" NCoef="0" IVar="-1" Cut="0.0000000000000000e+00" cType="1" res="1.0556608904153109e-03" rms="4.6191251277923584e-01" purity="6.3812774419784546e-01" nType="-99"/>
          <Node pos="r" depth="2" NCoef="0" IVar="-1" Cut="0.0000000000000000e+00" cType="1" res="6.8422996264416724e-05" rms="4.5859384536743164e-01" purity="6.2433958053588867e-01" nType="-99"/>
        </Node>
      </Node>
    </BinaryTree>
    <BinaryTree type="DecisionTree" boostWeight="1.0000000000000000e+00" itree="820">
      <Node pos="s" depth="0" NCoef="0" IVar="4" Cut="9.0793424844741821e-01" cType="1" res="2.9475919436663389e-03" rms="4.6299025416374207e-01" purity="5.0261867046356201e-01" nType="0">
        <Node pos="l" depth="1" NCoef="0" IVar="-1" Cut="0.0000000000000000e+00" cType="1" res="-1.6885797958821058e-03" rms="4.4055950641632080e-01" purity="3.0344024300575256e-01" nType="-99"/>
        <Node pos="r" depth="1" NCoef="0" IVar="8" Cut="6.7927527427673340e-01" cType="1" res="5.7398667559027672e-03" rms="4.6428853273391724e-01" purity="5.1569354534149170e-01" nType="0">
          <Node pos="l" depth="2" NCoef="0" IVar="-1" Cut="0.0000000000000000e+00" cType="1" res="7.5927912257611752e-04" rms="4.6420601010322571e-01" purity="5.8982747793197632e-01" nType="-99"/>
          <Node pos="r" depth="2" NCoef="0" IVar="-1" Cut="0.0000000000000000e+00" cType="1" res="5.7198416470782831e-05" rms="4.6419751644134521e-01" purity="5.0232291221618652e-01" nType="-99"/>
        </Node>
      </Node>
    </BinaryTree>
    <BinaryTree type="DecisionTree" boostWeight="1.0000000000000000e+00" itree="821">
      <Node pos="s" depth="0" NCoef="0" IVar="4" Cut="9.8132181167602539e-01" cType="1" res="9.8680809605866671e-04" rms="4.6343323588371277e-01" purity="5.0047159194946289e-01" nType="0">
        <Node pos="l" depth="1" NCoef="0" IVar="4" Cut="9.2247956991195679e-01" cType="1" res="-2.2032395936548710e-03" rms="4.6922531723976135e-01" purity="4.6413436532020569e-01" nType="0">
          <Node pos="l" depth="2" NCoef="0" IVar="-1" Cut="0.0000000000000000e+00" cType="1" res="-6.9431768497452140e-04" rms="4.5365631580352783e-01" purity="3.3333259820938110e-01" nType="-99"/>
          <Node pos="r" depth="2" NCoef="0" IVar="-1" Cut="0.0000000000000000e+00" cType="1" res="2.7344884074409492e-05" rms="4.7230330109596252e-01" purity="4.9103161692619324e-01" nType="-99"/>
        </Node>
        <Node pos="r" depth="1" NCoef="0" IVar="-1" Cut="0.0000000000000000e+00" cType="1" res="5.7057506637647748e-04" rms="4.2465418577194214e-01" purity="7.2899216413497925e-01" nType="-99"/>
      </Node>
    </BinaryTree>
    <BinaryTree type="DecisionTree" boostWeight="1.0000000000000000e+00" itree="822">
      <Node pos="s" depth="0" NCoef="0" IVar="0" Cut="7.8892074525356293e-02" cType="1" res="-2.9206094332039356e-03" rms="4.6460407972335815e-01" purity="4.9523842334747314e-01" nType="0">
        <Node pos="l" depth="1" NCoef="0" IVar="1" Cut="8.6477482318878174e-01" cType="1" res="-7.9102693125605583e-03" rms="4.6218827366828918e-01" purity="4.6633484959602356e-01" nType="0">
          <Node pos="l" depth="2" NCoef="0" IVar="-1" Cut="0.0000000000000000e+00" cType="1" res="-3.8765848148614168e-04" rms="4.6240675449371338e-01" purity="4.4603070616722107e-01" nType="-99"/>
          <Node pos="r" depth="2" NCoef="0" IVar="-1" Cut="0.0000000000000000e+00" cType="1" res="6.2281492864713073e-04" rms="4.5909339189529419e-01" purity="6.4173573255538940e-01" nType="-99"/>
        </Node>
        <Node pos="r" depth="1" NCoef="0" IVar="3" Cut="6.2797084808349609e+01" cType="1" res="8.0345217138528824e-03" rms="4.6967867016792297e-01" purity="5.5869805812835693e-01" nType="0">
          <Node pos="l" depth="2" NCoef="0" IVar="-1" Cut="0.0000000000000000e+00" cType="1" res="8.9259940432384610e-04" rms="4.6957492828369141e-01" purity="5.8417445421218872e-01" nType="-99"/>
          <Node pos="r" depth="2" NCoef="0" IVar="-1" Cut="0.0000000000000000e+00" cType="1" res="-2.9030003133811988e-05" rms="4.6938964724540710e-01" purity="5.4944103956222534e-01" nType="-99"/>
        </Node>
      </Node>
    </BinaryTree>
    <BinaryTree type="DecisionTree" boostWeight="1.0000000000000000e+00" itree="823">
      <Node pos="s" depth="0" NCoef="0" IVar="6" Cut="2.8923608362674713e-02" cType="1" res="-1.1921221157535911e-03" rms="4.6243065595626831e-01" purity="4.9806779623031616e-01" nType="0">
        <Node pos="l" depth="1" NCoef="0" IVar="1" Cut="4.3894687294960022e-01" cType="1" res="-3.3074039965867996e-02" rms="4.5474335551261902e-01" purity="4.1589760780334473e-01" nType="0">
          <Node pos="l" depth="2" NCoef="0" IVar="-1" Cut="0.0000000000000000e+00" cType="1" res="-2.5672686751931906e-03" rms="4.3090817332267761e-01" purity="3.3741021156311035e-01" nType="-99"/>
          <Node pos="r" depth="2" NCoef="0" IVar="-1" Cut="0.0000000000000000e+00" cType="1" res="-4.0432967944070697e-04" rms="4.6981677412986755e-01" purity="4.7150388360023499e-01" nType="-99"/>
        </Node>
        <Node pos="r" depth="1" NCoef="0" IVar="2" Cut="5.3317089843750000e+02" cType="1" res="3.4191729500889778e-03" rms="4.6335041522979736e-01" purity="5.0995254516601562e-01" nType="0">
          <Node pos="l" depth="2" NCoef="0" IVar="-1" Cut="0.0000000000000000e+00" cType="1" res="-2.1808873862028122e-04" rms="4.6245211362838745e-01" purity="4.3189004063606262e-01" nType="-99"/>
          <Node pos="r" depth="2" NCoef="0" IVar="-1" Cut="0.0000000000000000e+00" cType="1" res="4.1980130481533706e-04" rms="4.6414539217948914e-01" purity="6.0373723506927490e-01" nType="-99"/>
        </Node>
      </Node>
    </BinaryTree>
    <BinaryTree type="DecisionTree" boostWeight="1.0000000000000000e+00" itree="824">
      <Node pos="s" depth="0" NCoef="0" IVar="5" Cut="6.7568403482437134e-01" cType="1" res="2.8914622962474823e-03" rms="4.6459034085273743e-01" purity="5.0304645299911499e-01" nType="0">
        <Node pos="l" depth="1" NCoef="0" IVar="4" Cut="9.0799522399902344e-01" cType="1" res="9.0167704911436886e-05" rms="4.6453145146369934e-01" purity="4.9454516172409058e-01" nType="0">
          <Node pos="l" depth="2" NCoef="0" IVar="-1" Cut="0.0000000000000000e+00" cType="1" res="-1.4016304630786180e-03" rms="4.4140514731407166e-01" purity="3.0048894882202148e-01" nType="-99"/>
          <Node pos="r" depth="2" NCoef="0" IVar="-1" Cut="0.0000000000000000e+00" cType="1" res="6.7662680521607399e-05" rms="4.6592190861701965e-01" purity="5.0721091032028198e-01" nType="-99"/>
        </Node>
        <Node pos="r" depth="1" NCoef="0" IVar="-1" Cut="0.0000000000000000e+00" cType="1" res="8.7901041842997074e-04" rms="4.6420109272003174e-01" purity="5.9146672487258911e-01" nType="-99"/>
      </Node>
    </BinaryTree>
    <BinaryTree type="DecisionTree" boostWeight="1.0000000000000000e+00" itree="825">
      <Node pos="s" depth="0" NCoef="0" IVar="6" Cut="1.7038942873477936e-01" cType="1" res="9.9386903457343578e-04" rms="4.6551662683486938e-01" purity="4.9936479330062866e-01" nType="0">
        <Node pos="l" depth="1" NCoef="0" IVar="0" Cut="2.0410603284835815e-01" cType="1" res="-2.4580636527389288e-03" rms="4.6563956141471863e-01" purity="4.8604440689086914e-01" nType="0">
          <Node pos="l" depth="2" NCoef="0" IVar="-1" Cut="0.0000000000000000e+00" cType="1" res="-1.8129058298654854e-04" rms="4.6508789062500000e-01" purity="4.7136995196342468e-01" nType="-99"/>
          <Node pos="r" depth="2" NCoef="0" IVar="-1" Cut="0.0000000000000000e+00" cType="1" res="6.0403748648241162e-04" rms="4.6923127770423889e-01" purity="6.0195571184158325e-01" nType="-99"/>
        </Node>
        <Node pos="r" depth="1" NCoef="0" IVar="2" Cut="4.7091836547851562e+02" cType="1" res="1.9851010292768478e-02" rms="4.6439188718795776e-01" purity="5.7213097810745239e-01" nType="0">
          <Node pos="l" depth="2" NCoef="0" IVar="-1" Cut="0.0000000000000000e+00" cType="1" res="5.8008834457723424e-05" rms="4.7678717970848083e-01" purity="4.7705811262130737e-01" nType="-99"/>
          <Node pos="r" depth="2" NCoef="0" IVar="-1" Cut="0.0000000000000000e+00" cType="1" res="1.0042234789580107e-03" rms="4.4998294115066528e-01" purity="6.7370015382766724e-01" nType="-99"/>
        </Node>
      </Node>
    </BinaryTree>
    <BinaryTree type="DecisionTree" boostWeight="1.0000000000000000e+00" itree="826">
      <Node pos="s" depth="0" NCoef="0" IVar="4" Cut="9.8550653457641602e-01" cType="1" res="-1.3722400180995464e-03" rms="4.6266680955886841e-01" purity="4.9982294440269470e-01" nType="0">
        <Node pos="l" depth="1" NCoef="0" IVar="1" Cut="4.5599555969238281e-01" cType="1" res="-4.1995830833911896e-03" rms="4.6733164787292480e-01" purity="4.7236096858978271e-01" nType="0">
          <Node pos="l" depth="2" NCoef="0" IVar="-1" Cut="0.0000000000000000e+00" cType="1" res="-8.5495208622887731e-04" rms="4.4693967700004578e-01" purity="3.7693649530410767e-01" nType="-99"/>
          <Node pos="r" depth="2" NCoef="0" IVar="-1" Cut="0.0000000000000000e+00" cType="1" res="-1.9122437151963823e-05" rms="4.7111436724662781e-01" purity="4.9093154072761536e-01" nType="-99"/>
        </Node>
        <Node pos="r" depth="1" NCoef="0" IVar="-1" Cut="0.0000000000000000e+00" cType="1" res="6.4999877940863371e-04" rms="4.1782349348068237e-01" purity="7.4526870250701904e-01" nType="-99"/>
      </Node>
    </BinaryTree>
    <BinaryTree type="DecisionTree" boostWeight="1.0000000000000000e+00" itree="827">
      <Node pos="s" depth="0" NCoef="0" IVar="6" Cut="1.1412557214498520e-01" cType="1" res="4.8935465747490525e-04" rms="4.6561163663864136e-01" purity="4.9892234802246094e-01" nType="0">
        <Node pos="l" depth="1" NCoef="0" IVar="5" Cut="5.0279277563095093e-01" cType="1" res="-4.9964589998126030e-03" rms="4.6549546718597412e-01" purity="4.7275289893150330e-01" nType="0">
          <Node pos="l" depth="2" NCoef="0" IVar="-1" Cut="0.0000000000000000e+00" cType="1" res="-3.3164826163556427e-05" rms="4.6431353688240051e-01" purity="4.6548116207122803e-01" nType="-99"/>
          <Node pos="r" depth="2" NCoef="0" IVar="-1" Cut="0.0000000000000000e+00" cType="1" res="-9.0086366981267929e-04" rms="4.7210982441902161e-01" purity="5.1860880851745605e-01" nType="-99"/>
        </Node>
        <Node pos="r" depth="1" NCoef="0" IVar="2" Cut="4.1944668579101562e+02" cType="1" res="1.1136208660900593e-02" rms="4.6565258502960205e-01" purity="5.4971188306808472e-01" nType="0">
          <Node pos="l" depth="2" NCoef="0" IVar="-1" Cut="0.0000000000000000e+00" cType="1" res="-3.5192948416806757e-04" rms="4.6479868888854980e-01" purity="3.9577034115791321e-01" nType="-99"/>
          <Node pos="r" depth="2" NCoef="0" IVar="-1" Cut="0.0000000000000000e+00" cType="1" res="5.1985360914841294e-04" rms="4.6572387218475342e-01" purity="6.0836815834045410e-01" nType="-99"/>
        </Node>
      </Node>
    </BinaryTree>
    <BinaryTree type="DecisionTree" boostWeight="1.0000000000000000e+00" itree="828">
      <Node pos="s" depth="0" NCoef="0" IVar="3" Cut="1.5183480834960938e+02" cType="1" res="1.2570417020469904e-03" rms="4.6412196755409241e-01" purity="4.9924716353416443e-01" nType="0">
        <Node pos="l" depth="1" NCoef="0" IVar="6" Cut="1.7746150493621826e-01" cType="1" res="-1.1927213054150343e-03" rms="4.6549901366233826e-01" purity="4.9026891589164734e-01" nType="0">
          <Node pos="l" depth="2" NCoef="0" IVar="-1" Cut="0.0000000000000000e+00" cType="1" res="-1.6029647667892277e-04" rms="4.6483835577964783e-01" purity="4.7801774740219116e-01" nType="-99"/>
          <Node pos="r" depth="2" NCoef="0" IVar="-1" Cut="0.0000000000000000e+00" cType="1" res="6.1765359714627266e-04" rms="4.6879601478576660e-01" purity="5.6427049636840820e-01" nType="-99"/>
        </Node>
        <Node pos="r" depth="1" NCoef="0" IVar="-1" Cut="0.0000000000000000e+00" cType="1" res="1.0138748912140727e-03" rms="4.4227963685989380e-01" purity="6.2873715162277222e-01" nType="-99"/>
      </Node>
    </BinaryTree>
    <BinaryTree type="DecisionTree" boostWeight="1.0000000000000000e+00" itree="829">
      <Node pos="s" depth="0" NCoef="0" IVar="3" Cut="1.5134410095214844e+02" cType="1" res="9.2132604913786054e-04" rms="4.6562266349792480e-01" purity="4.9842962622642517e-01" nType="0">
        <Node pos="l" depth="1" NCoef="0" IVar="3" Cut="7.4354728698730469e+01" cType="1" res="-1.6358200227841735e-03" rms="4.6724358201026917e-01" purity="4.8887154459953308e-01" nType="0">
          <Node pos="l" depth="2" NCoef="0" IVar="-1" Cut="0.0000000000000000e+00" cType="1" res="3.3187880762852728e-04" rms="4.6735072135925293e-01" purity="5.0488555431365967e-01" nType="-99"/>
          <Node pos="r" depth="2" NCoef="0" IVar="-1" Cut="0.0000000000000000e+00" cType="1" res="-3.1843510805629194e-04" rms="4.6698424220085144e-01" purity="4.7813174128532410e-01" nType="-99"/>
        </Node>
        <Node pos="r" depth="1" NCoef="0" IVar="-1" Cut="0.0000000000000000e+00" cType="1" res="1.0184231214225292e-03" rms="4.4026708602905273e-01" purity="6.3463819026947021e-01" nType="-99"/>
      </Node>
    </BinaryTree>
    <BinaryTree type="DecisionTree" boostWeight="1.0000000000000000e+00" itree="830">
      <Node pos="s" depth="0" NCoef="0" IVar="8" Cut="1.5943464040756226e+00" cType="1" res="2.6594216469675303e-03" rms="4.6337813138961792e-01" purity="5.0234878063201904e-01" nType="0">
        <Node pos="l" depth="1" NCoef="0" IVar="2" Cut="4.1488882446289062e+02" cType="1" res="6.4812442287802696e-03" rms="4.6486434340476990e-01" purity="5.1666969060897827e-01" nType="0">
          <Node pos="l" depth="2" NCoef="0" IVar="-1" Cut="0.0000000000000000e+00" cType="1" res="-4.9174163723364472e-04" rms="4.5385468006134033e-01" purity="3.5762685537338257e-01" nType="-99"/>
          <Node pos="r" depth="2" NCoef="0" IVar="-1" Cut="0.0000000000000000e+00" cType="1" res="3.0136777786538005e-04" rms="4.6699866652488708e-01" purity="5.4939597845077515e-01" nType="-99"/>
        </Node>
        <Node pos="r" depth="1" NCoef="0" IVar="7" Cut="9.5305702209472656e+01" cType="1" res="-2.4520583450794220e-02" rms="4.5173612236976624e-01" purity="4.0050134062767029e-01" nType="0">
          <Node pos="l" depth="2" NCoef="0" IVar="-1" Cut="0.0000000000000000e+00" cType="1" res="-1.6973165329545736e-03" rms="4.4626340270042419e-01" purity="3.6974829435348511e-01" nType="-99"/>
          <Node pos="r" depth="2" NCoef="0" IVar="-1" Cut="0.0000000000000000e+00" cType="1" res="-1.1179616194567643e-05" rms="4.5731854438781738e-01" purity="4.3886092305183411e-01" nType="-99"/>
        </Node>
      </Node>
    </BinaryTree>
    <BinaryTree type="DecisionTree" boostWeight="1.0000000000000000e+00" itree="831">
      <Node pos="s" depth="0" NCoef="0" IVar="1" Cut="5.7950747013092041e-01" cType="1" res="2.9121870175004005e-03" rms="4.6574875712394714e-01" purity="5.0035774707794189e-01" nType="0">
        <Node pos="l" depth="1" NCoef="0" IVar="7" Cut="1.2458247375488281e+02" cType="1" res="-5.2418839186429977e-03" rms="4.5708054304122925e-01" purity="4.2343437671661377e-01" nType="0">
          <Node pos="l" depth="2" NCoef="0" IVar="-1" Cut="0.0000000000000000e+00" cType="1" res="1.6838293231558055e-04" rms="4.5866963267326355e-01" purity="4.2891356348991394e-01" nType="-99"/>
          <Node pos="r" depth="2" NCoef="0" IVar="-1" Cut="0.0000000000000000e+00" cType="1" res="-1.0707792825996876e-03" rms="4.5242300629615784e-01" purity="4.1054916381835938e-01" nType="-99"/>
        </Node>
        <Node pos="r" depth="1" NCoef="0" IVar="7" Cut="1.1286898040771484e+02" cType="1" res="8.1687262281775475e-03" rms="4.7117739915847778e-01" purity="5.4994660615921021e-01" nType="0">
          <Node pos="l" depth="2" NCoef="0" IVar="-1" Cut="0.0000000000000000e+00" cType="1" res="-7.2884045948740095e-05" rms="4.7352477908134460e-01" purity="5.2124321460723877e-01" nType="-99"/>
          <Node pos="r" depth="2" NCoef="0" IVar="-1" Cut="0.0000000000000000e+00" cType="1" res="7.1312679210677743e-04" rms="4.6674096584320068e-01" purity="5.9736382961273193e-01" nType="-99"/>
        </Node>
      </Node>
    </BinaryTree>
    <BinaryTree type="DecisionTree" boostWeight="1.0000000000000000e+00" itree="832">
      <Node pos="s" depth="0" NCoef="0" IVar="2" Cut="9.5385522460937500e+02" cType="1" res="8.1845285603776574e-04" rms="4.6600219607353210e-01" purity="4.9761769175529480e-01" nType="0">
        <Node pos="l" depth="1" NCoef="0" IVar="2" Cut="4.5580200195312500e+02" cType="1" res="-9.6428638789802790e-04" rms="4.6653068065643311e-01" purity="4.8869374394416809e-01" nType="0">
          <Node pos="l" depth="2" NCoef="0" IVar="-1" Cut="0.0000000000000000e+00" cType="1" res="-4.9272569594904780e-04" rms="4.5960056781768799e-01" purity="3.7245392799377441e-01" nType="-99"/>
          <Node pos="r" depth="2" NCoef="0" IVar="-1" Cut="0.0000000000000000e+00" cType="1" res="1.3819312152918428e-04" rms="4.6963256597518921e-01" purity="5.4315334558486938e-01" nType="-99"/>
        </Node>
        <Node pos="r" depth="1" NCoef="0" IVar="-1" Cut="0.0000000000000000e+00" cType="1" res="8.0388900823891163e-04" rms="4.5649161934852600e-01" purity="6.4075529575347900e-01" nType="-99"/>
      </Node>
    </BinaryTree>
    <BinaryTree type="DecisionTree" boostWeight="1.0000000000000000e+00" itree="833">
      <Node pos="s" depth="0" NCoef="0" IVar="2" Cut="3.6419775390625000e+02" cType="1" res="1.3537877239286900e-03" rms="4.6403843164443970e-01" purity="5.0116658210754395e-01" nType="0">
        <Node pos="l" depth="1" NCoef="0" IVar="-1" Cut="0.0000000000000000e+00" cType="1" res="-1.3975265901535749e-03" rms="4.3368703126907349e-01" purity="2.9634293913841248e-01" nType="-99"/>
        <Node pos="r" depth="1" NCoef="0" IVar="1" Cut="8.6734807491302490e-01" cType="1" res="3.7683090195059776e-03" rms="4.6611824631690979e-01" purity="5.1634436845779419e-01" nType="0">
          <Node pos="l" depth="2" NCoef="0" IVar="-1" Cut="0.0000000000000000e+00" cType="1" res="4.9238115025218576e-05" rms="4.6699669957160950e-01" purity="5.0495344400405884e-01" nType="-99"/>
          <Node pos="r" depth="2" NCoef="0" IVar="-1" Cut="0.0000000000000000e+00" cType="1" res="8.0826343037188053e-04" rms="4.5398402214050293e-01" purity="6.6031897068023682e-01" nType="-99"/>
        </Node>
      </Node>
    </BinaryTree>
    <BinaryTree type="DecisionTree" boostWeight="1.0000000000000000e+00" itree="834">
      <Node pos="s" depth="0" NCoef="0" IVar="1" Cut="4.1338822245597839e-01" cType="1" res="2.0770404953509569e-03" rms="4.6385163068771362e-01" purity="5.0171393156051636e-01" nType="0">
        <Node pos="l" depth="1" NCoef="0" IVar="-1" Cut="0.0000000000000000e+00" cType="1" res="-8.2991062663495541e-04" rms="4.4299805164337158e-01" purity="3.9455246925354004e-01" nType="-99"/>
        <Node pos="r" depth="1" NCoef="0" IVar="2" Cut="7.4685943603515625e+02" cType="1" res="4.7643822617828846e-03" rms="4.6601679921150208e-01" purity="5.1353460550308228e-01" nType="0">
          <Node pos="l" depth="2" NCoef="0" IVar="-1" Cut="0.0000000000000000e+00" cType="1" res="3.7199246435193345e-05" rms="4.6682757139205933e-01" purity="4.9039879441261292e-01" nType="-99"/>
          <Node pos="r" depth="2" NCoef="0" IVar="-1" Cut="0.0000000000000000e+00" cType="1" res="6.2826141947880387e-04" rms="4.6146577596664429e-01" purity="6.3069778680801392e-01" nType="-99"/>
        </Node>
      </Node>
    </BinaryTree>
    <BinaryTree type="DecisionTree" boostWeight="1.0000000000000000e+00" itree="835">
      <Node pos="s" depth="0" NCoef="0" IVar="4" Cut="9.1255819797515869e-01" cType="1" res="-5.9329457144485787e-05" rms="4.6580269932746887e-01" purity="4.9650016427040100e-01" nType="0">
        <Node pos="l" depth="1" NCoef="0" IVar="-1" Cut="0.0000000000000000e+00" cType="1" res="-8.1893807509914041e-04" rms="4.4601264595985413e-01" purity="3.2436302304267883e-01" nType="-99"/>
        <Node pos="r" depth="1" NCoef="0" IVar="0" Cut="2.2378487884998322e-01" cType="1" res="1.7960508121177554e-03" rms="4.6756014227867126e-01" purity="5.1253324747085571e-01" nType="0">
          <Node pos="l" depth="2" NCoef="0" IVar="-1" Cut="0.0000000000000000e+00" cType="1" res="5.2236878218536731e-06" rms="4.6815720200538635e-01" purity="5.0303107500076294e-01" nType="-99"/>
          <Node pos="r" depth="2" NCoef="0" IVar="-1" Cut="0.0000000000000000e+00" cType="1" res="6.0889986343681812e-04" rms="4.5921570062637329e-01" purity="6.3589972257614136e-01" nType="-99"/>
        </Node>
      </Node>
    </BinaryTree>
    <BinaryTree type="DecisionTree" boostWeight="1.0000000000000000e+00" itree="836">
      <Node pos="s" depth="0" NCoef="0" IVar="8" Cut="6.7556774616241455e-01" cType="1" res="2.5438081938773394e-03" rms="4.6511960029602051e-01" purity="5.0069618225097656e-01" nType="0">
        <Node pos="l" depth="1" NCoef="0" IVar="0" Cut="4.1106738150119781e-02" cType="1" res="1.9118804484605789e-02" rms="4.6616986393928528e-01" purity="5.7356625795364380e-01" nType="0">
          <Node pos="l" depth="2" NCoef="0" IVar="-1" Cut="0.0000000000000000e+00" cType="1" res="1.4918672968633473e-04" rms="4.6976196765899658e-01" purity="5.3128206729888916e-01" nType="-99"/>
          <Node pos="r" depth="2" NCoef="0" IVar="-1" Cut="0.0000000000000000e+00" cType="1" res="1.0551363229751587e-03" rms="4.6024322509765625e-01" purity="6.3392567634582520e-01" nType="-99"/>
        </Node>
        <Node pos="r" depth="1" NCoef="0" IVar="6" Cut="4.3501112610101700e-02" cType="1" res="-3.7117782630957663e-04" rms="4.6487355232238770e-01" purity="4.8788073658943176e-01" nType="0">
          <Node pos="l" depth="2" NCoef="0" IVar="-1" Cut="0.0000000000000000e+00" cType="1" res="-4.5617719297297299e-04" rms="4.6324056386947632e-01" purity="4.2545217275619507e-01" nType="-99"/>
          <Node pos="r" depth="2" NCoef="0" IVar="-1" Cut="0.0000000000000000e+00" cType="1" res="9.8655851616058499e-05" rms="4.6527123451232910e-01" purity="5.0553870201110840e-01" nType="-99"/>
        </Node>
      </Node>
    </BinaryTree>
    <BinaryTree type="DecisionTree" boostWeight="1.0000000000000000e+00" itree="837">
      <Node pos="s" depth="0" NCoef="0" IVar="0" Cut="1.3371086120605469e-01" cType="1" res="-2.5890496908687055e-04" rms="4.6286389231681824e-01" purity="4.9913534522056580e-01" nType="0">
        <Node pos="l" depth="1" NCoef="0" IVar="2" Cut="5.2591223144531250e+02" cType="1" res="-5.2405032329261303e-03" rms="4.6158111095428467e-01" purity="4.7700253129005432e-01" nType="0">
          <Node pos="l" depth="2" NCoef="0" IVar="-1" Cut="0.0000000000000000e+00" cType="1" res="-5.1081815036013722e-04" rms="4.5409142971038818e-01" purity="3.9541533589363098e-01" nType="-99"/>
          <Node pos="r" depth="2" NCoef="0" IVar="-1" Cut="0.0000000000000000e+00" cType="1" res="9.3654220108874142e-05" rms="4.6840009093284607e-01" purity="5.5419850349426270e-01" nType="-99"/>
        </Node>
        <Node pos="r" depth="1" NCoef="0" IVar="7" Cut="9.9460784912109375e+01" cType="1" res="1.9042948260903358e-02" rms="4.6729969978332520e-01" purity="5.8489173650741577e-01" nType="0">
          <Node pos="l" depth="2" NCoef="0" IVar="-1" Cut="0.0000000000000000e+00" cType="1" res="1.9196618814021349e-04" rms="4.7277888655662537e-01" purity="5.5305761098861694e-01" nType="-99"/>
          <Node pos="r" depth="2" NCoef="0" IVar="-1" Cut="0.0000000000000000e+00" cType="1" res="9.4891281332820654e-04" rms="4.5926985144615173e-01" purity="6.2796622514724731e-01" nType="-99"/>
        </Node>
      </Node>
    </BinaryTree>
    <BinaryTree type="DecisionTree" boostWeight="1.0000000000000000e+00" itree="838">
      <Node pos="s" depth="0" NCoef="0" IVar="2" Cut="9.5385522460937500e+02" cType="1" res="2.2563498932868242e-03" rms="4.6367079019546509e-01" purity="5.0313359498977661e-01" nType="0">
        <Node pos="l" depth="1" NCoef="0" IVar="2" Cut="3.8790866088867188e+02" cType="1" res="2.2679143876302987e-04" rms="4.6437436342239380e-01" purity="4.9391138553619385e-01" nType="0">
          <Node pos="l" depth="2" NCoef="0" IVar="-1" Cut="0.0000000000000000e+00" cType="1" res="-1.0910042328760028e-03" rms="4.4224107265472412e-01" purity="3.0841621756553650e-01" nType="-99"/>
          <Node pos="r" depth="2" NCoef="0" IVar="-1" Cut="0.0000000000000000e+00" cType="1" res="1.1047210864489898e-04" rms="4.6720647811889648e-01" purity="5.1922488212585449e-01" nType="-99"/>
        </Node>
        <Node pos="r" depth="1" NCoef="0" IVar="-1" Cut="0.0000000000000000e+00" cType="1" res="9.1957021504640579e-04" rms="4.5115914940834045e-01" purity="6.4926588535308838e-01" nType="-99"/>
      </Node>
    </BinaryTree>
    <BinaryTree type="DecisionTree" boostWeight="1.0000000000000000e+00" itree="839">
      <Node pos="s" depth="0" NCoef="0" IVar="2" Cut="9.2117547607421875e+02" cType="1" res="-1.6098989872261882e-03" rms="4.6409186720848083e-01" purity="4.9691912531852722e-01" nType="0">
        <Node pos="l" depth="1" NCoef="0" IVar="6" Cut="4.3509643524885178e-02" cType="1" res="-4.0552774444222450e-03" rms="4.6434983611106873e-01" purity="4.8622807860374451e-01" nType="0">
          <Node pos="l" depth="2" NCoef="0" IVar="-1" Cut="0.0000000000000000e+00" cType="1" res="-7.1938656037673354e-04" rms="4.5702031254768372e-01" purity="4.1384822130203247e-01" nType="-99"/>
          <Node pos="r" depth="2" NCoef="0" IVar="-1" Cut="0.0000000000000000e+00" cType="1" res="6.4150208345381543e-06" rms="4.6616423130035400e-01" purity="5.0525993108749390e-01" nType="-99"/>
        </Node>
        <Node pos="r" depth="1" NCoef="0" IVar="-1" Cut="0.0000000000000000e+00" cType="1" res="8.6304248543456197e-04" rms="4.5927077531814575e-01" purity="6.4250004291534424e-01" nType="-99"/>
      </Node>
    </BinaryTree>
    <BinaryTree type="DecisionTree" boostWeight="1.0000000000000000e+00" itree="840">
      <Node pos="s" depth="0" NCoef="0" IVar="0" Cut="-1.1705077439546585e-01" cType="1" res="1.3210569741204381e-03" rms="4.6375083923339844e-01" purity="5.0012010335922241e-01" nType="0">
        <Node pos="l" depth="1" NCoef="0" IVar="-1" Cut="0.0000000000000000e+00" cType="1" res="-1.4723391504958272e-03" rms="4.3781164288520813e-01" purity="3.4462237358093262e-01" nType="-99"/>
        <Node pos="r" depth="1" NCoef="0" IVar="6" Cut="1.8784755468368530e-01" cType="1" res="3.2392141874879599e-03" rms="4.6500304341316223e-01" purity="5.0834029912948608e-01" nType="0">
          <Node pos="l" depth="2" NCoef="0" IVar="-1" Cut="0.0000000000000000e+00" cType="1" res="1.8783053747029044e-05" rms="4.6551364660263062e-01" purity="4.9843856692314148e-01" nType="-99"/>
          <Node pos="r" depth="2" NCoef="0" IVar="-1" Cut="0.0000000000000000e+00" cType="1" res="6.1396730598062277e-04" rms="4.6091580390930176e-01" purity="5.7886397838592529e-01" nType="-99"/>
        </Node>
      </Node>
    </BinaryTree>
    <BinaryTree type="DecisionTree" boostWeight="1.0000000000000000e+00" itree="841">
      <Node pos="s" depth="0" NCoef="0" IVar="6" Cut="8.5455149412155151e-02" cType="1" res="3.8974650669842958e-04" rms="4.6370783448219299e-01" purity="4.9960553646087646e-01" nType="0">
        <Node pos="l" depth="1" NCoef="0" IVar="3" Cut="1.3989184570312500e+02" cType="1" res="-8.9224139228463173e-03" rms="4.6231278777122498e-01" purity="4.6057334542274475e-01" nType="0">
          <Node pos="l" depth="2" NCoef="0" IVar="-1" Cut="0.0000000000000000e+00" cType="1" res="-4.3435531551949680e-04" rms="4.6240758895874023e-01" purity="4.4704854488372803e-01" nType="-99"/>
          <Node pos="r" depth="2" NCoef="0" IVar="-1" Cut="0.0000000000000000e+00" cType="1" res="6.9767149398103356e-04" rms="4.6017694473266602e-01" purity="5.7266920804977417e-01" nType="-99"/>
        </Node>
        <Node pos="r" depth="1" NCoef="0" IVar="0" Cut="-7.3104195296764374e-02" cType="1" res="1.0120196267962456e-02" rms="4.6496182680130005e-01" purity="5.4039102792739868e-01" nType="0">
          <Node pos="l" depth="2" NCoef="0" IVar="-1" Cut="0.0000000000000000e+00" cType="1" res="-4.4519026414491236e-04" rms="4.6698594093322754e-01" purity="4.5657062530517578e-01" nType="-99"/>
          <Node pos="r" depth="2" NCoef="0" IVar="-1" Cut="0.0000000000000000e+00" cType="1" res="4.4605127186514437e-04" rms="4.6431043744087219e-01" purity="5.6006145477294922e-01" nType="-99"/>
        </Node>
      </Node>
    </BinaryTree>
    <BinaryTree type="DecisionTree" boostWeight="1.0000000000000000e+00" itree="842">
      <Node pos="s" depth="0" NCoef="0" IVar="1" Cut="4.0925756096839905e-01" cType="1" res="3.0250537674874067e-03" rms="4.6413028240203857e-01" purity="5.0134623050689697e-01" nType="0">
        <Node pos="l" depth="1" NCoef="0" IVar="-1" Cut="0.0000000000000000e+00" cType="1" res="-8.3002354949712753e-04" rms="4.4226339459419250e-01" purity="3.8850295543670654e-01" nType="-99"/>
        <Node pos="r" depth="1" NCoef="0" IVar="5" Cut="2.1803875267505646e-01" cType="1" res="5.6331013329327106e-03" rms="4.6624213457107544e-01" purity="5.1294803619384766e-01" nType="0">
          <Node pos="l" depth="2" NCoef="0" IVar="-1" Cut="0.0000000000000000e+00" cType="1" res="8.8143098400905728e-04" rms="4.6441981196403503e-01" purity="4.5798721909523010e-01" nType="-99"/>
          <Node pos="r" depth="2" NCoef="0" IVar="-1" Cut="0.0000000000000000e+00" cType="1" res="6.8932931753806770e-05" rms="4.6644181013107300e-01" purity="5.2162599563598633e-01" nType="-99"/>
        </Node>
      </Node>
    </BinaryTree>
    <BinaryTree type="DecisionTree" boostWeight="1.0000000000000000e+00" itree="843">
      <Node pos="s" depth="0" NCoef="0" IVar="0" Cut="2.2502449154853821e-01" cType="1" res="3.6158545408397913e-03" rms="4.6372744441032410e-01" purity="5.0313353538513184e-01" nType="0">
        <Node pos="l" depth="1" NCoef="0" IVar="1" Cut="4.1303351521492004e-01" cType="1" res="1.1887790169566870e-03" rms="4.6380788087844849e-01" purity="4.9349352717399597e-01" nType="0">
          <Node pos="l" depth="2" NCoef="0" IVar="-1" Cut="0.0000000000000000e+00" cType="1" res="-1.4342055656015873e-03" rms="4.2893168330192566e-01" purity="2.9642337560653687e-01" nType="-99"/>
          <Node pos="r" depth="2" NCoef="0" IVar="-1" Cut="0.0000000000000000e+00" cType="1" res="1.0685877350624651e-04" rms="4.6617224812507629e-01" purity="5.0790983438491821e-01" nType="-99"/>
        </Node>
        <Node pos="r" depth="1" NCoef="0" IVar="-1" Cut="0.0000000000000000e+00" cType="1" res="9.1090548085048795e-04" rms="4.6158021688461304e-01" purity="6.2617182731628418e-01" nType="-99"/>
      </Node>
    </BinaryTree>
    <BinaryTree type="DecisionTree" boostWeight="1.0000000000000000e+00" itree="844">
      <Node pos="s" depth="0" NCoef="0" IVar="6" Cut="8.2228966057300568e-02" cType="1" res="2.3388194385915995e-03" rms="4.6400460600852966e-01" purity="5.0199592113494873e-01" nType="0">
        <Node pos="l" depth="1" NCoef="0" IVar="1" Cut="7.2458112239837646e-01" cType="1" res="-5.0706337206065655e-03" rms="4.6438702940940857e-01" purity="4.6280267834663391e-01" nType="0">
          <Node pos="l" depth="2" NCoef="0" IVar="-1" Cut="0.0000000000000000e+00" cType="1" res="-7.6535440030056634e-07" rms="4.6270453929901123e-01" purity="4.3941998481750488e-01" nType="-99"/>
          <Node pos="r" depth="2" NCoef="0" IVar="-1" Cut="0.0000000000000000e+00" cType="1" res="-7.7725591836497188e-04" rms="4.7109153866767883e-01" purity="5.6593930721282959e-01" nType="-99"/>
        </Node>
        <Node pos="r" depth="1" NCoef="0" IVar="2" Cut="5.7568273925781250e+02" cType="1" res="9.5613244920969009e-03" rms="4.6351757645606995e-01" purity="5.4020029306411743e-01" nType="0">
          <Node pos="l" depth="2" NCoef="0" IVar="-1" Cut="0.0000000000000000e+00" cType="1" res="1.1641952005447820e-04" rms="4.6840086579322815e-01" purity="4.9008533358573914e-01" nType="-99"/>
          <Node pos="r" depth="2" NCoef="0" IVar="-1" Cut="0.0000000000000000e+00" cType="1" res="6.4399669645354152e-04" rms="4.5041131973266602e-01" purity="6.6876268386840820e-01" nType="-99"/>
        </Node>
      </Node>
    </BinaryTree>
    <BinaryTree type="DecisionTree" boostWeight="1.0000000000000000e+00" itree="845">
      <Node pos="s" depth="0" NCoef="0" IVar="1" Cut="8.6486232280731201e-01" cType="1" res="3.0287851113826036e-03" rms="4.6398982405662537e-01" purity="5.0311517715454102e-01" nType="0">
        <Node pos="l" depth="1" NCoef="0" IVar="0" Cut="-4.4336993247270584e-02" cType="1" res="1.7264789494220167e-04" rms="4.6484962105751038e-01" purity="4.9016240239143372e-01" nType="0">
          <Node pos="l" depth="2" NCoef="0" IVar="-1" Cut="0.0000000000000000e+00" cType="1" res="-4.8220719327218831e-04" rms="4.5881211757659912e-01" purity="4.0879583358764648e-01" nType="-99"/>
          <Node pos="r" depth="2" NCoef="0" IVar="-1" Cut="0.0000000000000000e+00" cType="1" res="1.9490005797706544e-04" rms="4.6754029393196106e-01" purity="5.2863126993179321e-01" nType="-99"/>
        </Node>
        <Node pos="r" depth="1" NCoef="0" IVar="-1" Cut="0.0000000000000000e+00" cType="1" res="9.7501662094146013e-04" rms="4.5191606879234314e-01" purity="6.6116017103195190e-01" nType="-99"/>
      </Node>
    </BinaryTree>
    <BinaryTree type="DecisionTree" boostWeight="1.0000000000000000e+00" itree="846">
      <Node pos="s" depth="0" NCoef="0" IVar="2" Cut="5.2866986083984375e+02" cType="1" res="7.9178810119628906e-04" rms="4.6468803286552429e-01" purity="4.9889507889747620e-01" nType="0">
        <Node pos="l" depth="1" NCoef="0" IVar="2" Cut="3.5281396484375000e+02" cType="1" res="-7.2428802959620953e-03" rms="4.6097555756568909e-01" purity="4.2224931716918945e-01" nType="0">
          <Node pos="l" depth="2" NCoef="0" IVar="-1" Cut="0.0000000000000000e+00" cType="1" res="-1.9369723740965128e-03" rms="4.2959696054458618e-01" purity="2.7792254090309143e-01" nType="-99"/>
          <Node pos="r" depth="2" NCoef="0" IVar="-1" Cut="0.0000000000000000e+00" cType="1" res="-1.1363648081896827e-04" rms="4.6424752473831177e-01" purity="4.3862006068229675e-01" nType="-99"/>
        </Node>
        <Node pos="r" depth="1" NCoef="0" IVar="7" Cut="1.6891618347167969e+02" cType="1" res="8.7937721982598305e-03" rms="4.6821913123130798e-01" purity="5.7522916793823242e-01" nType="0">
          <Node pos="l" depth="2" NCoef="0" IVar="-1" Cut="0.0000000000000000e+00" cType="1" res="3.6049485788680613e-04" rms="4.6802553534507751e-01" purity="5.8222717046737671e-01" nType="-99"/>
          <Node pos="r" depth="2" NCoef="0" IVar="-1" Cut="0.0000000000000000e+00" cType="1" res="-3.8251030491665006e-04" rms="4.6863707900047302e-01" purity="5.3942209482192993e-01" nType="-99"/>
        </Node>
      </Node>
    </BinaryTree>
    <BinaryTree type="DecisionTree" boostWeight="1.0000000000000000e+00" itree="847">
      <Node pos="s" depth="0" NCoef="0" IVar="0" Cut="1.7039993405342102e-01" cType="1" res="-2.1554296836256981e-03" rms="4.6500119566917419e-01" purity="4.9517288804054260e-01" nType="0">
        <Node pos="l" depth="1" NCoef="0" IVar="4" Cut="9.0954756736755371e-01" cType="1" res="-5.9846737422049046e-03" rms="4.6437269449234009e-01" purity="4.7821408510208130e-01" nType="0">
          <Node pos="l" depth="2" NCoef="0" IVar="-1" Cut="0.0000000000000000e+00" cType="1" res="-1.6468773828819394e-03" rms="4.3333649635314941e-01" purity="2.8922373056411743e-01" nType="-99"/>
          <Node pos="r" depth="2" NCoef="0" IVar="-1" Cut="0.0000000000000000e+00" cType="1" res="-1.1693519627442583e-04" rms="4.6651828289031982e-01" purity="4.9226301908493042e-01" nType="-99"/>
        </Node>
        <Node pos="r" depth="1" NCoef="0" IVar="6" Cut="6.0024041682481766e-02" cType="1" res="2.0114459097385406e-02" rms="4.6801909804344177e-01" purity="5.9380102157592773e-01" nType="0">
          <Node pos="l" depth="2" NCoef="0" IVar="-1" Cut="0.0000000000000000e+00" cType="1" res="1.3575216871686280e-04" rms="4.7388041019439697e-01" purity="5.7131582498550415e-01" nType="-99"/>
          <Node pos="r" depth="2" NCoef="0" IVar="-1" Cut="0.0000000000000000e+00" cType="1" res="9.3210756313055754e-04" rms="4.6172776818275452e-01" purity="6.1580324172973633e-01" nType="-99"/>
        </Node>
      </Node>
    </BinaryTree>
    <BinaryTree type="DecisionTree" boostWeight="1.0000000000000000e+00" itree="848">
      <Node pos="s" depth="0" NCoef="0" IVar="3" Cut="1.4597004699707031e+02" cType="1" res="2.8797464910894632e-03" rms="4.6479278802871704e-01" purity="5.0147128105163574e-01" nType="0">
        <Node pos="l" depth="1" NCoef="0" IVar="6" Cut="5.7170461863279343e-02" cType="1" res="4.7530001029372215e-04" rms="4.6607652306556702e-01" purity="4.9173152446746826e-01" nType="0">
          <Node pos="l" depth="2" NCoef="0" IVar="-1" Cut="0.0000000000000000e+00" cType="1" res="-3.5703057073988020e-04" rms="4.6474638581275940e-01" purity="4.4086006283760071e-01" nType="-99"/>
          <Node pos="r" depth="2" NCoef="0" IVar="-1" Cut="0.0000000000000000e+00" cType="1" res="1.7383157683070749e-04" rms="4.6662902832031250e-01" purity="5.1648890972137451e-01" nType="-99"/>
        </Node>
        <Node pos="r" depth="1" NCoef="0" IVar="-1" Cut="0.0000000000000000e+00" cType="1" res="8.8584318291395903e-04" rms="4.4810476899147034e-01" purity="6.1829429864883423e-01" nType="-99"/>
      </Node>
    </BinaryTree>
    <BinaryTree type="DecisionTree" boostWeight="1.0000000000000000e+00" itree="849">
      <Node pos="s" depth="0" NCoef="0" IVar="6" Cut="2.0523272454738617e-01" cType="1" res="4.3289209716022015e-03" rms="4.6393451094627380e-01" purity="5.0410801172256470e-01" nType="0">
        <Node pos="l" depth="1" NCoef="0" IVar="2" Cut="9.4368658447265625e+02" cType="1" res="1.5833084471523762e-03" rms="4.6419283747673035e-01" purity="4.9548336863517761e-01" nType="0">
          <Node pos="l" depth="2" NCoef="0" IVar="-1" Cut="0.0000000000000000e+00" cType="1" res="-2.0408217096701264e-05" rms="4.6453788876533508e-01" purity="4.8502254486083984e-01" nType="-99"/>
          <Node pos="r" depth="2" NCoef="0" IVar="-1" Cut="0.0000000000000000e+00" cType="1" res="8.8708708062767982e-04" rms="4.5819100737571716e-01" purity="6.4201581478118896e-01" nType="-99"/>
        </Node>
        <Node pos="r" depth="1" NCoef="0" IVar="-1" Cut="0.0000000000000000e+00" cType="1" res="8.7598862592130899e-04" rms="4.6035322546958923e-01" purity="5.9215259552001953e-01" nType="-99"/>
      </Node>
    </BinaryTree>
    <BinaryTree type="DecisionTree" boostWeight="1.0000000000000000e+00" itree="850">
      <Node pos="s" depth="0" NCoef="0" IVar="0" Cut="2.6753991842269897e-02" cType="1" res="1.4087881427258253e-03" rms="4.6352413296699524e-01" purity="5.0077277421951294e-01" nType="0">
        <Node pos="l" depth="1" NCoef="0" IVar="1" Cut="7.2146886587142944e-01" cType="1" res="-5.6786867789924145e-03" rms="4.6059516072273254e-01" purity="4.6097451448440552e-01" nType="0">
          <Node pos="l" depth="2" NCoef="0" IVar="-1" Cut="0.0000000000000000e+00" cType="1" res="-6.4566126093268394e-04" rms="4.5189017057418823e-01" purity="3.5638248920440674e-01" nType="-99"/>
          <Node pos="r" depth="2" NCoef="0" IVar="-1" Cut="0.0000000000000000e+00" cType="1" res="1.9841387984342873e-04" rms="4.7043442726135254e-01" purity="5.8562821149826050e-01" nType="-99"/>
        </Node>
        <Node pos="r" depth="1" NCoef="0" IVar="3" Cut="7.9198501586914062e+01" cType="1" res="1.0687632486224174e-02" rms="4.6716845035552979e-01" purity="5.5287617444992065e-01" nType="0">
          <Node pos="l" depth="2" NCoef="0" IVar="-1" Cut="0.0000000000000000e+00" cType="1" res="6.4843276049941778e-04" rms="4.6847096085548401e-01" purity="5.6115901470184326e-01" nType="-99"/>
          <Node pos="r" depth="2" NCoef="0" IVar="-1" Cut="0.0000000000000000e+00" cType="1" res="4.2177623981842771e-05" rms="4.6597486734390259e-01" purity="5.4666084051132202e-01" nType="-99"/>
        </Node>
      </Node>
    </BinaryTree>
    <BinaryTree type="DecisionTree" boostWeight="1.0000000000000000e+00" itree="851">
      <Node pos="s" depth="0" NCoef="0" IVar="2" Cut="9.4056719970703125e+02" cType="1" res="-1.7362987273372710e-04" rms="4.6514353156089783e-01" purity="4.9901217222213745e-01" nType="0">
        <Node pos="l" depth="1" NCoef="0" IVar="4" Cut="9.1283321380615234e-01" cType="1" res="-2.3972794879227877e-03" rms="4.6562930941581726e-01" purity="4.8920744657516479e-01" nType="0">
          <Node pos="l" depth="2" NCoef="0" IVar="-1" Cut="0.0000000000000000e+00" cType="1" res="-9.6893112640827894e-04" rms="4.4543799757957458e-01" purity="3.1167680025100708e-01" nType="-99"/>
          <Node pos="r" depth="2" NCoef="0" IVar="-1" Cut="0.0000000000000000e+00" cType="1" res="-1.4303072930488270e-05" rms="4.6742647886276245e-01" purity="5.0581061840057373e-01" nType="-99"/>
        </Node>
        <Node pos="r" depth="1" NCoef="0" IVar="-1" Cut="0.0000000000000000e+00" cType="1" res="9.0102275134995580e-04" rms="4.5655658841133118e-01" purity="6.4519768953323364e-01" nType="-99"/>
      </Node>
    </BinaryTree>
    <BinaryTree type="DecisionTree" boostWeight="1.0000000000000000e+00" itree="852">
      <Node pos="s" depth="0" NCoef="0" IVar="4" Cut="9.4898200035095215e-01" cType="1" res="2.2635713685303926e-03" rms="4.6335208415985107e-01" purity="5.0265383720397949e-01" nType="0">
        <Node pos="l" depth="1" NCoef="0" IVar="7" Cut="1.1519133758544922e+02" cType="1" res="-6.6517763771116734e-03" rms="4.6453595161437988e-01" purity="3.9565417170524597e-01" nType="0">
          <Node pos="l" depth="2" NCoef="0" IVar="-1" Cut="0.0000000000000000e+00" cType="1" res="-4.6499774907715619e-04" rms="4.6367529034614563e-01" purity="3.7652629613876343e-01" nType="-99"/>
          <Node pos="r" depth="2" NCoef="0" IVar="-1" Cut="0.0000000000000000e+00" cType="1" res="1.6433985729236156e-04" rms="4.6588328480720520e-01" purity="4.3060195446014404e-01" nType="-99"/>
        </Node>
        <Node pos="r" depth="1" NCoef="0" IVar="7" Cut="8.2090095520019531e+01" cType="1" res="9.4237243756651878e-03" rms="4.6227464079856873e-01" purity="5.8858817815780640e-01" nType="0">
          <Node pos="l" depth="2" NCoef="0" IVar="-1" Cut="0.0000000000000000e+00" cType="1" res="-1.3142758689355105e-04" rms="4.6836251020431519e-01" purity="5.5657780170440674e-01" nType="-99"/>
          <Node pos="r" depth="2" NCoef="0" IVar="-1" Cut="0.0000000000000000e+00" cType="1" res="4.7719138092361391e-04" rms="4.5873478055000305e-01" purity="6.0607224702835083e-01" nType="-99"/>
        </Node>
      </Node>
    </BinaryTree>
  </Weights>
</MethodSetup>
