<?xml version="1.0"?>
<MethodSetup Method="BDT::BDTG">
  <GeneralInfo>
    <Info name="TMVA Release" value="4.2.1 [262657]"/>
    <Info name="ROOT Release" value="6.06/01 [394753]"/>
    <Info name="Creator" value="lreuter"/>
    <Info name="Date" value="Wed Apr 11 14:31:27 2018"/>
    <Info name="Host" value="Linux vocms0301.cern.ch 2.6.32-642.11.1.el6.x86_64 #1 SMP Wed Nov 16 09:40:09 CET 2016 x86_64 x86_64 x86_64 GNU/Linux"/>
    <Info name="Dir" value="/nfs/dust/cms/user/lreuter/BDTs/DeepCSV/TTH_BDT_Training/2training"/>
    <Info name="Training events" value="56724"/>
    <Info name="TrainingTime" value="6.87881021e+01"/>
    <Info name="AnalysisType" value="Classification"/>
  </GeneralInfo>
  <Options>
    <Option name="V" modified="Yes">False</Option>
    <Option name="VerbosityLevel" modified="No">Default</Option>
    <Option name="VarTransform" modified="No">None</Option>
    <Option name="H" modified="Yes">False</Option>
    <Option name="CreateMVAPdfs" modified="No">False</Option>
    <Option name="IgnoreNegWeightsInTraining" modified="No">False</Option>
    <Option name="NTrees" modified="Yes">1045</Option>
    <Option name="MaxDepth" modified="Yes">2</Option>
    <Option name="MinNodeSize" modified="No">5%</Option>
    <Option name="nCuts" modified="Yes">47</Option>
    <Option name="BoostType" modified="Yes">Grad</Option>
    <Option name="AdaBoostR2Loss" modified="No">quadratic</Option>
    <Option name="UseBaggedBoost" modified="Yes">True</Option>
    <Option name="Shrinkage" modified="Yes">3.163434e-02</Option>
    <Option name="AdaBoostBeta" modified="No">5.000000e-01</Option>
    <Option name="UseRandomisedTrees" modified="No">False</Option>
    <Option name="UseNvars" modified="No">3</Option>
    <Option name="UsePoissonNvars" modified="No">True</Option>
    <Option name="BaggedSampleFraction" modified="No">5.423914e-01</Option>
    <Option name="UseYesNoLeaf" modified="No">True</Option>
    <Option name="NegWeightTreatment" modified="Yes">ignorenegweightsintraining</Option>
    <Option name="Css" modified="No">1.000000e+00</Option>
    <Option name="Cts_sb" modified="No">1.000000e+00</Option>
    <Option name="Ctb_ss" modified="No">1.000000e+00</Option>
    <Option name="Cbb" modified="No">1.000000e+00</Option>
    <Option name="NodePurityLimit" modified="No">5.000000e-01</Option>
    <Option name="SeparationType" modified="No">giniindex</Option>
    <Option name="DoBoostMonitor" modified="No">False</Option>
    <Option name="UseFisherCuts" modified="No">False</Option>
    <Option name="MinLinCorrForFisher" modified="No">8.000000e-01</Option>
    <Option name="UseExclusiveVars" modified="No">False</Option>
    <Option name="DoPreselection" modified="No">False</Option>
    <Option name="SigToBkgFraction" modified="No">1.000000e+00</Option>
    <Option name="PruneMethod" modified="No">nopruning</Option>
    <Option name="PruneStrength" modified="No">0.000000e+00</Option>
    <Option name="PruningValFraction" modified="No">5.000000e-01</Option>
    <Option name="nEventsMin" modified="No">0</Option>
    <Option name="UseBaggedGrad" modified="No">False</Option>
    <Option name="GradBaggingFraction" modified="Yes">5.423914e-01</Option>
    <Option name="UseNTrainEvents" modified="No">0</Option>
    <Option name="NNodesMax" modified="No">0</Option>
  </Options>
  <Variables NVar="10">
    <Variable VarIndex="0" Expression="Evt_Deta_JetsAverage" Label="Evt_Deta_JetsAverage" Title="Evt_Deta_JetsAverage" Unit="" Internal="Evt_Deta_JetsAverage" Type="F" Min="1.66304395e-01" Max="2.51876807e+00"/>
    <Variable VarIndex="1" Expression="dEta_fn" Label="dEta_fn" Title="dEta_fn" Unit="" Internal="dEta_fn" Type="F" Min="2.57780589e-03" Max="7.14365673e+00"/>
    <Variable VarIndex="2" Expression="avg_btag_disc_btags" Label="avg_btag_disc_btags" Title="avg_btag_disc_btags" Unit="" Internal="avg_btag_disc_btags" Type="F" Min="5.09865880e-01" Max="9.99488413e-01"/>
    <Variable VarIndex="3" Expression="closest_tagged_dijet_mass" Label="closest_tagged_dijet_mass" Title="closest_tagged_dijet_mass" Unit="" Internal="closest_tagged_dijet_mass" Type="F" Min="1.65893307e+01" Max="7.02441895e+02"/>
    <Variable VarIndex="4" Expression="best_higgs_mass" Label="best_higgs_mass" Title="best_higgs_mass" Unit="" Internal="best_higgs_mass" Type="F" Min="1.80108528e+01" Max="2.29662256e+03"/>
    <Variable VarIndex="5" Expression="Evt_Deta_TaggedJetsAverage" Label="Evt_Deta_TaggedJetsAverage" Title="Evt_Deta_TaggedJetsAverage" Unit="" Internal="Evt_Deta_TaggedJetsAverage" Type="F" Min="1.79828312e-02" Max="3.00549459e+00"/>
    <Variable VarIndex="6" Expression="dev_from_avg_disc_btags" Label="dev_from_avg_disc_btags" Title="dev_from_avg_disc_btags" Unit="" Internal="dev_from_avg_disc_btags" Type="F" Min="1.07534973e-07" Max="6.19634725e-02"/>
    <Variable VarIndex="7" Expression="fourth_highest_btag" Label="fourth_highest_btag" Title="fourth_highest_btag" Unit="" Internal="fourth_highest_btag" Type="F" Min="4.94100600e-01" Max="9.98790860e-01"/>
    <Variable VarIndex="8" Expression="Evt_CSV_Average" Label="Evt_CSV_Average" Title="Evt_CSV_Average" Unit="" Internal="Evt_CSV_Average" Type="F" Min="2.50534981e-01" Max="9.57463443e-01"/>
    <Variable VarIndex="9" Expression="second_highest_btag" Label="second_highest_btag" Title="second_highest_btag" Unit="" Internal="second_highest_btag" Type="F" Min="5.05702972e-01" Max="9.99822557e-01"/>
  </Variables>
  <Spectators NSpec="0"/>
  <Classes NClass="2">
    <Class Name="Signal" Index="0"/>
    <Class Name="Background" Index="1"/>
  </Classes>
  <Transformations NTransformations="0"/>
  <MVAPdfs/>
  <Weights NTrees="1045" AnalysisType="1">
    <BinaryTree type="DecisionTree" boostWeight="1.0000000000000000e+00" itree="0">
      <Node pos="s" depth="0" NCoef="0" IVar="5" Cut="1.2091212272644043e+00" cType="1" res="-3.4384347964078188e-03" rms="4.9998816847801208e-01" purity="4.9656158685684204e-01" nType="0">
        <Node pos="l" depth="1" NCoef="0" IVar="2" Cut="8.5040247440338135e-01" cType="1" res="9.3141689896583557e-02" rms="4.9124804139137268e-01" purity="5.9314167499542236e-01" nType="0">
          <Node pos="l" depth="2" NCoef="0" IVar="-1" Cut="0.0000000000000000e+00" cType="1" res="-3.4196747583337128e-04" rms="4.9984017014503479e-01" purity="4.8735845088958740e-01" nType="-99"/>
          <Node pos="r" depth="2" NCoef="0" IVar="-1" Cut="0.0000000000000000e+00" cType="1" res="5.8533842675387859e-03" rms="4.6976149082183838e-01" purity="6.7124289274215698e-01" nType="-99"/>
        </Node>
        <Node pos="r" depth="1" NCoef="0" IVar="5" Cut="1.6956757307052612e+00" cType="1" res="-1.9832816720008850e-01" rms="4.5898360013961792e-01" purity="3.0167183279991150e-01" nType="0">
          <Node pos="l" depth="2" NCoef="0" IVar="-1" Cut="0.0000000000000000e+00" cType="1" res="-3.3291175495833158e-03" rms="4.7891032695770264e-01" purity="3.5631668567657471e-01" nType="-99"/>
          <Node pos="r" depth="2" NCoef="0" IVar="-1" Cut="0.0000000000000000e+00" cType="1" res="-6.5282420255243778e-03" rms="3.7113857269287109e-01" purity="1.6495350003242493e-01" nType="-99"/>
        </Node>
      </Node>
    </BinaryTree>
    <BinaryTree type="DecisionTree" boostWeight="1.0000000000000000e+00" itree="1">
      <Node pos="s" depth="0" NCoef="0" IVar="5" Cut="1.3267549276351929e+00" cType="1" res="3.1358068808913231e-03" rms="4.9930182099342346e-01" purity="5.0352162122726440e-01" nType="0">
        <Node pos="l" depth="1" NCoef="0" IVar="2" Cut="8.3628088235855103e-01" cType="1" res="8.0779612064361572e-02" rms="4.9288016557693481e-01" purity="5.8208584785461426e-01" nType="0">
          <Node pos="l" depth="2" NCoef="0" IVar="-1" Cut="0.0000000000000000e+00" cType="1" res="-1.0242414427921176e-03" rms="4.9841484427452087e-01" purity="4.6056687831878662e-01" nType="-99"/>
          <Node pos="r" depth="2" NCoef="0" IVar="-1" Cut="0.0000000000000000e+00" cType="1" res="4.9112210981547832e-03" rms="4.7675806283950806e-01" purity="6.5014940500259399e-01" nType="-99"/>
        </Node>
        <Node pos="r" depth="1" NCoef="0" IVar="5" Cut="1.6812382936477661e+00" cType="1" res="-2.1885338425636292e-01" rms="4.4833409786224365e-01" purity="2.7890077233314514e-01" nType="0">
          <Node pos="l" depth="2" NCoef="0" IVar="-1" Cut="0.0000000000000000e+00" cType="1" res="-3.6755679175257683e-03" rms="4.7230055928230286e-01" purity="3.3588966727256775e-01" nType="-99"/>
          <Node pos="r" depth="2" NCoef="0" IVar="-1" Cut="0.0000000000000000e+00" cType="1" res="-6.1728595755994320e-03" rms="3.8836610317230225e-01" purity="1.8509778380393982e-01" nType="-99"/>
        </Node>
      </Node>
    </BinaryTree>
    <BinaryTree type="DecisionTree" boostWeight="1.0000000000000000e+00" itree="2">
      <Node pos="s" depth="0" NCoef="0" IVar="5" Cut="1.1901690959930420e+00" cType="1" res="-8.3635991904884577e-04" rms="4.9868524074554443e-01" purity="4.9993512034416199e-01" nType="0">
        <Node pos="l" depth="1" NCoef="0" IVar="2" Cut="8.3496910333633423e-01" cType="1" res="9.6403189003467560e-02" rms="4.8950466513633728e-01" purity="5.9941071271896362e-01" nType="0">
          <Node pos="l" depth="2" NCoef="0" IVar="-1" Cut="0.0000000000000000e+00" cType="1" res="-5.3824647329747677e-04" rms="4.9956959486007690e-01" purity="4.7925794124603271e-01" nType="-99"/>
          <Node pos="r" depth="2" NCoef="0" IVar="-1" Cut="0.0000000000000000e+00" cType="1" res="5.5116028524935246e-03" rms="4.7153747081756592e-01" purity="6.6620963811874390e-01" nType="-99"/>
        </Node>
        <Node pos="r" depth="1" NCoef="0" IVar="5" Cut="1.6833770275115967e+00" cType="1" res="-1.7985342442989349e-01" rms="4.6468701958656311e-01" purity="3.1680151820182800e-01" nType="0">
          <Node pos="l" depth="2" NCoef="0" IVar="-1" Cut="0.0000000000000000e+00" cType="1" res="-2.9888099525123835e-03" rms="4.8282724618911743e-01" purity="3.7108394503593445e-01" nType="-99"/>
          <Node pos="r" depth="2" NCoef="0" IVar="-1" Cut="0.0000000000000000e+00" cType="1" res="-6.1839553527534008e-03" rms="3.8291272521018982e-01" purity="1.7849686741828918e-01" nType="-99"/>
        </Node>
      </Node>
    </BinaryTree>
    <BinaryTree type="DecisionTree" boostWeight="1.0000000000000000e+00" itree="3">
      <Node pos="s" depth="0" NCoef="0" IVar="5" Cut="1.3502519130706787e+00" cType="1" res="-2.1756631322205067e-03" rms="4.9803048372268677e-01" purity="4.9899333715438843e-01" nType="0">
        <Node pos="l" depth="1" NCoef="0" IVar="2" Cut="8.4624832868576050e-01" cType="1" res="7.0824906229972839e-02" rms="4.9345123767852783e-01" purity="5.7454586029052734e-01" nType="0">
          <Node pos="l" depth="2" NCoef="0" IVar="-1" Cut="0.0000000000000000e+00" cType="1" res="-1.0072839213535190e-03" rms="4.9827310442924500e-01" purity="4.6083846688270569e-01" nType="-99"/>
          <Node pos="r" depth="2" NCoef="0" IVar="-1" Cut="0.0000000000000000e+00" cType="1" res="4.9689332954585552e-03" rms="4.7492507100105286e-01" purity="6.5544933080673218e-01" nType="-99"/>
        </Node>
        <Node pos="r" depth="1" NCoef="0" IVar="5" Cut="1.7296119928359985e+00" cType="1" res="-2.2868521511554718e-01" rms="4.4077220559120178e-01" purity="2.6456561684608459e-01" nType="0">
          <Node pos="l" depth="2" NCoef="0" IVar="-1" Cut="0.0000000000000000e+00" cType="1" res="-3.9163143374025822e-03" rms="4.6561661362648010e-01" purity="3.1781971454620361e-01" nType="-99"/>
          <Node pos="r" depth="2" NCoef="0" IVar="-1" Cut="0.0000000000000000e+00" cType="1" res="-6.3186208717525005e-03" rms="3.6928379535675049e-01" purity="1.6291026771068573e-01" nType="-99"/>
        </Node>
      </Node>
    </BinaryTree>
    <BinaryTree type="DecisionTree" boostWeight="1.0000000000000000e+00" itree="4">
      <Node pos="s" depth="0" NCoef="0" IVar="5" Cut="1.1943176984786987e+00" cType="1" res="4.0645289118401706e-05" rms="4.9723100662231445e-01" purity="5.0155359506607056e-01" nType="0">
        <Node pos="l" depth="1" NCoef="0" IVar="2" Cut="8.4648138284683228e-01" cType="1" res="1.0395665466785431e-01" rms="4.8668876290321350e-01" purity="6.0995948314666748e-01" nType="0">
          <Node pos="l" depth="2" NCoef="0" IVar="-1" Cut="0.0000000000000000e+00" cType="1" res="-7.3335068009328097e-05" rms="4.9988520145416260e-01" purity="4.9656873941421509e-01" nType="-99"/>
          <Node pos="r" depth="2" NCoef="0" IVar="-1" Cut="0.0000000000000000e+00" cType="1" res="6.2139146029949188e-03" rms="4.6414479613304138e-01" purity="6.8590092658996582e-01" nType="-99"/>
        </Node>
        <Node pos="r" depth="1" NCoef="0" IVar="5" Cut="1.6039615869522095e+00" cType="1" res="-1.8985509872436523e-01" rms="4.5869389176368713e-01" purity="3.0345302820205688e-01" nType="0">
          <Node pos="l" depth="2" NCoef="0" IVar="-1" Cut="0.0000000000000000e+00" cType="1" res="-3.0275245662778616e-03" rms="4.8105248808860779e-01" purity="3.6583074927330017e-01" nType="-99"/>
          <Node pos="r" depth="2" NCoef="0" IVar="-1" Cut="0.0000000000000000e+00" cType="1" res="-5.8780312538146973e-03" rms="3.9479902386665344e-01" purity="1.9342157244682312e-01" nType="-99"/>
        </Node>
      </Node>
    </BinaryTree>
    <BinaryTree type="DecisionTree" boostWeight="1.0000000000000000e+00" itree="5">
      <Node pos="s" depth="0" NCoef="0" IVar="5" Cut="1.1711221933364868e+00" cType="1" res="-1.5580622712150216e-03" rms="4.9676755070686340e-01" purity="5.0058978796005249e-01" nType="0">
        <Node pos="l" depth="1" NCoef="0" IVar="2" Cut="8.3214575052261353e-01" cType="1" res="9.2824742197990417e-02" rms="4.8855933547019958e-01" purity="6.0071259737014771e-01" nType="0">
          <Node pos="l" depth="2" NCoef="0" IVar="-1" Cut="0.0000000000000000e+00" cType="1" res="-3.9030922926031053e-04" rms="4.9974444508552551e-01" purity="4.8401567339897156e-01" nType="-99"/>
          <Node pos="r" depth="2" NCoef="0" IVar="-1" Cut="0.0000000000000000e+00" cType="1" res="5.0037833862006664e-03" rms="4.7343090176582336e-01" purity="6.6038638353347778e-01" nType="-99"/>
        </Node>
        <Node pos="r" depth="1" NCoef="0" IVar="2" Cut="8.4283417463302612e-01" cType="1" res="-1.7067874968051910e-01" rms="4.6551716327667236e-01" purity="3.2118400931358337e-01" nType="0">
          <Node pos="l" depth="2" NCoef="0" IVar="-1" Cut="0.0000000000000000e+00" cType="1" res="-5.4291719570755959e-03" rms="4.1811209917068481e-01" purity="2.2682464122772217e-01" nType="-99"/>
          <Node pos="r" depth="2" NCoef="0" IVar="-1" Cut="0.0000000000000000e+00" cType="1" res="-2.1612993441522121e-03" rms="4.8924282193183899e-01" purity="4.0456563234329224e-01" nType="-99"/>
        </Node>
      </Node>
    </BinaryTree>
    <BinaryTree type="DecisionTree" boostWeight="1.0000000000000000e+00" itree="6">
      <Node pos="s" depth="0" NCoef="0" IVar="5" Cut="1.3862445354461670e+00" cType="1" res="-8.0240229144692421e-03" rms="4.9607363343238831e-01" purity="4.9431508779525757e-01" nType="0">
        <Node pos="l" depth="1" NCoef="0" IVar="2" Cut="8.1993895769119263e-01" cType="1" res="5.9261199086904526e-02" rms="4.9356961250305176e-01" purity="5.6629306077957153e-01" nType="0">
          <Node pos="l" depth="2" NCoef="0" IVar="-1" Cut="0.0000000000000000e+00" cType="1" res="-1.8688217969611287e-03" rms="4.9358028173446655e-01" purity="4.2218288779258728e-01" nType="-99"/>
          <Node pos="r" depth="2" NCoef="0" IVar="-1" Cut="0.0000000000000000e+00" cType="1" res="3.8134574424475431e-03" rms="4.8210257291793823e-01" purity="6.2880498170852661e-01" nType="-99"/>
        </Node>
        <Node pos="r" depth="1" NCoef="0" IVar="5" Cut="1.6961323022842407e+00" cType="1" res="-2.3548156023025513e-01" rms="4.3292582035064697e-01" purity="2.5099366903305054e-01" nType="0">
          <Node pos="l" depth="2" NCoef="0" IVar="-1" Cut="0.0000000000000000e+00" cType="1" res="-3.9030406624078751e-03" rms="4.6383768320083618e-01" purity="3.1372389197349548e-01" nType="-99"/>
          <Node pos="r" depth="2" NCoef="0" IVar="-1" Cut="0.0000000000000000e+00" cType="1" res="-6.1110765673220158e-03" rms="3.7309238314628601e-01" purity="1.6720288991928101e-01" nType="-99"/>
        </Node>
      </Node>
    </BinaryTree>
    <BinaryTree type="DecisionTree" boostWeight="1.0000000000000000e+00" itree="7">
      <Node pos="s" depth="0" NCoef="0" IVar="5" Cut="1.2091212272644043e+00" cType="1" res="8.9372257934883237e-04" rms="4.9545282125473022e-01" purity="5.0351434946060181e-01" nType="0">
        <Node pos="l" depth="1" NCoef="0" IVar="2" Cut="8.4594756364822388e-01" cType="1" res="9.0637117624282837e-02" rms="4.8785579204559326e-01" purity="6.0074877738952637e-01" nType="0">
          <Node pos="l" depth="2" NCoef="0" IVar="-1" Cut="0.0000000000000000e+00" cType="1" res="-3.7795485695824027e-04" rms="4.9951395392417908e-01" purity="4.8503440618515015e-01" nType="-99"/>
          <Node pos="r" depth="2" NCoef="0" IVar="-1" Cut="0.0000000000000000e+00" cType="1" res="5.6987870484590530e-03" rms="4.6597597002983093e-01" purity="6.8102836608886719e-01" nType="-99"/>
        </Node>
        <Node pos="r" depth="1" NCoef="0" IVar="5" Cut="1.5085760354995728e+00" cType="1" res="-1.7646318674087524e-01" rms="4.6137246489524841e-01" purity="3.1135314702987671e-01" nType="0">
          <Node pos="l" depth="2" NCoef="0" IVar="-1" Cut="0.0000000000000000e+00" cType="1" res="-2.2561242803931236e-03" rms="4.8883217573165894e-01" purity="3.9937275648117065e-01" nType="-99"/>
          <Node pos="r" depth="2" NCoef="0" IVar="-1" Cut="0.0000000000000000e+00" cType="1" res="-5.3416388109326363e-03" rms="4.1255724430084229e-01" purity="2.1828003227710724e-01" nType="-99"/>
        </Node>
      </Node>
    </BinaryTree>
    <BinaryTree type="DecisionTree" boostWeight="1.0000000000000000e+00" itree="8">
      <Node pos="s" depth="0" NCoef="0" IVar="5" Cut="1.3250192403793335e+00" cType="1" res="-4.6117473393678665e-03" rms="4.9498888850212097e-01" purity="4.9857109785079956e-01" nType="0">
        <Node pos="l" depth="1" NCoef="0" IVar="2" Cut="8.0173343420028687e-01" cType="1" res="6.8847149610519409e-02" rms="4.9142152070999146e-01" purity="5.7910639047622681e-01" nType="0">
          <Node pos="l" depth="2" NCoef="0" IVar="-1" Cut="0.0000000000000000e+00" cType="1" res="-2.0026206038892269e-03" rms="4.9273762106895447e-01" purity="4.1619741916656494e-01" nType="-99"/>
          <Node pos="r" depth="2" NCoef="0" IVar="-1" Cut="0.0000000000000000e+00" cType="1" res="3.7265280261635780e-03" rms="4.8168295621871948e-01" purity="6.2990391254425049e-01" nType="-99"/>
        </Node>
        <Node pos="r" depth="1" NCoef="0" IVar="5" Cut="1.7101311683654785e+00" cType="1" res="-2.1303841471672058e-01" rms="4.4299641251564026e-01" purity="2.7006638050079346e-01" nType="0">
          <Node pos="l" depth="2" NCoef="0" IVar="-1" Cut="0.0000000000000000e+00" cType="1" res="-3.6789055448025465e-03" rms="4.6603849530220032e-01" purity="3.1998825073242188e-01" nType="-99"/>
          <Node pos="r" depth="2" NCoef="0" IVar="-1" Cut="0.0000000000000000e+00" cType="1" res="-5.9194564819335938e-03" rms="3.7775740027427673e-01" purity="1.7253395915031433e-01" nType="-99"/>
        </Node>
      </Node>
    </BinaryTree>
    <BinaryTree type="DecisionTree" boostWeight="1.0000000000000000e+00" itree="9">
      <Node pos="s" depth="0" NCoef="0" IVar="5" Cut="1.2229566574096680e+00" cType="1" res="-6.0991197824478149e-03" rms="4.9433225393295288e-01" purity="4.9727812409400940e-01" nType="0">
        <Node pos="l" depth="1" NCoef="0" IVar="2" Cut="8.3605492115020752e-01" cType="1" res="8.0835841596126556e-02" rms="4.8885700106620789e-01" purity="5.9368741512298584e-01" nType="0">
          <Node pos="l" depth="2" NCoef="0" IVar="-1" Cut="0.0000000000000000e+00" cType="1" res="-7.0389703614637256e-04" rms="4.9885958433151245e-01" purity="4.7123146057128906e-01" nType="-99"/>
          <Node pos="r" depth="2" NCoef="0" IVar="-1" Cut="0.0000000000000000e+00" cType="1" res="4.7749080695211887e-03" rms="4.7268840670585632e-01" purity="6.6215658187866211e-01" nType="-99"/>
        </Node>
        <Node pos="r" depth="1" NCoef="0" IVar="5" Cut="1.4980517625808716e+00" cType="1" res="-1.8320553004741669e-01" rms="4.5669224858283997e-01" purity="3.0087038874626160e-01" nType="0">
          <Node pos="l" depth="2" NCoef="0" IVar="-1" Cut="0.0000000000000000e+00" cType="1" res="-2.4621835909783840e-03" rms="4.8620966076850891e-01" purity="3.8773423433303833e-01" nType="-99"/>
          <Node pos="r" depth="2" NCoef="0" IVar="-1" Cut="0.0000000000000000e+00" cType="1" res="-5.2326028235256672e-03" rms="4.1572958230972290e-01" purity="2.2316442430019379e-01" nType="-99"/>
        </Node>
      </Node>
    </BinaryTree>
    <BinaryTree type="DecisionTree" boostWeight="1.0000000000000000e+00" itree="10">
      <Node pos="s" depth="0" NCoef="0" IVar="5" Cut="1.3144599199295044e+00" cType="1" res="-4.3779299594461918e-03" rms="4.9371650815010071e-01" purity="4.9917635321617126e-01" nType="0">
        <Node pos="l" depth="1" NCoef="0" IVar="2" Cut="8.6663514375686646e-01" cType="1" res="7.0798367261886597e-02" rms="4.9020805954933167e-01" purity="5.8349639177322388e-01" nType="0">
          <Node pos="l" depth="2" NCoef="0" IVar="-1" Cut="0.0000000000000000e+00" cType="1" res="-3.8305277121253312e-04" rms="4.9846953153610229e-01" purity="4.8841527104377747e-01" nType="-99"/>
          <Node pos="r" depth="2" NCoef="0" IVar="-1" Cut="0.0000000000000000e+00" cType="1" res="5.4762745276093483e-03" rms="4.6607267856597900e-01" purity="6.8005585670471191e-01" nType="-99"/>
        </Node>
        <Node pos="r" depth="1" NCoef="0" IVar="5" Cut="1.7210336923599243e+00" cType="1" res="-2.0615714788436890e-01" rms="4.4400191307067871e-01" purity="2.7285468578338623e-01" nType="0">
          <Node pos="l" depth="2" NCoef="0" IVar="-1" Cut="0.0000000000000000e+00" cType="1" res="-3.4167433623224497e-03" rms="4.7065219283103943e-01" purity="3.3283817768096924e-01" nType="-99"/>
          <Node pos="r" depth="2" NCoef="0" IVar="-1" Cut="0.0000000000000000e+00" cType="1" res="-5.9902030043303967e-03" rms="3.6588642001152039e-01" purity="1.5931807458400726e-01" nType="-99"/>
        </Node>
      </Node>
    </BinaryTree>
    <BinaryTree type="DecisionTree" boostWeight="1.0000000000000000e+00" itree="11">
      <Node pos="s" depth="0" NCoef="0" IVar="5" Cut="1.3991993665695190e+00" cType="1" res="8.7594659999012947e-03" rms="4.9323204159736633e-01" purity="5.1310265064239502e-01" nType="0">
        <Node pos="l" depth="1" NCoef="0" IVar="2" Cut="8.6227554082870483e-01" cType="1" res="7.2945423424243927e-02" rms="4.8951795697212219e-01" purity="5.8551329374313354e-01" nType="0">
          <Node pos="l" depth="2" NCoef="0" IVar="-1" Cut="0.0000000000000000e+00" cType="1" res="-1.5037195407785475e-04" rms="4.9863934516906738e-01" purity="4.9504470825195312e-01" nType="-99"/>
          <Node pos="r" depth="2" NCoef="0" IVar="-1" Cut="0.0000000000000000e+00" cType="1" res="4.9168546684086323e-03" rms="4.7012472152709961e-01" purity="6.6684728860855103e-01" nType="-99"/>
        </Node>
        <Node pos="r" depth="1" NCoef="0" IVar="2" Cut="8.2207655906677246e-01" cType="1" res="-2.1976543962955475e-01" rms="4.3517979979515076e-01" purity="2.5529491901397705e-01" nType="0">
          <Node pos="l" depth="2" NCoef="0" IVar="-1" Cut="0.0000000000000000e+00" cType="1" res="-5.9666722081601620e-03" rms="3.7400221824645996e-01" purity="1.6857379674911499e-01" nType="-99"/>
          <Node pos="r" depth="2" NCoef="0" IVar="-1" Cut="0.0000000000000000e+00" cType="1" res="-3.5724751651287079e-03" rms="4.6361917257308960e-01" purity="3.1503087282180786e-01" nType="-99"/>
        </Node>
      </Node>
    </BinaryTree>
    <BinaryTree type="DecisionTree" boostWeight="1.0000000000000000e+00" itree="12">
      <Node pos="s" depth="0" NCoef="0" IVar="5" Cut="1.2229566574096680e+00" cType="1" res="-3.8812893908470869e-03" rms="4.9309277534484863e-01" purity="5.0105929374694824e-01" nType="0">
        <Node pos="l" depth="1" NCoef="0" IVar="2" Cut="7.8827404975891113e-01" cType="1" res="7.3181033134460449e-02" rms="4.8898807168006897e-01" purity="5.8997654914855957e-01" nType="0">
          <Node pos="l" depth="2" NCoef="0" IVar="-1" Cut="0.0000000000000000e+00" cType="1" res="-2.4259604979306459e-03" rms="4.8894467949867249e-01" purity="3.9578086137771606e-01" nType="-99"/>
          <Node pos="r" depth="2" NCoef="0" IVar="-1" Cut="0.0000000000000000e+00" cType="1" res="3.7756673991680145e-03" rms="4.7971487045288086e-01" purity="6.3711488246917725e-01" nType="-99"/>
        </Node>
        <Node pos="r" depth="1" NCoef="0" IVar="5" Cut="1.6700046062469482e+00" cType="1" res="-1.6740782558917999e-01" rms="4.6081656217575073e-01" purity="3.1237655878067017e-01" nType="0">
          <Node pos="l" depth="2" NCoef="0" IVar="-1" Cut="0.0000000000000000e+00" cType="1" res="-2.6445328257977962e-03" rms="4.8225888609886169e-01" purity="3.7312990427017212e-01" nType="-99"/>
          <Node pos="r" depth="2" NCoef="0" IVar="-1" Cut="0.0000000000000000e+00" cType="1" res="-5.6721894070506096e-03" rms="3.8333874940872192e-01" purity="1.7920960485935211e-01" nType="-99"/>
        </Node>
      </Node>
    </BinaryTree>
    <BinaryTree type="DecisionTree" boostWeight="1.0000000000000000e+00" itree="13">
      <Node pos="s" depth="0" NCoef="0" IVar="5" Cut="1.2213028669357300e+00" cType="1" res="-7.0912605151534081e-03" rms="4.9213930964469910e-01" purity="4.9769684672355652e-01" nType="0">
        <Node pos="l" depth="1" NCoef="0" IVar="2" Cut="8.3923679590225220e-01" cType="1" res="7.4305914342403412e-02" rms="4.8817625641822815e-01" purity="5.9228563308715820e-01" nType="0">
          <Node pos="l" depth="2" NCoef="0" IVar="-1" Cut="0.0000000000000000e+00" cType="1" res="-8.2020548870787024e-04" rms="4.9837300181388855e-01" purity="4.6667692065238953e-01" nType="-99"/>
          <Node pos="r" depth="2" NCoef="0" IVar="-1" Cut="0.0000000000000000e+00" cType="1" res="4.7698663547635078e-03" rms="4.7045260667800903e-01" purity="6.6865020990371704e-01" nType="-99"/>
        </Node>
        <Node pos="r" depth="1" NCoef="0" IVar="5" Cut="1.6081181764602661e+00" cType="1" res="-1.7526943981647491e-01" rms="4.5634973049163818e-01" purity="3.0226290225982666e-01" nType="0">
          <Node pos="l" depth="2" NCoef="0" IVar="-1" Cut="0.0000000000000000e+00" cType="1" res="-2.6822271756827831e-03" rms="4.8114782571792603e-01" purity="3.6999160051345825e-01" nType="-99"/>
          <Node pos="r" depth="2" NCoef="0" IVar="-1" Cut="0.0000000000000000e+00" cType="1" res="-5.3987335413694382e-03" rms="3.9591151475906372e-01" purity="1.9530472159385681e-01" nType="-99"/>
        </Node>
      </Node>
    </BinaryTree>
    <BinaryTree type="DecisionTree" boostWeight="1.0000000000000000e+00" itree="14">
      <Node pos="s" depth="0" NCoef="0" IVar="5" Cut="1.3872590065002441e+00" cType="1" res="-8.2361968234181404e-03" rms="4.9180728197097778e-01" purity="4.9677929282188416e-01" nType="0">
        <Node pos="l" depth="1" NCoef="0" IVar="2" Cut="8.6167681217193604e-01" cType="1" res="5.7256218045949936e-02" rms="4.9093809723854065e-01" purity="5.7314974069595337e-01" nType="0">
          <Node pos="l" depth="2" NCoef="0" IVar="-1" Cut="0.0000000000000000e+00" cType="1" res="-5.9648876776918769e-04" rms="4.9805626273155212e-01" purity="4.7884410619735718e-01" nType="-99"/>
          <Node pos="r" depth="2" NCoef="0" IVar="-1" Cut="0.0000000000000000e+00" cType="1" res="4.4466089457273483e-03" rms="4.7232303023338318e-01" purity="6.6097730398178101e-01" nType="-99"/>
        </Node>
        <Node pos="r" depth="1" NCoef="0" IVar="7" Cut="6.5155321359634399e-01" cType="1" res="-2.2530488669872284e-01" rms="4.2821767926216125e-01" purity="2.4365641176700592e-01" nType="0">
          <Node pos="l" depth="2" NCoef="0" IVar="-1" Cut="0.0000000000000000e+00" cType="1" res="-5.5466969497501850e-03" rms="3.8969719409942627e-01" purity="1.8767532706260681e-01" nType="-99"/>
          <Node pos="r" depth="2" NCoef="0" IVar="-1" Cut="0.0000000000000000e+00" cType="1" res="-3.4161922521889210e-03" rms="4.6427005529403687e-01" purity="3.1717240810394287e-01" nType="-99"/>
        </Node>
      </Node>
    </BinaryTree>
    <BinaryTree type="DecisionTree" boostWeight="1.0000000000000000e+00" itree="15">
      <Node pos="s" depth="0" NCoef="0" IVar="5" Cut="1.2077755928039551e+00" cType="1" res="-1.0498099960386753e-02" rms="4.9122032523155212e-01" purity="4.9488475918769836e-01" nType="0">
        <Node pos="l" depth="1" NCoef="0" IVar="2" Cut="8.3570593595504761e-01" cType="1" res="7.0848107337951660e-02" rms="4.8803454637527466e-01" purity="5.9144985675811768e-01" nType="0">
          <Node pos="l" depth="2" NCoef="0" IVar="-1" Cut="0.0000000000000000e+00" cType="1" res="-8.7039684876799583e-04" rms="4.9830946326255798e-01" purity="4.6364536881446838e-01" nType="-99"/>
          <Node pos="r" depth="2" NCoef="0" IVar="-1" Cut="0.0000000000000000e+00" cType="1" res="4.4118054211139679e-03" rms="4.7215139865875244e-01" purity="6.6354179382324219e-01" nType="-99"/>
        </Node>
        <Node pos="r" depth="1" NCoef="0" IVar="5" Cut="1.6936583518981934e+00" cType="1" res="-1.7041938006877899e-01" rms="4.5699751377105713e-01" purity="3.0504396557807922e-01" nType="0">
          <Node pos="l" depth="2" NCoef="0" IVar="-1" Cut="0.0000000000000000e+00" cType="1" res="-2.7345125563442707e-03" rms="4.7996070981025696e-01" purity="3.6581987142562866e-01" nType="-99"/>
          <Node pos="r" depth="2" NCoef="0" IVar="-1" Cut="0.0000000000000000e+00" cType="1" res="-5.8900881558656693e-03" rms="3.6190682649612427e-01" purity="1.5520074963569641e-01" nType="-99"/>
        </Node>
      </Node>
    </BinaryTree>
    <BinaryTree type="DecisionTree" boostWeight="1.0000000000000000e+00" itree="16">
      <Node pos="s" depth="0" NCoef="0" IVar="5" Cut="1.2091212272644043e+00" cType="1" res="-1.4185229083523154e-03" rms="4.9074104428291321e-01" purity="5.0412350893020630e-01" nType="0">
        <Node pos="l" depth="1" NCoef="0" IVar="2" Cut="7.8527855873107910e-01" cType="1" res="8.0493040382862091e-02" rms="4.8570939898490906e-01" purity="6.0229164361953735e-01" nType="0">
          <Node pos="l" depth="2" NCoef="0" IVar="-1" Cut="0.0000000000000000e+00" cType="1" res="-2.0956608932465315e-03" rms="4.9142932891845703e-01" purity="4.0843081474304199e-01" nType="-99"/>
          <Node pos="r" depth="2" NCoef="0" IVar="-1" Cut="0.0000000000000000e+00" cType="1" res="3.9514889940619469e-03" rms="4.7648248076438904e-01" purity="6.4638918638229370e-01" nType="-99"/>
        </Node>
        <Node pos="r" depth="1" NCoef="0" IVar="2" Cut="8.5293453931808472e-01" cType="1" res="-1.6202524304389954e-01" rms="4.5990222692489624e-01" purity="3.1164199113845825e-01" nType="0">
          <Node pos="l" depth="2" NCoef="0" IVar="-1" Cut="0.0000000000000000e+00" cType="1" res="-4.9237613566219807e-03" rms="4.2119559645652771e-01" purity="2.3318742215633392e-01" nType="-99"/>
          <Node pos="r" depth="2" NCoef="0" IVar="-1" Cut="0.0000000000000000e+00" cType="1" res="-2.0211387891322374e-03" rms="4.8527625203132629e-01" purity="3.9391487836837769e-01" nType="-99"/>
        </Node>
      </Node>
    </BinaryTree>
    <BinaryTree type="DecisionTree" boostWeight="1.0000000000000000e+00" itree="17">
      <Node pos="s" depth="0" NCoef="0" IVar="5" Cut="1.2672653198242188e+00" cType="1" res="-2.7111771050840616e-03" rms="4.9021798372268677e-01" purity="5.0335121154785156e-01" nType="0">
        <Node pos="l" depth="1" NCoef="0" IVar="2" Cut="8.4648138284683228e-01" cType="1" res="7.2608560323715210e-02" rms="4.8702478408813477e-01" purity="5.9446942806243896e-01" nType="0">
          <Node pos="l" depth="2" NCoef="0" IVar="-1" Cut="0.0000000000000000e+00" cType="1" res="-4.1646155295893550e-04" rms="4.9865043163299561e-01" purity="4.8284104466438293e-01" nType="-99"/>
          <Node pos="r" depth="2" NCoef="0" IVar="-1" Cut="0.0000000000000000e+00" cType="1" res="4.5459065586328506e-03" rms="4.6973636746406555e-01" purity="6.7000442743301392e-01" nType="-99"/>
        </Node>
        <Node pos="r" depth="1" NCoef="0" IVar="2" Cut="8.4328895807266235e-01" cType="1" res="-1.7910686135292053e-01" rms="4.5079970359802246e-01" purity="2.8995603322982788e-01" nType="0">
          <Node pos="l" depth="2" NCoef="0" IVar="-1" Cut="0.0000000000000000e+00" cType="1" res="-5.1720482297241688e-03" rms="4.0508514642715454e-01" purity="2.0929777622222900e-01" nType="-99"/>
          <Node pos="r" depth="2" NCoef="0" IVar="-1" Cut="0.0000000000000000e+00" cType="1" res="-2.5944360531866550e-03" rms="4.7751080989837646e-01" purity="3.6086314916610718e-01" nType="-99"/>
        </Node>
      </Node>
    </BinaryTree>
    <BinaryTree type="DecisionTree" boostWeight="1.0000000000000000e+00" itree="18">
      <Node pos="s" depth="0" NCoef="0" IVar="5" Cut="1.3402278423309326e+00" cType="1" res="-3.1685116700828075e-03" rms="4.8953732848167419e-01" purity="5.0297027826309204e-01" nType="0">
        <Node pos="l" depth="1" NCoef="0" IVar="2" Cut="8.3605492115020752e-01" cType="1" res="6.3711240887641907e-02" rms="4.8814103007316589e-01" purity="5.8474379777908325e-01" nType="0">
          <Node pos="l" depth="2" NCoef="0" IVar="-1" Cut="0.0000000000000000e+00" cType="1" res="-9.7271415870636702e-04" rms="4.9738469719886780e-01" purity="4.5765426754951477e-01" nType="-99"/>
          <Node pos="r" depth="2" NCoef="0" IVar="-1" Cut="0.0000000000000000e+00" cType="1" res="4.0709171444177628e-03" rms="4.7328850626945496e-01" purity="6.5719699859619141e-01" nType="-99"/>
        </Node>
        <Node pos="r" depth="1" NCoef="0" IVar="5" Cut="1.7236306667327881e+00" cType="1" res="-1.9877916574478149e-01" rms="4.3851292133331299e-01" purity="2.6379802823066711e-01" nType="0">
          <Node pos="l" depth="2" NCoef="0" IVar="-1" Cut="0.0000000000000000e+00" cType="1" res="-3.3144582994282246e-03" rms="4.6586275100708008e-01" purity="3.2124736905097961e-01" nType="-99"/>
          <Node pos="r" depth="2" NCoef="0" IVar="-1" Cut="0.0000000000000000e+00" cType="1" res="-5.6159482337534428e-03" rms="3.6859706044197083e-01" purity="1.6243910789489746e-01" nType="-99"/>
        </Node>
      </Node>
    </BinaryTree>
    <BinaryTree type="DecisionTree" boostWeight="1.0000000000000000e+00" itree="19">
      <Node pos="s" depth="0" NCoef="0" IVar="5" Cut="1.2305009365081787e+00" cType="1" res="-1.8029719358310103e-03" rms="4.8912671208381653e-01" purity="5.0531363487243652e-01" nType="0">
        <Node pos="l" depth="1" NCoef="0" IVar="2" Cut="8.7677103281021118e-01" cType="1" res="7.7057681977748871e-02" rms="4.8533964157104492e-01" purity="6.0267078876495361e-01" nType="0">
          <Node pos="l" depth="2" NCoef="0" IVar="-1" Cut="0.0000000000000000e+00" cType="1" res="4.1195962694473565e-04" rms="4.9719262123107910e-01" purity="5.2477812767028809e-01" nType="-99"/>
          <Node pos="r" depth="2" NCoef="0" IVar="-1" Cut="0.0000000000000000e+00" cType="1" res="5.5630109272897243e-03" rms="4.5908010005950928e-01" purity="6.9773143529891968e-01" nType="-99"/>
        </Node>
        <Node pos="r" depth="1" NCoef="0" IVar="2" Cut="8.2339346408843994e-01" cType="1" res="-1.7060078680515289e-01" rms="4.5314440131187439e-01" purity="2.9692488908767700e-01" nType="0">
          <Node pos="l" depth="2" NCoef="0" IVar="-1" Cut="0.0000000000000000e+00" cType="1" res="-5.3319050930440426e-03" rms="3.9429283142089844e-01" purity="1.9487318396568298e-01" nType="-99"/>
          <Node pos="r" depth="2" NCoef="0" IVar="-1" Cut="0.0000000000000000e+00" cType="1" res="-2.5500091724097729e-03" rms="4.7772374749183655e-01" purity="3.6372736096382141e-01" nType="-99"/>
        </Node>
      </Node>
    </BinaryTree>
    <BinaryTree type="DecisionTree" boostWeight="1.0000000000000000e+00" itree="20">
      <Node pos="s" depth="0" NCoef="0" IVar="5" Cut="1.0293067693710327e+00" cType="1" res="-2.3468642029911280e-03" rms="4.8914232850074768e-01" purity="5.0457859039306641e-01" nType="0">
        <Node pos="l" depth="1" NCoef="0" IVar="2" Cut="8.1190389394760132e-01" cType="1" res="9.9677808582782745e-02" rms="4.7943270206451416e-01" purity="6.2714195251464844e-01" nType="0">
          <Node pos="l" depth="2" NCoef="0" IVar="-1" Cut="0.0000000000000000e+00" cType="1" res="-3.3556632115505636e-04" rms="4.9943864345550537e-01" purity="4.8146182298660278e-01" nType="-99"/>
          <Node pos="r" depth="2" NCoef="0" IVar="-1" Cut="0.0000000000000000e+00" cType="1" res="4.9336985684931278e-03" rms="4.6536728739738464e-01" purity="6.7984408140182495e-01" nType="-99"/>
        </Node>
        <Node pos="r" depth="1" NCoef="0" IVar="5" Cut="1.4903811216354370e+00" cType="1" res="-1.1384988576173782e-01" rms="4.7510990500450134e-01" purity="3.7062883377075195e-01" nType="0">
          <Node pos="l" depth="2" NCoef="0" IVar="-1" Cut="0.0000000000000000e+00" cType="1" res="-1.3703403528779745e-03" rms="4.9263951182365417e-01" purity="4.4800105690956116e-01" nType="-99"/>
          <Node pos="r" depth="2" NCoef="0" IVar="-1" Cut="0.0000000000000000e+00" cType="1" res="-4.6090874820947647e-03" rms="4.2059215903282166e-01" purity="2.3167032003402710e-01" nType="-99"/>
        </Node>
      </Node>
    </BinaryTree>
    <BinaryTree type="DecisionTree" boostWeight="1.0000000000000000e+00" itree="21">
      <Node pos="s" depth="0" NCoef="0" IVar="5" Cut="1.0293067693710327e+00" cType="1" res="-2.4912192020565271e-03" rms="4.8863789439201355e-01" purity="5.0521147251129150e-01" nType="0">
        <Node pos="l" depth="1" NCoef="0" IVar="2" Cut="8.3158880472183228e-01" cType="1" res="9.7573965787887573e-02" rms="4.7913393378257751e-01" purity="6.2703448534011841e-01" nType="0">
          <Node pos="l" depth="2" NCoef="0" IVar="-1" Cut="0.0000000000000000e+00" cType="1" res="8.1836005847435445e-06" rms="4.9960637092590332e-01" purity="4.9672687053680420e-01" nType="-99"/>
          <Node pos="r" depth="2" NCoef="0" IVar="-1" Cut="0.0000000000000000e+00" cType="1" res="5.2419183775782585e-03" rms="4.6062031388282776e-01" purity="6.9313323497772217e-01" nType="-99"/>
        </Node>
        <Node pos="r" depth="1" NCoef="0" IVar="2" Cut="8.3459103107452393e-01" cType="1" res="-1.1269992589950562e-01" rms="4.7510313987731934e-01" purity="3.7103936076164246e-01" nType="0">
          <Node pos="l" depth="2" NCoef="0" IVar="-1" Cut="0.0000000000000000e+00" cType="1" res="-4.3219113722443581e-03" rms="4.3756741285324097e-01" purity="2.6507943868637085e-01" nType="-99"/>
          <Node pos="r" depth="2" NCoef="0" IVar="-1" Cut="0.0000000000000000e+00" cType="1" res="-1.2428133049979806e-03" rms="4.9000999331474304e-01" purity="4.4619527459144592e-01" nType="-99"/>
        </Node>
      </Node>
    </BinaryTree>
    <BinaryTree type="DecisionTree" boostWeight="1.0000000000000000e+00" itree="22">
      <Node pos="s" depth="0" NCoef="0" IVar="5" Cut="1.2005395889282227e+00" cType="1" res="-8.1172920763492584e-03" rms="4.8767063021659851e-01" purity="4.9978515505790710e-01" nType="0">
        <Node pos="l" depth="1" NCoef="0" IVar="2" Cut="8.4875583648681641e-01" cType="1" res="6.9814741611480713e-02" rms="4.8515167832374573e-01" purity="5.9982323646545410e-01" nType="0">
          <Node pos="l" depth="2" NCoef="0" IVar="-1" Cut="0.0000000000000000e+00" cType="1" res="-3.4144538221880794e-04" rms="4.9855691194534302e-01" purity="4.8792022466659546e-01" nType="-99"/>
          <Node pos="r" depth="2" NCoef="0" IVar="-1" Cut="0.0000000000000000e+00" cType="1" res="4.4202352873980999e-03" rms="4.6731090545654297e-01" purity="6.7685037851333618e-01" nType="-99"/>
        </Node>
        <Node pos="r" depth="1" NCoef="0" IVar="2" Cut="8.4413462877273560e-01" cType="1" res="-1.5941055119037628e-01" rms="4.5596012473106384e-01" purity="3.0557638406753540e-01" nType="0">
          <Node pos="l" depth="2" NCoef="0" IVar="-1" Cut="0.0000000000000000e+00" cType="1" res="-4.7822138294577599e-03" rms="4.1444918513298035e-01" purity="2.2426053881645203e-01" nType="-99"/>
          <Node pos="r" depth="2" NCoef="0" IVar="-1" Cut="0.0000000000000000e+00" cType="1" res="-2.1540508605539799e-03" rms="4.8181754350662231e-01" purity="3.8222911953926086e-01" nType="-99"/>
        </Node>
      </Node>
    </BinaryTree>
    <BinaryTree type="DecisionTree" boostWeight="1.0000000000000000e+00" itree="23">
      <Node pos="s" depth="0" NCoef="0" IVar="5" Cut="1.2018340826034546e+00" cType="1" res="-9.1874822974205017e-03" rms="4.8795205354690552e-01" purity="4.9896791577339172e-01" nType="0">
        <Node pos="l" depth="1" NCoef="0" IVar="2" Cut="8.2586151361465454e-01" cType="1" res="6.6273793578147888e-02" rms="4.8608472943305969e-01" purity="5.9734547138214111e-01" nType="0">
          <Node pos="l" depth="2" NCoef="0" IVar="-1" Cut="0.0000000000000000e+00" cType="1" res="-4.9887626664713025e-04" rms="4.9893295764923096e-01" purity="4.7601094841957092e-01" nType="-99"/>
          <Node pos="r" depth="2" NCoef="0" IVar="-1" Cut="0.0000000000000000e+00" cType="1" res="3.5618136171251535e-03" rms="4.7496747970581055e-01" purity="6.5327578783035278e-01" nType="-99"/>
        </Node>
        <Node pos="r" depth="1" NCoef="0" IVar="5" Cut="1.7039880752563477e+00" cType="1" res="-1.5412880480289459e-01" rms="4.5787042379379272e-01" purity="3.1001040339469910e-01" nType="0">
          <Node pos="l" depth="2" NCoef="0" IVar="-1" Cut="0.0000000000000000e+00" cType="1" res="-2.4992290418595076e-03" rms="4.7888866066932678e-01" purity="3.6582735180854797e-01" nType="-99"/>
          <Node pos="r" depth="2" NCoef="0" IVar="-1" Cut="0.0000000000000000e+00" cType="1" res="-5.5123278871178627e-03" rms="3.6841040849685669e-01" purity="1.6232828795909882e-01" nType="-99"/>
        </Node>
      </Node>
    </BinaryTree>
    <BinaryTree type="DecisionTree" boostWeight="1.0000000000000000e+00" itree="24">
      <Node pos="s" depth="0" NCoef="0" IVar="5" Cut="1.3459788560867310e+00" cType="1" res="-1.1852001771330833e-02" rms="4.8758411407470703e-01" purity="4.9684128165245056e-01" nType="0">
        <Node pos="l" depth="1" NCoef="0" IVar="2" Cut="8.2586151361465454e-01" cType="1" res="4.4691938906908035e-02" rms="4.8899331688880920e-01" purity="5.7132560014724731e-01" nType="0">
          <Node pos="l" depth="2" NCoef="0" IVar="-1" Cut="0.0000000000000000e+00" cType="1" res="-1.3880882179364562e-03" rms="4.9469131231307983e-01" purity="4.3605729937553406e-01" nType="-99"/>
          <Node pos="r" depth="2" NCoef="0" IVar="-1" Cut="0.0000000000000000e+00" cType="1" res="3.0192243866622448e-03" rms="4.7903737425804138e-01" purity="6.3571119308471680e-01" nType="-99"/>
        </Node>
        <Node pos="r" depth="1" NCoef="0" IVar="5" Cut="1.6768461465835571e+00" cType="1" res="-1.8876191973686218e-01" rms="4.3832895159721375e-01" purity="2.6380103826522827e-01" nType="0">
          <Node pos="l" depth="2" NCoef="0" IVar="-1" Cut="0.0000000000000000e+00" cType="1" res="-3.1933146528899670e-03" rms="4.6467834711074829e-01" purity="3.1839963793754578e-01" nType="-99"/>
          <Node pos="r" depth="2" NCoef="0" IVar="-1" Cut="0.0000000000000000e+00" cType="1" res="-5.1883426494896412e-03" rms="3.8204562664031982e-01" purity="1.7801564931869507e-01" nType="-99"/>
        </Node>
      </Node>
    </BinaryTree>
    <BinaryTree type="DecisionTree" boostWeight="1.0000000000000000e+00" itree="25">
      <Node pos="s" depth="0" NCoef="0" IVar="5" Cut="1.3702108860015869e+00" cType="1" res="-3.6433604545891285e-03" rms="4.8683425784111023e-01" purity="5.0428831577301025e-01" nType="0">
        <Node pos="l" depth="1" NCoef="0" IVar="2" Cut="8.3214575052261353e-01" cType="1" res="5.3912516683340073e-02" rms="4.8743498325347900e-01" purity="5.8038663864135742e-01" nType="0">
          <Node pos="l" depth="2" NCoef="0" IVar="-1" Cut="0.0000000000000000e+00" cType="1" res="-9.8031875677406788e-04" rms="4.9672394990921021e-01" purity="4.5363783836364746e-01" nType="-99"/>
          <Node pos="r" depth="2" NCoef="0" IVar="-1" Cut="0.0000000000000000e+00" cType="1" res="3.4124972298741341e-03" rms="4.7535637021064758e-01" purity="6.4751857519149780e-01" nType="-99"/>
        </Node>
        <Node pos="r" depth="1" NCoef="0" IVar="2" Cut="8.0677771568298340e-01" cType="1" res="-1.8764045834541321e-01" rms="4.3668243288993835e-01" purity="2.6101389527320862e-01" nType="0">
          <Node pos="l" depth="2" NCoef="0" IVar="-1" Cut="0.0000000000000000e+00" cType="1" res="-5.4566804319620132e-03" rms="3.6868074536323547e-01" purity="1.6374577581882477e-01" nType="-99"/>
          <Node pos="r" depth="2" NCoef="0" IVar="-1" Cut="0.0000000000000000e+00" cType="1" res="-3.1806256156414747e-03" rms="4.6048113703727722e-01" purity="3.0998966097831726e-01" nType="-99"/>
        </Node>
      </Node>
    </BinaryTree>
    <BinaryTree type="DecisionTree" boostWeight="1.0000000000000000e+00" itree="26">
      <Node pos="s" depth="0" NCoef="0" IVar="5" Cut="1.1541020870208740e+00" cType="1" res="-1.3749553821980953e-02" rms="4.8735955357551575e-01" purity="4.9510577321052551e-01" nType="0">
        <Node pos="l" depth="1" NCoef="0" IVar="3" Cut="9.5822349548339844e+01" cType="1" res="6.0281876474618912e-02" rms="4.8639845848083496e-01" purity="5.9465819597244263e-01" nType="0">
          <Node pos="l" depth="2" NCoef="0" IVar="-1" Cut="0.0000000000000000e+00" cType="1" res="6.6778104519471526e-04" rms="4.9252513051033020e-01" purity="5.5743139982223511e-01" nType="-99"/>
          <Node pos="r" depth="2" NCoef="0" IVar="-1" Cut="0.0000000000000000e+00" cType="1" res="5.6537664495408535e-03" rms="4.5574003458023071e-01" purity="6.9155836105346680e-01" nType="-99"/>
        </Node>
        <Node pos="r" depth="1" NCoef="0" IVar="7" Cut="6.6175824403762817e-01" cType="1" res="-1.3777312636375427e-01" rms="4.6316701173782349e-01" purity="3.2832729816436768e-01" nType="0">
          <Node pos="l" depth="2" NCoef="0" IVar="-1" Cut="0.0000000000000000e+00" cType="1" res="-4.4364272616803646e-03" rms="4.2910844087600708e-01" purity="2.5049737095832825e-01" nType="-99"/>
          <Node pos="r" depth="2" NCoef="0" IVar="-1" Cut="0.0000000000000000e+00" cType="1" res="-1.2369091855362058e-03" rms="4.8783135414123535e-01" purity="4.2491155862808228e-01" nType="-99"/>
        </Node>
      </Node>
    </BinaryTree>
    <BinaryTree type="DecisionTree" boostWeight="1.0000000000000000e+00" itree="27">
      <Node pos="s" depth="0" NCoef="0" IVar="5" Cut="1.2052772045135498e+00" cType="1" res="-1.2036253698170185e-02" rms="4.8634779453277588e-01" purity="4.9646747112274170e-01" nType="0">
        <Node pos="l" depth="1" NCoef="0" IVar="2" Cut="7.7955949306488037e-01" cType="1" res="6.0651175677776337e-02" rms="4.8574712872505188e-01" purity="5.9509474039077759e-01" nType="0">
          <Node pos="l" depth="2" NCoef="0" IVar="-1" Cut="0.0000000000000000e+00" cType="1" res="-1.8688553245738149e-03" rms="4.9232208728790283e-01" purity="4.1473659873008728e-01" nType="-99"/>
          <Node pos="r" depth="2" NCoef="0" IVar="-1" Cut="0.0000000000000000e+00" cType="1" res="2.8553484007716179e-03" rms="4.7997567057609558e-01" purity="6.3039952516555786e-01" nType="-99"/>
        </Node>
        <Node pos="r" depth="1" NCoef="0" IVar="5" Cut="1.7404769659042358e+00" cType="1" res="-1.5315820276737213e-01" rms="4.5551580190658569e-01" purity="3.0498364567756653e-01" nType="0">
          <Node pos="l" depth="2" NCoef="0" IVar="-1" Cut="0.0000000000000000e+00" cType="1" res="-2.6799754705280066e-03" rms="4.7392922639846802e-01" purity="3.5048234462738037e-01" nType="-99"/>
          <Node pos="r" depth="2" NCoef="0" IVar="-1" Cut="0.0000000000000000e+00" cType="1" res="-5.3394911810755730e-03" rms="3.6832433938980103e-01" purity="1.6235192120075226e-01" nType="-99"/>
        </Node>
      </Node>
    </BinaryTree>
    <BinaryTree type="DecisionTree" boostWeight="1.0000000000000000e+00" itree="28">
      <Node pos="s" depth="0" NCoef="0" IVar="5" Cut="1.0304021835327148e+00" cType="1" res="-6.3417409546673298e-03" rms="4.8550912737846375e-01" purity="5.0169968605041504e-01" nType="0">
        <Node pos="l" depth="1" NCoef="0" IVar="2" Cut="7.8246021270751953e-01" cType="1" res="8.7554700672626495e-02" rms="4.7857657074928284e-01" purity="6.2444865703582764e-01" nType="0">
          <Node pos="l" depth="2" NCoef="0" IVar="-1" Cut="0.0000000000000000e+00" cType="1" res="-1.7662794562056661e-03" rms="4.9324885010719299e-01" purity="4.1887706518173218e-01" nType="-99"/>
          <Node pos="r" depth="2" NCoef="0" IVar="-1" Cut="0.0000000000000000e+00" cType="1" res="4.1372096166014671e-03" rms="4.6888989210128784e-01" purity="6.6670441627502441e-01" nType="-99"/>
        </Node>
        <Node pos="r" depth="1" NCoef="0" IVar="2" Cut="8.2388687133789062e-01" cType="1" res="-1.0788362473249435e-01" rms="4.7233644127845764e-01" purity="3.6895605921745300e-01" nType="0">
          <Node pos="l" depth="2" NCoef="0" IVar="-1" Cut="0.0000000000000000e+00" cType="1" res="-4.5279404148459435e-03" rms="4.2137703299522400e-01" purity="2.3795689642429352e-01" nType="-99"/>
          <Node pos="r" depth="2" NCoef="0" IVar="-1" Cut="0.0000000000000000e+00" cType="1" res="-1.0204433929175138e-03" rms="4.8919358849525452e-01" purity="4.5069471001625061e-01" nType="-99"/>
        </Node>
      </Node>
    </BinaryTree>
    <BinaryTree type="DecisionTree" boostWeight="1.0000000000000000e+00" itree="29">
      <Node pos="s" depth="0" NCoef="0" IVar="5" Cut="1.3936425447463989e+00" cType="1" res="-5.5742664262652397e-03" rms="4.8575365543365479e-01" purity="5.0341075658798218e-01" nType="0">
        <Node pos="l" depth="1" NCoef="0" IVar="2" Cut="8.2608044147491455e-01" cType="1" res="4.5537982136011124e-02" rms="4.8756507039070129e-01" purity="5.7357704639434814e-01" nType="0">
          <Node pos="l" depth="2" NCoef="0" IVar="-1" Cut="0.0000000000000000e+00" cType="1" res="-1.2032105587422848e-03" rms="4.9438309669494629e-01" purity="4.4216132164001465e-01" nType="-99"/>
          <Node pos="r" depth="2" NCoef="0" IVar="-1" Cut="0.0000000000000000e+00" cType="1" res="2.9737334698438644e-03" rms="4.7789612412452698e-01" purity="6.3724499940872192e-01" nType="-99"/>
        </Node>
        <Node pos="r" depth="1" NCoef="0" IVar="2" Cut="8.1584620475769043e-01" cType="1" res="-1.8668621778488159e-01" rms="4.3318673968315125e-01" purity="2.5478249788284302e-01" nType="0">
          <Node pos="l" depth="2" NCoef="0" IVar="-1" Cut="0.0000000000000000e+00" cType="1" res="-5.3325095213949680e-03" rms="3.7203940749168396e-01" purity="1.6695261001586914e-01" nType="-99"/>
          <Node pos="r" depth="2" NCoef="0" IVar="-1" Cut="0.0000000000000000e+00" cType="1" res="-3.1399137806147337e-03" rms="4.5777207612991333e-01" purity="3.0381113290786743e-01" nType="-99"/>
        </Node>
      </Node>
    </BinaryTree>
    <BinaryTree type="DecisionTree" boostWeight="1.0000000000000000e+00" itree="30">
      <Node pos="s" depth="0" NCoef="0" IVar="5" Cut="1.0572841167449951e+00" cType="1" res="-1.1595530435442924e-02" rms="4.8535227775573730e-01" purity="4.9762630462646484e-01" nType="0">
        <Node pos="l" depth="1" NCoef="0" IVar="2" Cut="8.5422205924987793e-01" cType="1" res="7.7286459505558014e-02" rms="4.8058417439460754e-01" purity="6.1668246984481812e-01" nType="0">
          <Node pos="l" depth="2" NCoef="0" IVar="-1" Cut="0.0000000000000000e+00" cType="1" res="1.4584626478608698e-04" rms="4.9794471263885498e-01" purity="5.1140081882476807e-01" nType="-99"/>
          <Node pos="r" depth="2" NCoef="0" IVar="-1" Cut="0.0000000000000000e+00" cType="1" res="4.8125055618584156e-03" rms="4.5939385890960693e-01" purity="6.9690424203872681e-01" nType="-99"/>
        </Node>
        <Node pos="r" depth="1" NCoef="0" IVar="5" Cut="1.4181646108627319e+00" cType="1" res="-1.1832855641841888e-01" rms="4.6927487850189209e-01" purity="3.5465887188911438e-01" nType="0">
          <Node pos="l" depth="2" NCoef="0" IVar="-1" Cut="0.0000000000000000e+00" cType="1" res="-1.3640709221363068e-03" rms="4.9317273497581482e-01" purity="4.4964727759361267e-01" nType="-99"/>
          <Node pos="r" depth="2" NCoef="0" IVar="-1" Cut="0.0000000000000000e+00" cType="1" res="-4.1039288043975830e-03" rms="4.2749997973442078e-01" purity="2.4442808330059052e-01" nType="-99"/>
        </Node>
      </Node>
    </BinaryTree>
    <BinaryTree type="DecisionTree" boostWeight="1.0000000000000000e+00" itree="31">
      <Node pos="s" depth="0" NCoef="0" IVar="5" Cut="1.0649456977844238e+00" cType="1" res="-1.2858774513006210e-02" rms="4.8476114869117737e-01" purity="4.9679705500602722e-01" nType="0">
        <Node pos="l" depth="1" NCoef="0" IVar="2" Cut="8.6112689971923828e-01" cType="1" res="7.5687408447265625e-02" rms="4.8068249225616455e-01" purity="6.1649751663208008e-01" nType="0">
          <Node pos="l" depth="2" NCoef="0" IVar="-1" Cut="0.0000000000000000e+00" cType="1" res="3.4746568417176604e-04" rms="4.9720486998558044e-01" purity="5.2197134494781494e-01" nType="-99"/>
          <Node pos="r" depth="2" NCoef="0" IVar="-1" Cut="0.0000000000000000e+00" cType="1" res="4.7063557431101799e-03" rms="4.5919471979141235e-01" purity="6.9734668731689453e-01" nType="-99"/>
        </Node>
        <Node pos="r" depth="1" NCoef="0" IVar="5" Cut="1.5974667072296143e+00" cType="1" res="-1.2246633321046829e-01" rms="4.6706378459930420e-01" purity="3.4862494468688965e-01" nType="0">
          <Node pos="l" depth="2" NCoef="0" IVar="-1" Cut="0.0000000000000000e+00" cType="1" res="-1.8761599203571677e-03" rms="4.8640221357345581e-01" purity="4.1194960474967957e-01" nType="-99"/>
          <Node pos="r" depth="2" NCoef="0" IVar="-1" Cut="0.0000000000000000e+00" cType="1" res="-4.9071651883423328e-03" rms="3.8969480991363525e-01" purity="1.8847340345382690e-01" nType="-99"/>
        </Node>
      </Node>
    </BinaryTree>
    <BinaryTree type="DecisionTree" boostWeight="1.0000000000000000e+00" itree="32">
      <Node pos="s" depth="0" NCoef="0" IVar="5" Cut="1.3872590065002441e+00" cType="1" res="-1.4789792709052563e-02" rms="4.8380234837532043e-01" purity="4.9380350112915039e-01" nType="0">
        <Node pos="l" depth="1" NCoef="0" IVar="2" Cut="8.5668182373046875e-01" cType="1" res="4.0918324142694473e-02" rms="4.8719069361686707e-01" purity="5.7137298583984375e-01" nType="0">
          <Node pos="l" depth="2" NCoef="0" IVar="-1" Cut="0.0000000000000000e+00" cType="1" res="-8.2722434308379889e-04" rms="4.9501982331275940e-01" purity="4.6731802821159363e-01" nType="-99"/>
          <Node pos="r" depth="2" NCoef="0" IVar="-1" Cut="0.0000000000000000e+00" cType="1" res="3.4970357082784176e-03" rms="4.7185492515563965e-01" purity="6.5947955846786499e-01" nType="-99"/>
        </Node>
        <Node pos="r" depth="1" NCoef="0" IVar="2" Cut="8.3307296037673950e-01" cType="1" res="-1.9830448925495148e-01" rms="4.2346850037574768e-01" purity="2.3827287554740906e-01" nType="0">
          <Node pos="l" depth="2" NCoef="0" IVar="-1" Cut="0.0000000000000000e+00" cType="1" res="-5.1815956830978394e-03" rms="3.7278550863265991e-01" purity="1.6768795251846313e-01" nType="-99"/>
          <Node pos="r" depth="2" NCoef="0" IVar="-1" Cut="0.0000000000000000e+00" cType="1" res="-3.2389017287641764e-03" rms="4.5388090610504150e-01" purity="2.9489538073539734e-01" nType="-99"/>
        </Node>
      </Node>
    </BinaryTree>
    <BinaryTree type="DecisionTree" boostWeight="1.0000000000000000e+00" itree="33">
      <Node pos="s" depth="0" NCoef="0" IVar="5" Cut="1.4007320404052734e+00" cType="1" res="-8.3298301324248314e-03" rms="4.8460504412651062e-01" purity="5.0122570991516113e-01" nType="0">
        <Node pos="l" depth="1" NCoef="0" IVar="5" Cut="9.4809490442276001e-01" cType="1" res="4.1445426642894745e-02" rms="4.8761489987373352e-01" purity="5.7257145643234253e-01" nType="0">
          <Node pos="l" depth="2" NCoef="0" IVar="-1" Cut="0.0000000000000000e+00" cType="1" res="3.0592414550483227e-03" rms="4.7643584012985229e-01" purity="6.3533490896224976e-01" nType="-99"/>
          <Node pos="r" depth="2" NCoef="0" IVar="-1" Cut="0.0000000000000000e+00" cType="1" res="-7.9704954987391829e-04" rms="4.9415907263755798e-01" purity="4.8492589592933655e-01" nType="-99"/>
        </Node>
        <Node pos="r" depth="1" NCoef="0" IVar="2" Cut="8.2345700263977051e-01" cType="1" res="-1.8405014276504517e-01" rms="4.2998540401458740e-01" purity="2.4935552477836609e-01" nType="0">
          <Node pos="l" depth="2" NCoef="0" IVar="-1" Cut="0.0000000000000000e+00" cType="1" res="-5.0823437049984932e-03" rms="3.7295645475387573e-01" purity="1.6796466708183289e-01" nType="-99"/>
          <Node pos="r" depth="2" NCoef="0" IVar="-1" Cut="0.0000000000000000e+00" cType="1" res="-2.9792285058647394e-03" rms="4.5911166071891785e-01" purity="3.0635473132133484e-01" nType="-99"/>
        </Node>
      </Node>
    </BinaryTree>
    <BinaryTree type="DecisionTree" boostWeight="1.0000000000000000e+00" itree="34">
      <Node pos="s" depth="0" NCoef="0" IVar="5" Cut="1.0219575166702271e+00" cType="1" res="-9.6534322947263718e-03" rms="4.8290464282035828e-01" purity="4.9908629059791565e-01" nType="0">
        <Node pos="l" depth="1" NCoef="0" IVar="1" Cut="1.0655506849288940e+00" cType="1" res="8.9640274643898010e-02" rms="4.7585624456405640e-01" purity="6.3458037376403809e-01" nType="0">
          <Node pos="l" depth="2" NCoef="0" IVar="-1" Cut="0.0000000000000000e+00" cType="1" res="4.8047290183603764e-03" rms="4.6073165535926819e-01" purity="6.8050444126129150e-01" nType="-99"/>
          <Node pos="r" depth="2" NCoef="0" IVar="-1" Cut="0.0000000000000000e+00" cType="1" res="-1.8706050468608737e-04" rms="4.9267372488975525e-01" purity="5.3761953115463257e-01" nType="-99"/>
        </Node>
        <Node pos="r" depth="1" NCoef="0" IVar="5" Cut="1.4352030754089355e+00" cType="1" res="-1.1134812980890274e-01" rms="4.6869882941246033e-01" purity="3.6031591892242432e-01" nType="0">
          <Node pos="l" depth="2" NCoef="0" IVar="-1" Cut="0.0000000000000000e+00" cType="1" res="-1.2876087566837668e-03" rms="4.9164173007011414e-01" purity="4.5211637020111084e-01" nType="-99"/>
          <Node pos="r" depth="2" NCoef="0" IVar="-1" Cut="0.0000000000000000e+00" cType="1" res="-4.0954169817268848e-03" rms="4.2075148224830627e-01" purity="2.3422031104564667e-01" nType="-99"/>
        </Node>
      </Node>
    </BinaryTree>
    <BinaryTree type="DecisionTree" boostWeight="1.0000000000000000e+00" itree="35">
      <Node pos="s" depth="0" NCoef="0" IVar="5" Cut="1.3250192403793335e+00" cType="1" res="-8.4118805825710297e-03" rms="4.8337224125862122e-01" purity="5.0170415639877319e-01" nType="0">
        <Node pos="l" depth="1" NCoef="0" IVar="2" Cut="8.9019244909286499e-01" cType="1" res="4.7480184584856033e-02" rms="4.8576593399047852e-01" purity="5.8413243293762207e-01" nType="0">
          <Node pos="l" depth="2" NCoef="0" IVar="-1" Cut="0.0000000000000000e+00" cType="1" res="5.0194190407637507e-05" rms="4.9448686838150024e-01" purity="5.2127552032470703e-01" nType="-99"/>
          <Node pos="r" depth="2" NCoef="0" IVar="-1" Cut="0.0000000000000000e+00" cType="1" res="4.5041516423225403e-03" rms="4.6035942435264587e-01" purity="6.9069343805313110e-01" nType="-99"/>
        </Node>
        <Node pos="r" depth="1" NCoef="0" IVar="5" Cut="1.6752107143402100e+00" cType="1" res="-1.6581647098064423e-01" rms="4.3993377685546875e-01" purity="2.6956763863563538e-01" nType="0">
          <Node pos="l" depth="2" NCoef="0" IVar="-1" Cut="0.0000000000000000e+00" cType="1" res="-2.5534590240567923e-03" rms="4.6992987394332886e-01" purity="3.3447760343551636e-01" nType="-99"/>
          <Node pos="r" depth="2" NCoef="0" IVar="-1" Cut="0.0000000000000000e+00" cType="1" res="-4.9620303325355053e-03" rms="3.7551873922348022e-01" purity="1.7088115215301514e-01" nType="-99"/>
        </Node>
      </Node>
    </BinaryTree>
    <BinaryTree type="DecisionTree" boostWeight="1.0000000000000000e+00" itree="36">
      <Node pos="s" depth="0" NCoef="0" IVar="5" Cut="1.0293067693710327e+00" cType="1" res="-1.6147892922163010e-02" rms="4.8352667689323425e-01" purity="4.9415382742881775e-01" nType="0">
        <Node pos="l" depth="1" NCoef="0" IVar="2" Cut="8.3607244491577148e-01" cType="1" res="6.7608550190925598e-02" rms="4.8086994886398315e-01" purity="6.1482185125350952e-01" nType="0">
          <Node pos="l" depth="2" NCoef="0" IVar="-1" Cut="0.0000000000000000e+00" cType="1" res="-1.2743131082970649e-04" rms="4.9908977746963501e-01" purity="4.9599972367286682e-01" nType="-99"/>
          <Node pos="r" depth="2" NCoef="0" IVar="-1" Cut="0.0000000000000000e+00" cType="1" res="3.8066720589995384e-03" rms="4.6604838967323303e-01" purity="6.7918139696121216e-01" nType="-99"/>
        </Node>
        <Node pos="r" depth="1" NCoef="0" IVar="5" Cut="1.6056519746780396e+00" cType="1" res="-1.0828997939825058e-01" rms="4.6947744488716125e-01" purity="3.6140462756156921e-01" nType="0">
          <Node pos="l" depth="2" NCoef="0" IVar="-1" Cut="0.0000000000000000e+00" cType="1" res="-1.7392475856468081e-03" rms="4.8586034774780273e-01" purity="4.1813585162162781e-01" nType="-99"/>
          <Node pos="r" depth="2" NCoef="0" IVar="-1" Cut="0.0000000000000000e+00" cType="1" res="-4.4976384378969669e-03" rms="4.0097036957740784e-01" purity="2.0280785858631134e-01" nType="-99"/>
        </Node>
      </Node>
    </BinaryTree>
    <BinaryTree type="DecisionTree" boostWeight="1.0000000000000000e+00" itree="37">
      <Node pos="s" depth="0" NCoef="0" IVar="5" Cut="1.4062961339950562e+00" cType="1" res="-6.6424557007849216e-03" rms="4.8261952400207520e-01" purity="5.0331062078475952e-01" nType="0">
        <Node pos="l" depth="1" NCoef="0" IVar="2" Cut="8.6612993478775024e-01" cType="1" res="4.1729606688022614e-02" rms="4.8582094907760620e-01" purity="5.7540243864059448e-01" nType="0">
          <Node pos="l" depth="2" NCoef="0" IVar="-1" Cut="0.0000000000000000e+00" cType="1" res="-7.0113269612193108e-04" rms="4.9483126401901245e-01" purity="4.7872057557106018e-01" nType="-99"/>
          <Node pos="r" depth="2" NCoef="0" IVar="-1" Cut="0.0000000000000000e+00" cType="1" res="3.8429771084338427e-03" rms="4.6704471111297607e-01" purity="6.7151820659637451e-01" nType="-99"/>
        </Node>
        <Node pos="r" depth="1" NCoef="0" IVar="7" Cut="6.7250430583953857e-01" cType="1" res="-1.7780956625938416e-01" rms="4.2938643693923950e-01" purity="2.4820995330810547e-01" nType="0">
          <Node pos="l" depth="2" NCoef="0" IVar="-1" Cut="0.0000000000000000e+00" cType="1" res="-4.6240310184657574e-03" rms="3.9454799890518188e-01" purity="1.9509854912757874e-01" nType="-99"/>
          <Node pos="r" depth="2" NCoef="0" IVar="-1" Cut="0.0000000000000000e+00" cType="1" res="-2.5411995593458414e-03" rms="4.6544057130813599e-01" purity="3.2193967700004578e-01" nType="-99"/>
        </Node>
      </Node>
    </BinaryTree>
    <BinaryTree type="DecisionTree" boostWeight="1.0000000000000000e+00" itree="38">
      <Node pos="s" depth="0" NCoef="0" IVar="5" Cut="1.3596147298812866e+00" cType="1" res="-7.2524957358837128e-03" rms="4.8258537054061890e-01" purity="5.0316077470779419e-01" nType="0">
        <Node pos="l" depth="1" NCoef="0" IVar="8" Cut="5.9118837118148804e-01" cType="1" res="4.3375357985496521e-02" rms="4.8568588495254517e-01" purity="5.8037900924682617e-01" nType="0">
          <Node pos="l" depth="2" NCoef="0" IVar="-1" Cut="0.0000000000000000e+00" cType="1" res="6.5840940806083381e-05" rms="4.9213838577270508e-01" purity="5.2777975797653198e-01" nType="-99"/>
          <Node pos="r" depth="2" NCoef="0" IVar="-1" Cut="0.0000000000000000e+00" cType="1" res="4.4438862241804600e-03" rms="4.6201530098915100e-01" purity="6.8449211120605469e-01" nType="-99"/>
        </Node>
        <Node pos="r" depth="1" NCoef="0" IVar="7" Cut="6.8229746818542480e-01" cType="1" res="-1.6541162133216858e-01" rms="4.3644997477531433e-01" purity="2.6193481683731079e-01" nType="0">
          <Node pos="l" depth="2" NCoef="0" IVar="-1" Cut="0.0000000000000000e+00" cType="1" res="-4.3601747602224350e-03" rms="4.0471658110618591e-01" purity="2.0940107107162476e-01" nType="-99"/>
          <Node pos="r" depth="2" NCoef="0" IVar="-1" Cut="0.0000000000000000e+00" cType="1" res="-2.0676497370004654e-03" rms="4.7415536642074585e-01" purity="3.4803777933120728e-01" nType="-99"/>
        </Node>
      </Node>
    </BinaryTree>
    <BinaryTree type="DecisionTree" boostWeight="1.0000000000000000e+00" itree="39">
      <Node pos="s" depth="0" NCoef="0" IVar="5" Cut="1.2444920539855957e+00" cType="1" res="-6.1247237026691437e-03" rms="4.8151782155036926e-01" purity="5.0380200147628784e-01" nType="0">
        <Node pos="l" depth="1" NCoef="0" IVar="2" Cut="7.5467717647552490e-01" cType="1" res="5.6549686938524246e-02" rms="4.8267537355422974e-01" purity="5.9982466697692871e-01" nType="0">
          <Node pos="l" depth="2" NCoef="0" IVar="-1" Cut="0.0000000000000000e+00" cType="1" res="-2.7591749094426632e-03" rms="4.8140579462051392e-01" purity="3.6972960829734802e-01" nType="-99"/>
          <Node pos="r" depth="2" NCoef="0" IVar="-1" Cut="0.0000000000000000e+00" cType="1" res="2.5416014250367880e-03" rms="4.7854912281036377e-01" purity="6.2804806232452393e-01" nType="-99"/>
        </Node>
        <Node pos="r" depth="1" NCoef="0" IVar="7" Cut="6.5123158693313599e-01" cType="1" res="-1.4132611453533173e-01" rms="4.5022067427635193e-01" purity="2.9666173458099365e-01" nType="0">
          <Node pos="l" depth="2" NCoef="0" IVar="-1" Cut="0.0000000000000000e+00" cType="1" res="-4.2959372512996197e-03" rms="4.1203081607818604e-01" purity="2.2383284568786621e-01" nType="-99"/>
          <Node pos="r" depth="2" NCoef="0" IVar="-1" Cut="0.0000000000000000e+00" cType="1" res="-1.5517667634412646e-03" rms="4.8061099648475647e-01" purity="3.8301077485084534e-01" nType="-99"/>
        </Node>
      </Node>
    </BinaryTree>
    <BinaryTree type="DecisionTree" boostWeight="1.0000000000000000e+00" itree="40">
      <Node pos="s" depth="0" NCoef="0" IVar="0" Cut="1.1866810321807861e+00" cType="1" res="-1.0390069335699081e-02" rms="4.8225677013397217e-01" purity="5.0087070465087891e-01" nType="0">
        <Node pos="l" depth="1" NCoef="0" IVar="2" Cut="7.8243017196655273e-01" cType="1" res="6.2474336475133896e-02" rms="4.8038914799690247e-01" purity="5.9928357601165771e-01" nType="0">
          <Node pos="l" depth="2" NCoef="0" IVar="-1" Cut="0.0000000000000000e+00" cType="1" res="-2.0672646351158619e-03" rms="4.8658365011215210e-01" purity="3.9615896344184875e-01" nType="-99"/>
          <Node pos="r" depth="2" NCoef="0" IVar="-1" Cut="0.0000000000000000e+00" cType="1" res="3.1301325652748346e-03" rms="4.7326040267944336e-01" purity="6.4207839965820312e-01" nType="-99"/>
        </Node>
        <Node pos="r" depth="1" NCoef="0" IVar="5" Cut="1.7139345407485962e+00" cType="1" res="-1.1129488795995712e-01" rms="4.6639809012413025e-01" purity="3.6458548903465271e-01" nType="0">
          <Node pos="l" depth="2" NCoef="0" IVar="-1" Cut="0.0000000000000000e+00" cType="1" res="-2.0067985169589520e-03" rms="4.8137798905372620e-01" purity="4.1344141960144043e-01" nType="-99"/>
          <Node pos="r" depth="2" NCoef="0" IVar="-1" Cut="0.0000000000000000e+00" cType="1" res="-4.6825120225548744e-03" rms="3.8199844956398010e-01" purity="1.7847034335136414e-01" nType="-99"/>
        </Node>
      </Node>
    </BinaryTree>
    <BinaryTree type="DecisionTree" boostWeight="1.0000000000000000e+00" itree="41">
      <Node pos="s" depth="0" NCoef="0" IVar="5" Cut="1.2079141139984131e+00" cType="1" res="-8.0865276977419853e-03" rms="4.8176530003547668e-01" purity="5.0262188911437988e-01" nType="0">
        <Node pos="l" depth="1" NCoef="0" IVar="7" Cut="6.3074874877929688e-01" cType="1" res="5.1649935543537140e-02" rms="4.8288556933403015e-01" purity="5.9856307506561279e-01" nType="0">
          <Node pos="l" depth="2" NCoef="0" IVar="-1" Cut="0.0000000000000000e+00" cType="1" res="-5.3059792844578624e-04" rms="4.9473080039024353e-01" purity="4.9933195114135742e-01" nType="-99"/>
          <Node pos="r" depth="2" NCoef="0" IVar="-1" Cut="0.0000000000000000e+00" cType="1" res="3.6408503074198961e-03" rms="4.6715626120567322e-01" purity="6.7163348197937012e-01" nType="-99"/>
        </Node>
        <Node pos="r" depth="1" NCoef="0" IVar="2" Cut="8.5262441635131836e-01" cType="1" res="-1.2492135912179947e-01" rms="4.5755273103713989e-01" purity="3.1497654318809509e-01" nType="0">
          <Node pos="l" depth="2" NCoef="0" IVar="-1" Cut="0.0000000000000000e+00" cType="1" res="-4.1029802523553371e-03" rms="4.1987758874893188e-01" purity="2.3369620740413666e-01" nType="-99"/>
          <Node pos="r" depth="2" NCoef="0" IVar="-1" Cut="0.0000000000000000e+00" cType="1" res="-1.2303820112720132e-03" rms="4.8454889655113220e-01" purity="4.0363982319831848e-01" nType="-99"/>
        </Node>
      </Node>
    </BinaryTree>
    <BinaryTree type="DecisionTree" boostWeight="1.0000000000000000e+00" itree="42">
      <Node pos="s" depth="0" NCoef="0" IVar="5" Cut="9.7795456647872925e-01" cType="1" res="-1.1057884432375431e-02" rms="4.8197743296623230e-01" purity="5.0032305717468262e-01" nType="0">
        <Node pos="l" depth="1" NCoef="0" IVar="2" Cut="7.7216058969497681e-01" cType="1" res="7.6056204736232758e-02" rms="4.7663301229476929e-01" purity="6.2886697053909302e-01" nType="0">
          <Node pos="l" depth="2" NCoef="0" IVar="-1" Cut="0.0000000000000000e+00" cType="1" res="-1.7237688880413771e-03" rms="4.9325829744338989e-01" purity="4.2014211416244507e-01" nType="-99"/>
          <Node pos="r" depth="2" NCoef="0" IVar="-1" Cut="0.0000000000000000e+00" cType="1" res="3.4442350734025240e-03" rms="4.6973973512649536e-01" purity="6.6237825155258179e-01" nType="-99"/>
        </Node>
        <Node pos="r" depth="1" NCoef="0" IVar="2" Cut="8.4393280744552612e-01" cType="1" res="-9.1227158904075623e-02" rms="4.7286999225616455e-01" purity="3.8202676177024841e-01" nType="0">
          <Node pos="l" depth="2" NCoef="0" IVar="-1" Cut="0.0000000000000000e+00" cType="1" res="-3.6152747925370932e-03" rms="4.4391405582427979e-01" purity="2.8357887268066406e-01" nType="-99"/>
          <Node pos="r" depth="2" NCoef="0" IVar="-1" Cut="0.0000000000000000e+00" cType="1" res="-7.7918724855408072e-04" rms="4.8771986365318298e-01" purity="4.6577817201614380e-01" nType="-99"/>
        </Node>
      </Node>
    </BinaryTree>
    <BinaryTree type="DecisionTree" boostWeight="1.0000000000000000e+00" itree="43">
      <Node pos="s" depth="0" NCoef="0" IVar="5" Cut="9.6981710195541382e-01" cType="1" res="-1.4758653938770294e-02" rms="4.8067560791969299e-01" purity="4.9562144279479980e-01" nType="0">
        <Node pos="l" depth="1" NCoef="0" IVar="3" Cut="9.3155708312988281e+01" cType="1" res="7.8769765794277191e-02" rms="4.7513720393180847e-01" purity="6.3192510604858398e-01" nType="0">
          <Node pos="l" depth="2" NCoef="0" IVar="-1" Cut="0.0000000000000000e+00" cType="1" res="1.2644502567127347e-03" rms="4.8463758826255798e-01" purity="5.9335851669311523e-01" nType="-99"/>
          <Node pos="r" depth="2" NCoef="0" IVar="-1" Cut="0.0000000000000000e+00" cType="1" res="6.5111662261188030e-03" rms="4.3806299567222595e-01" purity="7.2455841302871704e-01" nType="-99"/>
        </Node>
        <Node pos="r" depth="1" NCoef="0" IVar="2" Cut="8.4396970272064209e-01" cType="1" res="-9.7651325166225433e-02" rms="4.7023048996925354e-01" purity="3.7481778860092163e-01" nType="0">
          <Node pos="l" depth="2" NCoef="0" IVar="-1" Cut="0.0000000000000000e+00" cType="1" res="-3.7783754523843527e-03" rms="4.3746379017829895e-01" purity="2.7143850922584534e-01" nType="-99"/>
          <Node pos="r" depth="2" NCoef="0" IVar="-1" Cut="0.0000000000000000e+00" cType="1" res="-9.0182782150804996e-04" rms="4.8740354180335999e-01" purity="4.6252873539924622e-01" nType="-99"/>
        </Node>
      </Node>
    </BinaryTree>
    <BinaryTree type="DecisionTree" boostWeight="1.0000000000000000e+00" itree="44">
      <Node pos="s" depth="0" NCoef="0" IVar="0" Cut="1.1470071077346802e+00" cType="1" res="-1.7129343003034592e-02" rms="4.8115423321723938e-01" purity="4.9432009458541870e-01" nType="0">
        <Node pos="l" depth="1" NCoef="0" IVar="2" Cut="8.4918755292892456e-01" cType="1" res="5.9496089816093445e-02" rms="4.8026254773139954e-01" purity="6.0187351703643799e-01" nType="0">
          <Node pos="l" depth="2" NCoef="0" IVar="-1" Cut="0.0000000000000000e+00" cType="1" res="-2.5500473566353321e-04" rms="4.9584954977035522e-01" purity="4.8998305201530457e-01" nType="-99"/>
          <Node pos="r" depth="2" NCoef="0" IVar="-1" Cut="0.0000000000000000e+00" cType="1" res="3.7785496097058058e-03" rms="4.6353602409362793e-01" purity="6.7805099487304688e-01" nType="-99"/>
        </Node>
        <Node pos="r" depth="1" NCoef="0" IVar="5" Cut="1.7063473463058472e+00" cType="1" res="-1.0479162633419037e-01" rms="4.6699923276901245e-01" purity="3.7127503752708435e-01" nType="0">
          <Node pos="l" depth="2" NCoef="0" IVar="-1" Cut="0.0000000000000000e+00" cType="1" res="-1.8205771921202540e-03" rms="4.8225608468055725e-01" purity="4.2196199297904968e-01" nType="-99"/>
          <Node pos="r" depth="2" NCoef="0" IVar="-1" Cut="0.0000000000000000e+00" cType="1" res="-4.7660679556429386e-03" rms="3.6967822909355164e-01" purity="1.6392132639884949e-01" nType="-99"/>
        </Node>
      </Node>
    </BinaryTree>
    <BinaryTree type="DecisionTree" boostWeight="1.0000000000000000e+00" itree="45">
      <Node pos="s" depth="0" NCoef="0" IVar="5" Cut="1.0649129152297974e+00" cType="1" res="-8.5864290595054626e-03" rms="4.8014560341835022e-01" purity="5.0206547975540161e-01" nType="0">
        <Node pos="l" depth="1" NCoef="0" IVar="2" Cut="8.3155119419097900e-01" cType="1" res="6.6808894276618958e-02" rms="4.7734546661376953e-01" purity="6.2021672725677490e-01" nType="0">
          <Node pos="l" depth="2" NCoef="0" IVar="-1" Cut="0.0000000000000000e+00" cType="1" res="-4.4652336509898305e-04" rms="4.9820134043693542e-01" purity="4.8373472690582275e-01" nType="-99"/>
          <Node pos="r" depth="2" NCoef="0" IVar="-1" Cut="0.0000000000000000e+00" cType="1" res="4.0814904496073723e-03" rms="4.5972195267677307e-01" purity="6.9286578893661499e-01" nType="-99"/>
        </Node>
        <Node pos="r" depth="1" NCoef="0" IVar="5" Cut="1.6038377285003662e+00" cType="1" res="-1.0119684785604477e-01" rms="4.6719804406166077e-01" purity="3.5693660378456116e-01" nType="0">
          <Node pos="l" depth="2" NCoef="0" IVar="-1" Cut="0.0000000000000000e+00" cType="1" res="-1.4978423714637756e-03" rms="4.8599141836166382e-01" purity="4.1895580291748047e-01" nType="-99"/>
          <Node pos="r" depth="2" NCoef="0" IVar="-1" Cut="0.0000000000000000e+00" cType="1" res="-4.2927027679979801e-03" rms="3.9552852511405945e-01" purity="1.9708552956581116e-01" nType="-99"/>
        </Node>
      </Node>
    </BinaryTree>
    <BinaryTree type="DecisionTree" boostWeight="1.0000000000000000e+00" itree="46">
      <Node pos="s" depth="0" NCoef="0" IVar="5" Cut="1.0453705787658691e+00" cType="1" res="-5.2981027401983738e-03" rms="4.8028448224067688e-01" purity="5.0625175237655640e-01" nType="0">
        <Node pos="l" depth="1" NCoef="0" IVar="1" Cut="8.5864704847335815e-01" cType="1" res="7.5082585215568542e-02" rms="4.7592407464981079e-01" purity="6.3163524866104126e-01" nType="0">
          <Node pos="l" depth="2" NCoef="0" IVar="-1" Cut="0.0000000000000000e+00" cType="1" res="4.3001896701753139e-03" rms="4.6050587296485901e-01" purity="6.7971074581146240e-01" nType="-99"/>
          <Node pos="r" depth="2" NCoef="0" IVar="-1" Cut="0.0000000000000000e+00" cType="1" res="5.7118805125355721e-04" rms="4.8810470104217529e-01" purity="5.7323956489562988e-01" nType="-99"/>
        </Node>
        <Node pos="r" depth="1" NCoef="0" IVar="2" Cut="8.4570550918579102e-01" cType="1" res="-9.8020203411579132e-02" rms="4.6843612194061279e-01" purity="3.6161726713180542e-01" nType="0">
          <Node pos="l" depth="2" NCoef="0" IVar="-1" Cut="0.0000000000000000e+00" cType="1" res="-3.5850261338055134e-03" rms="4.3807476758956909e-01" purity="2.7162963151931763e-01" nType="-99"/>
          <Node pos="r" depth="2" NCoef="0" IVar="-1" Cut="0.0000000000000000e+00" cType="1" res="-1.0168520966544747e-03" rms="4.8648974299430847e-01" purity="4.4190636277198792e-01" nType="-99"/>
        </Node>
      </Node>
    </BinaryTree>
    <BinaryTree type="DecisionTree" boostWeight="1.0000000000000000e+00" itree="47">
      <Node pos="s" depth="0" NCoef="0" IVar="5" Cut="1.4505066871643066e+00" cType="1" res="-6.4361491240561008e-03" rms="4.8015120625495911e-01" purity="5.0590592622756958e-01" nType="0">
        <Node pos="l" depth="1" NCoef="0" IVar="0" Cut="9.7315484285354614e-01" cType="1" res="3.3032014966011047e-02" rms="4.8466157913208008e-01" purity="5.6963479518890381e-01" nType="0">
          <Node pos="l" depth="2" NCoef="0" IVar="-1" Cut="0.0000000000000000e+00" cType="1" res="3.2612651120871305e-03" rms="4.6847078204154968e-01" purity="6.5070807933807373e-01" nType="-99"/>
          <Node pos="r" depth="2" NCoef="0" IVar="-1" Cut="0.0000000000000000e+00" cType="1" res="-4.9996754387393594e-04" rms="4.9156400561332703e-01" purity="5.0374269485473633e-01" nType="-99"/>
        </Node>
        <Node pos="r" depth="1" NCoef="0" IVar="2" Cut="8.2396537065505981e-01" cType="1" res="-1.7261697351932526e-01" rms="4.2195677757263184e-01" purity="2.3757550120353699e-01" nType="0">
          <Node pos="l" depth="2" NCoef="0" IVar="-1" Cut="0.0000000000000000e+00" cType="1" res="-4.8622693866491318e-03" rms="3.6312735080718994e-01" purity="1.5736484527587891e-01" nType="-99"/>
          <Node pos="r" depth="2" NCoef="0" IVar="-1" Cut="0.0000000000000000e+00" cType="1" res="-2.8302238788455725e-03" rms="4.5205864310264587e-01" purity="2.9216426610946655e-01" nType="-99"/>
        </Node>
      </Node>
    </BinaryTree>
    <BinaryTree type="DecisionTree" boostWeight="1.0000000000000000e+00" itree="48">
      <Node pos="s" depth="0" NCoef="0" IVar="5" Cut="1.2882398366928101e+00" cType="1" res="-1.1533300392329693e-02" rms="4.8004263639450073e-01" purity="5.0078976154327393e-01" nType="0">
        <Node pos="l" depth="1" NCoef="0" IVar="1" Cut="1.1016789674758911e+00" cType="1" res="3.9777833968400955e-02" rms="4.8423108458518982e-01" purity="5.8737373352050781e-01" nType="0">
          <Node pos="l" depth="2" NCoef="0" IVar="-1" Cut="0.0000000000000000e+00" cType="1" res="2.5547621771693230e-03" rms="4.7587728500366211e-01" purity="6.2932360172271729e-01" nType="-99"/>
          <Node pos="r" depth="2" NCoef="0" IVar="-1" Cut="0.0000000000000000e+00" cType="1" res="-8.8259199401363730e-04" rms="4.9180853366851807e-01" purity="5.0833910703659058e-01" nType="-99"/>
        </Node>
        <Node pos="r" depth="1" NCoef="0" IVar="5" Cut="1.6948589086532593e+00" cType="1" res="-1.4129151403903961e-01" rms="4.4354501366615295e-01" purity="2.8183180093765259e-01" nType="0">
          <Node pos="l" depth="2" NCoef="0" IVar="-1" Cut="0.0000000000000000e+00" cType="1" res="-2.2089716512709856e-03" rms="4.7132414579391479e-01" purity="3.4345954656600952e-01" nType="-99"/>
          <Node pos="r" depth="2" NCoef="0" IVar="-1" Cut="0.0000000000000000e+00" cType="1" res="-4.6878186985850334e-03" rms="3.6819913983345032e-01" purity="1.6326911747455597e-01" nType="-99"/>
        </Node>
      </Node>
    </BinaryTree>
    <BinaryTree type="DecisionTree" boostWeight="1.0000000000000000e+00" itree="49">
      <Node pos="s" depth="0" NCoef="0" IVar="5" Cut="1.4242303371429443e+00" cType="1" res="-7.5761303305625916e-03" rms="4.7937098145484924e-01" purity="5.0437206029891968e-01" nType="0">
        <Node pos="l" depth="1" NCoef="0" IVar="2" Cut="8.5668182373046875e-01" cType="1" res="3.2086282968521118e-02" rms="4.8410654067993164e-01" purity="5.7090318202972412e-01" nType="0">
          <Node pos="l" depth="2" NCoef="0" IVar="-1" Cut="0.0000000000000000e+00" cType="1" res="-9.3649892369285226e-04" rms="4.9354189634323120e-01" purity="4.6486806869506836e-01" nType="-99"/>
          <Node pos="r" depth="2" NCoef="0" IVar="-1" Cut="0.0000000000000000e+00" cType="1" res="3.0571166425943375e-03" rms="4.6861821413040161e-01" purity="6.5965658426284790e-01" nType="-99"/>
        </Node>
        <Node pos="r" depth="1" NCoef="0" IVar="7" Cut="6.7257612943649292e-01" cType="1" res="-1.6111005842685699e-01" rms="4.2716777324676514e-01" purity="2.4682898819446564e-01" nType="0">
          <Node pos="l" depth="2" NCoef="0" IVar="-1" Cut="0.0000000000000000e+00" cType="1" res="-4.2658769525587559e-03" rms="3.9315381646156311e-01" purity="1.9394320249557495e-01" nType="-99"/>
          <Node pos="r" depth="2" NCoef="0" IVar="-1" Cut="0.0000000000000000e+00" cType="1" res="-2.0878934301435947e-03" rms="4.6712478995323181e-01" purity="3.3037748932838440e-01" nType="-99"/>
        </Node>
      </Node>
    </BinaryTree>
    <BinaryTree type="DecisionTree" boostWeight="1.0000000000000000e+00" itree="50">
      <Node pos="s" depth="0" NCoef="0" IVar="5" Cut="1.0293067693710327e+00" cType="1" res="-9.5862979069352150e-03" rms="4.8010849952697754e-01" purity="5.0242447853088379e-01" nType="0">
        <Node pos="l" depth="1" NCoef="0" IVar="3" Cut="6.9091781616210938e+01" cType="1" res="6.4552545547485352e-02" rms="4.7747328877449036e-01" purity="6.2439548969268799e-01" nType="0">
          <Node pos="l" depth="2" NCoef="0" IVar="-1" Cut="0.0000000000000000e+00" cType="1" res="6.1186357925180346e-05" rms="4.8964929580688477e-01" purity="5.6087839603424072e-01" nType="-99"/>
          <Node pos="r" depth="2" NCoef="0" IVar="-1" Cut="0.0000000000000000e+00" cType="1" res="4.6728304587304592e-03" rms="4.5585060119628906e-01" purity="6.8949830532073975e-01" nType="-99"/>
        </Node>
        <Node pos="r" depth="1" NCoef="0" IVar="0" Cut="1.3859127759933472e+00" cType="1" res="-9.0611875057220459e-02" rms="4.6977624297142029e-01" purity="3.6912354826927185e-01" nType="0">
          <Node pos="l" depth="2" NCoef="0" IVar="-1" Cut="0.0000000000000000e+00" cType="1" res="-9.6737954299896955e-04" rms="4.8809620738029480e-01" purity="4.4459688663482666e-01" nType="-99"/>
          <Node pos="r" depth="2" NCoef="0" IVar="-1" Cut="0.0000000000000000e+00" cType="1" res="-3.6707005929201841e-03" rms="4.2977362871170044e-01" purity="2.5853246450424194e-01" nType="-99"/>
        </Node>
      </Node>
    </BinaryTree>
    <BinaryTree type="DecisionTree" boostWeight="1.0000000000000000e+00" itree="51">
      <Node pos="s" depth="0" NCoef="0" IVar="5" Cut="1.0493999719619751e+00" cType="1" res="-7.1812649257481098e-03" rms="4.7936844825744629e-01" purity="5.0495666265487671e-01" nType="0">
        <Node pos="l" depth="1" NCoef="0" IVar="2" Cut="8.3883363008499146e-01" cType="1" res="6.4589962363243103e-02" rms="4.7637441754341125e-01" purity="6.2389051914215088e-01" nType="0">
          <Node pos="l" depth="2" NCoef="0" IVar="-1" Cut="0.0000000000000000e+00" cType="1" res="-1.6247596067842096e-04" rms="4.9777722358703613e-01" purity="5.0087863206863403e-01" nType="-99"/>
          <Node pos="r" depth="2" NCoef="0" IVar="-1" Cut="0.0000000000000000e+00" cType="1" res="3.9983564056456089e-03" rms="4.5765611529350281e-01" purity="6.9844824075698853e-01" nType="-99"/>
        </Node>
        <Node pos="r" depth="1" NCoef="0" IVar="2" Cut="8.2541728019714355e-01" cType="1" res="-9.2779867351055145e-02" rms="4.6876037120819092e-01" purity="3.6310914158821106e-01" nType="0">
          <Node pos="l" depth="2" NCoef="0" IVar="-1" Cut="0.0000000000000000e+00" cType="1" res="-3.9141816087067127e-03" rms="4.2145347595214844e-01" purity="2.4175734817981720e-01" nType="-99"/>
          <Node pos="r" depth="2" NCoef="0" IVar="-1" Cut="0.0000000000000000e+00" cType="1" res="-9.2865817714482546e-04" rms="4.8826545476913452e-01" purity="4.4071358442306519e-01" nType="-99"/>
        </Node>
      </Node>
    </BinaryTree>
    <BinaryTree type="DecisionTree" boostWeight="1.0000000000000000e+00" itree="52">
      <Node pos="s" depth="0" NCoef="0" IVar="5" Cut="1.0656653642654419e+00" cType="1" res="-1.3963357545435429e-02" rms="4.7865471243858337e-01" purity="4.9896341562271118e-01" nType="0">
        <Node pos="l" depth="1" NCoef="0" IVar="3" Cut="7.9975746154785156e+01" cType="1" res="5.6054417043924332e-02" rms="4.7795569896697998e-01" purity="6.1782020330429077e-01" nType="0">
          <Node pos="l" depth="2" NCoef="0" IVar="-1" Cut="0.0000000000000000e+00" cType="1" res="3.2797979656606913e-04" rms="4.8733431100845337e-01" purity="5.7068639993667603e-01" nType="-99"/>
          <Node pos="r" depth="2" NCoef="0" IVar="-1" Cut="0.0000000000000000e+00" cType="1" res="4.6236696653068066e-03" rms="4.5417851209640503e-01" purity="6.9089877605438232e-01" nType="-99"/>
        </Node>
        <Node pos="r" depth="1" NCoef="0" IVar="5" Cut="1.7042081356048584e+00" cType="1" res="-1.0053756088018417e-01" rms="4.6516695618629456e-01" purity="3.5200172662734985e-01" nType="0">
          <Node pos="l" depth="2" NCoef="0" IVar="-1" Cut="0.0000000000000000e+00" cType="1" res="-1.7290659015998244e-03" rms="4.8120504617691040e-01" purity="3.9988616108894348e-01" nType="-99"/>
          <Node pos="r" depth="2" NCoef="0" IVar="-1" Cut="0.0000000000000000e+00" cType="1" res="-4.3001398444175720e-03" rms="3.8218215107917786e-01" purity="1.7849712073802948e-01" nType="-99"/>
        </Node>
      </Node>
    </BinaryTree>
    <BinaryTree type="DecisionTree" boostWeight="1.0000000000000000e+00" itree="53">
      <Node pos="s" depth="0" NCoef="0" IVar="5" Cut="1.0138200521469116e+00" cType="1" res="-1.5964414924383163e-02" rms="4.7783270478248596e-01" purity="4.9573698639869690e-01" nType="0">
        <Node pos="l" depth="1" NCoef="0" IVar="3" Cut="5.0618831634521484e+01" cType="1" res="6.5859712660312653e-02" rms="4.7576752305030823e-01" purity="6.2994682788848877e-01" nType="0">
          <Node pos="l" depth="2" NCoef="0" IVar="-1" Cut="0.0000000000000000e+00" cType="1" res="-8.0553651787340641e-04" rms="4.9302592873573303e-01" purity="5.3145635128021240e-01" nType="-99"/>
          <Node pos="r" depth="2" NCoef="0" IVar="-1" Cut="0.0000000000000000e+00" cType="1" res="3.5915425978600979e-03" rms="4.6383565664291382e-01" purity="6.6808813810348511e-01" nType="-99"/>
        </Node>
        <Node pos="r" depth="1" NCoef="0" IVar="1" Cut="1.9725323915481567e+00" cType="1" res="-9.8491817712783813e-02" rms="4.6556079387664795e-01" purity="3.6037361621856689e-01" nType="0">
          <Node pos="l" depth="2" NCoef="0" IVar="-1" Cut="0.0000000000000000e+00" cType="1" res="-1.5108848456293344e-03" rms="4.7817856073379517e-01" purity="4.0764704346656799e-01" nType="-99"/>
          <Node pos="r" depth="2" NCoef="0" IVar="-1" Cut="0.0000000000000000e+00" cType="1" res="-4.3052891269326210e-03" rms="4.1050359606742859e-01" purity="2.2897757589817047e-01" nType="-99"/>
        </Node>
      </Node>
    </BinaryTree>
    <BinaryTree type="DecisionTree" boostWeight="1.0000000000000000e+00" itree="54">
      <Node pos="s" depth="0" NCoef="0" IVar="5" Cut="1.3193043470382690e+00" cType="1" res="-7.9880263656377792e-03" rms="4.7757330536842346e-01" purity="5.0387537479400635e-01" nType="0">
        <Node pos="l" depth="1" NCoef="0" IVar="2" Cut="7.4355262517929077e-01" cType="1" res="4.0503565222024918e-02" rms="4.8200777173042297e-01" purity="5.8904713392257690e-01" nType="0">
          <Node pos="l" depth="2" NCoef="0" IVar="-1" Cut="0.0000000000000000e+00" cType="1" res="-3.0513291712850332e-03" rms="4.7413927316665649e-01" purity="3.4813210368156433e-01" nType="-99"/>
          <Node pos="r" depth="2" NCoef="0" IVar="-1" Cut="0.0000000000000000e+00" cType="1" res="1.8485106993466616e-03" rms="4.7941887378692627e-01" purity="6.1231315135955811e-01" nType="-99"/>
        </Node>
        <Node pos="r" depth="1" NCoef="0" IVar="5" Cut="1.7529238462448120e+00" cType="1" res="-1.4034429192543030e-01" rms="4.3877720832824707e-01" purity="2.7140179276466370e-01" nType="0">
          <Node pos="l" depth="2" NCoef="0" IVar="-1" Cut="0.0000000000000000e+00" cType="1" res="-2.3025611881166697e-03" rms="4.6445897221565247e-01" purity="3.2453173398971558e-01" nType="-99"/>
          <Node pos="r" depth="2" NCoef="0" IVar="-1" Cut="0.0000000000000000e+00" cType="1" res="-4.6618515625596046e-03" rms="3.5987129807472229e-01" purity="1.5390929579734802e-01" nType="-99"/>
        </Node>
      </Node>
    </BinaryTree>
    <BinaryTree type="DecisionTree" boostWeight="1.0000000000000000e+00" itree="55">
      <Node pos="s" depth="0" NCoef="0" IVar="0" Cut="1.0236035585403442e+00" cType="1" res="-1.2449421919882298e-02" rms="4.7838351130485535e-01" purity="5.0059688091278076e-01" nType="0">
        <Node pos="l" depth="1" NCoef="0" IVar="3" Cut="4.8473789215087891e+01" cType="1" res="8.0513969063758850e-02" rms="4.7086417675018311e-01" purity="6.3905984163284302e-01" nType="0">
          <Node pos="l" depth="2" NCoef="0" IVar="-1" Cut="0.0000000000000000e+00" cType="1" res="-6.1942980391904712e-04" rms="4.9247616529464722e-01" purity="5.3458273410797119e-01" nType="-99"/>
          <Node pos="r" depth="2" NCoef="0" IVar="-1" Cut="0.0000000000000000e+00" cType="1" res="3.9493534713983536e-03" rms="4.5927223563194275e-01" purity="6.7179548740386963e-01" nType="-99"/>
        </Node>
        <Node pos="r" depth="1" NCoef="0" IVar="7" Cut="6.8262857198715210e-01" cType="1" res="-7.9236291348934174e-02" rms="4.7255629301071167e-01" purity="4.0112221240997314e-01" nType="0">
          <Node pos="l" depth="2" NCoef="0" IVar="-1" Cut="0.0000000000000000e+00" cType="1" res="-3.0577029101550579e-03" rms="4.5648166537284851e-01" purity="3.2960873842239380e-01" nType="-99"/>
          <Node pos="r" depth="2" NCoef="0" IVar="-1" Cut="0.0000000000000000e+00" cType="1" res="-2.2295258531812578e-04" rms="4.8458182811737061e-01" purity="4.9843165278434753e-01" nType="-99"/>
        </Node>
      </Node>
    </BinaryTree>
    <BinaryTree type="DecisionTree" boostWeight="1.0000000000000000e+00" itree="56">
      <Node pos="s" depth="0" NCoef="0" IVar="5" Cut="1.3267549276351929e+00" cType="1" res="-9.1365491971373558e-03" rms="4.7670161724090576e-01" purity="5.0339382886886597e-01" nType="0">
        <Node pos="l" depth="1" NCoef="0" IVar="3" Cut="5.2602359771728516e+01" cType="1" res="3.7762381136417389e-02" rms="4.8127689957618713e-01" purity="5.8688914775848389e-01" nType="0">
          <Node pos="l" depth="2" NCoef="0" IVar="-1" Cut="0.0000000000000000e+00" cType="1" res="-1.5824944712221622e-03" rms="4.8942202329635620e-01" purity="4.8850598931312561e-01" nType="-99"/>
          <Node pos="r" depth="2" NCoef="0" IVar="-1" Cut="0.0000000000000000e+00" cType="1" res="2.5081061758100986e-03" rms="4.7259995341300964e-01" purity="6.2615174055099487e-01" nType="-99"/>
        </Node>
        <Node pos="r" depth="1" NCoef="0" IVar="7" Cut="6.0962831974029541e-01" cType="1" res="-1.4193467795848846e-01" rms="4.3700134754180908e-01" purity="2.6697018742561340e-01" nType="0">
          <Node pos="l" depth="2" NCoef="0" IVar="-1" Cut="0.0000000000000000e+00" cType="1" res="-4.1570677421987057e-03" rms="3.9362692832946777e-01" purity="1.9603034853935242e-01" nType="-99"/>
          <Node pos="r" depth="2" NCoef="0" IVar="-1" Cut="0.0000000000000000e+00" cType="1" res="-2.2701756097376347e-03" rms="4.6232882142066956e-01" purity="3.2070785760879517e-01" nType="-99"/>
        </Node>
      </Node>
    </BinaryTree>
    <BinaryTree type="DecisionTree" boostWeight="1.0000000000000000e+00" itree="57">
      <Node pos="s" depth="0" NCoef="0" IVar="5" Cut="1.3872590065002441e+00" cType="1" res="-1.1335496790707111e-02" rms="4.7698184847831726e-01" purity="5.0118750333786011e-01" nType="0">
        <Node pos="l" depth="1" NCoef="0" IVar="3" Cut="8.7495605468750000e+01" cType="1" res="3.2304793596267700e-02" rms="4.8313066363334656e-01" purity="5.7841783761978149e-01" nType="0">
          <Node pos="l" depth="2" NCoef="0" IVar="-1" Cut="0.0000000000000000e+00" cType="1" res="-3.5748636582866311e-04" rms="4.8827525973320007e-01" purity="5.3322863578796387e-01" nType="-99"/>
          <Node pos="r" depth="2" NCoef="0" IVar="-1" Cut="0.0000000000000000e+00" cType="1" res="3.9197504520416260e-03" rms="4.6285709738731384e-01" purity="6.6014760732650757e-01" nType="-99"/>
        </Node>
        <Node pos="r" depth="1" NCoef="0" IVar="2" Cut="8.2456547021865845e-01" cType="1" res="-1.5734387934207916e-01" rms="4.2434632778167725e-01" purity="2.4279598891735077e-01" nType="0">
          <Node pos="l" depth="2" NCoef="0" IVar="-1" Cut="0.0000000000000000e+00" cType="1" res="-4.5245881192386150e-03" rms="3.6808311939239502e-01" purity="1.6298413276672363e-01" nType="-99"/>
          <Node pos="r" depth="2" NCoef="0" IVar="-1" Cut="0.0000000000000000e+00" cType="1" res="-2.5684169959276915e-03" rms="4.5345953106880188e-01" purity="2.9697492718696594e-01" nType="-99"/>
        </Node>
      </Node>
    </BinaryTree>
    <BinaryTree type="DecisionTree" boostWeight="1.0000000000000000e+00" itree="58">
      <Node pos="s" depth="0" NCoef="0" IVar="5" Cut="9.7141933441162109e-01" cType="1" res="-1.0121121071279049e-02" rms="4.7741910815238953e-01" purity="5.0301653146743774e-01" nType="0">
        <Node pos="l" depth="1" NCoef="0" IVar="2" Cut="8.3929234743118286e-01" cType="1" res="6.2392242252826691e-02" rms="4.7446778416633606e-01" purity="6.3013184070587158e-01" nType="0">
          <Node pos="l" depth="2" NCoef="0" IVar="-1" Cut="0.0000000000000000e+00" cType="1" res="-1.9235354557167739e-04" rms="4.9760526418685913e-01" purity="5.0558215379714966e-01" nType="-99"/>
          <Node pos="r" depth="2" NCoef="0" IVar="-1" Cut="0.0000000000000000e+00" cType="1" res="3.8483927492052317e-03" rms="4.5569238066673279e-01" purity="7.0242369174957275e-01" nType="-99"/>
        </Node>
        <Node pos="r" depth="1" NCoef="0" IVar="2" Cut="8.1840676069259644e-01" cType="1" res="-7.6033756136894226e-02" rms="4.7048762440681458e-01" purity="3.8747224211692810e-01" nType="0">
          <Node pos="l" depth="2" NCoef="0" IVar="-1" Cut="0.0000000000000000e+00" cType="1" res="-3.6932129878550768e-03" rms="4.2808279395103455e-01" purity="2.5534883141517639e-01" nType="-99"/>
          <Node pos="r" depth="2" NCoef="0" IVar="-1" Cut="0.0000000000000000e+00" cType="1" res="-7.2860269574448466e-04" rms="4.8431023955345154e-01" purity="4.5688799023628235e-01" nType="-99"/>
        </Node>
      </Node>
    </BinaryTree>
    <BinaryTree type="DecisionTree" boostWeight="1.0000000000000000e+00" itree="59">
      <Node pos="s" depth="0" NCoef="0" IVar="0" Cut="1.0939195156097412e+00" cType="1" res="-1.6230409964919090e-02" rms="4.7582837939262390e-01" purity="4.9486783146858215e-01" nType="0">
        <Node pos="l" depth="1" NCoef="0" IVar="2" Cut="7.7322006225585938e-01" cType="1" res="6.7364700138568878e-02" rms="4.7398445010185242e-01" purity="6.2291705608367920e-01" nType="0">
          <Node pos="l" depth="2" NCoef="0" IVar="-1" Cut="0.0000000000000000e+00" cType="1" res="-1.7030676826834679e-03" rms="4.9027264118194580e-01" purity="4.1787961125373840e-01" nType="-99"/>
          <Node pos="r" depth="2" NCoef="0" IVar="-1" Cut="0.0000000000000000e+00" cType="1" res="3.1482318881899118e-03" rms="4.6711233258247375e-01" purity="6.5861576795578003e-01" nType="-99"/>
        </Node>
        <Node pos="r" depth="1" NCoef="0" IVar="5" Cut="1.4875096082687378e+00" cType="1" res="-9.3241266906261444e-02" rms="4.6438959240913391e-01" purity="3.7690421938896179e-01" nType="0">
          <Node pos="l" depth="2" NCoef="0" IVar="-1" Cut="0.0000000000000000e+00" cType="1" res="-1.2495673727244139e-03" rms="4.8716792464256287e-01" purity="4.6557760238647461e-01" nType="-99"/>
          <Node pos="r" depth="2" NCoef="0" IVar="-1" Cut="0.0000000000000000e+00" cType="1" res="-3.8225685711950064e-03" rms="4.0491819381713867e-01" purity="2.1186600625514984e-01" nType="-99"/>
        </Node>
      </Node>
    </BinaryTree>
    <BinaryTree type="DecisionTree" boostWeight="1.0000000000000000e+00" itree="60">
      <Node pos="s" depth="0" NCoef="0" IVar="0" Cut="1.0677148103713989e+00" cType="1" res="-9.0596303343772888e-03" rms="4.7680824995040894e-01" purity="5.0316703319549561e-01" nType="0">
        <Node pos="l" depth="1" NCoef="0" IVar="3" Cut="8.7002944946289062e+01" cType="1" res="7.1989692747592926e-02" rms="4.7269508242607117e-01" purity="6.3187932968139648e-01" nType="0">
          <Node pos="l" depth="2" NCoef="0" IVar="-1" Cut="0.0000000000000000e+00" cType="1" res="1.1134671512991190e-03" rms="4.8301577568054199e-01" purity="5.9385561943054199e-01" nType="-99"/>
          <Node pos="r" depth="2" NCoef="0" IVar="-1" Cut="0.0000000000000000e+00" cType="1" res="5.1641231402754784e-03" rms="4.4552820920944214e-01" purity="7.0137566328048706e-01" nType="-99"/>
        </Node>
        <Node pos="r" depth="1" NCoef="0" IVar="7" Cut="6.6207903623580933e-01" cType="1" res="-7.6897777616977692e-02" rms="4.6958994865417480e-01" purity="3.9543503522872925e-01" nType="0">
          <Node pos="l" depth="2" NCoef="0" IVar="-1" Cut="0.0000000000000000e+00" cType="1" res="-3.0537359416484833e-03" rms="4.5031154155731201e-01" purity="3.1720185279846191e-01" nType="-99"/>
          <Node pos="r" depth="2" NCoef="0" IVar="-1" Cut="0.0000000000000000e+00" cType="1" res="-3.1092701829038560e-04" rms="4.8314252495765686e-01" purity="4.8756325244903564e-01" nType="-99"/>
        </Node>
      </Node>
    </BinaryTree>
    <BinaryTree type="DecisionTree" boostWeight="1.0000000000000000e+00" itree="61">
      <Node pos="s" depth="0" NCoef="0" IVar="5" Cut="1.3112564086914062e+00" cType="1" res="-1.0038200765848160e-02" rms="4.7694721817970276e-01" purity="5.0251144170761108e-01" nType="0">
        <Node pos="l" depth="1" NCoef="0" IVar="8" Cut="6.0505545139312744e-01" cType="1" res="3.2954148948192596e-02" rms="4.8241052031517029e-01" purity="5.8669137954711914e-01" nType="0">
          <Node pos="l" depth="2" NCoef="0" IVar="-1" Cut="0.0000000000000000e+00" cType="1" res="5.1871153118554503e-05" rms="4.8889136314392090e-01" purity="5.4406934976577759e-01" nType="-99"/>
          <Node pos="r" depth="2" NCoef="0" IVar="-1" Cut="0.0000000000000000e+00" cType="1" res="4.2453277856111526e-03" rms="4.5462688803672791e-01" purity="6.9945359230041504e-01" nType="-99"/>
        </Node>
        <Node pos="r" depth="1" NCoef="0" IVar="5" Cut="1.6790392398834229e+00" cType="1" res="-1.2286809086799622e-01" rms="4.4287917017936707e-01" purity="2.8158825635910034e-01" nType="0">
          <Node pos="l" depth="2" NCoef="0" IVar="-1" Cut="0.0000000000000000e+00" cType="1" res="-1.7905095592141151e-03" rms="4.7123453021049500e-01" purity="3.4573948383331299e-01" nType="-99"/>
          <Node pos="r" depth="2" NCoef="0" IVar="-1" Cut="0.0000000000000000e+00" cType="1" res="-4.0780473500490189e-03" rms="3.8309234380722046e-01" purity="1.8077082931995392e-01" nType="-99"/>
        </Node>
      </Node>
    </BinaryTree>
    <BinaryTree type="DecisionTree" boostWeight="1.0000000000000000e+00" itree="62">
      <Node pos="s" depth="0" NCoef="0" IVar="5" Cut="1.3741458654403687e+00" cType="1" res="-1.1354923248291016e-02" rms="4.7587850689888000e-01" purity="5.0223273038864136e-01" nType="0">
        <Node pos="l" depth="1" NCoef="0" IVar="2" Cut="7.5454795360565186e-01" cType="1" res="2.9568528756499290e-02" rms="4.8235589265823364e-01" purity="5.7964348793029785e-01" nType="0">
          <Node pos="l" depth="2" NCoef="0" IVar="-1" Cut="0.0000000000000000e+00" cType="1" res="-3.2129988539963961e-03" rms="4.6985849738121033e-01" purity="3.3962342143058777e-01" nType="-99"/>
          <Node pos="r" depth="2" NCoef="0" IVar="-1" Cut="0.0000000000000000e+00" cType="1" res="1.5798982931300998e-03" rms="4.7992804646492004e-01" purity="6.0792738199234009e-01" nType="-99"/>
        </Node>
        <Node pos="r" depth="1" NCoef="0" IVar="7" Cut="5.8859801292419434e-01" cType="1" res="-1.4416162669658661e-01" rms="4.2807134985923767e-01" purity="2.5101563334465027e-01" nType="0">
          <Node pos="l" depth="2" NCoef="0" IVar="-1" Cut="0.0000000000000000e+00" cType="1" res="-4.6298834495246410e-03" rms="3.6064913868904114e-01" purity="1.5565906465053558e-01" nType="-99"/>
          <Node pos="r" depth="2" NCoef="0" IVar="-1" Cut="0.0000000000000000e+00" cType="1" res="-2.0706902723759413e-03" rms="4.5957282185554504e-01" purity="3.1454285979270935e-01" nType="-99"/>
        </Node>
      </Node>
    </BinaryTree>
    <BinaryTree type="DecisionTree" boostWeight="1.0000000000000000e+00" itree="63">
      <Node pos="s" depth="0" NCoef="0" IVar="0" Cut="1.1492854356765747e+00" cType="1" res="-1.1315744370222092e-02" rms="4.7600364685058594e-01" purity="5.0171178579330444e-01" nType="0">
        <Node pos="l" depth="1" NCoef="0" IVar="2" Cut="7.5722378492355347e-01" cType="1" res="5.5337380617856979e-02" rms="4.7632375359535217e-01" purity="6.1107349395751953e-01" nType="0">
          <Node pos="l" depth="2" NCoef="0" IVar="-1" Cut="0.0000000000000000e+00" cType="1" res="-2.2156003396958113e-03" rms="4.8422169685363770e-01" purity="3.8944390416145325e-01" nType="-99"/>
          <Node pos="r" depth="2" NCoef="0" IVar="-1" Cut="0.0000000000000000e+00" cType="1" res="2.4158628657460213e-03" rms="4.7256571054458618e-01" purity="6.3630926609039307e-01" nType="-99"/>
        </Node>
        <Node pos="r" depth="1" NCoef="0" IVar="2" Cut="8.6631619930267334e-01" cType="1" res="-8.9309044182300568e-02" rms="4.6361762285232544e-01" purity="3.7374362349510193e-01" nType="0">
          <Node pos="l" depth="2" NCoef="0" IVar="-1" Cut="0.0000000000000000e+00" cType="1" res="-3.2437243498861790e-03" rms="4.4176414608955383e-01" purity="2.9243466258049011e-01" nType="-99"/>
          <Node pos="r" depth="2" NCoef="0" IVar="-1" Cut="0.0000000000000000e+00" cType="1" res="-6.0962518909946084e-04" rms="4.8069521784782410e-01" purity="4.7312861680984497e-01" nType="-99"/>
        </Node>
      </Node>
    </BinaryTree>
    <BinaryTree type="DecisionTree" boostWeight="1.0000000000000000e+00" itree="64">
      <Node pos="s" depth="0" NCoef="0" IVar="5" Cut="1.3267549276351929e+00" cType="1" res="-1.6422346234321594e-02" rms="4.7560420632362366e-01" purity="4.9660357832908630e-01" nType="0">
        <Node pos="l" depth="1" NCoef="0" IVar="2" Cut="8.6167681217193604e-01" cType="1" res="2.5174677371978760e-02" rms="4.8218259215354919e-01" purity="5.7874625921249390e-01" nType="0">
          <Node pos="l" depth="2" NCoef="0" IVar="-1" Cut="0.0000000000000000e+00" cType="1" res="-9.0171128977090120e-04" rms="4.9245882034301758e-01" purity="4.7868436574935913e-01" nType="-99"/>
          <Node pos="r" depth="2" NCoef="0" IVar="-1" Cut="0.0000000000000000e+00" cType="1" res="2.8295726515352726e-03" rms="4.6583455801010132e-01" purity="6.7171543836593628e-01" nType="-99"/>
        </Node>
        <Node pos="r" depth="1" NCoef="0" IVar="1" Cut="2.0052835941314697e+00" cType="1" res="-1.3261686265468597e-01" rms="4.3619367480278015e-01" purity="2.6715150475502014e-01" nType="0">
          <Node pos="l" depth="2" NCoef="0" IVar="-1" Cut="0.0000000000000000e+00" cType="1" res="-1.9915837328881025e-03" rms="4.5872277021408081e-01" purity="3.1719067692756653e-01" nType="-99"/>
          <Node pos="r" depth="2" NCoef="0" IVar="-1" Cut="0.0000000000000000e+00" cType="1" res="-4.3485728092491627e-03" rms="3.8261497020721436e-01" purity="1.8271411955356598e-01" nType="-99"/>
        </Node>
      </Node>
    </BinaryTree>
    <BinaryTree type="DecisionTree" boostWeight="1.0000000000000000e+00" itree="65">
      <Node pos="s" depth="0" NCoef="0" IVar="0" Cut="1.2104637622833252e+00" cType="1" res="-1.2162061408162117e-02" rms="4.7454538941383362e-01" purity="4.9988344311714172e-01" nType="0">
        <Node pos="l" depth="1" NCoef="0" IVar="2" Cut="7.8237116336822510e-01" cType="1" res="4.7573246061801910e-02" rms="4.7658300399780273e-01" purity="5.9819799661636353e-01" nType="0">
          <Node pos="l" depth="2" NCoef="0" IVar="-1" Cut="0.0000000000000000e+00" cType="1" res="-1.9147689454257488e-03" rms="4.8524937033653259e-01" purity="4.0110614895820618e-01" nType="-99"/>
          <Node pos="r" depth="2" NCoef="0" IVar="-1" Cut="0.0000000000000000e+00" cType="1" res="2.5164720136672258e-03" rms="4.7047442197799683e-01" purity="6.3991951942443848e-01" nType="-99"/>
        </Node>
        <Node pos="r" depth="1" NCoef="0" IVar="7" Cut="6.8244898319244385e-01" cType="1" res="-1.0091698169708252e-01" rms="4.5731231570243835e-01" purity="3.5380733013153076e-01" nType="0">
          <Node pos="l" depth="2" NCoef="0" IVar="-1" Cut="0.0000000000000000e+00" cType="1" res="-3.3866332378238440e-03" rms="4.3547281622886658e-01" purity="2.8340643644332886e-01" nType="-99"/>
          <Node pos="r" depth="2" NCoef="0" IVar="-1" Cut="0.0000000000000000e+00" cType="1" res="-7.4165227124467492e-04" rms="4.7810322046279907e-01" purity="4.5660480856895447e-01" nType="-99"/>
        </Node>
      </Node>
    </BinaryTree>
    <BinaryTree type="DecisionTree" boostWeight="1.0000000000000000e+00" itree="66">
      <Node pos="s" depth="0" NCoef="0" IVar="0" Cut="1.0025551319122314e+00" cType="1" res="-1.2719627469778061e-02" rms="4.7684311866760254e-01" purity="5.0136226415634155e-01" nType="0">
        <Node pos="l" depth="1" NCoef="0" IVar="3" Cut="4.2111454010009766e+01" cType="1" res="7.1972817182540894e-02" rms="4.7155031561851501e-01" purity="6.4224725961685181e-01" nType="0">
          <Node pos="l" depth="2" NCoef="0" IVar="-1" Cut="0.0000000000000000e+00" cType="1" res="-1.2262029340490699e-03" rms="4.9475774168968201e-01" purity="5.1669079065322876e-01" nType="-99"/>
          <Node pos="r" depth="2" NCoef="0" IVar="-1" Cut="0.0000000000000000e+00" cType="1" res="3.2668905332684517e-03" rms="4.6416980028152466e-01" purity="6.6507512331008911e-01" nType="-99"/>
        </Node>
        <Node pos="r" depth="1" NCoef="0" IVar="7" Cut="6.3059014081954956e-01" cType="1" res="-6.6961444914340973e-02" rms="4.7229033708572388e-01" purity="4.1113153100013733e-01" nType="0">
          <Node pos="l" depth="2" NCoef="0" IVar="-1" Cut="0.0000000000000000e+00" cType="1" res="-3.0129551887512207e-03" rms="4.5082330703735352e-01" purity="3.1792876124382019e-01" nType="-99"/>
          <Node pos="r" depth="2" NCoef="0" IVar="-1" Cut="0.0000000000000000e+00" cType="1" res="-4.0446975617669523e-04" rms="4.8311299085617065e-01" purity="4.8820644617080688e-01" nType="-99"/>
        </Node>
      </Node>
    </BinaryTree>
    <BinaryTree type="DecisionTree" boostWeight="1.0000000000000000e+00" itree="67">
      <Node pos="s" depth="0" NCoef="0" IVar="5" Cut="1.3250192403793335e+00" cType="1" res="-9.9067762494087219e-03" rms="4.7436627745628357e-01" purity="5.0237399339675903e-01" nType="0">
        <Node pos="l" depth="1" NCoef="0" IVar="3" Cut="9.1038803100585938e+01" cType="1" res="3.1824577599763870e-02" rms="4.7983184456825256e-01" purity="5.8672660589218140e-01" nType="0">
          <Node pos="l" depth="2" NCoef="0" IVar="-1" Cut="0.0000000000000000e+00" cType="1" res="-4.2679716716520488e-04" rms="4.8665162920951843e-01" purity="5.3846371173858643e-01" nType="-99"/>
          <Node pos="r" depth="2" NCoef="0" IVar="-1" Cut="0.0000000000000000e+00" cType="1" res="4.5522321015596390e-03" rms="4.5123487710952759e-01" purity="6.8458735942840576e-01" nType="-99"/>
        </Node>
        <Node pos="r" depth="1" NCoef="0" IVar="3" Cut="8.3198196411132812e+01" cType="1" res="-1.2296549230813980e-01" rms="4.3976575136184692e-01" purity="2.7384561300277710e-01" nType="0">
          <Node pos="l" depth="2" NCoef="0" IVar="-1" Cut="0.0000000000000000e+00" cType="1" res="-3.7755707744508982e-03" rms="4.0927413105964661e-01" purity="2.2167657315731049e-01" nType="-99"/>
          <Node pos="r" depth="2" NCoef="0" IVar="-1" Cut="0.0000000000000000e+00" cType="1" res="-1.6691935015842319e-03" rms="4.6234324574470520e-01" purity="3.2604694366455078e-01" nType="-99"/>
        </Node>
      </Node>
    </BinaryTree>
    <BinaryTree type="DecisionTree" boostWeight="1.0000000000000000e+00" itree="68">
      <Node pos="s" depth="0" NCoef="0" IVar="0" Cut="1.0490242242813110e+00" cType="1" res="-1.5355455689132214e-02" rms="4.7468820214271545e-01" purity="4.9755930900573730e-01" nType="0">
        <Node pos="l" depth="1" NCoef="0" IVar="2" Cut="8.3192688226699829e-01" cType="1" res="6.8226173520088196e-02" rms="4.7095099091529846e-01" purity="6.3508790731430054e-01" nType="0">
          <Node pos="l" depth="2" NCoef="0" IVar="-1" Cut="0.0000000000000000e+00" cType="1" res="-2.5703196297399700e-04" rms="4.9648818373680115e-01" purity="4.9701425433158875e-01" nType="-99"/>
          <Node pos="r" depth="2" NCoef="0" IVar="-1" Cut="0.0000000000000000e+00" cType="1" res="4.1575860232114792e-03" rms="4.5171982049942017e-01" purity="7.0738923549652100e-01" nType="-99"/>
        </Node>
        <Node pos="r" depth="1" NCoef="0" IVar="7" Cut="6.3059014081954956e-01" cType="1" res="-7.9306900501251221e-02" rms="4.6754461526870728e-01" purity="3.9233100414276123e-01" nType="0">
          <Node pos="l" depth="2" NCoef="0" IVar="-1" Cut="0.0000000000000000e+00" cType="1" res="-3.2498547807335854e-03" rms="4.4335961341857910e-01" purity="2.9990154504776001e-01" nType="-99"/>
          <Node pos="r" depth="2" NCoef="0" IVar="-1" Cut="0.0000000000000000e+00" cType="1" res="-5.5178836919367313e-04" rms="4.8139727115631104e-01" purity="4.7784703969955444e-01" nType="-99"/>
        </Node>
      </Node>
    </BinaryTree>
    <BinaryTree type="DecisionTree" boostWeight="1.0000000000000000e+00" itree="69">
      <Node pos="s" depth="0" NCoef="0" IVar="5" Cut="9.9209904670715332e-01" cType="1" res="-1.8102498725056648e-02" rms="4.7537884116172791e-01" purity="4.9320882558822632e-01" nType="0">
        <Node pos="l" depth="1" NCoef="0" IVar="3" Cut="9.5822349548339844e+01" cType="1" res="4.8442572355270386e-02" rms="4.7573491930961609e-01" purity="6.2175011634826660e-01" nType="0">
          <Node pos="l" depth="2" NCoef="0" IVar="-1" Cut="0.0000000000000000e+00" cType="1" res="4.3327367166057229e-04" rms="4.8500490188598633e-01" purity="5.8330166339874268e-01" nType="-99"/>
          <Node pos="r" depth="2" NCoef="0" IVar="-1" Cut="0.0000000000000000e+00" cType="1" res="5.5681709200143814e-03" rms="4.3536505103111267e-01" purity="7.2742289304733276e-01" nType="-99"/>
        </Node>
        <Node pos="r" depth="1" NCoef="0" IVar="7" Cut="6.3074690103530884e-01" cType="1" res="-8.0243468284606934e-02" rms="4.6655344963073730e-01" purity="3.7317469716072083e-01" nType="0">
          <Node pos="l" depth="2" NCoef="0" IVar="-1" Cut="0.0000000000000000e+00" cType="1" res="-3.1520384363830090e-03" rms="4.3841987848281860e-01" purity="2.8690451383590698e-01" nType="-99"/>
          <Node pos="r" depth="2" NCoef="0" IVar="-1" Cut="0.0000000000000000e+00" cType="1" res="-6.7160750040784478e-04" rms="4.8472031950950623e-01" purity="4.5284014940261841e-01" nType="-99"/>
        </Node>
      </Node>
    </BinaryTree>
    <BinaryTree type="DecisionTree" boostWeight="1.0000000000000000e+00" itree="70">
      <Node pos="s" depth="0" NCoef="0" IVar="5" Cut="1.0661617517471313e+00" cType="1" res="-7.6970080845057964e-03" rms="4.7434651851654053e-01" purity="5.0595450401306152e-01" nType="0">
        <Node pos="l" depth="1" NCoef="0" IVar="3" Cut="8.5992034912109375e+01" cType="1" res="5.4229203611612320e-02" rms="4.7315075993537903e-01" purity="6.2778341770172119e-01" nType="0">
          <Node pos="l" depth="2" NCoef="0" IVar="-1" Cut="0.0000000000000000e+00" cType="1" res="3.8243757444433868e-04" rms="4.8414853215217590e-01" purity="5.8047038316726685e-01" nType="-99"/>
          <Node pos="r" depth="2" NCoef="0" IVar="-1" Cut="0.0000000000000000e+00" cType="1" res="4.9969092942774296e-03" rms="4.4218266010284424e-01" purity="7.1438229084014893e-01" nType="-99"/>
        </Node>
        <Node pos="r" depth="1" NCoef="0" IVar="2" Cut="8.4571522474288940e-01" cType="1" res="-8.3133906126022339e-02" rms="4.6478223800659180e-01" purity="3.5754564404487610e-01" nType="0">
          <Node pos="l" depth="2" NCoef="0" IVar="-1" Cut="0.0000000000000000e+00" cType="1" res="-3.3166855573654175e-03" rms="4.3181651830673218e-01" purity="2.6148998737335205e-01" nType="-99"/>
          <Node pos="r" depth="2" NCoef="0" IVar="-1" Cut="0.0000000000000000e+00" cType="1" res="-6.1552540864795446e-04" rms="4.8546981811523438e-01" purity="4.4557297229766846e-01" nType="-99"/>
        </Node>
      </Node>
    </BinaryTree>
    <BinaryTree type="DecisionTree" boostWeight="1.0000000000000000e+00" itree="71">
      <Node pos="s" depth="0" NCoef="0" IVar="5" Cut="1.0163526535034180e+00" cType="1" res="-1.7475968226790428e-02" rms="4.7538319230079651e-01" purity="4.9762529134750366e-01" nType="0">
        <Node pos="l" depth="1" NCoef="0" IVar="7" Cut="5.7822453975677490e-01" cType="1" res="4.1617963463068008e-02" rms="4.7558355331420898e-01" purity="6.1667788028717041e-01" nType="0">
          <Node pos="l" depth="2" NCoef="0" IVar="-1" Cut="0.0000000000000000e+00" cType="1" res="-1.3535009929910302e-03" rms="4.9118480086326599e-01" purity="4.7773611545562744e-01" nType="-99"/>
          <Node pos="r" depth="2" NCoef="0" IVar="-1" Cut="0.0000000000000000e+00" cType="1" res="2.8731904458254576e-03" rms="4.6367540955543518e-01" purity="6.7389571666717529e-01" nType="-99"/>
        </Node>
        <Node pos="r" depth="1" NCoef="0" IVar="5" Cut="1.6443454027175903e+00" cType="1" res="-8.1321582198143005e-02" rms="4.6683421730995178e-01" purity="3.6899980902671814e-01" nType="0">
          <Node pos="l" depth="2" NCoef="0" IVar="-1" Cut="0.0000000000000000e+00" cType="1" res="-1.2768959859386086e-03" rms="4.8479446768760681e-01" purity="4.2530754208564758e-01" nType="-99"/>
          <Node pos="r" depth="2" NCoef="0" IVar="-1" Cut="0.0000000000000000e+00" cType="1" res="-3.9178514853119850e-03" rms="3.8456800580024719e-01" purity="1.8369552493095398e-01" nType="-99"/>
        </Node>
      </Node>
    </BinaryTree>
    <BinaryTree type="DecisionTree" boostWeight="1.0000000000000000e+00" itree="72">
      <Node pos="s" depth="0" NCoef="0" IVar="0" Cut="1.1630020141601562e+00" cType="1" res="-2.0741503685712814e-02" rms="4.7377118468284607e-01" purity="4.9156582355499268e-01" nType="0">
        <Node pos="l" depth="1" NCoef="0" IVar="8" Cut="5.1473814249038696e-01" cType="1" res="4.1134327650070190e-02" rms="4.7670367360115051e-01" purity="6.0025787353515625e-01" nType="0">
          <Node pos="l" depth="2" NCoef="0" IVar="-1" Cut="0.0000000000000000e+00" cType="1" res="-9.2065636999905109e-04" rms="4.8557484149932861e-01" purity="4.9083909392356873e-01" nType="-99"/>
          <Node pos="r" depth="2" NCoef="0" IVar="-1" Cut="0.0000000000000000e+00" cType="1" res="2.5013738777488470e-03" rms="4.6923869848251343e-01" purity="6.4722228050231934e-01" nType="-99"/>
        </Node>
        <Node pos="r" depth="1" NCoef="0" IVar="5" Cut="8.5885304212570190e-01" cType="1" res="-9.6286617219448090e-02" rms="4.5899307727813721e-01" purity="3.5886210203170776e-01" nType="0">
          <Node pos="l" depth="2" NCoef="0" IVar="-1" Cut="0.0000000000000000e+00" cType="1" res="1.4138757251203060e-03" rms="4.7986924648284912e-01" purity="6.0538446903228760e-01" nType="-99"/>
          <Node pos="r" depth="2" NCoef="0" IVar="-1" Cut="0.0000000000000000e+00" cType="1" res="-2.7801718097180128e-03" rms="4.5106479525566101e-01" purity="3.1717103719711304e-01" nType="-99"/>
        </Node>
      </Node>
    </BinaryTree>
    <BinaryTree type="DecisionTree" boostWeight="1.0000000000000000e+00" itree="73">
      <Node pos="s" depth="0" NCoef="0" IVar="5" Cut="1.3502519130706787e+00" cType="1" res="-1.4279629103839397e-02" rms="4.7338536381721497e-01" purity="4.9910345673561096e-01" nType="0">
        <Node pos="l" depth="1" NCoef="0" IVar="2" Cut="8.7095439434051514e-01" cType="1" res="2.4681234732270241e-02" rms="4.8107799887657166e-01" purity="5.8029383420944214e-01" nType="0">
          <Node pos="l" depth="2" NCoef="0" IVar="-1" Cut="0.0000000000000000e+00" cType="1" res="-6.8498961627483368e-04" rms="4.9219757318496704e-01" purity="4.9293318390846252e-01" nType="-99"/>
          <Node pos="r" depth="2" NCoef="0" IVar="-1" Cut="0.0000000000000000e+00" cType="1" res="2.8901451732963324e-03" rms="4.6222573518753052e-01" purity="6.7709922790527344e-01" nType="-99"/>
        </Node>
        <Node pos="r" depth="1" NCoef="0" IVar="7" Cut="6.7253822088241577e-01" cType="1" res="-1.3210661709308624e-01" rms="4.2826968431472778e-01" purity="2.5356417894363403e-01" nType="0">
          <Node pos="l" depth="2" NCoef="0" IVar="-1" Cut="0.0000000000000000e+00" cType="1" res="-3.7673423066735268e-03" rms="3.9232474565505981e-01" purity="1.9588616490364075e-01" nType="-99"/>
          <Node pos="r" depth="2" NCoef="0" IVar="-1" Cut="0.0000000000000000e+00" cType="1" res="-1.4912136830389500e-03" rms="4.7124168276786804e-01" purity="3.4456357359886169e-01" nType="-99"/>
        </Node>
      </Node>
    </BinaryTree>
    <BinaryTree type="DecisionTree" boostWeight="1.0000000000000000e+00" itree="74">
      <Node pos="s" depth="0" NCoef="0" IVar="0" Cut="1.2104637622833252e+00" cType="1" res="-1.2210707180202007e-02" rms="4.7363471984863281e-01" purity="5.0162285566329956e-01" nType="0">
        <Node pos="l" depth="1" NCoef="0" IVar="8" Cut="5.9940439462661743e-01" cType="1" res="4.5194674283266068e-02" rms="4.7567149996757507e-01" purity="6.0117340087890625e-01" nType="0">
          <Node pos="l" depth="2" NCoef="0" IVar="-1" Cut="0.0000000000000000e+00" cType="1" res="2.5726109743118286e-04" rms="4.8496931791305542e-01" purity="5.4775267839431763e-01" nType="-99"/>
          <Node pos="r" depth="2" NCoef="0" IVar="-1" Cut="0.0000000000000000e+00" cType="1" res="4.8657022416591644e-03" rms="4.4419714808464050e-01" purity="7.1840214729309082e-01" nType="-99"/>
        </Node>
        <Node pos="r" depth="1" NCoef="0" IVar="7" Cut="6.3058930635452271e-01" cType="1" res="-9.8447673022747040e-02" rms="4.5720672607421875e-01" purity="3.5207360982894897e-01" nType="0">
          <Node pos="l" depth="2" NCoef="0" IVar="-1" Cut="0.0000000000000000e+00" cType="1" res="-3.5362958442419767e-03" rms="4.2573806643486023e-01" purity="2.6076349616050720e-01" nType="-99"/>
          <Node pos="r" depth="2" NCoef="0" IVar="-1" Cut="0.0000000000000000e+00" cType="1" res="-1.0776869021356106e-03" rms="4.7746092081069946e-01" purity="4.3656507134437561e-01" nType="-99"/>
        </Node>
      </Node>
    </BinaryTree>
    <BinaryTree type="DecisionTree" boostWeight="1.0000000000000000e+00" itree="75">
      <Node pos="s" depth="0" NCoef="0" IVar="5" Cut="1.0649129152297974e+00" cType="1" res="-1.2420596554875374e-02" rms="4.7268411517143250e-01" purity="5.0008505582809448e-01" nType="0">
        <Node pos="l" depth="1" NCoef="0" IVar="3" Cut="8.9310241699218750e+01" cType="1" res="5.0637010484933853e-02" rms="4.7325056791305542e-01" purity="6.2631636857986450e-01" nType="0">
          <Node pos="l" depth="2" NCoef="0" IVar="-1" Cut="0.0000000000000000e+00" cType="1" res="5.2802282152697444e-04" rms="4.8343262076377869e-01" purity="5.8725076913833618e-01" nType="-99"/>
          <Node pos="r" depth="2" NCoef="0" IVar="-1" Cut="0.0000000000000000e+00" cType="1" res="4.6170563437044621e-03" rms="4.4261550903320312e-01" purity="7.0875626802444458e-01" nType="-99"/>
        </Node>
        <Node pos="r" depth="1" NCoef="0" IVar="7" Cut="6.8330067396163940e-01" cType="1" res="-8.6960196495056152e-02" rms="4.6102112531661987e-01" purity="3.5086867213249207e-01" nType="0">
          <Node pos="l" depth="2" NCoef="0" IVar="-1" Cut="0.0000000000000000e+00" cType="1" res="-2.9932560864835978e-03" rms="4.3934547901153564e-01" purity="2.8436622023582458e-01" nType="-99"/>
          <Node pos="r" depth="2" NCoef="0" IVar="-1" Cut="0.0000000000000000e+00" cType="1" res="-5.6478881742805243e-04" rms="4.8320078849792480e-01" purity="4.4697782397270203e-01" nType="-99"/>
        </Node>
      </Node>
    </BinaryTree>
    <BinaryTree type="DecisionTree" boostWeight="1.0000000000000000e+00" itree="76">
      <Node pos="s" depth="0" NCoef="0" IVar="5" Cut="9.4426757097244263e-01" cType="1" res="-1.5682568773627281e-02" rms="4.7430059313774109e-01" purity="4.9819904565811157e-01" nType="0">
        <Node pos="l" depth="1" NCoef="0" IVar="3" Cut="4.2111454010009766e+01" cType="1" res="5.5036213248968124e-02" rms="4.7205531597137451e-01" purity="6.3474577665328979e-01" nType="0">
          <Node pos="l" depth="2" NCoef="0" IVar="-1" Cut="0.0000000000000000e+00" cType="1" res="-1.7230346566066146e-03" rms="4.9262818694114685e-01" purity="5.0124680995941162e-01" nType="-99"/>
          <Node pos="r" depth="2" NCoef="0" IVar="-1" Cut="0.0000000000000000e+00" cType="1" res="2.7381309773772955e-03" rms="4.6431487798690796e-01" purity="6.6147738695144653e-01" nType="-99"/>
        </Node>
        <Node pos="r" depth="1" NCoef="0" IVar="3" Cut="5.9318031311035156e+01" cType="1" res="-7.4168272316455841e-02" rms="4.6814712882041931e-01" purity="3.8527247309684753e-01" nType="0">
          <Node pos="l" depth="2" NCoef="0" IVar="-1" Cut="0.0000000000000000e+00" cType="1" res="-3.6709168925881386e-03" rms="4.4314244389533997e-01" purity="3.0343884229660034e-01" nType="-99"/>
          <Node pos="r" depth="2" NCoef="0" IVar="-1" Cut="0.0000000000000000e+00" cType="1" res="-9.1385276755318046e-04" rms="4.7359976172447205e-01" purity="4.2146679759025574e-01" nType="-99"/>
        </Node>
      </Node>
    </BinaryTree>
    <BinaryTree type="DecisionTree" boostWeight="1.0000000000000000e+00" itree="77">
      <Node pos="s" depth="0" NCoef="0" IVar="0" Cut="1.3528492450714111e+00" cType="1" res="-1.7331002280116081e-02" rms="4.7354716062545776e-01" purity="4.9698117375373840e-01" nType="0">
        <Node pos="l" depth="1" NCoef="0" IVar="2" Cut="7.7263450622558594e-01" cType="1" res="2.0356237888336182e-02" rms="4.7879302501678467e-01" purity="5.6375068426132202e-01" nType="0">
          <Node pos="l" depth="2" NCoef="0" IVar="-1" Cut="0.0000000000000000e+00" cType="1" res="-2.5026474613696337e-03" rms="4.7046214342117310e-01" purity="3.5699272155761719e-01" nType="-99"/>
          <Node pos="r" depth="2" NCoef="0" IVar="-1" Cut="0.0000000000000000e+00" cType="1" res="1.3846212532371283e-03" rms="4.7672200202941895e-01" purity="6.0125494003295898e-01" nType="-99"/>
        </Node>
        <Node pos="r" depth="1" NCoef="0" IVar="5" Cut="1.7022601366043091e+00" cType="1" res="-1.2335392832756042e-01" rms="4.4153809547424316e-01" purity="3.0914291739463806e-01" nType="0">
          <Node pos="l" depth="2" NCoef="0" IVar="-1" Cut="0.0000000000000000e+00" cType="1" res="-2.0638143178075552e-03" rms="4.7171151638031006e-01" purity="3.8338103890419006e-01" nType="-99"/>
          <Node pos="r" depth="2" NCoef="0" IVar="-1" Cut="0.0000000000000000e+00" cType="1" res="-4.3442682363092899e-03" rms="3.5270127654075623e-01" purity="1.4743746817111969e-01" nType="-99"/>
        </Node>
      </Node>
    </BinaryTree>
    <BinaryTree type="DecisionTree" boostWeight="1.0000000000000000e+00" itree="78">
      <Node pos="s" depth="0" NCoef="0" IVar="5" Cut="1.4089249372482300e+00" cType="1" res="-4.0899445302784443e-03" rms="4.7285616397857666e-01" purity="5.0820273160934448e-01" nType="0">
        <Node pos="l" depth="1" NCoef="0" IVar="7" Cut="7.3586660623550415e-01" cType="1" res="2.9121840372681618e-02" rms="4.7912913560867310e-01" purity="5.8005356788635254e-01" nType="0">
          <Node pos="l" depth="2" NCoef="0" IVar="-1" Cut="0.0000000000000000e+00" cType="1" res="-3.4649012377485633e-04" rms="4.8838132619857788e-01" purity="5.1576519012451172e-01" nType="-99"/>
          <Node pos="r" depth="2" NCoef="0" IVar="-1" Cut="0.0000000000000000e+00" cType="1" res="3.9551793597638607e-03" rms="4.5180031657218933e-01" purity="6.9842743873596191e-01" nType="-99"/>
        </Node>
        <Node pos="r" depth="1" NCoef="0" IVar="2" Cut="8.0809974670410156e-01" cType="1" res="-1.2110403925180435e-01" rms="4.3008619546890259e-01" purity="2.5505298376083374e-01" nType="0">
          <Node pos="l" depth="2" NCoef="0" IVar="-1" Cut="0.0000000000000000e+00" cType="1" res="-4.1195424273610115e-03" rms="3.6395013332366943e-01" purity="1.5840889513492584e-01" nType="-99"/>
          <Node pos="r" depth="2" NCoef="0" IVar="-1" Cut="0.0000000000000000e+00" cType="1" res="-1.9152717432007194e-03" rms="4.5618134737014771e-01" purity="3.0559921264648438e-01" nType="-99"/>
        </Node>
      </Node>
    </BinaryTree>
    <BinaryTree type="DecisionTree" boostWeight="1.0000000000000000e+00" itree="79">
      <Node pos="s" depth="0" NCoef="0" IVar="0" Cut="1.1483646631240845e+00" cType="1" res="-1.2134955264627934e-02" rms="4.7262957692146301e-01" purity="5.0282067060470581e-01" nType="0">
        <Node pos="l" depth="1" NCoef="0" IVar="2" Cut="8.1161236763000488e-01" cType="1" res="4.9036554992198944e-02" rms="4.7365775704383850e-01" purity="6.1440426111221313e-01" nType="0">
          <Node pos="l" depth="2" NCoef="0" IVar="-1" Cut="0.0000000000000000e+00" cType="1" res="-8.3142565563321114e-04" rms="4.9243512749671936e-01" purity="4.6108967065811157e-01" nType="-99"/>
          <Node pos="r" depth="2" NCoef="0" IVar="-1" Cut="0.0000000000000000e+00" cType="1" res="2.7330706361681223e-03" rms="4.6376395225524902e-01" purity="6.6746705770492554e-01" nType="-99"/>
        </Node>
        <Node pos="r" depth="1" NCoef="0" IVar="5" Cut="1.4951612949371338e+00" cType="1" res="-8.4612660109996796e-02" rms="4.6101993322372437e-01" purity="3.7061339616775513e-01" nType="0">
          <Node pos="l" depth="2" NCoef="0" IVar="-1" Cut="0.0000000000000000e+00" cType="1" res="-1.1998660629615188e-03" rms="4.8476997017860413e-01" purity="4.5874941349029541e-01" nType="-99"/>
          <Node pos="r" depth="2" NCoef="0" IVar="-1" Cut="0.0000000000000000e+00" cType="1" res="-3.4071158152073622e-03" rms="4.0585881471633911e-01" purity="2.1328565478324890e-01" nType="-99"/>
        </Node>
      </Node>
    </BinaryTree>
    <BinaryTree type="DecisionTree" boostWeight="1.0000000000000000e+00" itree="80">
      <Node pos="s" depth="0" NCoef="0" IVar="1" Cut="1.1982215642929077e+00" cType="1" res="-1.6231408342719078e-02" rms="4.7330322861671448e-01" purity="4.9866428971290588e-01" nType="0">
        <Node pos="l" depth="1" NCoef="0" IVar="2" Cut="8.2244884967803955e-01" cType="1" res="3.3456947654485703e-02" rms="4.7227439284324646e-01" purity="5.7309621572494507e-01" nType="0">
          <Node pos="l" depth="2" NCoef="0" IVar="-1" Cut="0.0000000000000000e+00" cType="1" res="-1.1272652773186564e-03" rms="4.8095574975013733e-01" purity="4.2864835262298584e-01" nType="-99"/>
          <Node pos="r" depth="2" NCoef="0" IVar="-1" Cut="0.0000000000000000e+00" cType="1" res="2.4144663475453854e-03" rms="4.6356892585754395e-01" purity="6.4214134216308594e-01" nType="-99"/>
        </Node>
        <Node pos="r" depth="1" NCoef="0" IVar="3" Cut="5.6525718688964844e+01" cType="1" res="-9.1651588678359985e-02" rms="4.6481919288635254e-01" purity="3.8568678498268127e-01" nType="0">
          <Node pos="l" depth="2" NCoef="0" IVar="-1" Cut="0.0000000000000000e+00" cType="1" res="-3.7268630694597960e-03" rms="4.4298043847084045e-01" purity="3.2411435246467590e-01" nType="-99"/>
          <Node pos="r" depth="2" NCoef="0" IVar="-1" Cut="0.0000000000000000e+00" cType="1" res="-1.5789835015311837e-03" rms="4.7087848186492920e-01" purity="4.1273298859596252e-01" nType="-99"/>
        </Node>
      </Node>
    </BinaryTree>
    <BinaryTree type="DecisionTree" boostWeight="1.0000000000000000e+00" itree="81">
      <Node pos="s" depth="0" NCoef="0" IVar="5" Cut="9.5158028602600098e-01" cType="1" res="-8.7267803028225899e-03" rms="4.7081625461578369e-01" purity="5.0366705656051636e-01" nType="0">
        <Node pos="l" depth="1" NCoef="0" IVar="3" Cut="9.2138038635253906e+01" cType="1" res="6.7476965487003326e-02" rms="4.6785137057304382e-01" purity="6.5138590335845947e-01" nType="0">
          <Node pos="l" depth="2" NCoef="0" IVar="-1" Cut="0.0000000000000000e+00" cType="1" res="1.1330390116199851e-03" rms="4.8026147484779358e-01" purity="6.1206400394439697e-01" nType="-99"/>
          <Node pos="r" depth="2" NCoef="0" IVar="-1" Cut="0.0000000000000000e+00" cType="1" res="6.0071018524467945e-03" rms="4.2632776498794556e-01" purity="7.4618268013000488e-01" nType="-99"/>
        </Node>
        <Node pos="r" depth="1" NCoef="0" IVar="2" Cut="8.4317618608474731e-01" cType="1" res="-7.2008445858955383e-02" rms="4.6384498476982117e-01" purity="3.8099724054336548e-01" nType="0">
          <Node pos="l" depth="2" NCoef="0" IVar="-1" Cut="0.0000000000000000e+00" cType="1" res="-3.0621883925050497e-03" rms="4.3658012151718140e-01" purity="2.7696862816810608e-01" nType="-99"/>
          <Node pos="r" depth="2" NCoef="0" IVar="-1" Cut="0.0000000000000000e+00" cType="1" res="-5.3929904242977500e-04" rms="4.7891467809677124e-01" purity="4.6650671958923340e-01" nType="-99"/>
        </Node>
      </Node>
    </BinaryTree>
    <BinaryTree type="DecisionTree" boostWeight="1.0000000000000000e+00" itree="82">
      <Node pos="s" depth="0" NCoef="0" IVar="5" Cut="1.0219575166702271e+00" cType="1" res="-1.3904673978686333e-02" rms="4.7266986966133118e-01" purity="5.0012987852096558e-01" nType="0">
        <Node pos="l" depth="1" NCoef="0" IVar="3" Cut="9.5732910156250000e+01" cType="1" res="4.4532541185617447e-02" rms="4.7336268424987793e-01" purity="6.2526470422744751e-01" nType="0">
          <Node pos="l" depth="2" NCoef="0" IVar="-1" Cut="0.0000000000000000e+00" cType="1" res="2.4349130399059504e-04" rms="4.8329135775566101e-01" purity="5.8227986097335815e-01" nType="-99"/>
          <Node pos="r" depth="2" NCoef="0" IVar="-1" Cut="0.0000000000000000e+00" cType="1" res="5.9881284832954407e-03" rms="4.2834296822547913e-01" purity="7.4483937025070190e-01" nType="-99"/>
        </Node>
        <Node pos="r" depth="1" NCoef="0" IVar="0" Cut="1.4366695880889893e+00" cType="1" res="-7.6798893511295319e-02" rms="4.6376752853393555e-01" purity="3.6545094847679138e-01" nType="0">
          <Node pos="l" depth="2" NCoef="0" IVar="-1" Cut="0.0000000000000000e+00" cType="1" res="-1.0232754284515977e-03" rms="4.8174306750297546e-01" purity="4.2789757251739502e-01" nType="-99"/>
          <Node pos="r" depth="2" NCoef="0" IVar="-1" Cut="0.0000000000000000e+00" cType="1" res="-3.3286004327237606e-03" rms="4.1665449738502502e-01" purity="2.4251213669776917e-01" nType="-99"/>
        </Node>
      </Node>
    </BinaryTree>
    <BinaryTree type="DecisionTree" boostWeight="1.0000000000000000e+00" itree="83">
      <Node pos="s" depth="0" NCoef="0" IVar="0" Cut="1.3616791963577271e+00" cType="1" res="-1.4004943892359734e-02" rms="4.7192957997322083e-01" purity="4.9800640344619751e-01" nType="0">
        <Node pos="l" depth="1" NCoef="0" IVar="2" Cut="7.4512720108032227e-01" cType="1" res="2.1795628592371941e-02" rms="4.7693815827369690e-01" purity="5.6439757347106934e-01" nType="0">
          <Node pos="l" depth="2" NCoef="0" IVar="-1" Cut="0.0000000000000000e+00" cType="1" res="-3.1692490447312593e-03" rms="4.5749220252037048e-01" purity="3.1699320673942566e-01" nType="-99"/>
          <Node pos="r" depth="2" NCoef="0" IVar="-1" Cut="0.0000000000000000e+00" cType="1" res="1.2030289508402348e-03" rms="4.7586938738822937e-01" purity="5.8950960636138916e-01" nType="-99"/>
        </Node>
        <Node pos="r" depth="1" NCoef="0" IVar="7" Cut="7.0410043001174927e-01" cType="1" res="-1.1401356011629105e-01" rms="4.4256013631820679e-01" purity="3.1254333257675171e-01" nType="0">
          <Node pos="l" depth="2" NCoef="0" IVar="-1" Cut="0.0000000000000000e+00" cType="1" res="-3.4678210504353046e-03" rms="4.1933825612068176e-01" purity="2.5171244144439697e-01" nType="-99"/>
          <Node pos="r" depth="2" NCoef="0" IVar="-1" Cut="0.0000000000000000e+00" cType="1" res="-9.6369191305711865e-04" rms="4.7312557697296143e-01" purity="4.2539799213409424e-01" nType="-99"/>
        </Node>
      </Node>
    </BinaryTree>
    <BinaryTree type="DecisionTree" boostWeight="1.0000000000000000e+00" itree="84">
      <Node pos="s" depth="0" NCoef="0" IVar="5" Cut="1.3182309865951538e+00" cType="1" res="-6.2656644731760025e-03" rms="4.7149321436882019e-01" purity="5.0827509164810181e-01" nType="0">
        <Node pos="l" depth="1" NCoef="0" IVar="1" Cut="1.0668771266937256e+00" cType="1" res="3.1247740611433983e-02" rms="4.7774067521095276e-01" purity="5.9392154216766357e-01" nType="0">
          <Node pos="l" depth="2" NCoef="0" IVar="-1" Cut="0.0000000000000000e+00" cType="1" res="2.3495820350944996e-03" rms="4.6744632720947266e-01" purity="6.4149087667465210e-01" nType="-99"/>
          <Node pos="r" depth="2" NCoef="0" IVar="-1" Cut="0.0000000000000000e+00" cType="1" res="-8.7879959028214216e-04" rms="4.8795205354690552e-01" purity="5.1560658216476440e-01" nType="-99"/>
        </Node>
        <Node pos="r" depth="1" NCoef="0" IVar="1" Cut="1.9391971826553345e+00" cType="1" res="-1.0852767527103424e-01" rms="4.3800228834152222e-01" purity="2.7480179071426392e-01" nType="0">
          <Node pos="l" depth="2" NCoef="0" IVar="-1" Cut="0.0000000000000000e+00" cType="1" res="-1.5891625080257654e-03" rms="4.5700836181640625e-01" purity="3.2110232114791870e-01" nType="-99"/>
          <Node pos="r" depth="2" NCoef="0" IVar="-1" Cut="0.0000000000000000e+00" cType="1" res="-3.8996101357042789e-03" rms="3.8936948776245117e-01" purity="1.8972486257553101e-01" nType="-99"/>
        </Node>
      </Node>
    </BinaryTree>
    <BinaryTree type="DecisionTree" boostWeight="1.0000000000000000e+00" itree="85">
      <Node pos="s" depth="0" NCoef="0" IVar="5" Cut="9.9954509735107422e-01" cType="1" res="-9.2915426939725876e-03" rms="4.7062268853187561e-01" purity="5.0393950939178467e-01" nType="0">
        <Node pos="l" depth="1" NCoef="0" IVar="4" Cut="7.8280975341796875e+01" cType="1" res="6.0997750610113144e-02" rms="4.6761670708656311e-01" purity="6.4547657966613770e-01" nType="0">
          <Node pos="l" depth="2" NCoef="0" IVar="-1" Cut="0.0000000000000000e+00" cType="1" res="-1.2049691285938025e-03" rms="4.9147439002990723e-01" purity="5.3533357381820679e-01" nType="-99"/>
          <Node pos="r" depth="2" NCoef="0" IVar="-1" Cut="0.0000000000000000e+00" cType="1" res="2.7877711690962315e-03" rms="4.6114492416381836e-01" purity="6.6437822580337524e-01" nType="-99"/>
        </Node>
        <Node pos="r" depth="1" NCoef="0" IVar="3" Cut="4.3989265441894531e+01" cType="1" res="-7.6883085072040558e-02" rms="4.6354961395263672e-01" purity="3.6783480644226074e-01" nType="0">
          <Node pos="l" depth="2" NCoef="0" IVar="-1" Cut="0.0000000000000000e+00" cType="1" res="-4.5876558870077133e-03" rms="4.0981718897819519e-01" purity="2.3397013545036316e-01" nType="-99"/>
          <Node pos="r" depth="2" NCoef="0" IVar="-1" Cut="0.0000000000000000e+00" cType="1" res="-1.3410917017608881e-03" rms="4.6818536520004272e-01" purity="3.9100021123886108e-01" nType="-99"/>
        </Node>
      </Node>
    </BinaryTree>
    <BinaryTree type="DecisionTree" boostWeight="1.0000000000000000e+00" itree="86">
      <Node pos="s" depth="0" NCoef="0" IVar="0" Cut="1.2579256296157837e+00" cType="1" res="-1.6946332529187202e-02" rms="4.7305393218994141e-01" purity="4.9700835347175598e-01" nType="0">
        <Node pos="l" depth="1" NCoef="0" IVar="2" Cut="7.7290713787078857e-01" cType="1" res="2.5466218590736389e-02" rms="4.7818994522094727e-01" purity="5.8252280950546265e-01" nType="0">
          <Node pos="l" depth="2" NCoef="0" IVar="-1" Cut="0.0000000000000000e+00" cType="1" res="-1.9222105620428920e-03" rms="4.8246130347251892e-01" purity="3.9278104901313782e-01" nType="-99"/>
          <Node pos="r" depth="2" NCoef="0" IVar="-1" Cut="0.0000000000000000e+00" cType="1" res="1.4173106756061316e-03" rms="4.7520875930786133e-01" purity="6.1500501632690430e-01" nType="-99"/>
        </Node>
        <Node pos="r" depth="1" NCoef="0" IVar="3" Cut="8.9555709838867188e+01" cType="1" res="-9.3481704592704773e-02" rms="4.5371794700622559e-01" purity="3.4269356727600098e-01" nType="0">
          <Node pos="l" depth="2" NCoef="0" IVar="-1" Cut="0.0000000000000000e+00" cType="1" res="-3.0972466338425875e-03" rms="4.3797609210014343e-01" purity="3.0253770947456360e-01" nType="-99"/>
          <Node pos="r" depth="2" NCoef="0" IVar="-1" Cut="0.0000000000000000e+00" cType="1" res="-8.7375100702047348e-04" rms="4.6920219063758850e-01" purity="4.0072232484817505e-01" nType="-99"/>
        </Node>
      </Node>
    </BinaryTree>
    <BinaryTree type="DecisionTree" boostWeight="1.0000000000000000e+00" itree="87">
      <Node pos="s" depth="0" NCoef="0" IVar="1" Cut="1.4639201164245605e+00" cType="1" res="-1.7379187047481537e-02" rms="4.7324928641319275e-01" purity="4.9747505784034729e-01" nType="0">
        <Node pos="l" depth="1" NCoef="0" IVar="3" Cut="8.7495605468750000e+01" cType="1" res="2.1317563951015472e-02" rms="4.7639814019203186e-01" purity="5.5949062108993530e-01" nType="0">
          <Node pos="l" depth="2" NCoef="0" IVar="-1" Cut="0.0000000000000000e+00" cType="1" res="-5.0765421474352479e-04" rms="4.8252937197685242e-01" purity="5.2201837301254272e-01" nType="-99"/>
          <Node pos="r" depth="2" NCoef="0" IVar="-1" Cut="0.0000000000000000e+00" cType="1" res="2.7516582049429417e-03" rms="4.5997685194015503e-01" purity="6.1850470304489136e-01" nType="-99"/>
        </Node>
        <Node pos="r" depth="1" NCoef="0" IVar="8" Cut="6.0109895467758179e-01" cType="1" res="-1.1048959940671921e-01" rms="4.5221361517906189e-01" purity="3.4825590252876282e-01" nType="0">
          <Node pos="l" depth="2" NCoef="0" IVar="-1" Cut="0.0000000000000000e+00" cType="1" res="-3.2091611064970493e-03" rms="4.4102904200553894e-01" purity="3.0757218599319458e-01" nType="-99"/>
          <Node pos="r" depth="2" NCoef="0" IVar="-1" Cut="0.0000000000000000e+00" cType="1" res="-8.0240052193403244e-04" rms="4.7310402989387512e-01" purity="4.6316295862197876e-01" nType="-99"/>
        </Node>
      </Node>
    </BinaryTree>
    <BinaryTree type="DecisionTree" boostWeight="1.0000000000000000e+00" itree="88">
      <Node pos="s" depth="0" NCoef="0" IVar="5" Cut="1.3936425447463989e+00" cType="1" res="-1.7137186601758003e-02" rms="4.7121998667716980e-01" purity="4.9615058302879333e-01" nType="0">
        <Node pos="l" depth="1" NCoef="0" IVar="1" Cut="1.0659743547439575e+00" cType="1" res="1.5149649232625961e-02" rms="4.7983941435813904e-01" purity="5.7030248641967773e-01" nType="0">
          <Node pos="l" depth="2" NCoef="0" IVar="-1" Cut="0.0000000000000000e+00" cType="1" res="1.9115433096885681e-03" rms="4.7061374783515930e-01" purity="6.2601286172866821e-01" nType="-99"/>
          <Node pos="r" depth="2" NCoef="0" IVar="-1" Cut="0.0000000000000000e+00" cType="1" res="-1.3429776299744844e-03" rms="4.8651665449142456e-01" purity="4.8571276664733887e-01" nType="-99"/>
        </Node>
        <Node pos="r" depth="1" NCoef="0" IVar="5" Cut="1.7328801155090332e+00" cType="1" res="-1.2770786881446838e-01" rms="4.2211213707923889e-01" purity="2.4220721423625946e-01" nType="0">
          <Node pos="l" depth="2" NCoef="0" IVar="-1" Cut="0.0000000000000000e+00" cType="1" res="-1.9841103348881006e-03" rms="4.5346978306770325e-01" purity="2.9868754744529724e-01" nType="-99"/>
          <Node pos="r" depth="2" NCoef="0" IVar="-1" Cut="0.0000000000000000e+00" cType="1" res="-4.1115656495094299e-03" rms="3.5476312041282654e-01" purity="1.4961211383342743e-01" nType="-99"/>
        </Node>
      </Node>
    </BinaryTree>
    <BinaryTree type="DecisionTree" boostWeight="1.0000000000000000e+00" itree="89">
      <Node pos="s" depth="0" NCoef="0" IVar="1" Cut="1.5740420818328857e+00" cType="1" res="-1.7962649464607239e-02" rms="4.7161024808883667e-01" purity="4.9407693743705750e-01" nType="0">
        <Node pos="l" depth="1" NCoef="0" IVar="2" Cut="8.3328562974929810e-01" cType="1" res="1.4463093131780624e-02" rms="4.7403088212013245e-01" purity="5.4777038097381592e-01" nType="0">
          <Node pos="l" depth="2" NCoef="0" IVar="-1" Cut="0.0000000000000000e+00" cType="1" res="-1.3515568571165204e-03" rms="4.7891536355018616e-01" purity="4.1754785180091858e-01" nType="-99"/>
          <Node pos="r" depth="2" NCoef="0" IVar="-1" Cut="0.0000000000000000e+00" cType="1" res="1.8063635798171163e-03" rms="4.6668255329132080e-01" purity="6.2373399734497070e-01" nType="-99"/>
        </Node>
        <Node pos="r" depth="1" NCoef="0" IVar="8" Cut="6.0552746057510376e-01" cType="1" res="-1.0999591648578644e-01" rms="4.5217791199684143e-01" purity="3.4168004989624023e-01" nType="0">
          <Node pos="l" depth="2" NCoef="0" IVar="-1" Cut="0.0000000000000000e+00" cType="1" res="-3.1798963900655508e-03" rms="4.4246095418930054e-01" purity="3.0405613780021667e-01" nType="-99"/>
          <Node pos="r" depth="2" NCoef="0" IVar="-1" Cut="0.0000000000000000e+00" cType="1" res="-6.6863407846540213e-04" rms="4.7141337394714355e-01" purity="4.6024996042251587e-01" nType="-99"/>
        </Node>
      </Node>
    </BinaryTree>
    <BinaryTree type="DecisionTree" boostWeight="1.0000000000000000e+00" itree="90">
      <Node pos="s" depth="0" NCoef="0" IVar="5" Cut="1.3623654842376709e+00" cType="1" res="-1.5552071854472160e-02" rms="4.7092241048812866e-01" purity="4.9777689576148987e-01" nType="0">
        <Node pos="l" depth="1" NCoef="0" IVar="2" Cut="8.0685997009277344e-01" cType="1" res="1.6099255532026291e-02" rms="4.7926381230354309e-01" purity="5.7427895069122314e-01" nType="0">
          <Node pos="l" depth="2" NCoef="0" IVar="-1" Cut="0.0000000000000000e+00" cType="1" res="-1.7378948396071792e-03" rms="4.8583278059959412e-01" purity="4.1426217555999756e-01" nType="-99"/>
          <Node pos="r" depth="2" NCoef="0" IVar="-1" Cut="0.0000000000000000e+00" cType="1" res="1.5483755851164460e-03" rms="4.7329249978065491e-01" purity="6.3053137063980103e-01" nType="-99"/>
        </Node>
        <Node pos="r" depth="1" NCoef="0" IVar="2" Cut="8.2605189085006714e-01" cType="1" res="-1.1611316353082657e-01" rms="4.2812472581863403e-01" purity="2.5471815466880798e-01" nType="0">
          <Node pos="l" depth="2" NCoef="0" IVar="-1" Cut="0.0000000000000000e+00" cType="1" res="-3.8393493741750717e-03" rms="3.6979645490646362e-01" purity="1.6791222989559174e-01" nType="-99"/>
          <Node pos="r" depth="2" NCoef="0" IVar="-1" Cut="0.0000000000000000e+00" cType="1" res="-1.6809612279757857e-03" rms="4.6064949035644531e-01" purity="3.1735765933990479e-01" nType="-99"/>
        </Node>
      </Node>
    </BinaryTree>
    <BinaryTree type="DecisionTree" boostWeight="1.0000000000000000e+00" itree="91">
      <Node pos="s" depth="0" NCoef="0" IVar="5" Cut="9.9998217821121216e-01" cType="1" res="-9.6368342638015747e-03" rms="4.7103878855705261e-01" purity="5.0479829311370850e-01" nType="0">
        <Node pos="l" depth="1" NCoef="0" IVar="7" Cut="7.1457803249359131e-01" cType="1" res="4.6093866229057312e-02" rms="4.7062852978706360e-01" purity="6.3158029317855835e-01" nType="0">
          <Node pos="l" depth="2" NCoef="0" IVar="-1" Cut="0.0000000000000000e+00" cType="1" res="1.9153086759615690e-04" rms="4.8692566156387329e-01" purity="5.6204521656036377e-01" nType="-99"/>
          <Node pos="r" depth="2" NCoef="0" IVar="-1" Cut="0.0000000000000000e+00" cType="1" res="4.3494361452758312e-03" rms="4.3883720040321350e-01" purity="7.3457950353622437e-01" nType="-99"/>
        </Node>
        <Node pos="r" depth="1" NCoef="0" IVar="1" Cut="2.1335241794586182e+00" cType="1" res="-6.6322989761829376e-02" rms="4.6464824676513672e-01" purity="3.7584277987480164e-01" nType="0">
          <Node pos="l" depth="2" NCoef="0" IVar="-1" Cut="0.0000000000000000e+00" cType="1" res="-9.8367419559508562e-04" rms="4.7647395730018616e-01" purity="4.1797202825546265e-01" nType="-99"/>
          <Node pos="r" depth="2" NCoef="0" IVar="-1" Cut="0.0000000000000000e+00" cType="1" res="-3.6240837071090937e-03" rms="4.0543514490127563e-01" purity="2.2914217412471771e-01" nType="-99"/>
        </Node>
      </Node>
    </BinaryTree>
    <BinaryTree type="DecisionTree" boostWeight="1.0000000000000000e+00" itree="92">
      <Node pos="s" depth="0" NCoef="0" IVar="5" Cut="1.3596147298812866e+00" cType="1" res="-1.4273861423134804e-02" rms="4.7178566455841064e-01" purity="4.9820479750633240e-01" nType="0">
        <Node pos="l" depth="1" NCoef="0" IVar="3" Cut="8.3095695495605469e+01" cType="1" res="1.6650322824716568e-02" rms="4.8003208637237549e-01" purity="5.7636868953704834e-01" nType="0">
          <Node pos="l" depth="2" NCoef="0" IVar="-1" Cut="0.0000000000000000e+00" cType="1" res="-7.8933429904282093e-04" rms="4.8654198646545410e-01" purity="5.2726417779922485e-01" nType="-99"/>
          <Node pos="r" depth="2" NCoef="0" IVar="-1" Cut="0.0000000000000000e+00" cType="1" res="2.8983168303966522e-03" rms="4.6194827556610107e-01" purity="6.5131455659866333e-01" nType="-99"/>
        </Node>
        <Node pos="r" depth="1" NCoef="0" IVar="7" Cut="6.0951822996139526e-01" cType="1" res="-1.0765940696001053e-01" rms="4.3274721503257751e-01" purity="2.6216369867324829e-01" nType="0">
          <Node pos="l" depth="2" NCoef="0" IVar="-1" Cut="0.0000000000000000e+00" cType="1" res="-3.5850221756845713e-03" rms="3.8495981693267822e-01" purity="1.8479280173778534e-01" nType="-99"/>
          <Node pos="r" depth="2" NCoef="0" IVar="-1" Cut="0.0000000000000000e+00" cType="1" res="-1.4523600693792105e-03" rms="4.6292787790298462e-01" purity="3.2532522082328796e-01" nType="-99"/>
        </Node>
      </Node>
    </BinaryTree>
    <BinaryTree type="DecisionTree" boostWeight="1.0000000000000000e+00" itree="93">
      <Node pos="s" depth="0" NCoef="0" IVar="0" Cut="1.0080703496932983e+00" cType="1" res="-7.5923311524093151e-03" rms="4.6983364224433899e-01" purity="5.0647383928298950e-01" nType="0">
        <Node pos="l" depth="1" NCoef="0" IVar="2" Cut="8.0045890808105469e-01" cType="1" res="6.7015804350376129e-02" rms="4.6361821889877319e-01" purity="6.5183967351913452e-01" nType="0">
          <Node pos="l" depth="2" NCoef="0" IVar="-1" Cut="0.0000000000000000e+00" cType="1" res="-3.2659136923030019e-04" rms="4.9377870559692383e-01" purity="4.8898684978485107e-01" nType="-99"/>
          <Node pos="r" depth="2" NCoef="0" IVar="-1" Cut="0.0000000000000000e+00" cType="1" res="3.3578260336071253e-03" rms="4.5249915122985840e-01" purity="6.9684135913848877e-01" nType="-99"/>
        </Node>
        <Node pos="r" depth="1" NCoef="0" IVar="5" Cut="1.5841600894927979e+00" cType="1" res="-5.7018298655748367e-02" rms="4.6739348769187927e-01" purity="4.1017270088195801e-01" nType="0">
          <Node pos="l" depth="2" NCoef="0" IVar="-1" Cut="0.0000000000000000e+00" cType="1" res="-8.0257194349542260e-04" rms="4.8303106427192688e-01" purity="4.7180807590484619e-01" nType="-99"/>
          <Node pos="r" depth="2" NCoef="0" IVar="-1" Cut="0.0000000000000000e+00" cType="1" res="-3.2880676444619894e-03" rms="3.9582395553588867e-01" purity="1.9996504485607147e-01" nType="-99"/>
        </Node>
      </Node>
    </BinaryTree>
    <BinaryTree type="DecisionTree" boostWeight="1.0000000000000000e+00" itree="94">
      <Node pos="s" depth="0" NCoef="0" IVar="5" Cut="9.6134567260742188e-01" cType="1" res="-1.7883433029055595e-02" rms="4.7119784355163574e-01" purity="4.9634593725204468e-01" nType="0">
        <Node pos="l" depth="1" NCoef="0" IVar="3" Cut="5.0618831634521484e+01" cType="1" res="3.8124695420265198e-02" rms="4.7210142016410828e-01" purity="6.2736183404922485e-01" nType="0">
          <Node pos="l" depth="2" NCoef="0" IVar="-1" Cut="0.0000000000000000e+00" cType="1" res="-1.3010987313464284e-03" rms="4.9105593562126160e-01" purity="5.2892524003982544e-01" nType="-99"/>
          <Node pos="r" depth="2" NCoef="0" IVar="-1" Cut="0.0000000000000000e+00" cType="1" res="2.4620550684630871e-03" rms="4.6100023388862610e-01" purity="6.6434544324874878e-01" nType="-99"/>
        </Node>
        <Node pos="r" depth="1" NCoef="0" IVar="5" Cut="1.6853291988372803e+00" cType="1" res="-6.7328795790672302e-02" rms="4.6482336521148682e-01" purity="3.8068187236785889e-01" nType="0">
          <Node pos="l" depth="2" NCoef="0" IVar="-1" Cut="0.0000000000000000e+00" cType="1" res="-1.1667176149785519e-03" rms="4.8005238175392151e-01" purity="4.2829743027687073e-01" nType="-99"/>
          <Node pos="r" depth="2" NCoef="0" IVar="-1" Cut="0.0000000000000000e+00" cType="1" res="-3.5815273877233267e-03" rms="3.7735748291015625e-01" purity="1.7509303987026215e-01" nType="-99"/>
        </Node>
      </Node>
    </BinaryTree>
    <BinaryTree type="DecisionTree" boostWeight="1.0000000000000000e+00" itree="95">
      <Node pos="s" depth="0" NCoef="0" IVar="5" Cut="1.1722877025604248e+00" cType="1" res="-1.6186231747269630e-02" rms="4.7065663337707520e-01" purity="4.9780979752540588e-01" nType="0">
        <Node pos="l" depth="1" NCoef="0" IVar="3" Cut="9.1038803100585938e+01" cType="1" res="2.5886394083499908e-02" rms="4.7709730267524719e-01" purity="6.0469758510589600e-01" nType="0">
          <Node pos="l" depth="2" NCoef="0" IVar="-1" Cut="0.0000000000000000e+00" cType="1" res="-2.1635473240166903e-04" rms="4.8548662662506104e-01" purity="5.6405436992645264e-01" nType="-99"/>
          <Node pos="r" depth="2" NCoef="0" IVar="-1" Cut="0.0000000000000000e+00" cType="1" res="3.5483576357364655e-03" rms="4.5141148567199707e-01" purity="6.8950521945953369e-01" nType="-99"/>
        </Node>
        <Node pos="r" depth="1" NCoef="0" IVar="7" Cut="6.5095239877700806e-01" cType="1" res="-8.7977670133113861e-02" rms="4.5047444105148315e-01" purity="3.1541967391967773e-01" nType="0">
          <Node pos="l" depth="2" NCoef="0" IVar="-1" Cut="0.0000000000000000e+00" cType="1" res="-3.0571520328521729e-03" rms="4.2012187838554382e-01" purity="2.4355053901672363e-01" nType="-99"/>
          <Node pos="r" depth="2" NCoef="0" IVar="-1" Cut="0.0000000000000000e+00" cType="1" res="-8.1479514483362436e-04" rms="4.7713109850883484e-01" purity="3.9837160706520081e-01" nType="-99"/>
        </Node>
      </Node>
    </BinaryTree>
    <BinaryTree type="DecisionTree" boostWeight="1.0000000000000000e+00" itree="96">
      <Node pos="s" depth="0" NCoef="0" IVar="0" Cut="1.4998279809951782e+00" cType="1" res="-1.4700715430080891e-02" rms="4.7189477086067200e-01" purity="4.9887403845787048e-01" nType="0">
        <Node pos="l" depth="1" NCoef="0" IVar="2" Cut="7.8246021270751953e-01" cType="1" res="7.2576734237372875e-03" rms="4.7729846835136414e-01" purity="5.4242104291915894e-01" nType="0">
          <Node pos="l" depth="2" NCoef="0" IVar="-1" Cut="0.0000000000000000e+00" cType="1" res="-2.1007428877055645e-03" rms="4.7136798501014709e-01" purity="3.6346930265426636e-01" nType="-99"/>
          <Node pos="r" depth="2" NCoef="0" IVar="-1" Cut="0.0000000000000000e+00" cType="1" res="8.9350983034819365e-04" rms="4.7608959674835205e-01" purity="5.8286607265472412e-01" nType="-99"/>
        </Node>
        <Node pos="r" depth="1" NCoef="0" IVar="3" Cut="8.2849594116210938e+01" cType="1" res="-1.2943090498447418e-01" rms="4.2450326681137085e-01" purity="2.7134579420089722e-01" nType="0">
          <Node pos="l" depth="2" NCoef="0" IVar="-1" Cut="0.0000000000000000e+00" cType="1" res="-3.8200172130018473e-03" rms="4.0475147962570190e-01" purity="2.3418319225311279e-01" nType="-99"/>
          <Node pos="r" depth="2" NCoef="0" IVar="-1" Cut="0.0000000000000000e+00" cType="1" res="-2.0243597682565451e-03" rms="4.3912208080291748e-01" purity="3.0900055170059204e-01" nType="-99"/>
        </Node>
      </Node>
    </BinaryTree>
    <BinaryTree type="DecisionTree" boostWeight="1.0000000000000000e+00" itree="97">
      <Node pos="s" depth="0" NCoef="0" IVar="1" Cut="1.4072219133377075e+00" cType="1" res="-1.3442139141261578e-02" rms="4.7136023640632629e-01" purity="5.0142931938171387e-01" nType="0">
        <Node pos="l" depth="1" NCoef="0" IVar="2" Cut="8.5309731960296631e-01" cType="1" res="1.9448570907115936e-02" rms="4.7427916526794434e-01" purity="5.6017559766769409e-01" nType="0">
          <Node pos="l" depth="2" NCoef="0" IVar="-1" Cut="0.0000000000000000e+00" cType="1" res="-7.3556468123570085e-04" rms="4.8332434892654419e-01" purity="4.5679208636283875e-01" nType="-99"/>
          <Node pos="r" depth="2" NCoef="0" IVar="-1" Cut="0.0000000000000000e+00" cType="1" res="1.9612102769315243e-03" rms="4.6357575058937073e-01" purity="6.4259123802185059e-01" nType="-99"/>
        </Node>
        <Node pos="r" depth="1" NCoef="0" IVar="2" Cut="7.8470098972320557e-01" cType="1" res="-8.8236838579177856e-02" rms="4.5590484142303467e-01" purity="3.6783805489540100e-01" nType="0">
          <Node pos="l" depth="2" NCoef="0" IVar="-1" Cut="0.0000000000000000e+00" cType="1" res="-4.1491845622658730e-03" rms="3.9277473092079163e-01" purity="2.0544207096099854e-01" nType="-99"/>
          <Node pos="r" depth="2" NCoef="0" IVar="-1" Cut="0.0000000000000000e+00" cType="1" res="-1.5401215059682727e-03" rms="4.6855828166007996e-01" purity="4.1444155573844910e-01" nType="-99"/>
        </Node>
      </Node>
    </BinaryTree>
    <BinaryTree type="DecisionTree" boostWeight="1.0000000000000000e+00" itree="98">
      <Node pos="s" depth="0" NCoef="0" IVar="5" Cut="9.9209904670715332e-01" cType="1" res="-1.6810614615678787e-02" rms="4.7104030847549438e-01" purity="4.9717387557029724e-01" nType="0">
        <Node pos="l" depth="1" NCoef="0" IVar="3" Cut="5.7664707183837891e+01" cType="1" res="3.7220999598503113e-02" rms="4.7213584184646606e-01" purity="6.2735795974731445e-01" nType="0">
          <Node pos="l" depth="2" NCoef="0" IVar="-1" Cut="0.0000000000000000e+00" cType="1" res="-8.8054139632731676e-04" rms="4.8966136574745178e-01" purity="5.4517936706542969e-01" nType="-99"/>
          <Node pos="r" depth="2" NCoef="0" IVar="-1" Cut="0.0000000000000000e+00" cType="1" res="2.7542544994503260e-03" rms="4.5735919475555420e-01" purity="6.7464923858642578e-01" nType="-99"/>
        </Node>
        <Node pos="r" depth="1" NCoef="0" IVar="3" Cut="8.9525230407714844e+01" cType="1" res="-6.9179140031337738e-02" rms="4.6401023864746094e-01" purity="3.7099680304527283e-01" nType="0">
          <Node pos="l" depth="2" NCoef="0" IVar="-1" Cut="0.0000000000000000e+00" cType="1" res="-2.7364159468561411e-03" rms="4.5042970776557922e-01" purity="3.2519823312759399e-01" nType="-99"/>
          <Node pos="r" depth="2" NCoef="0" IVar="-1" Cut="0.0000000000000000e+00" cType="1" res="-1.7303191998507828e-04" rms="4.7473469376564026e-01" purity="4.3328574299812317e-01" nType="-99"/>
        </Node>
      </Node>
    </BinaryTree>
    <BinaryTree type="DecisionTree" boostWeight="1.0000000000000000e+00" itree="99">
      <Node pos="s" depth="0" NCoef="0" IVar="5" Cut="8.8406717777252197e-01" cType="1" res="-8.6797345429658890e-03" rms="4.6866744756698608e-01" purity="5.0395244359970093e-01" nType="0">
        <Node pos="l" depth="1" NCoef="0" IVar="3" Cut="4.4553958892822266e+01" cType="1" res="6.4540199935436249e-02" rms="4.6409589052200317e-01" purity="6.5632283687591553e-01" nType="0">
          <Node pos="l" depth="2" NCoef="0" IVar="-1" Cut="0.0000000000000000e+00" cType="1" res="-1.8239084165543318e-03" rms="4.9382716417312622e-01" purity="5.0563764572143555e-01" nType="-99"/>
          <Node pos="r" depth="2" NCoef="0" IVar="-1" Cut="0.0000000000000000e+00" cType="1" res="3.6672665737569332e-03" rms="4.5017778873443604e-01" purity="6.9507825374603271e-01" nType="-99"/>
        </Node>
        <Node pos="r" depth="1" NCoef="0" IVar="2" Cut="7.6515942811965942e-01" cType="1" res="-5.6057855486869812e-02" rms="4.6550476551055908e-01" purity="4.0535873174667358e-01" nType="0">
          <Node pos="l" depth="2" NCoef="0" IVar="-1" Cut="0.0000000000000000e+00" cType="1" res="-3.8560696411877871e-03" rms="3.9733922481536865e-01" purity="2.1294261515140533e-01" nType="-99"/>
          <Node pos="r" depth="2" NCoef="0" IVar="-1" Cut="0.0000000000000000e+00" cType="1" res="-8.9453882537782192e-04" rms="4.7404021024703979e-01" purity="4.4204005599021912e-01" nType="-99"/>
        </Node>
      </Node>
    </BinaryTree>
    <BinaryTree type="DecisionTree" boostWeight="1.0000000000000000e+00" itree="100">
      <Node pos="s" depth="0" NCoef="0" IVar="2" Cut="7.8508788347244263e-01" cType="1" res="-2.1747488528490067e-02" rms="4.7181928157806396e-01" purity="4.9229994416236877e-01" nType="0">
        <Node pos="l" depth="1" NCoef="0" IVar="5" Cut="9.5300507545471191e-01" cType="1" res="-1.1527934670448303e-01" rms="4.4950184226036072e-01" purity="3.1622770428657532e-01" nType="0">
          <Node pos="l" depth="2" NCoef="0" IVar="-1" Cut="0.0000000000000000e+00" cType="1" res="-1.3567521236836910e-03" rms="4.9375742673873901e-01" purity="4.4611915946006775e-01" nType="-99"/>
          <Node pos="r" depth="2" NCoef="0" IVar="-1" Cut="0.0000000000000000e+00" cType="1" res="-3.5126064904034138e-03" rms="4.1123220324516296e-01" purity="2.2774732112884521e-01" nType="-99"/>
        </Node>
        <Node pos="r" depth="1" NCoef="0" IVar="3" Cut="9.0318634033203125e+01" cType="1" res="1.6039771726354957e-03" rms="4.7436007857322693e-01" purity="5.3625875711441040e-01" nType="0">
          <Node pos="l" depth="2" NCoef="0" IVar="-1" Cut="0.0000000000000000e+00" cType="1" res="-9.9550781305879354e-04" rms="4.7747474908828735e-01" purity="5.0095206499099731e-01" nType="-99"/>
          <Node pos="r" depth="2" NCoef="0" IVar="-1" Cut="0.0000000000000000e+00" cType="1" res="2.1927859634160995e-03" rms="4.6156275272369385e-01" purity="5.9937757253646851e-01" nType="-99"/>
        </Node>
      </Node>
    </BinaryTree>
    <BinaryTree type="DecisionTree" boostWeight="1.0000000000000000e+00" itree="101">
      <Node pos="s" depth="0" NCoef="0" IVar="0" Cut="1.0000327825546265e+00" cType="1" res="-1.0638975538313389e-02" rms="4.7136339545249939e-01" purity="5.0329834222793579e-01" nType="0">
        <Node pos="l" depth="1" NCoef="0" IVar="4" Cut="9.5873168945312500e+01" cType="1" res="5.7689741253852844e-02" rms="4.6862640976905823e-01" purity="6.4597356319427490e-01" nType="0">
          <Node pos="l" depth="2" NCoef="0" IVar="-1" Cut="0.0000000000000000e+00" cType="1" res="-6.0179573483765125e-04" rms="4.8922598361968994e-01" purity="5.6300234794616699e-01" nType="-99"/>
          <Node pos="r" depth="2" NCoef="0" IVar="-1" Cut="0.0000000000000000e+00" cType="1" res="3.0171689577400684e-03" rms="4.5858812332153320e-01" purity="6.7381864786148071e-01" nType="-99"/>
        </Node>
        <Node pos="r" depth="1" NCoef="0" IVar="7" Cut="7.0407158136367798e-01" cType="1" res="-5.4072946310043335e-02" rms="4.6793651580810547e-01" purity="4.1260510683059692e-01" nType="0">
          <Node pos="l" depth="2" NCoef="0" IVar="-1" Cut="0.0000000000000000e+00" cType="1" res="-2.2724624723196030e-03" rms="4.5589563250541687e-01" purity="3.4545776247978210e-01" nType="-99"/>
          <Node pos="r" depth="2" NCoef="0" IVar="-1" Cut="0.0000000000000000e+00" cType="1" res="3.0282724765129387e-04" rms="4.8001855611801147e-01" purity="5.2213215827941895e-01" nType="-99"/>
        </Node>
      </Node>
    </BinaryTree>
    <BinaryTree type="DecisionTree" boostWeight="1.0000000000000000e+00" itree="102">
      <Node pos="s" depth="0" NCoef="0" IVar="1" Cut="1.1927576065063477e+00" cType="1" res="-1.3048888184130192e-02" rms="4.6966263651847839e-01" purity="5.0059747695922852e-01" nType="0">
        <Node pos="l" depth="1" NCoef="0" IVar="2" Cut="7.4614775180816650e-01" cType="1" res="3.3336091786623001e-02" rms="4.6954721212387085e-01" purity="5.7888334989547729e-01" nType="0">
          <Node pos="l" depth="2" NCoef="0" IVar="-1" Cut="0.0000000000000000e+00" cType="1" res="-3.0177787411957979e-03" rms="4.5082733035087585e-01" purity="3.1179639697074890e-01" nType="-99"/>
          <Node pos="r" depth="2" NCoef="0" IVar="-1" Cut="0.0000000000000000e+00" cType="1" res="1.6527905827388167e-03" rms="4.6818715333938599e-01" purity="6.0694026947021484e-01" nType="-99"/>
        </Node>
        <Node pos="r" depth="1" NCoef="0" IVar="7" Cut="6.5177071094512939e-01" cType="1" res="-8.2836128771305084e-02" rms="4.6112772822380066e-01" purity="3.8281461596488953e-01" nType="0">
          <Node pos="l" depth="2" NCoef="0" IVar="-1" Cut="0.0000000000000000e+00" cType="1" res="-2.9401998035609722e-03" rms="4.4245085120201111e-01" purity="3.0664178729057312e-01" nType="-99"/>
          <Node pos="r" depth="2" NCoef="0" IVar="-1" Cut="0.0000000000000000e+00" cType="1" res="-1.0115992045029998e-03" rms="4.7598451375961304e-01" purity="4.6398749947547913e-01" nType="-99"/>
        </Node>
      </Node>
    </BinaryTree>
    <BinaryTree type="DecisionTree" boostWeight="1.0000000000000000e+00" itree="103">
      <Node pos="s" depth="0" NCoef="0" IVar="0" Cut="1.2648922204971313e+00" cType="1" res="-1.6047751531004906e-02" rms="4.6896642446517944e-01" purity="4.9633485078811646e-01" nType="0">
        <Node pos="l" depth="1" NCoef="0" IVar="2" Cut="8.6167681217193604e-01" cType="1" res="2.4366211146116257e-02" rms="4.7424235939979553e-01" purity="5.8316069841384888e-01" nType="0">
          <Node pos="l" depth="2" NCoef="0" IVar="-1" Cut="0.0000000000000000e+00" cType="1" res="-7.5293635018169880e-04" rms="4.8628577589988708e-01" purity="4.7867566347122192e-01" nType="-99"/>
          <Node pos="r" depth="2" NCoef="0" IVar="-1" Cut="0.0000000000000000e+00" cType="1" res="2.6136192027479410e-03" rms="4.5815649628639221e-01" purity="6.7709326744079590e-01" nType="-99"/>
        </Node>
        <Node pos="r" depth="1" NCoef="0" IVar="1" Cut="2.2365949153900146e+00" cType="1" res="-9.0009935200214386e-02" rms="4.4984751939773560e-01" purity="3.3743366599082947e-01" nType="0">
          <Node pos="l" depth="2" NCoef="0" IVar="-1" Cut="0.0000000000000000e+00" cType="1" res="-1.4870099257677794e-03" rms="4.6534436941146851e-01" purity="3.8491302728652954e-01" nType="-99"/>
          <Node pos="r" depth="2" NCoef="0" IVar="-1" Cut="0.0000000000000000e+00" cType="1" res="-3.9368267171084881e-03" rms="3.8396370410919189e-01" purity="1.9336406886577606e-01" nType="-99"/>
        </Node>
      </Node>
    </BinaryTree>
    <BinaryTree type="DecisionTree" boostWeight="1.0000000000000000e+00" itree="104">
      <Node pos="s" depth="0" NCoef="0" IVar="5" Cut="8.2710057497024536e-01" cType="1" res="-7.3146717622876167e-03" rms="4.7011321783065796e-01" purity="5.0677889585494995e-01" nType="0">
        <Node pos="l" depth="1" NCoef="0" IVar="2" Cut="7.9277104139328003e-01" cType="1" res="6.2819302082061768e-02" rms="4.6285235881805420e-01" purity="6.5659505128860474e-01" nType="0">
          <Node pos="l" depth="2" NCoef="0" IVar="-1" Cut="0.0000000000000000e+00" cType="1" res="-9.1374554904177785e-04" rms="4.9570110440254211e-01" purity="4.6921238303184509e-01" nType="-99"/>
          <Node pos="r" depth="2" NCoef="0" IVar="-1" Cut="0.0000000000000000e+00" cType="1" res="3.3916027750819921e-03" rms="4.5056173205375671e-01" purity="7.0511019229888916e-01" nType="-99"/>
        </Node>
        <Node pos="r" depth="1" NCoef="0" IVar="3" Cut="8.9305755615234375e+01" cType="1" res="-4.5295946300029755e-02" rms="4.6964734792709351e-01" purity="4.2564553022384644e-01" nType="0">
          <Node pos="l" depth="2" NCoef="0" IVar="-1" Cut="0.0000000000000000e+00" cType="1" res="-2.1952879615128040e-03" rms="4.6415048837661743e-01" purity="3.8398066163063049e-01" nType="-99"/>
          <Node pos="r" depth="2" NCoef="0" IVar="-1" Cut="0.0000000000000000e+00" cType="1" res="4.1504594264551997e-04" rms="4.7096073627471924e-01" purity="4.8507970571517944e-01" nType="-99"/>
        </Node>
      </Node>
    </BinaryTree>
    <BinaryTree type="DecisionTree" boostWeight="1.0000000000000000e+00" itree="105">
      <Node pos="s" depth="0" NCoef="0" IVar="0" Cut="1.3532677888870239e+00" cType="1" res="-1.5357574447989464e-02" rms="4.6858024597167969e-01" purity="4.9639517068862915e-01" nType="0">
        <Node pos="l" depth="1" NCoef="0" IVar="2" Cut="8.3214575052261353e-01" cType="1" res="1.6127895563840866e-02" rms="4.7482594847679138e-01" purity="5.6500607728958130e-01" nType="0">
          <Node pos="l" depth="2" NCoef="0" IVar="-1" Cut="0.0000000000000000e+00" cType="1" res="-1.3622420374304056e-03" rms="4.8185354471206665e-01" purity="4.2296928167343140e-01" nType="-99"/>
          <Node pos="r" depth="2" NCoef="0" IVar="-1" Cut="0.0000000000000000e+00" cType="1" res="1.9323506858199835e-03" rms="4.6634545922279358e-01" purity="6.4471113681793213e-01" nType="-99"/>
        </Node>
        <Node pos="r" depth="1" NCoef="0" IVar="5" Cut="1.6726149320602417e+00" cType="1" res="-9.9369980394840240e-02" rms="4.4061538577079773e-01" purity="3.1332123279571533e-01" nType="0">
          <Node pos="l" depth="2" NCoef="0" IVar="-1" Cut="0.0000000000000000e+00" cType="1" res="-1.5800425317138433e-03" rms="4.7095748782157898e-01" purity="3.9321023225784302e-01" nType="-99"/>
          <Node pos="r" depth="2" NCoef="0" IVar="-1" Cut="0.0000000000000000e+00" cType="1" res="-3.6554131656885147e-03" rms="3.6875647306442261e-01" purity="1.6523377597332001e-01" nType="-99"/>
        </Node>
      </Node>
    </BinaryTree>
    <BinaryTree type="DecisionTree" boostWeight="1.0000000000000000e+00" itree="106">
      <Node pos="s" depth="0" NCoef="0" IVar="0" Cut="1.0293147563934326e+00" cType="1" res="-7.5872289016842842e-03" rms="4.6968865394592285e-01" purity="5.0572174787521362e-01" nType="0">
        <Node pos="l" depth="1" NCoef="0" IVar="2" Cut="8.6167681217193604e-01" cType="1" res="5.0313733518123627e-02" rms="4.6702420711517334e-01" purity="6.3851481676101685e-01" nType="0">
          <Node pos="l" depth="2" NCoef="0" IVar="-1" Cut="0.0000000000000000e+00" cType="1" res="3.4457727451808751e-05" rms="4.9223074316978455e-01" purity="5.3685802221298218e-01" nType="-99"/>
          <Node pos="r" depth="2" NCoef="0" IVar="-1" Cut="0.0000000000000000e+00" cType="1" res="3.8173615466803312e-03" rms="4.3923741579055786e-01" purity="7.2768169641494751e-01" nType="-99"/>
        </Node>
        <Node pos="r" depth="1" NCoef="0" IVar="3" Cut="6.0981834411621094e+01" cType="1" res="-4.9912560731172562e-02" rms="4.6710786223411560e-01" purity="4.0865063667297363e-01" nType="0">
          <Node pos="l" depth="2" NCoef="0" IVar="-1" Cut="0.0000000000000000e+00" cType="1" res="-3.0673812143504620e-03" rms="4.5008745789527893e-01" purity="3.3522039651870728e-01" nType="-99"/>
          <Node pos="r" depth="2" NCoef="0" IVar="-1" Cut="0.0000000000000000e+00" cType="1" res="-2.5011610705405474e-04" rms="4.7063216567039490e-01" purity="4.4696861505508423e-01" nType="-99"/>
        </Node>
      </Node>
    </BinaryTree>
    <BinaryTree type="DecisionTree" boostWeight="1.0000000000000000e+00" itree="107">
      <Node pos="s" depth="0" NCoef="0" IVar="5" Cut="1.3250192403793335e+00" cType="1" res="-1.1815596371889114e-02" rms="4.6883136034011841e-01" purity="5.0039792060852051e-01" nType="0">
        <Node pos="l" depth="1" NCoef="0" IVar="2" Cut="7.9502612352371216e-01" cType="1" res="1.8529001623392105e-02" rms="4.7689479589462280e-01" purity="5.8445191383361816e-01" nType="0">
          <Node pos="l" depth="2" NCoef="0" IVar="-1" Cut="0.0000000000000000e+00" cType="1" res="-1.7308973474428058e-03" rms="4.8601940274238586e-01" purity="4.0812122821807861e-01" nType="-99"/>
          <Node pos="r" depth="2" NCoef="0" IVar="-1" Cut="0.0000000000000000e+00" cType="1" res="1.4296125154942274e-03" rms="4.7159805893898010e-01" purity="6.3197398185729980e-01" nType="-99"/>
        </Node>
        <Node pos="r" depth="1" NCoef="0" IVar="0" Cut="1.4531931877136230e+00" cType="1" res="-9.4884410500526428e-02" rms="4.3532285094261169e-01" purity="2.7029877901077271e-01" nType="0">
          <Node pos="l" depth="2" NCoef="0" IVar="-1" Cut="0.0000000000000000e+00" cType="1" res="-1.1274788994342089e-03" rms="4.6499910950660706e-01" purity="3.3752337098121643e-01" nType="-99"/>
          <Node pos="r" depth="2" NCoef="0" IVar="-1" Cut="0.0000000000000000e+00" cType="1" res="-3.2059599179774523e-03" rms="3.9682549238204956e-01" purity="2.0188117027282715e-01" nType="-99"/>
        </Node>
      </Node>
    </BinaryTree>
    <BinaryTree type="DecisionTree" boostWeight="1.0000000000000000e+00" itree="108">
      <Node pos="s" depth="0" NCoef="0" IVar="2" Cut="7.8500080108642578e-01" cType="1" res="-9.7813270986080170e-03" rms="4.6910879015922546e-01" purity="5.0407832860946655e-01" nType="0">
        <Node pos="l" depth="1" NCoef="0" IVar="0" Cut="1.3028004169464111e+00" cType="1" res="-1.0938639938831329e-01" rms="4.4774311780929565e-01" purity="3.1507191061973572e-01" nType="0">
          <Node pos="l" depth="2" NCoef="0" IVar="-1" Cut="0.0000000000000000e+00" cType="1" res="-1.8061765003949404e-03" rms="4.8014193773269653e-01" purity="3.9056301116943359e-01" nType="-99"/>
          <Node pos="r" depth="2" NCoef="0" IVar="-1" Cut="0.0000000000000000e+00" cType="1" res="-3.8326145149767399e-03" rms="3.8039702177047729e-01" purity="1.9000457227230072e-01" nType="-99"/>
        </Node>
        <Node pos="r" depth="1" NCoef="0" IVar="3" Cut="5.3692726135253906e+01" cType="1" res="1.4749684371054173e-02" rms="4.7100141644477844e-01" purity="5.5062735080718994e-01" nType="0">
          <Node pos="l" depth="2" NCoef="0" IVar="-1" Cut="0.0000000000000000e+00" cType="1" res="-1.7126785824075341e-03" rms="4.7493609786033630e-01" purity="4.7002741694450378e-01" nType="-99"/>
          <Node pos="r" depth="2" NCoef="0" IVar="-1" Cut="0.0000000000000000e+00" cType="1" res="1.4559155097231269e-03" rms="4.6591106057167053e-01" purity="5.8263802528381348e-01" nType="-99"/>
        </Node>
      </Node>
    </BinaryTree>
    <BinaryTree type="DecisionTree" boostWeight="1.0000000000000000e+00" itree="109">
      <Node pos="s" depth="0" NCoef="0" IVar="5" Cut="9.9954509735107422e-01" cType="1" res="-1.5448857098817825e-02" rms="4.6847274899482727e-01" purity="4.9787920713424683e-01" nType="0">
        <Node pos="l" depth="1" NCoef="0" IVar="7" Cut="8.5059040784835815e-01" cType="1" res="3.6864068359136581e-02" rms="4.6965816617012024e-01" purity="6.2987071275711060e-01" nType="0">
          <Node pos="l" depth="2" NCoef="0" IVar="-1" Cut="0.0000000000000000e+00" cType="1" res="4.8459053505212069e-04" rms="4.7941431403160095e-01" purity="5.9529864788055420e-01" nType="-99"/>
          <Node pos="r" depth="2" NCoef="0" IVar="-1" Cut="0.0000000000000000e+00" cType="1" res="5.6610968895256519e-03" rms="4.1446486115455627e-01" purity="7.7399265766143799e-01" nType="-99"/>
        </Node>
        <Node pos="r" depth="1" NCoef="0" IVar="3" Cut="4.6763603210449219e+01" cType="1" res="-6.6848613321781158e-02" rms="4.6156606078147888e-01" purity="3.6819168925285339e-01" nType="0">
          <Node pos="l" depth="2" NCoef="0" IVar="-1" Cut="0.0000000000000000e+00" cType="1" res="-3.9131771773099899e-03" rms="4.2149308323860168e-01" purity="2.5762578845024109e-01" nType="-99"/>
          <Node pos="r" depth="2" NCoef="0" IVar="-1" Cut="0.0000000000000000e+00" cType="1" res="-1.1597384000197053e-03" rms="4.6637636423110962e-01" purity="3.9073657989501953e-01" nType="-99"/>
        </Node>
      </Node>
    </BinaryTree>
    <BinaryTree type="DecisionTree" boostWeight="1.0000000000000000e+00" itree="110">
      <Node pos="s" depth="0" NCoef="0" IVar="1" Cut="1.4914547204971313e+00" cType="1" res="-8.7587237358093262e-03" rms="4.6815928816795349e-01" purity="5.0556963682174683e-01" nType="0">
        <Node pos="l" depth="1" NCoef="0" IVar="3" Cut="8.8032302856445312e+01" cType="1" res="2.3090602830052376e-02" rms="4.7124665975570679e-01" purity="5.6569135189056396e-01" nType="0">
          <Node pos="l" depth="2" NCoef="0" IVar="-1" Cut="0.0000000000000000e+00" cType="1" res="-3.1790815410204232e-04" rms="4.7714492678642273e-01" purity="5.3028249740600586e-01" nType="-99"/>
          <Node pos="r" depth="2" NCoef="0" IVar="-1" Cut="0.0000000000000000e+00" cType="1" res="2.6681451126933098e-03" rms="4.5592007040977478e-01" purity="6.2400662899017334e-01" nType="-99"/>
        </Node>
        <Node pos="r" depth="1" NCoef="0" IVar="1" Cut="2.5516734123229980e+00" cType="1" res="-8.7623342871665955e-02" rms="4.5084372162818909e-01" purity="3.5669744014739990e-01" nType="0">
          <Node pos="l" depth="2" NCoef="0" IVar="-1" Cut="0.0000000000000000e+00" cType="1" res="-1.5400953125208616e-03" rms="4.6449327468872070e-01" purity="4.0313881635665894e-01" nType="-99"/>
          <Node pos="r" depth="2" NCoef="0" IVar="-1" Cut="0.0000000000000000e+00" cType="1" res="-3.6727173719555140e-03" rms="4.0249916911125183e-01" purity="2.3303975164890289e-01" nType="-99"/>
        </Node>
      </Node>
    </BinaryTree>
    <BinaryTree type="DecisionTree" boostWeight="1.0000000000000000e+00" itree="111">
      <Node pos="s" depth="0" NCoef="0" IVar="5" Cut="8.8934040069580078e-01" cType="1" res="-1.4456153847277164e-02" rms="4.6871232986450195e-01" purity="4.9993044137954712e-01" nType="0">
        <Node pos="l" depth="1" NCoef="0" IVar="3" Cut="4.5341472625732422e+01" cType="1" res="4.8731658607721329e-02" rms="4.6579337120056152e-01" purity="6.4637565612792969e-01" nType="0">
          <Node pos="l" depth="2" NCoef="0" IVar="-1" Cut="0.0000000000000000e+00" cType="1" res="-1.2623715447261930e-03" rms="4.9044337868690491e-01" purity="5.2806222438812256e-01" nType="-99"/>
          <Node pos="r" depth="2" NCoef="0" IVar="-1" Cut="0.0000000000000000e+00" cType="1" res="2.7151061221957207e-03" rms="4.5563849806785583e-01" purity="6.7856043577194214e-01" nType="-99"/>
        </Node>
        <Node pos="r" depth="1" NCoef="0" IVar="1" Cut="2.3599336147308350e+00" cType="1" res="-5.6086108088493347e-02" rms="4.6596655249595642e-01" purity="4.0344807505607605e-01" nType="0">
          <Node pos="l" depth="2" NCoef="0" IVar="-1" Cut="0.0000000000000000e+00" cType="1" res="-9.7105780150741339e-04" rms="4.7400298714637756e-01" purity="4.3568697571754456e-01" nType="-99"/>
          <Node pos="r" depth="2" NCoef="0" IVar="-1" Cut="0.0000000000000000e+00" cType="1" res="-3.7030857056379318e-03" rms="3.9910843968391418e-01" purity="2.1852922439575195e-01" nType="-99"/>
        </Node>
      </Node>
    </BinaryTree>
    <BinaryTree type="DecisionTree" boostWeight="1.0000000000000000e+00" itree="112">
      <Node pos="s" depth="0" NCoef="0" IVar="5" Cut="8.8934040069580078e-01" cType="1" res="-4.9065123312175274e-03" rms="4.6770083904266357e-01" purity="5.0844711065292358e-01" nType="0">
        <Node pos="l" depth="1" NCoef="0" IVar="4" Cut="9.9457214355468750e+01" cType="1" res="5.9782467782497406e-02" rms="4.6185785531997681e-01" purity="6.5746909379959106e-01" nType="0">
          <Node pos="l" depth="2" NCoef="0" IVar="-1" Cut="0.0000000000000000e+00" cType="1" res="-5.6805205531418324e-04" rms="4.8567321896553040e-01" purity="5.6841027736663818e-01" nType="-99"/>
          <Node pos="r" depth="2" NCoef="0" IVar="-1" Cut="0.0000000000000000e+00" cType="1" res="3.3391360193490982e-03" rms="4.4903650879859924e-01" purity="6.9108057022094727e-01" nType="-99"/>
        </Node>
        <Node pos="r" depth="1" NCoef="0" IVar="3" Cut="4.4752815246582031e+01" cType="1" res="-4.8513174057006836e-02" rms="4.6656504273414612e-01" purity="4.0799185633659363e-01" nType="0">
          <Node pos="l" depth="2" NCoef="0" IVar="-1" Cut="0.0000000000000000e+00" cType="1" res="-3.5495175980031490e-03" rms="4.4163250923156738e-01" purity="2.9978141188621521e-01" nType="-99"/>
          <Node pos="r" depth="2" NCoef="0" IVar="-1" Cut="0.0000000000000000e+00" cType="1" res="-8.0029130913317204e-04" rms="4.6830850839614868e-01" purity="4.2669355869293213e-01" nType="-99"/>
        </Node>
      </Node>
    </BinaryTree>
    <BinaryTree type="DecisionTree" boostWeight="1.0000000000000000e+00" itree="113">
      <Node pos="s" depth="0" NCoef="0" IVar="0" Cut="9.9946862459182739e-01" cType="1" res="-1.5374756418168545e-02" rms="4.6791127324104309e-01" purity="4.9745738506317139e-01" nType="0">
        <Node pos="l" depth="1" NCoef="0" IVar="7" Cut="5.7803732156753540e-01" cType="1" res="4.4682417064905167e-02" rms="4.6532607078552246e-01" purity="6.3703781366348267e-01" nType="0">
          <Node pos="l" depth="2" NCoef="0" IVar="-1" Cut="0.0000000000000000e+00" cType="1" res="-1.1214907281100750e-03" rms="4.8914784193038940e-01" purity="4.9372422695159912e-01" nType="-99"/>
          <Node pos="r" depth="2" NCoef="0" IVar="-1" Cut="0.0000000000000000e+00" cType="1" res="2.9672919772565365e-03" rms="4.5130985975265503e-01" purity="6.9294065237045288e-01" nType="-99"/>
        </Node>
        <Node pos="r" depth="1" NCoef="0" IVar="3" Cut="8.6520736694335938e+01" cType="1" res="-5.2927725017070770e-02" rms="4.6560066938400269e-01" purity="4.1017952561378479e-01" nType="0">
          <Node pos="l" depth="2" NCoef="0" IVar="-1" Cut="0.0000000000000000e+00" cType="1" res="-2.3520085960626602e-03" rms="4.5908984541893005e-01" purity="3.6852350831031799e-01" nType="-99"/>
          <Node pos="r" depth="2" NCoef="0" IVar="-1" Cut="0.0000000000000000e+00" cType="1" res="2.3116311058402061e-04" rms="4.6812459826469421e-01" purity="4.7023445367813110e-01" nType="-99"/>
        </Node>
      </Node>
    </BinaryTree>
    <BinaryTree type="DecisionTree" boostWeight="1.0000000000000000e+00" itree="114">
      <Node pos="s" depth="0" NCoef="0" IVar="0" Cut="1.2445169687271118e+00" cType="1" res="-1.5461958944797516e-02" rms="4.6778261661529541e-01" purity="4.9537482857704163e-01" nType="0">
        <Node pos="l" depth="1" NCoef="0" IVar="4" Cut="7.3330558776855469e+01" cType="1" res="2.5542654097080231e-02" rms="4.7352170944213867e-01" purity="5.8869969844818115e-01" nType="0">
          <Node pos="l" depth="2" NCoef="0" IVar="-1" Cut="0.0000000000000000e+00" cType="1" res="-2.7286738622933626e-03" rms="4.8380213975906372e-01" purity="4.5186582207679749e-01" nType="-99"/>
          <Node pos="r" depth="2" NCoef="0" IVar="-1" Cut="0.0000000000000000e+00" cType="1" res="1.3840834144502878e-03" rms="4.6963366866111755e-01" purity="6.0661798715591431e-01" nType="-99"/>
        </Node>
        <Node pos="r" depth="1" NCoef="0" IVar="9" Cut="9.0752416849136353e-01" cType="1" res="-8.2852944731712341e-02" rms="4.5015236735343933e-01" purity="3.4199565649032593e-01" nType="0">
          <Node pos="l" depth="2" NCoef="0" IVar="-1" Cut="0.0000000000000000e+00" cType="1" res="-3.3992431126534939e-03" rms="4.1197997331619263e-01" purity="2.3358534276485443e-01" nType="-99"/>
          <Node pos="r" depth="2" NCoef="0" IVar="-1" Cut="0.0000000000000000e+00" cType="1" res="-1.4047442236915231e-03" rms="4.6157309412956238e-01" purity="3.8512203097343445e-01" nType="-99"/>
        </Node>
      </Node>
    </BinaryTree>
    <BinaryTree type="DecisionTree" boostWeight="1.0000000000000000e+00" itree="115">
      <Node pos="s" depth="0" NCoef="0" IVar="0" Cut="9.9946862459182739e-01" cType="1" res="-2.0942153409123421e-02" rms="4.6705046296119690e-01" purity="4.9073845148086548e-01" nType="0">
        <Node pos="l" depth="1" NCoef="0" IVar="3" Cut="8.8024078369140625e+01" cType="1" res="4.9577489495277405e-02" rms="4.6598505973815918e-01" purity="6.4476257562637329e-01" nType="0">
          <Node pos="l" depth="2" NCoef="0" IVar="-1" Cut="0.0000000000000000e+00" cType="1" res="6.7487277556210756e-04" rms="4.7816163301467896e-01" purity="6.0682880878448486e-01" nType="-99"/>
          <Node pos="r" depth="2" NCoef="0" IVar="-1" Cut="0.0000000000000000e+00" cType="1" res="4.2341891676187515e-03" rms="4.3550857901573181e-01" purity="7.1932291984558105e-01" nType="-99"/>
        </Node>
        <Node pos="r" depth="1" NCoef="0" IVar="2" Cut="8.4328895807266235e-01" cType="1" res="-6.4347110688686371e-02" rms="4.6238842606544495e-01" purity="3.9593636989593506e-01" nType="0">
          <Node pos="l" depth="2" NCoef="0" IVar="-1" Cut="0.0000000000000000e+00" cType="1" res="-2.6774329598993063e-03" rms="4.3847790360450745e-01" purity="2.9056444764137268e-01" nType="-99"/>
          <Node pos="r" depth="2" NCoef="0" IVar="-1" Cut="0.0000000000000000e+00" cType="1" res="-6.4612121786922216e-04" rms="4.7670945525169373e-01" purity="4.8028424382209778e-01" nType="-99"/>
        </Node>
      </Node>
    </BinaryTree>
    <BinaryTree type="DecisionTree" boostWeight="1.0000000000000000e+00" itree="116">
      <Node pos="s" depth="0" NCoef="0" IVar="5" Cut="1.3949530124664307e+00" cType="1" res="-1.4619120396673679e-02" rms="4.6973228454589844e-01" purity="5.0066399574279785e-01" nType="0">
        <Node pos="l" depth="1" NCoef="0" IVar="3" Cut="4.1965778350830078e+01" cType="1" res="8.7655680254101753e-03" rms="4.7870671749114990e-01" purity="5.7003217935562134e-01" nType="0">
          <Node pos="l" depth="2" NCoef="0" IVar="-1" Cut="0.0000000000000000e+00" cType="1" res="-2.6301068719476461e-03" rms="4.8159429430961609e-01" purity="4.3816342949867249e-01" nType="-99"/>
          <Node pos="r" depth="2" NCoef="0" IVar="-1" Cut="0.0000000000000000e+00" cType="1" res="8.9392636436969042e-04" rms="4.7559785842895508e-01" purity="5.9300237894058228e-01" nType="-99"/>
        </Node>
        <Node pos="r" depth="1" NCoef="0" IVar="7" Cut="7.2409081459045410e-01" cType="1" res="-9.8525963723659515e-02" rms="4.2556434869766235e-01" purity="2.5176325440406799e-01" nType="0">
          <Node pos="l" depth="2" NCoef="0" IVar="-1" Cut="0.0000000000000000e+00" cType="1" res="-2.9575659427791834e-03" rms="3.9789927005767822e-01" purity="2.0532910525798798e-01" nType="-99"/>
          <Node pos="r" depth="2" NCoef="0" IVar="-1" Cut="0.0000000000000000e+00" cType="1" res="-7.0636498276144266e-04" rms="4.7256013751029968e-01" purity="3.5233095288276672e-01" nType="-99"/>
        </Node>
      </Node>
    </BinaryTree>
    <BinaryTree type="DecisionTree" boostWeight="1.0000000000000000e+00" itree="117">
      <Node pos="s" depth="0" NCoef="0" IVar="1" Cut="8.9521265029907227e-01" cType="1" res="-1.1544537730515003e-02" rms="4.6785050630569458e-01" purity="5.0381493568420410e-01" nType="0">
        <Node pos="l" depth="1" NCoef="0" IVar="3" Cut="8.3095695495605469e+01" cType="1" res="4.0685765445232391e-02" rms="4.6527642011642456e-01" purity="5.9722155332565308e-01" nType="0">
          <Node pos="l" depth="2" NCoef="0" IVar="-1" Cut="0.0000000000000000e+00" cType="1" res="-1.4355710300151259e-04" rms="4.7742691636085510e-01" purity="5.4705035686492920e-01" nType="-99"/>
          <Node pos="r" depth="2" NCoef="0" IVar="-1" Cut="0.0000000000000000e+00" cType="1" res="3.8739223964512348e-03" rms="4.3895494937896729e-01" purity="6.6958409547805786e-01" nType="-99"/>
        </Node>
        <Node pos="r" depth="1" NCoef="0" IVar="4" Cut="8.5133468627929688e+01" cType="1" res="-5.5152028799057007e-02" rms="4.6552145481109619e-01" purity="4.2582902312278748e-01" nType="0">
          <Node pos="l" depth="2" NCoef="0" IVar="-1" Cut="0.0000000000000000e+00" cType="1" res="-3.7495228461921215e-03" rms="4.4296148419380188e-01" purity="3.1466808915138245e-01" nType="-99"/>
          <Node pos="r" depth="2" NCoef="0" IVar="-1" Cut="0.0000000000000000e+00" cType="1" res="-9.2041515745222569e-04" rms="4.6720406413078308e-01" purity="4.4875144958496094e-01" nType="-99"/>
        </Node>
      </Node>
    </BinaryTree>
    <BinaryTree type="DecisionTree" boostWeight="1.0000000000000000e+00" itree="118">
      <Node pos="s" depth="0" NCoef="0" IVar="5" Cut="1.4807971715927124e+00" cType="1" res="-1.5885792672634125e-02" rms="4.6680116653442383e-01" purity="4.9707660079002380e-01" nType="0">
        <Node pos="l" depth="1" NCoef="0" IVar="8" Cut="6.0103040933609009e-01" cType="1" res="7.6405834406614304e-03" rms="4.7585225105285645e-01" purity="5.5960029363632202e-01" nType="0">
          <Node pos="l" depth="2" NCoef="0" IVar="-1" Cut="0.0000000000000000e+00" cType="1" res="-5.7655782438814640e-04" rms="4.8130995035171509e-01" purity="5.1412689685821533e-01" nType="-99"/>
          <Node pos="r" depth="2" NCoef="0" IVar="-1" Cut="0.0000000000000000e+00" cType="1" res="2.8296916279941797e-03" rms="4.5427978038787842e-01" purity="6.7466336488723755e-01" nType="-99"/>
        </Node>
        <Node pos="r" depth="1" NCoef="0" IVar="3" Cut="7.7566940307617188e+01" cType="1" res="-1.1958909034729004e-01" rms="4.0877905488014221e-01" purity="2.2147485613822937e-01" nType="0">
          <Node pos="l" depth="2" NCoef="0" IVar="-1" Cut="0.0000000000000000e+00" cType="1" res="-3.6757832858711481e-03" rms="3.7011319398880005e-01" purity="1.7046162486076355e-01" nType="-99"/>
          <Node pos="r" depth="2" NCoef="0" IVar="-1" Cut="0.0000000000000000e+00" cType="1" res="-2.0061451941728592e-03" rms="4.3207409977912903e-01" purity="2.5929111242294312e-01" nType="-99"/>
        </Node>
      </Node>
    </BinaryTree>
    <BinaryTree type="DecisionTree" boostWeight="1.0000000000000000e+00" itree="119">
      <Node pos="s" depth="0" NCoef="0" IVar="0" Cut="1.2935265302658081e+00" cType="1" res="-1.0269638150930405e-02" rms="4.6566003561019897e-01" purity="5.0150400400161743e-01" nType="0">
        <Node pos="l" depth="1" NCoef="0" IVar="7" Cut="5.5716568231582642e-01" cType="1" res="2.4871697649359703e-02" rms="4.7227874398231506e-01" purity="5.8433616161346436e-01" nType="0">
          <Node pos="l" depth="2" NCoef="0" IVar="-1" Cut="0.0000000000000000e+00" cType="1" res="-1.6816330607980490e-03" rms="4.7949516773223877e-01" purity="4.3125504255294800e-01" nType="-99"/>
          <Node pos="r" depth="2" NCoef="0" IVar="-1" Cut="0.0000000000000000e+00" cType="1" res="1.8096574349328876e-03" rms="4.6651276946067810e-01" purity="6.3191199302673340e-01" nType="-99"/>
        </Node>
        <Node pos="r" depth="1" NCoef="0" IVar="7" Cut="7.7756911516189575e-01" cType="1" res="-8.3506397902965546e-02" rms="4.4267848134040833e-01" purity="3.2887658476829529e-01" nType="0">
          <Node pos="l" depth="2" NCoef="0" IVar="-1" Cut="0.0000000000000000e+00" cType="1" res="-2.6589527260512114e-03" rms="4.2917084693908691e-01" purity="2.8332927823066711e-01" nType="-99"/>
          <Node pos="r" depth="2" NCoef="0" IVar="-1" Cut="0.0000000000000000e+00" cType="1" res="3.8517609937116504e-04" rms="4.7075781226158142e-01" purity="4.7588196396827698e-01" nType="-99"/>
        </Node>
      </Node>
    </BinaryTree>
    <BinaryTree type="DecisionTree" boostWeight="1.0000000000000000e+00" itree="120">
      <Node pos="s" depth="0" NCoef="0" IVar="5" Cut="1.3949530124664307e+00" cType="1" res="-9.0502416715025902e-03" rms="4.6669262647628784e-01" purity="5.0461119413375854e-01" nType="0">
        <Node pos="l" depth="1" NCoef="0" IVar="2" Cut="8.6167681217193604e-01" cType="1" res="1.7406625673174858e-02" rms="4.7552546858787537e-01" purity="5.7974290847778320e-01" nType="0">
          <Node pos="l" depth="2" NCoef="0" IVar="-1" Cut="0.0000000000000000e+00" cType="1" res="-8.0987950786948204e-04" rms="4.8720520734786987e-01" purity="4.7740504145622253e-01" nType="-99"/>
          <Node pos="r" depth="2" NCoef="0" IVar="-1" Cut="0.0000000000000000e+00" cType="1" res="2.2056931629776955e-03" rms="4.6047452092170715e-01" purity="6.7278319597244263e-01" nType="-99"/>
        </Node>
        <Node pos="r" depth="1" NCoef="0" IVar="5" Cut="1.7304838895797729e+00" cType="1" res="-9.9960148334503174e-02" rms="4.2253392934799194e-01" purity="2.4644711613655090e-01" nType="0">
          <Node pos="l" depth="2" NCoef="0" IVar="-1" Cut="0.0000000000000000e+00" cType="1" res="-1.4700500760227442e-03" rms="4.5210456848144531e-01" purity="3.0336344242095947e-01" nType="-99"/>
          <Node pos="r" depth="2" NCoef="0" IVar="-1" Cut="0.0000000000000000e+00" cType="1" res="-3.5340467002242804e-03" rms="3.6572235822677612e-01" purity="1.6027288138866425e-01" nType="-99"/>
        </Node>
      </Node>
    </BinaryTree>
    <BinaryTree type="DecisionTree" boostWeight="1.0000000000000000e+00" itree="121">
      <Node pos="s" depth="0" NCoef="0" IVar="2" Cut="8.4875583648681641e-01" cType="1" res="-1.8600752577185631e-02" rms="4.6562808752059937e-01" purity="4.9254545569419861e-01" nType="0">
        <Node pos="l" depth="1" NCoef="0" IVar="0" Cut="1.0719883441925049e+00" cType="1" res="-7.6632782816886902e-02" rms="4.6003490686416626e-01" purity="3.7077826261520386e-01" nType="0">
          <Node pos="l" depth="2" NCoef="0" IVar="-1" Cut="0.0000000000000000e+00" cType="1" res="-2.5830822414718568e-04" rms="4.9149042367935181e-01" purity="5.0892370939254761e-01" nType="-99"/>
          <Node pos="r" depth="2" NCoef="0" IVar="-1" Cut="0.0000000000000000e+00" cType="1" res="-2.8928753454238176e-03" rms="4.3034246563911438e-01" purity="2.7379131317138672e-01" nType="-99"/>
        </Node>
        <Node pos="r" depth="1" NCoef="0" IVar="3" Cut="9.0364067077636719e+01" cType="1" res="2.7815084904432297e-02" rms="4.6486827731132507e-01" purity="5.8993870019912720e-01" nType="0">
          <Node pos="l" depth="2" NCoef="0" IVar="-1" Cut="0.0000000000000000e+00" cType="1" res="-2.5678524980321527e-04" rms="4.7231718897819519e-01" purity="5.5186843872070312e-01" nType="-99"/>
          <Node pos="r" depth="2" NCoef="0" IVar="-1" Cut="0.0000000000000000e+00" cType="1" res="3.4308747854083776e-03" rms="4.4332563877105713e-01" purity="6.5966683626174927e-01" nType="-99"/>
        </Node>
      </Node>
    </BinaryTree>
    <BinaryTree type="DecisionTree" boostWeight="1.0000000000000000e+00" itree="122">
      <Node pos="s" depth="0" NCoef="0" IVar="5" Cut="1.3533768653869629e+00" cType="1" res="-1.3184672221541405e-02" rms="4.6578690409660339e-01" purity="5.0070488452911377e-01" nType="0">
        <Node pos="l" depth="1" NCoef="0" IVar="3" Cut="4.8456367492675781e+01" cType="1" res="1.5626233071088791e-02" rms="4.7535595297813416e-01" purity="5.8198189735412598e-01" nType="0">
          <Node pos="l" depth="2" NCoef="0" IVar="-1" Cut="0.0000000000000000e+00" cType="1" res="-1.7093034693971276e-03" rms="4.8372820019721985e-01" purity="4.8304075002670288e-01" nType="-99"/>
          <Node pos="r" depth="2" NCoef="0" IVar="-1" Cut="0.0000000000000000e+00" cType="1" res="1.2761679245159030e-03" rms="4.7037166357040405e-01" purity="6.1121994256973267e-01" nType="-99"/>
        </Node>
        <Node pos="r" depth="1" NCoef="0" IVar="3" Cut="8.9305755615234375e+01" cType="1" res="-1.0258559882640839e-01" rms="4.2242607474327087e-01" purity="2.4850049614906311e-01" nType="0">
          <Node pos="l" depth="2" NCoef="0" IVar="-1" Cut="0.0000000000000000e+00" cType="1" res="-3.2171295024454594e-03" rms="3.9339387416839600e-01" purity="2.0165638625621796e-01" nType="-99"/>
          <Node pos="r" depth="2" NCoef="0" IVar="-1" Cut="0.0000000000000000e+00" cType="1" res="-1.2227881234139204e-03" rms="4.5030552148818970e-01" purity="3.0646917223930359e-01" nType="-99"/>
        </Node>
      </Node>
    </BinaryTree>
    <BinaryTree type="DecisionTree" boostWeight="1.0000000000000000e+00" itree="123">
      <Node pos="s" depth="0" NCoef="0" IVar="1" Cut="1.4928600788116455e+00" cType="1" res="-1.7646394670009613e-02" rms="4.6807411313056946e-01" purity="4.9661535024642944e-01" nType="0">
        <Node pos="l" depth="1" NCoef="0" IVar="2" Cut="7.5551962852478027e-01" cType="1" res="1.1058114469051361e-02" rms="4.7208976745605469e-01" purity="5.5428862571716309e-01" nType="0">
          <Node pos="l" depth="2" NCoef="0" IVar="-1" Cut="0.0000000000000000e+00" cType="1" res="-2.8622783720493317e-03" rms="4.5201471447944641e-01" purity="3.1032502651214600e-01" nType="-99"/>
          <Node pos="r" depth="2" NCoef="0" IVar="-1" Cut="0.0000000000000000e+00" cType="1" res="9.1360224178060889e-04" rms="4.7185567021369934e-01" purity="5.8609598875045776e-01" nType="-99"/>
        </Node>
        <Node pos="r" depth="1" NCoef="0" IVar="8" Cut="5.9670329093933105e-01" cType="1" res="-8.9850418269634247e-02" rms="4.4978967308998108e-01" purity="3.5154262185096741e-01" nType="0">
          <Node pos="l" depth="2" NCoef="0" IVar="-1" Cut="0.0000000000000000e+00" cType="1" res="-2.8485977090895176e-03" rms="4.3684366345405579e-01" purity="3.0339309573173523e-01" nType="-99"/>
          <Node pos="r" depth="2" NCoef="0" IVar="-1" Cut="0.0000000000000000e+00" cType="1" res="-4.4701364822685719e-04" rms="4.7244754433631897e-01" purity="4.7110909223556519e-01" nType="-99"/>
        </Node>
      </Node>
    </BinaryTree>
    <BinaryTree type="DecisionTree" boostWeight="1.0000000000000000e+00" itree="124">
      <Node pos="s" depth="0" NCoef="0" IVar="7" Cut="7.2507125139236450e-01" cType="1" res="-8.2476707175374031e-03" rms="4.6792709827423096e-01" purity="5.0516033172607422e-01" nType="0">
        <Node pos="l" depth="1" NCoef="0" IVar="0" Cut="1.1955072879791260e+00" cType="1" res="-4.2150847613811493e-02" rms="4.6842408180236816e-01" purity="4.3994992971420288e-01" nType="0">
          <Node pos="l" depth="2" NCoef="0" IVar="-1" Cut="0.0000000000000000e+00" cType="1" res="-1.0795513662742451e-04" rms="4.8388424515724182e-01" purity="5.3659754991531372e-01" nType="-99"/>
          <Node pos="r" depth="2" NCoef="0" IVar="-1" Cut="0.0000000000000000e+00" cType="1" res="-2.2533577866852283e-03" rms="4.4173198938369751e-01" purity="3.1083256006240845e-01" nType="-99"/>
        </Node>
        <Node pos="r" depth="1" NCoef="0" IVar="3" Cut="5.3463783264160156e+01" cType="1" res="5.2136708050966263e-02" rms="4.6090501546859741e-01" purity="6.2130540609359741e-01" nType="0">
          <Node pos="l" depth="2" NCoef="0" IVar="-1" Cut="0.0000000000000000e+00" cType="1" res="-8.2545448094606400e-04" rms="4.7350898385047913e-01" purity="5.3233754634857178e-01" nType="-99"/>
          <Node pos="r" depth="2" NCoef="0" IVar="-1" Cut="0.0000000000000000e+00" cType="1" res="3.0027471948415041e-03" rms="4.5213797688484192e-01" purity="6.5603917837142944e-01" nType="-99"/>
        </Node>
      </Node>
    </BinaryTree>
    <BinaryTree type="DecisionTree" boostWeight="1.0000000000000000e+00" itree="125">
      <Node pos="s" depth="0" NCoef="0" IVar="0" Cut="1.0577225685119629e+00" cType="1" res="-1.2524503283202648e-02" rms="4.6676412224769592e-01" purity="5.0056016445159912e-01" nType="0">
        <Node pos="l" depth="1" NCoef="0" IVar="4" Cut="7.3029022216796875e+01" cType="1" res="4.2326625436544418e-02" rms="4.6721181273460388e-01" purity="6.3459521532058716e-01" nType="0">
          <Node pos="l" depth="2" NCoef="0" IVar="-1" Cut="0.0000000000000000e+00" cType="1" res="-2.0471748430281878e-03" rms="4.8513889312744141e-01" purity="5.0324064493179321e-01" nType="-99"/>
          <Node pos="r" depth="2" NCoef="0" IVar="-1" Cut="0.0000000000000000e+00" cType="1" res="2.0785718224942684e-03" rms="4.6219220757484436e-01" purity="6.5380138158798218e-01" nType="-99"/>
        </Node>
        <Node pos="r" depth="1" NCoef="0" IVar="7" Cut="6.7250430583953857e-01" cType="1" res="-5.6275092065334320e-02" rms="4.6175894141197205e-01" purity="3.9365062117576599e-01" nType="0">
          <Node pos="l" depth="2" NCoef="0" IVar="-1" Cut="0.0000000000000000e+00" cType="1" res="-2.2784315515309572e-03" rms="4.4560393691062927e-01" purity="3.2078468799591064e-01" nType="-99"/>
          <Node pos="r" depth="2" NCoef="0" IVar="-1" Cut="0.0000000000000000e+00" cType="1" res="-2.0781625062227249e-04" rms="4.7724550962448120e-01" purity="4.8709702491760254e-01" nType="-99"/>
        </Node>
      </Node>
    </BinaryTree>
    <BinaryTree type="DecisionTree" boostWeight="1.0000000000000000e+00" itree="126">
      <Node pos="s" depth="0" NCoef="0" IVar="1" Cut="1.3415300846099854e+00" cType="1" res="-1.1945905163884163e-02" rms="4.6863675117492676e-01" purity="5.0247853994369507e-01" nType="0">
        <Node pos="l" depth="1" NCoef="0" IVar="4" Cut="2.6376358032226562e+02" cType="1" res="2.2668071091175079e-02" rms="4.7066783905029297e-01" purity="5.6989800930023193e-01" nType="0">
          <Node pos="l" depth="2" NCoef="0" IVar="-1" Cut="0.0000000000000000e+00" cType="1" res="1.4129768824204803e-03" rms="4.6954306960105896e-01" purity="6.0078823566436768e-01" nType="-99"/>
          <Node pos="r" depth="2" NCoef="0" IVar="-1" Cut="0.0000000000000000e+00" cType="1" res="-1.7920061945915222e-03" rms="4.6527448296546936e-01" purity="4.3565598130226135e-01" nType="-99"/>
        </Node>
        <Node pos="r" depth="1" NCoef="0" IVar="4" Cut="9.8361633300781250e+01" cType="1" res="-7.8663177788257599e-02" rms="4.5736485719680786e-01" purity="3.7252971529960632e-01" nType="0">
          <Node pos="l" depth="2" NCoef="0" IVar="-1" Cut="0.0000000000000000e+00" cType="1" res="-3.9103194139897823e-03" rms="4.2358499765396118e-01" purity="2.6917180418968201e-01" nType="-99"/>
          <Node pos="r" depth="2" NCoef="0" IVar="-1" Cut="0.0000000000000000e+00" cType="1" res="-1.3069673441350460e-03" rms="4.6358811855316162e-01" purity="4.0501838922500610e-01" nType="-99"/>
        </Node>
      </Node>
    </BinaryTree>
    <BinaryTree type="DecisionTree" boostWeight="1.0000000000000000e+00" itree="127">
      <Node pos="s" depth="0" NCoef="0" IVar="5" Cut="1.3949530124664307e+00" cType="1" res="-3.8067693822085857e-03" rms="4.6608728170394897e-01" purity="5.0952237844467163e-01" nType="0">
        <Node pos="l" depth="1" NCoef="0" IVar="3" Cut="6.7924415588378906e+01" cType="1" res="2.0469110459089279e-02" rms="4.7415840625762939e-01" purity="5.8253824710845947e-01" nType="0">
          <Node pos="l" depth="2" NCoef="0" IVar="-1" Cut="0.0000000000000000e+00" cType="1" res="-7.7102059731259942e-04" rms="4.8332303762435913e-01" purity="5.2550810575485229e-01" nType="-99"/>
          <Node pos="r" depth="2" NCoef="0" IVar="-1" Cut="0.0000000000000000e+00" cType="1" res="1.9531333819031715e-03" rms="4.6332281827926636e-01" purity="6.2797135114669800e-01" nType="-99"/>
        </Node>
        <Node pos="r" depth="1" NCoef="0" IVar="5" Cut="1.6969310045242310e+00" cType="1" res="-8.9160673320293427e-02" rms="4.2567312717437744e-01" purity="2.5279876589775085e-01" nType="0">
          <Node pos="l" depth="2" NCoef="0" IVar="-1" Cut="0.0000000000000000e+00" cType="1" res="-1.1284283827990294e-03" rms="4.5737925171852112e-01" purity="3.1631609797477722e-01" nType="-99"/>
          <Node pos="r" depth="2" NCoef="0" IVar="-1" Cut="0.0000000000000000e+00" cType="1" res="-3.1888615339994431e-03" rms="3.7622463703155518e-01" purity="1.7419859766960144e-01" nType="-99"/>
        </Node>
      </Node>
    </BinaryTree>
    <BinaryTree type="DecisionTree" boostWeight="1.0000000000000000e+00" itree="128">
      <Node pos="s" depth="0" NCoef="0" IVar="1" Cut="1.0658886432647705e+00" cType="1" res="-1.0130421258509159e-02" rms="4.6915757656097412e-01" purity="5.0565236806869507e-01" nType="0">
        <Node pos="l" depth="1" NCoef="0" IVar="4" Cut="1.6071969604492188e+02" cType="1" res="2.7981277555227280e-02" rms="4.6877864003181458e-01" purity="5.8250981569290161e-01" nType="0">
          <Node pos="l" depth="2" NCoef="0" IVar="-1" Cut="0.0000000000000000e+00" cType="1" res="2.1634020376950502e-03" rms="4.6187448501586914e-01" purity="6.3310372829437256e-01" nType="-99"/>
          <Node pos="r" depth="2" NCoef="0" IVar="-1" Cut="0.0000000000000000e+00" cType="1" res="-5.4542528232559562e-04" rms="4.7383043169975281e-01" purity="5.1526749134063721e-01" nType="-99"/>
        </Node>
        <Node pos="r" depth="1" NCoef="0" IVar="2" Cut="7.6439809799194336e-01" cType="1" res="-5.6140836328268051e-02" rms="4.6547549962997437e-01" purity="4.1286614537239075e-01" nType="0">
          <Node pos="l" depth="2" NCoef="0" IVar="-1" Cut="0.0000000000000000e+00" cType="1" res="-3.9022315759211779e-03" rms="3.9867404103279114e-01" purity="2.0755264163017273e-01" nType="-99"/>
          <Node pos="r" depth="2" NCoef="0" IVar="-1" Cut="0.0000000000000000e+00" cType="1" res="-9.6150761237367988e-04" rms="4.7296550869941711e-01" purity="4.4851085543632507e-01" nType="-99"/>
        </Node>
      </Node>
    </BinaryTree>
    <BinaryTree type="DecisionTree" boostWeight="1.0000000000000000e+00" itree="129">
      <Node pos="s" depth="0" NCoef="0" IVar="5" Cut="9.4426757097244263e-01" cType="1" res="-1.4298010617494583e-02" rms="4.6405652165412903e-01" purity="4.9591875076293945e-01" nType="0">
        <Node pos="l" depth="1" NCoef="0" IVar="7" Cut="5.6746989488601685e-01" cType="1" res="4.9937650561332703e-02" rms="4.6119901537895203e-01" purity="6.4830911159515381e-01" nType="0">
          <Node pos="l" depth="2" NCoef="0" IVar="-1" Cut="0.0000000000000000e+00" cType="1" res="-9.9361629690974951e-04" rms="4.8709729313850403e-01" purity="4.9844959378242493e-01" nType="-99"/>
          <Node pos="r" depth="2" NCoef="0" IVar="-1" Cut="0.0000000000000000e+00" cType="1" res="3.1145000830292702e-03" rms="4.4789347052574158e-01" purity="7.0086723566055298e-01" nType="-99"/>
        </Node>
        <Node pos="r" depth="1" NCoef="0" IVar="0" Cut="1.3057253360748291e+00" cType="1" res="-6.4506798982620239e-02" rms="4.6007487177848816e-01" purity="3.7680527567863464e-01" nType="0">
          <Node pos="l" depth="2" NCoef="0" IVar="-1" Cut="0.0000000000000000e+00" cType="1" res="-7.6097395503893495e-04" rms="4.8231121897697449e-01" purity="4.6610212326049805e-01" nType="-99"/>
          <Node pos="r" depth="2" NCoef="0" IVar="-1" Cut="0.0000000000000000e+00" cType="1" res="-2.5041373446583748e-03" rms="4.2894238233566284e-01" purity="2.7309295535087585e-01" nType="-99"/>
        </Node>
      </Node>
    </BinaryTree>
    <BinaryTree type="DecisionTree" boostWeight="1.0000000000000000e+00" itree="130">
      <Node pos="s" depth="0" NCoef="0" IVar="1" Cut="1.6395527124404907e+00" cType="1" res="-1.1373552493751049e-02" rms="4.6784937381744385e-01" purity="5.0146734714508057e-01" nType="0">
        <Node pos="l" depth="1" NCoef="0" IVar="2" Cut="8.4806793928146362e-01" cType="1" res="1.6553862020373344e-02" rms="4.7160789370536804e-01" purity="5.5540460348129272e-01" nType="0">
          <Node pos="l" depth="2" NCoef="0" IVar="-1" Cut="0.0000000000000000e+00" cType="1" res="-8.5177662549540401e-04" rms="4.7964289784431458e-01" purity="4.3990883231163025e-01" nType="-99"/>
          <Node pos="r" depth="2" NCoef="0" IVar="-1" Cut="0.0000000000000000e+00" cType="1" res="1.8719456857070327e-03" rms="4.6208122372627258e-01" purity="6.4251923561096191e-01" nType="-99"/>
        </Node>
        <Node pos="r" depth="1" NCoef="0" IVar="1" Cut="2.5569124221801758e+00" cType="1" res="-1.0091309249401093e-01" rms="4.4389671087265015e-01" purity="3.2853645086288452e-01" nType="0">
          <Node pos="l" depth="2" NCoef="0" IVar="-1" Cut="0.0000000000000000e+00" cType="1" res="-1.8445890164002776e-03" rms="4.6202120184898376e-01" purity="3.7738096714019775e-01" nType="-99"/>
          <Node pos="r" depth="2" NCoef="0" IVar="-1" Cut="0.0000000000000000e+00" cType="1" res="-3.5729422233998775e-03" rms="3.9730733633041382e-01" purity="2.2704274952411652e-01" nType="-99"/>
        </Node>
      </Node>
    </BinaryTree>
    <BinaryTree type="DecisionTree" boostWeight="1.0000000000000000e+00" itree="131">
      <Node pos="s" depth="0" NCoef="0" IVar="3" Cut="4.4186679840087891e+01" cType="1" res="-1.1645466089248657e-02" rms="4.6669211983680725e-01" purity="5.0046706199645996e-01" nType="0">
        <Node pos="l" depth="1" NCoef="0" IVar="0" Cut="1.1202317476272583e+00" cType="1" res="-1.1355128884315491e-01" rms="4.6272131800651550e-01" purity="3.8723218441009521e-01" nType="0">
          <Node pos="l" depth="2" NCoef="0" IVar="-1" Cut="0.0000000000000000e+00" cType="1" res="-1.9575131591409445e-03" rms="4.9090224504470825e-01" purity="4.8867976665496826e-01" nType="-99"/>
          <Node pos="r" depth="2" NCoef="0" IVar="-1" Cut="0.0000000000000000e+00" cType="1" res="-3.7608146667480469e-03" rms="4.1923707723617554e-01" purity="2.6171532273292542e-01" nType="-99"/>
        </Node>
        <Node pos="r" depth="1" NCoef="0" IVar="2" Cut="7.8231441974639893e-01" cType="1" res="9.1358143836259842e-03" rms="4.6476286649703979e-01" purity="5.2355861663818359e-01" nType="0">
          <Node pos="l" depth="2" NCoef="0" IVar="-1" Cut="0.0000000000000000e+00" cType="1" res="-2.1308774594217539e-03" rms="4.5076900720596313e-01" purity="3.3056476712226868e-01" nType="-99"/>
          <Node pos="r" depth="2" NCoef="0" IVar="-1" Cut="0.0000000000000000e+00" cType="1" res="1.0047841351479292e-03" rms="4.6514949202537537e-01" purity="5.6905424594879150e-01" nType="-99"/>
        </Node>
      </Node>
    </BinaryTree>
    <BinaryTree type="DecisionTree" boostWeight="1.0000000000000000e+00" itree="132">
      <Node pos="s" depth="0" NCoef="0" IVar="0" Cut="1.1955072879791260e+00" cType="1" res="-9.2642502859234810e-03" rms="4.6515405178070068e-01" purity="5.0258052349090576e-01" nType="0">
        <Node pos="l" depth="1" NCoef="0" IVar="2" Cut="7.5192010402679443e-01" cType="1" res="2.8621628880500793e-02" rms="4.7044175863265991e-01" purity="6.0345715284347534e-01" nType="0">
          <Node pos="l" depth="2" NCoef="0" IVar="-1" Cut="0.0000000000000000e+00" cType="1" res="-2.5409841910004616e-03" rms="4.6986606717109680e-01" purity="3.4882068634033203e-01" nType="-99"/>
          <Node pos="r" depth="2" NCoef="0" IVar="-1" Cut="0.0000000000000000e+00" cType="1" res="1.5159692848101258e-03" rms="4.6804013848304749e-01" purity="6.3217347860336304e-01" nType="-99"/>
        </Node>
        <Node pos="r" depth="1" NCoef="0" IVar="3" Cut="6.0787792205810547e+01" cType="1" res="-6.1795134097337723e-02" rms="4.5250317454338074e-01" purity="3.6270931363105774e-01" nType="0">
          <Node pos="l" depth="2" NCoef="0" IVar="-1" Cut="0.0000000000000000e+00" cType="1" res="-3.1906403601169586e-03" rms="4.2437613010406494e-01" purity="2.8282970190048218e-01" nType="-99"/>
          <Node pos="r" depth="2" NCoef="0" IVar="-1" Cut="0.0000000000000000e+00" cType="1" res="-6.1273656319826841e-04" rms="4.6115374565124512e-01" purity="4.0287891030311584e-01" nType="-99"/>
        </Node>
      </Node>
    </BinaryTree>
    <BinaryTree type="DecisionTree" boostWeight="1.0000000000000000e+00" itree="133">
      <Node pos="s" depth="0" NCoef="0" IVar="0" Cut="1.0000327825546265e+00" cType="1" res="-1.7420027405023575e-02" rms="4.6666201949119568e-01" purity="4.9643585085868835e-01" nType="0">
        <Node pos="l" depth="1" NCoef="0" IVar="3" Cut="8.3227897644042969e+01" cType="1" res="3.6735560745000839e-02" rms="4.6649119257926941e-01" purity="6.3828390836715698e-01" nType="0">
          <Node pos="l" depth="2" NCoef="0" IVar="-1" Cut="0.0000000000000000e+00" cType="1" res="1.2414179218467325e-04" rms="4.8058542609214783e-01" purity="5.9229993820190430e-01" nType="-99"/>
          <Node pos="r" depth="2" NCoef="0" IVar="-1" Cut="0.0000000000000000e+00" cType="1" res="3.6196031142026186e-03" rms="4.3676242232322693e-01" purity="7.1439343690872192e-01" nType="-99"/>
        </Node>
        <Node pos="r" depth="1" NCoef="0" IVar="3" Cut="8.9588233947753906e+01" cType="1" res="-5.1994241774082184e-02" rms="4.6347323060035706e-01" purity="4.0587663650512695e-01" nType="0">
          <Node pos="l" depth="2" NCoef="0" IVar="-1" Cut="0.0000000000000000e+00" cType="1" res="-2.2490546107292175e-03" rms="4.5584091544151306e-01" purity="3.6589589715003967e-01" nType="-99"/>
          <Node pos="r" depth="2" NCoef="0" IVar="-1" Cut="0.0000000000000000e+00" cType="1" res="1.8089852528646588e-04" rms="4.6894058585166931e-01" purity="4.6701493859291077e-01" nType="-99"/>
        </Node>
      </Node>
    </BinaryTree>
    <BinaryTree type="DecisionTree" boostWeight="1.0000000000000000e+00" itree="134">
      <Node pos="s" depth="0" NCoef="0" IVar="3" Cut="4.5166519165039062e+01" cType="1" res="-1.6042863950133324e-02" rms="4.6671780943870544e-01" purity="4.9597775936126709e-01" nType="0">
        <Node pos="l" depth="1" NCoef="0" IVar="5" Cut="7.1202987432479858e-01" cType="1" res="-1.0610061883926392e-01" rms="4.6382722258567810e-01" purity="3.9420440793037415e-01" nType="0">
          <Node pos="l" depth="2" NCoef="0" IVar="-1" Cut="0.0000000000000000e+00" cType="1" res="-5.6730315554887056e-04" rms="4.8781707882881165e-01" purity="5.5418467521667480e-01" nType="-99"/>
          <Node pos="r" depth="2" NCoef="0" IVar="-1" Cut="0.0000000000000000e+00" cType="1" res="-3.4088217653334141e-03" rms="4.4818782806396484e-01" purity="3.2643935084342957e-01" nType="-99"/>
        </Node>
        <Node pos="r" depth="1" NCoef="0" IVar="5" Cut="1.4062179327011108e+00" cType="1" res="3.5642371512949467e-03" rms="4.6503862738609314e-01" purity="5.1813560724258423e-01" nType="0">
          <Node pos="l" depth="2" NCoef="0" IVar="-1" Cut="0.0000000000000000e+00" cType="1" res="9.0204627485945821e-04" rms="4.7216826677322388e-01" purity="5.9387868642807007e-01" nType="-99"/>
          <Node pos="r" depth="2" NCoef="0" IVar="-1" Cut="0.0000000000000000e+00" cType="1" res="-1.9149036379531026e-03" rms="4.2963513731956482e-01" purity="2.6034501194953918e-01" nType="-99"/>
        </Node>
      </Node>
    </BinaryTree>
    <BinaryTree type="DecisionTree" boostWeight="1.0000000000000000e+00" itree="135">
      <Node pos="s" depth="0" NCoef="0" IVar="5" Cut="9.5997202396392822e-01" cType="1" res="-1.0391627438366413e-02" rms="4.6648335456848145e-01" purity="5.0201511383056641e-01" nType="0">
        <Node pos="l" depth="1" NCoef="0" IVar="2" Cut="8.9060938358306885e-01" cType="1" res="3.9323721081018448e-02" rms="4.6472606062889099e-01" purity="6.4142870903015137e-01" nType="0">
          <Node pos="l" depth="2" NCoef="0" IVar="-1" Cut="0.0000000000000000e+00" cType="1" res="1.5948529471643269e-04" rms="4.8341986536979675e-01" purity="5.7217401266098022e-01" nType="-99"/>
          <Node pos="r" depth="2" NCoef="0" IVar="-1" Cut="0.0000000000000000e+00" cType="1" res="4.1985781863331795e-03" rms="4.2658197879791260e-01" purity="7.5468516349792480e-01" nType="-99"/>
        </Node>
        <Node pos="r" depth="1" NCoef="0" IVar="3" Cut="8.3198196411132812e+01" cType="1" res="-5.1883265376091003e-02" rms="4.6388369798660278e-01" purity="3.8566282391548157e-01" nType="0">
          <Node pos="l" depth="2" NCoef="0" IVar="-1" Cut="0.0000000000000000e+00" cType="1" res="-2.3504337295889854e-03" rms="4.5170322060585022e-01" purity="3.3822742104530334e-01" nType="-99"/>
          <Node pos="r" depth="2" NCoef="0" IVar="-1" Cut="0.0000000000000000e+00" cType="1" res="-5.3756808483740315e-05" rms="4.7213810682296753e-01" purity="4.3861675262451172e-01" nType="-99"/>
        </Node>
      </Node>
    </BinaryTree>
    <BinaryTree type="DecisionTree" boostWeight="1.0000000000000000e+00" itree="136">
      <Node pos="s" depth="0" NCoef="0" IVar="5" Cut="1.4587464332580566e+00" cType="1" res="-1.2695038691163063e-02" rms="4.6504202485084534e-01" purity="4.9962463974952698e-01" nType="0">
        <Node pos="l" depth="1" NCoef="0" IVar="2" Cut="8.6688232421875000e-01" cType="1" res="1.0257379151880741e-02" rms="4.7491937875747681e-01" purity="5.6626695394515991e-01" nType="0">
          <Node pos="l" depth="2" NCoef="0" IVar="-1" Cut="0.0000000000000000e+00" cType="1" res="-8.4386160597205162e-04" rms="4.8387596011161804e-01" purity="4.7004795074462891e-01" nType="-99"/>
          <Node pos="r" depth="2" NCoef="0" IVar="-1" Cut="0.0000000000000000e+00" cType="1" res="1.8728853901848197e-03" rms="4.6198454499244690e-01" purity="6.6332054138183594e-01" nType="-99"/>
        </Node>
        <Node pos="r" depth="1" NCoef="0" IVar="5" Cut="1.7536000013351440e+00" cType="1" res="-1.0793360322713852e-01" rms="4.0802383422851562e-01" purity="2.2309982776641846e-01" nType="0">
          <Node pos="l" depth="2" NCoef="0" IVar="-1" Cut="0.0000000000000000e+00" cType="1" res="-1.6871331026777625e-03" rms="4.4114348292350769e-01" purity="2.7803456783294678e-01" nType="-99"/>
          <Node pos="r" depth="2" NCoef="0" IVar="-1" Cut="0.0000000000000000e+00" cType="1" res="-3.5703037865459919e-03" rms="3.5200098156929016e-01" purity="1.4847694337368011e-01" nType="-99"/>
        </Node>
      </Node>
    </BinaryTree>
    <BinaryTree type="DecisionTree" boostWeight="1.0000000000000000e+00" itree="137">
      <Node pos="s" depth="0" NCoef="0" IVar="1" Cut="1.0439851284027100e+00" cType="1" res="-1.5553380362689495e-02" rms="4.6657514572143555e-01" purity="4.9763751029968262e-01" nType="0">
        <Node pos="l" depth="1" NCoef="0" IVar="3" Cut="8.3095695495605469e+01" cType="1" res="3.1425584107637405e-02" rms="4.6831536293029785e-01" purity="5.8944827318191528e-01" nType="0">
          <Node pos="l" depth="2" NCoef="0" IVar="-1" Cut="0.0000000000000000e+00" cType="1" res="-1.1313540016999468e-04" rms="4.7797903418540955e-01" purity="5.4943388700485229e-01" nType="-99"/>
          <Node pos="r" depth="2" NCoef="0" IVar="-1" Cut="0.0000000000000000e+00" cType="1" res="2.8575917240232229e-03" rms="4.4994446635246277e-01" purity="6.4525699615478516e-01" nType="-99"/>
        </Node>
        <Node pos="r" depth="1" NCoef="0" IVar="2" Cut="8.2503336668014526e-01" cType="1" res="-6.7502088844776154e-02" rms="4.5907968282699585e-01" purity="3.9611449837684631e-01" nType="0">
          <Node pos="l" depth="2" NCoef="0" IVar="-1" Cut="0.0000000000000000e+00" cType="1" res="-2.8892336413264275e-03" rms="4.2725014686584473e-01" purity="2.7004888653755188e-01" nType="-99"/>
          <Node pos="r" depth="2" NCoef="0" IVar="-1" Cut="0.0000000000000000e+00" cType="1" res="-9.6974638290703297e-04" rms="4.7371658682823181e-01" purity="4.7009611129760742e-01" nType="-99"/>
        </Node>
      </Node>
    </BinaryTree>
    <BinaryTree type="DecisionTree" boostWeight="1.0000000000000000e+00" itree="138">
      <Node pos="s" depth="0" NCoef="0" IVar="5" Cut="9.6981710195541382e-01" cType="1" res="-7.2669065557420254e-03" rms="4.6435293555259705e-01" purity="5.0463843345642090e-01" nType="0">
        <Node pos="l" depth="1" NCoef="0" IVar="3" Cut="8.4648330688476562e+01" cType="1" res="4.3109629303216934e-02" rms="4.6446275711059570e-01" purity="6.4656120538711548e-01" nType="0">
          <Node pos="l" depth="2" NCoef="0" IVar="-1" Cut="0.0000000000000000e+00" cType="1" res="3.3664715010672808e-04" rms="4.8013362288475037e-01" purity="5.9881371259689331e-01" nType="-99"/>
          <Node pos="r" depth="2" NCoef="0" IVar="-1" Cut="0.0000000000000000e+00" cType="1" res="4.2933723889291286e-03" rms="4.2718559503555298e-01" purity="7.3542541265487671e-01" nType="-99"/>
        </Node>
        <Node pos="r" depth="1" NCoef="0" IVar="7" Cut="6.8330919742584229e-01" cType="1" res="-5.2423417568206787e-02" rms="4.5958489179611206e-01" purity="3.7742158770561218e-01" nType="0">
          <Node pos="l" depth="2" NCoef="0" IVar="-1" Cut="0.0000000000000000e+00" cType="1" res="-2.2139891516417265e-03" rms="4.4090297818183899e-01" purity="3.0632129311561584e-01" nType="-99"/>
          <Node pos="r" depth="2" NCoef="0" IVar="-1" Cut="0.0000000000000000e+00" cType="1" res="1.3039505574852228e-04" rms="4.8004010319709778e-01" purity="4.8180007934570312e-01" nType="-99"/>
        </Node>
      </Node>
    </BinaryTree>
    <BinaryTree type="DecisionTree" boostWeight="1.0000000000000000e+00" itree="139">
      <Node pos="s" depth="0" NCoef="0" IVar="2" Cut="7.5192010402679443e-01" cType="1" res="-1.4047383330762386e-02" rms="4.6894067525863647e-01" purity="5.0074815750122070e-01" nType="0">
        <Node pos="l" depth="1" NCoef="0" IVar="-1" Cut="0.0000000000000000e+00" cType="1" res="-2.9669222421944141e-03" rms="4.3282145261764526e-01" purity="2.7895233035087585e-01" nType="-99"/>
        <Node pos="r" depth="1" NCoef="0" IVar="1" Cut="2.5544364452362061e+00" cType="1" res="-7.6379923848435283e-04" rms="4.7123411297798157e-01" purity="5.2684503793716431e-01" nType="0">
          <Node pos="l" depth="2" NCoef="0" IVar="-1" Cut="0.0000000000000000e+00" cType="1" res="3.0842024716548622e-04" rms="4.7360432147979736e-01" purity="5.4892361164093018e-01" nType="-99"/>
          <Node pos="r" depth="2" NCoef="0" IVar="-1" Cut="0.0000000000000000e+00" cType="1" res="-3.0416310764849186e-03" rms="4.2130637168884277e-01" purity="2.6355719566345215e-01" nType="-99"/>
        </Node>
      </Node>
    </BinaryTree>
    <BinaryTree type="DecisionTree" boostWeight="1.0000000000000000e+00" itree="140">
      <Node pos="s" depth="0" NCoef="0" IVar="1" Cut="1.6390750408172607e+00" cType="1" res="-1.5430918894708157e-02" rms="4.6659314632415771e-01" purity="4.9770629405975342e-01" nType="0">
        <Node pos="l" depth="1" NCoef="0" IVar="8" Cut="6.3038706779479980e-01" cType="1" res="8.4423599764704704e-03" rms="4.7058233618736267e-01" purity="5.4918652772903442e-01" nType="0">
          <Node pos="l" depth="2" NCoef="0" IVar="-1" Cut="0.0000000000000000e+00" cType="1" res="-2.7666045934893191e-04" rms="4.7405356168746948e-01" purity="5.1856034994125366e-01" nType="-99"/>
          <Node pos="r" depth="2" NCoef="0" IVar="-1" Cut="0.0000000000000000e+00" cType="1" res="3.4105598460882902e-03" rms="4.4586193561553955e-01" purity="6.8714493513107300e-01" nType="-99"/>
        </Node>
        <Node pos="r" depth="1" NCoef="0" IVar="3" Cut="5.6766223907470703e+01" cType="1" res="-9.1762281954288483e-02" rms="4.4509202241897583e-01" purity="3.3310580253601074e-01" nType="0">
          <Node pos="l" depth="2" NCoef="0" IVar="-1" Cut="0.0000000000000000e+00" cType="1" res="-3.6302772350609303e-03" rms="4.2038854956626892e-01" purity="2.6715290546417236e-01" nType="-99"/>
          <Node pos="r" depth="2" NCoef="0" IVar="-1" Cut="0.0000000000000000e+00" cType="1" res="-1.5862530563026667e-03" rms="4.5225876569747925e-01" purity="3.6193329095840454e-01" nType="-99"/>
        </Node>
      </Node>
    </BinaryTree>
    <BinaryTree type="DecisionTree" boostWeight="1.0000000000000000e+00" itree="141">
      <Node pos="s" depth="0" NCoef="0" IVar="1" Cut="1.4903025627136230e+00" cType="1" res="-1.4347305521368980e-02" rms="4.6518358588218689e-01" purity="4.9775975942611694e-01" nType="0">
        <Node pos="l" depth="1" NCoef="0" IVar="3" Cut="4.4507881164550781e+01" cType="1" res="1.4195413328707218e-02" rms="4.6857136487960815e-01" purity="5.5821478366851807e-01" nType="0">
          <Node pos="l" depth="2" NCoef="0" IVar="-1" Cut="0.0000000000000000e+00" cType="1" res="-2.3158998228609562e-03" rms="4.7434166073799133e-01" purity="4.3660497665405273e-01" nType="-99"/>
          <Node pos="r" depth="2" NCoef="0" IVar="-1" Cut="0.0000000000000000e+00" cType="1" res="1.1255349963903427e-03" rms="4.6468663215637207e-01" purity="5.8291393518447876e-01" nType="-99"/>
        </Node>
        <Node pos="r" depth="1" NCoef="0" IVar="8" Cut="6.0784167051315308e-01" cType="1" res="-8.4476642310619354e-02" rms="4.4911429286003113e-01" purity="3.4922194480895996e-01" nType="0">
          <Node pos="l" depth="2" NCoef="0" IVar="-1" Cut="0.0000000000000000e+00" cType="1" res="-2.6171724312007427e-03" rms="4.4128343462944031e-01" purity="3.1276178359985352e-01" nType="-99"/>
          <Node pos="r" depth="2" NCoef="0" IVar="-1" Cut="0.0000000000000000e+00" cType="1" res="-3.0307992710731924e-04" rms="4.6548378467559814e-01" purity="4.6479991078376770e-01" nType="-99"/>
        </Node>
      </Node>
    </BinaryTree>
    <BinaryTree type="DecisionTree" boostWeight="1.0000000000000000e+00" itree="142">
      <Node pos="s" depth="0" NCoef="0" IVar="7" Cut="7.1482580900192261e-01" cType="1" res="-1.1345885694026947e-02" rms="4.6675133705139160e-01" purity="5.0106549263000488e-01" nType="0">
        <Node pos="l" depth="1" NCoef="0" IVar="5" Cut="9.7795456647872925e-01" cType="1" res="-4.1514512151479721e-02" rms="4.6662902832031250e-01" purity="4.3274682760238647e-01" nType="0">
          <Node pos="l" depth="2" NCoef="0" IVar="-1" Cut="0.0000000000000000e+00" cType="1" res="9.4051778432913125e-05" rms="4.8263618350028992e-01" purity="5.6620925664901733e-01" nType="-99"/>
          <Node pos="r" depth="2" NCoef="0" IVar="-1" Cut="0.0000000000000000e+00" cType="1" res="-1.9187104189768434e-03" rms="4.4945988059043884e-01" purity="3.2133898138999939e-01" nType="-99"/>
        </Node>
        <Node pos="r" depth="1" NCoef="0" IVar="4" Cut="1.6862644958496094e+02" cType="1" res="3.7235762923955917e-02" rms="4.6283352375030518e-01" purity="6.1108148097991943e-01" nType="0">
          <Node pos="l" depth="2" NCoef="0" IVar="-1" Cut="0.0000000000000000e+00" cType="1" res="2.6240346487611532e-03" rms="4.5208653807640076e-01" purity="6.5821564197540283e-01" nType="-99"/>
          <Node pos="r" depth="2" NCoef="0" IVar="-1" Cut="0.0000000000000000e+00" cType="1" res="-5.3656473755836487e-04" rms="4.7406497597694397e-01" purity="5.3704720735549927e-01" nType="-99"/>
        </Node>
      </Node>
    </BinaryTree>
    <BinaryTree type="DecisionTree" boostWeight="1.0000000000000000e+00" itree="143">
      <Node pos="s" depth="0" NCoef="0" IVar="3" Cut="8.8032302856445312e+01" cType="1" res="-1.1451189406216145e-02" rms="4.6786177158355713e-01" purity="5.0248706340789795e-01" nType="0">
        <Node pos="l" depth="1" NCoef="0" IVar="5" Cut="8.4607684612274170e-01" cType="1" res="-4.4390499591827393e-02" rms="4.6950280666351318e-01" purity="4.6600636839866638e-01" nType="0">
          <Node pos="l" depth="2" NCoef="0" IVar="-1" Cut="0.0000000000000000e+00" cType="1" res="3.5753441625274718e-04" rms="4.7793844342231750e-01" purity="6.0430783033370972e-01" nType="-99"/>
          <Node pos="r" depth="2" NCoef="0" IVar="-1" Cut="0.0000000000000000e+00" cType="1" res="-2.0640725269913673e-03" rms="4.6001267433166504e-01" purity="3.7290865182876587e-01" nType="-99"/>
        </Node>
        <Node pos="r" depth="1" NCoef="0" IVar="1" Cut="1.0518492460250854e+00" cType="1" res="4.1666254401206970e-02" rms="4.6026402711868286e-01" purity="5.6131529808044434e-01" nType="0">
          <Node pos="l" depth="2" NCoef="0" IVar="-1" Cut="0.0000000000000000e+00" cType="1" res="3.5134602803736925e-03" rms="4.4291514158248901e-01" purity="6.6368907690048218e-01" nType="-99"/>
          <Node pos="r" depth="2" NCoef="0" IVar="-1" Cut="0.0000000000000000e+00" cType="1" res="-4.5708686229772866e-04" rms="4.7160908579826355e-01" purity="4.4989079236984253e-01" nType="-99"/>
        </Node>
      </Node>
    </BinaryTree>
    <BinaryTree type="DecisionTree" boostWeight="1.0000000000000000e+00" itree="144">
      <Node pos="s" depth="0" NCoef="0" IVar="5" Cut="9.7356766462326050e-01" cType="1" res="-1.7166342586278915e-02" rms="4.6590840816497803e-01" purity="4.9418890476226807e-01" nType="0">
        <Node pos="l" depth="1" NCoef="0" IVar="7" Cut="6.4109134674072266e-01" cType="1" res="2.4318354204297066e-02" rms="4.6820124983787537e-01" purity="6.2709671258926392e-01" nType="0">
          <Node pos="l" depth="2" NCoef="0" IVar="-1" Cut="0.0000000000000000e+00" cType="1" res="-6.0398277128115296e-04" rms="4.8667073249816895e-01" purity="5.2802151441574097e-01" nType="-99"/>
          <Node pos="r" depth="2" NCoef="0" IVar="-1" Cut="0.0000000000000000e+00" cType="1" res="2.4456169921904802e-03" rms="4.4937559962272644e-01" purity="7.0718538761138916e-01" nType="-99"/>
        </Node>
        <Node pos="r" depth="1" NCoef="0" IVar="3" Cut="8.2521629333496094e+01" cType="1" res="-5.4360039532184601e-02" rms="4.6067786216735840e-01" purity="3.7502855062484741e-01" nType="0">
          <Node pos="l" depth="2" NCoef="0" IVar="-1" Cut="0.0000000000000000e+00" cType="1" res="-2.3546556476503611e-03" rms="4.4837284088134766e-01" purity="3.2786411046981812e-01" nType="-99"/>
          <Node pos="r" depth="2" NCoef="0" IVar="-1" Cut="0.0000000000000000e+00" cType="1" res="-2.3708443040959537e-04" rms="4.6921622753143311e-01" purity="4.2543992400169373e-01" nType="-99"/>
        </Node>
      </Node>
    </BinaryTree>
    <BinaryTree type="DecisionTree" boostWeight="1.0000000000000000e+00" itree="145">
      <Node pos="s" depth="0" NCoef="0" IVar="5" Cut="1.6896111965179443e+00" cType="1" res="-7.8000640496611595e-03" rms="4.6515193581581116e-01" purity="5.0387489795684814e-01" nType="0">
        <Node pos="l" depth="1" NCoef="0" IVar="3" Cut="8.5582702636718750e+01" cType="1" res="6.0724369250237942e-03" rms="4.7247728705406189e-01" purity="5.4195642471313477e-01" nType="0">
          <Node pos="l" depth="2" NCoef="0" IVar="-1" Cut="0.0000000000000000e+00" cType="1" res="-7.4691616464406252e-04" rms="4.7598606348037720e-01" purity="5.0242149829864502e-01" nType="-99"/>
          <Node pos="r" depth="2" NCoef="0" IVar="-1" Cut="0.0000000000000000e+00" cType="1" res="1.8739597871899605e-03" rms="4.6252748370170593e-01" purity="6.0361582040786743e-01" nType="-99"/>
        </Node>
        <Node pos="r" depth="1" NCoef="0" IVar="-1" Cut="0.0000000000000000e+00" cType="1" res="-2.9533528722822666e-03" rms="3.7555366754531860e-01" purity="1.7502178251743317e-01" nType="-99"/>
      </Node>
    </BinaryTree>
    <BinaryTree type="DecisionTree" boostWeight="1.0000000000000000e+00" itree="146">
      <Node pos="s" depth="0" NCoef="0" IVar="3" Cut="4.0436477661132812e+01" cType="1" res="-1.5644982457160950e-02" rms="4.6594414114952087e-01" purity="4.9686813354492188e-01" nType="0">
        <Node pos="l" depth="1" NCoef="0" IVar="5" Cut="8.3600097894668579e-01" cType="1" res="-1.2888115644454956e-01" rms="4.5283994078636169e-01" purity="3.6156266927719116e-01" nType="0">
          <Node pos="l" depth="2" NCoef="0" IVar="-1" Cut="0.0000000000000000e+00" cType="1" res="-1.8954396946355700e-03" rms="4.8805019259452820e-01" purity="4.9708127975463867e-01" nType="-99"/>
          <Node pos="r" depth="2" NCoef="0" IVar="-1" Cut="0.0000000000000000e+00" cType="1" res="-3.9781914092600346e-03" rms="4.1961288452148438e-01" purity="2.6286733150482178e-01" nType="-99"/>
        </Node>
        <Node pos="r" depth="1" NCoef="0" IVar="9" Cut="9.7934013605117798e-01" cType="1" res="1.0142924729734659e-03" rms="4.6552261710166931e-01" purity="5.1677423715591431e-01" nType="0">
          <Node pos="l" depth="2" NCoef="0" IVar="-1" Cut="0.0000000000000000e+00" cType="1" res="-9.6489622956141829e-04" rms="4.6760442852973938e-01" purity="4.5384949445724487e-01" nType="-99"/>
          <Node pos="r" depth="2" NCoef="0" IVar="-1" Cut="0.0000000000000000e+00" cType="1" res="1.7926358850672841e-03" rms="4.5745402574539185e-01" purity="6.0899454355239868e-01" nType="-99"/>
        </Node>
      </Node>
    </BinaryTree>
    <BinaryTree type="DecisionTree" boostWeight="1.0000000000000000e+00" itree="147">
      <Node pos="s" depth="0" NCoef="0" IVar="0" Cut="1.4924813508987427e+00" cType="1" res="-6.1620990745723248e-03" rms="4.6682405471801758e-01" purity="5.0871157646179199e-01" nType="0">
        <Node pos="l" depth="1" NCoef="0" IVar="3" Cut="4.0436477661132812e+01" cType="1" res="1.1734237894415855e-02" rms="4.7169473767280579e-01" purity="5.5337703227996826e-01" nType="0">
          <Node pos="l" depth="2" NCoef="0" IVar="-1" Cut="0.0000000000000000e+00" cType="1" res="-2.3381847422569990e-03" rms="4.7653132677078247e-01" purity="4.2989313602447510e-01" nType="-99"/>
          <Node pos="r" depth="2" NCoef="0" IVar="-1" Cut="0.0000000000000000e+00" cType="1" res="8.3896797150373459e-04" rms="4.6920809149742126e-01" purity="5.7107532024383545e-01" nType="-99"/>
        </Node>
        <Node pos="r" depth="1" NCoef="0" IVar="3" Cut="8.6343948364257812e+01" cType="1" res="-9.5395684242248535e-02" rms="4.3078106641769409e-01" purity="2.8600326180458069e-01" nType="0">
          <Node pos="l" depth="2" NCoef="0" IVar="-1" Cut="0.0000000000000000e+00" cType="1" res="-3.1920447945594788e-03" rms="4.0923935174942017e-01" purity="2.3910276591777802e-01" nType="-99"/>
          <Node pos="r" depth="2" NCoef="0" IVar="-1" Cut="0.0000000000000000e+00" cType="1" res="-9.8892999812960625e-04" rms="4.5189797878265381e-01" purity="3.4912392497062683e-01" nType="-99"/>
        </Node>
      </Node>
    </BinaryTree>
    <BinaryTree type="DecisionTree" boostWeight="1.0000000000000000e+00" itree="148">
      <Node pos="s" depth="0" NCoef="0" IVar="1" Cut="7.4819099903106689e-01" cType="1" res="-1.4645198360085487e-02" rms="4.6722739934921265e-01" purity="4.9967843294143677e-01" nType="0">
        <Node pos="l" depth="1" NCoef="0" IVar="3" Cut="8.3095695495605469e+01" cType="1" res="3.6917142570018768e-02" rms="4.6454179286956787e-01" purity="6.0390502214431763e-01" nType="0">
          <Node pos="l" depth="2" NCoef="0" IVar="-1" Cut="0.0000000000000000e+00" cType="1" res="1.0942380322376266e-04" rms="4.7770297527313232e-01" purity="5.6233477592468262e-01" nType="-99"/>
          <Node pos="r" depth="2" NCoef="0" IVar="-1" Cut="0.0000000000000000e+00" cType="1" res="3.1171124428510666e-03" rms="4.4056501984596252e-01" purity="6.6357344388961792e-01" nType="-99"/>
        </Node>
        <Node pos="r" depth="1" NCoef="0" IVar="8" Cut="6.2135571241378784e-01" cType="1" res="-4.4551145285367966e-02" rms="4.6617206931114197e-01" purity="4.3922737240791321e-01" nType="0">
          <Node pos="l" depth="2" NCoef="0" IVar="-1" Cut="0.0000000000000000e+00" cType="1" res="-1.7334730364382267e-03" rms="4.6453660726547241e-01" purity="4.0343821048736572e-01" nType="-99"/>
          <Node pos="r" depth="2" NCoef="0" IVar="-1" Cut="0.0000000000000000e+00" cType="1" res="1.5292250318452716e-03" rms="4.6214491128921509e-01" purity="5.9062433242797852e-01" nType="-99"/>
        </Node>
      </Node>
    </BinaryTree>
    <BinaryTree type="DecisionTree" boostWeight="1.0000000000000000e+00" itree="149">
      <Node pos="s" depth="0" NCoef="0" IVar="5" Cut="1.5822749137878418e+00" cType="1" res="-1.1926117353141308e-02" rms="4.6527412533760071e-01" purity="5.0177943706512451e-01" nType="0">
        <Node pos="l" depth="1" NCoef="0" IVar="7" Cut="5.6759107112884521e-01" cType="1" res="4.7358986921608448e-03" rms="4.7380572557449341e-01" purity="5.4942828416824341e-01" nType="0">
          <Node pos="l" depth="2" NCoef="0" IVar="-1" Cut="0.0000000000000000e+00" cType="1" res="-1.4993563527241349e-03" rms="4.7376024723052979e-01" purity="4.2168858647346497e-01" nType="-99"/>
          <Node pos="r" depth="2" NCoef="0" IVar="-1" Cut="0.0000000000000000e+00" cType="1" res="8.9224020484834909e-04" rms="4.7177276015281677e-01" purity="5.9578937292098999e-01" nType="-99"/>
        </Node>
        <Node pos="r" depth="1" NCoef="0" IVar="-1" Cut="0.0000000000000000e+00" cType="1" res="-2.7955994009971619e-03" rms="3.8922691345214844e-01" purity="1.9458372890949249e-01" nType="-99"/>
      </Node>
    </BinaryTree>
    <BinaryTree type="DecisionTree" boostWeight="1.0000000000000000e+00" itree="150">
      <Node pos="s" depth="0" NCoef="0" IVar="2" Cut="8.4648138284683228e-01" cType="1" res="-7.4804173782467842e-03" rms="4.6403020620346069e-01" purity="5.0541925430297852e-01" nType="0">
        <Node pos="l" depth="1" NCoef="0" IVar="5" Cut="8.8840252161026001e-01" cType="1" res="-5.7937428355216980e-02" rms="4.6059539914131165e-01" purity="3.8145029544830322e-01" nType="0">
          <Node pos="l" depth="2" NCoef="0" IVar="-1" Cut="0.0000000000000000e+00" cType="1" res="1.2410897761583328e-04" rms="4.8833921551704407e-01" purity="5.3177839517593384e-01" nType="-99"/>
          <Node pos="r" depth="2" NCoef="0" IVar="-1" Cut="0.0000000000000000e+00" cType="1" res="-2.2549454588443041e-03" rms="4.4012832641601562e-01" purity="2.9593250155448914e-01" nType="-99"/>
        </Node>
        <Node pos="r" depth="1" NCoef="0" IVar="3" Cut="4.7998847961425781e+01" cType="1" res="3.1821232289075851e-02" rms="4.6289321780204773e-01" purity="6.0198032855987549e-01" nType="0">
          <Node pos="l" depth="2" NCoef="0" IVar="-1" Cut="0.0000000000000000e+00" cType="1" res="-1.1836723424494267e-03" rms="4.6828469634056091e-01" purity="5.0550085306167603e-01" nType="-99"/>
          <Node pos="r" depth="2" NCoef="0" IVar="-1" Cut="0.0000000000000000e+00" cType="1" res="1.7327427631244063e-03" rms="4.5977258682250977e-01" purity="6.2584984302520752e-01" nType="-99"/>
        </Node>
      </Node>
    </BinaryTree>
    <BinaryTree type="DecisionTree" boostWeight="1.0000000000000000e+00" itree="151">
      <Node pos="s" depth="0" NCoef="0" IVar="1" Cut="1.3315614461898804e+00" cType="1" res="-1.0140152648091316e-02" rms="4.6511396765708923e-01" purity="5.0248122215270996e-01" nType="0">
        <Node pos="l" depth="1" NCoef="0" IVar="4" Cut="1.7164093017578125e+02" cType="1" res="1.6861511394381523e-02" rms="4.6706712245941162e-01" purity="5.6516760587692261e-01" nType="0">
          <Node pos="l" depth="2" NCoef="0" IVar="-1" Cut="0.0000000000000000e+00" cType="1" res="1.6755589749664068e-03" rms="4.6297016739845276e-01" purity="6.1372274160385132e-01" nType="-99"/>
          <Node pos="r" depth="2" NCoef="0" IVar="-1" Cut="0.0000000000000000e+00" cType="1" res="-9.8480284214019775e-04" rms="4.6880185604095459e-01" purity="4.9032971262931824e-01" nType="-99"/>
        </Node>
        <Node pos="r" depth="1" NCoef="0" IVar="9" Cut="9.7072178125381470e-01" cType="1" res="-6.3227795064449310e-02" rms="4.5661762356758118e-01" purity="3.7923410534858704e-01" nType="0">
          <Node pos="l" depth="2" NCoef="0" IVar="-1" Cut="0.0000000000000000e+00" cType="1" res="-2.4476838298141956e-03" rms="4.4134724140167236e-01" purity="3.1116646528244019e-01" nType="-99"/>
          <Node pos="r" depth="2" NCoef="0" IVar="-1" Cut="0.0000000000000000e+00" cType="1" res="-6.4898486016318202e-04" rms="4.6978682279586792e-01" purity="4.5471489429473877e-01" nType="-99"/>
        </Node>
      </Node>
    </BinaryTree>
    <BinaryTree type="DecisionTree" boostWeight="1.0000000000000000e+00" itree="152">
      <Node pos="s" depth="0" NCoef="0" IVar="1" Cut="2.0858314037322998e+00" cType="1" res="-8.0831414088606834e-03" rms="4.6524721384048462e-01" purity="5.0501060485839844e-01" nType="0">
        <Node pos="l" depth="1" NCoef="0" IVar="2" Cut="7.5467717647552490e-01" cType="1" res="7.5422213412821293e-03" rms="4.6946203708648682e-01" purity="5.3931236267089844e-01" nType="0">
          <Node pos="l" depth="2" NCoef="0" IVar="-1" Cut="0.0000000000000000e+00" cType="1" res="-2.4948415812104940e-03" rms="4.5688515901565552e-01" purity="3.1489062309265137e-01" nType="-99"/>
          <Node pos="r" depth="2" NCoef="0" IVar="-1" Cut="0.0000000000000000e+00" cType="1" res="6.9319747854024172e-04" rms="4.6911013126373291e-01" purity="5.6788963079452515e-01" nType="-99"/>
        </Node>
        <Node pos="r" depth="1" NCoef="0" IVar="6" Cut="1.8686274066567421e-02" cType="1" res="-1.0745943337678909e-01" rms="4.2422965168952942e-01" purity="2.8685399889945984e-01" nType="0">
          <Node pos="l" depth="2" NCoef="0" IVar="-1" Cut="0.0000000000000000e+00" cType="1" res="-2.3576649837195873e-03" rms="4.4413116574287415e-01" purity="3.3416160941123962e-01" nType="-99"/>
          <Node pos="r" depth="2" NCoef="0" IVar="-1" Cut="0.0000000000000000e+00" cType="1" res="-2.8364916797727346e-03" rms="4.0414765477180481e-01" purity="2.4198612570762634e-01" nType="-99"/>
        </Node>
      </Node>
    </BinaryTree>
    <BinaryTree type="DecisionTree" boostWeight="1.0000000000000000e+00" itree="153">
      <Node pos="s" depth="0" NCoef="0" IVar="5" Cut="1.6242030858993530e+00" cType="1" res="-8.7997056543827057e-03" rms="4.6682924032211304e-01" purity="5.0559085607528687e-01" nType="0">
        <Node pos="l" depth="1" NCoef="0" IVar="2" Cut="7.7939003705978394e-01" cType="1" res="4.3951114639639854e-03" rms="4.7387486696243286e-01" purity="5.4585111141204834e-01" nType="0">
          <Node pos="l" depth="2" NCoef="0" IVar="-1" Cut="0.0000000000000000e+00" cType="1" res="-1.7832595622166991e-03" rms="4.7088780999183655e-01" purity="3.6380043625831604e-01" nType="-99"/>
          <Node pos="r" depth="2" NCoef="0" IVar="-1" Cut="0.0000000000000000e+00" cType="1" res="6.4179243054240942e-04" rms="4.7295722365379333e-01" purity="5.8290511369705200e-01" nType="-99"/>
        </Node>
        <Node pos="r" depth="1" NCoef="0" IVar="-1" Cut="0.0000000000000000e+00" cType="1" res="-2.5708938483148813e-03" rms="3.9521494507789612e-01" purity="1.9968202710151672e-01" nType="-99"/>
      </Node>
    </BinaryTree>
    <BinaryTree type="DecisionTree" boostWeight="1.0000000000000000e+00" itree="154">
      <Node pos="s" depth="0" NCoef="0" IVar="5" Cut="1.5766414403915405e+00" cType="1" res="-1.2978502549231052e-02" rms="4.6551716327667236e-01" purity="4.9989113211631775e-01" nType="0">
        <Node pos="l" depth="1" NCoef="0" IVar="8" Cut="6.0784167051315308e-01" cType="1" res="2.3876181803643703e-03" rms="4.7404655814170837e-01" purity="5.4738551378250122e-01" nType="0">
          <Node pos="l" depth="2" NCoef="0" IVar="-1" Cut="0.0000000000000000e+00" cType="1" res="-6.0733291320502758e-04" rms="4.7913283109664917e-01" purity="5.0523698329925537e-01" nType="-99"/>
          <Node pos="r" depth="2" NCoef="0" IVar="-1" Cut="0.0000000000000000e+00" cType="1" res="2.4327421560883522e-03" rms="4.5346766710281372e-01" purity="6.6367465257644653e-01" nType="-99"/>
        </Node>
        <Node pos="r" depth="1" NCoef="0" IVar="-1" Cut="0.0000000000000000e+00" cType="1" res="-2.5815311819314957e-03" rms="3.9452564716339111e-01" purity="2.0190846920013428e-01" nType="-99"/>
      </Node>
    </BinaryTree>
    <BinaryTree type="DecisionTree" boostWeight="1.0000000000000000e+00" itree="155">
      <Node pos="s" depth="0" NCoef="0" IVar="5" Cut="1.4457341432571411e+00" cType="1" res="-8.0239037051796913e-03" rms="4.6392369270324707e-01" purity="5.0353747606277466e-01" nType="0">
        <Node pos="l" depth="1" NCoef="0" IVar="3" Cut="8.9541656494140625e+01" cType="1" res="1.4010467566549778e-02" rms="4.7402429580688477e-01" purity="5.7297819852828979e-01" nType="0">
          <Node pos="l" depth="2" NCoef="0" IVar="-1" Cut="0.0000000000000000e+00" cType="1" res="-5.0904974341392517e-04" rms="4.8109731078147888e-01" purity="5.3151458501815796e-01" nType="-99"/>
          <Node pos="r" depth="2" NCoef="0" IVar="-1" Cut="0.0000000000000000e+00" cType="1" res="2.5445672217756510e-03" rms="4.5505535602569580e-01" purity="6.4972871541976929e-01" nType="-99"/>
        </Node>
        <Node pos="r" depth="1" NCoef="0" IVar="5" Cut="1.7432975769042969e+00" cType="1" res="-9.6001245081424713e-02" rms="4.0953645110130310e-01" purity="2.2627927362918854e-01" nType="0">
          <Node pos="l" depth="2" NCoef="0" IVar="-1" Cut="0.0000000000000000e+00" cType="1" res="-1.6417050501331687e-03" rms="4.3888905644416809e-01" purity="2.7464252710342407e-01" nType="-99"/>
          <Node pos="r" depth="2" NCoef="0" IVar="-1" Cut="0.0000000000000000e+00" cType="1" res="-3.1491003464907408e-03" rms="3.6184594035148621e-01" purity="1.5970617532730103e-01" nType="-99"/>
        </Node>
      </Node>
    </BinaryTree>
    <BinaryTree type="DecisionTree" boostWeight="1.0000000000000000e+00" itree="156">
      <Node pos="s" depth="0" NCoef="0" IVar="2" Cut="8.8643896579742432e-01" cType="1" res="-1.5324609354138374e-02" rms="4.6531143784523010e-01" purity="4.9700841307640076e-01" nType="0">
        <Node pos="l" depth="1" NCoef="0" IVar="5" Cut="1.4518373012542725e+00" cType="1" res="-4.8092249780893326e-02" rms="4.6565121412277222e-01" purity="4.2474702000617981e-01" nType="0">
          <Node pos="l" depth="2" NCoef="0" IVar="-1" Cut="0.0000000000000000e+00" cType="1" res="-8.4129464812576771e-04" rms="4.8329806327819824e-01" purity="4.8799645900726318e-01" nType="-99"/>
          <Node pos="r" depth="2" NCoef="0" IVar="-1" Cut="0.0000000000000000e+00" cType="1" res="-2.7069486677646637e-03" rms="3.8605731725692749e-01" purity="1.9001139700412750e-01" nType="-99"/>
        </Node>
        <Node pos="r" depth="1" NCoef="0" IVar="4" Cut="1.6549176025390625e+02" cType="1" res="4.1876140981912613e-02" rms="4.5914736390113831e-01" purity="6.2315130233764648e-01" nType="0">
          <Node pos="l" depth="2" NCoef="0" IVar="-1" Cut="0.0000000000000000e+00" cType="1" res="2.6275832206010818e-03" rms="4.5017853379249573e-01" purity="6.6472440958023071e-01" nType="-99"/>
          <Node pos="r" depth="2" NCoef="0" IVar="-1" Cut="0.0000000000000000e+00" cType="1" res="-1.0824528726516291e-04" rms="4.6922686696052551e-01" purity="5.5830127000808716e-01" nType="-99"/>
        </Node>
      </Node>
    </BinaryTree>
    <BinaryTree type="DecisionTree" boostWeight="1.0000000000000000e+00" itree="157">
      <Node pos="s" depth="0" NCoef="0" IVar="1" Cut="2.0983452796936035e+00" cType="1" res="-1.5876440331339836e-02" rms="4.6494394540786743e-01" purity="4.9537527561187744e-01" nType="0">
        <Node pos="l" depth="1" NCoef="0" IVar="3" Cut="1.4654072570800781e+02" cType="1" res="-3.4444936318323016e-05" rms="4.6953991055488586e-01" purity="5.2992922067642212e-01" nType="0">
          <Node pos="l" depth="2" NCoef="0" IVar="-1" Cut="0.0000000000000000e+00" cType="1" res="3.1377933919429779e-04" rms="4.6872666478157043e-01" purity="5.4279834032058716e-01" nType="-99"/>
          <Node pos="r" depth="2" NCoef="0" IVar="-1" Cut="0.0000000000000000e+00" cType="1" res="-3.3817423973232508e-03" rms="4.5962423086166382e-01" purity="3.6276558041572571e-01" nType="-99"/>
        </Node>
        <Node pos="r" depth="1" NCoef="0" IVar="-1" Cut="0.0000000000000000e+00" cType="1" res="-2.8256794903427362e-03" rms="4.2012816667556763e-01" purity="2.7293056249618530e-01" nType="-99"/>
      </Node>
    </BinaryTree>
    <BinaryTree type="DecisionTree" boostWeight="1.0000000000000000e+00" itree="158">
      <Node pos="s" depth="0" NCoef="0" IVar="0" Cut="1.3532677888870239e+00" cType="1" res="-8.2688452675938606e-03" rms="4.6499991416931152e-01" purity="5.0371360778808594e-01" nType="0">
        <Node pos="l" depth="1" NCoef="0" IVar="8" Cut="6.1119091510772705e-01" cType="1" res="1.6957148909568787e-02" rms="4.7120648622512817e-01" purity="5.7203090190887451e-01" nType="0">
          <Node pos="l" depth="2" NCoef="0" IVar="-1" Cut="0.0000000000000000e+00" cType="1" res="-1.7957834643311799e-04" rms="4.7724914550781250e-01" purity="5.2857571840286255e-01" nType="-99"/>
          <Node pos="r" depth="2" NCoef="0" IVar="-1" Cut="0.0000000000000000e+00" cType="1" res="3.1182805541902781e-03" rms="4.4777950644493103e-01" purity="6.9302779436111450e-01" nType="-99"/>
        </Node>
        <Node pos="r" depth="1" NCoef="0" IVar="3" Cut="6.1083408355712891e+01" cType="1" res="-7.7166996896266937e-02" rms="4.4030636548995972e-01" purity="3.1712287664413452e-01" nType="0">
          <Node pos="l" depth="2" NCoef="0" IVar="-1" Cut="0.0000000000000000e+00" cType="1" res="-3.5049933940172195e-03" rms="4.0390557050704956e-01" purity="2.3764681816101074e-01" nType="-99"/>
          <Node pos="r" depth="2" NCoef="0" IVar="-1" Cut="0.0000000000000000e+00" cType="1" res="-1.0445489315316081e-03" rms="4.5256298780441284e-01" purity="3.5622051358222961e-01" nType="-99"/>
        </Node>
      </Node>
    </BinaryTree>
    <BinaryTree type="DecisionTree" boostWeight="1.0000000000000000e+00" itree="159">
      <Node pos="s" depth="0" NCoef="0" IVar="1" Cut="1.1128609180450439e+00" cType="1" res="-1.2460698373615742e-02" rms="4.6531376242637634e-01" purity="5.0090497732162476e-01" nType="0">
        <Node pos="l" depth="1" NCoef="0" IVar="3" Cut="9.1038803100585938e+01" cType="1" res="2.7021905407309532e-02" rms="4.6611398458480835e-01" purity="5.8583098649978638e-01" nType="0">
          <Node pos="l" depth="2" NCoef="0" IVar="-1" Cut="0.0000000000000000e+00" cType="1" res="-1.2024355964967981e-04" rms="4.7571605443954468e-01" purity="5.4831677675247192e-01" nType="-99"/>
          <Node pos="r" depth="2" NCoef="0" IVar="-1" Cut="0.0000000000000000e+00" cType="1" res="3.0856463126838207e-03" rms="4.4220665097236633e-01" purity="6.5505874156951904e-01" nType="-99"/>
        </Node>
        <Node pos="r" depth="1" NCoef="0" IVar="3" Cut="5.7698318481445312e+01" cType="1" res="-6.2703549861907959e-02" rms="4.5941305160522461e-01" purity="3.9283397793769836e-01" nType="0">
          <Node pos="l" depth="2" NCoef="0" IVar="-1" Cut="0.0000000000000000e+00" cType="1" res="-2.9208031482994556e-03" rms="4.4872391223907471e-01" purity="3.3721187710762024e-01" nType="-99"/>
          <Node pos="r" depth="2" NCoef="0" IVar="-1" Cut="0.0000000000000000e+00" cType="1" res="-9.3718973221257329e-04" rms="4.6186921000480652e-01" purity="4.1959723830223083e-01" nType="-99"/>
        </Node>
      </Node>
    </BinaryTree>
    <BinaryTree type="DecisionTree" boostWeight="1.0000000000000000e+00" itree="160">
      <Node pos="s" depth="0" NCoef="0" IVar="5" Cut="1.3862445354461670e+00" cType="1" res="-1.4718674123287201e-02" rms="4.6240061521530151e-01" purity="4.9428176879882812e-01" nType="0">
        <Node pos="l" depth="1" NCoef="0" IVar="2" Cut="7.4355262517929077e-01" cType="1" res="7.2783385403454304e-03" rms="4.7366160154342651e-01" purity="5.7102376222610474e-01" nType="0">
          <Node pos="l" depth="2" NCoef="0" IVar="-1" Cut="0.0000000000000000e+00" cType="1" res="-2.6781905908137560e-03" rms="4.6252095699310303e-01" purity="3.2592096924781799e-01" nType="-99"/>
          <Node pos="r" depth="2" NCoef="0" IVar="-1" Cut="0.0000000000000000e+00" cType="1" res="6.0087331803515553e-04" rms="4.7310212254524231e-01" purity="5.9393948316574097e-01" nType="-99"/>
        </Node>
        <Node pos="r" depth="1" NCoef="0" IVar="5" Cut="1.6961323022842407e+00" cType="1" res="-8.8240414857864380e-02" rms="4.1419798135757446e-01" purity="2.3778307437896729e-01" nType="0">
          <Node pos="l" depth="2" NCoef="0" IVar="-1" Cut="0.0000000000000000e+00" cType="1" res="-1.2281861854717135e-03" rms="4.5024907588958740e-01" purity="3.0281132459640503e-01" nType="-99"/>
          <Node pos="r" depth="2" NCoef="0" IVar="-1" Cut="0.0000000000000000e+00" cType="1" res="-3.1604371033608913e-03" rms="3.5889843106269836e-01" purity="1.5702868998050690e-01" nType="-99"/>
        </Node>
      </Node>
    </BinaryTree>
    <BinaryTree type="DecisionTree" boostWeight="1.0000000000000000e+00" itree="161">
      <Node pos="s" depth="0" NCoef="0" IVar="1" Cut="1.8638882637023926e+00" cType="1" res="-1.0734218172729015e-02" rms="4.6357560157775879e-01" purity="5.0094270706176758e-01" nType="0">
        <Node pos="l" depth="1" NCoef="0" IVar="7" Cut="6.3058364391326904e-01" cType="1" res="8.8284015655517578e-03" rms="4.6890687942504883e-01" purity="5.4614681005477905e-01" nType="0">
          <Node pos="l" depth="2" NCoef="0" IVar="-1" Cut="0.0000000000000000e+00" cType="1" res="-8.5425906581804156e-04" rms="4.7064647078514099e-01" purity="4.4574132561683655e-01" nType="-99"/>
          <Node pos="r" depth="2" NCoef="0" IVar="-1" Cut="0.0000000000000000e+00" cType="1" res="1.3623738195747137e-03" rms="4.6523407101631165e-01" purity="6.2293273210525513e-01" nType="-99"/>
        </Node>
        <Node pos="r" depth="1" NCoef="0" IVar="5" Cut="1.4049433469772339e+00" cType="1" res="-9.6497073769569397e-02" rms="4.2903959751129150e-01" purity="3.0276718735694885e-01" nType="0">
          <Node pos="l" depth="2" NCoef="0" IVar="-1" Cut="0.0000000000000000e+00" cType="1" res="-1.4656498096883297e-03" rms="4.8006373643875122e-01" purity="4.4047075510025024e-01" nType="-99"/>
          <Node pos="r" depth="2" NCoef="0" IVar="-1" Cut="0.0000000000000000e+00" cType="1" res="-3.1320466659963131e-03" rms="3.6865627765655518e-01" purity="1.6936618089675903e-01" nType="-99"/>
        </Node>
      </Node>
    </BinaryTree>
    <BinaryTree type="DecisionTree" boostWeight="1.0000000000000000e+00" itree="162">
      <Node pos="s" depth="0" NCoef="0" IVar="2" Cut="7.6487761735916138e-01" cType="1" res="-1.2084324844181538e-02" rms="4.6491909027099609e-01" purity="4.9997079372406006e-01" nType="0">
        <Node pos="l" depth="1" NCoef="0" IVar="0" Cut="1.0757628679275513e+00" cType="1" res="-1.0971837490797043e-01" rms="4.3540763854980469e-01" purity="2.8848990797996521e-01" nType="0">
          <Node pos="l" depth="2" NCoef="0" IVar="-1" Cut="0.0000000000000000e+00" cType="1" res="-1.9849722739309072e-03" rms="4.8187193274497986e-01" purity="3.8974916934967041e-01" nType="-99"/>
          <Node pos="r" depth="2" NCoef="0" IVar="-1" Cut="0.0000000000000000e+00" cType="1" res="-3.0537000857293606e-03" rms="3.9782461524009705e-01" purity="2.1662963926792145e-01" nType="-99"/>
        </Node>
        <Node pos="r" depth="1" NCoef="0" IVar="3" Cut="8.2946838378906250e+01" cType="1" res="3.5596818197518587e-03" rms="4.6758419275283813e-01" purity="5.3385663032531738e-01" nType="0">
          <Node pos="l" depth="2" NCoef="0" IVar="-1" Cut="0.0000000000000000e+00" cType="1" res="-8.2090904470533133e-04" rms="4.7130545973777771e-01" purity="4.9597370624542236e-01" nType="-99"/>
          <Node pos="r" depth="2" NCoef="0" IVar="-1" Cut="0.0000000000000000e+00" cType="1" res="1.5615269076079130e-03" rms="4.5891696214675903e-01" purity="5.8526229858398438e-01" nType="-99"/>
        </Node>
      </Node>
    </BinaryTree>
    <BinaryTree type="DecisionTree" boostWeight="1.0000000000000000e+00" itree="163">
      <Node pos="s" depth="0" NCoef="0" IVar="2" Cut="7.9233431816101074e-01" cType="1" res="-6.6812019795179367e-03" rms="4.6407452225685120e-01" purity="5.0633430480957031e-01" nType="0">
        <Node pos="l" depth="1" NCoef="0" IVar="5" Cut="9.6643149852752686e-01" cType="1" res="-8.2844384014606476e-02" rms="4.4911321997642517e-01" purity="3.2401522994041443e-01" nType="0">
          <Node pos="l" depth="2" NCoef="0" IVar="-1" Cut="0.0000000000000000e+00" cType="1" res="-9.9381688050925732e-04" rms="4.9382907152175903e-01" purity="4.5808383822441101e-01" nType="-99"/>
          <Node pos="r" depth="2" NCoef="0" IVar="-1" Cut="0.0000000000000000e+00" cType="1" res="-2.6922919787466526e-03" rms="4.1326588392257690e-01" purity="2.3327407240867615e-01" nType="-99"/>
        </Node>
        <Node pos="r" depth="1" NCoef="0" IVar="3" Cut="3.8393527984619141e+01" cType="1" res="1.5264167450368404e-02" rms="4.6599227190017700e-01" purity="5.5886703729629517e-01" nType="0">
          <Node pos="l" depth="2" NCoef="0" IVar="-1" Cut="0.0000000000000000e+00" cType="1" res="-2.7222339995205402e-03" rms="4.5844784379005432e-01" purity="4.0232017636299133e-01" nType="-99"/>
          <Node pos="r" depth="2" NCoef="0" IVar="-1" Cut="0.0000000000000000e+00" cType="1" res="9.3974923947826028e-04" rms="4.6485126018524170e-01" purity="5.7665896415710449e-01" nType="-99"/>
        </Node>
      </Node>
    </BinaryTree>
    <BinaryTree type="DecisionTree" boostWeight="1.0000000000000000e+00" itree="164">
      <Node pos="s" depth="0" NCoef="0" IVar="4" Cut="1.6470500183105469e+02" cType="1" res="-9.3504041433334351e-03" rms="4.6433892846107483e-01" purity="5.0192832946777344e-01" nType="0">
        <Node pos="l" depth="1" NCoef="0" IVar="4" Cut="9.7469909667968750e+01" cType="1" res="2.4488445371389389e-02" rms="4.6452298760414124e-01" purity="5.5287688970565796e-01" nType="0">
          <Node pos="l" depth="2" NCoef="0" IVar="-1" Cut="0.0000000000000000e+00" cType="1" res="-1.3462707865983248e-03" rms="4.6800374984741211e-01" purity="4.6328020095825195e-01" nType="-99"/>
          <Node pos="r" depth="2" NCoef="0" IVar="-1" Cut="0.0000000000000000e+00" cType="1" res="2.3518095258623362e-03" rms="4.5652186870574951e-01" purity="6.0909801721572876e-01" nType="-99"/>
        </Node>
        <Node pos="r" depth="1" NCoef="0" IVar="0" Cut="7.9109746217727661e-01" cType="1" res="-5.3312446922063828e-02" rms="4.6040007472038269e-01" purity="4.3573814630508423e-01" nType="0">
          <Node pos="l" depth="2" NCoef="0" IVar="-1" Cut="0.0000000000000000e+00" cType="1" res="1.8206114182248712e-03" rms="4.6036311984062195e-01" purity="6.7634612321853638e-01" nType="-99"/>
          <Node pos="r" depth="2" NCoef="0" IVar="-1" Cut="0.0000000000000000e+00" cType="1" res="-1.8349187448620796e-03" rms="4.5829412341117859e-01" purity="3.9660874009132385e-01" nType="-99"/>
        </Node>
      </Node>
    </BinaryTree>
    <BinaryTree type="DecisionTree" boostWeight="1.0000000000000000e+00" itree="165">
      <Node pos="s" depth="0" NCoef="0" IVar="5" Cut="1.7043089866638184e+00" cType="1" res="1.3719017151743174e-03" rms="4.6322828531265259e-01" purity="5.1166814565658569e-01" nType="0">
        <Node pos="l" depth="1" NCoef="0" IVar="0" Cut="7.1896839141845703e-01" cType="1" res="1.5062556602060795e-02" rms="4.7028362751007080e-01" purity="5.4915714263916016e-01" nType="0">
          <Node pos="l" depth="2" NCoef="0" IVar="-1" Cut="0.0000000000000000e+00" cType="1" res="4.3623568490147591e-03" rms="4.3423426151275635e-01" purity="7.3291081190109253e-01" nType="-99"/>
          <Node pos="r" depth="2" NCoef="0" IVar="-1" Cut="0.0000000000000000e+00" cType="1" res="-6.1530181483249180e-06" rms="4.7431057691574097e-01" purity="5.1852488517761230e-01" nType="-99"/>
        </Node>
        <Node pos="r" depth="1" NCoef="0" IVar="-1" Cut="0.0000000000000000e+00" cType="1" res="-2.9901943635195494e-03" rms="3.6946821212768555e-01" purity="1.6716712713241577e-01" nType="-99"/>
      </Node>
    </BinaryTree>
    <BinaryTree type="DecisionTree" boostWeight="1.0000000000000000e+00" itree="166">
      <Node pos="s" depth="0" NCoef="0" IVar="5" Cut="1.6940565109252930e+00" cType="1" res="-9.3803107738494873e-03" rms="4.6499973535537720e-01" purity="5.0424814224243164e-01" nType="0">
        <Node pos="l" depth="1" NCoef="0" IVar="3" Cut="8.2387718200683594e+01" cType="1" res="2.6515172794461250e-03" rms="4.7257509827613831e-01" purity="5.3990399837493896e-01" nType="0">
          <Node pos="l" depth="2" NCoef="0" IVar="-1" Cut="0.0000000000000000e+00" cType="1" res="-7.9087942140176892e-04" rms="4.7777158021926880e-01" purity="5.0106179714202881e-01" nType="-99"/>
          <Node pos="r" depth="2" NCoef="0" IVar="-1" Cut="0.0000000000000000e+00" cType="1" res="1.4715886209160089e-03" rms="4.6196895837783813e-01" purity="5.9392213821411133e-01" nType="-99"/>
        </Node>
        <Node pos="r" depth="1" NCoef="0" IVar="-1" Cut="0.0000000000000000e+00" cType="1" res="-2.9399853665381670e-03" rms="3.6675232648849487e-01" purity="1.6621741652488708e-01" nType="-99"/>
      </Node>
    </BinaryTree>
    <BinaryTree type="DecisionTree" boostWeight="1.0000000000000000e+00" itree="167">
      <Node pos="s" depth="0" NCoef="0" IVar="0" Cut="7.6268857717514038e-01" cType="1" res="-1.6925711184740067e-02" rms="4.6611130237579346e-01" purity="4.9677097797393799e-01" nType="0">
        <Node pos="l" depth="1" NCoef="0" IVar="4" Cut="1.5100645446777344e+02" cType="1" res="6.7605763673782349e-02" rms="4.5002290606498718e-01" purity="6.9345307350158691e-01" nType="0">
          <Node pos="l" depth="2" NCoef="0" IVar="-1" Cut="0.0000000000000000e+00" cType="1" res="3.6092151422053576e-03" rms="4.3614056706428528e-01" purity="7.1339905261993408e-01" nType="-99"/>
          <Node pos="r" depth="2" NCoef="0" IVar="-1" Cut="0.0000000000000000e+00" cType="1" res="1.0245782323181629e-03" rms="4.7008579969406128e-01" purity="6.5941870212554932e-01" nType="-99"/>
        </Node>
        <Node pos="r" depth="1" NCoef="0" IVar="9" Cut="9.3952250480651855e-01" cType="1" res="-3.3164076507091522e-02" rms="4.6739146113395691e-01" purity="4.5898866653442383e-01" nType="0">
          <Node pos="l" depth="2" NCoef="0" IVar="-1" Cut="0.0000000000000000e+00" cType="1" res="-2.0206416957080364e-03" rms="4.5545789599418640e-01" purity="3.5242268443107605e-01" nType="-99"/>
          <Node pos="r" depth="2" NCoef="0" IVar="-1" Cut="0.0000000000000000e+00" cType="1" res="-2.3861567024141550e-04" rms="4.7172787785530090e-01" purity="5.1599806547164917e-01" nType="-99"/>
        </Node>
      </Node>
    </BinaryTree>
    <BinaryTree type="DecisionTree" boostWeight="1.0000000000000000e+00" itree="168">
      <Node pos="s" depth="0" NCoef="0" IVar="7" Cut="7.2533649206161499e-01" cType="1" res="-9.4743818044662476e-03" rms="4.6532464027404785e-01" purity="5.0356489419937134e-01" nType="0">
        <Node pos="l" depth="1" NCoef="0" IVar="1" Cut="1.1154857873916626e+00" cType="1" res="-3.7944618612527847e-02" rms="4.6604454517364502e-01" purity="4.3683153390884399e-01" nType="0">
          <Node pos="l" depth="2" NCoef="0" IVar="-1" Cut="0.0000000000000000e+00" cType="1" res="-7.7931668784003705e-05" rms="4.7734677791595459e-01" purity="5.1892375946044922e-01" nType="-99"/>
          <Node pos="r" depth="2" NCoef="0" IVar="-1" Cut="0.0000000000000000e+00" cType="1" res="-2.0233457908034325e-03" rms="4.4851300120353699e-01" purity="3.3861017227172852e-01" nType="-99"/>
        </Node>
        <Node pos="r" depth="1" NCoef="0" IVar="3" Cut="4.9370403289794922e+01" cType="1" res="4.0121015161275864e-02" rms="4.5987746119499207e-01" purity="6.1981487274169922e-01" nType="0">
          <Node pos="l" depth="2" NCoef="0" IVar="-1" Cut="0.0000000000000000e+00" cType="1" res="-1.3112864689901471e-03" rms="4.8152029514312744e-01" purity="5.1761043071746826e-01" nType="-99"/>
          <Node pos="r" depth="2" NCoef="0" IVar="-1" Cut="0.0000000000000000e+00" cType="1" res="2.3424797691404819e-03" rms="4.5029821991920471e-01" purity="6.5001976490020752e-01" nType="-99"/>
        </Node>
      </Node>
    </BinaryTree>
    <BinaryTree type="DecisionTree" boostWeight="1.0000000000000000e+00" itree="169">
      <Node pos="s" depth="0" NCoef="0" IVar="0" Cut="1.4933708906173706e+00" cType="1" res="-1.2359229847788811e-02" rms="4.6486738324165344e-01" purity="4.9758982658386230e-01" nType="0">
        <Node pos="l" depth="1" NCoef="0" IVar="3" Cut="8.9461868286132812e+01" cType="1" res="4.3788147158920765e-03" rms="4.7152689099311829e-01" purity="5.4403805732727051e-01" nType="0">
          <Node pos="l" depth="2" NCoef="0" IVar="-1" Cut="0.0000000000000000e+00" cType="1" res="-6.7795487120747566e-04" rms="4.7795388102531433e-01" purity="5.0931817293167114e-01" nType="-99"/>
          <Node pos="r" depth="2" NCoef="0" IVar="-1" Cut="0.0000000000000000e+00" cType="1" res="1.8365390133112669e-03" rms="4.5559233427047729e-01" purity="6.0637241601943970e-01" nType="-99"/>
        </Node>
        <Node pos="r" depth="1" NCoef="0" IVar="3" Cut="9.1381118774414062e+01" cType="1" res="-9.2616826295852661e-02" rms="4.2239338159561157e-01" purity="2.7487435936927795e-01" nType="0">
          <Node pos="l" depth="2" NCoef="0" IVar="-1" Cut="0.0000000000000000e+00" cType="1" res="-3.0854491051286459e-03" rms="3.9999502897262573e-01" purity="2.2928451001644135e-01" nType="-99"/>
          <Node pos="r" depth="2" NCoef="0" IVar="-1" Cut="0.0000000000000000e+00" cType="1" res="-9.3733851099386811e-04" rms="4.4607919454574585e-01" purity="3.3918929100036621e-01" nType="-99"/>
        </Node>
      </Node>
    </BinaryTree>
    <BinaryTree type="DecisionTree" boostWeight="1.0000000000000000e+00" itree="170">
      <Node pos="s" depth="0" NCoef="0" IVar="2" Cut="7.4603688716888428e-01" cType="1" res="-8.3092581480741501e-03" rms="4.6322190761566162e-01" purity="5.0378996133804321e-01" nType="0">
        <Node pos="l" depth="1" NCoef="0" IVar="-1" Cut="0.0000000000000000e+00" cType="1" res="-3.0631648842245340e-03" rms="4.2332604527473450e-01" purity="2.5613054633140564e-01" nType="-99"/>
        <Node pos="r" depth="1" NCoef="0" IVar="1" Cut="1.0439851284027100e+00" cType="1" res="5.4981149733066559e-03" rms="4.6545535326004028e-01" purity="5.3155517578125000e-01" nType="0">
          <Node pos="l" depth="2" NCoef="0" IVar="-1" Cut="0.0000000000000000e+00" cType="1" res="1.3091850560158491e-03" rms="4.6215507388114929e-01" purity="6.1282640695571899e-01" nType="-99"/>
          <Node pos="r" depth="2" NCoef="0" IVar="-1" Cut="0.0000000000000000e+00" cType="1" res="-8.7694654939696193e-04" rms="4.6634382009506226e-01" purity="4.4023886322975159e-01" nType="-99"/>
        </Node>
      </Node>
    </BinaryTree>
    <BinaryTree type="DecisionTree" boostWeight="1.0000000000000000e+00" itree="171">
      <Node pos="s" depth="0" NCoef="0" IVar="1" Cut="1.5480817556381226e+00" cType="1" res="-1.5257947146892548e-02" rms="4.6494266390800476e-01" purity="4.9690878391265869e-01" nType="0">
        <Node pos="l" depth="1" NCoef="0" IVar="4" Cut="2.5564871215820312e+02" cType="1" res="5.8706062845885754e-03" rms="4.6984192728996277e-01" purity="5.5202382802963257e-01" nType="0">
          <Node pos="l" depth="2" NCoef="0" IVar="-1" Cut="0.0000000000000000e+00" cType="1" res="8.6681952234357595e-04" rms="4.6923744678497314e-01" purity="5.8540284633636475e-01" nType="-99"/>
          <Node pos="r" depth="2" NCoef="0" IVar="-1" Cut="0.0000000000000000e+00" cType="1" res="-2.0027514547109604e-03" rms="4.6347782015800476e-01" purity="4.2366999387741089e-01" nType="-99"/>
        </Node>
        <Node pos="r" depth="1" NCoef="0" IVar="2" Cut="9.0468990802764893e-01" cType="1" res="-7.3482349514961243e-02" rms="4.4601660966873169e-01" purity="3.4502696990966797e-01" nType="0">
          <Node pos="l" depth="2" NCoef="0" IVar="-1" Cut="0.0000000000000000e+00" cType="1" res="-2.3536162916570902e-03" rms="4.3574678897857666e-01" purity="2.9961407184600830e-01" nType="-99"/>
          <Node pos="r" depth="2" NCoef="0" IVar="-1" Cut="0.0000000000000000e+00" cType="1" res="-1.4251304673962295e-04" rms="4.6916124224662781e-01" purity="4.8258629441261292e-01" nType="-99"/>
        </Node>
      </Node>
    </BinaryTree>
    <BinaryTree type="DecisionTree" boostWeight="1.0000000000000000e+00" itree="172">
      <Node pos="s" depth="0" NCoef="0" IVar="0" Cut="1.4950627088546753e+00" cType="1" res="-1.3998317532241344e-02" rms="4.6134233474731445e-01" purity="4.9562218785285950e-01" nType="0">
        <Node pos="l" depth="1" NCoef="0" IVar="4" Cut="1.8341676330566406e+02" cType="1" res="3.4740122500807047e-03" rms="4.6838688850402832e-01" purity="5.4235345125198364e-01" nType="0">
          <Node pos="l" depth="2" NCoef="0" IVar="-1" Cut="0.0000000000000000e+00" cType="1" res="1.0119737125933170e-03" rms="4.6735855937004089e-01" purity="5.8450204133987427e-01" nType="-99"/>
          <Node pos="r" depth="2" NCoef="0" IVar="-1" Cut="0.0000000000000000e+00" cType="1" res="-1.3325961772352457e-03" rms="4.6600666642189026e-01" purity="4.6540850400924683e-01" nType="-99"/>
        </Node>
        <Node pos="r" depth="1" NCoef="0" IVar="3" Cut="8.2479179382324219e+01" cType="1" res="-1.0238261520862579e-01" rms="4.1273447871208191e-01" purity="2.5923061370849609e-01" nType="0">
          <Node pos="l" depth="2" NCoef="0" IVar="-1" Cut="0.0000000000000000e+00" cType="1" res="-3.4451298415660858e-03" rms="3.8087964057922363e-01" purity="2.0352520048618317e-01" nType="-99"/>
          <Node pos="r" depth="2" NCoef="0" IVar="-1" Cut="0.0000000000000000e+00" cType="1" res="-1.2997124576941133e-03" rms="4.3890917301177979e-01" purity="3.1950849294662476e-01" nType="-99"/>
        </Node>
      </Node>
    </BinaryTree>
    <BinaryTree type="DecisionTree" boostWeight="1.0000000000000000e+00" itree="173">
      <Node pos="s" depth="0" NCoef="0" IVar="5" Cut="9.5997202396392822e-01" cType="1" res="-6.0012075118720531e-03" rms="4.6393683552742004e-01" purity="5.0613725185394287e-01" nType="0">
        <Node pos="l" depth="1" NCoef="0" IVar="3" Cut="8.5978157043457031e+01" cType="1" res="3.5293255001306534e-02" rms="4.6258366107940674e-01" purity="6.4441943168640137e-01" nType="0">
          <Node pos="l" depth="2" NCoef="0" IVar="-1" Cut="0.0000000000000000e+00" cType="1" res="1.1976668611168861e-04" rms="4.7866749763488770e-01" purity="5.9398198127746582e-01" nType="-99"/>
          <Node pos="r" depth="2" NCoef="0" IVar="-1" Cut="0.0000000000000000e+00" cType="1" res="4.1329264640808105e-03" rms="4.2304378747940063e-01" purity="7.4213665723800659e-01" nType="-99"/>
        </Node>
        <Node pos="r" depth="1" NCoef="0" IVar="3" Cut="6.1911556243896484e+01" cType="1" res="-4.1549902409315109e-02" rms="4.6215260028839111e-01" purity="3.8709580898284912e-01" nType="0">
          <Node pos="l" depth="2" NCoef="0" IVar="-1" Cut="0.0000000000000000e+00" cType="1" res="-2.4072628002613783e-03" rms="4.4592759013175964e-01" purity="3.1509909033775330e-01" nType="-99"/>
          <Node pos="r" depth="2" NCoef="0" IVar="-1" Cut="0.0000000000000000e+00" cType="1" res="-3.8524679257534444e-04" rms="4.6734279394149780e-01" purity="4.2194163799285889e-01" nType="-99"/>
        </Node>
      </Node>
    </BinaryTree>
    <BinaryTree type="DecisionTree" boostWeight="1.0000000000000000e+00" itree="174">
      <Node pos="s" depth="0" NCoef="0" IVar="1" Cut="1.7064225673675537e+00" cType="1" res="-8.4525626152753830e-03" rms="4.6337795257568359e-01" purity="5.0207924842834473e-01" nType="0">
        <Node pos="l" depth="1" NCoef="0" IVar="7" Cut="7.2542351484298706e-01" cType="1" res="1.0348245501518250e-02" rms="4.6799147129058838e-01" purity="5.5075252056121826e-01" nType="0">
          <Node pos="l" depth="2" NCoef="0" IVar="-1" Cut="0.0000000000000000e+00" cType="1" res="-4.5262309140525758e-04" rms="4.7444063425064087e-01" purity="4.8605072498321533e-01" nType="-99"/>
          <Node pos="r" depth="2" NCoef="0" IVar="-1" Cut="0.0000000000000000e+00" cType="1" res="1.9784625619649887e-03" rms="4.5377528667449951e-01" purity="6.5804398059844971e-01" nType="-99"/>
        </Node>
        <Node pos="r" depth="1" NCoef="0" IVar="7" Cut="6.6210585832595825e-01" cType="1" res="-7.5969822704792023e-02" rms="4.3984109163284302e-01" purity="3.2728427648544312e-01" nType="0">
          <Node pos="l" depth="2" NCoef="0" IVar="-1" Cut="0.0000000000000000e+00" cType="1" res="-2.8012308757752180e-03" rms="4.1651016473770142e-01" purity="2.4950252473354340e-01" nType="-99"/>
          <Node pos="r" depth="2" NCoef="0" IVar="-1" Cut="0.0000000000000000e+00" cType="1" res="-6.5908959368243814e-04" rms="4.6251234412193298e-01" purity="4.2568826675415039e-01" nType="-99"/>
        </Node>
      </Node>
    </BinaryTree>
    <BinaryTree type="DecisionTree" boostWeight="1.0000000000000000e+00" itree="175">
      <Node pos="s" depth="0" NCoef="0" IVar="2" Cut="7.8343093395233154e-01" cType="1" res="-1.6122177243232727e-02" rms="4.6245878934860229e-01" purity="4.9321529269218445e-01" nType="0">
        <Node pos="l" depth="1" NCoef="0" IVar="7" Cut="5.6730306148529053e-01" cType="1" res="-1.0332591831684113e-01" rms="4.3899542093276978e-01" purity="2.9691287875175476e-01" nType="0">
          <Node pos="l" depth="2" NCoef="0" IVar="-1" Cut="0.0000000000000000e+00" cType="1" res="-2.9913273174315691e-03" rms="4.2810866236686707e-01" purity="2.6908105611801147e-01" nType="-99"/>
          <Node pos="r" depth="2" NCoef="0" IVar="-1" Cut="0.0000000000000000e+00" cType="1" res="-1.0372678516432643e-03" rms="4.5985734462738037e-01" purity="3.6873233318328857e-01" nType="-99"/>
        </Node>
        <Node pos="r" depth="1" NCoef="0" IVar="4" Cut="6.5481933593750000e+01" cType="1" res="5.5135651491582394e-03" rms="4.6557602286338806e-01" purity="5.4191905260086060e-01" nType="0">
          <Node pos="l" depth="2" NCoef="0" IVar="-1" Cut="0.0000000000000000e+00" cType="1" res="-3.5717075224965811e-03" rms="4.5284286141395569e-01" purity="3.6480298638343811e-01" nType="-99"/>
          <Node pos="r" depth="2" NCoef="0" IVar="-1" Cut="0.0000000000000000e+00" cType="1" res="6.3560920534655452e-04" rms="4.6426162123680115e-01" purity="5.5932617187500000e-01" nType="-99"/>
        </Node>
      </Node>
    </BinaryTree>
    <BinaryTree type="DecisionTree" boostWeight="1.0000000000000000e+00" itree="176">
      <Node pos="s" depth="0" NCoef="0" IVar="1" Cut="1.3415300846099854e+00" cType="1" res="-5.7879108935594559e-03" rms="4.6364995837211609e-01" purity="5.0716757774353027e-01" nType="0">
        <Node pos="l" depth="1" NCoef="0" IVar="3" Cut="4.5166519165039062e+01" cType="1" res="1.9579395651817322e-02" rms="4.6595498919487000e-01" purity="5.7134562730789185e-01" nType="0">
          <Node pos="l" depth="2" NCoef="0" IVar="-1" Cut="0.0000000000000000e+00" cType="1" res="-1.8594097346067429e-03" rms="4.8055550456047058e-01" purity="4.6426987648010254e-01" nType="-99"/>
          <Node pos="r" depth="2" NCoef="0" IVar="-1" Cut="0.0000000000000000e+00" cType="1" res="1.2767523294314742e-03" rms="4.6059063076972961e-01" purity="5.9439325332641602e-01" nType="-99"/>
        </Node>
        <Node pos="r" depth="1" NCoef="0" IVar="7" Cut="8.5089707374572754e-01" cType="1" res="-5.6016810238361359e-02" rms="4.5489707589149475e-01" purity="3.8009080290794373e-01" nType="0">
          <Node pos="l" depth="2" NCoef="0" IVar="-1" Cut="0.0000000000000000e+00" cType="1" res="-1.8847332103177905e-03" rms="4.5138290524482727e-01" purity="3.4941950440406799e-01" nType="-99"/>
          <Node pos="r" depth="2" NCoef="0" IVar="-1" Cut="0.0000000000000000e+00" cType="1" res="8.7614177027717233e-04" rms="4.6249431371688843e-01" purity="5.3108948469161987e-01" nType="-99"/>
        </Node>
      </Node>
    </BinaryTree>
    <BinaryTree type="DecisionTree" boostWeight="1.0000000000000000e+00" itree="177">
      <Node pos="s" depth="0" NCoef="0" IVar="5" Cut="8.8934040069580078e-01" cType="1" res="-8.2181496545672417e-03" rms="4.6149006485939026e-01" purity="5.0346451997756958e-01" nType="0">
        <Node pos="l" depth="1" NCoef="0" IVar="2" Cut="8.6797517538070679e-01" cType="1" res="3.7939313799142838e-02" rms="4.5870870351791382e-01" purity="6.4782810211181641e-01" nType="0">
          <Node pos="l" depth="2" NCoef="0" IVar="-1" Cut="0.0000000000000000e+00" cType="1" res="-2.3514844360761344e-04" rms="4.8605468869209290e-01" purity="5.4293262958526611e-01" nType="-99"/>
          <Node pos="r" depth="2" NCoef="0" IVar="-1" Cut="0.0000000000000000e+00" cType="1" res="3.8942641112953424e-03" rms="4.2264702916145325e-01" purity="7.5833666324615479e-01" nType="-99"/>
        </Node>
        <Node pos="r" depth="1" NCoef="0" IVar="5" Cut="1.7269902229309082e+00" cType="1" res="-3.8983289152383804e-02" rms="4.6077373623847961e-01" purity="4.0724244713783264e-01" nType="0">
          <Node pos="l" depth="2" NCoef="0" IVar="-1" Cut="0.0000000000000000e+00" cType="1" res="-6.4136664150282741e-04" rms="4.7464859485626221e-01" purity="4.5149767398834229e-01" nType="-99"/>
          <Node pos="r" depth="2" NCoef="0" IVar="-1" Cut="0.0000000000000000e+00" cType="1" res="-2.9714854899793863e-03" rms="3.6182853579521179e-01" purity="1.5960757434368134e-01" nType="-99"/>
        </Node>
      </Node>
    </BinaryTree>
    <BinaryTree type="DecisionTree" boostWeight="1.0000000000000000e+00" itree="178">
      <Node pos="s" depth="0" NCoef="0" IVar="7" Cut="5.6768000125885010e-01" cType="1" res="-1.5085762366652489e-02" rms="4.6052166819572449e-01" purity="4.9454268813133240e-01" nType="0">
        <Node pos="l" depth="1" NCoef="0" IVar="1" Cut="8.0138367414474487e-01" cType="1" res="-8.7876997888088226e-02" rms="4.4862800836563110e-01" purity="3.4994146227836609e-01" nType="0">
          <Node pos="l" depth="2" NCoef="0" IVar="-1" Cut="0.0000000000000000e+00" cType="1" res="-1.1266396613791585e-03" rms="4.7391417622566223e-01" purity="4.4649302959442139e-01" nType="-99"/>
          <Node pos="r" depth="2" NCoef="0" IVar="-1" Cut="0.0000000000000000e+00" cType="1" res="-2.7779194060713053e-03" rms="4.2971348762512207e-01" purity="2.8992465138435364e-01" nType="-99"/>
        </Node>
        <Node pos="r" depth="1" NCoef="0" IVar="1" Cut="1.9669082164764404e+00" cType="1" res="1.2846454046666622e-02" rms="4.6196979284286499e-01" purity="5.5003058910369873e-01" nType="0">
          <Node pos="l" depth="2" NCoef="0" IVar="-1" Cut="0.0000000000000000e+00" cType="1" res="9.7146839834749699e-04" rms="4.6309447288513184e-01" purity="5.9006220102310181e-01" nType="-99"/>
          <Node pos="r" depth="2" NCoef="0" IVar="-1" Cut="0.0000000000000000e+00" cType="1" res="-1.9721162971109152e-03" rms="4.4494023919105530e-01" purity="3.3166617155075073e-01" nType="-99"/>
        </Node>
      </Node>
    </BinaryTree>
    <BinaryTree type="DecisionTree" boostWeight="1.0000000000000000e+00" itree="179">
      <Node pos="s" depth="0" NCoef="0" IVar="5" Cut="1.6984581947326660e+00" cType="1" res="-8.6950603872537613e-03" rms="4.6393775939941406e-01" purity="5.0267010927200317e-01" nType="0">
        <Node pos="l" depth="1" NCoef="0" IVar="8" Cut="6.1603349447250366e-01" cType="1" res="2.9454096220433712e-03" rms="4.7157123684883118e-01" purity="5.3881973028182983e-01" nType="0">
          <Node pos="l" depth="2" NCoef="0" IVar="-1" Cut="0.0000000000000000e+00" cType="1" res="-4.7115233610384166e-04" rms="4.7487714886665344e-01" purity="5.0106149911880493e-01" nType="-99"/>
          <Node pos="r" depth="2" NCoef="0" IVar="-1" Cut="0.0000000000000000e+00" cType="1" res="2.5951382704079151e-03" rms="4.5382371544837952e-01" purity="6.6853868961334229e-01" nType="-99"/>
        </Node>
        <Node pos="r" depth="1" NCoef="0" IVar="-1" Cut="0.0000000000000000e+00" cType="1" res="-2.8126665856689215e-03" rms="3.6924335360527039e-01" purity="1.6830664873123169e-01" nType="-99"/>
      </Node>
    </BinaryTree>
    <BinaryTree type="DecisionTree" boostWeight="1.0000000000000000e+00" itree="180">
      <Node pos="s" depth="0" NCoef="0" IVar="5" Cut="1.3533768653869629e+00" cType="1" res="-7.9768374562263489e-03" rms="4.6232333779335022e-01" purity="5.0299489498138428e-01" nType="0">
        <Node pos="l" depth="1" NCoef="0" IVar="3" Cut="7.7025505065917969e+01" cType="1" res="1.5431581996381283e-02" rms="4.7348994016647339e-01" purity="5.8820968866348267e-01" nType="0">
          <Node pos="l" depth="2" NCoef="0" IVar="-1" Cut="0.0000000000000000e+00" cType="1" res="-4.9310136819258332e-04" rms="4.8334568738937378e-01" purity="5.3823953866958618e-01" nType="-99"/>
          <Node pos="r" depth="2" NCoef="0" IVar="-1" Cut="0.0000000000000000e+00" cType="1" res="1.9859173335134983e-03" rms="4.5780178904533386e-01" purity="6.5047544240951538e-01" nType="-99"/>
        </Node>
        <Node pos="r" depth="1" NCoef="0" IVar="7" Cut="5.6761294603347778e-01" cType="1" res="-7.7525384724140167e-02" rms="4.1979804635047913e-01" purity="2.4981385469436646e-01" nType="0">
          <Node pos="l" depth="2" NCoef="0" IVar="-1" Cut="0.0000000000000000e+00" cType="1" res="-3.1410660594701767e-03" rms="3.6007732152938843e-01" purity="1.5820246934890747e-01" nType="-99"/>
          <Node pos="r" depth="2" NCoef="0" IVar="-1" Cut="0.0000000000000000e+00" cType="1" res="-1.2597293825820088e-03" rms="4.4278213381767273e-01" purity="2.9308456182479858e-01" nType="-99"/>
        </Node>
      </Node>
    </BinaryTree>
    <BinaryTree type="DecisionTree" boostWeight="1.0000000000000000e+00" itree="181">
      <Node pos="s" depth="0" NCoef="0" IVar="8" Cut="6.0743278264999390e-01" cType="1" res="-1.6096493229269981e-02" rms="4.6293875575065613e-01" purity="4.9491396546363831e-01" nType="0">
        <Node pos="l" depth="1" NCoef="0" IVar="1" Cut="1.3421170711517334e+00" cType="1" res="-3.7704322487115860e-02" rms="4.6213284134864807e-01" purity="4.5101574063301086e-01" nType="0">
          <Node pos="l" depth="2" NCoef="0" IVar="-1" Cut="0.0000000000000000e+00" cType="1" res="-2.8901235782541335e-04" rms="4.7114863991737366e-01" purity="5.2017402648925781e-01" nType="-99"/>
          <Node pos="r" depth="2" NCoef="0" IVar="-1" Cut="0.0000000000000000e+00" cType="1" res="-2.2592418827116489e-03" rms="4.3961110711097717e-01" purity="3.1954067945480347e-01" nType="-99"/>
        </Node>
        <Node pos="r" depth="1" NCoef="0" IVar="3" Cut="5.2427349090576172e+01" cType="1" res="4.7939162701368332e-02" rms="4.5938816666603088e-01" purity="6.2500810623168945e-01" nType="0">
          <Node pos="l" depth="2" NCoef="0" IVar="-1" Cut="0.0000000000000000e+00" cType="1" res="-8.9303380809724331e-04" rms="4.7724783420562744e-01" purity="5.2557605504989624e-01" nType="-99"/>
          <Node pos="r" depth="2" NCoef="0" IVar="-1" Cut="0.0000000000000000e+00" cType="1" res="2.8659815434366465e-03" rms="4.4910749793052673e-01" purity="6.6221100091934204e-01" nType="-99"/>
        </Node>
      </Node>
    </BinaryTree>
    <BinaryTree type="DecisionTree" boostWeight="1.0000000000000000e+00" itree="182">
      <Node pos="s" depth="0" NCoef="0" IVar="1" Cut="1.0439851284027100e+00" cType="1" res="-1.0217637754976749e-02" rms="4.6218886971473694e-01" purity="5.0132364034652710e-01" nType="0">
        <Node pos="l" depth="1" NCoef="0" IVar="3" Cut="9.3267639160156250e+01" cType="1" res="2.4781141430139542e-02" rms="4.6165618300437927e-01" purity="5.8679288625717163e-01" nType="0">
          <Node pos="l" depth="2" NCoef="0" IVar="-1" Cut="0.0000000000000000e+00" cType="1" res="-1.1143330630147830e-04" rms="4.7446349263191223e-01" purity="5.5175065994262695e-01" nType="-99"/>
          <Node pos="r" depth="2" NCoef="0" IVar="-1" Cut="0.0000000000000000e+00" cType="1" res="2.9141795821487904e-03" rms="4.3110406398773193e-01" purity="6.5348964929580688e-01" nType="-99"/>
        </Node>
        <Node pos="r" depth="1" NCoef="0" IVar="4" Cut="9.1357933044433594e+01" cType="1" res="-4.9981091171503067e-02" rms="4.5957031846046448e-01" purity="4.0421885251998901e-01" nType="0">
          <Node pos="l" depth="2" NCoef="0" IVar="-1" Cut="0.0000000000000000e+00" cType="1" res="-3.2425227109342813e-03" rms="4.3346866965293884e-01" purity="3.0596876144409180e-01" nType="-99"/>
          <Node pos="r" depth="2" NCoef="0" IVar="-1" Cut="0.0000000000000000e+00" cType="1" res="-8.1608054460957646e-04" rms="4.6337160468101501e-01" purity="4.2794689536094666e-01" nType="-99"/>
        </Node>
      </Node>
    </BinaryTree>
    <BinaryTree type="DecisionTree" boostWeight="1.0000000000000000e+00" itree="183">
      <Node pos="s" depth="0" NCoef="0" IVar="5" Cut="1.4568969011306763e+00" cType="1" res="-8.4291193634271622e-03" rms="4.6094179153442383e-01" purity="4.9989762902259827e-01" nType="0">
        <Node pos="l" depth="1" NCoef="0" IVar="3" Cut="4.8489402770996094e+01" cType="1" res="1.0933728888630867e-02" rms="4.7151723504066467e-01" purity="5.6845158338546753e-01" nType="0">
          <Node pos="l" depth="2" NCoef="0" IVar="-1" Cut="0.0000000000000000e+00" cType="1" res="-1.6745551256462932e-03" rms="4.7874483466148376e-01" purity="4.6486109495162964e-01" nType="-99"/>
          <Node pos="r" depth="2" NCoef="0" IVar="-1" Cut="0.0000000000000000e+00" cType="1" res="1.0805664351209998e-03" rms="4.6711620688438416e-01" purity="5.9941542148590088e-01" nType="-99"/>
        </Node>
        <Node pos="r" depth="1" NCoef="0" IVar="3" Cut="7.3087089538574219e+01" cType="1" res="-8.6787126958370209e-02" rms="4.0608340501785278e-01" purity="2.2247187793254852e-01" nType="0">
          <Node pos="l" depth="2" NCoef="0" IVar="-1" Cut="0.0000000000000000e+00" cType="1" res="-3.0500986613333225e-03" rms="3.6524227261543274e-01" purity="1.6679787635803223e-01" nType="-99"/>
          <Node pos="r" depth="2" NCoef="0" IVar="-1" Cut="0.0000000000000000e+00" cType="1" res="-1.4680755557492375e-03" rms="4.2861327528953552e-01" purity="2.5896298885345459e-01" nType="-99"/>
        </Node>
      </Node>
    </BinaryTree>
    <BinaryTree type="DecisionTree" boostWeight="1.0000000000000000e+00" itree="184">
      <Node pos="s" depth="0" NCoef="0" IVar="3" Cut="4.6695823669433594e+01" cType="1" res="-1.0715004988014698e-02" rms="4.6497491002082825e-01" purity="5.0204610824584961e-01" nType="0">
        <Node pos="l" depth="1" NCoef="0" IVar="0" Cut="1.1156669855117798e+00" cType="1" res="-8.1818044185638428e-02" rms="4.6667569875717163e-01" purity="4.1046568751335144e-01" nType="0">
          <Node pos="l" depth="2" NCoef="0" IVar="-1" Cut="0.0000000000000000e+00" cType="1" res="-1.2133262353017926e-03" rms="4.8838159441947937e-01" purity="5.1347255706787109e-01" nType="-99"/>
          <Node pos="r" depth="2" NCoef="0" IVar="-1" Cut="0.0000000000000000e+00" cType="1" res="-3.0728080309927464e-03" rms="4.3405419588088989e-01" purity="2.8561615943908691e-01" nType="-99"/>
        </Node>
        <Node pos="r" depth="1" NCoef="0" IVar="1" Cut="1.9953173398971558e+00" cType="1" res="6.3819545321166515e-03" rms="4.6293920278549194e-01" purity="5.2406692504882812e-01" nType="0">
          <Node pos="l" depth="2" NCoef="0" IVar="-1" Cut="0.0000000000000000e+00" cType="1" res="7.1536912582814693e-04" rms="4.6615824103355408e-01" purity="5.6376129388809204e-01" nType="-99"/>
          <Node pos="r" depth="2" NCoef="0" IVar="-1" Cut="0.0000000000000000e+00" cType="1" res="-2.0055423956364393e-03" rms="4.3564897775650024e-01" purity="3.1246817111968994e-01" nType="-99"/>
        </Node>
      </Node>
    </BinaryTree>
    <BinaryTree type="DecisionTree" boostWeight="1.0000000000000000e+00" itree="185">
      <Node pos="s" depth="0" NCoef="0" IVar="1" Cut="1.4639201164245605e+00" cType="1" res="-8.3980336785316467e-03" rms="4.6208977699279785e-01" purity="5.0242477655410767e-01" nType="0">
        <Node pos="l" depth="1" NCoef="0" IVar="2" Cut="8.3164435625076294e-01" cType="1" res="1.4665233902633190e-02" rms="4.6529722213745117e-01" purity="5.6282407045364380e-01" nType="0">
          <Node pos="l" depth="2" NCoef="0" IVar="-1" Cut="0.0000000000000000e+00" cType="1" res="-8.1675720866769552e-04" rms="4.7329202294349670e-01" purity="4.2578169703483582e-01" nType="-99"/>
          <Node pos="r" depth="2" NCoef="0" IVar="-1" Cut="0.0000000000000000e+00" cType="1" res="1.4063677517697215e-03" rms="4.5892617106437683e-01" purity="6.3828206062316895e-01" nType="-99"/>
        </Node>
        <Node pos="r" depth="1" NCoef="0" IVar="2" Cut="8.1096231937408447e-01" cType="1" res="-6.4674168825149536e-02" rms="4.4922590255737305e-01" purity="3.5504591464996338e-01" nType="0">
          <Node pos="l" depth="2" NCoef="0" IVar="-1" Cut="0.0000000000000000e+00" cType="1" res="-2.8192722238600254e-03" rms="4.0950646996498108e-01" purity="2.2684241831302643e-01" nType="-99"/>
          <Node pos="r" depth="2" NCoef="0" IVar="-1" Cut="0.0000000000000000e+00" cType="1" res="-1.0391015093773603e-03" rms="4.6473366022109985e-01" purity="4.1627109050750732e-01" nType="-99"/>
        </Node>
      </Node>
    </BinaryTree>
    <BinaryTree type="DecisionTree" boostWeight="1.0000000000000000e+00" itree="186">
      <Node pos="s" depth="0" NCoef="0" IVar="4" Cut="1.7110916137695312e+02" cType="1" res="-1.0540141724050045e-02" rms="4.6383810043334961e-01" purity="5.0096148252487183e-01" nType="0">
        <Node pos="l" depth="1" NCoef="0" IVar="4" Cut="9.7899620056152344e+01" cType="1" res="1.9592175260186195e-02" rms="4.6201366186141968e-01" purity="5.4748845100402832e-01" nType="0">
          <Node pos="l" depth="2" NCoef="0" IVar="-1" Cut="0.0000000000000000e+00" cType="1" res="-1.6147303394973278e-03" rms="4.6232879161834717e-01" purity="4.4908568263053894e-01" nType="-99"/>
          <Node pos="r" depth="2" NCoef="0" IVar="-1" Cut="0.0000000000000000e+00" cType="1" res="2.2714969236403704e-03" rms="4.5539203286170959e-01" purity="6.0741817951202393e-01" nType="-99"/>
        </Node>
        <Node pos="r" depth="1" NCoef="0" IVar="5" Cut="7.8351563215255737e-01" cType="1" res="-5.4234374314546585e-02" rms="4.6300044655799866e-01" purity="4.3349373340606689e-01" nType="0">
          <Node pos="l" depth="2" NCoef="0" IVar="-1" Cut="0.0000000000000000e+00" cType="1" res="-1.2809441614081152e-05" rms="4.7497826814651489e-01" purity="6.1657786369323730e-01" nType="-99"/>
          <Node pos="r" depth="2" NCoef="0" IVar="-1" Cut="0.0000000000000000e+00" cType="1" res="-1.8589159008115530e-03" rms="4.5773550868034363e-01" purity="3.7459614872932434e-01" nType="-99"/>
        </Node>
      </Node>
    </BinaryTree>
    <BinaryTree type="DecisionTree" boostWeight="1.0000000000000000e+00" itree="187">
      <Node pos="s" depth="0" NCoef="0" IVar="4" Cut="6.0030757904052734e+01" cType="1" res="-1.3690443709492683e-02" rms="4.6417596936225891e-01" purity="4.9749082326889038e-01" nType="0">
        <Node pos="l" depth="1" NCoef="0" IVar="-1" Cut="0.0000000000000000e+00" cType="1" res="-3.7823838647454977e-03" rms="4.3612575531005859e-01" purity="3.2409191131591797e-01" nType="-99"/>
        <Node pos="r" depth="1" NCoef="0" IVar="4" Cut="1.8016735839843750e+02" cType="1" res="-2.7280962094664574e-03" rms="4.6455761790275574e-01" purity="5.1119232177734375e-01" nType="0">
          <Node pos="l" depth="2" NCoef="0" IVar="-1" Cut="0.0000000000000000e+00" cType="1" res="8.7707000784575939e-04" rms="4.6619170904159546e-01" purity="5.6507271528244019e-01" nType="-99"/>
          <Node pos="r" depth="2" NCoef="0" IVar="-1" Cut="0.0000000000000000e+00" cType="1" res="-1.2760501122102141e-03" rms="4.5877742767333984e-01" purity="4.3427240848541260e-01" nType="-99"/>
        </Node>
      </Node>
    </BinaryTree>
    <BinaryTree type="DecisionTree" boostWeight="1.0000000000000000e+00" itree="188">
      <Node pos="s" depth="0" NCoef="0" IVar="1" Cut="7.4708741903305054e-01" cType="1" res="-4.3186047114431858e-03" rms="4.6270614862442017e-01" purity="5.0854057073593140e-01" nType="0">
        <Node pos="l" depth="1" NCoef="0" IVar="4" Cut="1.6324581909179688e+02" cType="1" res="4.2108282446861267e-02" rms="4.5823803544044495e-01" purity="6.1593675613403320e-01" nType="0">
          <Node pos="l" depth="2" NCoef="0" IVar="-1" Cut="0.0000000000000000e+00" cType="1" res="2.7629197575151920e-03" rms="4.4810163974761963e-01" purity="6.6598522663116455e-01" nType="-99"/>
          <Node pos="r" depth="2" NCoef="0" IVar="-1" Cut="0.0000000000000000e+00" cType="1" res="-1.7165503231808543e-04" rms="4.6827739477157593e-01" purity="5.4427808523178101e-01" nType="-99"/>
        </Node>
        <Node pos="r" depth="1" NCoef="0" IVar="8" Cut="5.9344094991683960e-01" cType="1" res="-3.1385250389575958e-02" rms="4.6314868330955505e-01" purity="4.4592905044555664e-01" nType="0">
          <Node pos="l" depth="2" NCoef="0" IVar="-1" Cut="0.0000000000000000e+00" cType="1" res="-1.4744132058694959e-03" rms="4.5875439047813416e-01" purity="3.9583009481430054e-01" nType="-99"/>
          <Node pos="r" depth="2" NCoef="0" IVar="-1" Cut="0.0000000000000000e+00" cType="1" res="6.7861797288060188e-04" rms="4.6849370002746582e-01" purity="5.5750811100006104e-01" nType="-99"/>
        </Node>
      </Node>
    </BinaryTree>
    <BinaryTree type="DecisionTree" boostWeight="1.0000000000000000e+00" itree="189">
      <Node pos="s" depth="0" NCoef="0" IVar="3" Cut="8.8032302856445312e+01" cType="1" res="-1.1530250310897827e-02" rms="4.6425905823707581e-01" purity="5.0095176696777344e-01" nType="0">
        <Node pos="l" depth="1" NCoef="0" IVar="5" Cut="8.3638954162597656e-01" cType="1" res="-3.6241602152585983e-02" rms="4.6687960624694824e-01" purity="4.6940636634826660e-01" nType="0">
          <Node pos="l" depth="2" NCoef="0" IVar="-1" Cut="0.0000000000000000e+00" cType="1" res="2.3826732649467885e-04" rms="4.7788208723068237e-01" purity="6.0320848226547241e-01" nType="-99"/>
          <Node pos="r" depth="2" NCoef="0" IVar="-1" Cut="0.0000000000000000e+00" cType="1" res="-1.7027582507580519e-03" rms="4.5698380470275879e-01" purity="3.7915462255477905e-01" nType="-99"/>
        </Node>
        <Node pos="r" depth="1" NCoef="0" IVar="3" Cut="1.5205421447753906e+02" cType="1" res="2.7854038402438164e-02" rms="4.5729982852935791e-01" purity="5.5122798681259155e-01" nType="0">
          <Node pos="l" depth="2" NCoef="0" IVar="-1" Cut="0.0000000000000000e+00" cType="1" res="1.6880438197404146e-03" rms="4.5408201217651367e-01" purity="5.8359527587890625e-01" nType="-99"/>
          <Node pos="r" depth="2" NCoef="0" IVar="-1" Cut="0.0000000000000000e+00" cType="1" res="-2.4487306363880634e-03" rms="4.5580774545669556e-01" purity="3.7907698750495911e-01" nType="-99"/>
        </Node>
      </Node>
    </BinaryTree>
    <BinaryTree type="DecisionTree" boostWeight="1.0000000000000000e+00" itree="190">
      <Node pos="s" depth="0" NCoef="0" IVar="5" Cut="8.6405128240585327e-01" cType="1" res="-1.2928523123264313e-02" rms="4.6321424841880798e-01" purity="4.9845460057258606e-01" nType="0">
        <Node pos="l" depth="1" NCoef="0" IVar="7" Cut="8.6094999313354492e-01" cType="1" res="3.1432744115591049e-02" rms="4.6312230825424194e-01" purity="6.4676070213317871e-01" nType="0">
          <Node pos="l" depth="2" NCoef="0" IVar="-1" Cut="0.0000000000000000e+00" cType="1" res="5.7683588238433003e-04" rms="4.7286212444305420e-01" purity="6.1715471744537354e-01" nType="-99"/>
          <Node pos="r" depth="2" NCoef="0" IVar="-1" Cut="0.0000000000000000e+00" cType="1" res="4.5801312662661076e-03" rms="4.1095602512359619e-01" purity="7.7846944332122803e-01" nType="-99"/>
        </Node>
        <Node pos="r" depth="1" NCoef="0" IVar="3" Cut="6.1830017089843750e+01" cType="1" res="-4.0080357342958450e-02" rms="4.6117007732391357e-01" purity="4.0768212080001831e-01" nType="0">
          <Node pos="l" depth="2" NCoef="0" IVar="-1" Cut="0.0000000000000000e+00" cType="1" res="-2.4461424909532070e-03" rms="4.4560545682907104e-01" purity="3.3164128661155701e-01" nType="-99"/>
          <Node pos="r" depth="2" NCoef="0" IVar="-1" Cut="0.0000000000000000e+00" cType="1" res="-2.7821602998301387e-04" rms="4.6607461571693420e-01" purity="4.4671353697776794e-01" nType="-99"/>
        </Node>
      </Node>
    </BinaryTree>
    <BinaryTree type="DecisionTree" boostWeight="1.0000000000000000e+00" itree="191">
      <Node pos="s" depth="0" NCoef="0" IVar="5" Cut="9.1871917247772217e-01" cType="1" res="-1.7547495663166046e-02" rms="4.6185111999511719e-01" purity="4.9363526701927185e-01" nType="0">
        <Node pos="l" depth="1" NCoef="0" IVar="3" Cut="8.1305572509765625e+01" cType="1" res="2.4266766384243965e-02" rms="4.6537744998931885e-01" purity="6.3719803094863892e-01" nType="0">
          <Node pos="l" depth="2" NCoef="0" IVar="-1" Cut="0.0000000000000000e+00" cType="1" res="-1.6274397785309702e-04" rms="4.8115897178649902e-01" purity="5.8604866266250610e-01" nType="-99"/>
          <Node pos="r" depth="2" NCoef="0" IVar="-1" Cut="0.0000000000000000e+00" cType="1" res="3.1577406916767359e-03" rms="4.3179073929786682e-01" purity="7.2629433870315552e-01" nType="-99"/>
        </Node>
        <Node pos="r" depth="1" NCoef="0" IVar="3" Cut="6.0787792205810547e+01" cType="1" res="-4.9056872725486755e-02" rms="4.5665317773818970e-01" purity="3.8545268774032593e-01" nType="0">
          <Node pos="l" depth="2" NCoef="0" IVar="-1" Cut="0.0000000000000000e+00" cType="1" res="-2.5011699181050062e-03" rms="4.4225934147834778e-01" purity="3.1924125552177429e-01" nType="-99"/>
          <Node pos="r" depth="2" NCoef="0" IVar="-1" Cut="0.0000000000000000e+00" cType="1" res="-6.7319802474230528e-04" rms="4.6104493737220764e-01" purity="4.1570249199867249e-01" nType="-99"/>
        </Node>
      </Node>
    </BinaryTree>
    <BinaryTree type="DecisionTree" boostWeight="1.0000000000000000e+00" itree="192">
      <Node pos="s" depth="0" NCoef="0" IVar="7" Cut="6.4125937223434448e-01" cType="1" res="-1.0500992648303509e-02" rms="4.6081423759460449e-01" purity="4.9899095296859741e-01" nType="0">
        <Node pos="l" depth="1" NCoef="0" IVar="5" Cut="8.3638954162597656e-01" cType="1" res="-4.7083862125873566e-02" rms="4.5997136831283569e-01" purity="4.0681821107864380e-01" nType="0">
          <Node pos="l" depth="2" NCoef="0" IVar="-1" Cut="0.0000000000000000e+00" cType="1" res="1.3712132931686938e-04" rms="4.8148483037948608e-01" purity="5.5889040231704712e-01" nType="-99"/>
          <Node pos="r" depth="2" NCoef="0" IVar="-1" Cut="0.0000000000000000e+00" cType="1" res="-1.8676228355616331e-03" rms="4.4584602117538452e-01" purity="3.2680541276931763e-01" nType="-99"/>
        </Node>
        <Node pos="r" depth="1" NCoef="0" IVar="4" Cut="8.9532814025878906e+01" cType="1" res="2.1807912737131119e-02" rms="4.5913985371589661e-01" purity="5.8039522171020508e-01" nType="0">
          <Node pos="l" depth="2" NCoef="0" IVar="-1" Cut="0.0000000000000000e+00" cType="1" res="-2.0380208734422922e-03" rms="4.6350747346878052e-01" purity="4.7638735175132751e-01" nType="-99"/>
          <Node pos="r" depth="2" NCoef="0" IVar="-1" Cut="0.0000000000000000e+00" cType="1" res="1.4561442658305168e-03" rms="4.5546263456344604e-01" purity="6.0422980785369873e-01" nType="-99"/>
        </Node>
      </Node>
    </BinaryTree>
    <BinaryTree type="DecisionTree" boostWeight="1.0000000000000000e+00" itree="193">
      <Node pos="s" depth="0" NCoef="0" IVar="3" Cut="4.3106849670410156e+01" cType="1" res="-1.7645563930273056e-02" rms="4.6335405111312866e-01" purity="4.9327790737152100e-01" nType="0">
        <Node pos="l" depth="1" NCoef="0" IVar="3" Cut="3.6358692169189453e+01" cType="1" res="-9.8363324999809265e-02" rms="4.6064200997352600e-01" purity="3.8310459256172180e-01" nType="0">
          <Node pos="l" depth="2" NCoef="0" IVar="-1" Cut="0.0000000000000000e+00" cType="1" res="-3.4401621669530869e-03" rms="4.4583195447921753e-01" purity="3.3299601078033447e-01" nType="-99"/>
          <Node pos="r" depth="2" NCoef="0" IVar="-1" Cut="0.0000000000000000e+00" cType="1" res="-1.2756093638017774e-03" rms="4.7278493642807007e-01" purity="4.4362953305244446e-01" nType="-99"/>
        </Node>
        <Node pos="r" depth="1" NCoef="0" IVar="2" Cut="7.8476071357727051e-01" cType="1" res="-3.2304602209478617e-03" rms="4.6235609054565430e-01" purity="5.1295340061187744e-01" nType="0">
          <Node pos="l" depth="2" NCoef="0" IVar="-1" Cut="0.0000000000000000e+00" cType="1" res="-1.8774443306028843e-03" rms="4.4731390476226807e-01" purity="3.2368385791778564e-01" nType="-99"/>
          <Node pos="r" depth="2" NCoef="0" IVar="-1" Cut="0.0000000000000000e+00" cType="1" res="4.4748780783265829e-04" rms="4.6427133679389954e-01" purity="5.5866599082946777e-01" nType="-99"/>
        </Node>
      </Node>
    </BinaryTree>
    <BinaryTree type="DecisionTree" boostWeight="1.0000000000000000e+00" itree="194">
      <Node pos="s" depth="0" NCoef="0" IVar="0" Cut="1.4955985546112061e+00" cType="1" res="-1.3170980848371983e-02" rms="4.6279770135879517e-01" purity="4.9808296561241150e-01" nType="0">
        <Node pos="l" depth="1" NCoef="0" IVar="4" Cut="2.0893159484863281e+02" cType="1" res="1.5421274583786726e-03" rms="4.6966388821601868e-01" purity="5.4245501756668091e-01" nType="0">
          <Node pos="l" depth="2" NCoef="0" IVar="-1" Cut="0.0000000000000000e+00" cType="1" res="6.6514435457065701e-04" rms="4.6880367398262024e-01" purity="5.7366734743118286e-01" nType="-99"/>
          <Node pos="r" depth="2" NCoef="0" IVar="-1" Cut="0.0000000000000000e+00" cType="1" res="-1.3315337710082531e-03" rms="4.6835511922836304e-01" purity="4.6373808383941650e-01" nType="-99"/>
        </Node>
        <Node pos="r" depth="1" NCoef="0" IVar="7" Cut="6.6208046674728394e-01" cType="1" res="-8.8476695120334625e-02" rms="4.1789144277572632e-01" purity="2.7097478508949280e-01" nType="0">
          <Node pos="l" depth="2" NCoef="0" IVar="-1" Cut="0.0000000000000000e+00" cType="1" res="-2.9097739607095718e-03" rms="3.9108821749687195e-01" purity="2.0501853525638580e-01" nType="-99"/>
          <Node pos="r" depth="2" NCoef="0" IVar="-1" Cut="0.0000000000000000e+00" cType="1" res="-1.0976004414260387e-03" rms="4.4763463735580444e-01" purity="3.6040416359901428e-01" nType="-99"/>
        </Node>
      </Node>
    </BinaryTree>
    <BinaryTree type="DecisionTree" boostWeight="1.0000000000000000e+00" itree="195">
      <Node pos="s" depth="0" NCoef="0" IVar="3" Cut="4.1997123718261719e+01" cType="1" res="-1.2751278467476368e-02" rms="4.6238532662391663e-01" purity="4.9666789174079895e-01" nType="0">
        <Node pos="l" depth="1" NCoef="0" IVar="5" Cut="8.8412880897521973e-01" cType="1" res="-1.0044618695974350e-01" rms="4.5070818066596985e-01" purity="3.7176877260208130e-01" nType="0">
          <Node pos="l" depth="2" NCoef="0" IVar="-1" Cut="0.0000000000000000e+00" cType="1" res="-1.2445868924260139e-03" rms="4.8543953895568848e-01" purity="5.1324498653411865e-01" nType="-99"/>
          <Node pos="r" depth="2" NCoef="0" IVar="-1" Cut="0.0000000000000000e+00" cType="1" res="-3.3632125705480576e-03" rms="4.1542482376098633e-01" purity="2.5877377390861511e-01" nType="-99"/>
        </Node>
        <Node pos="r" depth="1" NCoef="0" IVar="1" Cut="1.0445145368576050e+00" cType="1" res="2.2377371788024902e-03" rms="4.6269157528877258e-01" purity="5.1801592111587524e-01" nType="0">
          <Node pos="l" depth="2" NCoef="0" IVar="-1" Cut="0.0000000000000000e+00" cType="1" res="1.3270491035655141e-03" rms="4.5967382192611694e-01" purity="6.0847353935241699e-01" nType="-99"/>
          <Node pos="r" depth="2" NCoef="0" IVar="-1" Cut="0.0000000000000000e+00" cType="1" res="-1.0531464358791709e-03" rms="4.6262693405151367e-01" purity="4.1764199733734131e-01" nType="-99"/>
        </Node>
      </Node>
    </BinaryTree>
    <BinaryTree type="DecisionTree" boostWeight="1.0000000000000000e+00" itree="196">
      <Node pos="s" depth="0" NCoef="0" IVar="8" Cut="5.9208619594573975e-01" cType="1" res="-7.3260958306491375e-03" rms="4.6372959017753601e-01" purity="5.0421780347824097e-01" nType="0">
        <Node pos="l" depth="1" NCoef="0" IVar="9" Cut="7.5776135921478271e-01" cType="1" res="-3.0760623514652252e-02" rms="4.6514284610748291e-01" purity="4.5318627357482910e-01" nType="0">
          <Node pos="l" depth="2" NCoef="0" IVar="-1" Cut="0.0000000000000000e+00" cType="1" res="-3.0568472575396299e-03" rms="4.1250038146972656e-01" purity="2.4939830601215363e-01" nType="-99"/>
          <Node pos="r" depth="2" NCoef="0" IVar="-1" Cut="0.0000000000000000e+00" cType="1" res="-5.9263448929414153e-04" rms="4.6902039647102356e-01" purity="4.7401282191276550e-01" nType="-99"/>
        </Node>
        <Node pos="r" depth="1" NCoef="0" IVar="3" Cut="8.6843841552734375e+01" cType="1" res="4.2978428304195404e-02" rms="4.5663756132125854e-01" purity="6.1376196146011353e-01" nType="0">
          <Node pos="l" depth="2" NCoef="0" IVar="-1" Cut="0.0000000000000000e+00" cType="1" res="4.8935168888419867e-04" rms="4.6574476361274719e-01" purity="5.7470726966857910e-01" nType="-99"/>
          <Node pos="r" depth="2" NCoef="0" IVar="-1" Cut="0.0000000000000000e+00" cType="1" res="3.5564182326197624e-03" rms="4.3604654073715210e-01" purity="6.8177586793899536e-01" nType="-99"/>
        </Node>
      </Node>
    </BinaryTree>
    <BinaryTree type="DecisionTree" boostWeight="1.0000000000000000e+00" itree="197">
      <Node pos="s" depth="0" NCoef="0" IVar="2" Cut="8.4648138284683228e-01" cType="1" res="-6.8989996798336506e-03" rms="4.6148574352264404e-01" purity="5.0285911560058594e-01" nType="0">
        <Node pos="l" depth="1" NCoef="0" IVar="0" Cut="7.7424645423889160e-01" cType="1" res="-4.5838143676519394e-02" rms="4.6017926931381226e-01" purity="3.8561853766441345e-01" nType="0">
          <Node pos="l" depth="2" NCoef="0" IVar="-1" Cut="0.0000000000000000e+00" cType="1" res="1.4527594903483987e-03" rms="4.7733438014984131e-01" purity="5.8850800991058350e-01" nType="-99"/>
          <Node pos="r" depth="2" NCoef="0" IVar="-1" Cut="0.0000000000000000e+00" cType="1" res="-1.5916842967271805e-03" rms="4.5508527755737305e-01" purity="3.4949427843093872e-01" nType="-99"/>
        </Node>
        <Node pos="r" depth="1" NCoef="0" IVar="4" Cut="8.3491516113281250e+01" cType="1" res="2.3037403821945190e-02" rms="4.6025308966636658e-01" purity="5.9299361705780029e-01" nType="0">
          <Node pos="l" depth="2" NCoef="0" IVar="-1" Cut="0.0000000000000000e+00" cType="1" res="-2.1134950220584869e-03" rms="4.6970912814140320e-01" purity="4.8215094208717346e-01" nType="-99"/>
          <Node pos="r" depth="2" NCoef="0" IVar="-1" Cut="0.0000000000000000e+00" cType="1" res="1.4058195520192385e-03" rms="4.5628452301025391e-01" purity="6.1332732439041138e-01" nType="-99"/>
        </Node>
      </Node>
    </BinaryTree>
    <BinaryTree type="DecisionTree" boostWeight="1.0000000000000000e+00" itree="198">
      <Node pos="s" depth="0" NCoef="0" IVar="0" Cut="9.7877275943756104e-01" cType="1" res="-1.0268559679389000e-02" rms="4.6265736222267151e-01" purity="5.0035190582275391e-01" nType="0">
        <Node pos="l" depth="1" NCoef="0" IVar="4" Cut="1.0759981536865234e+02" cType="1" res="3.7538446485996246e-02" rms="4.6156749129295349e-01" purity="6.5008765459060669e-01" nType="0">
          <Node pos="l" depth="2" NCoef="0" IVar="-1" Cut="0.0000000000000000e+00" cType="1" res="-2.9300004825927317e-04" rms="4.7892254590988159e-01" purity="5.9078389406204224e-01" nType="-99"/>
          <Node pos="r" depth="2" NCoef="0" IVar="-1" Cut="0.0000000000000000e+00" cType="1" res="2.3079267702996731e-03" rms="4.5100167393684387e-01" purity="6.7931598424911499e-01" nType="-99"/>
        </Node>
        <Node pos="r" depth="1" NCoef="0" IVar="2" Cut="8.5409671068191528e-01" cType="1" res="-3.7962522357702255e-02" rms="4.6102541685104370e-01" purity="4.1361191868782043e-01" nType="0">
          <Node pos="l" depth="2" NCoef="0" IVar="-1" Cut="0.0000000000000000e+00" cType="1" res="-1.8089549848809838e-03" rms="4.4588059186935425e-01" purity="3.1771823763847351e-01" nType="-99"/>
          <Node pos="r" depth="2" NCoef="0" IVar="-1" Cut="0.0000000000000000e+00" cType="1" res="-1.6285733727272600e-04" rms="4.7286811470985413e-01" purity="5.0579732656478882e-01" nType="-99"/>
        </Node>
      </Node>
    </BinaryTree>
    <BinaryTree type="DecisionTree" boostWeight="1.0000000000000000e+00" itree="199">
      <Node pos="s" depth="0" NCoef="0" IVar="0" Cut="1.4943883419036865e+00" cType="1" res="-2.7644620276987553e-03" rms="4.6128100156784058e-01" purity="5.0809854269027710e-01" nType="0">
        <Node pos="l" depth="1" NCoef="0" IVar="9" Cut="9.6884739398956299e-01" cType="1" res="1.3573503121733665e-02" rms="4.6692293882369995e-01" purity="5.5535048246383667e-01" nType="0">
          <Node pos="l" depth="2" NCoef="0" IVar="-1" Cut="0.0000000000000000e+00" cType="1" res="-5.7758798357099295e-04" rms="4.7365963459014893e-01" purity="4.7970631718635559e-01" nType="-99"/>
          <Node pos="r" depth="2" NCoef="0" IVar="-1" Cut="0.0000000000000000e+00" cType="1" res="1.6527284169569612e-03" rms="4.5771250128746033e-01" purity="6.3010621070861816e-01" nType="-99"/>
        </Node>
        <Node pos="r" depth="1" NCoef="0" IVar="0" Cut="1.6651543378829956e+00" cType="1" res="-8.3530217409133911e-02" rms="4.2314222455024719e-01" purity="2.7451124787330627e-01" nType="0">
          <Node pos="l" depth="2" NCoef="0" IVar="-1" Cut="0.0000000000000000e+00" cType="1" res="-1.3030470581725240e-03" rms="4.4922384619712830e-01" purity="3.3226415514945984e-01" nType="-99"/>
          <Node pos="r" depth="2" NCoef="0" IVar="-1" Cut="0.0000000000000000e+00" cType="1" res="-2.8346565086394548e-03" rms="3.9109739661216736e-01" purity="2.1424566209316254e-01" nType="-99"/>
        </Node>
      </Node>
    </BinaryTree>
    <BinaryTree type="DecisionTree" boostWeight="1.0000000000000000e+00" itree="200">
      <Node pos="s" depth="0" NCoef="0" IVar="0" Cut="7.1211588382720947e-01" cType="1" res="-6.1061829328536987e-03" rms="4.6307620406150818e-01" purity="5.0363945960998535e-01" nType="0">
        <Node pos="l" depth="1" NCoef="0" IVar="7" Cut="6.8284720182418823e-01" cType="1" res="8.7449304759502411e-02" rms="4.3587541580200195e-01" purity="7.2557049989700317e-01" nType="0">
          <Node pos="l" depth="2" NCoef="0" IVar="-1" Cut="0.0000000000000000e+00" cType="1" res="2.3035565391182899e-03" rms="4.6945607662200928e-01" purity="6.5200853347778320e-01" nType="-99"/>
          <Node pos="r" depth="2" NCoef="0" IVar="-1" Cut="0.0000000000000000e+00" cType="1" res="5.4750354029238224e-03" rms="3.9776435494422913e-01" purity="7.9999756813049316e-01" nType="-99"/>
        </Node>
        <Node pos="r" depth="1" NCoef="0" IVar="2" Cut="7.6442843675613403e-01" cType="1" res="-1.9098339602351189e-02" rms="4.6524295210838318e-01" purity="4.7281962633132935e-01" nType="0">
          <Node pos="l" depth="2" NCoef="0" IVar="-1" Cut="0.0000000000000000e+00" cType="1" res="-2.3419407662004232e-03" rms="4.2935216426849365e-01" purity="2.7297958731651306e-01" nType="-99"/>
          <Node pos="r" depth="2" NCoef="0" IVar="-1" Cut="0.0000000000000000e+00" cType="1" res="-1.9137471099384129e-04" rms="4.6972897648811340e-01" purity="5.0597012042999268e-01" nType="-99"/>
        </Node>
      </Node>
    </BinaryTree>
    <BinaryTree type="DecisionTree" boostWeight="1.0000000000000000e+00" itree="201">
      <Node pos="s" depth="0" NCoef="0" IVar="1" Cut="7.8830993175506592e-01" cType="1" res="-1.4954161830246449e-02" rms="4.6299967169761658e-01" purity="4.9756166338920593e-01" nType="0">
        <Node pos="l" depth="1" NCoef="0" IVar="8" Cut="5.7454383373260498e-01" cType="1" res="2.5835642591118813e-02" rms="4.6016028523445129e-01" purity="6.0035586357116699e-01" nType="0">
          <Node pos="l" depth="2" NCoef="0" IVar="-1" Cut="0.0000000000000000e+00" cType="1" res="-1.4326987729873508e-04" rms="4.6875053644180298e-01" purity="5.3198754787445068e-01" nType="-99"/>
          <Node pos="r" depth="2" NCoef="0" IVar="-1" Cut="0.0000000000000000e+00" cType="1" res="2.8672385960817337e-03" rms="4.4306406378746033e-01" purity="7.0273810625076294e-01" nType="-99"/>
        </Node>
        <Node pos="r" depth="1" NCoef="0" IVar="4" Cut="9.4717666625976562e+01" cType="1" res="-4.0392611175775528e-02" rms="4.6294564008712769e-01" purity="4.3345439434051514e-01" nType="0">
          <Node pos="l" depth="2" NCoef="0" IVar="-1" Cut="0.0000000000000000e+00" cType="1" res="-2.6520397514104843e-03" rms="4.5076280832290649e-01" purity="3.5606020689010620e-01" nType="-99"/>
          <Node pos="r" depth="2" NCoef="0" IVar="-1" Cut="0.0000000000000000e+00" cType="1" res="-6.6594500094652176e-04" rms="4.6461597084999084e-01" purity="4.5368656516075134e-01" nType="-99"/>
        </Node>
      </Node>
    </BinaryTree>
    <BinaryTree type="DecisionTree" boostWeight="1.0000000000000000e+00" itree="202">
      <Node pos="s" depth="0" NCoef="0" IVar="8" Cut="6.3704931735992432e-01" cType="1" res="-6.7957551218569279e-03" rms="4.6285611391067505e-01" purity="5.0462073087692261e-01" nType="0">
        <Node pos="l" depth="1" NCoef="0" IVar="0" Cut="1.5224828720092773e+00" cType="1" res="-2.0874233916401863e-02" rms="4.6388494968414307e-01" purity="4.7628170251846313e-01" nType="0">
          <Node pos="l" depth="2" NCoef="0" IVar="-1" Cut="0.0000000000000000e+00" cType="1" res="-2.3074359341990203e-04" rms="4.7151765227317810e-01" purity="5.1632845401763916e-01" nType="-99"/>
          <Node pos="r" depth="2" NCoef="0" IVar="-1" Cut="0.0000000000000000e+00" cType="1" res="-2.3272263351827860e-03" rms="4.1105708479881287e-01" purity="2.5267556309700012e-01" nType="-99"/>
        </Node>
        <Node pos="r" depth="1" NCoef="0" IVar="4" Cut="1.6331311035156250e+02" cType="1" res="7.1545809507369995e-02" rms="4.4909885525703430e-01" purity="6.6231703758239746e-01" nType="0">
          <Node pos="l" depth="2" NCoef="0" IVar="-1" Cut="0.0000000000000000e+00" cType="1" res="4.1194502264261246e-03" rms="4.3903729319572449e-01" purity="7.0607995986938477e-01" nType="-99"/>
          <Node pos="r" depth="2" NCoef="0" IVar="-1" Cut="0.0000000000000000e+00" cType="1" res="8.1350986147299409e-04" rms="4.6007147431373596e-01" purity="5.9516471624374390e-01" nType="-99"/>
        </Node>
      </Node>
    </BinaryTree>
    <BinaryTree type="DecisionTree" boostWeight="1.0000000000000000e+00" itree="203">
      <Node pos="s" depth="0" NCoef="0" IVar="5" Cut="8.8934040069580078e-01" cType="1" res="-2.0436700433492661e-02" rms="4.6066182851791382e-01" purity="4.8860839009284973e-01" nType="0">
        <Node pos="l" depth="1" NCoef="0" IVar="7" Cut="8.8177317380905151e-01" cType="1" res="2.5702927261590958e-02" rms="4.6145495772361755e-01" purity="6.4057010412216187e-01" nType="0">
          <Node pos="l" depth="2" NCoef="0" IVar="-1" Cut="0.0000000000000000e+00" cType="1" res="4.2708372347988188e-04" rms="4.6984040737152100e-01" purity="6.1517781019210815e-01" nType="-99"/>
          <Node pos="r" depth="2" NCoef="0" IVar="-1" Cut="0.0000000000000000e+00" cType="1" res="5.1987986080348492e-03" rms="3.9699572324752808e-01" purity="7.9640501737594604e-01" nType="-99"/>
        </Node>
        <Node pos="r" depth="1" NCoef="0" IVar="4" Cut="1.6042408752441406e+02" cType="1" res="-5.0740983337163925e-02" rms="4.5761600136756897e-01" purity="3.8880068063735962e-01" nType="0">
          <Node pos="l" depth="2" NCoef="0" IVar="-1" Cut="0.0000000000000000e+00" cType="1" res="-3.3841497497633100e-04" rms="4.6558576822280884e-01" purity="4.4431114196777344e-01" nType="-99"/>
          <Node pos="r" depth="2" NCoef="0" IVar="-1" Cut="0.0000000000000000e+00" cType="1" res="-2.2338917478919029e-03" rms="4.4622069597244263e-01" purity="3.3349043130874634e-01" nType="-99"/>
        </Node>
      </Node>
    </BinaryTree>
    <BinaryTree type="DecisionTree" boostWeight="1.0000000000000000e+00" itree="204">
      <Node pos="s" depth="0" NCoef="0" IVar="3" Cut="4.5166519165039062e+01" cType="1" res="-8.4087699651718140e-03" rms="4.6211069822311401e-01" purity="5.0385075807571411e-01" nType="0">
        <Node pos="l" depth="1" NCoef="0" IVar="1" Cut="7.6890492439270020e-01" cType="1" res="-7.6804362237453461e-02" rms="4.6027901768684387e-01" purity="4.0470227599143982e-01" nType="0">
          <Node pos="l" depth="2" NCoef="0" IVar="-1" Cut="0.0000000000000000e+00" cType="1" res="-4.3753816862590611e-04" rms="4.7981050610542297e-01" purity="5.2055591344833374e-01" nType="-99"/>
          <Node pos="r" depth="2" NCoef="0" IVar="-1" Cut="0.0000000000000000e+00" cType="1" res="-2.8061959892511368e-03" rms="4.4461530447006226e-01" purity="3.3737793564796448e-01" nType="-99"/>
        </Node>
        <Node pos="r" depth="1" NCoef="0" IVar="5" Cut="8.8726252317428589e-01" cType="1" res="6.1303093098104000e-03" rms="4.6119374036788940e-01" purity="5.2492707967758179e-01" nType="0">
          <Node pos="l" depth="2" NCoef="0" IVar="-1" Cut="0.0000000000000000e+00" cType="1" res="1.7862078966572881e-03" rms="4.5267003774642944e-01" purity="6.7697405815124512e-01" nType="-99"/>
          <Node pos="r" depth="2" NCoef="0" IVar="-1" Cut="0.0000000000000000e+00" cType="1" res="-5.3971301531419158e-04" rms="4.6460270881652832e-01" purity="4.2991665005683899e-01" nType="-99"/>
        </Node>
      </Node>
    </BinaryTree>
    <BinaryTree type="DecisionTree" boostWeight="1.0000000000000000e+00" itree="205">
      <Node pos="s" depth="0" NCoef="0" IVar="5" Cut="8.4523725509643555e-01" cType="1" res="-1.6607083380222321e-02" rms="4.5955303311347961e-01" purity="4.9297252297401428e-01" nType="0">
        <Node pos="l" depth="1" NCoef="0" IVar="2" Cut="7.7547132968902588e-01" cType="1" res="2.8131471946835518e-02" rms="4.5947477221488953e-01" purity="6.4506858587265015e-01" nType="0">
          <Node pos="l" depth="2" NCoef="0" IVar="-1" Cut="0.0000000000000000e+00" cType="1" res="-1.5462994342669845e-03" rms="4.8757010698318481e-01" purity="4.2296102643013000e-01" nType="-99"/>
          <Node pos="r" depth="2" NCoef="0" IVar="-1" Cut="0.0000000000000000e+00" cType="1" res="1.7091488698497415e-03" rms="4.5229694247245789e-01" purity="6.8541204929351807e-01" nType="-99"/>
        </Node>
        <Node pos="r" depth="1" NCoef="0" IVar="3" Cut="9.3023323059082031e+01" cType="1" res="-4.1584938764572144e-02" rms="4.5769834518432617e-01" purity="4.0805619955062866e-01" nType="0">
          <Node pos="l" depth="2" NCoef="0" IVar="-1" Cut="0.0000000000000000e+00" cType="1" res="-1.8207755638286471e-03" rms="4.5458087325096130e-01" purity="3.7036633491516113e-01" nType="-99"/>
          <Node pos="r" depth="2" NCoef="0" IVar="-1" Cut="0.0000000000000000e+00" cType="1" res="9.1668902314268053e-05" rms="4.5897793769836426e-01" purity="4.6708956360816956e-01" nType="-99"/>
        </Node>
      </Node>
    </BinaryTree>
    <BinaryTree type="DecisionTree" boostWeight="1.0000000000000000e+00" itree="206">
      <Node pos="s" depth="0" NCoef="0" IVar="4" Cut="6.8199775695800781e+01" cType="1" res="-1.2154074385762215e-02" rms="4.6100458502769470e-01" purity="4.9604234099388123e-01" nType="0">
        <Node pos="l" depth="1" NCoef="0" IVar="-1" Cut="0.0000000000000000e+00" cType="1" res="-3.0295022297650576e-03" rms="4.4316759705543518e-01" purity="3.5768488049507141e-01" nType="-99"/>
        <Node pos="r" depth="1" NCoef="0" IVar="4" Cut="1.6105786132812500e+02" cType="1" res="-7.8858103370293975e-04" rms="4.6140506863594055e-01" purity="5.1074665784835815e-01" nType="0">
          <Node pos="l" depth="2" NCoef="0" IVar="-1" Cut="0.0000000000000000e+00" cType="1" res="1.2364283902570605e-03" rms="4.6045356988906860e-01" purity="5.7589489221572876e-01" nType="-99"/>
          <Node pos="r" depth="2" NCoef="0" IVar="-1" Cut="0.0000000000000000e+00" cType="1" res="-1.1578937992453575e-03" rms="4.5892682671546936e-01" purity="4.4248500466346741e-01" nType="-99"/>
        </Node>
      </Node>
    </BinaryTree>
    <BinaryTree type="DecisionTree" boostWeight="1.0000000000000000e+00" itree="207">
      <Node pos="s" depth="0" NCoef="0" IVar="5" Cut="1.6980351209640503e+00" cType="1" res="-2.4220184423029423e-03" rms="4.6154510974884033e-01" purity="5.0706404447555542e-01" nType="0">
        <Node pos="l" depth="1" NCoef="0" IVar="4" Cut="9.2121437072753906e+01" cType="1" res="8.5969315841794014e-03" rms="4.6880754828453064e-01" purity="5.4318964481353760e-01" nType="0">
          <Node pos="l" depth="2" NCoef="0" IVar="-1" Cut="0.0000000000000000e+00" cType="1" res="-1.7819695640355349e-03" rms="4.7407594323158264e-01" purity="4.5661252737045288e-01" nType="-99"/>
          <Node pos="r" depth="2" NCoef="0" IVar="-1" Cut="0.0000000000000000e+00" cType="1" res="8.6213421309366822e-04" rms="4.6568739414215088e-01" purity="5.6482595205307007e-01" nType="-99"/>
        </Node>
        <Node pos="r" depth="1" NCoef="0" IVar="-1" Cut="0.0000000000000000e+00" cType="1" res="-2.5618157815188169e-03" rms="3.7233775854110718e-01" purity="1.7140774428844452e-01" nType="-99"/>
      </Node>
    </BinaryTree>
    <BinaryTree type="DecisionTree" boostWeight="1.0000000000000000e+00" itree="208">
      <Node pos="s" depth="0" NCoef="0" IVar="0" Cut="1.3241953849792480e+00" cType="1" res="-1.0781682096421719e-02" rms="4.5918506383895874e-01" purity="4.9757233262062073e-01" nType="0">
        <Node pos="l" depth="1" NCoef="0" IVar="8" Cut="6.1372679471969604e-01" cType="1" res="1.2389389798045158e-02" rms="4.6810823678970337e-01" purity="5.7480168342590332e-01" nType="0">
          <Node pos="l" depth="2" NCoef="0" IVar="-1" Cut="0.0000000000000000e+00" cType="1" res="-1.6598439833614975e-04" rms="4.7410410642623901e-01" purity="5.3310507535934448e-01" nType="-99"/>
          <Node pos="r" depth="2" NCoef="0" IVar="-1" Cut="0.0000000000000000e+00" cType="1" res="2.6585352607071400e-03" rms="4.4524946808815002e-01" purity="7.0043158531188965e-01" nType="-99"/>
        </Node>
        <Node pos="r" depth="1" NCoef="0" IVar="3" Cut="6.0787792205810547e+01" cType="1" res="-6.6050544381141663e-02" rms="4.3217948079109192e-01" purity="3.1336089968681335e-01" nType="0">
          <Node pos="l" depth="2" NCoef="0" IVar="-1" Cut="0.0000000000000000e+00" cType="1" res="-2.7464625891298056e-03" rms="4.0816235542297363e-01" purity="2.5583919882774353e-01" nType="-99"/>
          <Node pos="r" depth="2" NCoef="0" IVar="-1" Cut="0.0000000000000000e+00" cType="1" res="-1.1435219785198569e-03" rms="4.4134142994880676e-01" purity="3.4056127071380615e-01" nType="-99"/>
        </Node>
      </Node>
    </BinaryTree>
    <BinaryTree type="DecisionTree" boostWeight="1.0000000000000000e+00" itree="209">
      <Node pos="s" depth="0" NCoef="0" IVar="8" Cut="6.0399919748306274e-01" cType="1" res="-8.3396574482321739e-03" rms="4.6138796210289001e-01" purity="5.0272226333618164e-01" nType="0">
        <Node pos="l" depth="1" NCoef="0" IVar="5" Cut="1.0680091381072998e+00" cType="1" res="-2.9205158352851868e-02" rms="4.6282744407653809e-01" purity="4.5675727725028992e-01" nType="0">
          <Node pos="l" depth="2" NCoef="0" IVar="-1" Cut="0.0000000000000000e+00" cType="1" res="-5.3896026656730101e-05" rms="4.7813215851783752e-01" purity="5.7653218507766724e-01" nType="-99"/>
          <Node pos="r" depth="2" NCoef="0" IVar="-1" Cut="0.0000000000000000e+00" cType="1" res="-1.5700141666457057e-03" rms="4.4136902689933777e-01" purity="3.1215411424636841e-01" nType="-99"/>
        </Node>
        <Node pos="r" depth="1" NCoef="0" IVar="4" Cut="1.5290582275390625e+02" cType="1" res="5.0046946853399277e-02" rms="4.5224863290786743e-01" purity="6.3134306669235229e-01" nType="0">
          <Node pos="l" depth="2" NCoef="0" IVar="-1" Cut="0.0000000000000000e+00" cType="1" res="3.3144040498882532e-03" rms="4.3913111090660095e-01" purity="6.8235403299331665e-01" nType="-99"/>
          <Node pos="r" depth="2" NCoef="0" IVar="-1" Cut="0.0000000000000000e+00" cType="1" res="2.4817441590130329e-04" rms="4.6354946494102478e-01" purity="5.7157027721405029e-01" nType="-99"/>
        </Node>
      </Node>
    </BinaryTree>
    <BinaryTree type="DecisionTree" boostWeight="1.0000000000000000e+00" itree="210">
      <Node pos="s" depth="0" NCoef="0" IVar="4" Cut="1.6148406982421875e+02" cType="1" res="-6.4674336463212967e-03" rms="4.6086785197257996e-01" purity="5.0449562072753906e-01" nType="0">
        <Node pos="l" depth="1" NCoef="0" IVar="4" Cut="9.6235160827636719e+01" cType="1" res="2.1170549094676971e-02" rms="4.6090564131736755e-01" purity="5.5223214626312256e-01" nType="0">
          <Node pos="l" depth="2" NCoef="0" IVar="-1" Cut="0.0000000000000000e+00" cType="1" res="-1.8215678865090013e-03" rms="4.6373301744461060e-01" purity="4.3812373280525208e-01" nType="-99"/>
          <Node pos="r" depth="2" NCoef="0" IVar="-1" Cut="0.0000000000000000e+00" cType="1" res="2.5595496408641338e-03" rms="4.5125535130500793e-01" purity="6.2036114931106567e-01" nType="-99"/>
        </Node>
        <Node pos="r" depth="1" NCoef="0" IVar="5" Cut="9.8631781339645386e-01" cType="1" res="-4.1882060468196869e-02" rms="4.5839023590087891e-01" purity="4.4332715868949890e-01" nType="0">
          <Node pos="l" depth="2" NCoef="0" IVar="-1" Cut="0.0000000000000000e+00" cType="1" res="-7.4098374170716852e-05" rms="4.7292801737785339e-01" purity="6.1068779230117798e-01" nType="-99"/>
          <Node pos="r" depth="2" NCoef="0" IVar="-1" Cut="0.0000000000000000e+00" cType="1" res="-1.7285741632804275e-03" rms="4.4626739621162415e-01" purity="3.2992151379585266e-01" nType="-99"/>
        </Node>
      </Node>
    </BinaryTree>
    <BinaryTree type="DecisionTree" boostWeight="1.0000000000000000e+00" itree="211">
      <Node pos="s" depth="0" NCoef="0" IVar="1" Cut="2.4713091850280762e+00" cType="1" res="-6.8863686174154282e-03" rms="4.6064892411231995e-01" purity="5.0418722629547119e-01" nType="0">
        <Node pos="l" depth="1" NCoef="0" IVar="4" Cut="2.7660958862304688e+02" cType="1" res="2.9617187101393938e-03" rms="4.6480831503868103e-01" purity="5.2951419353485107e-01" nType="0">
          <Node pos="l" depth="2" NCoef="0" IVar="-1" Cut="0.0000000000000000e+00" cType="1" res="5.7094148360192776e-04" rms="4.6579924225807190e-01" purity="5.5835098028182983e-01" nType="-99"/>
          <Node pos="r" depth="2" NCoef="0" IVar="-1" Cut="0.0000000000000000e+00" cType="1" res="-1.7340637277811766e-03" rms="4.5446175336837769e-01" purity="4.0192773938179016e-01" nType="-99"/>
        </Node>
        <Node pos="r" depth="1" NCoef="0" IVar="-1" Cut="0.0000000000000000e+00" cType="1" res="-2.6657588314265013e-03" rms="4.0087726712226868e-01" purity="2.4094310402870178e-01" nType="-99"/>
      </Node>
    </BinaryTree>
    <BinaryTree type="DecisionTree" boostWeight="1.0000000000000000e+00" itree="212">
      <Node pos="s" depth="0" NCoef="0" IVar="4" Cut="3.0500595092773438e+02" cType="1" res="-7.3882522992789745e-03" rms="4.6220576763153076e-01" purity="5.0331205129623413e-01" nType="0">
        <Node pos="l" depth="1" NCoef="0" IVar="3" Cut="8.5116157531738281e+01" cType="1" res="5.6553566828370094e-03" rms="4.6375024318695068e-01" purity="5.2792775630950928e-01" nType="0">
          <Node pos="l" depth="2" NCoef="0" IVar="-1" Cut="0.0000000000000000e+00" cType="1" res="-6.8473577266559005e-04" rms="4.7009286284446716e-01" purity="4.8936066031455994e-01" nType="-99"/>
          <Node pos="r" depth="2" NCoef="0" IVar="-1" Cut="0.0000000000000000e+00" cType="1" res="1.9249178003519773e-03" rms="4.4822210073471069e-01" purity="5.9413713216781616e-01" nType="-99"/>
        </Node>
        <Node pos="r" depth="1" NCoef="0" IVar="8" Cut="5.7030946016311646e-01" cType="1" res="-8.0640137195587158e-02" rms="4.4640964269638062e-01" purity="3.6507233977317810e-01" nType="0">
          <Node pos="l" depth="2" NCoef="0" IVar="-1" Cut="0.0000000000000000e+00" cType="1" res="-2.6262141764163971e-03" rms="4.3447938561439514e-01" purity="3.1000003218650818e-01" nType="-99"/>
          <Node pos="r" depth="2" NCoef="0" IVar="-1" Cut="0.0000000000000000e+00" cType="1" res="-1.2360432883724570e-03" rms="4.6299740672111511e-01" purity="4.5575535297393799e-01" nType="-99"/>
        </Node>
      </Node>
    </BinaryTree>
    <BinaryTree type="DecisionTree" boostWeight="1.0000000000000000e+00" itree="213">
      <Node pos="s" depth="0" NCoef="0" IVar="2" Cut="7.9497593641281128e-01" cType="1" res="-3.3755886834114790e-03" rms="4.6010220050811768e-01" purity="5.0685423612594604e-01" nType="0">
        <Node pos="l" depth="1" NCoef="0" IVar="1" Cut="1.2034406661987305e+00" cType="1" res="-6.4746938645839691e-02" rms="4.4584199786186218e-01" purity="3.3150556683540344e-01" nType="0">
          <Node pos="l" depth="2" NCoef="0" IVar="-1" Cut="0.0000000000000000e+00" cType="1" res="-8.7587814778089523e-04" rms="4.7348487377166748e-01" purity="4.0859478712081909e-01" nType="-99"/>
          <Node pos="r" depth="2" NCoef="0" IVar="-1" Cut="0.0000000000000000e+00" cType="1" res="-2.6420007925480604e-03" rms="4.0021243691444397e-01" purity="2.2438384592533112e-01" nType="-99"/>
        </Node>
        <Node pos="r" depth="1" NCoef="0" IVar="3" Cut="8.9541656494140625e+01" cType="1" res="1.5389449894428253e-02" rms="4.6275305747985840e-01" purity="5.6046921014785767e-01" nType="0">
          <Node pos="l" depth="2" NCoef="0" IVar="-1" Cut="0.0000000000000000e+00" cType="1" res="-3.1741423299536109e-04" rms="4.6744993329048157e-01" purity="5.2449125051498413e-01" nType="-99"/>
          <Node pos="r" depth="2" NCoef="0" IVar="-1" Cut="0.0000000000000000e+00" cType="1" res="2.0976089872419834e-03" rms="4.5126751065254211e-01" purity="6.2159454822540283e-01" nType="-99"/>
        </Node>
      </Node>
    </BinaryTree>
    <BinaryTree type="DecisionTree" boostWeight="1.0000000000000000e+00" itree="214">
      <Node pos="s" depth="0" NCoef="0" IVar="4" Cut="1.6148406982421875e+02" cType="1" res="-9.8316278308629990e-03" rms="4.5983055233955383e-01" purity="5.0002372264862061e-01" nType="0">
        <Node pos="l" depth="1" NCoef="0" IVar="4" Cut="9.6242759704589844e+01" cType="1" res="2.1071046590805054e-02" rms="4.6008661389350891e-01" purity="5.5233705043792725e-01" nType="0">
          <Node pos="l" depth="2" NCoef="0" IVar="-1" Cut="0.0000000000000000e+00" cType="1" res="-1.3246404705569148e-03" rms="4.6168541908264160e-01" purity="4.5646345615386963e-01" nType="-99"/>
          <Node pos="r" depth="2" NCoef="0" IVar="-1" Cut="0.0000000000000000e+00" cType="1" res="2.2233771160244942e-03" rms="4.5377591252326965e-01" purity="6.1345714330673218e-01" nType="-99"/>
        </Node>
        <Node pos="r" depth="1" NCoef="0" IVar="5" Cut="1.0652617216110229e+00" cType="1" res="-4.8345308750867844e-02" rms="4.5659291744232178e-01" purity="4.3482616543769836e-01" nType="0">
          <Node pos="l" depth="2" NCoef="0" IVar="-1" Cut="0.0000000000000000e+00" cType="1" res="-1.7476353968959302e-04" rms="4.7465205192565918e-01" purity="5.9673452377319336e-01" nType="-99"/>
          <Node pos="r" depth="2" NCoef="0" IVar="-1" Cut="0.0000000000000000e+00" cType="1" res="-2.0913288462907076e-03" rms="4.3754735589027405e-01" purity="2.9852789640426636e-01" nType="-99"/>
        </Node>
      </Node>
    </BinaryTree>
    <BinaryTree type="DecisionTree" boostWeight="1.0000000000000000e+00" itree="215">
      <Node pos="s" depth="0" NCoef="0" IVar="0" Cut="1.0080703496932983e+00" cType="1" res="-1.0131276212632656e-02" rms="4.5970875024795532e-01" purity="4.9900552630424500e-01" nType="0">
        <Node pos="l" depth="1" NCoef="0" IVar="4" Cut="1.4994435119628906e+02" cType="1" res="3.0142009258270264e-02" rms="4.6064153313636780e-01" purity="6.4363908767700195e-01" nType="0">
          <Node pos="l" depth="2" NCoef="0" IVar="-1" Cut="0.0000000000000000e+00" cType="1" res="2.1743229590356350e-03" rms="4.5037087798118591e-01" purity="6.7353147268295288e-01" nType="-99"/>
          <Node pos="r" depth="2" NCoef="0" IVar="-1" Cut="0.0000000000000000e+00" cType="1" res="-3.4482838236726820e-04" rms="4.7217145562171936e-01" purity="6.0046827793121338e-01" nType="-99"/>
        </Node>
        <Node pos="r" depth="1" NCoef="0" IVar="7" Cut="6.2003457546234131e-01" cType="1" res="-3.6277875304222107e-02" rms="4.5720687508583069e-01" purity="4.0510517358779907e-01" nType="0">
          <Node pos="l" depth="2" NCoef="0" IVar="-1" Cut="0.0000000000000000e+00" cType="1" res="-1.9517791224643588e-03" rms="4.3998980522155762e-01" purity="3.0819258093833923e-01" nType="-99"/>
          <Node pos="r" depth="2" NCoef="0" IVar="-1" Cut="0.0000000000000000e+00" cType="1" res="-1.1266327783232555e-04" rms="4.6759444475173950e-01" purity="4.8040521144866943e-01" nType="-99"/>
        </Node>
      </Node>
    </BinaryTree>
    <BinaryTree type="DecisionTree" boostWeight="1.0000000000000000e+00" itree="216">
      <Node pos="s" depth="0" NCoef="0" IVar="8" Cut="6.0042691230773926e-01" cType="1" res="-8.5279457271099091e-03" rms="4.5963427424430847e-01" purity="5.0012224912643433e-01" nType="0">
        <Node pos="l" depth="1" NCoef="0" IVar="4" Cut="1.6148406982421875e+02" cType="1" res="-2.8538778424263000e-02" rms="4.6340075135231018e-01" purity="4.5445427298545837e-01" nType="0">
          <Node pos="l" depth="2" NCoef="0" IVar="-1" Cut="0.0000000000000000e+00" cType="1" res="-7.5950934842694551e-05" rms="4.6404722332954407e-01" purity="4.9945196509361267e-01" nType="-99"/>
          <Node pos="r" depth="2" NCoef="0" IVar="-1" Cut="0.0000000000000000e+00" cType="1" res="-1.6320816939696670e-03" rms="4.6057280898094177e-01" purity="3.9873069524765015e-01" nType="-99"/>
        </Node>
        <Node pos="r" depth="1" NCoef="0" IVar="5" Cut="9.9972242116928101e-01" cType="1" res="4.2312480509281158e-02" rms="4.4590219855308533e-01" purity="6.1614853143692017e-01" nType="0">
          <Node pos="l" depth="2" NCoef="0" IVar="-1" Cut="0.0000000000000000e+00" cType="1" res="4.0246210992336273e-03" rms="4.1579559445381165e-01" purity="7.6445955038070679e-01" nType="-99"/>
          <Node pos="r" depth="2" NCoef="0" IVar="-1" Cut="0.0000000000000000e+00" cType="1" res="-1.3578688958659768e-04" rms="4.7102406620979309e-01" purity="4.5964932441711426e-01" nType="-99"/>
        </Node>
      </Node>
    </BinaryTree>
    <BinaryTree type="DecisionTree" boostWeight="1.0000000000000000e+00" itree="217">
      <Node pos="s" depth="0" NCoef="0" IVar="0" Cut="1.6407006978988647e+00" cType="1" res="-1.5562531538307667e-02" rms="4.6231392025947571e-01" purity="4.9491220712661743e-01" nType="0">
        <Node pos="l" depth="1" NCoef="0" IVar="2" Cut="7.4431425333023071e-01" cType="1" res="-6.6316565498709679e-03" rms="4.6803689002990723e-01" purity="5.2189302444458008e-01" nType="0">
          <Node pos="l" depth="2" NCoef="0" IVar="-1" Cut="0.0000000000000000e+00" cType="1" res="-2.2765079047530890e-03" rms="4.4476968050003052e-01" purity="2.9971131682395935e-01" nType="-99"/>
          <Node pos="r" depth="2" NCoef="0" IVar="-1" Cut="0.0000000000000000e+00" cType="1" res="6.1289159930311143e-05" rms="4.6937274932861328e-01" purity="5.4364979267120361e-01" nType="-99"/>
        </Node>
        <Node pos="r" depth="1" NCoef="0" IVar="-1" Cut="0.0000000000000000e+00" cType="1" res="-2.5909810792654753e-03" rms="3.8801562786102295e-01" purity="2.2063806653022766e-01" nType="-99"/>
      </Node>
    </BinaryTree>
    <BinaryTree type="DecisionTree" boostWeight="1.0000000000000000e+00" itree="218">
      <Node pos="s" depth="0" NCoef="0" IVar="1" Cut="1.9957433938980103e+00" cType="1" res="-1.6384305432438850e-02" rms="4.6150302886962891e-01" purity="4.9310332536697388e-01" nType="0">
        <Node pos="l" depth="1" NCoef="0" IVar="8" Cut="5.8927154541015625e-01" cType="1" res="-3.3891869243234396e-03" rms="4.6647810935974121e-01" purity="5.2975296974182129e-01" nType="0">
          <Node pos="l" depth="2" NCoef="0" IVar="-1" Cut="0.0000000000000000e+00" cType="1" res="-7.6180259929969907e-04" rms="4.7051170468330383e-01" purity="4.7487974166870117e-01" nType="-99"/>
          <Node pos="r" depth="2" NCoef="0" IVar="-1" Cut="0.0000000000000000e+00" cType="1" res="1.5586904482915998e-03" rms="4.5473298430442810e-01" purity="6.3958531618118286e-01" nType="-99"/>
        </Node>
        <Node pos="r" depth="1" NCoef="0" IVar="3" Cut="7.3087089538574219e+01" cType="1" res="-9.0480521321296692e-02" rms="4.2450883984565735e-01" purity="2.8413245081901550e-01" nType="0">
          <Node pos="l" depth="2" NCoef="0" IVar="-1" Cut="0.0000000000000000e+00" cType="1" res="-3.0290842987596989e-03" rms="4.1191923618316650e-01" purity="2.5067630410194397e-01" nType="-99"/>
          <Node pos="r" depth="2" NCoef="0" IVar="-1" Cut="0.0000000000000000e+00" cType="1" res="-1.5659815398976207e-03" rms="4.3316376209259033e-01" purity="3.1428432464599609e-01" nType="-99"/>
        </Node>
      </Node>
    </BinaryTree>
    <BinaryTree type="DecisionTree" boostWeight="1.0000000000000000e+00" itree="219">
      <Node pos="s" depth="0" NCoef="0" IVar="8" Cut="5.9721064567565918e-01" cType="1" res="-6.3604759052395821e-03" rms="4.6073362231254578e-01" purity="5.0312995910644531e-01" nType="0">
        <Node pos="l" depth="1" NCoef="0" IVar="3" Cut="3.8080696105957031e+01" cType="1" res="-2.8484171256422997e-02" rms="4.6204683184623718e-01" purity="4.5158687233924866e-01" nType="0">
          <Node pos="l" depth="2" NCoef="0" IVar="-1" Cut="0.0000000000000000e+00" cType="1" res="-3.1893742270767689e-03" rms="4.4337728619575500e-01" purity="3.1767722964286804e-01" nType="-99"/>
          <Node pos="r" depth="2" NCoef="0" IVar="-1" Cut="0.0000000000000000e+00" cType="1" res="-5.0358753651380539e-04" rms="4.6267983317375183e-01" purity="4.6605530381202698e-01" nType="-99"/>
        </Node>
        <Node pos="r" depth="1" NCoef="0" IVar="4" Cut="1.6651797485351562e+02" cType="1" res="4.6872347593307495e-02" rms="4.5315372943878174e-01" purity="6.2714993953704834e-01" nType="0">
          <Node pos="l" depth="2" NCoef="0" IVar="-1" Cut="0.0000000000000000e+00" cType="1" res="2.9469856526702642e-03" rms="4.4369697570800781e-01" purity="6.7878705263137817e-01" nType="-99"/>
          <Node pos="r" depth="2" NCoef="0" IVar="-1" Cut="0.0000000000000000e+00" cType="1" res="1.3819454761687666e-04" rms="4.6326613426208496e-01" purity="5.5209475755691528e-01" nType="-99"/>
        </Node>
      </Node>
    </BinaryTree>
    <BinaryTree type="DecisionTree" boostWeight="1.0000000000000000e+00" itree="220">
      <Node pos="s" depth="0" NCoef="0" IVar="5" Cut="1.6362184286117554e+00" cType="1" res="-1.1093480512499809e-02" rms="4.5967915654182434e-01" purity="4.9588021636009216e-01" nType="0">
        <Node pos="l" depth="1" NCoef="0" IVar="3" Cut="3.6730998992919922e+01" cType="1" res="6.7156628938391805e-04" rms="4.6874561905860901e-01" purity="5.3921318054199219e-01" nType="0">
          <Node pos="l" depth="2" NCoef="0" IVar="-1" Cut="0.0000000000000000e+00" cType="1" res="-2.8956010937690735e-03" rms="4.6951383352279663e-01" purity="3.8000807166099548e-01" nType="-99"/>
          <Node pos="r" depth="2" NCoef="0" IVar="-1" Cut="0.0000000000000000e+00" cType="1" res="3.5736989229917526e-04" rms="4.6722176671028137e-01" purity="5.5386644601821899e-01" nType="-99"/>
        </Node>
        <Node pos="r" depth="1" NCoef="0" IVar="-1" Cut="0.0000000000000000e+00" cType="1" res="-2.4288271088153124e-03" rms="3.7602734565734863e-01" purity="1.7924727499485016e-01" nType="-99"/>
      </Node>
    </BinaryTree>
    <BinaryTree type="DecisionTree" boostWeight="1.0000000000000000e+00" itree="221">
      <Node pos="s" depth="0" NCoef="0" IVar="3" Cut="3.7717563629150391e+01" cType="1" res="-8.1062801182270050e-03" rms="4.5965620875358582e-01" purity="4.9937212467193604e-01" nType="0">
        <Node pos="l" depth="1" NCoef="0" IVar="-1" Cut="0.0000000000000000e+00" cType="1" res="-2.8207995928823948e-03" rms="4.5011883974075317e-01" purity="3.5923337936401367e-01" nType="-99"/>
        <Node pos="r" depth="1" NCoef="0" IVar="2" Cut="7.8281033039093018e-01" cType="1" res="2.9355515725910664e-03" rms="4.5928266644477844e-01" purity="5.1429247856140137e-01" nType="0">
          <Node pos="l" depth="2" NCoef="0" IVar="-1" Cut="0.0000000000000000e+00" cType="1" res="-1.6820176970213652e-03" rms="4.5038041472434998e-01" purity="3.2597544789314270e-01" nType="-99"/>
          <Node pos="r" depth="2" NCoef="0" IVar="-1" Cut="0.0000000000000000e+00" cType="1" res="6.2670937040820718e-04" rms="4.5986434817314148e-01" purity="5.5944228172302246e-01" nType="-99"/>
        </Node>
      </Node>
    </BinaryTree>
    <BinaryTree type="DecisionTree" boostWeight="1.0000000000000000e+00" itree="222">
      <Node pos="s" depth="0" NCoef="0" IVar="5" Cut="1.6980351209640503e+00" cType="1" res="-9.6403481438755989e-03" rms="4.5841675996780396e-01" purity="4.9756997823715210e-01" nType="0">
        <Node pos="l" depth="1" NCoef="0" IVar="7" Cut="5.5719619989395142e-01" cType="1" res="2.4374963250011206e-03" rms="4.6751818060874939e-01" purity="5.3756010532379150e-01" nType="0">
          <Node pos="l" depth="2" NCoef="0" IVar="-1" Cut="0.0000000000000000e+00" cType="1" res="-1.4077593805268407e-03" rms="4.6469464898109436e-01" purity="3.9787125587463379e-01" nType="-99"/>
          <Node pos="r" depth="2" NCoef="0" IVar="-1" Cut="0.0000000000000000e+00" cType="1" res="6.4943352481350303e-04" rms="4.6699881553649902e-01" purity="5.8033627271652222e-01" nType="-99"/>
        </Node>
        <Node pos="r" depth="1" NCoef="0" IVar="-1" Cut="0.0000000000000000e+00" cType="1" res="-2.8047505766153336e-03" rms="3.5431674122810364e-01" purity="1.5334056317806244e-01" nType="-99"/>
      </Node>
    </BinaryTree>
    <BinaryTree type="DecisionTree" boostWeight="1.0000000000000000e+00" itree="223">
      <Node pos="s" depth="0" NCoef="0" IVar="3" Cut="4.5747325897216797e+01" cType="1" res="-2.5290909688919783e-03" rms="4.5842915773391724e-01" purity="5.0548660755157471e-01" nType="0">
        <Node pos="l" depth="1" NCoef="0" IVar="3" Cut="3.7716751098632812e+01" cType="1" res="-7.5623914599418640e-02" rms="4.5704808831214905e-01" purity="3.9835155010223389e-01" nType="0">
          <Node pos="l" depth="2" NCoef="0" IVar="-1" Cut="0.0000000000000000e+00" cType="1" res="-2.9033457394689322e-03" rms="4.4733682274818420e-01" purity="3.4690719842910767e-01" nType="-99"/>
          <Node pos="r" depth="2" NCoef="0" IVar="-1" Cut="0.0000000000000000e+00" cType="1" res="-8.2364340778440237e-04" rms="4.6316027641296387e-01" purity="4.5523458719253540e-01" nType="-99"/>
        </Node>
        <Node pos="r" depth="1" NCoef="0" IVar="2" Cut="8.1991821527481079e-01" cType="1" res="1.4558350667357445e-02" rms="4.5706880092620850e-01" purity="5.3053164482116699e-01" nType="0">
          <Node pos="l" depth="2" NCoef="0" IVar="-1" Cut="0.0000000000000000e+00" cType="1" res="-1.1759418994188309e-03" rms="4.5328813791275024e-01" purity="3.6566755175590515e-01" nType="-99"/>
          <Node pos="r" depth="2" NCoef="0" IVar="-1" Cut="0.0000000000000000e+00" cType="1" res="1.4747019158676267e-03" rms="4.5617389678955078e-01" purity="6.0890102386474609e-01" nType="-99"/>
        </Node>
      </Node>
    </BinaryTree>
    <BinaryTree type="DecisionTree" boostWeight="1.0000000000000000e+00" itree="224">
      <Node pos="s" depth="0" NCoef="0" IVar="3" Cut="9.0325141906738281e+01" cType="1" res="-1.0507417842745781e-02" rms="4.6154698729515076e-01" purity="4.9794176220893860e-01" nType="0">
        <Node pos="l" depth="1" NCoef="0" IVar="0" Cut="1.0065884590148926e+00" cType="1" res="-3.5017285495996475e-02" rms="4.6612176299095154e-01" purity="4.6515560150146484e-01" nType="0">
          <Node pos="l" depth="2" NCoef="0" IVar="-1" Cut="0.0000000000000000e+00" cType="1" res="-2.7399082682677545e-06" rms="4.7819516062736511e-01" purity="5.9495842456817627e-01" nType="-99"/>
          <Node pos="r" depth="2" NCoef="0" IVar="-1" Cut="0.0000000000000000e+00" cType="1" res="-1.5834905207157135e-03" rms="4.5551604032516479e-01" purity="3.7120544910430908e-01" nType="-99"/>
        </Node>
        <Node pos="r" depth="1" NCoef="0" IVar="4" Cut="2.2980497741699219e+02" cType="1" res="3.2413739711046219e-02" rms="4.5022171735763550e-01" purity="5.5535620450973511e-01" nType="0">
          <Node pos="l" depth="2" NCoef="0" IVar="-1" Cut="0.0000000000000000e+00" cType="1" res="2.6997758541256189e-03" rms="4.4274184107780457e-01" purity="6.2658816576004028e-01" nType="-99"/>
          <Node pos="r" depth="2" NCoef="0" IVar="-1" Cut="0.0000000000000000e+00" cType="1" res="-1.0435516014695168e-03" rms="4.5392060279846191e-01" purity="4.3815869092941284e-01" nType="-99"/>
        </Node>
      </Node>
    </BinaryTree>
    <BinaryTree type="DecisionTree" boostWeight="1.0000000000000000e+00" itree="225">
      <Node pos="s" depth="0" NCoef="0" IVar="5" Cut="8.7903779745101929e-01" cType="1" res="-6.0815364122390747e-03" rms="4.6015655994415283e-01" purity="5.0329613685607910e-01" nType="0">
        <Node pos="l" depth="1" NCoef="0" IVar="4" Cut="9.7429283142089844e+01" cType="1" res="3.4693293273448944e-02" rms="4.5833572745323181e-01" purity="6.5244632959365845e-01" nType="0">
          <Node pos="l" depth="2" NCoef="0" IVar="-1" Cut="0.0000000000000000e+00" cType="1" res="-9.6462701912969351e-04" rms="4.7980502247810364e-01" purity="5.6211745738983154e-01" nType="-99"/>
          <Node pos="r" depth="2" NCoef="0" IVar="-1" Cut="0.0000000000000000e+00" cType="1" res="2.1995792631059885e-03" rms="4.4840872287750244e-01" purity="6.8381893634796143e-01" nType="-99"/>
        </Node>
        <Node pos="r" depth="1" NCoef="0" IVar="9" Cut="8.6588406562805176e-01" cType="1" res="-3.2421950250864029e-02" rms="4.5940893888473511e-01" purity="4.0694555640220642e-01" nType="0">
          <Node pos="l" depth="2" NCoef="0" IVar="-1" Cut="0.0000000000000000e+00" cType="1" res="-2.6156455278396606e-03" rms="4.0921169519424438e-01" purity="2.3938426375389099e-01" nType="-99"/>
          <Node pos="r" depth="2" NCoef="0" IVar="-1" Cut="0.0000000000000000e+00" cType="1" res="-4.4850769336335361e-04" rms="4.6806570887565613e-01" purity="4.4355621933937073e-01" nType="-99"/>
        </Node>
      </Node>
    </BinaryTree>
    <BinaryTree type="DecisionTree" boostWeight="1.0000000000000000e+00" itree="226">
      <Node pos="s" depth="0" NCoef="0" IVar="3" Cut="1.4634167480468750e+02" cType="1" res="-6.1385128647089005e-03" rms="4.5913478732109070e-01" purity="5.0077950954437256e-01" nType="0">
        <Node pos="l" depth="1" NCoef="0" IVar="3" Cut="9.0189857482910156e+01" cType="1" res="2.6306428480893373e-03" rms="4.5977649092674255e-01" purity="5.1374942064285278e-01" nType="0">
          <Node pos="l" depth="2" NCoef="0" IVar="-1" Cut="0.0000000000000000e+00" cType="1" res="-6.6351174609735608e-04" rms="4.6266269683837891e-01" purity="4.7602087259292603e-01" nType="-99"/>
          <Node pos="r" depth="2" NCoef="0" IVar="-1" Cut="0.0000000000000000e+00" cType="1" res="1.9210486207157373e-03" rms="4.4897973537445068e-01" purity="5.9287720918655396e-01" nType="-99"/>
        </Node>
        <Node pos="r" depth="1" NCoef="0" IVar="-1" Cut="0.0000000000000000e+00" cType="1" res="-2.8676874935626984e-03" rms="4.3777838349342346e-01" purity="3.4471368789672852e-01" nType="-99"/>
      </Node>
    </BinaryTree>
    <BinaryTree type="DecisionTree" boostWeight="1.0000000000000000e+00" itree="227">
      <Node pos="s" depth="0" NCoef="0" IVar="1" Cut="2.3839077949523926e+00" cType="1" res="-1.4861134812235832e-02" rms="4.6081575751304626e-01" purity="4.9498757719993591e-01" nType="0">
        <Node pos="l" depth="1" NCoef="0" IVar="3" Cut="4.1561588287353516e+01" cType="1" res="-4.4208182953298092e-03" rms="4.6618473529815674e-01" purity="5.2350300550460815e-01" nType="0">
          <Node pos="l" depth="2" NCoef="0" IVar="-1" Cut="0.0000000000000000e+00" cType="1" res="-2.1218070760369301e-03" rms="4.6515953540802002e-01" purity="4.0831783413887024e-01" nType="-99"/>
          <Node pos="r" depth="2" NCoef="0" IVar="-1" Cut="0.0000000000000000e+00" cType="1" res="2.3402686929330230e-04" rms="4.6521863341331482e-01" purity="5.4139584302902222e-01" nType="-99"/>
        </Node>
        <Node pos="r" depth="1" NCoef="0" IVar="-1" Cut="0.0000000000000000e+00" cType="1" res="-2.7361344546079636e-03" rms="3.9630356431007385e-01" purity="2.3555676639080048e-01" nType="-99"/>
      </Node>
    </BinaryTree>
    <BinaryTree type="DecisionTree" boostWeight="1.0000000000000000e+00" itree="228">
      <Node pos="s" depth="0" NCoef="0" IVar="3" Cut="4.5166519165039062e+01" cType="1" res="-1.2334730476140976e-02" rms="4.6007725596427917e-01" purity="4.9695122241973877e-01" nType="0">
        <Node pos="l" depth="1" NCoef="0" IVar="3" Cut="3.4448989868164062e+01" cType="1" res="-7.7522344887256622e-02" rms="4.6068271994590759e-01" purity="3.9651802182197571e-01" nType="0">
          <Node pos="l" depth="2" NCoef="0" IVar="-1" Cut="0.0000000000000000e+00" cType="1" res="-3.2098977826535702e-03" rms="4.4632229208946228e-01" purity="3.3096715807914734e-01" nType="-99"/>
          <Node pos="r" depth="2" NCoef="0" IVar="-1" Cut="0.0000000000000000e+00" cType="1" res="-1.2169083347544074e-03" rms="4.6608492732048035e-01" purity="4.3670877814292908e-01" nType="-99"/>
        </Node>
        <Node pos="r" depth="1" NCoef="0" IVar="8" Cut="6.2259244918823242e-01" cType="1" res="1.7634378746151924e-03" rms="4.5872947573661804e-01" purity="5.1867192983627319e-01" nType="0">
          <Node pos="l" depth="2" NCoef="0" IVar="-1" Cut="0.0000000000000000e+00" cType="1" res="-4.3308024760335684e-04" rms="4.6249616146087646e-01" purity="4.8156067728996277e-01" nType="-99"/>
          <Node pos="r" depth="2" NCoef="0" IVar="-1" Cut="0.0000000000000000e+00" cType="1" res="2.5571370497345924e-03" rms="4.3751063942909241e-01" purity="6.6532582044601440e-01" nType="-99"/>
        </Node>
      </Node>
    </BinaryTree>
    <BinaryTree type="DecisionTree" boostWeight="1.0000000000000000e+00" itree="229">
      <Node pos="s" depth="0" NCoef="0" IVar="4" Cut="2.5536624145507812e+02" cType="1" res="-1.6976417973637581e-02" rms="4.6176895499229431e-01" purity="4.9353477358818054e-01" nType="0">
        <Node pos="l" depth="1" NCoef="0" IVar="4" Cut="8.2287948608398438e+01" cType="1" res="-1.4751458074897528e-03" rms="4.6286869049072266e-01" purity="5.2160155773162842e-01" nType="0">
          <Node pos="l" depth="2" NCoef="0" IVar="-1" Cut="0.0000000000000000e+00" cType="1" res="-1.9663334824144840e-03" rms="4.5794567465782166e-01" purity="4.1823202371597290e-01" nType="-99"/>
          <Node pos="r" depth="2" NCoef="0" IVar="-1" Cut="0.0000000000000000e+00" cType="1" res="4.4623619760386646e-04" rms="4.6252509951591492e-01" purity="5.4480463266372681e-01" nType="-99"/>
        </Node>
        <Node pos="r" depth="1" NCoef="0" IVar="3" Cut="8.8274871826171875e+01" cType="1" res="-7.3733687400817871e-02" rms="4.5321753621101379e-01" purity="3.9076927304267883e-01" nType="0">
          <Node pos="l" depth="2" NCoef="0" IVar="-1" Cut="0.0000000000000000e+00" cType="1" res="-3.0949655920267105e-03" rms="4.4163542985916138e-01" purity="3.2587918639183044e-01" nType="-99"/>
          <Node pos="r" depth="2" NCoef="0" IVar="-1" Cut="0.0000000000000000e+00" cType="1" res="-1.0658634128049016e-03" rms="4.5828092098236084e-01" purity="4.3861493468284607e-01" nType="-99"/>
        </Node>
      </Node>
    </BinaryTree>
    <BinaryTree type="DecisionTree" boostWeight="1.0000000000000000e+00" itree="230">
      <Node pos="s" depth="0" NCoef="0" IVar="1" Cut="6.6737949848175049e-01" cType="1" res="-8.9051658287644386e-03" rms="4.6091151237487793e-01" purity="5.0189626216888428e-01" nType="0">
        <Node pos="l" depth="1" NCoef="0" IVar="4" Cut="1.6302627563476562e+02" cType="1" res="3.7283498793840408e-02" rms="4.5613837242126465e-01" purity="6.1705189943313599e-01" nType="0">
          <Node pos="l" depth="2" NCoef="0" IVar="-1" Cut="0.0000000000000000e+00" cType="1" res="2.3039118386805058e-03" rms="4.4893983006477356e-01" purity="6.6345214843750000e-01" nType="-99"/>
          <Node pos="r" depth="2" NCoef="0" IVar="-1" Cut="0.0000000000000000e+00" cType="1" res="2.8047816158505157e-05" rms="4.6393197774887085e-01" purity="5.5001771450042725e-01" nType="-99"/>
        </Node>
        <Node pos="r" depth="1" NCoef="0" IVar="3" Cut="7.3262107849121094e+01" cType="1" res="-3.0209071934223175e-02" rms="4.6154144406318665e-01" purity="4.4878217577934265e-01" nType="0">
          <Node pos="l" depth="2" NCoef="0" IVar="-1" Cut="0.0000000000000000e+00" cType="1" res="-1.7342580249533057e-03" rms="4.5787146687507629e-01" purity="4.0507847070693970e-01" nType="-99"/>
          <Node pos="r" depth="2" NCoef="0" IVar="-1" Cut="0.0000000000000000e+00" cType="1" res="6.4025676692835987e-05" rms="4.6265611052513123e-01" purity="4.9004212021827698e-01" nType="-99"/>
        </Node>
      </Node>
    </BinaryTree>
    <BinaryTree type="DecisionTree" boostWeight="1.0000000000000000e+00" itree="231">
      <Node pos="s" depth="0" NCoef="0" IVar="1" Cut="1.1927576065063477e+00" cType="1" res="-8.1099634990096092e-03" rms="4.5967108011245728e-01" purity="5.0104045867919922e-01" nType="0">
        <Node pos="l" depth="1" NCoef="0" IVar="2" Cut="7.5323385000228882e-01" cType="1" res="1.9646447151899338e-02" rms="4.6142011880874634e-01" purity="5.8009266853332520e-01" nType="0">
          <Node pos="l" depth="2" NCoef="0" IVar="-1" Cut="0.0000000000000000e+00" cType="1" res="-2.0633304957300425e-03" rms="4.5748120546340942e-01" purity="3.3238801360130310e-01" nType="-99"/>
          <Node pos="r" depth="2" NCoef="0" IVar="-1" Cut="0.0000000000000000e+00" cType="1" res="1.0972406016662717e-03" rms="4.6035018563270569e-01" purity="6.0988789796829224e-01" nType="-99"/>
        </Node>
        <Node pos="r" depth="1" NCoef="0" IVar="3" Cut="5.5610080718994141e+01" cType="1" res="-4.9078579992055893e-02" rms="4.5398688316345215e-01" purity="3.8435894250869751e-01" nType="0">
          <Node pos="l" depth="2" NCoef="0" IVar="-1" Cut="0.0000000000000000e+00" cType="1" res="-2.5112652219831944e-03" rms="4.3416446447372437e-01" purity="3.2033208012580872e-01" nType="-99"/>
          <Node pos="r" depth="2" NCoef="0" IVar="-1" Cut="0.0000000000000000e+00" cType="1" res="-7.7001762110739946e-04" rms="4.6043467521667480e-01" purity="4.1136321425437927e-01" nType="-99"/>
        </Node>
      </Node>
    </BinaryTree>
    <BinaryTree type="DecisionTree" boostWeight="1.0000000000000000e+00" itree="232">
      <Node pos="s" depth="0" NCoef="0" IVar="0" Cut="1.2445169687271118e+00" cType="1" res="-3.9343871176242828e-03" rms="4.6142408251762390e-01" purity="5.0554656982421875e-01" nType="0">
        <Node pos="l" depth="1" NCoef="0" IVar="3" Cut="8.8858680725097656e+01" cType="1" res="1.8471991643309593e-02" rms="4.6875885128974915e-01" purity="5.9565520286560059e-01" nType="0">
          <Node pos="l" depth="2" NCoef="0" IVar="-1" Cut="0.0000000000000000e+00" cType="1" res="-1.1560612620087340e-04" rms="4.7728893160820007e-01" purity="5.5733442306518555e-01" nType="-99"/>
          <Node pos="r" depth="2" NCoef="0" IVar="-1" Cut="0.0000000000000000e+00" cType="1" res="2.2762748412787914e-03" rms="4.4934687018394470e-01" purity="6.6764688491821289e-01" nType="-99"/>
        </Node>
        <Node pos="r" depth="1" NCoef="0" IVar="3" Cut="7.7480644226074219e+01" cType="1" res="-4.1998326778411865e-02" rms="4.4611665606498718e-01" purity="3.5246998071670532e-01" nType="0">
          <Node pos="l" depth="2" NCoef="0" IVar="-1" Cut="0.0000000000000000e+00" cType="1" res="-1.9703253637999296e-03" rms="4.3097499012947083e-01" purity="3.0406960844993591e-01" nType="-99"/>
          <Node pos="r" depth="2" NCoef="0" IVar="-1" Cut="0.0000000000000000e+00" cType="1" res="-2.5671315961517394e-04" rms="4.5706468820571899e-01" purity="3.9665383100509644e-01" nType="-99"/>
        </Node>
      </Node>
    </BinaryTree>
    <BinaryTree type="DecisionTree" boostWeight="1.0000000000000000e+00" itree="233">
      <Node pos="s" depth="0" NCoef="0" IVar="5" Cut="1.6984581947326660e+00" cType="1" res="-7.9763727262616158e-03" rms="4.5927408337593079e-01" purity="4.9859184026718140e-01" nType="0">
        <Node pos="l" depth="1" NCoef="0" IVar="4" Cut="8.4631233215332031e+01" cType="1" res="1.9299066625535488e-03" rms="4.6734350919723511e-01" purity="5.3500026464462280e-01" nType="0">
          <Node pos="l" depth="2" NCoef="0" IVar="-1" Cut="0.0000000000000000e+00" cType="1" res="-1.9723037257790565e-03" rms="4.7069746255874634e-01" purity="4.4166594743728638e-01" nType="-99"/>
          <Node pos="r" depth="2" NCoef="0" IVar="-1" Cut="0.0000000000000000e+00" cType="1" res="5.0008739344775677e-04" rms="4.6537911891937256e-01" purity="5.5266380310058594e-01" nType="-99"/>
        </Node>
        <Node pos="r" depth="1" NCoef="0" IVar="-1" Cut="0.0000000000000000e+00" cType="1" res="-2.4929866194725037e-03" rms="3.6549913883209229e-01" purity="1.6618429124355316e-01" nType="-99"/>
      </Node>
    </BinaryTree>
    <BinaryTree type="DecisionTree" boostWeight="1.0000000000000000e+00" itree="234">
      <Node pos="s" depth="0" NCoef="0" IVar="4" Cut="1.6071969604492188e+02" cType="1" res="-1.7331030219793320e-02" rms="4.6001404523849487e-01" purity="4.8886895179748535e-01" nType="0">
        <Node pos="l" depth="1" NCoef="0" IVar="4" Cut="9.5454803466796875e+01" cType="1" res="1.0229970328509808e-02" rms="4.5892551541328430e-01" purity="5.3607839345932007e-01" nType="0">
          <Node pos="l" depth="2" NCoef="0" IVar="-1" Cut="0.0000000000000000e+00" cType="1" res="-1.6032546991482377e-03" rms="4.6059781312942505e-01" purity="4.3347486853599548e-01" nType="-99"/>
          <Node pos="r" depth="2" NCoef="0" IVar="-1" Cut="0.0000000000000000e+00" cType="1" res="1.7676588613539934e-03" rms="4.5286360383033752e-01" purity="5.9936714172363281e-01" nType="-99"/>
        </Node>
        <Node pos="r" depth="1" NCoef="0" IVar="1" Cut="3.8962635397911072e-01" cType="1" res="-5.2210215479135513e-02" rms="4.5902174711227417e-01" purity="4.2912405729293823e-01" nType="0">
          <Node pos="l" depth="2" NCoef="0" IVar="-1" Cut="0.0000000000000000e+00" cType="1" res="7.3103338945657015e-04" rms="4.6365964412689209e-01" purity="5.8269196748733521e-01" nType="-99"/>
          <Node pos="r" depth="2" NCoef="0" IVar="-1" Cut="0.0000000000000000e+00" cType="1" res="-1.7433505272492766e-03" rms="4.5720505714416504e-01" purity="4.0509867668151855e-01" nType="-99"/>
        </Node>
      </Node>
    </BinaryTree>
    <BinaryTree type="DecisionTree" boostWeight="1.0000000000000000e+00" itree="235">
      <Node pos="s" depth="0" NCoef="0" IVar="7" Cut="8.3046352863311768e-01" cType="1" res="-5.9313103556632996e-03" rms="4.5775118470191956e-01" purity="5.0137943029403687e-01" nType="0">
        <Node pos="l" depth="1" NCoef="0" IVar="4" Cut="2.3561567687988281e+02" cType="1" res="-2.2141141816973686e-02" rms="4.6037825942039490e-01" purity="4.6321210265159607e-01" nType="0">
          <Node pos="l" depth="2" NCoef="0" IVar="-1" Cut="0.0000000000000000e+00" cType="1" res="-1.0764278704300523e-04" rms="4.6311536431312561e-01" purity="4.9678337574005127e-01" nType="-99"/>
          <Node pos="r" depth="2" NCoef="0" IVar="-1" Cut="0.0000000000000000e+00" cType="1" res="-1.9932778086513281e-03" rms="4.4824284315109253e-01" purity="3.6712428927421570e-01" nType="-99"/>
        </Node>
        <Node pos="r" depth="1" NCoef="0" IVar="3" Cut="6.5739845275878906e+01" cType="1" res="5.5282078683376312e-02" rms="4.4236668944358826e-01" purity="6.4551144838333130e-01" nType="0">
          <Node pos="l" depth="2" NCoef="0" IVar="-1" Cut="0.0000000000000000e+00" cType="1" res="3.2287838985212147e-04" rms="4.6067497134208679e-01" purity="5.8086210489273071e-01" nType="-99"/>
          <Node pos="r" depth="2" NCoef="0" IVar="-1" Cut="0.0000000000000000e+00" cType="1" res="3.6287934053689241e-03" rms="4.2420089244842529e-01" purity="6.9581598043441772e-01" nType="-99"/>
        </Node>
      </Node>
    </BinaryTree>
    <BinaryTree type="DecisionTree" boostWeight="1.0000000000000000e+00" itree="236">
      <Node pos="s" depth="0" NCoef="0" IVar="0" Cut="1.4955985546112061e+00" cType="1" res="-1.2144559063017368e-02" rms="4.6021121740341187e-01" purity="4.9609655141830444e-01" nType="0">
        <Node pos="l" depth="1" NCoef="0" IVar="8" Cut="4.8617780208587646e-01" cType="1" res="6.2482105568051338e-04" rms="4.6705949306488037e-01" purity="5.3988808393478394e-01" nType="0">
          <Node pos="l" depth="2" NCoef="0" IVar="-1" Cut="0.0000000000000000e+00" cType="1" res="-1.4135849196463823e-03" rms="4.6829950809478760e-01" purity="4.1745200753211975e-01" nType="-99"/>
          <Node pos="r" depth="2" NCoef="0" IVar="-1" Cut="0.0000000000000000e+00" cType="1" res="5.3503905655816197e-04" rms="4.6551761031150818e-01" purity="5.7600885629653931e-01" nType="-99"/>
        </Node>
        <Node pos="r" depth="1" NCoef="0" IVar="7" Cut="6.7260056734085083e-01" cType="1" res="-7.8821338713169098e-02" rms="4.1633978486061096e-01" purity="2.6743417978286743e-01" nType="0">
          <Node pos="l" depth="2" NCoef="0" IVar="-1" Cut="0.0000000000000000e+00" cType="1" res="-2.5978600606322289e-03" rms="3.9411559700965881e-01" purity="2.1216934919357300e-01" nType="-99"/>
          <Node pos="r" depth="2" NCoef="0" IVar="-1" Cut="0.0000000000000000e+00" cType="1" res="-1.1111493222415447e-03" rms="4.4389283657073975e-01" purity="3.4686017036437988e-01" nType="-99"/>
        </Node>
      </Node>
    </BinaryTree>
    <BinaryTree type="DecisionTree" boostWeight="1.0000000000000000e+00" itree="237">
      <Node pos="s" depth="0" NCoef="0" IVar="4" Cut="6.5790687561035156e+01" cType="1" res="-1.1178157292306423e-02" rms="4.5954298973083496e-01" purity="4.9486976861953735e-01" nType="0">
        <Node pos="l" depth="1" NCoef="0" IVar="-1" Cut="0.0000000000000000e+00" cType="1" res="-2.9504999984055758e-03" rms="4.4175013899803162e-01" purity="3.5255679488182068e-01" nType="-99"/>
        <Node pos="r" depth="1" NCoef="0" IVar="4" Cut="1.5875521850585938e+02" cType="1" res="-1.4796137111261487e-03" rms="4.6000924706459045e-01" purity="5.0833290815353394e-01" nType="0">
          <Node pos="l" depth="2" NCoef="0" IVar="-1" Cut="0.0000000000000000e+00" cType="1" res="1.1143777519464493e-03" rms="4.5719185471534729e-01" purity="5.7245624065399170e-01" nType="-99"/>
          <Node pos="r" depth="2" NCoef="0" IVar="-1" Cut="0.0000000000000000e+00" cType="1" res="-1.0967314010486007e-03" rms="4.5999932289123535e-01" purity="4.4123998284339905e-01" nType="-99"/>
        </Node>
      </Node>
    </BinaryTree>
    <BinaryTree type="DecisionTree" boostWeight="1.0000000000000000e+00" itree="238">
      <Node pos="s" depth="0" NCoef="0" IVar="2" Cut="7.8527855873107910e-01" cType="1" res="-2.6496383361518383e-03" rms="4.6121069788932800e-01" purity="5.0716960430145264e-01" nType="0">
        <Node pos="l" depth="1" NCoef="0" IVar="5" Cut="7.8859162330627441e-01" cType="1" res="-6.5092608332633972e-02" rms="4.4237074255943298e-01" purity="3.1823003292083740e-01" nType="0">
          <Node pos="l" depth="2" NCoef="0" IVar="-1" Cut="0.0000000000000000e+00" cType="1" res="-9.6526127890683711e-05" rms="4.9469459056854248e-01" purity="4.8485329747200012e-01" nType="-99"/>
          <Node pos="r" depth="2" NCoef="0" IVar="-1" Cut="0.0000000000000000e+00" cType="1" res="-2.1870858035981655e-03" rms="4.1831451654434204e-01" purity="2.5465044379234314e-01" nType="-99"/>
        </Node>
        <Node pos="r" depth="1" NCoef="0" IVar="4" Cut="1.5476092529296875e+02" cType="1" res="1.3203537091612816e-02" rms="4.6453851461410522e-01" purity="5.5513811111450195e-01" nType="0">
          <Node pos="l" depth="2" NCoef="0" IVar="-1" Cut="0.0000000000000000e+00" cType="1" res="1.5855180099606514e-03" rms="4.5561608672142029e-01" purity="6.0790163278579712e-01" nType="-99"/>
          <Node pos="r" depth="2" NCoef="0" IVar="-1" Cut="0.0000000000000000e+00" cType="1" res="-7.6823192648589611e-04" rms="4.7196334600448608e-01" purity="4.9244031310081482e-01" nType="-99"/>
        </Node>
      </Node>
    </BinaryTree>
    <BinaryTree type="DecisionTree" boostWeight="1.0000000000000000e+00" itree="239">
      <Node pos="s" depth="0" NCoef="0" IVar="2" Cut="8.0261468887329102e-01" cType="1" res="-8.1183528527617455e-03" rms="4.5915818214416504e-01" purity="4.9950987100601196e-01" nType="0">
        <Node pos="l" depth="1" NCoef="0" IVar="5" Cut="1.0568978786468506e+00" cType="1" res="-6.3765779137611389e-02" rms="4.4461998343467712e-01" purity="3.3037105202674866e-01" nType="0">
          <Node pos="l" depth="2" NCoef="0" IVar="-1" Cut="0.0000000000000000e+00" cType="1" res="-7.0141028845682740e-04" rms="4.8856762051582336e-01" purity="4.5886301994323730e-01" nType="-99"/>
          <Node pos="r" depth="2" NCoef="0" IVar="-1" Cut="0.0000000000000000e+00" cType="1" res="-2.4828417226672173e-03" rms="3.9486691355705261e-01" purity="2.0761349797248840e-01" nType="-99"/>
        </Node>
        <Node pos="r" depth="1" NCoef="0" IVar="3" Cut="4.8310413360595703e+01" cType="1" res="1.1480268090963364e-02" rms="4.6257874369621277e-01" purity="5.5907934904098511e-01" nType="0">
          <Node pos="l" depth="2" NCoef="0" IVar="-1" Cut="0.0000000000000000e+00" cType="1" res="-1.3566007837653160e-03" rms="4.7017037868499756e-01" purity="4.5985350012779236e-01" nType="-99"/>
          <Node pos="r" depth="2" NCoef="0" IVar="-1" Cut="0.0000000000000000e+00" cType="1" res="9.2444813344627619e-04" rms="4.5919945836067200e-01" purity="5.8564096689224243e-01" nType="-99"/>
        </Node>
      </Node>
    </BinaryTree>
    <BinaryTree type="DecisionTree" boostWeight="1.0000000000000000e+00" itree="240">
      <Node pos="s" depth="0" NCoef="0" IVar="3" Cut="5.0159053802490234e+01" cType="1" res="-1.8701504450291395e-03" rms="4.6181648969650269e-01" purity="5.0656622648239136e-01" nType="0">
        <Node pos="l" depth="1" NCoef="0" IVar="0" Cut="1.2650208473205566e+00" cType="1" res="-5.1856324076652527e-02" rms="4.6451160311698914e-01" purity="4.3223890662193298e-01" nType="0">
          <Node pos="l" depth="2" NCoef="0" IVar="-1" Cut="0.0000000000000000e+00" cType="1" res="-6.0268695233389735e-04" rms="4.8364761471748352e-01" purity="5.1917606592178345e-01" nType="-99"/>
          <Node pos="r" depth="2" NCoef="0" IVar="-1" Cut="0.0000000000000000e+00" cType="1" res="-2.7936934493482113e-03" rms="4.1438487172126770e-01" purity="2.5170400738716125e-01" nType="-99"/>
        </Node>
        <Node pos="r" depth="1" NCoef="0" IVar="4" Cut="1.6106845092773438e+02" cType="1" res="1.3714258559048176e-02" rms="4.5986327528953552e-01" purity="5.2973955869674683e-01" nType="0">
          <Node pos="l" depth="2" NCoef="0" IVar="-1" Cut="0.0000000000000000e+00" cType="1" res="1.5590386465191841e-03" rms="4.5759233832359314e-01" purity="5.8964550495147705e-01" nType="-99"/>
          <Node pos="r" depth="2" NCoef="0" IVar="-1" Cut="0.0000000000000000e+00" cType="1" res="-6.2032393179833889e-04" rms="4.5973110198974609e-01" purity="4.6554306149482727e-01" nType="-99"/>
        </Node>
      </Node>
    </BinaryTree>
    <BinaryTree type="DecisionTree" boostWeight="1.0000000000000000e+00" itree="241">
      <Node pos="s" depth="0" NCoef="0" IVar="2" Cut="7.4579191207885742e-01" cType="1" res="-5.2977642044425011e-03" rms="4.6106868982315063e-01" purity="5.0429010391235352e-01" nType="0">
        <Node pos="l" depth="1" NCoef="0" IVar="-1" Cut="0.0000000000000000e+00" cType="1" res="-2.2074372973293066e-03" rms="4.3492358922958374e-01" purity="2.7771291136741638e-01" nType="-99"/>
        <Node pos="r" depth="1" NCoef="0" IVar="4" Cut="6.5790687561035156e+01" cType="1" res="3.6750298459082842e-03" rms="4.6288082003593445e-01" purity="5.2853906154632568e-01" nType="0">
          <Node pos="l" depth="2" NCoef="0" IVar="-1" Cut="0.0000000000000000e+00" cType="1" res="-2.3948026355355978e-03" rms="4.5709812641143799e-01" purity="3.9276301860809326e-01" nType="-99"/>
          <Node pos="r" depth="2" NCoef="0" IVar="-1" Cut="0.0000000000000000e+00" cType="1" res="3.9601323078386486e-04" rms="4.6243789792060852e-01" purity="5.4143053293228149e-01" nType="-99"/>
        </Node>
      </Node>
    </BinaryTree>
    <BinaryTree type="DecisionTree" boostWeight="1.0000000000000000e+00" itree="242">
      <Node pos="s" depth="0" NCoef="0" IVar="0" Cut="1.6365941762924194e+00" cType="1" res="4.2528408812358975e-04" rms="4.5879620313644409e-01" purity="5.1090097427368164e-01" nType="0">
        <Node pos="l" depth="1" NCoef="0" IVar="1" Cut="1.0653722286224365e+00" cType="1" res="1.0555316694080830e-02" rms="4.6361711621284485e-01" purity="5.4013150930404663e-01" nType="0">
          <Node pos="l" depth="2" NCoef="0" IVar="-1" Cut="0.0000000000000000e+00" cType="1" res="1.2395001249387860e-03" rms="4.6059936285018921e-01" purity="6.1326146125793457e-01" nType="-99"/>
          <Node pos="r" depth="2" NCoef="0" IVar="-1" Cut="0.0000000000000000e+00" cType="1" res="-6.3370377756655216e-04" rms="4.6542754769325256e-01" purity="4.4521656632423401e-01" nType="-99"/>
        </Node>
        <Node pos="r" depth="1" NCoef="0" IVar="-1" Cut="0.0000000000000000e+00" cType="1" res="-2.4613803252577782e-03" rms="3.9525508880615234e-01" purity="2.2521215677261353e-01" nType="-99"/>
      </Node>
    </BinaryTree>
    <BinaryTree type="DecisionTree" boostWeight="1.0000000000000000e+00" itree="243">
      <Node pos="s" depth="0" NCoef="0" IVar="2" Cut="7.2392743825912476e-01" cType="1" res="-7.0801796391606331e-03" rms="4.6172171831130981e-01" purity="5.0341325998306274e-01" nType="0">
        <Node pos="l" depth="1" NCoef="0" IVar="-1" Cut="0.0000000000000000e+00" cType="1" res="-2.6999765541404486e-03" rms="4.1053923964500427e-01" purity="2.4324741959571838e-01" nType="-99"/>
        <Node pos="r" depth="1" NCoef="0" IVar="3" Cut="8.9588233947753906e+01" cType="1" res="-1.6136647900566459e-04" rms="4.6411383152008057e-01" purity="5.2077788114547729e-01" nType="0">
          <Node pos="l" depth="2" NCoef="0" IVar="-1" Cut="0.0000000000000000e+00" cType="1" res="-6.2385573983192444e-04" rms="4.6817779541015625e-01" purity="4.9112173914909363e-01" nType="-99"/>
          <Node pos="r" depth="2" NCoef="0" IVar="-1" Cut="0.0000000000000000e+00" cType="1" res="1.2035504914820194e-03" rms="4.5482742786407471e-01" purity="5.7148510217666626e-01" nType="-99"/>
        </Node>
      </Node>
    </BinaryTree>
    <BinaryTree type="DecisionTree" boostWeight="1.0000000000000000e+00" itree="244">
      <Node pos="s" depth="0" NCoef="0" IVar="7" Cut="5.6770128011703491e-01" cType="1" res="-1.2541322968900204e-02" rms="4.6256920695304871e-01" purity="4.9874693155288696e-01" nType="0">
        <Node pos="l" depth="1" NCoef="0" IVar="9" Cut="8.3495837450027466e-01" cType="1" res="-6.3514940440654755e-02" rms="4.5216032862663269e-01" purity="3.6464017629623413e-01" nType="0">
          <Node pos="l" depth="2" NCoef="0" IVar="-1" Cut="0.0000000000000000e+00" cType="1" res="-2.8680395334959030e-03" rms="4.1256484389305115e-01" purity="2.4201402068138123e-01" nType="-99"/>
          <Node pos="r" depth="2" NCoef="0" IVar="-1" Cut="0.0000000000000000e+00" cType="1" res="-1.1733598075807095e-03" rms="4.6373045444488525e-01" purity="4.0798154473304749e-01" nType="-99"/>
        </Node>
        <Node pos="r" depth="1" NCoef="0" IVar="3" Cut="6.5746429443359375e+01" cType="1" res="7.0245522074401379e-03" rms="4.6502128243446350e-01" purity="5.5022287368774414e-01" nType="0">
          <Node pos="l" depth="2" NCoef="0" IVar="-1" Cut="0.0000000000000000e+00" cType="1" res="-8.8151980889961123e-04" rms="4.7124341130256653e-01" purity="4.9908074736595154e-01" nType="-99"/>
          <Node pos="r" depth="2" NCoef="0" IVar="-1" Cut="0.0000000000000000e+00" cType="1" res="1.1332533322274685e-03" rms="4.5870390534400940e-01" purity="5.8684712648391724e-01" nType="-99"/>
        </Node>
      </Node>
    </BinaryTree>
    <BinaryTree type="DecisionTree" boostWeight="1.0000000000000000e+00" itree="245">
      <Node pos="s" depth="0" NCoef="0" IVar="2" Cut="7.5302428007125854e-01" cType="1" res="-4.0713986381888390e-03" rms="4.6254000067710876e-01" purity="5.0454753637313843e-01" nType="0">
        <Node pos="l" depth="1" NCoef="0" IVar="-1" Cut="0.0000000000000000e+00" cType="1" res="-2.0544580183923244e-03" rms="4.3418759107589722e-01" purity="2.8475305438041687e-01" nType="-99"/>
        <Node pos="r" depth="1" NCoef="0" IVar="3" Cut="8.8872901916503906e+01" cType="1" res="6.0083693824708462e-03" rms="4.6509706974029541e-01" purity="5.3277230262756348e-01" nType="0">
          <Node pos="l" depth="2" NCoef="0" IVar="-1" Cut="0.0000000000000000e+00" cType="1" res="-4.5230661635287106e-04" rms="4.6850624680519104e-01" purity="5.0059831142425537e-01" nType="-99"/>
          <Node pos="r" depth="2" NCoef="0" IVar="-1" Cut="0.0000000000000000e+00" cType="1" res="1.3980374205857515e-03" rms="4.5731469988822937e-01" purity="5.8564132452011108e-01" nType="-99"/>
        </Node>
      </Node>
    </BinaryTree>
    <BinaryTree type="DecisionTree" boostWeight="1.0000000000000000e+00" itree="246">
      <Node pos="s" depth="0" NCoef="0" IVar="7" Cut="6.8336611986160278e-01" cType="1" res="-7.4581918306648731e-03" rms="4.6038565039634705e-01" purity="5.0092810392379761e-01" nType="0">
        <Node pos="l" depth="1" NCoef="0" IVar="3" Cut="4.3854438781738281e+01" cType="1" res="-3.4703142940998077e-02" rms="4.5945301651954651e-01" purity="4.1876718401908875e-01" nType="0">
          <Node pos="l" depth="2" NCoef="0" IVar="-1" Cut="0.0000000000000000e+00" cType="1" res="-2.4093503598123789e-03" rms="4.4640746712684631e-01" purity="3.2936629652976990e-01" nType="-99"/>
          <Node pos="r" depth="2" NCoef="0" IVar="-1" Cut="0.0000000000000000e+00" cType="1" res="-6.3845101976767182e-04" rms="4.6090999245643616e-01" purity="4.3581137061119080e-01" nType="-99"/>
        </Node>
        <Node pos="r" depth="1" NCoef="0" IVar="4" Cut="8.7469436645507812e+01" cType="1" res="2.6742689311504364e-02" rms="4.5927149057388306e-01" purity="6.0406553745269775e-01" nType="0">
          <Node pos="l" depth="2" NCoef="0" IVar="-1" Cut="0.0000000000000000e+00" cType="1" res="-1.1405894765630364e-03" rms="4.6840566396713257e-01" purity="5.1674753427505493e-01" nType="-99"/>
          <Node pos="r" depth="2" NCoef="0" IVar="-1" Cut="0.0000000000000000e+00" cType="1" res="1.4187571359798312e-03" rms="4.5620191097259521e-01" purity="6.2231826782226562e-01" nType="-99"/>
        </Node>
      </Node>
    </BinaryTree>
    <BinaryTree type="DecisionTree" boostWeight="1.0000000000000000e+00" itree="247">
      <Node pos="s" depth="0" NCoef="0" IVar="2" Cut="7.4447667598724365e-01" cType="1" res="-4.4425320811569691e-03" rms="4.6039283275604248e-01" purity="5.0492143630981445e-01" nType="0">
        <Node pos="l" depth="1" NCoef="0" IVar="-1" Cut="0.0000000000000000e+00" cType="1" res="-2.3046615533530712e-03" rms="4.2875370383262634e-01" purity="2.6965755224227905e-01" nType="-99"/>
        <Node pos="r" depth="1" NCoef="0" IVar="1" Cut="1.0446022748947144e+00" cType="1" res="4.9965335056185722e-03" rms="4.6257710456848145e-01" purity="5.2962291240692139e-01" nType="0">
          <Node pos="l" depth="2" NCoef="0" IVar="-1" Cut="0.0000000000000000e+00" cType="1" res="1.0107245761901140e-03" rms="4.5932057499885559e-01" purity="6.0900658369064331e-01" nType="-99"/>
          <Node pos="r" depth="2" NCoef="0" IVar="-1" Cut="0.0000000000000000e+00" cType="1" res="-6.4011942595243454e-04" rms="4.6473675966262817e-01" purity="4.3850433826446533e-01" nType="-99"/>
        </Node>
      </Node>
    </BinaryTree>
    <BinaryTree type="DecisionTree" boostWeight="1.0000000000000000e+00" itree="248">
      <Node pos="s" depth="0" NCoef="0" IVar="5" Cut="1.0357049703598022e+00" cType="1" res="-1.1757601052522659e-02" rms="4.5944863557815552e-01" purity="4.9527812004089355e-01" nType="0">
        <Node pos="l" depth="1" NCoef="0" IVar="4" Cut="7.0942573547363281e+01" cType="1" res="1.6927681863307953e-02" rms="4.6560415625572205e-01" purity="6.2606716156005859e-01" nType="0">
          <Node pos="l" depth="2" NCoef="0" IVar="-1" Cut="0.0000000000000000e+00" cType="1" res="-1.9238343229517341e-03" rms="4.9296781420707703e-01" purity="4.9172797799110413e-01" nType="-99"/>
          <Node pos="r" depth="2" NCoef="0" IVar="-1" Cut="0.0000000000000000e+00" cType="1" res="1.0434492724016309e-03" rms="4.6031263470649719e-01" purity="6.4518237113952637e-01" nType="-99"/>
        </Node>
        <Node pos="r" depth="1" NCoef="0" IVar="2" Cut="8.2517325878143311e-01" cType="1" res="-4.3361514806747437e-02" rms="4.5045989751815796e-01" purity="3.5118174552917480e-01" nType="0">
          <Node pos="l" depth="2" NCoef="0" IVar="-1" Cut="0.0000000000000000e+00" cType="1" res="-2.0911067258566618e-03" rms="4.1369146108627319e-01" purity="2.3602852225303650e-01" nType="-99"/>
          <Node pos="r" depth="2" NCoef="0" IVar="-1" Cut="0.0000000000000000e+00" cType="1" res="-5.2706402493640780e-04" rms="4.6925482153892517e-01" purity="4.1928482055664062e-01" nType="-99"/>
        </Node>
      </Node>
    </BinaryTree>
    <BinaryTree type="DecisionTree" boostWeight="1.0000000000000000e+00" itree="249">
      <Node pos="s" depth="0" NCoef="0" IVar="1" Cut="1.4907932281494141e+00" cType="1" res="-1.0308911092579365e-02" rms="4.6008026599884033e-01" purity="4.9893754720687866e-01" nType="0">
        <Node pos="l" depth="1" NCoef="0" IVar="4" Cut="3.1418664550781250e+02" cType="1" res="8.0118607729673386e-03" rms="4.6425947546958923e-01" purity="5.5695301294326782e-01" nType="0">
          <Node pos="l" depth="2" NCoef="0" IVar="-1" Cut="0.0000000000000000e+00" cType="1" res="6.2686688033863902e-04" rms="4.6540394425392151e-01" purity="5.7944977283477783e-01" nType="-99"/>
          <Node pos="r" depth="2" NCoef="0" IVar="-1" Cut="0.0000000000000000e+00" cType="1" res="-1.8405255395919085e-03" rms="4.4929772615432739e-01" purity="4.0535047650337219e-01" nType="-99"/>
        </Node>
        <Node pos="r" depth="1" NCoef="0" IVar="0" Cut="1.1475480794906616e+00" cType="1" res="-5.6825399398803711e-02" rms="4.4592562317848206e-01" purity="3.5163593292236328e-01" nType="0">
          <Node pos="l" depth="2" NCoef="0" IVar="-1" Cut="0.0000000000000000e+00" cType="1" res="-3.5569991450756788e-04" rms="4.8438355326652527e-01" purity="5.1269787549972534e-01" nType="-99"/>
          <Node pos="r" depth="2" NCoef="0" IVar="-1" Cut="0.0000000000000000e+00" cType="1" res="-1.9121542572975159e-03" rms="4.2700055241584778e-01" purity="2.8273558616638184e-01" nType="-99"/>
        </Node>
      </Node>
    </BinaryTree>
    <BinaryTree type="DecisionTree" boostWeight="1.0000000000000000e+00" itree="250">
      <Node pos="s" depth="0" NCoef="0" IVar="1" Cut="1.1994040012359619e+00" cType="1" res="-1.5903664752840996e-02" rms="4.5947614312171936e-01" purity="4.9281293153762817e-01" nType="0">
        <Node pos="l" depth="1" NCoef="0" IVar="9" Cut="8.1449145078659058e-01" cType="1" res="9.5439217984676361e-03" rms="4.6267896890640259e-01" purity="5.6982529163360596e-01" nType="0">
          <Node pos="l" depth="2" NCoef="0" IVar="-1" Cut="0.0000000000000000e+00" cType="1" res="-2.1843470167368650e-03" rms="4.5657998323440552e-01" purity="3.3629840612411499e-01" nType="-99"/>
          <Node pos="r" depth="2" NCoef="0" IVar="-1" Cut="0.0000000000000000e+00" cType="1" res="6.8704359000548720e-04" rms="4.6209922432899475e-01" purity="5.9648984670639038e-01" nType="-99"/>
        </Node>
        <Node pos="r" depth="1" NCoef="0" IVar="8" Cut="5.1966089010238647e-01" cType="1" res="-5.4901443421840668e-02" rms="4.5175093412399292e-01" purity="3.7479355931282043e-01" nType="0">
          <Node pos="l" depth="2" NCoef="0" IVar="-1" Cut="0.0000000000000000e+00" cType="1" res="-2.2818867582827806e-03" rms="4.3068671226501465e-01" purity="2.8770595788955688e-01" nType="-99"/>
          <Node pos="r" depth="2" NCoef="0" IVar="-1" Cut="0.0000000000000000e+00" cType="1" res="-9.4604387413710356e-04" rms="4.6206876635551453e-01" purity="4.2458581924438477e-01" nType="-99"/>
        </Node>
      </Node>
    </BinaryTree>
    <BinaryTree type="DecisionTree" boostWeight="1.0000000000000000e+00" itree="251">
      <Node pos="s" depth="0" NCoef="0" IVar="0" Cut="1.3073176145553589e+00" cType="1" res="-1.0519805364310741e-02" rms="4.5898321270942688e-01" purity="4.9697989225387573e-01" nType="0">
        <Node pos="l" depth="1" NCoef="0" IVar="4" Cut="1.5158450317382812e+02" cType="1" res="8.8026877492666245e-03" rms="4.6843931078910828e-01" purity="5.7682496309280396e-01" nType="0">
          <Node pos="l" depth="2" NCoef="0" IVar="-1" Cut="0.0000000000000000e+00" cType="1" res="1.2059392174705863e-03" rms="4.6090570092201233e-01" purity="6.1556845903396606e-01" nType="-99"/>
          <Node pos="r" depth="2" NCoef="0" IVar="-1" Cut="0.0000000000000000e+00" cType="1" res="-7.5054366607218981e-04" rms="4.7560745477676392e-01" purity="5.2839267253875732e-01" nType="-99"/>
        </Node>
        <Node pos="r" depth="1" NCoef="0" IVar="3" Cut="5.9318031311035156e+01" cType="1" res="-5.3051941096782684e-02" rms="4.3443173170089722e-01" purity="3.2122716307640076e-01" nType="0">
          <Node pos="l" depth="2" NCoef="0" IVar="-1" Cut="0.0000000000000000e+00" cType="1" res="-2.4396008811891079e-03" rms="4.0762415528297424e-01" purity="2.5652605295181274e-01" nType="-99"/>
          <Node pos="r" depth="2" NCoef="0" IVar="-1" Cut="0.0000000000000000e+00" cType="1" res="-8.8721007341518998e-04" rms="4.4466194510459900e-01" purity="3.5071152448654175e-01" nType="-99"/>
        </Node>
      </Node>
    </BinaryTree>
    <BinaryTree type="DecisionTree" boostWeight="1.0000000000000000e+00" itree="252">
      <Node pos="s" depth="0" NCoef="0" IVar="5" Cut="1.3333666324615479e+00" cType="1" res="-7.1174623444676399e-03" rms="4.5981809496879578e-01" purity="5.0121957063674927e-01" nType="0">
        <Node pos="l" depth="1" NCoef="0" IVar="4" Cut="8.3411628723144531e+01" cType="1" res="1.1043182574212551e-02" rms="4.7144573926925659e-01" purity="5.8768105506896973e-01" nType="0">
          <Node pos="l" depth="2" NCoef="0" IVar="-1" Cut="0.0000000000000000e+00" cType="1" res="-1.5664711827412248e-03" rms="4.8073831200599670e-01" purity="4.9261972308158875e-01" nType="-99"/>
          <Node pos="r" depth="2" NCoef="0" IVar="-1" Cut="0.0000000000000000e+00" cType="1" res="7.7887560473755002e-04" rms="4.6868571639060974e-01" purity="6.0544830560684204e-01" nType="-99"/>
        </Node>
        <Node pos="r" depth="1" NCoef="0" IVar="3" Cut="9.0318634033203125e+01" cType="1" res="-5.8597400784492493e-02" rms="4.2089474201202393e-01" purity="2.5612741708755493e-01" nType="0">
          <Node pos="l" depth="2" NCoef="0" IVar="-1" Cut="0.0000000000000000e+00" cType="1" res="-2.1653878502547741e-03" rms="3.9610350131988525e-01" purity="2.1146537363529205e-01" nType="-99"/>
          <Node pos="r" depth="2" NCoef="0" IVar="-1" Cut="0.0000000000000000e+00" cType="1" res="-5.9179373783990741e-04" rms="4.4667866826057434e-01" purity="3.1059244275093079e-01" nType="-99"/>
        </Node>
      </Node>
    </BinaryTree>
    <BinaryTree type="DecisionTree" boostWeight="1.0000000000000000e+00" itree="253">
      <Node pos="s" depth="0" NCoef="0" IVar="4" Cut="6.4285140991210938e+01" cType="1" res="-8.9943325147032738e-03" rms="4.6100994944572449e-01" purity="4.9786019325256348e-01" nType="0">
        <Node pos="l" depth="1" NCoef="0" IVar="-1" Cut="0.0000000000000000e+00" cType="1" res="-3.0905341263860464e-03" rms="4.4638332724571228e-01" purity="3.4562489390373230e-01" nType="-99"/>
        <Node pos="r" depth="1" NCoef="0" IVar="4" Cut="1.4929954528808594e+02" cType="1" res="1.0253277141600847e-03" rms="4.6096208691596985e-01" purity="5.1142710447311401e-01" nType="0">
          <Node pos="l" depth="2" NCoef="0" IVar="-1" Cut="0.0000000000000000e+00" cType="1" res="1.2439130805432796e-03" rms="4.5772725343704224e-01" purity="5.7900041341781616e-01" nType="-99"/>
          <Node pos="r" depth="2" NCoef="0" IVar="-1" Cut="0.0000000000000000e+00" cType="1" res="-9.3564699636772275e-04" rms="4.6139684319496155e-01" purity="4.4916245341300964e-01" nType="-99"/>
        </Node>
      </Node>
    </BinaryTree>
    <BinaryTree type="DecisionTree" boostWeight="1.0000000000000000e+00" itree="254">
      <Node pos="s" depth="0" NCoef="0" IVar="3" Cut="8.5582702636718750e+01" cType="1" res="1.6000441974028945e-03" rms="4.5883968472480774e-01" purity="5.1155906915664673e-01" nType="0">
        <Node pos="l" depth="1" NCoef="0" IVar="4" Cut="2.0239338684082031e+02" cType="1" res="-2.2957880049943924e-02" rms="4.6490204334259033e-01" purity="4.7590216994285583e-01" nType="0">
          <Node pos="l" depth="2" NCoef="0" IVar="-1" Cut="0.0000000000000000e+00" cType="1" res="-1.5565643843729049e-04" rms="4.6927329897880554e-01" purity="5.1258993148803711e-01" nType="-99"/>
          <Node pos="r" depth="2" NCoef="0" IVar="-1" Cut="0.0000000000000000e+00" cType="1" res="-2.0201068837195635e-03" rms="4.4717964529991150e-01" purity="3.6518841981887817e-01" nType="-99"/>
        </Node>
        <Node pos="r" depth="1" NCoef="0" IVar="3" Cut="1.4739447021484375e+02" cType="1" res="3.6986589431762695e-02" rms="4.4759723544120789e-01" purity="5.6293857097625732e-01" nType="0">
          <Node pos="l" depth="2" NCoef="0" IVar="-1" Cut="0.0000000000000000e+00" cType="1" res="2.0529862958937883e-03" rms="4.4424173235893250e-01" purity="5.9735190868377686e-01" nType="-99"/>
          <Node pos="r" depth="2" NCoef="0" IVar="-1" Cut="0.0000000000000000e+00" cType="1" res="-1.9268852192908525e-03" rms="4.4844684004783630e-01" purity="3.9583855867385864e-01" nType="-99"/>
        </Node>
      </Node>
    </BinaryTree>
    <BinaryTree type="DecisionTree" boostWeight="1.0000000000000000e+00" itree="255">
      <Node pos="s" depth="0" NCoef="0" IVar="0" Cut="1.5385748147964478e+00" cType="1" res="-7.8106746077537537e-03" rms="4.5930793881416321e-01" purity="4.9866953492164612e-01" nType="0">
        <Node pos="l" depth="1" NCoef="0" IVar="3" Cut="1.4518669128417969e+02" cType="1" res="4.2639332823455334e-03" rms="4.6621769666671753e-01" purity="5.4001772403717041e-01" nType="0">
          <Node pos="l" depth="2" NCoef="0" IVar="-1" Cut="0.0000000000000000e+00" cType="1" res="3.8565296563319862e-04" rms="4.6553438901901245e-01" purity="5.5007845163345337e-01" nType="-99"/>
          <Node pos="r" depth="2" NCoef="0" IVar="-1" Cut="0.0000000000000000e+00" cType="1" res="-2.7747545391321182e-03" rms="4.6269282698631287e-01" purity="4.0744683146476746e-01" nType="-99"/>
        </Node>
        <Node pos="r" depth="1" NCoef="0" IVar="7" Cut="6.4110875129699707e-01" cType="1" res="-7.9968743026256561e-02" rms="4.0825003385543823e-01" purity="2.5157201290130615e-01" nType="0">
          <Node pos="l" depth="2" NCoef="0" IVar="-1" Cut="0.0000000000000000e+00" cType="1" res="-2.5920858606696129e-03" rms="3.8285547494888306e-01" purity="1.9118888676166534e-01" nType="-99"/>
          <Node pos="r" depth="2" NCoef="0" IVar="-1" Cut="0.0000000000000000e+00" cType="1" res="-1.3771055964753032e-03" rms="4.3440142273902893e-01" purity="3.2170778512954712e-01" nType="-99"/>
        </Node>
      </Node>
    </BinaryTree>
    <BinaryTree type="DecisionTree" boostWeight="1.0000000000000000e+00" itree="256">
      <Node pos="s" depth="0" NCoef="0" IVar="1" Cut="5.9334737062454224e-01" cType="1" res="-1.3289433903992176e-02" rms="4.6121788024902344e-01" purity="4.9435713887214661e-01" nType="0">
        <Node pos="l" depth="1" NCoef="0" IVar="5" Cut="5.9928625822067261e-01" cType="1" res="3.6418795585632324e-02" rms="4.5755177736282349e-01" purity="6.2029093503952026e-01" nType="0">
          <Node pos="l" depth="2" NCoef="0" IVar="-1" Cut="0.0000000000000000e+00" cType="1" res="3.7745640147477388e-03" rms="4.3397700786590576e-01" purity="7.2777765989303589e-01" nType="-99"/>
          <Node pos="r" depth="2" NCoef="0" IVar="-1" Cut="0.0000000000000000e+00" cType="1" res="5.2502722246572375e-04" rms="4.6463227272033691e-01" purity="5.7903659343719482e-01" nType="-99"/>
        </Node>
        <Node pos="r" depth="1" NCoef="0" IVar="4" Cut="9.1819252014160156e+01" cType="1" res="-3.1184777617454529e-02" rms="4.6122092008590698e-01" purity="4.4901999831199646e-01" nType="0">
          <Node pos="l" depth="2" NCoef="0" IVar="-1" Cut="0.0000000000000000e+00" cType="1" res="-2.5576066691428423e-03" rms="4.4969859719276428e-01" purity="3.6411145329475403e-01" nType="-99"/>
          <Node pos="r" depth="2" NCoef="0" IVar="-1" Cut="0.0000000000000000e+00" cType="1" res="-4.1927181882783771e-04" rms="4.6252790093421936e-01" purity="4.7023916244506836e-01" nType="-99"/>
        </Node>
      </Node>
    </BinaryTree>
    <BinaryTree type="DecisionTree" boostWeight="1.0000000000000000e+00" itree="257">
      <Node pos="s" depth="0" NCoef="0" IVar="5" Cut="1.7093402147293091e+00" cType="1" res="-5.5902502499520779e-03" rms="4.5950621366500854e-01" purity="5.0048434734344482e-01" nType="0">
        <Node pos="l" depth="1" NCoef="0" IVar="4" Cut="1.5100645446777344e+02" cType="1" res="3.3094964455813169e-03" rms="4.6726471185684204e-01" purity="5.3558915853500366e-01" nType="0">
          <Node pos="l" depth="2" NCoef="0" IVar="-1" Cut="0.0000000000000000e+00" cType="1" res="8.9347653556615114e-04" rms="4.6172013878822327e-01" purity="5.7533758878707886e-01" nType="-99"/>
          <Node pos="r" depth="2" NCoef="0" IVar="-1" Cut="0.0000000000000000e+00" cType="1" res="-7.3959538713097572e-04" rms="4.7220537066459656e-01" purity="4.8809972405433655e-01" nType="-99"/>
        </Node>
        <Node pos="r" depth="1" NCoef="0" IVar="-1" Cut="0.0000000000000000e+00" cType="1" res="-2.3480698000639677e-03" rms="3.6717942357063293e-01" purity="1.6652454435825348e-01" nType="-99"/>
      </Node>
    </BinaryTree>
    <BinaryTree type="DecisionTree" boostWeight="1.0000000000000000e+00" itree="258">
      <Node pos="s" depth="0" NCoef="0" IVar="3" Cut="8.8032302856445312e+01" cType="1" res="-4.7489763237535954e-03" rms="4.5911100506782532e-01" purity="5.0365471839904785e-01" nType="0">
        <Node pos="l" depth="1" NCoef="0" IVar="0" Cut="1.5113463401794434e+00" cType="1" res="-2.6456840336322784e-02" rms="4.6156984567642212e-01" purity="4.6969866752624512e-01" nType="0">
          <Node pos="l" depth="2" NCoef="0" IVar="-1" Cut="0.0000000000000000e+00" cType="1" res="-4.2342854430899024e-04" rms="4.7098964452743530e-01" purity="5.1025789976119995e-01" nType="-99"/>
          <Node pos="r" depth="2" NCoef="0" IVar="-1" Cut="0.0000000000000000e+00" cType="1" res="-2.5946006644517183e-03" rms="3.8952738046646118e-01" purity="2.1793258190155029e-01" nType="-99"/>
        </Node>
        <Node pos="r" depth="1" NCoef="0" IVar="9" Cut="8.8273537158966064e-01" cType="1" res="2.9910530894994736e-02" rms="4.5300638675689697e-01" purity="5.5787009000778198e-01" nType="0">
          <Node pos="l" depth="2" NCoef="0" IVar="-1" Cut="0.0000000000000000e+00" cType="1" res="-1.4662297908216715e-03" rms="4.4964846968650818e-01" purity="3.6299398541450500e-01" nType="-99"/>
          <Node pos="r" depth="2" NCoef="0" IVar="-1" Cut="0.0000000000000000e+00" cType="1" res="1.8452043877914548e-03" rms="4.5123764872550964e-01" purity="6.0845345258712769e-01" nType="-99"/>
        </Node>
      </Node>
    </BinaryTree>
    <BinaryTree type="DecisionTree" boostWeight="1.0000000000000000e+00" itree="259">
      <Node pos="s" depth="0" NCoef="0" IVar="4" Cut="5.8923656463623047e+01" cType="1" res="-1.5297058038413525e-02" rms="4.5977976918220520e-01" purity="4.9232503771781921e-01" nType="0">
        <Node pos="l" depth="1" NCoef="0" IVar="-1" Cut="0.0000000000000000e+00" cType="1" res="-3.3262055367231369e-03" rms="4.2771199345588684e-01" purity="3.1787297129631042e-01" nType="-99"/>
        <Node pos="r" depth="1" NCoef="0" IVar="8" Cut="6.2170869112014771e-01" cType="1" res="-7.0942323654890060e-03" rms="4.6088734269142151e-01" purity="5.0476980209350586e-01" nType="0">
          <Node pos="l" depth="2" NCoef="0" IVar="-1" Cut="0.0000000000000000e+00" cType="1" res="-6.2736152904108167e-04" rms="4.6318939328193665e-01" purity="4.6924325823783875e-01" nType="-99"/>
          <Node pos="r" depth="2" NCoef="0" IVar="-1" Cut="0.0000000000000000e+00" cType="1" res="1.7872309545055032e-03" rms="4.4764256477355957e-01" purity="6.4095938205718994e-01" nType="-99"/>
        </Node>
      </Node>
    </BinaryTree>
    <BinaryTree type="DecisionTree" boostWeight="1.0000000000000000e+00" itree="260">
      <Node pos="s" depth="0" NCoef="0" IVar="4" Cut="1.6196417236328125e+02" cType="1" res="-1.2579354457557201e-02" rms="4.5876026153564453e-01" purity="4.9533712863922119e-01" nType="0">
        <Node pos="l" depth="1" NCoef="0" IVar="4" Cut="9.6735275268554688e+01" cType="1" res="1.4409270137548447e-02" rms="4.5865535736083984e-01" purity="5.4724431037902832e-01" nType="0">
          <Node pos="l" depth="2" NCoef="0" IVar="-1" Cut="0.0000000000000000e+00" cType="1" res="-1.5616205055266619e-03" rms="4.6152022480964661e-01" purity="4.4403222203254700e-01" nType="-99"/>
          <Node pos="r" depth="2" NCoef="0" IVar="-1" Cut="0.0000000000000000e+00" cType="1" res="2.0282545592635870e-03" rms="4.5129847526550293e-01" purity="6.1159127950668335e-01" nType="-99"/>
        </Node>
        <Node pos="r" depth="1" NCoef="0" IVar="5" Cut="1.0468249320983887e+00" cType="1" res="-4.7069385647773743e-02" rms="4.5657807588577271e-01" purity="4.2900249361991882e-01" nType="0">
          <Node pos="l" depth="2" NCoef="0" IVar="-1" Cut="0.0000000000000000e+00" cType="1" res="-4.8393869656138122e-04" rms="4.7714388370513916e-01" purity="5.8991140127182007e-01" nType="-99"/>
          <Node pos="r" depth="2" NCoef="0" IVar="-1" Cut="0.0000000000000000e+00" cType="1" res="-1.8371503101661801e-03" rms="4.3809607625007629e-01" purity="3.0277088284492493e-01" nType="-99"/>
        </Node>
      </Node>
    </BinaryTree>
    <BinaryTree type="DecisionTree" boostWeight="1.0000000000000000e+00" itree="261">
      <Node pos="s" depth="0" NCoef="0" IVar="3" Cut="4.5548973083496094e+01" cType="1" res="-1.2971378862857819e-02" rms="4.5986405014991760e-01" purity="4.9626228213310242e-01" nType="0">
        <Node pos="l" depth="1" NCoef="0" IVar="3" Cut="3.4647350311279297e+01" cType="1" res="-6.7780070006847382e-02" rms="4.5672678947448730e-01" purity="4.0253704786300659e-01" nType="0">
          <Node pos="l" depth="2" NCoef="0" IVar="-1" Cut="0.0000000000000000e+00" cType="1" res="-3.1583614181727171e-03" rms="4.4140195846557617e-01" purity="3.2720378041267395e-01" nType="-99"/>
          <Node pos="r" depth="2" NCoef="0" IVar="-1" Cut="0.0000000000000000e+00" cType="1" res="-8.9360296260565519e-04" rms="4.6176764369010925e-01" purity="4.4714415073394775e-01" nType="-99"/>
        </Node>
        <Node pos="r" depth="1" NCoef="0" IVar="3" Cut="1.5111811828613281e+02" cType="1" res="-6.2092026928439736e-04" rms="4.5966669917106628e-01" purity="5.1738208532333374e-01" nType="0">
          <Node pos="l" depth="2" NCoef="0" IVar="-1" Cut="0.0000000000000000e+00" cType="1" res="2.4697225308045745e-04" rms="4.5995000004768372e-01" purity="5.3112852573394775e-01" nType="-99"/>
          <Node pos="r" depth="2" NCoef="0" IVar="-1" Cut="0.0000000000000000e+00" cType="1" res="-2.5721527636051178e-03" rms="4.4512426853179932e-01" purity="3.5992351174354553e-01" nType="-99"/>
        </Node>
      </Node>
    </BinaryTree>
    <BinaryTree type="DecisionTree" boostWeight="1.0000000000000000e+00" itree="262">
      <Node pos="s" depth="0" NCoef="0" IVar="5" Cut="1.6224094629287720e+00" cType="1" res="-3.1486614607274532e-03" rms="4.5613667368888855e-01" purity="5.0120788812637329e-01" nType="0">
        <Node pos="l" depth="1" NCoef="0" IVar="8" Cut="5.4966360330581665e-01" cType="1" res="9.8836012184619904e-03" rms="4.6607902646064758e-01" purity="5.4884046316146851e-01" nType="0">
          <Node pos="l" depth="2" NCoef="0" IVar="-1" Cut="0.0000000000000000e+00" cType="1" res="-6.2413915293291211e-04" rms="4.7041824460029602e-01" purity="4.7039702534675598e-01" nType="-99"/>
          <Node pos="r" depth="2" NCoef="0" IVar="-1" Cut="0.0000000000000000e+00" cType="1" res="1.4046245487406850e-03" rms="4.5986378192901611e-01" purity="6.2340193986892700e-01" nType="-99"/>
        </Node>
        <Node pos="r" depth="1" NCoef="0" IVar="-1" Cut="0.0000000000000000e+00" cType="1" res="-2.4137198925018311e-03" rms="3.6772739887237549e-01" purity="1.7126673460006714e-01" nType="-99"/>
      </Node>
    </BinaryTree>
    <BinaryTree type="DecisionTree" boostWeight="1.0000000000000000e+00" itree="263">
      <Node pos="s" depth="0" NCoef="0" IVar="1" Cut="1.0665850639343262e+00" cType="1" res="-6.9576180540025234e-03" rms="4.6012109518051147e-01" purity="5.0327694416046143e-01" nType="0">
        <Node pos="l" depth="1" NCoef="0" IVar="3" Cut="8.3095695495605469e+01" cType="1" res="1.7636010423302650e-02" rms="4.6058097481727600e-01" purity="5.8331072330474854e-01" nType="0">
          <Node pos="l" depth="2" NCoef="0" IVar="-1" Cut="0.0000000000000000e+00" cType="1" res="-2.5218800874426961e-04" rms="4.7537308931350708e-01" purity="5.4384118318557739e-01" nType="-99"/>
          <Node pos="r" depth="2" NCoef="0" IVar="-1" Cut="0.0000000000000000e+00" cType="1" res="1.9582954701036215e-03" rms="4.3673074245452881e-01" purity="6.3806825876235962e-01" nType="-99"/>
        </Node>
        <Node pos="r" depth="1" NCoef="0" IVar="4" Cut="1.0937601470947266e+02" cType="1" res="-3.6308605223894119e-02" rms="4.5784577727317810e-01" purity="4.0776148438453674e-01" nType="0">
          <Node pos="l" depth="2" NCoef="0" IVar="-1" Cut="0.0000000000000000e+00" cType="1" res="-1.9604191184043884e-03" rms="4.4353699684143066e-01" purity="3.6186456680297852e-01" nType="-99"/>
          <Node pos="r" depth="2" NCoef="0" IVar="-1" Cut="0.0000000000000000e+00" cType="1" res="-5.8245746186003089e-04" rms="4.6287149190902710e-01" purity="4.2719110846519470e-01" nType="-99"/>
        </Node>
      </Node>
    </BinaryTree>
    <BinaryTree type="DecisionTree" boostWeight="1.0000000000000000e+00" itree="264">
      <Node pos="s" depth="0" NCoef="0" IVar="4" Cut="3.0536624145507812e+02" cType="1" res="-5.0201062113046646e-03" rms="4.5929390192031860e-01" purity="5.0275301933288574e-01" nType="0">
        <Node pos="l" depth="1" NCoef="0" IVar="3" Cut="3.6168422698974609e+01" cType="1" res="7.2779203765094280e-03" rms="4.6179291605949402e-01" purity="5.2937084436416626e-01" nType="0">
          <Node pos="l" depth="2" NCoef="0" IVar="-1" Cut="0.0000000000000000e+00" cType="1" res="-2.5004763156175613e-03" rms="4.5662149786949158e-01" purity="3.7267252802848816e-01" nType="-99"/>
          <Node pos="r" depth="2" NCoef="0" IVar="-1" Cut="0.0000000000000000e+00" cType="1" res="5.5446807527914643e-04" rms="4.6103203296661377e-01" purity="5.4443484544754028e-01" nType="-99"/>
        </Node>
        <Node pos="r" depth="1" NCoef="0" IVar="8" Cut="5.6619483232498169e-01" cType="1" res="-7.1810610592365265e-02" rms="4.3950825929641724e-01" purity="3.5819205641746521e-01" nType="0">
          <Node pos="l" depth="2" NCoef="0" IVar="-1" Cut="0.0000000000000000e+00" cType="1" res="-2.4385037831962109e-03" rms="4.2824077606201172e-01" purity="2.9911133646965027e-01" nType="-99"/>
          <Node pos="r" depth="2" NCoef="0" IVar="-1" Cut="0.0000000000000000e+00" cType="1" res="-8.8484329171478748e-04" rms="4.5522925257682800e-01" purity="4.5974656939506531e-01" nType="-99"/>
        </Node>
      </Node>
    </BinaryTree>
    <BinaryTree type="DecisionTree" boostWeight="1.0000000000000000e+00" itree="265">
      <Node pos="s" depth="0" NCoef="0" IVar="1" Cut="1.5973113775253296e+00" cType="1" res="-5.6069712154567242e-03" rms="4.5742461085319519e-01" purity="5.0175893306732178e-01" nType="0">
        <Node pos="l" depth="1" NCoef="0" IVar="2" Cut="7.4446451663970947e-01" cType="1" res="1.1645526625216007e-02" rms="4.6181407570838928e-01" purity="5.5796521902084351e-01" nType="0">
          <Node pos="l" depth="2" NCoef="0" IVar="-1" Cut="0.0000000000000000e+00" cType="1" res="-2.3250768426805735e-03" rms="4.4716662168502808e-01" purity="3.0202615261077881e-01" nType="-99"/>
          <Node pos="r" depth="2" NCoef="0" IVar="-1" Cut="0.0000000000000000e+00" cType="1" res="7.3377072112634778e-04" rms="4.6188616752624512e-01" purity="5.8320766687393188e-01" nType="-99"/>
        </Node>
        <Node pos="r" depth="1" NCoef="0" IVar="1" Cut="2.5941870212554932e+00" cType="1" res="-5.7361453771591187e-02" rms="4.3995636701583862e-01" purity="3.3314996957778931e-01" nType="0">
          <Node pos="l" depth="2" NCoef="0" IVar="-1" Cut="0.0000000000000000e+00" cType="1" res="-9.3007617397233844e-04" rms="4.5873853564262390e-01" purity="3.8661170005798340e-01" nType="-99"/>
          <Node pos="r" depth="2" NCoef="0" IVar="-1" Cut="0.0000000000000000e+00" cType="1" res="-2.6136168744415045e-03" rms="3.9398410916328430e-01" purity="2.2283639013767242e-01" nType="-99"/>
        </Node>
      </Node>
    </BinaryTree>
    <BinaryTree type="DecisionTree" boostWeight="1.0000000000000000e+00" itree="266">
      <Node pos="s" depth="0" NCoef="0" IVar="5" Cut="1.4630533456802368e+00" cType="1" res="-5.5331331677734852e-03" rms="4.5759508013725281e-01" purity="5.0000154972076416e-01" nType="0">
        <Node pos="l" depth="1" NCoef="0" IVar="1" Cut="6.6747158765792847e-01" cType="1" res="8.8655482977628708e-03" rms="4.6839573979377747e-01" purity="5.6637954711914062e-01" nType="0">
          <Node pos="l" depth="2" NCoef="0" IVar="-1" Cut="0.0000000000000000e+00" cType="1" res="1.5243885572999716e-03" rms="4.5471087098121643e-01" purity="6.4398431777954102e-01" nType="-99"/>
          <Node pos="r" depth="2" NCoef="0" IVar="-1" Cut="0.0000000000000000e+00" cType="1" res="-2.9189779888838530e-04" rms="4.7479259967803955e-01" purity="5.2335321903228760e-01" nType="-99"/>
        </Node>
        <Node pos="r" depth="1" NCoef="0" IVar="0" Cut="1.5133486986160278e+00" cType="1" res="-6.5516136586666107e-02" rms="4.0406364202499390e-01" purity="2.2347956895828247e-01" nType="0">
          <Node pos="l" depth="2" NCoef="0" IVar="-1" Cut="0.0000000000000000e+00" cType="1" res="-9.0894108870998025e-04" rms="4.3566647171974182e-01" purity="2.7761515974998474e-01" nType="-99"/>
          <Node pos="r" depth="2" NCoef="0" IVar="-1" Cut="0.0000000000000000e+00" cType="1" res="-2.4522291496396065e-03" rms="3.6649006605148315e-01" purity="1.6828081011772156e-01" nType="-99"/>
        </Node>
      </Node>
    </BinaryTree>
    <BinaryTree type="DecisionTree" boostWeight="1.0000000000000000e+00" itree="267">
      <Node pos="s" depth="0" NCoef="0" IVar="3" Cut="8.9461868286132812e+01" cType="1" res="1.3432012638077140e-03" rms="4.5699086785316467e-01" purity="5.0754797458648682e-01" nType="0">
        <Node pos="l" depth="1" NCoef="0" IVar="5" Cut="8.2710057497024536e-01" cType="1" res="-2.0710758864879608e-02" rms="4.6179080009460449e-01" purity="4.7591015696525574e-01" nType="0">
          <Node pos="l" depth="2" NCoef="0" IVar="-1" Cut="0.0000000000000000e+00" cType="1" res="7.8240659786388278e-04" rms="4.7005656361579895e-01" purity="6.2189352512359619e-01" nType="-99"/>
          <Node pos="r" depth="2" NCoef="0" IVar="-1" Cut="0.0000000000000000e+00" cType="1" res="-1.3063033111393452e-03" rms="4.5421597361564636e-01" purity="3.8223367929458618e-01" nType="-99"/>
        </Node>
        <Node pos="r" depth="1" NCoef="0" IVar="2" Cut="7.7352124452590942e-01" cType="1" res="3.8723044097423553e-02" rms="4.4625580310821533e-01" purity="5.6117165088653564e-01" nType="0">
          <Node pos="l" depth="2" NCoef="0" IVar="-1" Cut="0.0000000000000000e+00" cType="1" res="-1.5063142636790872e-03" rms="4.4504413008689880e-01" purity="3.2165354490280151e-01" nType="-99"/>
          <Node pos="r" depth="2" NCoef="0" IVar="-1" Cut="0.0000000000000000e+00" cType="1" res="2.2001261822879314e-03" rms="4.4351217150688171e-01" purity="6.1697834730148315e-01" nType="-99"/>
        </Node>
      </Node>
    </BinaryTree>
    <BinaryTree type="DecisionTree" boostWeight="1.0000000000000000e+00" itree="268">
      <Node pos="s" depth="0" NCoef="0" IVar="3" Cut="4.2923881530761719e+01" cType="1" res="-1.0408849921077490e-03" rms="4.5895779132843018e-01" purity="5.0757980346679688e-01" nType="0">
        <Node pos="l" depth="1" NCoef="0" IVar="5" Cut="9.1871917247772217e-01" cType="1" res="-6.8200603127479553e-02" rms="4.6241092681884766e-01" purity="4.0206560492515564e-01" nType="0">
          <Node pos="l" depth="2" NCoef="0" IVar="-1" Cut="0.0000000000000000e+00" cType="1" res="-5.8561662444844842e-04" rms="4.8431205749511719e-01" purity="5.3256040811538696e-01" nType="-99"/>
          <Node pos="r" depth="2" NCoef="0" IVar="-1" Cut="0.0000000000000000e+00" cType="1" res="-2.7519650757312775e-03" rms="4.3528014421463013e-01" purity="2.7646568417549133e-01" nType="-99"/>
        </Node>
        <Node pos="r" depth="1" NCoef="0" IVar="4" Cut="1.5577999877929688e+02" cType="1" res="1.0994181036949158e-02" rms="4.5729532837867737e-01" purity="5.2648800611495972e-01" nType="0">
          <Node pos="l" depth="2" NCoef="0" IVar="-1" Cut="0.0000000000000000e+00" cType="1" res="1.4941630652174354e-03" rms="4.5212674140930176e-01" purity="5.8844280242919922e-01" nType="-99"/>
          <Node pos="r" depth="2" NCoef="0" IVar="-1" Cut="0.0000000000000000e+00" cType="1" res="-6.9834548048675060e-04" rms="4.6015983819961548e-01" purity="4.6079051494598389e-01" nType="-99"/>
        </Node>
      </Node>
    </BinaryTree>
    <BinaryTree type="DecisionTree" boostWeight="1.0000000000000000e+00" itree="269">
      <Node pos="s" depth="0" NCoef="0" IVar="3" Cut="1.4518669128417969e+02" cType="1" res="-6.5534948371350765e-03" rms="4.5990541577339172e-01" purity="5.0204586982727051e-01" nType="0">
        <Node pos="l" depth="1" NCoef="0" IVar="3" Cut="8.3563842773437500e+01" cType="1" res="1.9746068865060806e-03" rms="4.6017763018608093e-01" purity="5.1387029886245728e-01" nType="0">
          <Node pos="l" depth="2" NCoef="0" IVar="-1" Cut="0.0000000000000000e+00" cType="1" res="-7.4732123175635934e-04" rms="4.6467325091362000e-01" purity="4.7077456116676331e-01" nType="-99"/>
          <Node pos="r" depth="2" NCoef="0" IVar="-1" Cut="0.0000000000000000e+00" cType="1" res="1.6496184980496764e-03" rms="4.4868040084838867e-01" purity="5.8651202917098999e-01" nType="-99"/>
        </Node>
        <Node pos="r" depth="1" NCoef="0" IVar="-1" Cut="0.0000000000000000e+00" cType="1" res="-2.7887786272913218e-03" rms="4.4539976119995117e-01" purity="3.6727041006088257e-01" nType="-99"/>
      </Node>
    </BinaryTree>
    <BinaryTree type="DecisionTree" boostWeight="1.0000000000000000e+00" itree="270">
      <Node pos="s" depth="0" NCoef="0" IVar="2" Cut="7.8512328863143921e-01" cType="1" res="-5.6258868426084518e-03" rms="4.5783954858779907e-01" purity="5.0112485885620117e-01" nType="0">
        <Node pos="l" depth="1" NCoef="0" IVar="8" Cut="4.4665649533271790e-01" cType="1" res="-6.1414267867803574e-02" rms="4.4568875432014465e-01" purity="3.1820479035377502e-01" nType="0">
          <Node pos="l" depth="2" NCoef="0" IVar="-1" Cut="0.0000000000000000e+00" cType="1" res="-2.6683681644499302e-03" rms="4.2396789789199829e-01" purity="2.5775787234306335e-01" nType="-99"/>
          <Node pos="r" depth="2" NCoef="0" IVar="-1" Cut="0.0000000000000000e+00" cType="1" res="-9.8343961872160435e-04" rms="4.5411008596420288e-01" purity="3.4823223948478699e-01" nType="-99"/>
        </Node>
        <Node pos="r" depth="1" NCoef="0" IVar="3" Cut="5.3856105804443359e+01" cType="1" res="8.4583992138504982e-03" rms="4.5978754758834839e-01" purity="5.4730468988418579e-01" nType="0">
          <Node pos="l" depth="2" NCoef="0" IVar="-1" Cut="0.0000000000000000e+00" cType="1" res="-1.0354737751185894e-03" rms="4.6181064844131470e-01" purity="4.7061431407928467e-01" nType="-99"/>
          <Node pos="r" depth="2" NCoef="0" IVar="-1" Cut="0.0000000000000000e+00" cType="1" res="8.6361850844696164e-04" rms="4.5782855153083801e-01" purity="5.7720106840133667e-01" nType="-99"/>
        </Node>
      </Node>
    </BinaryTree>
    <BinaryTree type="DecisionTree" boostWeight="1.0000000000000000e+00" itree="271">
      <Node pos="s" depth="0" NCoef="0" IVar="5" Cut="8.8934040069580078e-01" cType="1" res="-6.3161286525428295e-03" rms="4.5869237184524536e-01" purity="5.0400924682617188e-01" nType="0">
        <Node pos="l" depth="1" NCoef="0" IVar="3" Cut="5.2210941314697266e+01" cType="1" res="2.6372952386736870e-02" rms="4.5872098207473755e-01" purity="6.4773917198181152e-01" nType="0">
          <Node pos="l" depth="2" NCoef="0" IVar="-1" Cut="0.0000000000000000e+00" cType="1" res="-5.9047149261459708e-04" rms="4.8532557487487793e-01" purity="5.5557042360305786e-01" nType="-99"/>
          <Node pos="r" depth="2" NCoef="0" IVar="-1" Cut="0.0000000000000000e+00" cType="1" res="1.8447170732542872e-03" rms="4.4480034708976746e-01" purity="6.8891298770904541e-01" nType="-99"/>
        </Node>
        <Node pos="r" depth="1" NCoef="0" IVar="3" Cut="9.0301658630371094e+01" cType="1" res="-2.8391890227794647e-02" rms="4.5735323429107666e-01" purity="4.0694484114646912e-01" nType="0">
          <Node pos="l" depth="2" NCoef="0" IVar="-1" Cut="0.0000000000000000e+00" cType="1" res="-1.3675501104444265e-03" rms="4.5142146944999695e-01" purity="3.6824235320091248e-01" nType="-99"/>
          <Node pos="r" depth="2" NCoef="0" IVar="-1" Cut="0.0000000000000000e+00" cType="1" res="1.2560057803057134e-04" rms="4.6360713243484497e-01" purity="4.6142837405204773e-01" nType="-99"/>
        </Node>
      </Node>
    </BinaryTree>
    <BinaryTree type="DecisionTree" boostWeight="1.0000000000000000e+00" itree="272">
      <Node pos="s" depth="0" NCoef="0" IVar="5" Cut="1.7046725749969482e+00" cType="1" res="-9.0187657624483109e-03" rms="4.5868143439292908e-01" purity="4.9678272008895874e-01" nType="0">
        <Node pos="l" depth="1" NCoef="0" IVar="3" Cut="8.5582702636718750e+01" cType="1" res="6.1124021885916591e-04" rms="4.6757254004478455e-01" purity="5.3407090902328491e-01" nType="0">
          <Node pos="l" depth="2" NCoef="0" IVar="-1" Cut="0.0000000000000000e+00" cType="1" res="-6.9032062310725451e-04" rms="4.7383716702461243e-01" purity="4.9395003914833069e-01" nType="-99"/>
          <Node pos="r" depth="2" NCoef="0" IVar="-1" Cut="0.0000000000000000e+00" cType="1" res="1.2742417166009545e-03" rms="4.5543348789215088e-01" purity="5.9497052431106567e-01" nType="-99"/>
        </Node>
        <Node pos="r" depth="1" NCoef="0" IVar="-1" Cut="0.0000000000000000e+00" cType="1" res="-2.5017114821821451e-03" rms="3.5570019483566284e-01" purity="1.5597094595432281e-01" nType="-99"/>
      </Node>
    </BinaryTree>
    <BinaryTree type="DecisionTree" boostWeight="1.0000000000000000e+00" itree="273">
      <Node pos="s" depth="0" NCoef="0" IVar="4" Cut="2.0789515686035156e+02" cType="1" res="-9.4081312417984009e-03" rms="4.5778724551200867e-01" purity="4.9777698516845703e-01" nType="0">
        <Node pos="l" depth="1" NCoef="0" IVar="4" Cut="8.9216552734375000e+01" cType="1" res="9.3793459236621857e-03" rms="4.5811370015144348e-01" purity="5.3663963079452515e-01" nType="0">
          <Node pos="l" depth="2" NCoef="0" IVar="-1" Cut="0.0000000000000000e+00" cType="1" res="-1.9139627693220973e-03" rms="4.5510488748550415e-01" purity="4.1282972693443298e-01" nType="-99"/>
          <Node pos="r" depth="2" NCoef="0" IVar="-1" Cut="0.0000000000000000e+00" cType="1" res="1.2696592602878809e-03" rms="4.5580908656120300e-01" purity="5.8196568489074707e-01" nType="-99"/>
        </Node>
        <Node pos="r" depth="1" NCoef="0" IVar="8" Cut="5.9315687417984009e-01" cType="1" res="-5.0869286060333252e-02" rms="4.5432513952255249e-01" purity="4.1201278567314148e-01" nType="0">
          <Node pos="l" depth="2" NCoef="0" IVar="-1" Cut="0.0000000000000000e+00" cType="1" res="-1.8063160823658109e-03" rms="4.5078155398368835e-01" purity="3.6430913209915161e-01" nType="-99"/>
          <Node pos="r" depth="2" NCoef="0" IVar="-1" Cut="0.0000000000000000e+00" cType="1" res="-3.1096916063688695e-04" rms="4.6021237969398499e-01" purity="5.2721822261810303e-01" nType="-99"/>
        </Node>
      </Node>
    </BinaryTree>
    <BinaryTree type="DecisionTree" boostWeight="1.0000000000000000e+00" itree="274">
      <Node pos="s" depth="0" NCoef="0" IVar="4" Cut="6.7908752441406250e+01" cType="1" res="-7.8559918329119682e-03" rms="4.5992457866668701e-01" purity="5.0163620710372925e-01" nType="0">
        <Node pos="l" depth="1" NCoef="0" IVar="-1" Cut="0.0000000000000000e+00" cType="1" res="-2.4909239728003740e-03" rms="4.4910302758216858e-01" purity="3.7451201677322388e-01" nType="-99"/>
        <Node pos="r" depth="1" NCoef="0" IVar="4" Cut="1.6078070068359375e+02" cType="1" res="4.2535670218057930e-04" rms="4.6010836958885193e-01" purity="5.1389676332473755e-01" nType="0">
          <Node pos="l" depth="2" NCoef="0" IVar="-1" Cut="0.0000000000000000e+00" cType="1" res="1.1073412606492639e-03" rms="4.5874446630477905e-01" purity="5.7917189598083496e-01" nType="-99"/>
          <Node pos="r" depth="2" NCoef="0" IVar="-1" Cut="0.0000000000000000e+00" cType="1" res="-9.9505111575126648e-04" rms="4.5896878838539124e-01" purity="4.4379085302352905e-01" nType="-99"/>
        </Node>
      </Node>
    </BinaryTree>
    <BinaryTree type="DecisionTree" boostWeight="1.0000000000000000e+00" itree="275">
      <Node pos="s" depth="0" NCoef="0" IVar="8" Cut="6.1119091510772705e-01" cType="1" res="-2.2960596252232790e-03" rms="4.5765891671180725e-01" purity="5.0385761260986328e-01" nType="0">
        <Node pos="l" depth="1" NCoef="0" IVar="3" Cut="6.0966785430908203e+01" cType="1" res="-1.7939496785402298e-02" rms="4.6075564622879028e-01" purity="4.6285203099250793e-01" nType="0">
          <Node pos="l" depth="2" NCoef="0" IVar="-1" Cut="0.0000000000000000e+00" cType="1" res="-1.4044820563867688e-03" rms="4.5717588067054749e-01" purity="4.0461477637290955e-01" nType="-99"/>
          <Node pos="r" depth="2" NCoef="0" IVar="-1" Cut="0.0000000000000000e+00" cType="1" res="3.5304085031384602e-05" rms="4.6166330575942993e-01" purity="4.9563100934028625e-01" nType="-99"/>
        </Node>
        <Node pos="r" depth="1" NCoef="0" IVar="5" Cut="1.2353880405426025e+00" cType="1" res="4.6652916818857193e-02" rms="4.4428676366806030e-01" purity="6.3216578960418701e-01" nType="0">
          <Node pos="l" depth="2" NCoef="0" IVar="-1" Cut="0.0000000000000000e+00" cType="1" res="3.0847869347780943e-03" rms="4.3351703882217407e-01" purity="7.3528981208801270e-01" nType="-99"/>
          <Node pos="r" depth="2" NCoef="0" IVar="-1" Cut="0.0000000000000000e+00" cType="1" res="-2.9891901067458093e-04" rms="4.6395128965377808e-01" purity="3.8536250591278076e-01" nType="-99"/>
        </Node>
      </Node>
    </BinaryTree>
    <BinaryTree type="DecisionTree" boostWeight="1.0000000000000000e+00" itree="276">
      <Node pos="s" depth="0" NCoef="0" IVar="1" Cut="1.5973113775253296e+00" cType="1" res="-8.2850148901343346e-03" rms="4.5659819245338440e-01" purity="4.9876764416694641e-01" nType="0">
        <Node pos="l" depth="1" NCoef="0" IVar="4" Cut="1.6148406982421875e+02" cType="1" res="7.8349728137254715e-03" rms="4.6162906289100647e-01" purity="5.5358147621154785e-01" nType="0">
          <Node pos="l" depth="2" NCoef="0" IVar="-1" Cut="0.0000000000000000e+00" cType="1" res="1.0035947198048234e-03" rms="4.5789149403572083e-01" purity="6.0157722234725952e-01" nType="-99"/>
          <Node pos="r" depth="2" NCoef="0" IVar="-1" Cut="0.0000000000000000e+00" cType="1" res="-6.2644691206514835e-04" rms="4.6498236060142517e-01" purity="4.8972713947296143e-01" nType="-99"/>
        </Node>
        <Node pos="r" depth="1" NCoef="0" IVar="9" Cut="9.6070384979248047e-01" cType="1" res="-5.6712105870246887e-02" rms="4.3758246302604675e-01" purity="3.3409783244132996e-01" nType="0">
          <Node pos="l" depth="2" NCoef="0" IVar="-1" Cut="0.0000000000000000e+00" cType="1" res="-2.2345166653394699e-03" rms="4.1577255725860596e-01" purity="2.5785586237907410e-01" nType="-99"/>
          <Node pos="r" depth="2" NCoef="0" IVar="-1" Cut="0.0000000000000000e+00" cType="1" res="-7.9719390487298369e-04" rms="4.5456826686859131e-01" purity="4.0285930037498474e-01" nType="-99"/>
        </Node>
      </Node>
    </BinaryTree>
    <BinaryTree type="DecisionTree" boostWeight="1.0000000000000000e+00" itree="277">
      <Node pos="s" depth="0" NCoef="0" IVar="8" Cut="6.5912669897079468e-01" cType="1" res="-7.4290940538048744e-03" rms="4.6155750751495361e-01" purity="5.0340193510055542e-01" nType="0">
        <Node pos="l" depth="1" NCoef="0" IVar="9" Cut="7.6305693387985229e-01" cType="1" res="-1.4828852377831936e-02" rms="4.6349230408668518e-01" purity="4.8690009117126465e-01" nType="0">
          <Node pos="l" depth="2" NCoef="0" IVar="-1" Cut="0.0000000000000000e+00" cType="1" res="-2.3073288612067699e-03" rms="4.2502415180206299e-01" purity="2.6700609922409058e-01" nType="-99"/>
          <Node pos="r" depth="2" NCoef="0" IVar="-1" Cut="0.0000000000000000e+00" cType="1" res="-2.6886686100624502e-04" rms="4.6581390500068665e-01" purity="5.0400912761688232e-01" nType="-99"/>
        </Node>
        <Node pos="r" depth="1" NCoef="0" IVar="-1" Cut="0.0000000000000000e+00" cType="1" res="2.4719678331166506e-03" rms="4.3590337038040161e-01" purity="6.6335409879684448e-01" nType="-99"/>
      </Node>
    </BinaryTree>
    <BinaryTree type="DecisionTree" boostWeight="1.0000000000000000e+00" itree="278">
      <Node pos="s" depth="0" NCoef="0" IVar="8" Cut="6.0129731893539429e-01" cType="1" res="5.4175797849893570e-03" rms="4.5881614089012146e-01" purity="5.1472425460815430e-01" nType="0">
        <Node pos="l" depth="1" NCoef="0" IVar="2" Cut="7.5680178403854370e-01" cType="1" res="-1.2812115252017975e-02" rms="4.6264097094535828e-01" purity="4.6614536643028259e-01" nType="0">
          <Node pos="l" depth="2" NCoef="0" IVar="-1" Cut="0.0000000000000000e+00" cType="1" res="-1.8587375525385141e-03" rms="4.4092890620231628e-01" purity="2.9361540079116821e-01" nType="-99"/>
          <Node pos="r" depth="2" NCoef="0" IVar="-1" Cut="0.0000000000000000e+00" cType="1" res="-2.4093160391203128e-05" rms="4.6585723757743835e-01" purity="5.0012135505676270e-01" nType="-99"/>
        </Node>
        <Node pos="r" depth="1" NCoef="0" IVar="5" Cut="8.4620481729507446e-01" cType="1" res="5.3446106612682343e-02" rms="4.4502183794975281e-01" purity="6.4271175861358643e-01" nType="0">
          <Node pos="l" depth="2" NCoef="0" IVar="-1" Cut="0.0000000000000000e+00" cType="1" res="5.0340960733592510e-03" rms="4.0024188160896301e-01" purity="7.9676294326782227e-01" nType="-99"/>
          <Node pos="r" depth="2" NCoef="0" IVar="-1" Cut="0.0000000000000000e+00" cType="1" res="8.8126701302826405e-04" rms="4.6787372231483459e-01" purity="5.5052804946899414e-01" nType="-99"/>
        </Node>
      </Node>
    </BinaryTree>
    <BinaryTree type="DecisionTree" boostWeight="1.0000000000000000e+00" itree="279">
      <Node pos="s" depth="0" NCoef="0" IVar="7" Cut="5.6769740581512451e-01" cType="1" res="-3.6399837117642164e-03" rms="4.5799109339714050e-01" purity="5.0227260589599609e-01" nType="0">
        <Node pos="l" depth="1" NCoef="0" IVar="0" Cut="1.0680783987045288e+00" cType="1" res="-4.7425679862499237e-02" rms="4.5205408334732056e-01" purity="3.7138682603836060e-01" nType="0">
          <Node pos="l" depth="2" NCoef="0" IVar="-1" Cut="0.0000000000000000e+00" cType="1" res="-5.0822331104427576e-04" rms="4.8620462417602539e-01" purity="5.0311952829360962e-01" nType="-99"/>
          <Node pos="r" depth="2" NCoef="0" IVar="-1" Cut="0.0000000000000000e+00" cType="1" res="-1.7554707592353225e-03" rms="4.2429313063621521e-01" purity="2.7583271265029907e-01" nType="-99"/>
        </Node>
        <Node pos="r" depth="1" NCoef="0" IVar="4" Cut="9.2847412109375000e+01" cType="1" res="1.2827495113015175e-02" rms="4.5912483334541321e-01" purity="5.5149781703948975e-01" nType="0">
          <Node pos="l" depth="2" NCoef="0" IVar="-1" Cut="0.0000000000000000e+00" cType="1" res="-1.4316586311906576e-03" rms="4.6588051319122314e-01" purity="4.7500571608543396e-01" nType="-99"/>
          <Node pos="r" depth="2" NCoef="0" IVar="-1" Cut="0.0000000000000000e+00" cType="1" res="9.1847474686801434e-04" rms="4.5623999834060669e-01" purity="5.6991136074066162e-01" nType="-99"/>
        </Node>
      </Node>
    </BinaryTree>
    <BinaryTree type="DecisionTree" boostWeight="1.0000000000000000e+00" itree="280">
      <Node pos="s" depth="0" NCoef="0" IVar="0" Cut="7.1896839141845703e-01" cType="1" res="-8.2185016945004463e-03" rms="4.5889109373092651e-01" purity="4.9941527843475342e-01" nType="0">
        <Node pos="l" depth="1" NCoef="0" IVar="9" Cut="9.7029381990432739e-01" cType="1" res="6.9400943815708160e-02" rms="4.3651500344276428e-01" purity="7.1599006652832031e-01" nType="0">
          <Node pos="l" depth="2" NCoef="0" IVar="-1" Cut="0.0000000000000000e+00" cType="1" res="1.6391517128795385e-03" rms="4.6405744552612305e-01" purity="6.4762330055236816e-01" nType="-99"/>
          <Node pos="r" depth="2" NCoef="0" IVar="-1" Cut="0.0000000000000000e+00" cType="1" res="4.4717718847095966e-03" rms="4.0733745694160461e-01" purity="7.8122395277023315e-01" nType="-99"/>
        </Node>
        <Node pos="r" depth="1" NCoef="0" IVar="3" Cut="8.9305755615234375e+01" cType="1" res="-1.9658993929624557e-02" rms="4.6099373698234558e-01" purity="4.6749386191368103e-01" nType="0">
          <Node pos="l" depth="2" NCoef="0" IVar="-1" Cut="0.0000000000000000e+00" cType="1" res="-1.1824765242636204e-03" rms="4.6132993698120117e-01" purity="4.3135845661163330e-01" nType="-99"/>
          <Node pos="r" depth="2" NCoef="0" IVar="-1" Cut="0.0000000000000000e+00" cType="1" res="5.3826905786991119e-04" rms="4.5808807015419006e-01" purity="5.2593702077865601e-01" nType="-99"/>
        </Node>
      </Node>
    </BinaryTree>
    <BinaryTree type="DecisionTree" boostWeight="1.0000000000000000e+00" itree="281">
      <Node pos="s" depth="0" NCoef="0" IVar="4" Cut="6.5790687561035156e+01" cType="1" res="-7.2792354039847851e-03" rms="4.5800614356994629e-01" purity="5.0127267837524414e-01" nType="0">
        <Node pos="l" depth="1" NCoef="0" IVar="-1" Cut="0.0000000000000000e+00" cType="1" res="-2.5249370373785496e-03" rms="4.4985690712928772e-01" purity="3.6654856801033020e-01" nType="-99"/>
        <Node pos="r" depth="1" NCoef="0" IVar="3" Cut="1.4518669128417969e+02" cType="1" res="8.6477224249392748e-04" rms="4.5791044831275940e-01" purity="5.1383602619171143e-01" nType="0">
          <Node pos="l" depth="2" NCoef="0" IVar="-1" Cut="0.0000000000000000e+00" cType="1" res="2.8994196327403188e-04" rms="4.5734143257141113e-01" purity="5.2609819173812866e-01" nType="-99"/>
          <Node pos="r" depth="2" NCoef="0" IVar="-1" Cut="0.0000000000000000e+00" cType="1" res="-2.4509446229785681e-03" rms="4.5435377955436707e-01" purity="3.8154128193855286e-01" nType="-99"/>
        </Node>
      </Node>
    </BinaryTree>
    <BinaryTree type="DecisionTree" boostWeight="1.0000000000000000e+00" itree="282">
      <Node pos="s" depth="0" NCoef="0" IVar="3" Cut="1.4654072570800781e+02" cType="1" res="-1.5547221526503563e-02" rms="4.6131217479705811e-01" purity="4.9351462721824646e-01" nType="0">
        <Node pos="l" depth="1" NCoef="0" IVar="3" Cut="8.2397926330566406e+01" cType="1" res="-6.6385180689394474e-03" rms="4.6205988526344299e-01" purity="5.0646549463272095e-01" nType="0">
          <Node pos="l" depth="2" NCoef="0" IVar="-1" Cut="0.0000000000000000e+00" cType="1" res="-1.0242026764899492e-03" rms="4.6527272462844849e-01" purity="4.6069741249084473e-01" nType="-99"/>
          <Node pos="r" depth="2" NCoef="0" IVar="-1" Cut="0.0000000000000000e+00" cType="1" res="1.3381589669734240e-03" rms="4.5312517881393433e-01" purity="5.7915079593658447e-01" nType="-99"/>
        </Node>
        <Node pos="r" depth="1" NCoef="0" IVar="-1" Cut="0.0000000000000000e+00" cType="1" res="-3.2319684978574514e-03" rms="4.3827509880065918e-01" purity="3.3782386779785156e-01" nType="-99"/>
      </Node>
    </BinaryTree>
    <BinaryTree type="DecisionTree" boostWeight="1.0000000000000000e+00" itree="283">
      <Node pos="s" depth="0" NCoef="0" IVar="2" Cut="7.4431425333023071e-01" cType="1" res="-1.2506118044257164e-02" rms="4.5838102698326111e-01" purity="4.9359038472175598e-01" nType="0">
        <Node pos="l" depth="1" NCoef="0" IVar="-1" Cut="0.0000000000000000e+00" cType="1" res="-2.4466055911034346e-03" rms="4.1679003834724426e-01" purity="2.5059536099433899e-01" nType="-99"/>
        <Node pos="r" depth="1" NCoef="0" IVar="4" Cut="1.6551687622070312e+02" cType="1" res="-3.0220667831599712e-03" rms="4.6161985397338867e-01" purity="5.1967638731002808e-01" nType="0">
          <Node pos="l" depth="2" NCoef="0" IVar="-1" Cut="0.0000000000000000e+00" cType="1" res="7.6501589501276612e-04" rms="4.6004617214202881e-01" purity="5.7137900590896606e-01" nType="-99"/>
          <Node pos="r" depth="2" NCoef="0" IVar="-1" Cut="0.0000000000000000e+00" cType="1" res="-1.0868374956771731e-03" rms="4.6138861775398254e-01" purity="4.5105710625648499e-01" nType="-99"/>
        </Node>
      </Node>
    </BinaryTree>
    <BinaryTree type="DecisionTree" boostWeight="1.0000000000000000e+00" itree="284">
      <Node pos="s" depth="0" NCoef="0" IVar="1" Cut="2.5321764945983887e+00" cType="1" res="-2.9868664569221437e-04" rms="4.5843958854675293e-01" purity="5.0662750005722046e-01" nType="0">
        <Node pos="l" depth="1" NCoef="0" IVar="4" Cut="1.0092000579833984e+02" cType="1" res="7.3070572689175606e-03" rms="4.6243086457252502e-01" purity="5.2967780828475952e-01" nType="0">
          <Node pos="l" depth="2" NCoef="0" IVar="-1" Cut="0.0000000000000000e+00" cType="1" res="-1.0366184869781137e-03" rms="4.7017028927803040e-01" purity="4.7781822085380554e-01" nType="-99"/>
          <Node pos="r" depth="2" NCoef="0" IVar="-1" Cut="0.0000000000000000e+00" cType="1" res="6.7446031607687473e-04" rms="4.5908579230308533e-01" purity="5.4626411199569702e-01" nType="-99"/>
        </Node>
        <Node pos="r" depth="1" NCoef="0" IVar="-1" Cut="0.0000000000000000e+00" cType="1" res="-2.2195558995008469e-03" rms="3.9961951971054077e-01" purity="2.4205997586250305e-01" nType="-99"/>
      </Node>
    </BinaryTree>
    <BinaryTree type="DecisionTree" boostWeight="1.0000000000000000e+00" itree="285">
      <Node pos="s" depth="0" NCoef="0" IVar="4" Cut="6.5790687561035156e+01" cType="1" res="-9.2068901285529137e-03" rms="4.6026745438575745e-01" purity="4.9810025095939636e-01" nType="0">
        <Node pos="l" depth="1" NCoef="0" IVar="-1" Cut="0.0000000000000000e+00" cType="1" res="-2.4688781704753637e-03" rms="4.5643794536590576e-01" purity="3.6840808391571045e-01" nType="-99"/>
        <Node pos="r" depth="1" NCoef="0" IVar="4" Cut="1.5875521850585938e+02" cType="1" res="-1.1635794071480632e-03" rms="4.5982450246810913e-01" purity="5.1047754287719727e-01" nType="0">
          <Node pos="l" depth="2" NCoef="0" IVar="-1" Cut="0.0000000000000000e+00" cType="1" res="9.2109740944579244e-04" rms="4.5924955606460571e-01" purity="5.7254737615585327e-01" nType="-99"/>
          <Node pos="r" depth="2" NCoef="0" IVar="-1" Cut="0.0000000000000000e+00" cType="1" res="-8.9978863252326846e-04" rms="4.5850750803947449e-01" purity="4.4645130634307861e-01" nType="-99"/>
        </Node>
      </Node>
    </BinaryTree>
    <BinaryTree type="DecisionTree" boostWeight="1.0000000000000000e+00" itree="286">
      <Node pos="s" depth="0" NCoef="0" IVar="4" Cut="1.6071969604492188e+02" cType="1" res="-6.0125435702502728e-03" rms="4.5737457275390625e-01" purity="5.0272017717361450e-01" nType="0">
        <Node pos="l" depth="1" NCoef="0" IVar="4" Cut="9.5455856323242188e+01" cType="1" res="2.0263463258743286e-02" rms="4.5601806044578552e-01" purity="5.5501008033752441e-01" nType="0">
          <Node pos="l" depth="2" NCoef="0" IVar="-1" Cut="0.0000000000000000e+00" cType="1" res="-1.1265444336459041e-03" rms="4.6393859386444092e-01" purity="4.5689779520034790e-01" nType="-99"/>
          <Node pos="r" depth="2" NCoef="0" IVar="-1" Cut="0.0000000000000000e+00" cType="1" res="1.9374622497707605e-03" rms="4.4754749536514282e-01" purity="6.1315554380416870e-01" nType="-99"/>
        </Node>
        <Node pos="r" depth="1" NCoef="0" IVar="1" Cut="7.6867765188217163e-01" cType="1" res="-3.8972113281488419e-02" rms="4.5693907141685486e-01" purity="4.3712970614433289e-01" nType="0">
          <Node pos="l" depth="2" NCoef="0" IVar="-1" Cut="0.0000000000000000e+00" cType="1" res="3.3462911233073100e-05" rms="4.6653243899345398e-01" purity="5.4504644870758057e-01" nType="-99"/>
          <Node pos="r" depth="2" NCoef="0" IVar="-1" Cut="0.0000000000000000e+00" cType="1" res="-1.6384987393394113e-03" rms="4.5006376504898071e-01" purity="3.7778878211975098e-01" nType="-99"/>
        </Node>
      </Node>
    </BinaryTree>
    <BinaryTree type="DecisionTree" boostWeight="1.0000000000000000e+00" itree="287">
      <Node pos="s" depth="0" NCoef="0" IVar="1" Cut="1.7296187877655029e+00" cType="1" res="-1.1004161089658737e-02" rms="4.5791524648666382e-01" purity="4.9526005983352661e-01" nType="0">
        <Node pos="l" depth="1" NCoef="0" IVar="4" Cut="1.9290516662597656e+02" cType="1" res="2.3195582907646894e-03" rms="4.6413925290107727e-01" purity="5.4492104053497314e-01" nType="0">
          <Node pos="l" depth="2" NCoef="0" IVar="-1" Cut="0.0000000000000000e+00" cType="1" res="7.5300800381228328e-04" rms="4.6371558308601379e-01" purity="5.8735126256942749e-01" nType="-99"/>
          <Node pos="r" depth="2" NCoef="0" IVar="-1" Cut="0.0000000000000000e+00" cType="1" res="-1.1154797393828630e-03" rms="4.6228006482124329e-01" purity="4.5919826626777649e-01" nType="-99"/>
        </Node>
        <Node pos="r" depth="1" NCoef="0" IVar="0" Cut="1.4974923133850098e+00" cType="1" res="-5.9061717242002487e-02" rms="4.3132001161575317e-01" purity="3.1613710522651672e-01" nType="0">
          <Node pos="l" depth="2" NCoef="0" IVar="-1" Cut="0.0000000000000000e+00" cType="1" res="-9.9532585591077805e-04" rms="4.5590570569038391e-01" purity="3.8505727052688599e-01" nType="-99"/>
          <Node pos="r" depth="2" NCoef="0" IVar="-1" Cut="0.0000000000000000e+00" cType="1" res="-2.5051834527403116e-03" rms="3.8062116503715515e-01" purity="1.9378651678562164e-01" nType="-99"/>
        </Node>
      </Node>
    </BinaryTree>
    <BinaryTree type="DecisionTree" boostWeight="1.0000000000000000e+00" itree="288">
      <Node pos="s" depth="0" NCoef="0" IVar="8" Cut="6.4155876636505127e-01" cType="1" res="-9.9824462085962296e-03" rms="4.5878514647483826e-01" purity="4.9717608094215393e-01" nType="0">
        <Node pos="l" depth="1" NCoef="0" IVar="0" Cut="1.5259261131286621e+00" cType="1" res="-2.0549207925796509e-02" rms="4.6041938662528992e-01" purity="4.7101595997810364e-01" nType="0">
          <Node pos="l" depth="2" NCoef="0" IVar="-1" Cut="0.0000000000000000e+00" cType="1" res="-3.1820454751141369e-04" rms="4.6862152218818665e-01" purity="5.1069289445877075e-01" nType="-99"/>
          <Node pos="r" depth="2" NCoef="0" IVar="-1" Cut="0.0000000000000000e+00" cType="1" res="-2.0251974929124117e-03" rms="4.0541130304336548e-01" purity="2.4344889819622040e-01" nType="-99"/>
        </Node>
        <Node pos="r" depth="1" NCoef="0" IVar="3" Cut="6.9635597229003906e+01" cType="1" res="5.5397689342498779e-02" rms="4.4297158718109131e-01" purity="6.5903770923614502e-01" nType="0">
          <Node pos="l" depth="2" NCoef="0" IVar="-1" Cut="0.0000000000000000e+00" cType="1" res="7.4279063846915960e-04" rms="4.6153351664543152e-01" purity="6.0693114995956421e-01" nType="-99"/>
          <Node pos="r" depth="2" NCoef="0" IVar="-1" Cut="0.0000000000000000e+00" cType="1" res="3.7658025976270437e-03" rms="4.2198538780212402e-01" purity="7.0867079496383667e-01" nType="-99"/>
        </Node>
      </Node>
    </BinaryTree>
    <BinaryTree type="DecisionTree" boostWeight="1.0000000000000000e+00" itree="289">
      <Node pos="s" depth="0" NCoef="0" IVar="1" Cut="1.2904977798461914e+00" cType="1" res="-1.4578449190594256e-04" rms="4.5671519637107849e-01" purity="5.0729876756668091e-01" nType="0">
        <Node pos="l" depth="1" NCoef="0" IVar="3" Cut="8.9588233947753906e+01" cType="1" res="2.0470593124628067e-02" rms="4.5857095718383789e-01" purity="5.7723534107208252e-01" nType="0">
          <Node pos="l" depth="2" NCoef="0" IVar="-1" Cut="0.0000000000000000e+00" cType="1" res="2.1845426090294495e-05" rms="4.6816667914390564e-01" purity="5.4148340225219727e-01" nType="-99"/>
          <Node pos="r" depth="2" NCoef="0" IVar="-1" Cut="0.0000000000000000e+00" cType="1" res="2.0134989172220230e-03" rms="4.3954926729202271e-01" purity="6.3859099149703979e-01" nType="-99"/>
        </Node>
        <Node pos="r" depth="1" NCoef="0" IVar="8" Cut="6.3161098957061768e-01" cType="1" res="-3.7828415632247925e-02" rms="4.5087394118309021e-01" purity="3.7946859002113342e-01" nType="0">
          <Node pos="l" depth="2" NCoef="0" IVar="-1" Cut="0.0000000000000000e+00" cType="1" res="-1.3885849621146917e-03" rms="4.4959694147109985e-01" purity="3.4970498085021973e-01" nType="-99"/>
          <Node pos="r" depth="2" NCoef="0" IVar="-1" Cut="0.0000000000000000e+00" cType="1" res="1.2232377193868160e-03" rms="4.5016351342201233e-01" purity="5.4062843322753906e-01" nType="-99"/>
        </Node>
      </Node>
    </BinaryTree>
    <BinaryTree type="DecisionTree" boostWeight="1.0000000000000000e+00" itree="290">
      <Node pos="s" depth="0" NCoef="0" IVar="3" Cut="4.6528812408447266e+01" cType="1" res="2.2448769304901361e-03" rms="4.5897752046585083e-01" purity="5.1218312978744507e-01" nType="0">
        <Node pos="l" depth="1" NCoef="0" IVar="3" Cut="3.4645023345947266e+01" cType="1" res="-4.7841165214776993e-02" rms="4.5853146910667419e-01" purity="4.1639572381973267e-01" nType="0">
          <Node pos="l" depth="2" NCoef="0" IVar="-1" Cut="0.0000000000000000e+00" cType="1" res="-2.4737375788390636e-03" rms="4.4659563899040222e-01" purity="3.4787806868553162e-01" nType="-99"/>
          <Node pos="r" depth="2" NCoef="0" IVar="-1" Cut="0.0000000000000000e+00" cType="1" res="-6.5010599792003632e-04" rms="4.6255370974540710e-01" purity="4.5183193683624268e-01" nType="-99"/>
        </Node>
        <Node pos="r" depth="1" NCoef="0" IVar="7" Cut="8.7205427885055542e-01" cType="1" res="1.4199523255228996e-02" rms="4.5827543735504150e-01" purity="5.3504592180252075e-01" nType="0">
          <Node pos="l" depth="2" NCoef="0" IVar="-1" Cut="0.0000000000000000e+00" cType="1" res="9.4176262791734189e-05" rms="4.6172448992729187e-01" purity="5.0765347480773926e-01" nType="-99"/>
          <Node pos="r" depth="2" NCoef="0" IVar="-1" Cut="0.0000000000000000e+00" cType="1" res="3.1939409673213959e-03" rms="4.3158149719238281e-01" purity="6.9649654626846313e-01" nType="-99"/>
        </Node>
      </Node>
    </BinaryTree>
    <BinaryTree type="DecisionTree" boostWeight="1.0000000000000000e+00" itree="291">
      <Node pos="s" depth="0" NCoef="0" IVar="1" Cut="2.5270891189575195e+00" cType="1" res="-6.2830252572894096e-03" rms="4.5862618088722229e-01" purity="5.0126433372497559e-01" nType="0">
        <Node pos="l" depth="1" NCoef="0" IVar="2" Cut="8.7127333879470825e-01" cType="1" res="1.0656960075721145e-03" rms="4.6321910619735718e-01" purity="5.2485716342926025e-01" nType="0">
          <Node pos="l" depth="2" NCoef="0" IVar="-1" Cut="0.0000000000000000e+00" cType="1" res="-5.5000145221129060e-04" rms="4.6640732884407043e-01" purity="4.3867021799087524e-01" nType="-99"/>
          <Node pos="r" depth="2" NCoef="0" IVar="-1" Cut="0.0000000000000000e+00" cType="1" res="9.3458651099354029e-04" rms="4.5812529325485229e-01" purity="6.2830191850662231e-01" nType="-99"/>
        </Node>
        <Node pos="r" depth="1" NCoef="0" IVar="-1" Cut="0.0000000000000000e+00" cType="1" res="-2.3319306783378124e-03" rms="3.9255622029304504e-01" purity="2.3087014257907867e-01" nType="-99"/>
      </Node>
    </BinaryTree>
    <BinaryTree type="DecisionTree" boostWeight="1.0000000000000000e+00" itree="292">
      <Node pos="s" depth="0" NCoef="0" IVar="0" Cut="1.5038007497787476e+00" cType="1" res="6.3010207668412477e-05" rms="4.5688855648040771e-01" purity="5.0793749094009399e-01" nType="0">
        <Node pos="l" depth="1" NCoef="0" IVar="2" Cut="7.4355262517929077e-01" cType="1" res="1.3052573427557945e-02" rms="4.6334049105644226e-01" purity="5.5322277545928955e-01" nType="0">
          <Node pos="l" depth="2" NCoef="0" IVar="-1" Cut="0.0000000000000000e+00" cType="1" res="-1.7132990760728717e-03" rms="4.5611000061035156e-01" purity="3.1593576073646545e-01" nType="-99"/>
          <Node pos="r" depth="2" NCoef="0" IVar="-1" Cut="0.0000000000000000e+00" cType="1" res="6.8348244531080127e-04" rms="4.6327880024909973e-01" purity="5.7566076517105103e-01" nType="-99"/>
        </Node>
        <Node pos="r" depth="1" NCoef="0" IVar="7" Cut="6.6148293018341064e-01" cType="1" res="-6.8964950740337372e-02" rms="4.1416698694229126e-01" purity="2.6728683710098267e-01" nType="0">
          <Node pos="l" depth="2" NCoef="0" IVar="-1" Cut="0.0000000000000000e+00" cType="1" res="-2.5033911224454641e-03" rms="3.8440281152725220e-01" purity="2.0156064629554749e-01" nType="-99"/>
          <Node pos="r" depth="2" NCoef="0" IVar="-1" Cut="0.0000000000000000e+00" cType="1" res="-7.7432644320651889e-04" rms="4.4992977380752563e-01" purity="3.6018997430801392e-01" nType="-99"/>
        </Node>
      </Node>
    </BinaryTree>
    <BinaryTree type="DecisionTree" boostWeight="1.0000000000000000e+00" itree="293">
      <Node pos="s" depth="0" NCoef="0" IVar="5" Cut="1.6887786388397217e+00" cType="1" res="-2.6039122603833675e-03" rms="4.5635104179382324e-01" purity="5.0425899028778076e-01" nType="0">
        <Node pos="l" depth="1" NCoef="0" IVar="8" Cut="5.4958707094192505e-01" cType="1" res="7.3269456624984741e-03" rms="4.6479117870330811e-01" purity="5.4204070568084717e-01" nType="0">
          <Node pos="l" depth="2" NCoef="0" IVar="-1" Cut="0.0000000000000000e+00" cType="1" res="-4.9216428305953741e-04" rms="4.6977841854095459e-01" purity="4.6723911166191101e-01" nType="-99"/>
          <Node pos="r" depth="2" NCoef="0" IVar="-1" Cut="0.0000000000000000e+00" cType="1" res="1.0503834346309304e-03" rms="4.5888099074363708e-01" purity="6.1208605766296387e-01" nType="-99"/>
        </Node>
        <Node pos="r" depth="1" NCoef="0" IVar="-1" Cut="0.0000000000000000e+00" cType="1" res="-2.4666977114975452e-03" rms="3.5738745331764221e-01" purity="1.5764287114143372e-01" nType="-99"/>
      </Node>
    </BinaryTree>
    <BinaryTree type="DecisionTree" boostWeight="1.0000000000000000e+00" itree="294">
      <Node pos="s" depth="0" NCoef="0" IVar="4" Cut="9.2121437072753906e+01" cType="1" res="-1.1525581590831280e-02" rms="4.5797559618949890e-01" purity="4.9587818980216980e-01" nType="0">
        <Node pos="l" depth="1" NCoef="0" IVar="4" Cut="5.8297618865966797e+01" cType="1" res="-6.4525365829467773e-02" rms="4.5636770129203796e-01" purity="4.1850766539573669e-01" nType="0">
          <Node pos="l" depth="2" NCoef="0" IVar="-1" Cut="0.0000000000000000e+00" cType="1" res="-2.9173330403864384e-03" rms="4.3980985879898071e-01" purity="3.2617026567459106e-01" nType="-99"/>
          <Node pos="r" depth="2" NCoef="0" IVar="-1" Cut="0.0000000000000000e+00" cType="1" res="-1.1527636088430882e-03" rms="4.6257677674293518e-01" purity="4.6547544002532959e-01" nType="-99"/>
        </Node>
        <Node pos="r" depth="1" NCoef="0" IVar="4" Cut="1.6285208129882812e+02" cType="1" res="1.0754838585853577e-03" rms="4.5745444297790527e-01" purity="5.1427358388900757e-01" nType="0">
          <Node pos="l" depth="2" NCoef="0" IVar="-1" Cut="0.0000000000000000e+00" cType="1" res="1.3995904009789228e-03" rms="4.5296162366867065e-01" purity="5.9902018308639526e-01" nType="-99"/>
          <Node pos="r" depth="2" NCoef="0" IVar="-1" Cut="0.0000000000000000e+00" cType="1" res="-9.4784639077261090e-04" rms="4.5856899023056030e-01" purity="4.4134762883186340e-01" nType="-99"/>
        </Node>
      </Node>
    </BinaryTree>
    <BinaryTree type="DecisionTree" boostWeight="1.0000000000000000e+00" itree="295">
      <Node pos="s" depth="0" NCoef="0" IVar="5" Cut="1.7037984132766724e+00" cType="1" res="-7.2861798107624054e-03" rms="4.5481139421463013e-01" purity="4.9852693080902100e-01" nType="0">
        <Node pos="l" depth="1" NCoef="0" IVar="4" Cut="8.7469436645507812e+01" cType="1" res="1.6438941238448024e-03" rms="4.6321317553520203e-01" purity="5.3577262163162231e-01" nType="0">
          <Node pos="l" depth="2" NCoef="0" IVar="-1" Cut="0.0000000000000000e+00" cType="1" res="-1.6461845953017473e-03" rms="4.6519255638122559e-01" purity="4.4061365723609924e-01" nType="-99"/>
          <Node pos="r" depth="2" NCoef="0" IVar="-1" Cut="0.0000000000000000e+00" cType="1" res="4.7486118273809552e-04" rms="4.6172270178794861e-01" purity="5.5599844455718994e-01" nType="-99"/>
        </Node>
        <Node pos="r" depth="1" NCoef="0" IVar="-1" Cut="0.0000000000000000e+00" cType="1" res="-2.3342643398791552e-03" rms="3.5974869132041931e-01" purity="1.5992958843708038e-01" nType="-99"/>
      </Node>
    </BinaryTree>
    <BinaryTree type="DecisionTree" boostWeight="1.0000000000000000e+00" itree="296">
      <Node pos="s" depth="0" NCoef="0" IVar="1" Cut="1.0658886432647705e+00" cType="1" res="-7.5834412127733231e-03" rms="4.5845934748649597e-01" purity="4.9842545390129089e-01" nType="0">
        <Node pos="l" depth="1" NCoef="0" IVar="4" Cut="1.6320259094238281e+02" cType="1" res="1.8157364800572395e-02" rms="4.6071979403495789e-01" purity="5.8576315641403198e-01" nType="0">
          <Node pos="l" depth="2" NCoef="0" IVar="-1" Cut="0.0000000000000000e+00" cType="1" res="1.6520965145900846e-03" rms="4.5176988840103149e-01" purity="6.3895624876022339e-01" nType="-99"/>
          <Node pos="r" depth="2" NCoef="0" IVar="-1" Cut="0.0000000000000000e+00" cType="1" res="-6.1438611010089517e-04" rms="4.7039407491683960e-01" purity="5.1070111989974976e-01" nType="-99"/>
        </Node>
        <Node pos="r" depth="1" NCoef="0" IVar="1" Cut="2.6157257556915283e+00" cType="1" res="-3.7603434175252914e-02" rms="4.5396900177001953e-01" purity="3.9656865596771240e-01" nType="0">
          <Node pos="l" depth="2" NCoef="0" IVar="-1" Cut="0.0000000000000000e+00" cType="1" res="-7.2701135650277138e-04" rms="4.6307235956192017e-01" purity="4.2975142598152161e-01" nType="-99"/>
          <Node pos="r" depth="2" NCoef="0" IVar="-1" Cut="0.0000000000000000e+00" cType="1" res="-2.4988427758216858e-03" rms="3.9836174249649048e-01" purity="2.2587305307388306e-01" nType="-99"/>
        </Node>
      </Node>
    </BinaryTree>
    <BinaryTree type="DecisionTree" boostWeight="1.0000000000000000e+00" itree="297">
      <Node pos="s" depth="0" NCoef="0" IVar="5" Cut="5.8805882930755615e-01" cType="1" res="-9.6380716422572732e-04" rms="4.5771807432174683e-01" purity="5.0750583410263062e-01" nType="0">
        <Node pos="l" depth="1" NCoef="0" IVar="5" Cut="4.0206137299537659e-01" cType="1" res="5.8818895369768143e-02" rms="4.4693607091903687e-01" purity="6.8835347890853882e-01" nType="0">
          <Node pos="l" depth="2" NCoef="0" IVar="-1" Cut="0.0000000000000000e+00" cType="1" res="1.1187684722244740e-03" rms="4.5718431472778320e-01" purity="6.5968912839889526e-01" nType="-99"/>
          <Node pos="r" depth="2" NCoef="0" IVar="-1" Cut="0.0000000000000000e+00" cType="1" res="2.9884020332247019e-03" rms="4.4086644053459167e-01" purity="7.0300972461700439e-01" nType="-99"/>
        </Node>
        <Node pos="r" depth="1" NCoef="0" IVar="4" Cut="2.7879766845703125e+02" cType="1" res="-1.1635874398052692e-02" rms="4.5879751443862915e-01" purity="4.7522196173667908e-01" nType="0">
          <Node pos="l" depth="2" NCoef="0" IVar="-1" Cut="0.0000000000000000e+00" cType="1" res="4.2358424252597615e-05" rms="4.6112275123596191e-01" purity="5.0557488203048706e-01" nType="-99"/>
          <Node pos="r" depth="2" NCoef="0" IVar="-1" Cut="0.0000000000000000e+00" cType="1" res="-1.7391366418451071e-03" rms="4.4530498981475830e-01" purity="3.5173714160919189e-01" nType="-99"/>
        </Node>
      </Node>
    </BinaryTree>
    <BinaryTree type="DecisionTree" boostWeight="1.0000000000000000e+00" itree="298">
      <Node pos="s" depth="0" NCoef="0" IVar="7" Cut="5.6770128011703491e-01" cType="1" res="-6.6649653017520905e-03" rms="4.5700976252555847e-01" purity="4.9962696433067322e-01" nType="0">
        <Node pos="l" depth="1" NCoef="0" IVar="2" Cut="7.3969405889511108e-01" cType="1" res="-4.9450401216745377e-02" rms="4.5389348268508911e-01" purity="3.7300112843513489e-01" nType="0">
          <Node pos="l" depth="2" NCoef="0" IVar="-1" Cut="0.0000000000000000e+00" cType="1" res="-2.2378165740519762e-03" rms="4.1997215151786804e-01" purity="2.5513437390327454e-01" nType="-99"/>
          <Node pos="r" depth="2" NCoef="0" IVar="-1" Cut="0.0000000000000000e+00" cType="1" res="-9.9807255901396275e-04" rms="4.6391505002975464e-01" purity="4.1233083605766296e-01" nType="-99"/>
        </Node>
        <Node pos="r" depth="1" NCoef="0" IVar="5" Cut="1.6418129205703735e+00" cType="1" res="9.4101401045918465e-03" rms="4.5714139938354492e-01" purity="5.4720211029052734e-01" nType="0">
          <Node pos="l" depth="2" NCoef="0" IVar="-1" Cut="0.0000000000000000e+00" cType="1" res="6.5918546169996262e-04" rms="4.6449545025825500e-01" purity="5.9141677618026733e-01" nType="-99"/>
          <Node pos="r" depth="2" NCoef="0" IVar="-1" Cut="0.0000000000000000e+00" cType="1" res="-1.8315140623599291e-03" rms="3.8472640514373779e-01" purity="1.9749632477760315e-01" nType="-99"/>
        </Node>
      </Node>
    </BinaryTree>
    <BinaryTree type="DecisionTree" boostWeight="1.0000000000000000e+00" itree="299">
      <Node pos="s" depth="0" NCoef="0" IVar="3" Cut="1.4193238830566406e+02" cType="1" res="-1.8677182961255312e-03" rms="4.5682066679000854e-01" purity="5.0281089544296265e-01" nType="0">
        <Node pos="l" depth="1" NCoef="0" IVar="3" Cut="1.0060166168212891e+02" cType="1" res="6.4805354923009872e-03" rms="4.5748555660247803e-01" purity="5.1549142599105835e-01" nType="0">
          <Node pos="l" depth="2" NCoef="0" IVar="-1" Cut="0.0000000000000000e+00" cType="1" res="-3.2398596522398293e-04" rms="4.6041902899742126e-01" purity="4.8866376280784607e-01" nType="-99"/>
          <Node pos="r" depth="2" NCoef="0" IVar="-1" Cut="0.0000000000000000e+00" cType="1" res="2.2402876056730747e-03" rms="4.4309464097023010e-01" purity="6.0307377576828003e-01" nType="-99"/>
        </Node>
        <Node pos="r" depth="1" NCoef="0" IVar="-1" Cut="0.0000000000000000e+00" cType="1" res="-2.4121315218508244e-03" rms="4.4067335128784180e-01" purity="3.7148824334144592e-01" nType="-99"/>
      </Node>
    </BinaryTree>
    <BinaryTree type="DecisionTree" boostWeight="1.0000000000000000e+00" itree="300">
      <Node pos="s" depth="0" NCoef="0" IVar="9" Cut="9.6890062093734741e-01" cType="1" res="-6.5770321525633335e-03" rms="4.5775896310806274e-01" purity="5.0023764371871948e-01" nType="0">
        <Node pos="l" depth="1" NCoef="0" IVar="0" Cut="7.2633004188537598e-01" cType="1" res="-3.2364625483751297e-02" rms="4.5944193005561829e-01" purity="4.2423871159553528e-01" nType="0">
          <Node pos="l" depth="2" NCoef="0" IVar="-1" Cut="0.0000000000000000e+00" cType="1" res="1.3770255027338862e-03" rms="4.7329774498939514e-01" purity="6.3938564062118530e-01" nType="-99"/>
          <Node pos="r" depth="2" NCoef="0" IVar="-1" Cut="0.0000000000000000e+00" cType="1" res="-1.1665057390928268e-03" rms="4.5650827884674072e-01" purity="3.9340794086456299e-01" nType="-99"/>
        </Node>
        <Node pos="r" depth="1" NCoef="0" IVar="4" Cut="7.7803993225097656e+01" cType="1" res="1.9225742667913437e-02" rms="4.5460703969001770e-01" purity="5.7628142833709717e-01" nType="0">
          <Node pos="l" depth="2" NCoef="0" IVar="-1" Cut="0.0000000000000000e+00" cType="1" res="-1.3561761006712914e-03" rms="4.5728233456611633e-01" purity="4.5923876762390137e-01" nType="-99"/>
          <Node pos="r" depth="2" NCoef="0" IVar="-1" Cut="0.0000000000000000e+00" cType="1" res="1.0105189867317677e-03" rms="4.5336639881134033e-01" purity="5.9398543834686279e-01" nType="-99"/>
        </Node>
      </Node>
    </BinaryTree>
    <BinaryTree type="DecisionTree" boostWeight="1.0000000000000000e+00" itree="301">
      <Node pos="s" depth="0" NCoef="0" IVar="1" Cut="1.4903025627136230e+00" cType="1" res="-1.6371570527553558e-02" rms="4.5704996585845947e-01" purity="4.8767608404159546e-01" nType="0">
        <Node pos="l" depth="1" NCoef="0" IVar="3" Cut="7.7366142272949219e+01" cType="1" res="-1.8881958385463804e-04" rms="4.6395212411880493e-01" purity="5.4876023530960083e-01" nType="0">
          <Node pos="l" depth="2" NCoef="0" IVar="-1" Cut="0.0000000000000000e+00" cType="1" res="-7.6354906195774674e-04" rms="4.7244116663932800e-01" purity="5.0689381361007690e-01" nType="-99"/>
          <Node pos="r" depth="2" NCoef="0" IVar="-1" Cut="0.0000000000000000e+00" cType="1" res="9.7447278676554561e-04" rms="4.5263358950614929e-01" purity="5.9543472528457642e-01" nType="-99"/>
        </Node>
        <Node pos="r" depth="1" NCoef="0" IVar="0" Cut="1.1515208482742310e+00" cType="1" res="-5.5575735867023468e-02" rms="4.3740490078926086e-01" purity="3.3969432115554810e-01" nType="0">
          <Node pos="l" depth="2" NCoef="0" IVar="-1" Cut="0.0000000000000000e+00" cType="1" res="-3.1629751902073622e-04" rms="4.7406214475631714e-01" purity="5.0091040134429932e-01" nType="-99"/>
          <Node pos="r" depth="2" NCoef="0" IVar="-1" Cut="0.0000000000000000e+00" cType="1" res="-1.8891382496803999e-03" rms="4.2032939195632935e-01" purity="2.7451738715171814e-01" nType="-99"/>
        </Node>
      </Node>
    </BinaryTree>
    <BinaryTree type="DecisionTree" boostWeight="1.0000000000000000e+00" itree="302">
      <Node pos="s" depth="0" NCoef="0" IVar="1" Cut="2.5317099094390869e+00" cType="1" res="-2.0360478665679693e-03" rms="4.5806685090065002e-01" purity="5.0622987747192383e-01" nType="0">
        <Node pos="l" depth="1" NCoef="0" IVar="3" Cut="8.9476791381835938e+01" cType="1" res="5.9997462667524815e-03" rms="4.6242883801460266e-01" purity="5.3087347745895386e-01" nType="0">
          <Node pos="l" depth="2" NCoef="0" IVar="-1" Cut="0.0000000000000000e+00" cType="1" res="-4.1220028651878238e-04" rms="4.6922001242637634e-01" purity="4.9640092253684998e-01" nType="-99"/>
          <Node pos="r" depth="2" NCoef="0" IVar="-1" Cut="0.0000000000000000e+00" cType="1" res="1.3779622968286276e-03" rms="4.4861584901809692e-01" purity="5.8962404727935791e-01" nType="-99"/>
        </Node>
        <Node pos="r" depth="1" NCoef="0" IVar="-1" Cut="0.0000000000000000e+00" cType="1" res="-2.3553969804197550e-03" rms="3.9457389712333679e-01" purity="2.2869309782981873e-01" nType="-99"/>
      </Node>
    </BinaryTree>
    <BinaryTree type="DecisionTree" boostWeight="1.0000000000000000e+00" itree="303">
      <Node pos="s" depth="0" NCoef="0" IVar="4" Cut="1.5100645446777344e+02" cType="1" res="-9.9939694628119469e-03" rms="4.5892739295959473e-01" purity="4.9822941422462463e-01" nType="0">
        <Node pos="l" depth="1" NCoef="0" IVar="4" Cut="9.9457565307617188e+01" cType="1" res="1.5711707994341850e-02" rms="4.5623755455017090e-01" purity="5.5016547441482544e-01" nType="0">
          <Node pos="l" depth="2" NCoef="0" IVar="-1" Cut="0.0000000000000000e+00" cType="1" res="-1.3536412734538317e-03" rms="4.6277055144309998e-01" purity="4.5158979296684265e-01" nType="-99"/>
          <Node pos="r" depth="2" NCoef="0" IVar="-1" Cut="0.0000000000000000e+00" cType="1" res="2.2857612930238247e-03" rms="4.4518622756004333e-01" purity="6.2564820051193237e-01" nType="-99"/>
        </Node>
        <Node pos="r" depth="1" NCoef="0" IVar="3" Cut="1.4654072570800781e+02" cType="1" res="-3.7650950253009796e-02" rms="4.6020323038101196e-01" purity="4.4235086441040039e-01" nType="0">
          <Node pos="l" depth="2" NCoef="0" IVar="-1" Cut="0.0000000000000000e+00" cType="1" res="-7.5210130307823420e-04" rms="4.6240153908729553e-01" purity="4.5975327491760254e-01" nType="-99"/>
          <Node pos="r" depth="2" NCoef="0" IVar="-1" Cut="0.0000000000000000e+00" cType="1" res="-2.9359220061451197e-03" rms="4.3954449892044067e-01" purity="3.3627131581306458e-01" nType="-99"/>
        </Node>
      </Node>
    </BinaryTree>
    <BinaryTree type="DecisionTree" boostWeight="1.0000000000000000e+00" itree="304">
      <Node pos="s" depth="0" NCoef="0" IVar="0" Cut="7.1799963712692261e-01" cType="1" res="-1.3061949284747243e-03" rms="4.5647653937339783e-01" purity="5.0410282611846924e-01" nType="0">
        <Node pos="l" depth="1" NCoef="0" IVar="0" Cut="5.9156566858291626e-01" cType="1" res="7.7082157135009766e-02" rms="4.3283569812774658e-01" purity="7.2869360446929932e-01" nType="0">
          <Node pos="l" depth="2" NCoef="0" IVar="-1" Cut="0.0000000000000000e+00" cType="1" res="2.0402893424034119e-03" rms="4.4253113865852356e-01" purity="7.0190745592117310e-01" nType="-99"/>
          <Node pos="r" depth="2" NCoef="0" IVar="-1" Cut="0.0000000000000000e+00" cType="1" res="4.4866125099360943e-03" rms="4.2306056618690491e-01" purity="7.5151133537292480e-01" nType="-99"/>
        </Node>
        <Node pos="r" depth="1" NCoef="0" IVar="8" Cut="6.5026056766510010e-01" cType="1" res="-1.2348982505500317e-02" rms="4.5863381028175354e-01" purity="4.7246405482292175e-01" nType="0">
          <Node pos="l" depth="2" NCoef="0" IVar="-1" Cut="0.0000000000000000e+00" cType="1" res="-6.4877414843067527e-04" rms="4.5973557233810425e-01" purity="4.5130273699760437e-01" nType="-99"/>
          <Node pos="r" depth="2" NCoef="0" IVar="-1" Cut="0.0000000000000000e+00" cType="1" res="2.5922048371285200e-03" rms="4.4105589389801025e-01" purity="6.4568281173706055e-01" nType="-99"/>
        </Node>
      </Node>
    </BinaryTree>
    <BinaryTree type="DecisionTree" boostWeight="1.0000000000000000e+00" itree="305">
      <Node pos="s" depth="0" NCoef="0" IVar="0" Cut="1.6365941762924194e+00" cType="1" res="-9.9775167182087898e-03" rms="4.5686131715774536e-01" purity="4.9857673048973083e-01" nType="0">
        <Node pos="l" depth="1" NCoef="0" IVar="3" Cut="1.0079226684570312e+02" cType="1" res="-2.1615796722471714e-03" rms="4.6219131350517273e-01" purity="5.2620095014572144e-01" nType="0">
          <Node pos="l" depth="2" NCoef="0" IVar="-1" Cut="0.0000000000000000e+00" cType="1" res="-5.2122317720204592e-04" rms="4.6661996841430664e-01" purity="5.0135231018066406e-01" nType="-99"/>
          <Node pos="r" depth="2" NCoef="0" IVar="-1" Cut="0.0000000000000000e+00" cType="1" res="1.2628441909328103e-03" rms="4.4848203659057617e-01" purity="5.8911764621734619e-01" nType="-99"/>
        </Node>
        <Node pos="r" depth="1" NCoef="0" IVar="-1" Cut="0.0000000000000000e+00" cType="1" res="-2.3032175377011299e-03" rms="3.8954851031303406e-01" purity="2.1667478978633881e-01" nType="-99"/>
      </Node>
    </BinaryTree>
    <BinaryTree type="DecisionTree" boostWeight="1.0000000000000000e+00" itree="306">
      <Node pos="s" depth="0" NCoef="0" IVar="4" Cut="2.6376358032226562e+02" cType="1" res="-1.7153925728052855e-03" rms="4.5942559838294983e-01" purity="5.0811803340911865e-01" nType="0">
        <Node pos="l" depth="1" NCoef="0" IVar="3" Cut="1.0599182891845703e+02" cType="1" res="1.1240974999964237e-02" rms="4.6115946769714355e-01" purity="5.3816276788711548e-01" nType="0">
          <Node pos="l" depth="2" NCoef="0" IVar="-1" Cut="0.0000000000000000e+00" cType="1" res="-9.9485143437050283e-05" rms="4.6518871188163757e-01" purity="5.1588529348373413e-01" nType="-99"/>
          <Node pos="r" depth="2" NCoef="0" IVar="-1" Cut="0.0000000000000000e+00" cType="1" res="2.3065276909619570e-03" rms="4.4240710139274597e-01" purity="6.1853057146072388e-01" nType="-99"/>
        </Node>
        <Node pos="r" depth="1" NCoef="0" IVar="5" Cut="9.1395699977874756e-01" cType="1" res="-5.1514085382223129e-02" rms="4.4923475384712219e-01" purity="3.9263918995857239e-01" nType="0">
          <Node pos="l" depth="2" NCoef="0" IVar="-1" Cut="0.0000000000000000e+00" cType="1" res="5.3468567784875631e-04" rms="4.7000610828399658e-01" purity="6.2424975633621216e-01" nType="-99"/>
          <Node pos="r" depth="2" NCoef="0" IVar="-1" Cut="0.0000000000000000e+00" cType="1" res="-2.0323656499385834e-03" rms="4.3761959671974182e-01" purity="2.9893690347671509e-01" nType="-99"/>
        </Node>
      </Node>
    </BinaryTree>
    <BinaryTree type="DecisionTree" boostWeight="1.0000000000000000e+00" itree="307">
      <Node pos="s" depth="0" NCoef="0" IVar="4" Cut="2.5536624145507812e+02" cType="1" res="-2.9334782157093287e-03" rms="4.6100723743438721e-01" purity="5.0513780117034912e-01" nType="0">
        <Node pos="l" depth="1" NCoef="0" IVar="4" Cut="7.2392707824707031e+01" cType="1" res="1.2423786334693432e-02" rms="4.6274718642234802e-01" purity="5.3958803415298462e-01" nType="0">
          <Node pos="l" depth="2" NCoef="0" IVar="-1" Cut="0.0000000000000000e+00" cType="1" res="-1.7388191772624850e-03" rms="4.5643922686576843e-01" purity="3.9852222800254822e-01" nType="-99"/>
          <Node pos="r" depth="2" NCoef="0" IVar="-1" Cut="0.0000000000000000e+00" cType="1" res="8.0640328815206885e-04" rms="4.6260660886764526e-01" purity="5.6220716238021851e-01" nType="-99"/>
        </Node>
        <Node pos="r" depth="1" NCoef="0" IVar="8" Cut="6.0199785232543945e-01" cType="1" res="-5.6164629757404327e-02" rms="4.5089417695999146e-01" purity="3.8572677969932556e-01" nType="0">
          <Node pos="l" depth="2" NCoef="0" IVar="-1" Cut="0.0000000000000000e+00" cType="1" res="-1.9691188354045153e-03" rms="4.4894546270370483e-01" purity="3.4447827935218811e-01" nType="-99"/>
          <Node pos="r" depth="2" NCoef="0" IVar="-1" Cut="0.0000000000000000e+00" cType="1" res="2.4118954024743289e-04" rms="4.5176285505294800e-01" purity="5.2788841724395752e-01" nType="-99"/>
        </Node>
      </Node>
    </BinaryTree>
    <BinaryTree type="DecisionTree" boostWeight="1.0000000000000000e+00" itree="308">
      <Node pos="s" depth="0" NCoef="0" IVar="9" Cut="7.6305693387985229e-01" cType="1" res="-5.2597247995436192e-03" rms="4.5772057771682739e-01" purity="5.0318682193756104e-01" nType="0">
        <Node pos="l" depth="1" NCoef="0" IVar="-1" Cut="0.0000000000000000e+00" cType="1" res="-2.5474817957729101e-03" rms="4.1370448470115662e-01" purity="2.5041523575782776e-01" nType="-99"/>
        <Node pos="r" depth="1" NCoef="0" IVar="8" Cut="6.4183539152145386e-01" cType="1" res="1.8234414746984839e-03" rms="4.5996320247650146e-01" purity="5.2161484956741333e-01" nType="0">
          <Node pos="l" depth="2" NCoef="0" IVar="-1" Cut="0.0000000000000000e+00" cType="1" res="-2.7363159460946918e-04" rms="4.6313846111297607e-01" purity="4.9571970105171204e-01" nType="-99"/>
          <Node pos="r" depth="2" NCoef="0" IVar="-1" Cut="0.0000000000000000e+00" cType="1" res="2.4611779954284430e-03" rms="4.3664076924324036e-01" purity="6.6769129037857056e-01" nType="-99"/>
        </Node>
      </Node>
    </BinaryTree>
    <BinaryTree type="DecisionTree" boostWeight="1.0000000000000000e+00" itree="309">
      <Node pos="s" depth="0" NCoef="0" IVar="3" Cut="1.4518669128417969e+02" cType="1" res="-3.9391592144966125e-03" rms="4.5720306038856506e-01" purity="5.0133991241455078e-01" nType="0">
        <Node pos="l" depth="1" NCoef="0" IVar="3" Cut="8.3523818969726562e+01" cType="1" res="3.2455187756568193e-03" rms="4.5775455236434937e-01" purity="5.1246523857116699e-01" nType="0">
          <Node pos="l" depth="2" NCoef="0" IVar="-1" Cut="0.0000000000000000e+00" cType="1" res="-7.1392842801287770e-04" rms="4.6391138434410095e-01" purity="4.6890926361083984e-01" nType="-99"/>
          <Node pos="r" depth="2" NCoef="0" IVar="-1" Cut="0.0000000000000000e+00" cType="1" res="1.7891128081828356e-03" rms="4.4278344511985779e-01" purity="5.8804506063461304e-01" nType="-99"/>
        </Node>
        <Node pos="r" depth="1" NCoef="0" IVar="-1" Cut="0.0000000000000000e+00" cType="1" res="-2.4419547989964485e-03" rms="4.4205218553543091e-01" purity="3.7085333466529846e-01" nType="-99"/>
      </Node>
    </BinaryTree>
    <BinaryTree type="DecisionTree" boostWeight="1.0000000000000000e+00" itree="310">
      <Node pos="s" depth="0" NCoef="0" IVar="0" Cut="9.7371900081634521e-01" cType="1" res="-7.0928242057561874e-03" rms="4.5824503898620605e-01" purity="5.0183129310607910e-01" nType="0">
        <Node pos="l" depth="1" NCoef="0" IVar="4" Cut="9.9930847167968750e+01" cType="1" res="2.5018012151122093e-02" rms="4.5811617374420166e-01" purity="6.5186697244644165e-01" nType="0">
          <Node pos="l" depth="2" NCoef="0" IVar="-1" Cut="0.0000000000000000e+00" cType="1" res="-4.4129660818725824e-04" rms="4.7826051712036133e-01" purity="5.8203333616256714e-01" nType="-99"/>
          <Node pos="r" depth="2" NCoef="0" IVar="-1" Cut="0.0000000000000000e+00" cType="1" res="1.5816923696547747e-03" rms="4.4903084635734558e-01" purity="6.7933654785156250e-01" nType="-99"/>
        </Node>
        <Node pos="r" depth="1" NCoef="0" IVar="3" Cut="9.0363922119140625e+01" cType="1" res="-2.5366330519318581e-02" rms="4.5731282234191895e-01" purity="4.1644960641860962e-01" nType="0">
          <Node pos="l" depth="2" NCoef="0" IVar="-1" Cut="0.0000000000000000e+00" cType="1" res="-1.2235450558364391e-03" rms="4.5426985621452332e-01" purity="3.8259381055831909e-01" nType="-99"/>
          <Node pos="r" depth="2" NCoef="0" IVar="-1" Cut="0.0000000000000000e+00" cType="1" res="1.0972927702823654e-04" rms="4.6026271581649780e-01" purity="4.6669250726699829e-01" nType="-99"/>
        </Node>
      </Node>
    </BinaryTree>
    <BinaryTree type="DecisionTree" boostWeight="1.0000000000000000e+00" itree="311">
      <Node pos="s" depth="0" NCoef="0" IVar="9" Cut="7.5776135921478271e-01" cType="1" res="9.3721871962770820e-04" rms="4.5750468969345093e-01" purity="5.1021802425384521e-01" nType="0">
        <Node pos="l" depth="1" NCoef="0" IVar="-1" Cut="0.0000000000000000e+00" cType="1" res="-2.3296519648283720e-03" rms="4.2354986071586609e-01" purity="2.5994500517845154e-01" nType="-99"/>
        <Node pos="r" depth="1" NCoef="0" IVar="5" Cut="1.7046725749969482e+00" cType="1" res="7.1222661063075066e-03" rms="4.5898222923278809e-01" purity="5.2672034502029419e-01" nType="0">
          <Node pos="l" depth="2" NCoef="0" IVar="-1" Cut="0.0000000000000000e+00" cType="1" res="4.7504185931757092e-04" rms="4.6575272083282471e-01" purity="5.6063657999038696e-01" nType="-99"/>
          <Node pos="r" depth="2" NCoef="0" IVar="-1" Cut="0.0000000000000000e+00" cType="1" res="-1.9422357436269522e-03" rms="3.7299746274948120e-01" purity="1.7635479569435120e-01" nType="-99"/>
        </Node>
      </Node>
    </BinaryTree>
    <BinaryTree type="DecisionTree" boostWeight="1.0000000000000000e+00" itree="312">
      <Node pos="s" depth="0" NCoef="0" IVar="3" Cut="1.4518669128417969e+02" cType="1" res="-1.1101826094090939e-02" rms="4.5797568559646606e-01" purity="4.9554306268692017e-01" nType="0">
        <Node pos="l" depth="1" NCoef="0" IVar="3" Cut="9.1590965270996094e+01" cType="1" res="-3.8644506130367517e-03" rms="4.5871266722679138e-01" purity="5.0800645351409912e-01" nType="0">
          <Node pos="l" depth="2" NCoef="0" IVar="-1" Cut="0.0000000000000000e+00" cType="1" res="-7.1136298356577754e-04" rms="4.6215355396270752e-01" purity="4.7046011686325073e-01" nType="-99"/>
          <Node pos="r" depth="2" NCoef="0" IVar="-1" Cut="0.0000000000000000e+00" cType="1" res="1.5190650010481477e-03" rms="4.4704473018646240e-01" purity="5.9548377990722656e-01" nType="-99"/>
        </Node>
        <Node pos="r" depth="1" NCoef="0" IVar="-1" Cut="0.0000000000000000e+00" cType="1" res="-2.4381650146096945e-03" rms="4.4176864624023438e-01" purity="3.5688209533691406e-01" nType="-99"/>
      </Node>
    </BinaryTree>
    <BinaryTree type="DecisionTree" boostWeight="1.0000000000000000e+00" itree="313">
      <Node pos="s" depth="0" NCoef="0" IVar="1" Cut="2.5321102142333984e+00" cType="1" res="-4.4466746039688587e-03" rms="4.5732739567756653e-01" purity="5.0175207853317261e-01" nType="0">
        <Node pos="l" depth="1" NCoef="0" IVar="4" Cut="1.4994435119628906e+02" cType="1" res="3.6035177763551474e-03" rms="4.6239453554153442e-01" purity="5.2720922231674194e-01" nType="0">
          <Node pos="l" depth="2" NCoef="0" IVar="-1" Cut="0.0000000000000000e+00" cType="1" res="9.6359476447105408e-04" rms="4.5904010534286499e-01" purity="5.7922029495239258e-01" nType="-99"/>
          <Node pos="r" depth="2" NCoef="0" IVar="-1" Cut="0.0000000000000000e+00" cType="1" res="-7.0507940836250782e-04" rms="4.6446439623832703e-01" purity="4.7047239542007446e-01" nType="-99"/>
        </Node>
        <Node pos="r" depth="1" NCoef="0" IVar="-1" Cut="0.0000000000000000e+00" cType="1" res="-2.4367519654333591e-03" rms="3.8607656955718994e-01" purity="2.2058562934398651e-01" nType="-99"/>
      </Node>
    </BinaryTree>
    <BinaryTree type="DecisionTree" boostWeight="1.0000000000000000e+00" itree="314">
      <Node pos="s" depth="0" NCoef="0" IVar="1" Cut="5.3397500514984131e-01" cType="1" res="-8.6028557270765305e-03" rms="4.5863193273544312e-01" purity="4.9858942627906799e-01" nType="0">
        <Node pos="l" depth="1" NCoef="0" IVar="4" Cut="1.4603672790527344e+02" cType="1" res="3.2741229981184006e-02" rms="4.5798149704933167e-01" purity="6.2402468919754028e-01" nType="0">
          <Node pos="l" depth="2" NCoef="0" IVar="-1" Cut="0.0000000000000000e+00" cType="1" res="2.4693515151739120e-03" rms="4.4782111048698425e-01" purity="6.8435186147689819e-01" nType="-99"/>
          <Node pos="r" depth="2" NCoef="0" IVar="-1" Cut="0.0000000000000000e+00" cType="1" res="-7.7969280027900822e-06" rms="4.6657758951187134e-01" purity="5.5825644731521606e-01" nType="-99"/>
        </Node>
        <Node pos="r" depth="1" NCoef="0" IVar="8" Cut="4.7188872098922729e-01" cType="1" res="-2.1440872922539711e-02" rms="4.5807507634162903e-01" purity="4.5963972806930542e-01" nType="0">
          <Node pos="l" depth="2" NCoef="0" IVar="-1" Cut="0.0000000000000000e+00" cType="1" res="-1.9186594290658832e-03" rms="4.4408282637596130e-01" purity="3.3806830644607544e-01" nType="-99"/>
          <Node pos="r" depth="2" NCoef="0" IVar="-1" Cut="0.0000000000000000e+00" cType="1" res="-2.7915532700717449e-04" rms="4.6056112647056580e-01" purity="4.8903658986091614e-01" nType="-99"/>
        </Node>
      </Node>
    </BinaryTree>
    <BinaryTree type="DecisionTree" boostWeight="1.0000000000000000e+00" itree="315">
      <Node pos="s" depth="0" NCoef="0" IVar="2" Cut="8.8668477535247803e-01" cType="1" res="-3.0476076062768698e-03" rms="4.5724633336067200e-01" purity="5.0482243299484253e-01" nType="0">
        <Node pos="l" depth="1" NCoef="0" IVar="1" Cut="7.4507993459701538e-01" cType="1" res="-2.1299907937645912e-02" rms="4.6084558963775635e-01" purity="4.3441036343574524e-01" nType="0">
          <Node pos="l" depth="2" NCoef="0" IVar="-1" Cut="0.0000000000000000e+00" cType="1" res="3.6064238520339131e-04" rms="4.7032427787780762e-01" purity="5.3843688964843750e-01" nType="-99"/>
          <Node pos="r" depth="2" NCoef="0" IVar="-1" Cut="0.0000000000000000e+00" cType="1" res="-1.0786447674036026e-03" rms="4.5450556278228760e-01" purity="3.7700858712196350e-01" nType="-99"/>
        </Node>
        <Node pos="r" depth="1" NCoef="0" IVar="4" Cut="7.9843467712402344e+01" cType="1" res="2.7778858318924904e-02" rms="4.4942224025726318e-01" purity="6.2374198436737061e-01" nType="0">
          <Node pos="l" depth="2" NCoef="0" IVar="-1" Cut="0.0000000000000000e+00" cType="1" res="-1.4231527457013726e-03" rms="4.6848535537719727e-01" purity="5.0203794240951538e-01" nType="-99"/>
          <Node pos="r" depth="2" NCoef="0" IVar="-1" Cut="0.0000000000000000e+00" cType="1" res="1.4921587426215410e-03" rms="4.4500446319580078e-01" purity="6.4386826753616333e-01" nType="-99"/>
        </Node>
      </Node>
    </BinaryTree>
    <BinaryTree type="DecisionTree" boostWeight="1.0000000000000000e+00" itree="316">
      <Node pos="s" depth="0" NCoef="0" IVar="7" Cut="5.9922188520431519e-01" cType="1" res="-7.6135788112878799e-03" rms="4.5847702026367188e-01" purity="4.9973642826080322e-01" nType="0">
        <Node pos="l" depth="1" NCoef="0" IVar="5" Cut="1.0163526535034180e+00" cType="1" res="-3.6452237516641617e-02" rms="4.5153820514678955e-01" purity="3.8792225718498230e-01" nType="0">
          <Node pos="l" depth="2" NCoef="0" IVar="-1" Cut="0.0000000000000000e+00" cType="1" res="-1.9722763681784272e-04" rms="4.8042011260986328e-01" purity="5.2519971132278442e-01" nType="-99"/>
          <Node pos="r" depth="2" NCoef="0" IVar="-1" Cut="0.0000000000000000e+00" cType="1" res="-1.6029054531827569e-03" rms="4.2338004708290100e-01" purity="2.6951894164085388e-01" nType="-99"/>
        </Node>
        <Node pos="r" depth="1" NCoef="0" IVar="3" Cut="1.0224053192138672e+02" cType="1" res="8.8253589347004890e-03" rms="4.6158021688461304e-01" purity="5.6347405910491943e-01" nType="0">
          <Node pos="l" depth="2" NCoef="0" IVar="-1" Cut="0.0000000000000000e+00" cType="1" res="-2.6339280884712934e-04" rms="4.6686610579490662e-01" purity="5.3747850656509399e-01" nType="-99"/>
          <Node pos="r" depth="2" NCoef="0" IVar="-1" Cut="0.0000000000000000e+00" cType="1" res="1.9663702696561813e-03" rms="4.4455376267433167e-01" purity="6.3076508045196533e-01" nType="-99"/>
        </Node>
      </Node>
    </BinaryTree>
    <BinaryTree type="DecisionTree" boostWeight="1.0000000000000000e+00" itree="317">
      <Node pos="s" depth="0" NCoef="0" IVar="5" Cut="1.7431824207305908e+00" cType="1" res="-3.3804504200816154e-03" rms="4.5859614014625549e-01" purity="5.0528466701507568e-01" nType="0">
        <Node pos="l" depth="1" NCoef="0" IVar="3" Cut="4.3854438781738281e+01" cType="1" res="3.3943636808544397e-03" rms="4.6597164869308472e-01" purity="5.3617638349533081e-01" nType="0">
          <Node pos="l" depth="2" NCoef="0" IVar="-1" Cut="0.0000000000000000e+00" cType="1" res="-1.3513439334928989e-03" rms="4.6970266103744507e-01" purity="4.3286302685737610e-01" nType="-99"/>
          <Node pos="r" depth="2" NCoef="0" IVar="-1" Cut="0.0000000000000000e+00" cType="1" res="4.4006531243212521e-04" rms="4.6455115079879761e-01" purity="5.5610370635986328e-01" nType="-99"/>
        </Node>
        <Node pos="r" depth="1" NCoef="0" IVar="-1" Cut="0.0000000000000000e+00" cType="1" res="-2.1516676060855389e-03" rms="3.5740941762924194e-01" purity="1.5960030257701874e-01" nType="-99"/>
      </Node>
    </BinaryTree>
    <BinaryTree type="DecisionTree" boostWeight="1.0000000000000000e+00" itree="318">
      <Node pos="s" depth="0" NCoef="0" IVar="4" Cut="6.6589035034179688e+01" cType="1" res="-3.2225223258137703e-03" rms="4.5574668049812317e-01" purity="5.0424349308013916e-01" nType="0">
        <Node pos="l" depth="1" NCoef="0" IVar="-1" Cut="0.0000000000000000e+00" cType="1" res="-2.3200977593660355e-03" rms="4.4743192195892334e-01" purity="3.5888499021530151e-01" nType="-99"/>
        <Node pos="r" depth="1" NCoef="0" IVar="2" Cut="7.8527855873107910e-01" cType="1" res="4.9939299933612347e-03" rms="4.5571103692054749e-01" purity="5.1836884021759033e-01" nType="0">
          <Node pos="l" depth="2" NCoef="0" IVar="-1" Cut="0.0000000000000000e+00" cType="1" res="-1.2324176495894790e-03" rms="4.4922700524330139e-01" purity="3.2924309372901917e-01" nType="-99"/>
          <Node pos="r" depth="2" NCoef="0" IVar="-1" Cut="0.0000000000000000e+00" cType="1" res="5.7365238899365067e-04" rms="4.5637404918670654e-01" purity="5.6363719701766968e-01" nType="-99"/>
        </Node>
      </Node>
    </BinaryTree>
    <BinaryTree type="DecisionTree" boostWeight="1.0000000000000000e+00" itree="319">
      <Node pos="s" depth="0" NCoef="0" IVar="3" Cut="1.4655760192871094e+02" cType="1" res="-9.1167781502008438e-03" rms="4.5593523979187012e-01" purity="4.9760720133781433e-01" nType="0">
        <Node pos="l" depth="1" NCoef="0" IVar="3" Cut="9.3074882507324219e+01" cType="1" res="-9.7006565192714334e-04" rms="4.5688232779502869e-01" purity="5.1090747117996216e-01" nType="0">
          <Node pos="l" depth="2" NCoef="0" IVar="-1" Cut="0.0000000000000000e+00" cType="1" res="-6.4044125610962510e-04" rms="4.6029093861579895e-01" purity="4.7348695993423462e-01" nType="-99"/>
          <Node pos="r" depth="2" NCoef="0" IVar="-1" Cut="0.0000000000000000e+00" cType="1" res="1.6788232605904341e-03" rms="4.4508090615272522e-01" purity="5.9855800867080688e-01" nType="-99"/>
        </Node>
        <Node pos="r" depth="1" NCoef="0" IVar="-1" Cut="0.0000000000000000e+00" cType="1" res="-2.8279977850615978e-03" rms="4.3232262134552002e-01" purity="3.3670976758003235e-01" nType="-99"/>
      </Node>
    </BinaryTree>
    <BinaryTree type="DecisionTree" boostWeight="1.0000000000000000e+00" itree="320">
      <Node pos="s" depth="0" NCoef="0" IVar="1" Cut="1.0653722286224365e+00" cType="1" res="-5.4027228616178036e-03" rms="4.5685216784477234e-01" purity="5.0093603134155273e-01" nType="0">
        <Node pos="l" depth="1" NCoef="0" IVar="4" Cut="1.8393399047851562e+02" cType="1" res="1.7000485211610794e-02" rms="4.5847126841545105e-01" purity="5.8584403991699219e-01" nType="0">
          <Node pos="l" depth="2" NCoef="0" IVar="-1" Cut="0.0000000000000000e+00" cType="1" res="1.2632439611479640e-03" rms="4.5622885227203369e-01" purity="6.2968248128890991e-01" nType="-99"/>
          <Node pos="r" depth="2" NCoef="0" IVar="-1" Cut="0.0000000000000000e+00" cType="1" res="-5.0962693057954311e-04" rms="4.6069714426994324e-01" purity="5.0473153591156006e-01" nType="-99"/>
        </Node>
        <Node pos="r" depth="1" NCoef="0" IVar="9" Cut="9.7047537565231323e-01" cType="1" res="-3.2126586884260178e-02" rms="4.5346802473068237e-01" purity="3.9965280890464783e-01" nType="0">
          <Node pos="l" depth="2" NCoef="0" IVar="-1" Cut="0.0000000000000000e+00" cType="1" res="-1.5430316561833024e-03" rms="4.4325974583625793e-01" purity="3.2967635989189148e-01" nType="-99"/>
          <Node pos="r" depth="2" NCoef="0" IVar="-1" Cut="0.0000000000000000e+00" cType="1" res="-7.3928706115111709e-05" rms="4.6295636892318726e-01" purity="4.7879216074943542e-01" nType="-99"/>
        </Node>
      </Node>
    </BinaryTree>
    <BinaryTree type="DecisionTree" boostWeight="1.0000000000000000e+00" itree="321">
      <Node pos="s" depth="0" NCoef="0" IVar="3" Cut="1.4193238830566406e+02" cType="1" res="-5.9146047569811344e-03" rms="4.5856261253356934e-01" purity="5.0027543306350708e-01" nType="0">
        <Node pos="l" depth="1" NCoef="0" IVar="3" Cut="9.2878990173339844e+01" cType="1" res="2.3533320054411888e-03" rms="4.5872241258621216e-01" purity="5.1292455196380615e-01" nType="0">
          <Node pos="l" depth="2" NCoef="0" IVar="-1" Cut="0.0000000000000000e+00" cType="1" res="-4.8556816182099283e-04" rms="4.6235436201095581e-01" purity="4.7855743765830994e-01" nType="-99"/>
          <Node pos="r" depth="2" NCoef="0" IVar="-1" Cut="0.0000000000000000e+00" cType="1" res="1.7458384390920401e-03" rms="4.4597893953323364e-01" purity="5.9955418109893799e-01" nType="-99"/>
        </Node>
        <Node pos="r" depth="1" NCoef="0" IVar="-1" Cut="0.0000000000000000e+00" cType="1" res="-2.4324024561792612e-03" rms="4.4863495230674744e-01" purity="3.7361636757850647e-01" nType="-99"/>
      </Node>
    </BinaryTree>
    <BinaryTree type="DecisionTree" boostWeight="1.0000000000000000e+00" itree="322">
      <Node pos="s" depth="0" NCoef="0" IVar="0" Cut="1.4649655818939209e+00" cType="1" res="-6.2393001280725002e-03" rms="4.5806226134300232e-01" purity="4.9883618950843811e-01" nType="0">
        <Node pos="l" depth="1" NCoef="0" IVar="3" Cut="3.8408912658691406e+01" cType="1" res="5.5868811905384064e-03" rms="4.6565762162208557e-01" purity="5.4864621162414551e-01" nType="0">
          <Node pos="l" depth="2" NCoef="0" IVar="-1" Cut="0.0000000000000000e+00" cType="1" res="-1.5807240270078182e-03" rms="4.7105902433395386e-01" purity="4.2338395118713379e-01" nType="-99"/>
          <Node pos="r" depth="2" NCoef="0" IVar="-1" Cut="0.0000000000000000e+00" cType="1" res="4.2635467252694070e-04" rms="4.6443709731101990e-01" purity="5.6326383352279663e-01" nType="-99"/>
        </Node>
        <Node pos="r" depth="1" NCoef="0" IVar="0" Cut="1.6585084199905396e+00" cType="1" res="-5.8290977030992508e-02" rms="4.1906553506851196e-01" purity="2.7960291504859924e-01" nType="0">
          <Node pos="l" depth="2" NCoef="0" IVar="-1" Cut="0.0000000000000000e+00" cType="1" res="-1.0669013718143106e-03" rms="4.3660616874694824e-01" purity="3.2379177212715149e-01" nType="-99"/>
          <Node pos="r" depth="2" NCoef="0" IVar="-1" Cut="0.0000000000000000e+00" cType="1" res="-2.1126733627170324e-03" rms="3.9469787478446960e-01" purity="2.2414229810237885e-01" nType="-99"/>
        </Node>
      </Node>
    </BinaryTree>
    <BinaryTree type="DecisionTree" boostWeight="1.0000000000000000e+00" itree="323">
      <Node pos="s" depth="0" NCoef="0" IVar="4" Cut="8.7811355590820312e+01" cType="1" res="-4.5997272245585918e-03" rms="4.5716670155525208e-01" purity="5.0269156694412231e-01" nType="0">
        <Node pos="l" depth="1" NCoef="0" IVar="3" Cut="4.9345077514648438e+01" cType="1" res="-5.5296722799539566e-02" rms="4.6131381392478943e-01" purity="4.2092242836952209e-01" nType="0">
          <Node pos="l" depth="2" NCoef="0" IVar="-1" Cut="0.0000000000000000e+00" cType="1" res="-2.5452633854001760e-03" rms="4.4554129242897034e-01" purity="3.4419360756874084e-01" nType="-99"/>
          <Node pos="r" depth="2" NCoef="0" IVar="-1" Cut="0.0000000000000000e+00" cType="1" res="-7.8093423508107662e-04" rms="4.6973383426666260e-01" purity="4.7381731867790222e-01" nType="-99"/>
        </Node>
        <Node pos="r" depth="1" NCoef="0" IVar="4" Cut="1.5362130737304688e+02" cType="1" res="6.0398015193641186e-03" rms="4.5557591319084167e-01" purity="5.1985204219818115e-01" nType="0">
          <Node pos="l" depth="2" NCoef="0" IVar="-1" Cut="0.0000000000000000e+00" cType="1" res="1.6593482578173280e-03" rms="4.4795265793800354e-01" purity="6.0906541347503662e-01" nType="-99"/>
          <Node pos="r" depth="2" NCoef="0" IVar="-1" Cut="0.0000000000000000e+00" cType="1" res="-7.6398532837629318e-04" rms="4.5883598923683167e-01" purity="4.5080623030662537e-01" nType="-99"/>
        </Node>
      </Node>
    </BinaryTree>
    <BinaryTree type="DecisionTree" boostWeight="1.0000000000000000e+00" itree="324">
      <Node pos="s" depth="0" NCoef="0" IVar="1" Cut="1.7049974203109741e+00" cType="1" res="-1.3414351269602776e-02" rms="4.6026507019996643e-01" purity="4.9442183971405029e-01" nType="0">
        <Node pos="l" depth="1" NCoef="0" IVar="5" Cut="6.3598465919494629e-01" cType="1" res="-9.8929146770387888e-04" rms="4.6660581231117249e-01" purity="5.4543066024780273e-01" nType="0">
          <Node pos="l" depth="2" NCoef="0" IVar="-1" Cut="0.0000000000000000e+00" cType="1" res="1.2715206248685718e-03" rms="4.5363682508468628e-01" purity="6.6543060541152954e-01" nType="-99"/>
          <Node pos="r" depth="2" NCoef="0" IVar="-1" Cut="0.0000000000000000e+00" cType="1" res="-3.3755929325707257e-04" rms="4.6985474228858948e-01" purity="5.1029706001281738e-01" nType="-99"/>
        </Node>
        <Node pos="r" depth="1" NCoef="0" IVar="3" Cut="1.0191864776611328e+02" cType="1" res="-5.6024052202701569e-02" rms="4.3513751029968262e-01" purity="3.1949546933174133e-01" nType="0">
          <Node pos="l" depth="2" NCoef="0" IVar="-1" Cut="0.0000000000000000e+00" cType="1" res="-1.8569014500826597e-03" rms="4.2978018522262573e-01" purity="3.0422863364219666e-01" nType="-99"/>
          <Node pos="r" depth="2" NCoef="0" IVar="-1" Cut="0.0000000000000000e+00" cType="1" res="-5.7729327818378806e-04" rms="4.4547590613365173e-01" purity="3.5531908273696899e-01" nType="-99"/>
        </Node>
      </Node>
    </BinaryTree>
    <BinaryTree type="DecisionTree" boostWeight="1.0000000000000000e+00" itree="325">
      <Node pos="s" depth="0" NCoef="0" IVar="4" Cut="9.9836463928222656e+01" cType="1" res="-9.8324371501803398e-03" rms="4.5891708135604858e-01" purity="4.9746954441070557e-01" nType="0">
        <Node pos="l" depth="1" NCoef="0" IVar="1" Cut="7.3907029628753662e-01" cType="1" res="-4.8551812767982483e-02" rms="4.6224412322044373e-01" purity="4.4299021363258362e-01" nType="0">
          <Node pos="l" depth="2" NCoef="0" IVar="-1" Cut="0.0000000000000000e+00" cType="1" res="8.4533210610970855e-05" rms="4.7645249962806702e-01" purity="5.7270783185958862e-01" nType="-99"/>
          <Node pos="r" depth="2" NCoef="0" IVar="-1" Cut="0.0000000000000000e+00" cType="1" res="-2.0468025468289852e-03" rms="4.5223963260650635e-01" purity="3.7454822659492493e-01" nType="-99"/>
        </Node>
        <Node pos="r" depth="1" NCoef="0" IVar="4" Cut="1.3904600524902344e+02" cType="1" res="2.0182034932076931e-03" rms="4.5723909139633179e-01" purity="5.1414382457733154e-01" nType="0">
          <Node pos="l" depth="2" NCoef="0" IVar="-1" Cut="0.0000000000000000e+00" cType="1" res="1.4984445879235864e-03" rms="4.4728463888168335e-01" purity="6.1177879571914673e-01" nType="-99"/>
          <Node pos="r" depth="2" NCoef="0" IVar="-1" Cut="0.0000000000000000e+00" cType="1" res="-5.1302893552929163e-04" rms="4.6055167913436890e-01" purity="4.6870005130767822e-01" nType="-99"/>
        </Node>
      </Node>
    </BinaryTree>
    <BinaryTree type="DecisionTree" boostWeight="1.0000000000000000e+00" itree="326">
      <Node pos="s" depth="0" NCoef="0" IVar="7" Cut="8.4055882692337036e-01" cType="1" res="-1.1354720219969749e-02" rms="4.5831987261772156e-01" purity="4.9660894274711609e-01" nType="0">
        <Node pos="l" depth="1" NCoef="0" IVar="0" Cut="6.9688200950622559e-01" cType="1" res="-2.3064607754349709e-02" rms="4.5966473221778870e-01" purity="4.6217805147171021e-01" nType="0">
          <Node pos="l" depth="2" NCoef="0" IVar="-1" Cut="0.0000000000000000e+00" cType="1" res="2.0939528476446867e-03" rms="4.4898080825805664e-01" purity="6.8814927339553833e-01" nType="-99"/>
          <Node pos="r" depth="2" NCoef="0" IVar="-1" Cut="0.0000000000000000e+00" cType="1" res="-9.3100545927882195e-04" rms="4.6009117364883423e-01" purity="4.3412327766418457e-01" nType="-99"/>
        </Node>
        <Node pos="r" depth="1" NCoef="0" IVar="4" Cut="1.6651797485351562e+02" cType="1" res="3.7032969295978546e-02" rms="4.4949716329574585e-01" purity="6.3888466358184814e-01" nType="0">
          <Node pos="l" depth="2" NCoef="0" IVar="-1" Cut="0.0000000000000000e+00" cType="1" res="2.5372831150889397e-03" rms="4.4169795513153076e-01" purity="6.8689602613449097e-01" nType="-99"/>
          <Node pos="r" depth="2" NCoef="0" IVar="-1" Cut="0.0000000000000000e+00" cType="1" res="-7.6055956014897674e-05" rms="4.5853215456008911e-01" purity="5.6460660696029663e-01" nType="-99"/>
        </Node>
      </Node>
    </BinaryTree>
    <BinaryTree type="DecisionTree" boostWeight="1.0000000000000000e+00" itree="327">
      <Node pos="s" depth="0" NCoef="0" IVar="9" Cut="7.8472423553466797e-01" cType="1" res="-8.3366502076387405e-03" rms="4.5770290493965149e-01" purity="4.9820694327354431e-01" nType="0">
        <Node pos="l" depth="1" NCoef="0" IVar="-1" Cut="0.0000000000000000e+00" cType="1" res="-2.0945891737937927e-03" rms="4.2163565754890442e-01" purity="2.6451796293258667e-01" nType="-99"/>
        <Node pos="r" depth="1" NCoef="0" IVar="3" Cut="8.4860961914062500e+01" cType="1" res="-1.4802070800215006e-03" rms="4.6031767129898071e-01" purity="5.1996123790740967e-01" nType="0">
          <Node pos="l" depth="2" NCoef="0" IVar="-1" Cut="0.0000000000000000e+00" cType="1" res="-5.8914790861308575e-04" rms="4.6598833799362183e-01" purity="4.8618343472480774e-01" nType="-99"/>
          <Node pos="r" depth="2" NCoef="0" IVar="-1" Cut="0.0000000000000000e+00" cType="1" res="8.5057789692655206e-04" rms="4.5062687993049622e-01" purity="5.6907135248184204e-01" nType="-99"/>
        </Node>
      </Node>
    </BinaryTree>
    <BinaryTree type="DecisionTree" boostWeight="1.0000000000000000e+00" itree="328">
      <Node pos="s" depth="0" NCoef="0" IVar="5" Cut="8.9538902044296265e-01" cType="1" res="-9.0975249186158180e-03" rms="4.5740953087806702e-01" purity="4.9623879790306091e-01" nType="0">
        <Node pos="l" depth="1" NCoef="0" IVar="3" Cut="9.3155708312988281e+01" cType="1" res="1.8605077639222145e-02" rms="4.5966094732284546e-01" purity="6.4010453224182129e-01" nType="0">
          <Node pos="l" depth="2" NCoef="0" IVar="-1" Cut="0.0000000000000000e+00" cType="1" res="8.9877597929444164e-05" rms="4.7444441914558411e-01" purity="5.9978836774826050e-01" nType="-99"/>
          <Node pos="r" depth="2" NCoef="0" IVar="-1" Cut="0.0000000000000000e+00" cType="1" res="2.8862711042165756e-03" rms="4.1359081864356995e-01" purity="7.5005203485488892e-01" nType="-99"/>
        </Node>
        <Node pos="r" depth="1" NCoef="0" IVar="7" Cut="6.2023639678955078e-01" cType="1" res="-2.7711652219295502e-02" rms="4.5494395494461060e-01" purity="3.9957144856452942e-01" nType="0">
          <Node pos="l" depth="2" NCoef="0" IVar="-1" Cut="0.0000000000000000e+00" cType="1" res="-1.6136063495650887e-03" rms="4.3378373980522156e-01" purity="2.9773306846618652e-01" nType="-99"/>
          <Node pos="r" depth="2" NCoef="0" IVar="-1" Cut="0.0000000000000000e+00" cType="1" res="-4.2234605643898249e-05" rms="4.6899044513702393e-01" purity="4.7841471433639526e-01" nType="-99"/>
        </Node>
      </Node>
    </BinaryTree>
    <BinaryTree type="DecisionTree" boostWeight="1.0000000000000000e+00" itree="329">
      <Node pos="s" depth="0" NCoef="0" IVar="5" Cut="1.7431824207305908e+00" cType="1" res="-4.5405882410705090e-03" rms="4.5497655868530273e-01" purity="5.0041598081588745e-01" nType="0">
        <Node pos="l" depth="1" NCoef="0" IVar="4" Cut="8.6688072204589844e+01" cType="1" res="4.0099299512803555e-03" rms="4.6315923333168030e-01" purity="5.3460693359375000e-01" nType="0">
          <Node pos="l" depth="2" NCoef="0" IVar="-1" Cut="0.0000000000000000e+00" cType="1" res="-1.6148338327184319e-03" rms="4.6296307444572449e-01" purity="4.3351274728775024e-01" nType="-99"/>
          <Node pos="r" depth="2" NCoef="0" IVar="-1" Cut="0.0000000000000000e+00" cType="1" res="5.3851201664656401e-04" rms="4.6217784285545349e-01" purity="5.5527114868164062e-01" nType="-99"/>
        </Node>
        <Node pos="r" depth="1" NCoef="0" IVar="-1" Cut="0.0000000000000000e+00" cType="1" res="-2.4835797958076000e-03" rms="3.4782549738883972e-01" purity="1.4776149392127991e-01" nType="-99"/>
      </Node>
    </BinaryTree>
    <BinaryTree type="DecisionTree" boostWeight="1.0000000000000000e+00" itree="330">
      <Node pos="s" depth="0" NCoef="0" IVar="3" Cut="4.5715980529785156e+01" cType="1" res="-7.7140480279922485e-03" rms="4.5933496952056885e-01" purity="4.9837633967399597e-01" nType="0">
        <Node pos="l" depth="1" NCoef="0" IVar="5" Cut="8.3600097894668579e-01" cType="1" res="-6.5484315156936646e-02" rms="4.5464345812797546e-01" purity="3.9244771003723145e-01" nType="0">
          <Node pos="l" depth="2" NCoef="0" IVar="-1" Cut="0.0000000000000000e+00" cType="1" res="-5.9272960061207414e-04" rms="4.8407545685768127e-01" purity="5.3673881292343140e-01" nType="-99"/>
          <Node pos="r" depth="2" NCoef="0" IVar="-1" Cut="0.0000000000000000e+00" cType="1" res="-2.4931528605520725e-03" rms="4.2949679493904114e-01" purity="2.8956064581871033e-01" nType="-99"/>
        </Node>
        <Node pos="r" depth="1" NCoef="0" IVar="7" Cut="5.2564460039138794e-01" cType="1" res="5.5555338039994240e-03" rms="4.5938098430633545e-01" purity="5.2270764112472534e-01" nType="0">
          <Node pos="l" depth="2" NCoef="0" IVar="-1" Cut="0.0000000000000000e+00" cType="1" res="-1.5488594071939588e-03" rms="4.5768719911575317e-01" purity="3.6662301421165466e-01" nType="-99"/>
          <Node pos="r" depth="2" NCoef="0" IVar="-1" Cut="0.0000000000000000e+00" cType="1" res="4.8268624232150614e-04" rms="4.5889702439308167e-01" purity="5.4533392190933228e-01" nType="-99"/>
        </Node>
      </Node>
    </BinaryTree>
    <BinaryTree type="DecisionTree" boostWeight="1.0000000000000000e+00" itree="331">
      <Node pos="s" depth="0" NCoef="0" IVar="0" Cut="1.0680783987045288e+00" cType="1" res="-6.0470384778454900e-04" rms="4.5606753230094910e-01" purity="5.0673061609268188e-01" nType="0">
        <Node pos="l" depth="1" NCoef="0" IVar="8" Cut="6.1094903945922852e-01" cType="1" res="2.7026437222957611e-02" rms="4.5852649211883545e-01" purity="6.3762348890304565e-01" nType="0">
          <Node pos="l" depth="2" NCoef="0" IVar="-1" Cut="0.0000000000000000e+00" cType="1" res="2.5997037300840020e-04" rms="4.7272199392318726e-01" purity="5.8914709091186523e-01" nType="-99"/>
          <Node pos="r" depth="2" NCoef="0" IVar="-1" Cut="0.0000000000000000e+00" cType="1" res="3.6657443270087242e-03" rms="4.1463467478752136e-01" purity="7.6533210277557373e-01" nType="-99"/>
        </Node>
        <Node pos="r" depth="1" NCoef="0" IVar="3" Cut="5.6719760894775391e+01" cType="1" res="-2.4168476462364197e-02" rms="4.5262935757637024e-01" purity="3.9510557055473328e-01" nType="0">
          <Node pos="l" depth="2" NCoef="0" IVar="-1" Cut="0.0000000000000000e+00" cType="1" res="-1.8093605758622289e-03" rms="4.3719175457954407e-01" purity="3.1923249363899231e-01" nType="-99"/>
          <Node pos="r" depth="2" NCoef="0" IVar="-1" Cut="0.0000000000000000e+00" cType="1" res="-1.4759202895220369e-04" rms="4.5771566033363342e-01" purity="4.2739200592041016e-01" nType="-99"/>
        </Node>
      </Node>
    </BinaryTree>
    <BinaryTree type="DecisionTree" boostWeight="1.0000000000000000e+00" itree="332">
      <Node pos="s" depth="0" NCoef="0" IVar="4" Cut="2.6348767089843750e+02" cType="1" res="-6.7427270114421844e-03" rms="4.5683857798576355e-01" purity="4.9601489305496216e-01" nType="0">
        <Node pos="l" depth="1" NCoef="0" IVar="3" Cut="3.6563991546630859e+01" cType="1" res="5.2152960561215878e-03" rms="4.5846122503280640e-01" purity="5.2515959739685059e-01" nType="0">
          <Node pos="l" depth="2" NCoef="0" IVar="-1" Cut="0.0000000000000000e+00" cType="1" res="-2.0583120640367270e-03" rms="4.5332741737365723e-01" purity="3.6876475811004639e-01" nType="-99"/>
          <Node pos="r" depth="2" NCoef="0" IVar="-1" Cut="0.0000000000000000e+00" cType="1" res="4.4682543375529349e-04" rms="4.5812848210334778e-01" purity="5.4143154621124268e-01" nType="-99"/>
        </Node>
        <Node pos="r" depth="1" NCoef="0" IVar="8" Cut="5.8809030055999756e-01" cType="1" res="-5.2259571850299835e-02" rms="4.4769644737243652e-01" purity="3.8507911562919617e-01" nType="0">
          <Node pos="l" depth="2" NCoef="0" IVar="-1" Cut="0.0000000000000000e+00" cType="1" res="-1.8172323470935225e-03" rms="4.4304922223091125e-01" purity="3.3566415309906006e-01" nType="-99"/>
          <Node pos="r" depth="2" NCoef="0" IVar="-1" Cut="0.0000000000000000e+00" cType="1" res="-4.3908384395763278e-04" rms="4.5678716897964478e-01" purity="5.0783193111419678e-01" nType="-99"/>
        </Node>
      </Node>
    </BinaryTree>
    <BinaryTree type="DecisionTree" boostWeight="1.0000000000000000e+00" itree="333">
      <Node pos="s" depth="0" NCoef="0" IVar="2" Cut="8.3628088235855103e-01" cType="1" res="-8.3252899348735809e-03" rms="4.5742440223693848e-01" purity="4.9859198927879333e-01" nType="0">
        <Node pos="l" depth="1" NCoef="0" IVar="7" Cut="6.3434243202209473e-01" cType="1" res="-3.9784267544746399e-02" rms="4.5584866404533386e-01" purity="3.6861705780029297e-01" nType="0">
          <Node pos="l" depth="2" NCoef="0" IVar="-1" Cut="0.0000000000000000e+00" cType="1" res="-1.3237810926511884e-03" rms="4.5316708087921143e-01" purity="3.4978902339935303e-01" nType="-99"/>
          <Node pos="r" depth="2" NCoef="0" IVar="-1" Cut="0.0000000000000000e+00" cType="1" res="2.3233375395648181e-04" rms="4.6511280536651611e-01" purity="4.5601716637611389e-01" nType="-99"/>
        </Node>
        <Node pos="r" depth="1" NCoef="0" IVar="4" Cut="2.2561103820800781e+02" cType="1" res="1.2089233845472336e-02" rms="4.5728763937950134e-01" purity="5.8293598890304565e-01" nType="0">
          <Node pos="l" depth="2" NCoef="0" IVar="-1" Cut="0.0000000000000000e+00" cType="1" res="1.0187637526541948e-03" rms="4.5316413044929504e-01" purity="6.1571681499481201e-01" nType="-99"/>
          <Node pos="r" depth="2" NCoef="0" IVar="-1" Cut="0.0000000000000000e+00" cType="1" res="-1.1581806465983391e-03" rms="4.6596097946166992e-01" purity="4.8285743594169617e-01" nType="-99"/>
        </Node>
      </Node>
    </BinaryTree>
    <BinaryTree type="DecisionTree" boostWeight="1.0000000000000000e+00" itree="334">
      <Node pos="s" depth="0" NCoef="0" IVar="0" Cut="1.3527892827987671e+00" cType="1" res="-1.9164514960721135e-03" rms="4.5442453026771545e-01" purity="5.0301051139831543e-01" nType="0">
        <Node pos="l" depth="1" NCoef="0" IVar="4" Cut="1.6540319824218750e+02" cType="1" res="1.4029882848262787e-02" rms="4.6358710527420044e-01" purity="5.7646912336349487e-01" nType="0">
          <Node pos="l" depth="2" NCoef="0" IVar="-1" Cut="0.0000000000000000e+00" cType="1" res="1.1953233042731881e-03" rms="4.5804756879806519e-01" purity="6.1541670560836792e-01" nType="-99"/>
          <Node pos="r" depth="2" NCoef="0" IVar="-1" Cut="0.0000000000000000e+00" cType="1" res="-5.0829123938456178e-04" rms="4.7008037567138672e-01" purity="5.1822745800018311e-01" nType="-99"/>
        </Node>
        <Node pos="r" depth="1" NCoef="0" IVar="1" Cut="1.9368877410888672e+00" cType="1" res="-4.4133394956588745e-02" rms="4.2635384202003479e-01" purity="3.0853337049484253e-01" nType="0">
          <Node pos="l" depth="2" NCoef="0" IVar="-1" Cut="0.0000000000000000e+00" cType="1" res="-5.8826018357649446e-04" rms="4.4887226819992065e-01" purity="3.7005624175071716e-01" nType="-99"/>
          <Node pos="r" depth="2" NCoef="0" IVar="-1" Cut="0.0000000000000000e+00" cType="1" res="-2.2142953239381313e-03" rms="3.7991487979888916e-01" purity="1.9943815469741821e-01" nType="-99"/>
        </Node>
      </Node>
    </BinaryTree>
    <BinaryTree type="DecisionTree" boostWeight="1.0000000000000000e+00" itree="335">
      <Node pos="s" depth="0" NCoef="0" IVar="2" Cut="7.4575251340866089e-01" cType="1" res="-5.3889085538685322e-03" rms="4.5576190948486328e-01" purity="4.9961817264556885e-01" nType="0">
        <Node pos="l" depth="1" NCoef="0" IVar="-1" Cut="0.0000000000000000e+00" cType="1" res="-2.0406718831509352e-03" rms="4.2653721570968628e-01" purity="2.6355117559432983e-01" nType="-99"/>
        <Node pos="r" depth="1" NCoef="0" IVar="1" Cut="2.5321102142333984e+00" cType="1" res="2.9086165595799685e-03" rms="4.5813623070716858e-01" purity="5.2579790353775024e-01" nType="0">
          <Node pos="l" depth="2" NCoef="0" IVar="-1" Cut="0.0000000000000000e+00" cType="1" res="3.4329202026128769e-04" rms="4.6166321635246277e-01" purity="5.5002236366271973e-01" nType="-99"/>
          <Node pos="r" depth="2" NCoef="0" IVar="-1" Cut="0.0000000000000000e+00" cType="1" res="-2.2493051365017891e-03" rms="4.0412235260009766e-01" purity="2.4361057579517365e-01" nType="-99"/>
        </Node>
      </Node>
    </BinaryTree>
    <BinaryTree type="DecisionTree" boostWeight="1.0000000000000000e+00" itree="336">
      <Node pos="s" depth="0" NCoef="0" IVar="5" Cut="1.7027139663696289e+00" cType="1" res="-2.7254512533545494e-03" rms="4.5777931809425354e-01" purity="5.0328004360198975e-01" nType="0">
        <Node pos="l" depth="1" NCoef="0" IVar="4" Cut="8.2851654052734375e+01" cType="1" res="5.9022139757871628e-03" rms="4.6664744615554810e-01" purity="5.4078531265258789e-01" nType="0">
          <Node pos="l" depth="2" NCoef="0" IVar="-1" Cut="0.0000000000000000e+00" cType="1" res="-1.4494383940473199e-03" rms="4.7244396805763245e-01" purity="4.4337165355682373e-01" nType="-99"/>
          <Node pos="r" depth="2" NCoef="0" IVar="-1" Cut="0.0000000000000000e+00" cType="1" res="5.2414782112464309e-04" rms="4.6485739946365356e-01" purity="5.5814993381500244e-01" nType="-99"/>
        </Node>
        <Node pos="r" depth="1" NCoef="0" IVar="-1" Cut="0.0000000000000000e+00" cType="1" res="-2.2391716483980417e-03" rms="3.5560831427574158e-01" purity="1.5551660954952240e-01" nType="-99"/>
      </Node>
    </BinaryTree>
    <BinaryTree type="DecisionTree" boostWeight="1.0000000000000000e+00" itree="337">
      <Node pos="s" depth="0" NCoef="0" IVar="2" Cut="8.2244884967803955e-01" cType="1" res="-1.7903285333886743e-03" rms="4.5613807439804077e-01" purity="5.0563400983810425e-01" nType="0">
        <Node pos="l" depth="1" NCoef="0" IVar="1" Cut="8.2953786849975586e-01" cType="1" res="-3.5016287118196487e-02" rms="4.5178052783012390e-01" purity="3.5855111479759216e-01" nType="0">
          <Node pos="l" depth="2" NCoef="0" IVar="-1" Cut="0.0000000000000000e+00" cType="1" res="1.8512584574637003e-05" rms="4.7772899270057678e-01" purity="4.6221300959587097e-01" nType="-99"/>
          <Node pos="r" depth="2" NCoef="0" IVar="-1" Cut="0.0000000000000000e+00" cType="1" res="-1.5413442160934210e-03" rms="4.3228232860565186e-01" purity="2.9042318463325500e-01" nType="-99"/>
        </Node>
        <Node pos="r" depth="1" NCoef="0" IVar="3" Cut="4.2990394592285156e+01" cType="1" res="1.4718959107995033e-02" rms="4.5739114284515381e-01" purity="5.7871645689010620e-01" nType="0">
          <Node pos="l" depth="2" NCoef="0" IVar="-1" Cut="0.0000000000000000e+00" cType="1" res="-1.1121892603114247e-03" rms="4.6159130334854126e-01" purity="4.6343985199928284e-01" nType="-99"/>
          <Node pos="r" depth="2" NCoef="0" IVar="-1" Cut="0.0000000000000000e+00" cType="1" res="8.4550015162676573e-04" rms="4.5596164464950562e-01" purity="5.9924530982971191e-01" nType="-99"/>
        </Node>
      </Node>
    </BinaryTree>
    <BinaryTree type="DecisionTree" boostWeight="1.0000000000000000e+00" itree="338">
      <Node pos="s" depth="0" NCoef="0" IVar="1" Cut="1.0239232778549194e+00" cType="1" res="-9.2665264382958412e-03" rms="4.5753937959671021e-01" purity="4.9996572732925415e-01" nType="0">
        <Node pos="l" depth="1" NCoef="0" IVar="3" Cut="8.9195632934570312e+01" cType="1" res="1.4065477065742016e-02" rms="4.5890384912490845e-01" purity="5.8812212944030762e-01" nType="0">
          <Node pos="l" depth="2" NCoef="0" IVar="-1" Cut="0.0000000000000000e+00" cType="1" res="-1.5685248945374042e-04" rms="4.7008597850799561e-01" purity="5.5050200223922729e-01" nType="-99"/>
          <Node pos="r" depth="2" NCoef="0" IVar="-1" Cut="0.0000000000000000e+00" cType="1" res="1.8035972025245428e-03" rms="4.3696486949920654e-01" purity="6.5313994884490967e-01" nType="-99"/>
        </Node>
        <Node pos="r" depth="1" NCoef="0" IVar="9" Cut="9.7928446531295776e-01" cType="1" res="-3.4798633307218552e-02" rms="4.5467162132263184e-01" purity="4.0349653363227844e-01" nType="0">
          <Node pos="l" depth="2" NCoef="0" IVar="-1" Cut="0.0000000000000000e+00" cType="1" res="-1.5600930200889707e-03" rms="4.4512787461280823e-01" purity="3.4173700213432312e-01" nType="-99"/>
          <Node pos="r" depth="2" NCoef="0" IVar="-1" Cut="0.0000000000000000e+00" cType="1" res="6.5724025262170471e-06" rms="4.6675416827201843e-01" purity="4.9813699722290039e-01" nType="-99"/>
        </Node>
      </Node>
    </BinaryTree>
    <BinaryTree type="DecisionTree" boostWeight="1.0000000000000000e+00" itree="339">
      <Node pos="s" depth="0" NCoef="0" IVar="5" Cut="1.4558563232421875e+00" cType="1" res="-1.1090130545198917e-02" rms="4.5661920309066772e-01" purity="4.9466297030448914e-01" nType="0">
        <Node pos="l" depth="1" NCoef="0" IVar="9" Cut="7.9391485452651978e-01" cType="1" res="5.2179751219227910e-04" rms="4.6872895956039429e-01" purity="5.6065750122070312e-01" nType="0">
          <Node pos="l" depth="2" NCoef="0" IVar="-1" Cut="0.0000000000000000e+00" cType="1" res="-1.8693199381232262e-03" rms="4.5743313431739807e-01" purity="3.2409647107124329e-01" nType="-99"/>
          <Node pos="r" depth="2" NCoef="0" IVar="-1" Cut="0.0000000000000000e+00" cType="1" res="2.4854962248355150e-04" rms="4.6913298964500427e-01" purity="5.8249288797378540e-01" nType="-99"/>
        </Node>
        <Node pos="r" depth="1" NCoef="0" IVar="4" Cut="1.6042408752441406e+02" cType="1" res="-6.0090523213148117e-02" rms="3.9779981970787048e-01" purity="2.1617728471755981e-01" nType="0">
          <Node pos="l" depth="2" NCoef="0" IVar="-1" Cut="0.0000000000000000e+00" cType="1" res="-1.0614601196721196e-03" rms="4.0845572948455811e-01" purity="2.4434679746627808e-01" nType="-99"/>
          <Node pos="r" depth="2" NCoef="0" IVar="-1" Cut="0.0000000000000000e+00" cType="1" res="-1.9374776165932417e-03" rms="3.8948616385459900e-01" purity="1.9648326933383942e-01" nType="-99"/>
        </Node>
      </Node>
    </BinaryTree>
    <BinaryTree type="DecisionTree" boostWeight="1.0000000000000000e+00" itree="340">
      <Node pos="s" depth="0" NCoef="0" IVar="4" Cut="1.6713351440429688e+02" cType="1" res="-4.9569453112781048e-03" rms="4.5872443914413452e-01" purity="5.0387805700302124e-01" nType="0">
        <Node pos="l" depth="1" NCoef="0" IVar="4" Cut="9.9538383483886719e+01" cType="1" res="1.3111266307532787e-02" rms="4.5918035507202148e-01" purity="5.5111151933670044e-01" nType="0">
          <Node pos="l" depth="2" NCoef="0" IVar="-1" Cut="0.0000000000000000e+00" cType="1" res="-8.8014139328151941e-04" rms="4.6467071771621704e-01" purity="4.6670305728912354e-01" nType="-99"/>
          <Node pos="r" depth="2" NCoef="0" IVar="-1" Cut="0.0000000000000000e+00" cType="1" res="1.4399300562217832e-03" rms="4.5341777801513672e-01" purity="6.0574597120285034e-01" nType="-99"/>
        </Node>
        <Node pos="r" depth="1" NCoef="0" IVar="8" Cut="6.0386610031127930e-01" cType="1" res="-2.9144862666726112e-02" rms="4.5699650049209595e-01" purity="4.4064664840698242e-01" nType="0">
          <Node pos="l" depth="2" NCoef="0" IVar="-1" Cut="0.0000000000000000e+00" cType="1" res="-1.2028028722852468e-03" rms="4.5630148053169250e-01" purity="3.9654311537742615e-01" nType="-99"/>
          <Node pos="r" depth="2" NCoef="0" IVar="-1" Cut="0.0000000000000000e+00" cType="1" res="3.5964642302133143e-04" rms="4.5665922760963440e-01" purity="5.6761324405670166e-01" nType="-99"/>
        </Node>
      </Node>
    </BinaryTree>
    <BinaryTree type="DecisionTree" boostWeight="1.0000000000000000e+00" itree="341">
      <Node pos="s" depth="0" NCoef="0" IVar="4" Cut="1.8393399047851562e+02" cType="1" res="-5.9980330988764763e-03" rms="4.5667088031768799e-01" purity="5.0115334987640381e-01" nType="0">
        <Node pos="l" depth="1" NCoef="0" IVar="4" Cut="8.5184234619140625e+01" cType="1" res="1.2675794772803783e-02" rms="4.5888629555702209e-01" purity="5.4721969366073608e-01" nType="0">
          <Node pos="l" depth="2" NCoef="0" IVar="-1" Cut="0.0000000000000000e+00" cType="1" res="-1.3367483625188470e-03" rms="4.6141132712364197e-01" purity="4.2395114898681641e-01" nType="-99"/>
          <Node pos="r" depth="2" NCoef="0" IVar="-1" Cut="0.0000000000000000e+00" cType="1" res="1.1021964019164443e-03" rms="4.5635333657264709e-01" purity="5.8759486675262451e-01" nType="-99"/>
        </Node>
        <Node pos="r" depth="1" NCoef="0" IVar="5" Cut="7.8103184700012207e-01" cType="1" res="-3.6831978708505630e-02" rms="4.5130100846290588e-01" purity="4.2508935928344727e-01" nType="0">
          <Node pos="l" depth="2" NCoef="0" IVar="-1" Cut="0.0000000000000000e+00" cType="1" res="6.8476633168756962e-04" rms="4.6245536208152771e-01" purity="6.3588339090347290e-01" nType="-99"/>
          <Node pos="r" depth="2" NCoef="0" IVar="-1" Cut="0.0000000000000000e+00" cType="1" res="-1.4509883476421237e-03" rms="4.4648087024688721e-01" purity="3.6105698347091675e-01" nType="-99"/>
        </Node>
      </Node>
    </BinaryTree>
    <BinaryTree type="DecisionTree" boostWeight="1.0000000000000000e+00" itree="342">
      <Node pos="s" depth="0" NCoef="0" IVar="2" Cut="7.4447667598724365e-01" cType="1" res="-6.0141184367239475e-03" rms="4.5591700077056885e-01" purity="4.9909412860870361e-01" nType="0">
        <Node pos="l" depth="1" NCoef="0" IVar="-1" Cut="0.0000000000000000e+00" cType="1" res="-1.9901220221072435e-03" rms="4.2910090088844299e-01" purity="2.6854914426803589e-01" nType="-99"/>
        <Node pos="r" depth="1" NCoef="0" IVar="1" Cut="2.4911041259765625e+00" cType="1" res="1.7624583560973406e-03" rms="4.5800021290779114e-01" purity="5.2368426322937012e-01" nType="0">
          <Node pos="l" depth="2" NCoef="0" IVar="-1" Cut="0.0000000000000000e+00" cType="1" res="2.8657808434218168e-04" rms="4.6187835931777954e-01" purity="5.4870861768722534e-01" nType="-99"/>
          <Node pos="r" depth="2" NCoef="0" IVar="-1" Cut="0.0000000000000000e+00" cType="1" res="-2.0093470811843872e-03" rms="4.0525007247924805e-01" purity="2.5081986188888550e-01" nType="-99"/>
        </Node>
      </Node>
    </BinaryTree>
    <BinaryTree type="DecisionTree" boostWeight="1.0000000000000000e+00" itree="343">
      <Node pos="s" depth="0" NCoef="0" IVar="8" Cut="6.3704931735992432e-01" cType="1" res="-5.8629321865737438e-03" rms="4.5600587129592896e-01" purity="5.0206512212753296e-01" nType="0">
        <Node pos="l" depth="1" NCoef="0" IVar="7" Cut="5.2558183670043945e-01" cType="1" res="-1.5379985794425011e-02" rms="4.5796817541122437e-01" purity="4.7379118204116821e-01" nType="0">
          <Node pos="l" depth="2" NCoef="0" IVar="-1" Cut="0.0000000000000000e+00" cType="1" res="-1.7113183857873082e-03" rms="4.4684451818466187e-01" purity="3.3489274978637695e-01" nType="-99"/>
          <Node pos="r" depth="2" NCoef="0" IVar="-1" Cut="0.0000000000000000e+00" cType="1" res="-1.9576765771489590e-04" rms="4.5941555500030518e-01" purity="4.9934124946594238e-01" nType="-99"/>
        </Node>
        <Node pos="r" depth="1" NCoef="0" IVar="3" Cut="8.8894119262695312e+01" cType="1" res="4.6154201030731201e-02" rms="4.4151768088340759e-01" purity="6.5660119056701660e-01" nType="0">
          <Node pos="l" depth="2" NCoef="0" IVar="-1" Cut="0.0000000000000000e+00" cType="1" res="9.1605621855705976e-04" rms="4.5587012171745300e-01" purity="6.1348688602447510e-01" nType="-99"/>
          <Node pos="r" depth="2" NCoef="0" IVar="-1" Cut="0.0000000000000000e+00" cType="1" res="3.9375992491841316e-03" rms="4.1003999114036560e-01" purity="7.3868536949157715e-01" nType="-99"/>
        </Node>
      </Node>
    </BinaryTree>
    <BinaryTree type="DecisionTree" boostWeight="1.0000000000000000e+00" itree="344">
      <Node pos="s" depth="0" NCoef="0" IVar="3" Cut="1.4654489135742188e+02" cType="1" res="-1.0795813053846359e-02" rms="4.5597425103187561e-01" purity="4.9362677335739136e-01" nType="0">
        <Node pos="l" depth="1" NCoef="0" IVar="3" Cut="9.5737442016601562e+01" cType="1" res="-4.5433579944074154e-03" rms="4.5601737499237061e-01" purity="5.0400626659393311e-01" nType="0">
          <Node pos="l" depth="2" NCoef="0" IVar="-1" Cut="0.0000000000000000e+00" cType="1" res="-6.6422688541933894e-04" rms="4.5900911092758179e-01" purity="4.7008040547370911e-01" nType="-99"/>
          <Node pos="r" depth="2" NCoef="0" IVar="-1" Cut="0.0000000000000000e+00" cType="1" res="1.4670561067759991e-03" rms="4.4488283991813660e-01" purity="5.9192758798599243e-01" nType="-99"/>
        </Node>
        <Node pos="r" depth="1" NCoef="0" IVar="-1" Cut="0.0000000000000000e+00" cType="1" res="-2.3416797630488873e-03" rms="4.4867709279060364e-01" purity="3.6875745654106140e-01" nType="-99"/>
      </Node>
    </BinaryTree>
    <BinaryTree type="DecisionTree" boostWeight="1.0000000000000000e+00" itree="345">
      <Node pos="s" depth="0" NCoef="0" IVar="4" Cut="6.5790687561035156e+01" cType="1" res="-5.8877002447843552e-03" rms="4.5708310604095459e-01" purity="5.0204861164093018e-01" nType="0">
        <Node pos="l" depth="1" NCoef="0" IVar="-1" Cut="0.0000000000000000e+00" cType="1" res="-2.3211487568914890e-03" rms="4.4717881083488464e-01" purity="3.5694146156311035e-01" nType="-99"/>
        <Node pos="r" depth="1" NCoef="0" IVar="4" Cut="4.3761431884765625e+02" cType="1" res="1.7424228135496378e-03" rms="4.5728567242622375e-01" purity="5.1588517427444458e-01" nType="0">
          <Node pos="l" depth="2" NCoef="0" IVar="-1" Cut="0.0000000000000000e+00" cType="1" res="2.6373454602435231e-04" rms="4.5899459719657898e-01" purity="5.3228747844696045e-01" nType="-99"/>
          <Node pos="r" depth="2" NCoef="0" IVar="-1" Cut="0.0000000000000000e+00" cType="1" res="-2.1546869538724422e-03" rms="4.2675423622131348e-01" purity="3.0907881259918213e-01" nType="-99"/>
        </Node>
      </Node>
    </BinaryTree>
    <BinaryTree type="DecisionTree" boostWeight="1.0000000000000000e+00" itree="346">
      <Node pos="s" depth="0" NCoef="0" IVar="0" Cut="1.4895652532577515e+00" cType="1" res="1.5256926417350769e-03" rms="4.5379155874252319e-01" purity="5.0806558132171631e-01" nType="0">
        <Node pos="l" depth="1" NCoef="0" IVar="0" Cut="6.6252678632736206e-01" cType="1" res="1.3270981609821320e-02" rms="4.6109855175018311e-01" purity="5.5649518966674805e-01" nType="0">
          <Node pos="l" depth="2" NCoef="0" IVar="-1" Cut="0.0000000000000000e+00" cType="1" res="3.8481925148516893e-03" rms="4.1653048992156982e-01" purity="7.4137109518051147e-01" nType="-99"/>
          <Node pos="r" depth="2" NCoef="0" IVar="-1" Cut="0.0000000000000000e+00" cType="1" res="1.3563537504523993e-04" rms="4.6539014577865601e-01" purity="5.3417438268661499e-01" nType="-99"/>
        </Node>
        <Node pos="r" depth="1" NCoef="0" IVar="5" Cut="1.4505294561386108e+00" cType="1" res="-5.6783556938171387e-02" rms="4.1067492961883545e-01" purity="2.6763767004013062e-01" nType="0">
          <Node pos="l" depth="2" NCoef="0" IVar="-1" Cut="0.0000000000000000e+00" cType="1" res="-7.5828999979421496e-04" rms="4.6071612834930420e-01" purity="4.0611988306045532e-01" nType="-99"/>
          <Node pos="r" depth="2" NCoef="0" IVar="-1" Cut="0.0000000000000000e+00" cType="1" res="-2.0280543249100447e-03" rms="3.7246218323707581e-01" purity="1.7539681494235992e-01" nType="-99"/>
        </Node>
      </Node>
    </BinaryTree>
    <BinaryTree type="DecisionTree" boostWeight="1.0000000000000000e+00" itree="347">
      <Node pos="s" depth="0" NCoef="0" IVar="7" Cut="5.6759953498840332e-01" cType="1" res="-1.3318168930709362e-03" rms="4.5686611533164978e-01" purity="5.0514286756515503e-01" nType="0">
        <Node pos="l" depth="1" NCoef="0" IVar="0" Cut="1.0857964754104614e+00" cType="1" res="-3.7369087338447571e-02" rms="4.5741546154022217e-01" purity="3.8325834274291992e-01" nType="0">
          <Node pos="l" depth="2" NCoef="0" IVar="-1" Cut="0.0000000000000000e+00" cType="1" res="-3.3043397706933320e-04" rms="4.8432582616806030e-01" purity="5.0140422582626343e-01" nType="-99"/>
          <Node pos="r" depth="2" NCoef="0" IVar="-1" Cut="0.0000000000000000e+00" cType="1" res="-1.5478561399504542e-03" rms="4.3239110708236694e-01" purity="2.8423327207565308e-01" nType="-99"/>
        </Node>
        <Node pos="r" depth="1" NCoef="0" IVar="3" Cut="4.8826377868652344e+01" cType="1" res="1.2299035675823689e-02" rms="4.5591625571250916e-01" purity="5.5124485492706299e-01" nType="0">
          <Node pos="l" depth="2" NCoef="0" IVar="-1" Cut="0.0000000000000000e+00" cType="1" res="-9.5148774562403560e-04" rms="4.6753060817718506e-01" purity="4.6514672040939331e-01" nType="-99"/>
          <Node pos="r" depth="2" NCoef="0" IVar="-1" Cut="0.0000000000000000e+00" cType="1" res="8.5096881957724690e-04" rms="4.5181083679199219e-01" purity="5.7531774044036865e-01" nType="-99"/>
        </Node>
      </Node>
    </BinaryTree>
    <BinaryTree type="DecisionTree" boostWeight="1.0000000000000000e+00" itree="348">
      <Node pos="s" depth="0" NCoef="0" IVar="2" Cut="9.0143507719039917e-01" cType="1" res="-8.4664365276694298e-03" rms="4.5611158013343811e-01" purity="4.9903962016105652e-01" nType="0">
        <Node pos="l" depth="1" NCoef="0" IVar="1" Cut="3.0265644192695618e-01" cType="1" res="-2.3018173873424530e-02" rms="4.5987859368324280e-01" purity="4.4481888413429260e-01" nType="0">
          <Node pos="l" depth="2" NCoef="0" IVar="-1" Cut="0.0000000000000000e+00" cType="1" res="1.5619575278833508e-03" rms="4.7570127248764038e-01" purity="6.1382693052291870e-01" nType="-99"/>
          <Node pos="r" depth="2" NCoef="0" IVar="-1" Cut="0.0000000000000000e+00" cType="1" res="-8.6386490147560835e-04" rms="4.5755594968795776e-01" purity="4.2664626240730286e-01" nType="-99"/>
        </Node>
        <Node pos="r" depth="1" NCoef="0" IVar="4" Cut="1.9524684143066406e+02" cType="1" res="2.4264704436063766e-02" rms="4.4579011201858521e-01" purity="6.2099790573120117e-01" nType="0">
          <Node pos="l" depth="2" NCoef="0" IVar="-1" Cut="0.0000000000000000e+00" cType="1" res="1.7133912770077586e-03" rms="4.3815428018569946e-01" purity="6.5962117910385132e-01" nType="-99"/>
          <Node pos="r" depth="2" NCoef="0" IVar="-1" Cut="0.0000000000000000e+00" cType="1" res="-7.7539292396977544e-04" rms="4.5989972352981567e-01" purity="5.2871906757354736e-01" nType="-99"/>
        </Node>
      </Node>
    </BinaryTree>
    <BinaryTree type="DecisionTree" boostWeight="1.0000000000000000e+00" itree="349">
      <Node pos="s" depth="0" NCoef="0" IVar="3" Cut="4.5715980529785156e+01" cType="1" res="-8.1710442900657654e-03" rms="4.5573237538337708e-01" purity="4.9816030263900757e-01" nType="0">
        <Node pos="l" depth="1" NCoef="0" IVar="0" Cut="9.8974472284317017e-01" cType="1" res="-5.5962964892387390e-02" rms="4.5322990417480469e-01" purity="3.9967155456542969e-01" nType="0">
          <Node pos="l" depth="2" NCoef="0" IVar="-1" Cut="0.0000000000000000e+00" cType="1" res="-7.1215064963325858e-05" rms="4.8311981558799744e-01" purity="5.5731785297393799e-01" nType="-99"/>
          <Node pos="r" depth="2" NCoef="0" IVar="-1" Cut="0.0000000000000000e+00" cType="1" res="-2.3243103642016649e-03" rms="4.2884734272956848e-01" purity="2.9617890715599060e-01" nType="-99"/>
        </Node>
        <Node pos="r" depth="1" NCoef="0" IVar="4" Cut="1.4720013427734375e+02" cType="1" res="2.1228897385299206e-03" rms="4.5561385154724121e-01" purity="5.1937383413314819e-01" nType="0">
          <Node pos="l" depth="2" NCoef="0" IVar="-1" Cut="0.0000000000000000e+00" cType="1" res="9.9883414804935455e-04" rms="4.5084550976753235e-01" purity="5.8517444133758545e-01" nType="-99"/>
          <Node pos="r" depth="2" NCoef="0" IVar="-1" Cut="0.0000000000000000e+00" cType="1" res="-6.6304655047133565e-04" rms="4.5847997069358826e-01" purity="4.6058401465415955e-01" nType="-99"/>
        </Node>
      </Node>
    </BinaryTree>
    <BinaryTree type="DecisionTree" boostWeight="1.0000000000000000e+00" itree="350">
      <Node pos="s" depth="0" NCoef="0" IVar="1" Cut="1.3316428661346436e+00" cType="1" res="-7.4661457911133766e-03" rms="4.5692282915115356e-01" purity="4.9889996647834778e-01" nType="0">
        <Node pos="l" depth="1" NCoef="0" IVar="3" Cut="6.5537063598632812e+01" cType="1" res="7.3297182098031044e-03" rms="4.6181043982505798e-01" purity="5.6491482257843018e-01" nType="0">
          <Node pos="l" depth="2" NCoef="0" IVar="-1" Cut="0.0000000000000000e+00" cType="1" res="-6.5295898821204901e-04" rms="4.7608101367950439e-01" purity="5.0892847776412964e-01" nType="-99"/>
          <Node pos="r" depth="2" NCoef="0" IVar="-1" Cut="0.0000000000000000e+00" cType="1" res="9.8910066299140453e-04" rms="4.5032423734664917e-01" purity="6.0444444417953491e-01" nType="-99"/>
        </Node>
        <Node pos="r" depth="1" NCoef="0" IVar="7" Cut="8.5076260566711426e-01" cType="1" res="-3.6362592130899429e-02" rms="4.4580951333045959e-01" purity="3.6997225880622864e-01" nType="0">
          <Node pos="l" depth="2" NCoef="0" IVar="-1" Cut="0.0000000000000000e+00" cType="1" res="-1.3596176868304610e-03" rms="4.4109824299812317e-01" purity="3.3610397577285767e-01" nType="-99"/>
          <Node pos="r" depth="2" NCoef="0" IVar="-1" Cut="0.0000000000000000e+00" cType="1" res="1.0634530335664749e-03" rms="4.6319609880447388e-01" purity="5.4562252759933472e-01" nType="-99"/>
        </Node>
      </Node>
    </BinaryTree>
    <BinaryTree type="DecisionTree" boostWeight="1.0000000000000000e+00" itree="351">
      <Node pos="s" depth="0" NCoef="0" IVar="4" Cut="6.1475322723388672e+01" cType="1" res="-8.6121605709195137e-03" rms="4.5665726065635681e-01" purity="4.9702674150466919e-01" nType="0">
        <Node pos="l" depth="1" NCoef="0" IVar="-1" Cut="0.0000000000000000e+00" cType="1" res="-2.4210624396800995e-03" rms="4.3677720427513123e-01" purity="3.3747249841690063e-01" nType="-99"/>
        <Node pos="r" depth="1" NCoef="0" IVar="4" Cut="1.4660578918457031e+02" cType="1" res="-1.5648285625502467e-03" rms="4.5759737491607666e-01" purity="5.1048368215560913e-01" nType="0">
          <Node pos="l" depth="2" NCoef="0" IVar="-1" Cut="0.0000000000000000e+00" cType="1" res="7.0456782123073936e-04" rms="4.5670539140701294e-01" purity="5.7481878995895386e-01" nType="-99"/>
          <Node pos="r" depth="2" NCoef="0" IVar="-1" Cut="0.0000000000000000e+00" cType="1" res="-6.2483799410983920e-04" rms="4.5746418833732605e-01" purity="4.5547413825988770e-01" nType="-99"/>
        </Node>
      </Node>
    </BinaryTree>
    <BinaryTree type="DecisionTree" boostWeight="1.0000000000000000e+00" itree="352">
      <Node pos="s" depth="0" NCoef="0" IVar="7" Cut="5.2553445100784302e-01" cType="1" res="-5.0934045575559139e-03" rms="4.5681095123291016e-01" purity="4.9951243400573730e-01" nType="0">
        <Node pos="l" depth="1" NCoef="0" IVar="0" Cut="1.0631765127182007e+00" cType="1" res="-6.5610401332378387e-02" rms="4.4454497098922729e-01" purity="3.4350812435150146e-01" nType="0">
          <Node pos="l" depth="2" NCoef="0" IVar="-1" Cut="0.0000000000000000e+00" cType="1" res="-7.6307886047288775e-04" rms="4.8320230841636658e-01" purity="4.8578292131423950e-01" nType="-99"/>
          <Node pos="r" depth="2" NCoef="0" IVar="-1" Cut="0.0000000000000000e+00" cType="1" res="-2.3499226663261652e-03" rms="4.1399335861206055e-01" purity="2.4621917307376862e-01" nType="-99"/>
        </Node>
        <Node pos="r" depth="1" NCoef="0" IVar="3" Cut="1.4634167480468750e+02" cType="1" res="3.7175163161009550e-03" rms="4.5790293812751770e-01" purity="5.2222573757171631e-01" nType="0">
          <Node pos="l" depth="2" NCoef="0" IVar="-1" Cut="0.0000000000000000e+00" cType="1" res="3.4815835533663630e-04" rms="4.5705261826515198e-01" purity="5.3284275531768799e-01" nType="-99"/>
          <Node pos="r" depth="2" NCoef="0" IVar="-1" Cut="0.0000000000000000e+00" cType="1" res="-2.3090632166713476e-03" rms="4.5931780338287354e-01" purity="3.9244106411933899e-01" nType="-99"/>
        </Node>
      </Node>
    </BinaryTree>
    <BinaryTree type="DecisionTree" boostWeight="1.0000000000000000e+00" itree="353">
      <Node pos="s" depth="0" NCoef="0" IVar="5" Cut="8.3745783567428589e-01" cType="1" res="-8.7991738691926003e-03" rms="4.5602279901504517e-01" purity="4.9691703915596008e-01" nType="0">
        <Node pos="l" depth="1" NCoef="0" IVar="7" Cut="8.5046577453613281e-01" cType="1" res="2.0931577309966087e-02" rms="4.5647564530372620e-01" purity="6.4551138877868652e-01" nType="0">
          <Node pos="l" depth="2" NCoef="0" IVar="-1" Cut="0.0000000000000000e+00" cType="1" res="2.6460411027073860e-04" rms="4.6743723750114441e-01" purity="6.1161190271377563e-01" nType="-99"/>
          <Node pos="r" depth="2" NCoef="0" IVar="-1" Cut="0.0000000000000000e+00" cType="1" res="4.1179540567100048e-03" rms="4.0045511722564697e-01" purity="7.9270255565643311e-01" nType="-99"/>
        </Node>
        <Node pos="r" depth="1" NCoef="0" IVar="3" Cut="6.0787792205810547e+01" cType="1" res="-2.5231007486581802e-02" rms="4.5493939518928528e-01" purity="4.1479077935218811e-01" nType="0">
          <Node pos="l" depth="2" NCoef="0" IVar="-1" Cut="0.0000000000000000e+00" cType="1" res="-1.4689109520986676e-03" rms="4.4508635997772217e-01" purity="3.4745630621910095e-01" nType="-99"/>
          <Node pos="r" depth="2" NCoef="0" IVar="-1" Cut="0.0000000000000000e+00" cType="1" res="-3.2259835279546678e-04" rms="4.5883849263191223e-01" purity="4.4664132595062256e-01" nType="-99"/>
        </Node>
      </Node>
    </BinaryTree>
    <BinaryTree type="DecisionTree" boostWeight="1.0000000000000000e+00" itree="354">
      <Node pos="s" depth="0" NCoef="0" IVar="0" Cut="1.6379293203353882e+00" cType="1" res="-6.5389475785195827e-03" rms="4.5561510324478149e-01" purity="4.9709087610244751e-01" nType="0">
        <Node pos="l" depth="1" NCoef="0" IVar="7" Cut="8.4108382463455200e-01" cType="1" res="1.1834080796688795e-03" rms="4.6150353550910950e-01" purity="5.2707511186599731e-01" nType="0">
          <Node pos="l" depth="2" NCoef="0" IVar="-1" Cut="0.0000000000000000e+00" cType="1" res="-3.1533802393823862e-04" rms="4.6654969453811646e-01" purity="4.9315783381462097e-01" nType="-99"/>
          <Node pos="r" depth="2" NCoef="0" IVar="-1" Cut="0.0000000000000000e+00" cType="1" res="1.8387305317446589e-03" rms="4.3757930397987366e-01" purity="6.6321039199829102e-01" nType="-99"/>
        </Node>
        <Node pos="r" depth="1" NCoef="0" IVar="-1" Cut="0.0000000000000000e+00" cType="1" res="-2.0728658419102430e-03" rms="3.8984772562980652e-01" purity="2.1975459158420563e-01" nType="-99"/>
      </Node>
    </BinaryTree>
    <BinaryTree type="DecisionTree" boostWeight="1.0000000000000000e+00" itree="355">
      <Node pos="s" depth="0" NCoef="0" IVar="1" Cut="2.1933040618896484e+00" cType="1" res="-4.3933740817010403e-03" rms="4.5740514993667603e-01" purity="5.0084990262985229e-01" nType="0">
        <Node pos="l" depth="1" NCoef="0" IVar="4" Cut="1.4869987487792969e+02" cType="1" res="3.9365105330944061e-03" rms="4.6355280280113220e-01" purity="5.3467994928359985e-01" nType="0">
          <Node pos="l" depth="2" NCoef="0" IVar="-1" Cut="0.0000000000000000e+00" cType="1" res="8.6050253594294190e-04" rms="4.5954075455665588e-01" purity="5.8475708961486816e-01" nType="-99"/>
          <Node pos="r" depth="2" NCoef="0" IVar="-1" Cut="0.0000000000000000e+00" cType="1" res="-6.0043734265491366e-04" rms="4.6677303314208984e-01" purity="4.7941586375236511e-01" nType="-99"/>
        </Node>
        <Node pos="r" depth="1" NCoef="0" IVar="-1" Cut="0.0000000000000000e+00" cType="1" res="-1.6993308672681451e-03" rms="4.0684902667999268e-01" purity="2.6315385103225708e-01" nType="-99"/>
      </Node>
    </BinaryTree>
    <BinaryTree type="DecisionTree" boostWeight="1.0000000000000000e+00" itree="356">
      <Node pos="s" depth="0" NCoef="0" IVar="3" Cut="4.5548973083496094e+01" cType="1" res="-6.5448125824332237e-03" rms="4.5462343096733093e-01" purity="4.9822944402694702e-01" nType="0">
        <Node pos="l" depth="1" NCoef="0" IVar="3" Cut="3.6368885040283203e+01" cType="1" res="-5.5521789938211441e-02" rms="4.5449155569076538e-01" purity="4.0133905410766602e-01" nType="0">
          <Node pos="l" depth="2" NCoef="0" IVar="-1" Cut="0.0000000000000000e+00" cType="1" res="-2.5369464419782162e-03" rms="4.4548243284225464e-01" purity="3.4361141920089722e-01" nType="-99"/>
          <Node pos="r" depth="2" NCoef="0" IVar="-1" Cut="0.0000000000000000e+00" cType="1" res="-5.9774704277515411e-04" rms="4.5883801579475403e-01" purity="4.4884416460990906e-01" nType="-99"/>
        </Node>
        <Node pos="r" depth="1" NCoef="0" IVar="5" Cut="1.0493999719619751e+00" cType="1" res="4.4600330293178558e-03" rms="4.5392656326293945e-01" purity="5.2000015974044800e-01" nType="0">
          <Node pos="l" depth="2" NCoef="0" IVar="-1" Cut="0.0000000000000000e+00" cType="1" res="9.7296870080754161e-04" rms="4.5513972640037537e-01" purity="6.5947002172470093e-01" nType="-99"/>
          <Node pos="r" depth="2" NCoef="0" IVar="-1" Cut="0.0000000000000000e+00" cType="1" res="-4.9652892630547285e-04" rms="4.5154017210006714e-01" purity="3.7193992733955383e-01" nType="-99"/>
        </Node>
      </Node>
    </BinaryTree>
    <BinaryTree type="DecisionTree" boostWeight="1.0000000000000000e+00" itree="357">
      <Node pos="s" depth="0" NCoef="0" IVar="4" Cut="6.5481933593750000e+01" cType="1" res="-1.5452589141204953e-03" rms="4.5795288681983948e-01" purity="5.0440931320190430e-01" nType="0">
        <Node pos="l" depth="1" NCoef="0" IVar="-1" Cut="0.0000000000000000e+00" cType="1" res="-2.1746144630014896e-03" rms="4.5145446062088013e-01" purity="3.6332920193672180e-01" nType="-99"/>
        <Node pos="r" depth="1" NCoef="0" IVar="8" Cut="5.2177733182907104e-01" cType="1" res="6.0199005529284477e-03" rms="4.5784240961074829e-01" purity="5.1777803897857666e-01" nType="0">
          <Node pos="l" depth="2" NCoef="0" IVar="-1" Cut="0.0000000000000000e+00" cType="1" res="-7.0134241832420230e-04" rms="4.6041479706764221e-01" purity="4.2348957061767578e-01" nType="-99"/>
          <Node pos="r" depth="2" NCoef="0" IVar="-1" Cut="0.0000000000000000e+00" cType="1" res="8.1707845674827695e-04" rms="4.5533761382102966e-01" purity="5.7381701469421387e-01" nType="-99"/>
        </Node>
      </Node>
    </BinaryTree>
    <BinaryTree type="DecisionTree" boostWeight="1.0000000000000000e+00" itree="358">
      <Node pos="s" depth="0" NCoef="0" IVar="1" Cut="1.0658886432647705e+00" cType="1" res="-1.0147172957658768e-02" rms="4.5673480629920959e-01" purity="4.9538171291351318e-01" nType="0">
        <Node pos="l" depth="1" NCoef="0" IVar="3" Cut="8.3123626708984375e+01" cType="1" res="1.0796096175909042e-02" rms="4.5904126763343811e-01" purity="5.8154803514480591e-01" nType="0">
          <Node pos="l" depth="2" NCoef="0" IVar="-1" Cut="0.0000000000000000e+00" cType="1" res="-3.5786160151474178e-04" rms="4.7298172116279602e-01" purity="5.3785330057144165e-01" nType="-99"/>
          <Node pos="r" depth="2" NCoef="0" IVar="-1" Cut="0.0000000000000000e+00" cType="1" res="1.6101208748295903e-03" rms="4.3630036711692810e-01" purity="6.4421606063842773e-01" nType="-99"/>
        </Node>
        <Node pos="r" depth="1" NCoef="0" IVar="4" Cut="8.9135925292968750e+01" cType="1" res="-3.4044619649648666e-02" rms="4.5290723443031311e-01" purity="3.9706104993820190e-01" nType="0">
          <Node pos="l" depth="2" NCoef="0" IVar="-1" Cut="0.0000000000000000e+00" cType="1" res="-2.2496131714433432e-03" rms="4.2614829540252686e-01" purity="2.9865476489067078e-01" nType="-99"/>
          <Node pos="r" depth="2" NCoef="0" IVar="-1" Cut="0.0000000000000000e+00" cType="1" res="-6.4665498211979866e-04" rms="4.5782491564750671e-01" purity="4.1888758540153503e-01" nType="-99"/>
        </Node>
      </Node>
    </BinaryTree>
    <BinaryTree type="DecisionTree" boostWeight="1.0000000000000000e+00" itree="359">
      <Node pos="s" depth="0" NCoef="0" IVar="4" Cut="6.5481933593750000e+01" cType="1" res="-9.2617413029074669e-03" rms="4.5708158612251282e-01" purity="4.9712955951690674e-01" nType="0">
        <Node pos="l" depth="1" NCoef="0" IVar="-1" Cut="0.0000000000000000e+00" cType="1" res="-2.1948290523141623e-03" rms="4.4039884209632874e-01" purity="3.4939825534820557e-01" nType="-99"/>
        <Node pos="r" depth="1" NCoef="0" IVar="2" Cut="8.0461102724075317e-01" cType="1" res="-2.5218899827450514e-03" rms="4.5800590515136719e-01" purity="5.1077568531036377e-01" nType="0">
          <Node pos="l" depth="2" NCoef="0" IVar="-1" Cut="0.0000000000000000e+00" cType="1" res="-1.2464354513213038e-03" rms="4.4958728551864624e-01" purity="3.4248352050781250e-01" nType="-99"/>
          <Node pos="r" depth="2" NCoef="0" IVar="-1" Cut="0.0000000000000000e+00" cType="1" res="4.4952964526601136e-04" rms="4.5995709300041199e-01" purity="5.7139974832534790e-01" nType="-99"/>
        </Node>
      </Node>
    </BinaryTree>
    <BinaryTree type="DecisionTree" boostWeight="1.0000000000000000e+00" itree="360">
      <Node pos="s" depth="0" NCoef="0" IVar="3" Cut="1.4077740478515625e+02" cType="1" res="-7.8955553472042084e-03" rms="4.5629119873046875e-01" purity="4.9576926231384277e-01" nType="0">
        <Node pos="l" depth="1" NCoef="0" IVar="3" Cut="8.3849960327148438e+01" cType="1" res="-9.6279708668589592e-04" rms="4.5690801739692688e-01" purity="5.0716745853424072e-01" nType="0">
          <Node pos="l" depth="2" NCoef="0" IVar="-1" Cut="0.0000000000000000e+00" cType="1" res="-6.7933899117633700e-04" rms="4.6007594466209412e-01" purity="4.6366846561431885e-01" nType="-99"/>
          <Node pos="r" depth="2" NCoef="0" IVar="-1" Cut="0.0000000000000000e+00" cType="1" res="1.3588896254077554e-03" rms="4.4837230443954468e-01" purity="5.8568710088729858e-01" nType="-99"/>
        </Node>
        <Node pos="r" depth="1" NCoef="0" IVar="-1" Cut="0.0000000000000000e+00" cType="1" res="-2.2051425185054541e-03" rms="4.4372269511222839e-01" purity="3.7896728515625000e-01" nType="-99"/>
      </Node>
    </BinaryTree>
    <BinaryTree type="DecisionTree" boostWeight="1.0000000000000000e+00" itree="361">
      <Node pos="s" depth="0" NCoef="0" IVar="8" Cut="6.4237147569656372e-01" cType="1" res="-5.7963752187788486e-03" rms="4.5849141478538513e-01" purity="5.0175017118453979e-01" nType="0">
        <Node pos="l" depth="1" NCoef="0" IVar="3" Cut="1.4518669128417969e+02" cType="1" res="-1.4496740885078907e-02" rms="4.6149873733520508e-01" purity="4.7639101743698120e-01" nType="0">
          <Node pos="l" depth="2" NCoef="0" IVar="-1" Cut="0.0000000000000000e+00" cType="1" res="-2.9201654251664877e-04" rms="4.6174207329750061e-01" purity="4.8572438955307007e-01" nType="-99"/>
          <Node pos="r" depth="2" NCoef="0" IVar="-1" Cut="0.0000000000000000e+00" cType="1" res="-2.0300452597439289e-03" rms="4.5467323064804077e-01" purity="3.6615613102912903e-01" nType="-99"/>
        </Node>
        <Node pos="r" depth="1" NCoef="0" IVar="3" Cut="7.8239715576171875e+01" cType="1" res="4.5854613184928894e-02" rms="4.3666040897369385e-01" purity="6.5229862928390503e-01" nType="0">
          <Node pos="l" depth="2" NCoef="0" IVar="-1" Cut="0.0000000000000000e+00" cType="1" res="4.3630230356939137e-04" rms="4.5609363913536072e-01" purity="5.9016913175582886e-01" nType="-99"/>
          <Node pos="r" depth="2" NCoef="0" IVar="-1" Cut="0.0000000000000000e+00" cType="1" res="4.1717649437487125e-03" rms="4.0374204516410828e-01" purity="7.3825991153717041e-01" nType="-99"/>
        </Node>
      </Node>
    </BinaryTree>
    <BinaryTree type="DecisionTree" boostWeight="1.0000000000000000e+00" itree="362">
      <Node pos="s" depth="0" NCoef="0" IVar="4" Cut="2.7472561645507812e+02" cType="1" res="-5.6995535269379616e-03" rms="4.5699939131736755e-01" purity="5.0103968381881714e-01" nType="0">
        <Node pos="l" depth="1" NCoef="0" IVar="4" Cut="9.2879333496093750e+01" cType="1" res="6.8541453219950199e-03" rms="4.5800840854644775e-01" purity="5.3025406599044800e-01" nType="0">
          <Node pos="l" depth="2" NCoef="0" IVar="-1" Cut="0.0000000000000000e+00" cType="1" res="-1.1176542611792684e-03" rms="4.5527952909469604e-01" purity="4.3453428149223328e-01" nType="-99"/>
          <Node pos="r" depth="2" NCoef="0" IVar="-1" Cut="0.0000000000000000e+00" cType="1" res="7.1665190625935793e-04" rms="4.5792123675346375e-01" purity="5.6137895584106445e-01" nType="-99"/>
        </Node>
        <Node pos="r" depth="1" NCoef="0" IVar="6" Cut="1.8011519685387611e-02" cType="1" res="-5.9035733342170715e-02" rms="4.4878903031349182e-01" purity="3.7691813707351685e-01" nType="0">
          <Node pos="l" depth="2" NCoef="0" IVar="-1" Cut="0.0000000000000000e+00" cType="1" res="-2.4790447205305099e-03" rms="4.5376378297805786e-01" purity="3.9707133173942566e-01" nType="-99"/>
          <Node pos="r" depth="2" NCoef="0" IVar="-1" Cut="0.0000000000000000e+00" cType="1" res="-8.2540052244439721e-04" rms="4.4190764427185059e-01" purity="3.5762473940849304e-01" nType="-99"/>
        </Node>
      </Node>
    </BinaryTree>
    <BinaryTree type="DecisionTree" boostWeight="1.0000000000000000e+00" itree="363">
      <Node pos="s" depth="0" NCoef="0" IVar="5" Cut="1.0344561338424683e+00" cType="1" res="-7.5355446897447109e-03" rms="4.5456343889236450e-01" purity="4.9626782536506653e-01" nType="0">
        <Node pos="l" depth="1" NCoef="0" IVar="4" Cut="7.6520652770996094e+01" cType="1" res="1.2521630153059959e-02" rms="4.6319681406021118e-01" purity="6.3032549619674683e-01" nType="0">
          <Node pos="l" depth="2" NCoef="0" IVar="-1" Cut="0.0000000000000000e+00" cType="1" res="-1.3491843128576875e-03" rms="4.9067866802215576e-01" purity="5.0536590814590454e-01" nType="-99"/>
          <Node pos="r" depth="2" NCoef="0" IVar="-1" Cut="0.0000000000000000e+00" cType="1" res="8.0531206913292408e-04" rms="4.5804208517074585e-01" purity="6.4997225999832153e-01" nType="-99"/>
        </Node>
        <Node pos="r" depth="1" NCoef="0" IVar="7" Cut="6.8333369493484497e-01" cType="1" res="-2.9217392206192017e-02" rms="4.4402453303337097e-01" purity="3.5135120153427124e-01" nType="0">
          <Node pos="l" depth="2" NCoef="0" IVar="-1" Cut="0.0000000000000000e+00" cType="1" res="-1.3852784177288413e-03" rms="4.2692404985427856e-01" purity="2.8156852722167969e-01" nType="-99"/>
          <Node pos="r" depth="2" NCoef="0" IVar="-1" Cut="0.0000000000000000e+00" cType="1" res="1.2252037413418293e-04" rms="4.6565961837768555e-01" purity="4.5246878266334534e-01" nType="-99"/>
        </Node>
      </Node>
    </BinaryTree>
    <BinaryTree type="DecisionTree" boostWeight="1.0000000000000000e+00" itree="364">
      <Node pos="s" depth="0" NCoef="0" IVar="3" Cut="1.4774862670898438e+02" cType="1" res="-9.1014150530099869e-03" rms="4.5497214794158936e-01" purity="4.9471405148506165e-01" nType="0">
        <Node pos="l" depth="1" NCoef="0" IVar="8" Cut="6.2978947162628174e-01" cType="1" res="-1.9415849819779396e-03" rms="4.5480132102966309e-01" purity="5.0565057992935181e-01" nType="0">
          <Node pos="l" depth="2" NCoef="0" IVar="-1" Cut="0.0000000000000000e+00" cType="1" res="-4.1720844455994666e-04" rms="4.5780384540557861e-01" purity="4.7230356931686401e-01" nType="-99"/>
          <Node pos="r" depth="2" NCoef="0" IVar="-1" Cut="0.0000000000000000e+00" cType="1" res="2.1185229998081923e-03" rms="4.3618306517601013e-01" purity="6.6125631332397461e-01" nType="-99"/>
        </Node>
        <Node pos="r" depth="1" NCoef="0" IVar="-1" Cut="0.0000000000000000e+00" cType="1" res="-2.7318266220390797e-03" rms="4.4699922204017639e-01" purity="3.5359340906143188e-01" nType="-99"/>
      </Node>
    </BinaryTree>
    <BinaryTree type="DecisionTree" boostWeight="1.0000000000000000e+00" itree="365">
      <Node pos="s" depth="0" NCoef="0" IVar="3" Cut="1.4207398986816406e+02" cType="1" res="-6.3582337461411953e-03" rms="4.5945778489112854e-01" purity="5.0037175416946411e-01" nType="0">
        <Node pos="l" depth="1" NCoef="0" IVar="3" Cut="3.6250740051269531e+01" cType="1" res="-4.0266581345349550e-04" rms="4.6011620759963989e-01" purity="5.1129287481307983e-01" nType="0">
          <Node pos="l" depth="2" NCoef="0" IVar="-1" Cut="0.0000000000000000e+00" cType="1" res="-2.4329773150384426e-03" rms="4.4014012813568115e-01" purity="3.3740592002868652e-01" nType="-99"/>
          <Node pos="r" depth="2" NCoef="0" IVar="-1" Cut="0.0000000000000000e+00" cType="1" res="3.0056535615585744e-04" rms="4.6105515956878662e-01" purity="5.2938824892044067e-01" nType="-99"/>
        </Node>
        <Node pos="r" depth="1" NCoef="0" IVar="-1" Cut="0.0000000000000000e+00" cType="1" res="-2.0136428065598011e-03" rms="4.4717726111412048e-01" purity="3.8184499740600586e-01" nType="-99"/>
      </Node>
    </BinaryTree>
    <BinaryTree type="DecisionTree" boostWeight="1.0000000000000000e+00" itree="366">
      <Node pos="s" depth="0" NCoef="0" IVar="1" Cut="3.0081513524055481e-01" cType="1" res="-3.6628509406000376e-03" rms="4.5487076044082642e-01" purity="5.0047528743743896e-01" nType="0">
        <Node pos="l" depth="1" NCoef="0" IVar="-1" Cut="0.0000000000000000e+00" cType="1" res="2.5681031402200460e-03" rms="4.4555842876434326e-01" purity="6.7191272974014282e-01" nType="-99"/>
        <Node pos="r" depth="1" NCoef="0" IVar="3" Cut="4.6528812408447266e+01" cType="1" res="-1.0956091806292534e-02" rms="4.5521572232246399e-01" purity="4.8256167769432068e-01" nType="0">
          <Node pos="l" depth="2" NCoef="0" IVar="-1" Cut="0.0000000000000000e+00" cType="1" res="-1.5938619617372751e-03" rms="4.5331484079360962e-01" purity="3.8191962242126465e-01" nType="-99"/>
          <Node pos="r" depth="2" NCoef="0" IVar="-1" Cut="0.0000000000000000e+00" cType="1" res="1.6412097465945408e-05" rms="4.5493137836456299e-01" purity="5.0689578056335449e-01" nType="-99"/>
        </Node>
      </Node>
    </BinaryTree>
    <BinaryTree type="DecisionTree" boostWeight="1.0000000000000000e+00" itree="367">
      <Node pos="s" depth="0" NCoef="0" IVar="8" Cut="6.4027750492095947e-01" cType="1" res="-7.5645083561539650e-03" rms="4.5750191807746887e-01" purity="4.9851122498512268e-01" nType="0">
        <Node pos="l" depth="1" NCoef="0" IVar="1" Cut="2.3829374313354492e+00" cType="1" res="-1.6882633790373802e-02" rms="4.6026739478111267e-01" purity="4.7252419590950012e-01" nType="0">
          <Node pos="l" depth="2" NCoef="0" IVar="-1" Cut="0.0000000000000000e+00" cType="1" res="-3.1889721867628396e-04" rms="4.6687448024749756e-01" purity="4.9944278597831726e-01" nType="-99"/>
          <Node pos="r" depth="2" NCoef="0" IVar="-1" Cut="0.0000000000000000e+00" cType="1" res="-2.0660117734223604e-03" rms="3.8865447044372559e-01" purity="2.2274668514728546e-01" nType="-99"/>
        </Node>
        <Node pos="r" depth="1" NCoef="0" IVar="1" Cut="9.8070567846298218e-01" cType="1" res="4.6922538429498672e-02" rms="4.3702426552772522e-01" purity="6.5046834945678711e-01" nType="0">
          <Node pos="l" depth="2" NCoef="0" IVar="-1" Cut="0.0000000000000000e+00" cType="1" res="3.4924352075904608e-03" rms="4.0761384367942810e-01" purity="7.4802309274673462e-01" nType="-99"/>
          <Node pos="r" depth="2" NCoef="0" IVar="-1" Cut="0.0000000000000000e+00" cType="1" res="6.0801615472882986e-04" rms="4.6291741728782654e-01" purity="5.5275690555572510e-01" nType="-99"/>
        </Node>
      </Node>
    </BinaryTree>
    <BinaryTree type="DecisionTree" boostWeight="1.0000000000000000e+00" itree="368">
      <Node pos="s" depth="0" NCoef="0" IVar="4" Cut="1.6470500183105469e+02" cType="1" res="-6.6788825206458569e-03" rms="4.5533260703086853e-01" purity="4.9793988466262817e-01" nType="0">
        <Node pos="l" depth="1" NCoef="0" IVar="4" Cut="9.7459526062011719e+01" cType="1" res="1.8102899193763733e-02" rms="4.5318982005119324e-01" purity="5.5311709642410278e-01" nType="0">
          <Node pos="l" depth="2" NCoef="0" IVar="-1" Cut="0.0000000000000000e+00" cType="1" res="-9.2653650790452957e-04" rms="4.5523518323898315e-01" purity="4.5204561948776245e-01" nType="-99"/>
          <Node pos="r" depth="2" NCoef="0" IVar="-1" Cut="0.0000000000000000e+00" cType="1" res="1.7544380389153957e-03" rms="4.4916746020317078e-01" purity="6.1606240272521973e-01" nType="-99"/>
        </Node>
        <Node pos="r" depth="1" NCoef="0" IVar="5" Cut="6.1068356037139893e-01" cType="1" res="-3.8598131388425827e-02" rms="4.5609802007675171e-01" purity="4.2687091231346130e-01" nType="0">
          <Node pos="l" depth="2" NCoef="0" IVar="-1" Cut="0.0000000000000000e+00" cType="1" res="5.8934051776304841e-04" rms="4.7149899601936340e-01" purity="6.3777595758438110e-01" nType="-99"/>
          <Node pos="r" depth="2" NCoef="0" IVar="-1" Cut="0.0000000000000000e+00" cType="1" res="-1.3234495418146253e-03" rms="4.5312991738319397e-01" purity="3.9474776387214661e-01" nType="-99"/>
        </Node>
      </Node>
    </BinaryTree>
    <BinaryTree type="DecisionTree" boostWeight="1.0000000000000000e+00" itree="369">
      <Node pos="s" depth="0" NCoef="0" IVar="4" Cut="2.5536624145507812e+02" cType="1" res="-1.1497625149786472e-02" rms="4.5772919058799744e-01" purity="4.9448499083518982e-01" nType="0">
        <Node pos="l" depth="1" NCoef="0" IVar="4" Cut="1.0700991058349609e+02" cType="1" res="-1.2383121065795422e-04" rms="4.5901587605476379e-01" purity="5.2400833368301392e-01" nType="0">
          <Node pos="l" depth="2" NCoef="0" IVar="-1" Cut="0.0000000000000000e+00" cType="1" res="-1.1486039729788899e-03" rms="4.6287971735000610e-01" purity="4.6195372939109802e-01" nType="-99"/>
          <Node pos="r" depth="2" NCoef="0" IVar="-1" Cut="0.0000000000000000e+00" cType="1" res="7.0728285936638713e-04" rms="4.5542681217193604e-01" purity="5.5866491794586182e-01" nType="-99"/>
        </Node>
        <Node pos="r" depth="1" NCoef="0" IVar="3" Cut="9.1768638610839844e+01" cType="1" res="-5.2832189947366714e-02" rms="4.5061144232749939e-01" purity="3.8719150424003601e-01" nType="0">
          <Node pos="l" depth="2" NCoef="0" IVar="-1" Cut="0.0000000000000000e+00" cType="1" res="-2.0497895311564207e-03" rms="4.4088780879974365e-01" purity="3.3763459324836731e-01" nType="-99"/>
          <Node pos="r" depth="2" NCoef="0" IVar="-1" Cut="0.0000000000000000e+00" cType="1" res="-9.0519309742376208e-04" rms="4.5844089984893799e-01" purity="4.3362426757812500e-01" nType="-99"/>
        </Node>
      </Node>
    </BinaryTree>
    <BinaryTree type="DecisionTree" boostWeight="1.0000000000000000e+00" itree="370">
      <Node pos="s" depth="0" NCoef="0" IVar="3" Cut="4.6695823669433594e+01" cType="1" res="-7.1243317797780037e-03" rms="4.5540851354598999e-01" purity="4.9601408839225769e-01" nType="0">
        <Node pos="l" depth="1" NCoef="0" IVar="0" Cut="9.7844737768173218e-01" cType="1" res="-5.5928632616996765e-02" rms="4.5469769835472107e-01" purity="3.9772775769233704e-01" nType="0">
          <Node pos="l" depth="2" NCoef="0" IVar="-1" Cut="0.0000000000000000e+00" cType="1" res="1.9280336346128024e-05" rms="4.8145815730094910e-01" purity="5.6277179718017578e-01" nType="-99"/>
          <Node pos="r" depth="2" NCoef="0" IVar="-1" Cut="0.0000000000000000e+00" cType="1" res="-2.3487373255193233e-03" rms="4.3352508544921875e-01" purity="2.9507929086685181e-01" nType="-99"/>
        </Node>
        <Node pos="r" depth="1" NCoef="0" IVar="4" Cut="4.1048977661132812e+02" cType="1" res="4.9636568874120712e-03" rms="4.5477586984634399e-01" purity="5.2035790681838989e-01" nType="0">
          <Node pos="l" depth="2" NCoef="0" IVar="-1" Cut="0.0000000000000000e+00" cType="1" res="4.0749731124378741e-04" rms="4.5631229877471924e-01" purity="5.3933882713317871e-01" nType="-99"/>
          <Node pos="r" depth="2" NCoef="0" IVar="-1" Cut="0.0000000000000000e+00" cType="1" res="-1.9910060800611973e-03" rms="4.3103614449501038e-01" purity="3.2532593607902527e-01" nType="-99"/>
        </Node>
      </Node>
    </BinaryTree>
    <BinaryTree type="DecisionTree" boostWeight="1.0000000000000000e+00" itree="371">
      <Node pos="s" depth="0" NCoef="0" IVar="8" Cut="6.1994272470474243e-01" cType="1" res="-4.4324891641736031e-03" rms="4.5479741692543030e-01" purity="4.9865245819091797e-01" nType="0">
        <Node pos="l" depth="1" NCoef="0" IVar="1" Cut="3.0199569463729858e-01" cType="1" res="-1.5188501216471195e-02" rms="4.5822289586067200e-01" purity="4.6222165226936340e-01" nType="0">
          <Node pos="l" depth="2" NCoef="0" IVar="-1" Cut="0.0000000000000000e+00" cType="1" res="1.9452293636277318e-03" rms="4.5856106281280518e-01" purity="6.3252818584442139e-01" nType="-99"/>
          <Node pos="r" depth="2" NCoef="0" IVar="-1" Cut="0.0000000000000000e+00" cType="1" res="-6.6468719160184264e-04" rms="4.5755892992019653e-01" purity="4.4396367669105530e-01" nType="-99"/>
        </Node>
        <Node pos="r" depth="1" NCoef="0" IVar="3" Cut="9.1776306152343750e+01" cType="1" res="3.6303181201219559e-02" rms="4.3920201063156128e-01" purity="6.3662493228912354e-01" nType="0">
          <Node pos="l" depth="2" NCoef="0" IVar="-1" Cut="0.0000000000000000e+00" cType="1" res="5.5864424211904407e-04" rms="4.4996061921119690e-01" purity="5.9622395038604736e-01" nType="-99"/>
          <Node pos="r" depth="2" NCoef="0" IVar="-1" Cut="0.0000000000000000e+00" cType="1" res="3.5342085175216198e-03" rms="4.1284587979316711e-01" purity="7.2032922506332397e-01" nType="-99"/>
        </Node>
      </Node>
    </BinaryTree>
    <BinaryTree type="DecisionTree" boostWeight="1.0000000000000000e+00" itree="372">
      <Node pos="s" depth="0" NCoef="0" IVar="7" Cut="8.3044290542602539e-01" cType="1" res="-8.2869241014122963e-03" rms="4.5600226521492004e-01" purity="4.9734461307525635e-01" nType="0">
        <Node pos="l" depth="1" NCoef="0" IVar="1" Cut="3.0151748657226562e-01" cType="1" res="-1.9482849165797234e-02" rms="4.5905902981758118e-01" purity="4.6103700995445251e-01" nType="0">
          <Node pos="l" depth="2" NCoef="0" IVar="-1" Cut="0.0000000000000000e+00" cType="1" res="1.6326679615303874e-03" rms="4.5217078924179077e-01" purity="6.2132447957992554e-01" nType="-99"/>
          <Node pos="r" depth="2" NCoef="0" IVar="-1" Cut="0.0000000000000000e+00" cType="1" res="-7.7861052704975009e-04" rms="4.5922139286994934e-01" purity="4.4391775131225586e-01" nType="-99"/>
        </Node>
        <Node pos="r" depth="1" NCoef="0" IVar="4" Cut="1.8374638366699219e+02" cType="1" res="3.5920493304729462e-02" rms="4.4095844030380249e-01" purity="6.4070624113082886e-01" nType="0">
          <Node pos="l" depth="2" NCoef="0" IVar="-1" Cut="0.0000000000000000e+00" cType="1" res="2.7337211649864912e-03" rms="4.2988553643226624e-01" purity="7.0021468400955200e-01" nType="-99"/>
          <Node pos="r" depth="2" NCoef="0" IVar="-1" Cut="0.0000000000000000e+00" cType="1" res="-4.4521494419313967e-04" rms="4.5552194118499756e-01" purity="5.3584975004196167e-01" nType="-99"/>
        </Node>
      </Node>
    </BinaryTree>
    <BinaryTree type="DecisionTree" boostWeight="1.0000000000000000e+00" itree="373">
      <Node pos="s" depth="0" NCoef="0" IVar="1" Cut="7.2155642509460449e-01" cType="1" res="-6.8962383083999157e-03" rms="4.5609679818153381e-01" purity="5.0019347667694092e-01" nType="0">
        <Node pos="l" depth="1" NCoef="0" IVar="4" Cut="1.4335145568847656e+02" cType="1" res="2.6735225692391396e-02" rms="4.5502850413322449e-01" purity="6.1466777324676514e-01" nType="0">
          <Node pos="l" depth="2" NCoef="0" IVar="-1" Cut="0.0000000000000000e+00" cType="1" res="1.9586642738431692e-03" rms="4.4390544295310974e-01" purity="6.6881519556045532e-01" nType="-99"/>
          <Node pos="r" depth="2" NCoef="0" IVar="-1" Cut="0.0000000000000000e+00" cType="1" res="8.4851380961481482e-06" rms="4.6547707915306091e-01" purity="5.5532389879226685e-01" nType="-99"/>
        </Node>
        <Node pos="r" depth="1" NCoef="0" IVar="4" Cut="2.3971194458007812e+02" cType="1" res="-2.5102522224187851e-02" rms="4.5563960075378418e-01" purity="4.3822324275970459e-01" nType="0">
          <Node pos="l" depth="2" NCoef="0" IVar="-1" Cut="0.0000000000000000e+00" cType="1" res="-3.1689743627794087e-04" rms="4.6038031578063965e-01" purity="4.7257399559020996e-01" nType="-99"/>
          <Node pos="r" depth="2" NCoef="0" IVar="-1" Cut="0.0000000000000000e+00" cType="1" res="-1.7853105673566461e-03" rms="4.3961322307586670e-01" purity="3.4225568175315857e-01" nType="-99"/>
        </Node>
      </Node>
    </BinaryTree>
    <BinaryTree type="DecisionTree" boostWeight="1.0000000000000000e+00" itree="374">
      <Node pos="s" depth="0" NCoef="0" IVar="1" Cut="2.5139839649200439e+00" cType="1" res="-3.6920949351042509e-03" rms="4.5734041929244995e-01" purity="5.0224471092224121e-01" nType="0">
        <Node pos="l" depth="1" NCoef="0" IVar="3" Cut="8.2358413696289062e+01" cType="1" res="2.1792605984956026e-03" rms="4.6199449896812439e-01" purity="5.2551454305648804e-01" nType="0">
          <Node pos="l" depth="2" NCoef="0" IVar="-1" Cut="0.0000000000000000e+00" cType="1" res="-4.3639846262522042e-04" rms="4.6605911850929260e-01" purity="4.8818072676658630e-01" nType="-99"/>
          <Node pos="r" depth="2" NCoef="0" IVar="-1" Cut="0.0000000000000000e+00" cType="1" res="8.4947416326031089e-04" rms="4.5549941062927246e-01" purity="5.7577192783355713e-01" nType="-99"/>
        </Node>
        <Node pos="r" depth="1" NCoef="0" IVar="-1" Cut="0.0000000000000000e+00" cType="1" res="-1.9313229713588953e-03" rms="3.9411818981170654e-01" purity="2.3614080250263214e-01" nType="-99"/>
      </Node>
    </BinaryTree>
    <BinaryTree type="DecisionTree" boostWeight="1.0000000000000000e+00" itree="375">
      <Node pos="s" depth="0" NCoef="0" IVar="0" Cut="1.3053873777389526e+00" cType="1" res="-8.1131560727953911e-03" rms="4.5354750752449036e-01" purity="4.9357846379280090e-01" nType="0">
        <Node pos="l" depth="1" NCoef="0" IVar="3" Cut="9.5254959106445312e+01" cType="1" res="7.9480493441224098e-03" rms="4.6257337927818298e-01" purity="5.7601982355117798e-01" nType="0">
          <Node pos="l" depth="2" NCoef="0" IVar="-1" Cut="0.0000000000000000e+00" cType="1" res="-3.3898002584464848e-04" rms="4.7282847762107849e-01" purity="5.3776234388351440e-01" nType="-99"/>
          <Node pos="r" depth="2" NCoef="0" IVar="-1" Cut="0.0000000000000000e+00" cType="1" res="1.9884258508682251e-03" rms="4.3546521663665771e-01" purity="6.6260784864425659e-01" nType="-99"/>
        </Node>
        <Node pos="r" depth="1" NCoef="0" IVar="3" Cut="6.0981834411621094e+01" cType="1" res="-4.2655512690544128e-02" rms="4.3147885799407959e-01" purity="3.1627443432807922e-01" nType="0">
          <Node pos="l" depth="2" NCoef="0" IVar="-1" Cut="0.0000000000000000e+00" cType="1" res="-2.1407906897366047e-03" rms="4.0830805897712708e-01" purity="2.4910615384578705e-01" nType="-99"/>
          <Node pos="r" depth="2" NCoef="0" IVar="-1" Cut="0.0000000000000000e+00" cType="1" res="-6.2769546639174223e-04" rms="4.4152227044105530e-01" purity="3.5064595937728882e-01" nType="-99"/>
        </Node>
      </Node>
    </BinaryTree>
    <BinaryTree type="DecisionTree" boostWeight="1.0000000000000000e+00" itree="376">
      <Node pos="s" depth="0" NCoef="0" IVar="5" Cut="1.7351016998291016e+00" cType="1" res="-6.7313807085156441e-03" rms="4.5697015523910522e-01" purity="5.0019991397857666e-01" nType="0">
        <Node pos="l" depth="1" NCoef="0" IVar="1" Cut="2.4669206142425537e-01" cType="1" res="-7.0578127633780241e-04" rms="4.6456545591354370e-01" purity="5.3149390220642090e-01" nType="0">
          <Node pos="l" depth="2" NCoef="0" IVar="-1" Cut="0.0000000000000000e+00" cType="1" res="2.3798579350113869e-03" rms="4.4364020228385925e-01" purity="6.7924124002456665e-01" nType="-99"/>
          <Node pos="r" depth="2" NCoef="0" IVar="-1" Cut="0.0000000000000000e+00" cType="1" res="-1.8024902965407819e-04" rms="4.6589872241020203e-01" purity="5.1920384168624878e-01" nType="-99"/>
        </Node>
        <Node pos="r" depth="1" NCoef="0" IVar="-1" Cut="0.0000000000000000e+00" cType="1" res="-2.0647845230996609e-03" rms="3.5689690709114075e-01" purity="1.5732033550739288e-01" nType="-99"/>
      </Node>
    </BinaryTree>
    <BinaryTree type="DecisionTree" boostWeight="1.0000000000000000e+00" itree="377">
      <Node pos="s" depth="0" NCoef="0" IVar="9" Cut="9.8973667621612549e-01" cType="1" res="-7.0036738179624081e-03" rms="4.5589315891265869e-01" purity="4.9736064672470093e-01" nType="0">
        <Node pos="l" depth="1" NCoef="0" IVar="3" Cut="8.8032302856445312e+01" cType="1" res="-2.1270921453833580e-02" rms="4.5765036344528198e-01" purity="4.5966106653213501e-01" nType="0">
          <Node pos="l" depth="2" NCoef="0" IVar="-1" Cut="0.0000000000000000e+00" cType="1" res="-1.2268478749319911e-03" rms="4.5869311690330505e-01" purity="4.1773226857185364e-01" nType="-99"/>
          <Node pos="r" depth="2" NCoef="0" IVar="-1" Cut="0.0000000000000000e+00" cType="1" res="4.7029575216583908e-04" rms="4.5371463894844055e-01" purity="5.2682042121887207e-01" nType="-99"/>
        </Node>
        <Node pos="r" depth="1" NCoef="0" IVar="4" Cut="1.5645687866210938e+02" cType="1" res="3.2312411814928055e-02" rms="4.4867378473281860e-01" purity="6.0124897956848145e-01" nType="0">
          <Node pos="l" depth="2" NCoef="0" IVar="-1" Cut="0.0000000000000000e+00" cType="1" res="2.1535400301218033e-03" rms="4.3420258164405823e-01" purity="6.4998847246170044e-01" nType="-99"/>
          <Node pos="r" depth="2" NCoef="0" IVar="-1" Cut="0.0000000000000000e+00" cType="1" res="-8.7276996055152267e-05" rms="4.6635964512825012e-01" purity="5.3155499696731567e-01" nType="-99"/>
        </Node>
      </Node>
    </BinaryTree>
    <BinaryTree type="DecisionTree" boostWeight="1.0000000000000000e+00" itree="378">
      <Node pos="s" depth="0" NCoef="0" IVar="3" Cut="3.8080696105957031e+01" cType="1" res="-6.0193953104317188e-03" rms="4.5564380288124084e-01" purity="4.9896344542503357e-01" nType="0">
        <Node pos="l" depth="1" NCoef="0" IVar="-1" Cut="0.0000000000000000e+00" cType="1" res="-2.2921564523130655e-03" rms="4.4294932484626770e-01" purity="3.5011345148086548e-01" nType="-99"/>
        <Node pos="r" depth="1" NCoef="0" IVar="5" Cut="9.7025394439697266e-01" cType="1" res="3.0208255629986525e-03" rms="4.5612984895706177e-01" purity="5.1544427871704102e-01" nType="0">
          <Node pos="l" depth="2" NCoef="0" IVar="-1" Cut="0.0000000000000000e+00" cType="1" res="9.3484320677816868e-04" rms="4.5567756891250610e-01" purity="6.5828651189804077e-01" nType="-99"/>
          <Node pos="r" depth="2" NCoef="0" IVar="-1" Cut="0.0000000000000000e+00" cType="1" res="-4.3774244841188192e-04" rms="4.5570215582847595e-01" purity="3.9255431294441223e-01" nType="-99"/>
        </Node>
      </Node>
    </BinaryTree>
    <BinaryTree type="DecisionTree" boostWeight="1.0000000000000000e+00" itree="379">
      <Node pos="s" depth="0" NCoef="0" IVar="5" Cut="1.3267549276351929e+00" cType="1" res="-6.4765587449073792e-03" rms="4.5389732718467712e-01" purity="4.9511277675628662e-01" nType="0">
        <Node pos="l" depth="1" NCoef="0" IVar="4" Cut="2.1145127868652344e+02" cType="1" res="6.6655185073614120e-03" rms="4.6685659885406494e-01" purity="5.8377683162689209e-01" nType="0">
          <Node pos="l" depth="2" NCoef="0" IVar="-1" Cut="0.0000000000000000e+00" cType="1" res="5.8477249694988132e-04" rms="4.6367722749710083e-01" purity="6.0287851095199585e-01" nType="-99"/>
          <Node pos="r" depth="2" NCoef="0" IVar="-1" Cut="0.0000000000000000e+00" cType="1" res="-7.6440168777480721e-04" rms="4.7497883439064026e-01" purity="5.2560275793075562e-01" nType="-99"/>
        </Node>
        <Node pos="r" depth="1" NCoef="0" IVar="0" Cut="1.4472490549087524e+00" cType="1" res="-4.2052943259477615e-02" rms="4.1471442580223083e-01" purity="2.5509402155876160e-01" nType="0">
          <Node pos="l" depth="2" NCoef="0" IVar="-1" Cut="0.0000000000000000e+00" cType="1" res="-4.7766300849616528e-04" rms="4.4396972656250000e-01" purity="3.1690219044685364e-01" nType="-99"/>
          <Node pos="r" depth="2" NCoef="0" IVar="-1" Cut="0.0000000000000000e+00" cType="1" res="-1.7841761000454426e-03" rms="3.8172683119773865e-01" purity="1.9328694045543671e-01" nType="-99"/>
        </Node>
      </Node>
    </BinaryTree>
    <BinaryTree type="DecisionTree" boostWeight="1.0000000000000000e+00" itree="380">
      <Node pos="s" depth="0" NCoef="0" IVar="5" Cut="1.6984581947326660e+00" cType="1" res="-3.3253291621804237e-03" rms="4.5662614703178406e-01" purity="4.9990233778953552e-01" nType="0">
        <Node pos="l" depth="1" NCoef="0" IVar="7" Cut="8.5148930549621582e-01" cType="1" res="2.8034921269863844e-03" rms="4.6463879942893982e-01" purity="5.3441494703292847e-01" nType="0">
          <Node pos="l" depth="2" NCoef="0" IVar="-1" Cut="0.0000000000000000e+00" cType="1" res="-1.7839774955064058e-04" rms="4.6904307603836060e-01" purity="5.0455248355865479e-01" nType="-99"/>
          <Node pos="r" depth="2" NCoef="0" IVar="-1" Cut="0.0000000000000000e+00" cType="1" res="1.5823489520698786e-03" rms="4.4251182675361633e-01" purity="6.6694128513336182e-01" nType="-99"/>
        </Node>
        <Node pos="r" depth="1" NCoef="0" IVar="-1" Cut="0.0000000000000000e+00" cType="1" res="-1.7434899928048253e-03" rms="3.6573588848114014e-01" purity="1.6833901405334473e-01" nType="-99"/>
      </Node>
    </BinaryTree>
    <BinaryTree type="DecisionTree" boostWeight="1.0000000000000000e+00" itree="381">
      <Node pos="s" depth="0" NCoef="0" IVar="0" Cut="1.0025551319122314e+00" cType="1" res="-7.1926373057067394e-03" rms="4.5399305224418640e-01" purity="4.9582585692405701e-01" nType="0">
        <Node pos="l" depth="1" NCoef="0" IVar="5" Cut="4.5485523343086243e-01" cType="1" res="2.0394969731569290e-02" rms="4.5877230167388916e-01" purity="6.4462649822235107e-01" nType="0">
          <Node pos="l" depth="2" NCoef="0" IVar="-1" Cut="0.0000000000000000e+00" cType="1" res="2.7747964486479759e-03" rms="4.3293970823287964e-01" purity="7.1235984563827515e-01" nType="-99"/>
          <Node pos="r" depth="2" NCoef="0" IVar="-1" Cut="0.0000000000000000e+00" cType="1" res="4.3816602556034923e-04" rms="4.6258011460304260e-01" purity="6.3293564319610596e-01" nType="-99"/>
        </Node>
        <Node pos="r" depth="1" NCoef="0" IVar="7" Cut="7.0407158136367798e-01" cType="1" res="-2.4727646261453629e-02" rms="4.5005080103874207e-01" purity="4.0124645829200745e-01" nType="0">
          <Node pos="l" depth="2" NCoef="0" IVar="-1" Cut="0.0000000000000000e+00" cType="1" res="-1.2420731363818049e-03" rms="4.3930330872535706e-01" purity="3.2910576462745667e-01" nType="-99"/>
          <Node pos="r" depth="2" NCoef="0" IVar="-1" Cut="0.0000000000000000e+00" cType="1" res="3.3409311436116695e-04" rms="4.6540230512619019e-01" purity="5.2249670028686523e-01" nType="-99"/>
        </Node>
      </Node>
    </BinaryTree>
    <BinaryTree type="DecisionTree" boostWeight="1.0000000000000000e+00" itree="382">
      <Node pos="s" depth="0" NCoef="0" IVar="3" Cut="1.4504223632812500e+02" cType="1" res="-8.5407178848981857e-03" rms="4.5701360702514648e-01" purity="4.9913644790649414e-01" nType="0">
        <Node pos="l" depth="1" NCoef="0" IVar="3" Cut="8.9535690307617188e+01" cType="1" res="-1.3593907933682203e-03" rms="4.5644786953926086e-01" purity="5.1053625345230103e-01" nType="0">
          <Node pos="l" depth="2" NCoef="0" IVar="-1" Cut="0.0000000000000000e+00" cType="1" res="-6.2624411657452583e-04" rms="4.6117728948593140e-01" purity="4.6866786479949951e-01" nType="-99"/>
          <Node pos="r" depth="2" NCoef="0" IVar="-1" Cut="0.0000000000000000e+00" cType="1" res="1.4672229299321771e-03" rms="4.4307571649551392e-01" purity="6.0110229253768921e-01" nType="-99"/>
        </Node>
        <Node pos="r" depth="1" NCoef="0" IVar="-1" Cut="0.0000000000000000e+00" cType="1" res="-2.5377091951668262e-03" rms="4.5533713698387146e-01" purity="3.6710503697395325e-01" nType="-99"/>
      </Node>
    </BinaryTree>
    <BinaryTree type="DecisionTree" boostWeight="1.0000000000000000e+00" itree="383">
      <Node pos="s" depth="0" NCoef="0" IVar="8" Cut="6.4155876636505127e-01" cType="1" res="-2.5805458426475525e-03" rms="4.5591059327125549e-01" purity="5.0189656019210815e-01" nType="0">
        <Node pos="l" depth="1" NCoef="0" IVar="0" Cut="7.5507545471191406e-01" cType="1" res="-1.0727945715188980e-02" rms="4.5906910300254822e-01" purity="4.7700217366218567e-01" nType="0">
          <Node pos="l" depth="2" NCoef="0" IVar="-1" Cut="0.0000000000000000e+00" cType="1" res="1.2564936187118292e-03" rms="4.5648995041847229e-01" purity="6.6843497753143311e-01" nType="-99"/>
          <Node pos="r" depth="2" NCoef="0" IVar="-1" Cut="0.0000000000000000e+00" cType="1" res="-5.3408392705023289e-04" rms="4.5909312367439270e-01" purity="4.4429650902748108e-01" nType="-99"/>
        </Node>
        <Node pos="r" depth="1" NCoef="0" IVar="3" Cut="6.9698951721191406e+01" cType="1" res="4.7927644103765488e-02" rms="4.3240725994110107e-01" purity="6.5622454881668091e-01" nType="0">
          <Node pos="l" depth="2" NCoef="0" IVar="-1" Cut="0.0000000000000000e+00" cType="1" res="5.9919792693108320e-04" rms="4.5193243026733398e-01" purity="5.9422868490219116e-01" nType="-99"/>
          <Node pos="r" depth="2" NCoef="0" IVar="-1" Cut="0.0000000000000000e+00" cType="1" res="3.6296139005571604e-03" rms="4.0878871083259583e-01" purity="7.2049379348754883e-01" nType="-99"/>
        </Node>
      </Node>
    </BinaryTree>
    <BinaryTree type="DecisionTree" boostWeight="1.0000000000000000e+00" itree="384">
      <Node pos="s" depth="0" NCoef="0" IVar="9" Cut="7.8906357288360596e-01" cType="1" res="-2.1430195192806423e-04" rms="4.5477971434593201e-01" purity="5.0448560714721680e-01" nType="0">
        <Node pos="l" depth="1" NCoef="0" IVar="-1" Cut="0.0000000000000000e+00" cType="1" res="-1.6102562658488750e-03" rms="4.3167531490325928e-01" purity="2.8511795401573181e-01" nType="-99"/>
        <Node pos="r" depth="1" NCoef="0" IVar="1" Cut="1.4907932281494141e+00" cType="1" res="5.6227878667414188e-03" rms="4.5646551251411438e-01" purity="5.2517366409301758e-01" nType="0">
          <Node pos="l" depth="2" NCoef="0" IVar="-1" Cut="0.0000000000000000e+00" cType="1" res="6.4576353179290891e-04" rms="4.5788186788558960e-01" purity="5.8557456731796265e-01" nType="-99"/>
          <Node pos="r" depth="2" NCoef="0" IVar="-1" Cut="0.0000000000000000e+00" cType="1" res="-7.8484870027750731e-04" rms="4.5117163658142090e-01" purity="3.7386357784271240e-01" nType="-99"/>
        </Node>
      </Node>
    </BinaryTree>
    <BinaryTree type="DecisionTree" boostWeight="1.0000000000000000e+00" itree="385">
      <Node pos="s" depth="0" NCoef="0" IVar="3" Cut="5.9455116271972656e+01" cType="1" res="-1.1057122610509396e-02" rms="4.5710060000419617e-01" purity="4.9434772133827209e-01" nType="0">
        <Node pos="l" depth="1" NCoef="0" IVar="5" Cut="5.8187329769134521e-01" cType="1" res="-3.7442486733198166e-02" rms="4.6206310391426086e-01" purity="4.4065141677856445e-01" nType="0">
          <Node pos="l" depth="2" NCoef="0" IVar="-1" Cut="0.0000000000000000e+00" cType="1" res="6.8314478266984224e-04" rms="4.7582915425300598e-01" purity="6.1445504426956177e-01" nType="-99"/>
          <Node pos="r" depth="2" NCoef="0" IVar="-1" Cut="0.0000000000000000e+00" cType="1" res="-1.4173247618600726e-03" rms="4.5778104662895203e-01" purity="4.0017598867416382e-01" nType="-99"/>
        </Node>
        <Node pos="r" depth="1" NCoef="0" IVar="2" Cut="7.7293062210083008e-01" cType="1" res="2.8441341128200293e-03" rms="4.5384770631790161e-01" purity="5.2263784408569336e-01" nType="0">
          <Node pos="l" depth="2" NCoef="0" IVar="-1" Cut="0.0000000000000000e+00" cType="1" res="-1.4599182177335024e-03" rms="4.3796318769454956e-01" purity="3.0650544166564941e-01" nType="-99"/>
          <Node pos="r" depth="2" NCoef="0" IVar="-1" Cut="0.0000000000000000e+00" cType="1" res="4.7115879715420306e-04" rms="4.5603543519973755e-01" purity="5.6457817554473877e-01" nType="-99"/>
        </Node>
      </Node>
    </BinaryTree>
    <BinaryTree type="DecisionTree" boostWeight="1.0000000000000000e+00" itree="386">
      <Node pos="s" depth="0" NCoef="0" IVar="2" Cut="7.6563549041748047e-01" cType="1" res="-1.1149985715746880e-02" rms="4.5651063323020935e-01" purity="4.9409943819046021e-01" nType="0">
        <Node pos="l" depth="1" NCoef="0" IVar="7" Cut="5.4236382246017456e-01" cType="1" res="-6.7258343100547791e-02" rms="4.3671116232872009e-01" purity="2.8492957353591919e-01" nType="0">
          <Node pos="l" depth="2" NCoef="0" IVar="-1" Cut="0.0000000000000000e+00" cType="1" res="-2.2832814138382673e-03" rms="4.3092930316925049e-01" purity="2.6072141528129578e-01" nType="-99"/>
          <Node pos="r" depth="2" NCoef="0" IVar="-1" Cut="0.0000000000000000e+00" cType="1" res="-9.7531074425205588e-04" rms="4.4209498167037964e-01" purity="3.1617560982704163e-01" nType="-99"/>
        </Node>
        <Node pos="r" depth="1" NCoef="0" IVar="4" Cut="1.6071969604492188e+02" cType="1" res="-1.7028024885803461e-03" rms="4.5908644795417786e-01" purity="5.2931821346282959e-01" nType="0">
          <Node pos="l" depth="2" NCoef="0" IVar="-1" Cut="0.0000000000000000e+00" cType="1" res="7.2460010414943099e-04" rms="4.5052078366279602e-01" purity="5.7995164394378662e-01" nType="-99"/>
          <Node pos="r" depth="2" NCoef="0" IVar="-1" Cut="0.0000000000000000e+00" cType="1" res="-8.9572800789028406e-04" rms="4.6794494986534119e-01" purity="4.6640855073928833e-01" nType="-99"/>
        </Node>
      </Node>
    </BinaryTree>
    <BinaryTree type="DecisionTree" boostWeight="1.0000000000000000e+00" itree="387">
      <Node pos="s" depth="0" NCoef="0" IVar="3" Cut="9.0301658630371094e+01" cType="1" res="-4.4228588230907917e-03" rms="4.5781499147415161e-01" purity="5.0176501274108887e-01" nType="0">
        <Node pos="l" depth="1" NCoef="0" IVar="4" Cut="2.9382092285156250e+02" cType="1" res="-2.0419549196958542e-02" rms="4.6466308832168579e-01" purity="4.7213932871818542e-01" nType="0">
          <Node pos="l" depth="2" NCoef="0" IVar="-1" Cut="0.0000000000000000e+00" cType="1" res="-4.0453343535773456e-04" rms="4.6681499481201172e-01" purity="4.9102851748466492e-01" nType="-99"/>
          <Node pos="r" depth="2" NCoef="0" IVar="-1" Cut="0.0000000000000000e+00" cType="1" res="-2.0493473857641220e-03" rms="4.4344496726989746e-01" purity="3.2349944114685059e-01" nType="-99"/>
        </Node>
        <Node pos="r" depth="1" NCoef="0" IVar="3" Cut="1.4132104492187500e+02" cType="1" res="2.2915525361895561e-02" rms="4.4453760981559753e-01" purity="5.5239552259445190e-01" nType="0">
          <Node pos="l" depth="2" NCoef="0" IVar="-1" Cut="0.0000000000000000e+00" cType="1" res="1.5357434749603271e-03" rms="4.4476163387298584e-01" purity="5.9834969043731689e-01" nType="-99"/>
          <Node pos="r" depth="2" NCoef="0" IVar="-1" Cut="0.0000000000000000e+00" cType="1" res="-1.2377980165183544e-03" rms="4.3744924664497375e-01" purity="4.0245163440704346e-01" nType="-99"/>
        </Node>
      </Node>
    </BinaryTree>
    <BinaryTree type="DecisionTree" boostWeight="1.0000000000000000e+00" itree="388">
      <Node pos="s" depth="0" NCoef="0" IVar="8" Cut="6.5762799978256226e-01" cType="1" res="-8.7561989203095436e-03" rms="4.5731142163276672e-01" purity="4.9612420797348022e-01" nType="0">
        <Node pos="l" depth="1" NCoef="0" IVar="9" Cut="7.5486564636230469e-01" cType="1" res="-1.5152431093156338e-02" rms="4.5920830965042114e-01" purity="4.7788858413696289e-01" nType="0">
          <Node pos="l" depth="2" NCoef="0" IVar="-1" Cut="0.0000000000000000e+00" cType="1" res="-2.0688739605247974e-03" rms="4.1769823431968689e-01" purity="2.5548163056373596e-01" nType="-99"/>
          <Node pos="r" depth="2" NCoef="0" IVar="-1" Cut="0.0000000000000000e+00" cType="1" res="-3.1819377909414470e-04" rms="4.6172559261322021e-01" purity="4.9410301446914673e-01" nType="-99"/>
        </Node>
        <Node pos="r" depth="1" NCoef="0" IVar="-1" Cut="0.0000000000000000e+00" cType="1" res="2.0063433330506086e-03" rms="4.3473476171493530e-01" purity="6.6608887910842896e-01" nType="-99"/>
      </Node>
    </BinaryTree>
    <BinaryTree type="DecisionTree" boostWeight="1.0000000000000000e+00" itree="389">
      <Node pos="s" depth="0" NCoef="0" IVar="3" Cut="1.4634167480468750e+02" cType="1" res="-3.0166457872837782e-03" rms="4.5646226406097412e-01" purity="5.0230151414871216e-01" nType="0">
        <Node pos="l" depth="1" NCoef="0" IVar="3" Cut="1.0622963714599609e+02" cType="1" res="2.9518806841224432e-03" rms="4.5657628774642944e-01" purity="5.1355445384979248e-01" nType="0">
          <Node pos="l" depth="2" NCoef="0" IVar="-1" Cut="0.0000000000000000e+00" cType="1" res="-2.8489550459198654e-04" rms="4.5977431535720825e-01" purity="4.8931658267974854e-01" nType="-99"/>
          <Node pos="r" depth="2" NCoef="0" IVar="-1" Cut="0.0000000000000000e+00" cType="1" res="1.8906170735135674e-03" rms="4.4018954038619995e-01" purity="6.1027228832244873e-01" nType="-99"/>
        </Node>
        <Node pos="r" depth="1" NCoef="0" IVar="-1" Cut="0.0000000000000000e+00" cType="1" res="-2.1209286060184240e-03" rms="4.4878053665161133e-01" purity="3.6560946702957153e-01" nType="-99"/>
      </Node>
    </BinaryTree>
    <BinaryTree type="DecisionTree" boostWeight="1.0000000000000000e+00" itree="390">
      <Node pos="s" depth="0" NCoef="0" IVar="5" Cut="9.6947216987609863e-01" cType="1" res="-6.8059453042224050e-05" rms="4.5403259992599487e-01" purity="5.0483649969100952e-01" nType="0">
        <Node pos="l" depth="1" NCoef="0" IVar="1" Cut="2.4738444387912750e-01" cType="1" res="2.3182522505521774e-02" rms="4.5638293027877808e-01" purity="6.4421200752258301e-01" nType="0">
          <Node pos="l" depth="2" NCoef="0" IVar="-1" Cut="0.0000000000000000e+00" cType="1" res="3.9767306298017502e-03" rms="4.2626994848251343e-01" purity="7.3782604932785034e-01" nType="-99"/>
          <Node pos="r" depth="2" NCoef="0" IVar="-1" Cut="0.0000000000000000e+00" cType="1" res="5.3344719344750047e-04" rms="4.5932620763778687e-01" purity="6.3249742984771729e-01" nType="-99"/>
        </Node>
        <Node pos="r" depth="1" NCoef="0" IVar="4" Cut="9.9836463928222656e+01" cType="1" res="-2.1051136776804924e-02" rms="4.5087286829948425e-01" purity="3.7905362248420715e-01" nType="0">
          <Node pos="l" depth="2" NCoef="0" IVar="-1" Cut="0.0000000000000000e+00" cType="1" res="-1.8055830150842667e-03" rms="4.3964019417762756e-01" purity="3.1205636262893677e-01" nType="-99"/>
          <Node pos="r" depth="2" NCoef="0" IVar="-1" Cut="0.0000000000000000e+00" cType="1" res="-2.5104606174863875e-04" rms="4.5295181870460510e-01" purity="3.9649027585983276e-01" nType="-99"/>
        </Node>
      </Node>
    </BinaryTree>
    <BinaryTree type="DecisionTree" boostWeight="1.0000000000000000e+00" itree="391">
      <Node pos="s" depth="0" NCoef="0" IVar="1" Cut="2.5267145633697510e+00" cType="1" res="-3.5547886509448290e-03" rms="4.5417872071266174e-01" purity="5.0114494562149048e-01" nType="0">
        <Node pos="l" depth="1" NCoef="0" IVar="8" Cut="5.2169269323348999e-01" cType="1" res="2.0503820851445198e-03" rms="4.5913136005401611e-01" purity="5.2518558502197266e-01" nType="0">
          <Node pos="l" depth="2" NCoef="0" IVar="-1" Cut="0.0000000000000000e+00" cType="1" res="-6.8629015004262328e-04" rms="4.6359667181968689e-01" purity="4.3439695239067078e-01" nType="-99"/>
          <Node pos="r" depth="2" NCoef="0" IVar="-1" Cut="0.0000000000000000e+00" cType="1" res="5.6008633691817522e-04" rms="4.5599183440208435e-01" purity="5.7559233903884888e-01" nType="-99"/>
        </Node>
        <Node pos="r" depth="1" NCoef="0" IVar="-1" Cut="0.0000000000000000e+00" cType="1" res="-1.7887387657538056e-03" rms="3.9002737402915955e-01" purity="2.3553644120693207e-01" nType="-99"/>
      </Node>
    </BinaryTree>
    <BinaryTree type="DecisionTree" boostWeight="1.0000000000000000e+00" itree="392">
      <Node pos="s" depth="0" NCoef="0" IVar="5" Cut="1.6924126148223877e+00" cType="1" res="-1.7931608017534018e-03" rms="4.5427718758583069e-01" purity="5.0151228904724121e-01" nType="0">
        <Node pos="l" depth="1" NCoef="0" IVar="2" Cut="7.4447667598724365e-01" cType="1" res="4.7701569274067879e-03" rms="4.6287989616394043e-01" purity="5.3918188810348511e-01" nType="0">
          <Node pos="l" depth="2" NCoef="0" IVar="-1" Cut="0.0000000000000000e+00" cType="1" res="-1.5146583318710327e-03" rms="4.4196334481239319e-01" purity="2.9730087518692017e-01" nType="-99"/>
          <Node pos="r" depth="2" NCoef="0" IVar="-1" Cut="0.0000000000000000e+00" cType="1" res="3.6372311296872795e-04" rms="4.6442076563835144e-01" purity="5.6321579217910767e-01" nType="-99"/>
        </Node>
        <Node pos="r" depth="1" NCoef="0" IVar="-1" Cut="0.0000000000000000e+00" cType="1" res="-1.7188502242788672e-03" rms="3.6419978737831116e-01" purity="1.6751077771186829e-01" nType="-99"/>
      </Node>
    </BinaryTree>
    <BinaryTree type="DecisionTree" boostWeight="1.0000000000000000e+00" itree="393">
      <Node pos="s" depth="0" NCoef="0" IVar="1" Cut="2.5321102142333984e+00" cType="1" res="-3.3207617234438658e-03" rms="4.5501282811164856e-01" purity="4.9807047843933105e-01" nType="0">
        <Node pos="l" depth="1" NCoef="0" IVar="4" Cut="2.6376358032226562e+02" cType="1" res="2.5634861085563898e-03" rms="4.5993554592132568e-01" purity="5.2217227220535278e-01" nType="0">
          <Node pos="l" depth="2" NCoef="0" IVar="-1" Cut="0.0000000000000000e+00" cType="1" res="4.1190377669408917e-04" rms="4.6255365014076233e-01" purity="5.5182921886444092e-01" nType="-99"/>
          <Node pos="r" depth="2" NCoef="0" IVar="-1" Cut="0.0000000000000000e+00" cType="1" res="-1.0559546062722802e-03" rms="4.4730862975120544e-01" purity="4.0551835298538208e-01" nType="-99"/>
        </Node>
        <Node pos="r" depth="1" NCoef="0" IVar="-1" Cut="0.0000000000000000e+00" cType="1" res="-1.8664194503799081e-03" rms="3.9046847820281982e-01" purity="2.3087692260742188e-01" nType="-99"/>
      </Node>
    </BinaryTree>
    <BinaryTree type="DecisionTree" boostWeight="1.0000000000000000e+00" itree="394">
      <Node pos="s" depth="0" NCoef="0" IVar="1" Cut="9.1926532983779907e-01" cType="1" res="-3.5170274786651134e-03" rms="4.5515409111976624e-01" purity="5.0004559755325317e-01" nType="0">
        <Node pos="l" depth="1" NCoef="0" IVar="7" Cut="5.9909796714782715e-01" cType="1" res="2.0914951339364052e-02" rms="4.5628920197486877e-01" purity="5.9983485937118530e-01" nType="0">
          <Node pos="l" depth="2" NCoef="0" IVar="-1" Cut="0.0000000000000000e+00" cType="1" res="-2.8876465512439609e-04" rms="4.7130322456359863e-01" purity="4.7535860538482666e-01" nType="-99"/>
          <Node pos="r" depth="2" NCoef="0" IVar="-1" Cut="0.0000000000000000e+00" cType="1" res="1.4808240812271833e-03" rms="4.4698795676231384e-01" purity="6.6772967576980591e-01" nType="-99"/>
        </Node>
        <Node pos="r" depth="1" NCoef="0" IVar="4" Cut="9.2902793884277344e+01" cType="1" res="-2.4257233366370201e-02" rms="4.5315572619438171e-01" purity="4.1533488035202026e-01" nType="0">
          <Node pos="l" depth="2" NCoef="0" IVar="-1" Cut="0.0000000000000000e+00" cType="1" res="-2.1182456985116005e-03" rms="4.3222320079803467e-01" purity="3.1796658039093018e-01" nType="-99"/>
          <Node pos="r" depth="2" NCoef="0" IVar="-1" Cut="0.0000000000000000e+00" cType="1" res="-3.2389789703302085e-04" rms="4.5722049474716187e-01" purity="4.3945565819740295e-01" nType="-99"/>
        </Node>
      </Node>
    </BinaryTree>
    <BinaryTree type="DecisionTree" boostWeight="1.0000000000000000e+00" itree="395">
      <Node pos="s" depth="0" NCoef="0" IVar="5" Cut="8.5083776712417603e-01" cType="1" res="-1.1977538466453552e-02" rms="4.5559239387512207e-01" purity="4.9185648560523987e-01" nType="0">
        <Node pos="l" depth="1" NCoef="0" IVar="1" Cut="9.4692081212997437e-01" cType="1" res="1.5770485624670982e-02" rms="4.5617181062698364e-01" purity="6.4202159643173218e-01" nType="0">
          <Node pos="l" depth="2" NCoef="0" IVar="-1" Cut="0.0000000000000000e+00" cType="1" res="1.2961067259311676e-03" rms="4.4684952497482300e-01" purity="6.8119442462921143e-01" nType="-99"/>
          <Node pos="r" depth="2" NCoef="0" IVar="-1" Cut="0.0000000000000000e+00" cType="1" res="-5.0678075058385730e-04" rms="4.7130039334297180e-01" purity="5.6964212656021118e-01" nType="-99"/>
        </Node>
        <Node pos="r" depth="1" NCoef="0" IVar="3" Cut="4.3922218322753906e+01" cType="1" res="-2.7904853224754333e-02" rms="4.5449486374855042e-01" purity="4.0566200017929077e-01" nType="0">
          <Node pos="l" depth="2" NCoef="0" IVar="-1" Cut="0.0000000000000000e+00" cType="1" res="-2.1748682484030724e-03" rms="4.2748379707336426e-01" purity="2.8402027487754822e-01" nType="-99"/>
          <Node pos="r" depth="2" NCoef="0" IVar="-1" Cut="0.0000000000000000e+00" cType="1" res="-5.1000848179683089e-04" rms="4.5843055844306946e-01" purity="4.2750266194343567e-01" nType="-99"/>
        </Node>
      </Node>
    </BinaryTree>
    <BinaryTree type="DecisionTree" boostWeight="1.0000000000000000e+00" itree="396">
      <Node pos="s" depth="0" NCoef="0" IVar="5" Cut="1.6896111965179443e+00" cType="1" res="-2.1016178652644157e-03" rms="4.5318141579627991e-01" purity="4.9968791007995605e-01" nType="0">
        <Node pos="l" depth="1" NCoef="0" IVar="7" Cut="5.2563464641571045e-01" cType="1" res="5.2115372382104397e-03" rms="4.6227246522903442e-01" purity="5.3908103704452515e-01" nType="0">
          <Node pos="l" depth="2" NCoef="0" IVar="-1" Cut="0.0000000000000000e+00" cType="1" res="-1.3540504733100533e-03" rms="4.6189704537391663e-01" purity="3.7682864069938660e-01" nType="-99"/>
          <Node pos="r" depth="2" NCoef="0" IVar="-1" Cut="0.0000000000000000e+00" cType="1" res="4.3815618846565485e-04" rms="4.6176239848136902e-01" purity="5.6254029273986816e-01" nType="-99"/>
        </Node>
        <Node pos="r" depth="1" NCoef="0" IVar="-1" Cut="0.0000000000000000e+00" cType="1" res="-1.8415782833471894e-03" rms="3.6009225249290466e-01" purity="1.6209958493709564e-01" nType="-99"/>
      </Node>
    </BinaryTree>
    <BinaryTree type="DecisionTree" boostWeight="1.0000000000000000e+00" itree="397">
      <Node pos="s" depth="0" NCoef="0" IVar="0" Cut="7.5800466537475586e-01" cType="1" res="-1.8899964925367385e-04" rms="4.5613422989845276e-01" purity="5.0538855791091919e-01" nType="0">
        <Node pos="l" depth="1" NCoef="0" IVar="3" Cut="8.3587364196777344e+01" cType="1" res="4.5003041625022888e-02" rms="4.3899330496788025e-01" purity="6.9970601797103882e-01" nType="0">
          <Node pos="l" depth="2" NCoef="0" IVar="-1" Cut="0.0000000000000000e+00" cType="1" res="5.8159796753898263e-04" rms="4.6772095561027527e-01" purity="6.3861423730850220e-01" nType="-99"/>
          <Node pos="r" depth="2" NCoef="0" IVar="-1" Cut="0.0000000000000000e+00" cType="1" res="5.5182948708534241e-03" rms="3.7164333462715149e-01" purity="8.1691694259643555e-01" nType="-99"/>
        </Node>
        <Node pos="r" depth="1" NCoef="0" IVar="9" Cut="7.8364521265029907e-01" cType="1" res="-8.9298989623785019e-03" rms="4.5886236429214478e-01" purity="4.6780431270599365e-01" nType="0">
          <Node pos="l" depth="2" NCoef="0" IVar="-1" Cut="0.0000000000000000e+00" cType="1" res="-1.9927355460822582e-03" rms="4.1239020228385925e-01" purity="2.4350170791149139e-01" nType="-99"/>
          <Node pos="r" depth="2" NCoef="0" IVar="-1" Cut="0.0000000000000000e+00" cType="1" res="-9.3920149083714932e-05" rms="4.6220880746841431e-01" purity="4.8724734783172607e-01" nType="-99"/>
        </Node>
      </Node>
    </BinaryTree>
    <BinaryTree type="DecisionTree" boostWeight="1.0000000000000000e+00" itree="398">
      <Node pos="s" depth="0" NCoef="0" IVar="1" Cut="1.0452282428741455e+00" cType="1" res="-3.0202034395188093e-03" rms="4.5511332154273987e-01" purity="4.9988642334938049e-01" nType="0">
        <Node pos="l" depth="1" NCoef="0" IVar="5" Cut="1.2091212272644043e+00" cType="1" res="1.4768417924642563e-02" rms="4.5327913761138916e-01" purity="5.8219772577285767e-01" nType="0">
          <Node pos="l" depth="2" NCoef="0" IVar="-1" Cut="0.0000000000000000e+00" cType="1" res="1.0015114676207304e-03" rms="4.5394119620323181e-01" purity="6.4827758073806763e-01" nType="-99"/>
          <Node pos="r" depth="2" NCoef="0" IVar="-1" Cut="0.0000000000000000e+00" cType="1" res="-7.6895277015864849e-04" rms="4.4820368289947510e-01" purity="3.4835216403007507e-01" nType="-99"/>
        </Node>
        <Node pos="r" depth="1" NCoef="0" IVar="4" Cut="1.2864036560058594e+02" cType="1" res="-2.2884486243128777e-02" rms="4.5633405447006226e-01" purity="4.0797060728073120e-01" nType="0">
          <Node pos="l" depth="2" NCoef="0" IVar="-1" Cut="0.0000000000000000e+00" cType="1" res="9.0684108727145940e-05" rms="4.6049407124519348e-01" purity="4.4886314868927002e-01" nType="-99"/>
          <Node pos="r" depth="2" NCoef="0" IVar="-1" Cut="0.0000000000000000e+00" cType="1" res="-1.1361273936927319e-03" rms="4.5261323451995850e-01" purity="3.8000920414924622e-01" nType="-99"/>
        </Node>
      </Node>
    </BinaryTree>
    <BinaryTree type="DecisionTree" boostWeight="1.0000000000000000e+00" itree="399">
      <Node pos="s" depth="0" NCoef="0" IVar="3" Cut="1.4272714233398438e+02" cType="1" res="-5.8594145812094212e-03" rms="4.5610535144805908e-01" purity="4.9805968999862671e-01" nType="0">
        <Node pos="l" depth="1" NCoef="0" IVar="3" Cut="1.0639870452880859e+02" cType="1" res="4.6181783545762300e-04" rms="4.5701372623443604e-01" purity="5.0953817367553711e-01" nType="0">
          <Node pos="l" depth="2" NCoef="0" IVar="-1" Cut="0.0000000000000000e+00" cType="1" res="-3.4558729385025799e-04" rms="4.6064379811286926e-01" purity="4.8680710792541504e-01" nType="-99"/>
          <Node pos="r" depth="2" NCoef="0" IVar="-1" Cut="0.0000000000000000e+00" cType="1" res="1.8070152727887034e-03" rms="4.3789756298065186e-01" purity="6.0561263561248779e-01" nType="-99"/>
        </Node>
        <Node pos="r" depth="1" NCoef="0" IVar="-1" Cut="0.0000000000000000e+00" cType="1" res="-2.0492516923695803e-03" rms="4.4072473049163818e-01" purity="3.7579864263534546e-01" nType="-99"/>
      </Node>
    </BinaryTree>
    <BinaryTree type="DecisionTree" boostWeight="1.0000000000000000e+00" itree="400">
      <Node pos="s" depth="0" NCoef="0" IVar="8" Cut="5.2062135934829712e-01" cType="1" res="3.4902493935078382e-03" rms="4.5618125796318054e-01" purity="5.0806689262390137e-01" nType="0">
        <Node pos="l" depth="1" NCoef="0" IVar="9" Cut="8.5563343763351440e-01" cType="1" res="-2.3832358419895172e-02" rms="4.5551821589469910e-01" purity="4.1194891929626465e-01" nType="0">
          <Node pos="l" depth="2" NCoef="0" IVar="-1" Cut="0.0000000000000000e+00" cType="1" res="-1.7894372576847672e-03" rms="4.2472478747367859e-01" purity="2.7902311086654663e-01" nType="-99"/>
          <Node pos="r" depth="2" NCoef="0" IVar="-1" Cut="0.0000000000000000e+00" cType="1" res="-8.8621010945644230e-05" rms="4.6798181533813477e-01" purity="4.7504174709320068e-01" nType="-99"/>
        </Node>
        <Node pos="r" depth="1" NCoef="0" IVar="4" Cut="2.0893159484863281e+02" cType="1" res="1.9658429548144341e-02" rms="4.5580247044563293e-01" purity="5.6494480371475220e-01" nType="0">
          <Node pos="l" depth="2" NCoef="0" IVar="-1" Cut="0.0000000000000000e+00" cType="1" res="1.1520704720169306e-03" rms="4.5331811904907227e-01" purity="6.0211968421936035e-01" nType="-99"/>
          <Node pos="r" depth="2" NCoef="0" IVar="-1" Cut="0.0000000000000000e+00" cType="1" res="-3.7617559428326786e-04" rms="4.6035647392272949e-01" purity="4.7267150878906250e-01" nType="-99"/>
        </Node>
      </Node>
    </BinaryTree>
    <BinaryTree type="DecisionTree" boostWeight="1.0000000000000000e+00" itree="401">
      <Node pos="s" depth="0" NCoef="0" IVar="3" Cut="9.9381378173828125e+01" cType="1" res="-3.8234316743910313e-03" rms="4.5730867981910706e-01" purity="5.0162237882614136e-01" nType="0">
        <Node pos="l" depth="1" NCoef="0" IVar="0" Cut="9.9439316987991333e-01" cType="1" res="-1.5291904099285603e-02" rms="4.6102377772331238e-01" purity="4.7985285520553589e-01" nType="0">
          <Node pos="l" depth="2" NCoef="0" IVar="-1" Cut="0.0000000000000000e+00" cType="1" res="4.8254351713694632e-04" rms="4.6755325794219971e-01" purity="6.2005186080932617e-01" nType="-99"/>
          <Node pos="r" depth="2" NCoef="0" IVar="-1" Cut="0.0000000000000000e+00" cType="1" res="-9.7752478905022144e-04" rms="4.5535394549369812e-01" purity="3.8261601328849792e-01" nType="-99"/>
        </Node>
        <Node pos="r" depth="1" NCoef="0" IVar="4" Cut="1.4409196472167969e+02" cType="1" res="2.2613391280174255e-02" rms="4.4750928878784180e-01" purity="5.5180495977401733e-01" nType="0">
          <Node pos="l" depth="2" NCoef="0" IVar="-1" Cut="0.0000000000000000e+00" cType="1" res="2.6442871894687414e-03" rms="4.2564994096755981e-01" purity="6.6657823324203491e-01" nType="-99"/>
          <Node pos="r" depth="2" NCoef="0" IVar="-1" Cut="0.0000000000000000e+00" cType="1" res="-2.4218828912125900e-05" rms="4.5738092064857483e-01" purity="4.8881143331527710e-01" nType="-99"/>
        </Node>
      </Node>
    </BinaryTree>
    <BinaryTree type="DecisionTree" boostWeight="1.0000000000000000e+00" itree="402">
      <Node pos="s" depth="0" NCoef="0" IVar="8" Cut="6.0129731893539429e-01" cType="1" res="4.5489563490264118e-05" rms="4.5578187704086304e-01" purity="5.0609022378921509e-01" nType="0">
        <Node pos="l" depth="1" NCoef="0" IVar="1" Cut="6.4054244756698608e-01" cType="1" res="-1.3219313696026802e-02" rms="4.5779627561569214e-01" purity="4.5659539103507996e-01" nType="0">
          <Node pos="l" depth="2" NCoef="0" IVar="-1" Cut="0.0000000000000000e+00" cType="1" res="6.7039474379271269e-04" rms="4.6027177572250366e-01" purity="5.7340925931930542e-01" nType="-99"/>
          <Node pos="r" depth="2" NCoef="0" IVar="-1" Cut="0.0000000000000000e+00" cType="1" res="-7.7618233626708388e-04" rms="4.5602920651435852e-01" purity="4.0779080986976624e-01" nType="-99"/>
        </Node>
        <Node pos="r" depth="1" NCoef="0" IVar="3" Cut="5.2427349090576172e+01" cType="1" res="3.4808158874511719e-02" rms="4.4860300421714783e-01" purity="6.3579994440078735e-01" nType="0">
          <Node pos="l" depth="2" NCoef="0" IVar="-1" Cut="0.0000000000000000e+00" cType="1" res="-2.4228180700447410e-04" rms="4.7691375017166138e-01" purity="5.6069546937942505e-01" nType="-99"/>
          <Node pos="r" depth="2" NCoef="0" IVar="-1" Cut="0.0000000000000000e+00" cType="1" res="2.0042643882334232e-03" rms="4.3676793575286865e-01" purity="6.6328531503677368e-01" nType="-99"/>
        </Node>
      </Node>
    </BinaryTree>
    <BinaryTree type="DecisionTree" boostWeight="1.0000000000000000e+00" itree="403">
      <Node pos="s" depth="0" NCoef="0" IVar="5" Cut="8.2710057497024536e-01" cType="1" res="3.2525672577321529e-04" rms="4.5398518443107605e-01" purity="5.0696921348571777e-01" nType="0">
        <Node pos="l" depth="1" NCoef="0" IVar="9" Cut="9.8011755943298340e-01" cType="1" res="2.8750834986567497e-02" rms="4.5305174589157104e-01" purity="6.6034877300262451e-01" nType="0">
          <Node pos="l" depth="2" NCoef="0" IVar="-1" Cut="0.0000000000000000e+00" cType="1" res="3.4296265221200883e-04" rms="4.6982777118682861e-01" purity="6.0195982456207275e-01" nType="-99"/>
          <Node pos="r" depth="2" NCoef="0" IVar="-1" Cut="0.0000000000000000e+00" cType="1" res="2.3855306208133698e-03" rms="4.2874565720558167e-01" purity="7.3724210262298584e-01" nType="-99"/>
        </Node>
        <Node pos="r" depth="1" NCoef="0" IVar="3" Cut="9.2749938964843750e+01" cType="1" res="-1.4815283939242363e-02" rms="4.5375531911849976e-01" purity="4.2527350783348083e-01" nType="0">
          <Node pos="l" depth="2" NCoef="0" IVar="-1" Cut="0.0000000000000000e+00" cType="1" res="-8.4491883171722293e-04" rms="4.5131266117095947e-01" purity="3.8802134990692139e-01" nType="-99"/>
          <Node pos="r" depth="2" NCoef="0" IVar="-1" Cut="0.0000000000000000e+00" cType="1" res="2.9630208155140281e-04" rms="4.5654398202896118e-01" purity="4.8430174589157104e-01" nType="-99"/>
        </Node>
      </Node>
    </BinaryTree>
    <BinaryTree type="DecisionTree" boostWeight="1.0000000000000000e+00" itree="404">
      <Node pos="s" depth="0" NCoef="0" IVar="5" Cut="1.3459788560867310e+00" cType="1" res="5.4853903129696846e-03" rms="4.5160648226737976e-01" purity="5.0979036092758179e-01" nType="0">
        <Node pos="l" depth="1" NCoef="0" IVar="3" Cut="3.6762344360351562e+01" cType="1" res="1.8612276762723923e-02" rms="4.6282339096069336e-01" purity="5.9750747680664062e-01" nType="0">
          <Node pos="l" depth="2" NCoef="0" IVar="-1" Cut="0.0000000000000000e+00" cType="1" res="-1.2611551210284233e-03" rms="4.7245717048645020e-01" purity="4.4147318601608276e-01" nType="-99"/>
          <Node pos="r" depth="2" NCoef="0" IVar="-1" Cut="0.0000000000000000e+00" cType="1" res="8.6919916793704033e-04" rms="4.6138596534729004e-01" purity="6.1271655559539795e-01" nType="-99"/>
        </Node>
        <Node pos="r" depth="1" NCoef="0" IVar="1" Cut="1.9275428056716919e+00" cType="1" res="-3.2837826758623123e-02" rms="4.1476711630821228e-01" purity="2.5370508432388306e-01" nType="0">
          <Node pos="l" depth="2" NCoef="0" IVar="-1" Cut="0.0000000000000000e+00" cType="1" res="-1.7667340580374002e-04" rms="4.3900486826896667e-01" purity="3.0607450008392334e-01" nType="-99"/>
          <Node pos="r" depth="2" NCoef="0" IVar="-1" Cut="0.0000000000000000e+00" cType="1" res="-1.9643076229840517e-03" rms="3.7226608395576477e-01" purity="1.7561988532543182e-01" nType="-99"/>
        </Node>
      </Node>
    </BinaryTree>
    <BinaryTree type="DecisionTree" boostWeight="1.0000000000000000e+00" itree="405">
      <Node pos="s" depth="0" NCoef="0" IVar="8" Cut="6.6290992498397827e-01" cType="1" res="-5.5614993907511234e-03" rms="4.5490860939025879e-01" purity="4.9767357110977173e-01" nType="0">
        <Node pos="l" depth="1" NCoef="0" IVar="1" Cut="1.3420336246490479e+00" cType="1" res="-1.1399695649743080e-02" rms="4.5561155676841736e-01" purity="4.8160129785537720e-01" nType="0">
          <Node pos="l" depth="2" NCoef="0" IVar="-1" Cut="0.0000000000000000e+00" cType="1" res="1.0160433885175735e-04" rms="4.6235397458076477e-01" purity="5.5311131477355957e-01" nType="-99"/>
          <Node pos="r" depth="2" NCoef="0" IVar="-1" Cut="0.0000000000000000e+00" cType="1" res="-1.0683930013328791e-03" rms="4.4144657254219055e-01" purity="3.4784120321273804e-01" nType="-99"/>
        </Node>
        <Node pos="r" depth="1" NCoef="0" IVar="-1" Cut="0.0000000000000000e+00" cType="1" res="2.4274464230984449e-03" rms="4.4173803925514221e-01" purity="6.7749536037445068e-01" nType="-99"/>
      </Node>
    </BinaryTree>
    <BinaryTree type="DecisionTree" boostWeight="1.0000000000000000e+00" itree="406">
      <Node pos="s" depth="0" NCoef="0" IVar="1" Cut="2.5321764945983887e+00" cType="1" res="-7.9055000096559525e-03" rms="4.5402979850769043e-01" purity="4.9534752964973450e-01" nType="0">
        <Node pos="l" depth="1" NCoef="0" IVar="3" Cut="8.9476791381835938e+01" cType="1" res="-1.1034695198759437e-03" rms="4.5853456854820251e-01" purity="5.1931607723236084e-01" nType="0">
          <Node pos="l" depth="2" NCoef="0" IVar="-1" Cut="0.0000000000000000e+00" cType="1" res="-5.0852959975600243e-04" rms="4.6446350216865540e-01" purity="4.8408964276313782e-01" nType="-99"/>
          <Node pos="r" depth="2" NCoef="0" IVar="-1" Cut="0.0000000000000000e+00" cType="1" res="9.2439708532765508e-04" rms="4.4676771759986877e-01" purity="5.8029663562774658e-01" nType="-99"/>
        </Node>
        <Node pos="r" depth="1" NCoef="0" IVar="-1" Cut="0.0000000000000000e+00" cType="1" res="-2.3096890654414892e-03" rms="3.8979625701904297e-01" purity="2.1844321489334106e-01" nType="-99"/>
      </Node>
    </BinaryTree>
    <BinaryTree type="DecisionTree" boostWeight="1.0000000000000000e+00" itree="407">
      <Node pos="s" depth="0" NCoef="0" IVar="5" Cut="1.7423379421234131e+00" cType="1" res="-2.9102168045938015e-03" rms="4.5503458380699158e-01" purity="5.0142240524291992e-01" nType="0">
        <Node pos="l" depth="1" NCoef="0" IVar="8" Cut="6.6873103380203247e-01" cType="1" res="2.5239556562155485e-03" rms="4.6226349472999573e-01" purity="5.3190994262695312e-01" nType="0">
          <Node pos="l" depth="2" NCoef="0" IVar="-1" Cut="0.0000000000000000e+00" cType="1" res="-6.8270477640908211e-05" rms="4.6395537257194519e-01" purity="5.1811206340789795e-01" nType="-99"/>
          <Node pos="r" depth="2" NCoef="0" IVar="-1" Cut="0.0000000000000000e+00" cType="1" res="2.6383725926280022e-03" rms="4.3587478995323181e-01" purity="7.0667308568954468e-01" nType="-99"/>
        </Node>
        <Node pos="r" depth="1" NCoef="0" IVar="-1" Cut="0.0000000000000000e+00" cType="1" res="-1.8304727273061872e-03" rms="3.5889056324958801e-01" purity="1.6016425192356110e-01" nType="-99"/>
      </Node>
    </BinaryTree>
    <BinaryTree type="DecisionTree" boostWeight="1.0000000000000000e+00" itree="408">
      <Node pos="s" depth="0" NCoef="0" IVar="2" Cut="7.7507805824279785e-01" cType="1" res="3.8105098064988852e-03" rms="4.5374765992164612e-01" purity="5.0987911224365234e-01" nType="0">
        <Node pos="l" depth="1" NCoef="0" IVar="7" Cut="5.2684521675109863e-01" cType="1" res="-4.4211931526660919e-02" rms="4.4209536910057068e-01" purity="3.0668434500694275e-01" nType="0">
          <Node pos="l" depth="2" NCoef="0" IVar="-1" Cut="0.0000000000000000e+00" cType="1" res="-1.9155254121869802e-03" rms="4.3680241703987122e-01" purity="2.7830675244331360e-01" nType="-99"/>
          <Node pos="r" depth="2" NCoef="0" IVar="-1" Cut="0.0000000000000000e+00" cType="1" res="-6.7418522667139769e-04" rms="4.4438222050666809e-01" purity="3.2510751485824585e-01" nType="-99"/>
        </Node>
        <Node pos="r" depth="1" NCoef="0" IVar="3" Cut="4.7917633056640625e+01" cType="1" res="1.3873179443180561e-02" rms="4.5551043748855591e-01" purity="5.5245673656463623e-01" nType="0">
          <Node pos="l" depth="2" NCoef="0" IVar="-1" Cut="0.0000000000000000e+00" cType="1" res="-1.0531756561249495e-03" rms="4.5509302616119385e-01" purity="4.4067788124084473e-01" nType="-99"/>
          <Node pos="r" depth="2" NCoef="0" IVar="-1" Cut="0.0000000000000000e+00" cType="1" res="9.5927820075303316e-04" rms="4.5462661981582642e-01" purity="5.8300077915191650e-01" nType="-99"/>
        </Node>
      </Node>
    </BinaryTree>
    <BinaryTree type="DecisionTree" boostWeight="1.0000000000000000e+00" itree="409">
      <Node pos="s" depth="0" NCoef="0" IVar="3" Cut="4.3106849670410156e+01" cType="1" res="-2.3292577825486660e-03" rms="4.5565557479858398e-01" purity="5.0300234556198120e-01" nType="0">
        <Node pos="l" depth="1" NCoef="0" IVar="3" Cut="3.6352329254150391e+01" cType="1" res="-5.1413245499134064e-02" rms="4.5235788822174072e-01" purity="3.9348211884498596e-01" nType="0">
          <Node pos="l" depth="2" NCoef="0" IVar="-1" Cut="0.0000000000000000e+00" cType="1" res="-2.3591837380081415e-03" rms="4.4451934099197388e-01" purity="3.3980903029441833e-01" nType="-99"/>
          <Node pos="r" depth="2" NCoef="0" IVar="-1" Cut="0.0000000000000000e+00" cType="1" res="-1.2127829540986568e-04" rms="4.5738315582275391e-01" purity="4.5938694477081299e-01" nType="-99"/>
        </Node>
        <Node pos="r" depth="1" NCoef="0" IVar="0" Cut="6.9688200950622559e-01" cType="1" res="6.7492402158677578e-03" rms="4.5568388700485229e-01" purity="5.2325904369354248e-01" nType="0">
          <Node pos="l" depth="2" NCoef="0" IVar="-1" Cut="0.0000000000000000e+00" cType="1" res="2.9318851884454489e-03" rms="4.2829471826553345e-01" purity="7.4793237447738647e-01" nType="-99"/>
          <Node pos="r" depth="2" NCoef="0" IVar="-1" Cut="0.0000000000000000e+00" cType="1" res="1.7001615333356312e-06" rms="4.5838955044746399e-01" purity="4.9641227722167969e-01" nType="-99"/>
        </Node>
      </Node>
    </BinaryTree>
    <BinaryTree type="DecisionTree" boostWeight="1.0000000000000000e+00" itree="410">
      <Node pos="s" depth="0" NCoef="0" IVar="3" Cut="4.8489402770996094e+01" cType="1" res="-6.7650936543941498e-03" rms="4.5441392064094543e-01" purity="4.9798852205276489e-01" nType="0">
        <Node pos="l" depth="1" NCoef="0" IVar="3" Cut="3.5866245269775391e+01" cType="1" res="-5.6144636124372482e-02" rms="4.5567801594734192e-01" purity="4.0112262964248657e-01" nType="0">
          <Node pos="l" depth="2" NCoef="0" IVar="-1" Cut="0.0000000000000000e+00" cType="1" res="-2.5931084528565407e-03" rms="4.4399362802505493e-01" purity="3.3484825491905212e-01" nType="-99"/>
          <Node pos="r" depth="2" NCoef="0" IVar="-1" Cut="0.0000000000000000e+00" cType="1" res="-9.3114789342507720e-04" rms="4.6013876795768738e-01" purity="4.3737408518791199e-01" nType="-99"/>
        </Node>
        <Node pos="r" depth="1" NCoef="0" IVar="3" Cut="1.5260414123535156e+02" cType="1" res="6.7400271072983742e-03" rms="4.5313143730163574e-01" purity="5.2448093891143799e-01" nType="0">
          <Node pos="l" depth="2" NCoef="0" IVar="-1" Cut="0.0000000000000000e+00" cType="1" res="4.4518118374980986e-04" rms="4.5226147770881653e-01" purity="5.3671997785568237e-01" nType="-99"/>
          <Node pos="r" depth="2" NCoef="0" IVar="-1" Cut="0.0000000000000000e+00" cType="1" res="-2.0852645393460989e-03" rms="4.5568308234214783e-01" purity="3.7654632329940796e-01" nType="-99"/>
        </Node>
      </Node>
    </BinaryTree>
    <BinaryTree type="DecisionTree" boostWeight="1.0000000000000000e+00" itree="411">
      <Node pos="s" depth="0" NCoef="0" IVar="7" Cut="8.8222962617874146e-01" cType="1" res="-6.1703291721642017e-03" rms="4.5761978626251221e-01" purity="5.0012725591659546e-01" nType="0">
        <Node pos="l" depth="1" NCoef="0" IVar="6" Cut="2.1892562508583069e-02" cType="1" res="-1.3817494735121727e-02" rms="4.5977631211280823e-01" purity="4.7631540894508362e-01" nType="0">
          <Node pos="l" depth="2" NCoef="0" IVar="-1" Cut="0.0000000000000000e+00" cType="1" res="-8.6329423356801271e-04" rms="4.6393513679504395e-01" purity="5.0728970766067505e-01" nType="-99"/>
          <Node pos="r" depth="2" NCoef="0" IVar="-1" Cut="0.0000000000000000e+00" cType="1" res="6.3221443269867450e-05" rms="4.5438593626022339e-01" purity="4.4040086865425110e-01" nType="-99"/>
        </Node>
        <Node pos="r" depth="1" NCoef="0" IVar="3" Cut="7.7912643432617188e+01" cType="1" res="4.3531600385904312e-02" rms="4.4012188911437988e-01" purity="6.5489012002944946e-01" nType="0">
          <Node pos="l" depth="2" NCoef="0" IVar="-1" Cut="0.0000000000000000e+00" cType="1" res="5.7908857706934214e-04" rms="4.5870503783226013e-01" purity="5.9891217947006226e-01" nType="-99"/>
          <Node pos="r" depth="2" NCoef="0" IVar="-1" Cut="0.0000000000000000e+00" cType="1" res="3.3961343578994274e-03" rms="4.1325193643569946e-01" purity="7.2497367858886719e-01" nType="-99"/>
        </Node>
      </Node>
    </BinaryTree>
    <BinaryTree type="DecisionTree" boostWeight="1.0000000000000000e+00" itree="412">
      <Node pos="s" depth="0" NCoef="0" IVar="3" Cut="3.4991127014160156e+01" cType="1" res="-8.5938759148120880e-03" rms="4.5594990253448486e-01" purity="4.9660113453865051e-01" nType="0">
        <Node pos="l" depth="1" NCoef="0" IVar="-1" Cut="0.0000000000000000e+00" cType="1" res="-2.2539834026247263e-03" rms="4.4483661651611328e-01" purity="3.3546787500381470e-01" nType="-99"/>
        <Node pos="r" depth="1" NCoef="0" IVar="5" Cut="7.2424912452697754e-01" cType="1" res="-2.7055232785642147e-03" rms="4.5623207092285156e-01" purity="5.0872159004211426e-01" nType="0">
          <Node pos="l" depth="2" NCoef="0" IVar="-1" Cut="0.0000000000000000e+00" cType="1" res="1.4477629447355866e-03" rms="4.4584834575653076e-01" purity="6.8052899837493896e-01" nType="-99"/>
          <Node pos="r" depth="2" NCoef="0" IVar="-1" Cut="0.0000000000000000e+00" cType="1" res="-4.7589727910235524e-04" rms="4.5890375971794128e-01" purity="4.5105162262916565e-01" nType="-99"/>
        </Node>
      </Node>
    </BinaryTree>
    <BinaryTree type="DecisionTree" boostWeight="1.0000000000000000e+00" itree="413">
      <Node pos="s" depth="0" NCoef="0" IVar="9" Cut="7.6303499937057495e-01" cType="1" res="-6.8499078042805195e-03" rms="4.5446693897247314e-01" purity="4.9783003330230713e-01" nType="0">
        <Node pos="l" depth="1" NCoef="0" IVar="-1" Cut="0.0000000000000000e+00" cType="1" res="-2.0791376009583473e-03" rms="4.1251111030578613e-01" purity="2.5410926342010498e-01" nType="-99"/>
        <Node pos="r" depth="1" NCoef="0" IVar="4" Cut="2.7472561645507812e+02" cType="1" res="-1.5570879913866520e-03" rms="4.5696914196014404e-01" purity="5.1583868265151978e-01" nType="0">
          <Node pos="l" depth="2" NCoef="0" IVar="-1" Cut="0.0000000000000000e+00" cType="1" res="2.5063683278858662e-04" rms="4.5886811614036560e-01" purity="5.4414552450180054e-01" nType="-99"/>
          <Node pos="r" depth="2" NCoef="0" IVar="-1" Cut="0.0000000000000000e+00" cType="1" res="-1.1887802975252271e-03" rms="4.4654077291488647e-01" purity="3.9415678381919861e-01" nType="-99"/>
        </Node>
      </Node>
    </BinaryTree>
    <BinaryTree type="DecisionTree" boostWeight="1.0000000000000000e+00" itree="414">
      <Node pos="s" depth="0" NCoef="0" IVar="4" Cut="1.4869987487792969e+02" cType="1" res="-1.1623345315456390e-02" rms="4.5409142971038818e-01" purity="4.9289724230766296e-01" nType="0">
        <Node pos="l" depth="1" NCoef="0" IVar="4" Cut="9.9796981811523438e+01" cType="1" res="7.7056968584656715e-03" rms="4.5103520154953003e-01" purity="5.4408210515975952e-01" nType="0">
          <Node pos="l" depth="2" NCoef="0" IVar="-1" Cut="0.0000000000000000e+00" cType="1" res="-1.2623877264559269e-03" rms="4.5459681749343872e-01" purity="4.4403129816055298e-01" nType="-99"/>
          <Node pos="r" depth="2" NCoef="0" IVar="-1" Cut="0.0000000000000000e+00" cType="1" res="1.7721300246194005e-03" rms="4.4393578171730042e-01" purity="6.2474471330642700e-01" nType="-99"/>
        </Node>
        <Node pos="r" depth="1" NCoef="0" IVar="1" Cut="4.4947624206542969e-01" cType="1" res="-3.2098971307277679e-02" rms="4.5641469955444336e-01" purity="4.3867617845535278e-01" nType="0">
          <Node pos="l" depth="2" NCoef="0" IVar="-1" Cut="0.0000000000000000e+00" cType="1" res="1.7602779553271830e-04" rms="4.6197265386581421e-01" purity="5.6364083290100098e-01" nType="-99"/>
          <Node pos="r" depth="2" NCoef="0" IVar="-1" Cut="0.0000000000000000e+00" cType="1" res="-1.1549228802323341e-03" rms="4.5481446385383606e-01" purity="4.1184985637664795e-01" nType="-99"/>
        </Node>
      </Node>
    </BinaryTree>
    <BinaryTree type="DecisionTree" boostWeight="1.0000000000000000e+00" itree="415">
      <Node pos="s" depth="0" NCoef="0" IVar="4" Cut="2.5536624145507812e+02" cType="1" res="-3.4738285467028618e-03" rms="4.5316573977470398e-01" purity="4.9763160943984985e-01" nType="0">
        <Node pos="l" depth="1" NCoef="0" IVar="3" Cut="3.6168422698974609e+01" cType="1" res="8.3644380792975426e-03" rms="4.5530611276626587e-01" purity="5.3116399049758911e-01" nType="0">
          <Node pos="l" depth="2" NCoef="0" IVar="-1" Cut="0.0000000000000000e+00" cType="1" res="-1.9890796393156052e-03" rms="4.5375975966453552e-01" purity="3.6285355687141418e-01" nType="-99"/>
          <Node pos="r" depth="2" NCoef="0" IVar="-1" Cut="0.0000000000000000e+00" cType="1" res="5.7066819863393903e-04" rms="4.5457306504249573e-01" purity="5.4882621765136719e-01" nType="-99"/>
        </Node>
        <Node pos="r" depth="1" NCoef="0" IVar="3" Cut="7.1482704162597656e+01" cType="1" res="-4.4902496039867401e-02" rms="4.4311136007308960e-01" purity="3.8028323650360107e-01" nType="0">
          <Node pos="l" depth="2" NCoef="0" IVar="-1" Cut="0.0000000000000000e+00" cType="1" res="-2.4534168187528849e-03" rms="4.2051932215690613e-01" purity="2.9146069288253784e-01" nType="-99"/>
          <Node pos="r" depth="2" NCoef="0" IVar="-1" Cut="0.0000000000000000e+00" cType="1" res="-7.1961531648412347e-04" rms="4.5104041695594788e-01" purity="4.1862139105796814e-01" nType="-99"/>
        </Node>
      </Node>
    </BinaryTree>
    <BinaryTree type="DecisionTree" boostWeight="1.0000000000000000e+00" itree="416">
      <Node pos="s" depth="0" NCoef="0" IVar="3" Cut="1.4648326110839844e+02" cType="1" res="-7.0598663296550512e-04" rms="4.5649445056915283e-01" purity="5.0367695093154907e-01" nType="0">
        <Node pos="l" depth="1" NCoef="0" IVar="0" Cut="6.2754923105239868e-01" cType="1" res="5.2037802524864674e-03" rms="4.5689997076988220e-01" purity="5.1506847143173218e-01" nType="0">
          <Node pos="l" depth="2" NCoef="0" IVar="-1" Cut="0.0000000000000000e+00" cType="1" res="3.5767757799476385e-03" rms="4.2015716433525085e-01" purity="7.4675452709197998e-01" nType="-99"/>
          <Node pos="r" depth="2" NCoef="0" IVar="-1" Cut="0.0000000000000000e+00" cType="1" res="-2.8744152587023564e-05" rms="4.5929455757141113e-01" purity="4.9578297138214111e-01" nType="-99"/>
        </Node>
        <Node pos="r" depth="1" NCoef="0" IVar="-1" Cut="0.0000000000000000e+00" cType="1" res="-2.0419149659574032e-03" rms="4.4501298666000366e-01" purity="3.6282932758331299e-01" nType="-99"/>
      </Node>
    </BinaryTree>
    <BinaryTree type="DecisionTree" boostWeight="1.0000000000000000e+00" itree="417">
      <Node pos="s" depth="0" NCoef="0" IVar="3" Cut="1.4553752136230469e+02" cType="1" res="-2.0460264931898564e-04" rms="4.5485892891883850e-01" purity="5.0172907114028931e-01" nType="0">
        <Node pos="l" depth="1" NCoef="0" IVar="3" Cut="1.0523432159423828e+02" cType="1" res="6.1417655088007450e-03" rms="4.5507588982582092e-01" purity="5.1313561201095581e-01" nType="0">
          <Node pos="l" depth="2" NCoef="0" IVar="-1" Cut="0.0000000000000000e+00" cType="1" res="-2.4725272669456899e-04" rms="4.5856565237045288e-01" purity="4.8641869425773621e-01" nType="-99"/>
          <Node pos="r" depth="2" NCoef="0" IVar="-1" Cut="0.0000000000000000e+00" cType="1" res="2.2080983035266399e-03" rms="4.3733298778533936e-01" purity="6.1494886875152588e-01" nType="-99"/>
        </Node>
        <Node pos="r" depth="1" NCoef="0" IVar="-1" Cut="0.0000000000000000e+00" cType="1" res="-2.0863709505647421e-03" rms="4.4535696506500244e-01" purity="3.6578527092933655e-01" nType="-99"/>
      </Node>
    </BinaryTree>
    <BinaryTree type="DecisionTree" boostWeight="1.0000000000000000e+00" itree="418">
      <Node pos="s" depth="0" NCoef="0" IVar="4" Cut="1.6148406982421875e+02" cType="1" res="-3.9381687529385090e-03" rms="4.5870310068130493e-01" purity="5.0139665603637695e-01" nType="0">
        <Node pos="l" depth="1" NCoef="0" IVar="4" Cut="7.2519210815429688e+01" cType="1" res="1.3406614772975445e-02" rms="4.5732137560844421e-01" purity="5.5215317010879517e-01" nType="0">
          <Node pos="l" depth="2" NCoef="0" IVar="-1" Cut="0.0000000000000000e+00" cType="1" res="-1.4362066285684705e-03" rms="4.5103213191032410e-01" purity="3.9648029208183289e-01" nType="-99"/>
          <Node pos="r" depth="2" NCoef="0" IVar="-1" Cut="0.0000000000000000e+00" cType="1" res="9.8541378974914551e-04" rms="4.5750200748443604e-01" purity="5.8891570568084717e-01" nType="-99"/>
        </Node>
        <Node pos="r" depth="1" NCoef="0" IVar="8" Cut="6.1590540409088135e-01" cType="1" res="-2.5515938177704811e-02" rms="4.5950329303741455e-01" purity="4.3825304508209229e-01" nType="0">
          <Node pos="l" depth="2" NCoef="0" IVar="-1" Cut="0.0000000000000000e+00" cType="1" res="-1.0059369960799813e-03" rms="4.5750904083251953e-01" purity="4.0169653296470642e-01" nType="-99"/>
          <Node pos="r" depth="2" NCoef="0" IVar="-1" Cut="0.0000000000000000e+00" cType="1" res="4.3295093928463757e-04" rms="4.6521732211112976e-01" purity="5.7987785339355469e-01" nType="-99"/>
        </Node>
      </Node>
    </BinaryTree>
    <BinaryTree type="DecisionTree" boostWeight="1.0000000000000000e+00" itree="419">
      <Node pos="s" depth="0" NCoef="0" IVar="0" Cut="1.6407283544540405e+00" cType="1" res="-5.6110513396561146e-03" rms="4.5448762178421021e-01" purity="5.0175905227661133e-01" nType="0">
        <Node pos="l" depth="1" NCoef="0" IVar="3" Cut="1.4208750915527344e+02" cType="1" res="4.0048130904324353e-04" rms="4.6007212996482849e-01" purity="5.2931803464889526e-01" nType="0">
          <Node pos="l" depth="2" NCoef="0" IVar="-1" Cut="0.0000000000000000e+00" cType="1" res="1.9347110355738550e-04" rms="4.5941665768623352e-01" purity="5.3921365737915039e-01" nType="-99"/>
          <Node pos="r" depth="2" NCoef="0" IVar="-1" Cut="0.0000000000000000e+00" cType="1" res="-1.8258283380419016e-03" rms="4.6276521682739258e-01" purity="4.1809731721878052e-01" nType="-99"/>
        </Node>
        <Node pos="r" depth="1" NCoef="0" IVar="-1" Cut="0.0000000000000000e+00" cType="1" res="-1.8721166998147964e-03" rms="3.8648462295532227e-01" purity="2.1614062786102295e-01" nType="-99"/>
      </Node>
    </BinaryTree>
    <BinaryTree type="DecisionTree" boostWeight="1.0000000000000000e+00" itree="420">
      <Node pos="s" depth="0" NCoef="0" IVar="4" Cut="3.2226214599609375e+02" cType="1" res="-7.8159640543162823e-04" rms="4.5390427112579346e-01" purity="5.0064647197723389e-01" nType="0">
        <Node pos="l" depth="1" NCoef="0" IVar="1" Cut="1.9371467828750610e+00" cType="1" res="7.7166873961687088e-03" rms="4.5493000745773315e-01" purity="5.2386361360549927e-01" nType="0">
          <Node pos="l" depth="2" NCoef="0" IVar="-1" Cut="0.0000000000000000e+00" cType="1" res="5.6244735606014729e-04" rms="4.6041062474250793e-01" purity="5.6445646286010742e-01" nType="-99"/>
          <Node pos="r" depth="2" NCoef="0" IVar="-1" Cut="0.0000000000000000e+00" cType="1" res="-1.1649073567241430e-03" rms="4.2101976275444031e-01" purity="3.0690327286720276e-01" nType="-99"/>
        </Node>
        <Node pos="r" depth="1" NCoef="0" IVar="6" Cut="1.6765560954809189e-02" cType="1" res="-5.2726369351148605e-02" rms="4.4406229257583618e-01" purity="3.5873439908027649e-01" nType="0">
          <Node pos="l" depth="2" NCoef="0" IVar="-1" Cut="0.0000000000000000e+00" cType="1" res="-2.4765895213931799e-03" rms="4.4637143611907959e-01" purity="3.7504664063453674e-01" nType="-99"/>
          <Node pos="r" depth="2" NCoef="0" IVar="-1" Cut="0.0000000000000000e+00" cType="1" res="-7.2254973929375410e-04" rms="4.4023758172988892e-01" purity="3.4639576077461243e-01" nType="-99"/>
        </Node>
      </Node>
    </BinaryTree>
    <BinaryTree type="DecisionTree" boostWeight="1.0000000000000000e+00" itree="421">
      <Node pos="s" depth="0" NCoef="0" IVar="0" Cut="9.8619073629379272e-01" cType="1" res="-8.4250383079051971e-03" rms="4.5517730712890625e-01" purity="4.9570006132125854e-01" nType="0">
        <Node pos="l" depth="1" NCoef="0" IVar="0" Cut="6.1079567670822144e-01" cType="1" res="1.1418292298913002e-02" rms="4.5949676632881165e-01" purity="6.4163166284561157e-01" nType="0">
          <Node pos="l" depth="2" NCoef="0" IVar="-1" Cut="0.0000000000000000e+00" cType="1" res="2.4506272748112679e-03" rms="4.3199229240417480e-01" purity="7.2831636667251587e-01" nType="-99"/>
          <Node pos="r" depth="2" NCoef="0" IVar="-1" Cut="0.0000000000000000e+00" cType="1" res="8.3864768384955823e-05" rms="4.6455079317092896e-01" purity="6.2344413995742798e-01" nType="-99"/>
        </Node>
        <Node pos="r" depth="1" NCoef="0" IVar="3" Cut="4.5548973083496094e+01" cType="1" res="-2.0381711423397064e-02" rms="4.5213440060615540e-01" purity="4.0776839852333069e-01" nType="0">
          <Node pos="l" depth="2" NCoef="0" IVar="-1" Cut="0.0000000000000000e+00" cType="1" res="-1.7567295581102371e-03" rms="4.3497434258460999e-01" purity="3.0767530202865601e-01" nType="-99"/>
          <Node pos="r" depth="2" NCoef="0" IVar="-1" Cut="0.0000000000000000e+00" cType="1" res="-3.2337583252228796e-04" rms="4.5492506027221680e-01" purity="4.2782771587371826e-01" nType="-99"/>
        </Node>
      </Node>
    </BinaryTree>
    <BinaryTree type="DecisionTree" boostWeight="1.0000000000000000e+00" itree="422">
      <Node pos="s" depth="0" NCoef="0" IVar="5" Cut="1.4630533456802368e+00" cType="1" res="-3.7624726537615061e-03" rms="4.5360890030860901e-01" purity="4.9808561801910400e-01" nType="0">
        <Node pos="l" depth="1" NCoef="0" IVar="3" Cut="3.7697723388671875e+01" cType="1" res="6.6790804266929626e-03" rms="4.6531081199645996e-01" purity="5.6559211015701294e-01" nType="0">
          <Node pos="l" depth="2" NCoef="0" IVar="-1" Cut="0.0000000000000000e+00" cType="1" res="-1.5468817437067628e-03" rms="4.7213518619537354e-01" purity="4.1103604435920715e-01" nType="-99"/>
          <Node pos="r" depth="2" NCoef="0" IVar="-1" Cut="0.0000000000000000e+00" cType="1" res="4.5957736438140273e-04" rms="4.6402183175086975e-01" purity="5.8232885599136353e-01" nType="-99"/>
        </Node>
        <Node pos="r" depth="1" NCoef="0" IVar="3" Cut="8.2202293395996094e+01" cType="1" res="-4.6773932874202728e-02" rms="3.9895752072334290e-01" purity="2.2000880539417267e-01" nType="0">
          <Node pos="l" depth="2" NCoef="0" IVar="-1" Cut="0.0000000000000000e+00" cType="1" res="-1.9686645828187466e-03" rms="3.6101174354553223e-01" purity="1.6492715477943420e-01" nType="-99"/>
          <Node pos="r" depth="2" NCoef="0" IVar="-1" Cut="0.0000000000000000e+00" cType="1" res="-7.0822780253365636e-04" rms="4.2829576134681702e-01" purity="2.6808238029479980e-01" nType="-99"/>
        </Node>
      </Node>
    </BinaryTree>
    <BinaryTree type="DecisionTree" boostWeight="1.0000000000000000e+00" itree="423">
      <Node pos="s" depth="0" NCoef="0" IVar="0" Cut="1.4895652532577515e+00" cType="1" res="-1.1432046070694923e-02" rms="4.5642718672752380e-01" purity="4.9427479505538940e-01" nType="0">
        <Node pos="l" depth="1" NCoef="0" IVar="8" Cut="6.6453647613525391e-01" cType="1" res="-4.3051824904978275e-03" rms="4.6413859724998474e-01" purity="5.3948479890823364e-01" nType="0">
          <Node pos="l" depth="2" NCoef="0" IVar="-1" Cut="0.0000000000000000e+00" cType="1" res="-2.8514614677987993e-04" rms="4.6653109788894653e-01" purity="5.2531540393829346e-01" nType="-99"/>
          <Node pos="r" depth="2" NCoef="0" IVar="-1" Cut="0.0000000000000000e+00" cType="1" res="2.1772789768874645e-03" rms="4.3088045716285706e-01" purity="7.0721602439880371e-01" nType="-99"/>
        </Node>
        <Node pos="r" depth="1" NCoef="0" IVar="3" Cut="9.7032234191894531e+01" cType="1" res="-4.7054853290319443e-02" rms="4.1390836238861084e-01" purity="2.6829800009727478e-01" nType="0">
          <Node pos="l" depth="2" NCoef="0" IVar="-1" Cut="0.0000000000000000e+00" cType="1" res="-2.0767706446349621e-03" rms="3.9154043793678284e-01" purity="2.2362674772739410e-01" nType="-99"/>
          <Node pos="r" depth="2" NCoef="0" IVar="-1" Cut="0.0000000000000000e+00" cType="1" res="3.5587565889727557e-06" rms="4.4356912374496460e-01" purity="3.4030300378799438e-01" nType="-99"/>
        </Node>
      </Node>
    </BinaryTree>
    <BinaryTree type="DecisionTree" boostWeight="1.0000000000000000e+00" itree="424">
      <Node pos="s" depth="0" NCoef="0" IVar="8" Cut="6.4669108390808105e-01" cType="1" res="-4.6319495886564255e-03" rms="4.5638567209243774e-01" purity="5.0015437602996826e-01" nType="0">
        <Node pos="l" depth="1" NCoef="0" IVar="0" Cut="7.5507545471191406e-01" cType="1" res="-1.0976590216159821e-02" rms="4.5779702067375183e-01" purity="4.7663205862045288e-01" nType="0">
          <Node pos="l" depth="2" NCoef="0" IVar="-1" Cut="0.0000000000000000e+00" cType="1" res="1.1151519138365984e-03" rms="4.5547187328338623e-01" purity="6.7223322391510010e-01" nType="-99"/>
          <Node pos="r" depth="2" NCoef="0" IVar="-1" Cut="0.0000000000000000e+00" cType="1" res="-5.2119954489171505e-04" rms="4.5785281062126160e-01" purity="4.4372224807739258e-01" nType="-99"/>
        </Node>
        <Node pos="r" depth="1" NCoef="0" IVar="4" Cut="1.4544177246093750e+02" cType="1" res="3.9870731532573700e-02" rms="4.4381868839263916e-01" purity="6.6514497995376587e-01" nType="0">
          <Node pos="l" depth="2" NCoef="0" IVar="-1" Cut="0.0000000000000000e+00" cType="1" res="3.1116567552089691e-03" rms="4.1851755976676941e-01" purity="7.1932840347290039e-01" nType="-99"/>
          <Node pos="r" depth="2" NCoef="0" IVar="-1" Cut="0.0000000000000000e+00" cType="1" res="1.9474612781777978e-04" rms="4.6851065754890442e-01" purity="6.0365235805511475e-01" nType="-99"/>
        </Node>
      </Node>
    </BinaryTree>
    <BinaryTree type="DecisionTree" boostWeight="1.0000000000000000e+00" itree="425">
      <Node pos="s" depth="0" NCoef="0" IVar="1" Cut="1.5972342491149902e+00" cType="1" res="-5.8352616615593433e-03" rms="4.5519283413887024e-01" purity="4.9785929918289185e-01" nType="0">
        <Node pos="l" depth="1" NCoef="0" IVar="3" Cut="8.8032302856445312e+01" cType="1" res="4.2977132834494114e-03" rms="4.6007183194160461e-01" purity="5.5317515134811401e-01" nType="0">
          <Node pos="l" depth="2" NCoef="0" IVar="-1" Cut="0.0000000000000000e+00" cType="1" res="-3.3579478622414172e-04" rms="4.6764108538627625e-01" purity="5.1520007848739624e-01" nType="-99"/>
          <Node pos="r" depth="2" NCoef="0" IVar="-1" Cut="0.0000000000000000e+00" cType="1" res="1.0643841233104467e-03" rms="4.4642424583435059e-01" purity="6.1478078365325928e-01" nType="-99"/>
        </Node>
        <Node pos="r" depth="1" NCoef="0" IVar="3" Cut="5.6755405426025391e+01" cType="1" res="-3.5563461482524872e-02" rms="4.3922016024589539e-01" purity="3.3557325601577759e-01" nType="0">
          <Node pos="l" depth="2" NCoef="0" IVar="-1" Cut="0.0000000000000000e+00" cType="1" res="-1.6281654825434089e-03" rms="4.1692072153091431e-01" purity="2.7648535370826721e-01" nType="-99"/>
          <Node pos="r" depth="2" NCoef="0" IVar="-1" Cut="0.0000000000000000e+00" cType="1" res="-6.9576338864862919e-04" rms="4.4843113422393799e-01" purity="3.6211046576499939e-01" nType="-99"/>
        </Node>
      </Node>
    </BinaryTree>
    <BinaryTree type="DecisionTree" boostWeight="1.0000000000000000e+00" itree="426">
      <Node pos="s" depth="0" NCoef="0" IVar="2" Cut="7.4339723587036133e-01" cType="1" res="7.7902176417410374e-04" rms="4.5452937483787537e-01" purity="5.0465667247772217e-01" nType="0">
        <Node pos="l" depth="1" NCoef="0" IVar="-1" Cut="0.0000000000000000e+00" cType="1" res="-1.4338622568175197e-03" rms="4.2646163702011108e-01" purity="2.7074101567268372e-01" nType="-99"/>
        <Node pos="r" depth="1" NCoef="0" IVar="3" Cut="1.4634167480468750e+02" cType="1" res="6.5469015389680862e-03" rms="4.5700314640998840e-01" purity="5.2929067611694336e-01" nType="0">
          <Node pos="l" depth="2" NCoef="0" IVar="-1" Cut="0.0000000000000000e+00" cType="1" res="3.8617083919234574e-04" rms="4.5662856101989746e-01" purity="5.3999567031860352e-01" nType="-99"/>
          <Node pos="r" depth="2" NCoef="0" IVar="-1" Cut="0.0000000000000000e+00" cType="1" res="-1.6286803875118494e-03" rms="4.5672771334648132e-01" purity="3.9945071935653687e-01" nType="-99"/>
        </Node>
      </Node>
    </BinaryTree>
    <BinaryTree type="DecisionTree" boostWeight="1.0000000000000000e+00" itree="427">
      <Node pos="s" depth="0" NCoef="0" IVar="4" Cut="1.4840426635742188e+02" cType="1" res="-1.1410919949412346e-02" rms="4.5691376924514771e-01" purity="4.9474340677261353e-01" nType="0">
        <Node pos="l" depth="1" NCoef="0" IVar="4" Cut="1.0492387390136719e+02" cType="1" res="8.1467526033520699e-03" rms="4.5376417040824890e-01" purity="5.4553830623626709e-01" nType="0">
          <Node pos="l" depth="2" NCoef="0" IVar="-1" Cut="0.0000000000000000e+00" cType="1" res="-8.5929944179952145e-04" rms="4.5861831307411194e-01" purity="4.6874913573265076e-01" nType="-99"/>
          <Node pos="r" depth="2" NCoef="0" IVar="-1" Cut="0.0000000000000000e+00" cType="1" res="1.6809047665446997e-03" rms="4.4548666477203369e-01" purity="6.2524402141571045e-01" nType="-99"/>
        </Node>
        <Node pos="r" depth="1" NCoef="0" IVar="3" Cut="1.4294863891601562e+02" cType="1" res="-3.2851304858922958e-02" rms="4.5938608050346375e-01" purity="4.3905884027481079e-01" nType="0">
          <Node pos="l" depth="2" NCoef="0" IVar="-1" Cut="0.0000000000000000e+00" cType="1" res="-8.0409779911860824e-04" rms="4.6208783984184265e-01" purity="4.5197772979736328e-01" nType="-99"/>
          <Node pos="r" depth="2" NCoef="0" IVar="-1" Cut="0.0000000000000000e+00" cType="1" res="-2.0157760009169579e-03" rms="4.4092032313346863e-01" purity="3.6127349734306335e-01" nType="-99"/>
        </Node>
      </Node>
    </BinaryTree>
    <BinaryTree type="DecisionTree" boostWeight="1.0000000000000000e+00" itree="428">
      <Node pos="s" depth="0" NCoef="0" IVar="7" Cut="5.2560460567474365e-01" cType="1" res="-6.5907654352486134e-03" rms="4.5479589700698853e-01" purity="4.9738478660583496e-01" nType="0">
        <Node pos="l" depth="1" NCoef="0" IVar="2" Cut="7.8937298059463501e-01" cType="1" res="-5.0851557403802872e-02" rms="4.4084590673446655e-01" purity="3.4559816122055054e-01" nType="0">
          <Node pos="l" depth="2" NCoef="0" IVar="-1" Cut="0.0000000000000000e+00" cType="1" res="-1.9380958983674645e-03" rms="4.2425435781478882e-01" purity="2.7617424726486206e-01" nType="-99"/>
          <Node pos="r" depth="2" NCoef="0" IVar="-1" Cut="0.0000000000000000e+00" cType="1" res="-5.7260791072621942e-04" rms="4.6072450280189514e-01" purity="4.4029614329338074e-01" nType="-99"/>
        </Node>
        <Node pos="r" depth="1" NCoef="0" IVar="4" Cut="6.5481933593750000e+01" cType="1" res="1.6504728409927338e-04" rms="4.5651036500930786e-01" purity="5.2055293321609497e-01" nType="0">
          <Node pos="l" depth="2" NCoef="0" IVar="-1" Cut="0.0000000000000000e+00" cType="1" res="-1.5711183659732342e-03" rms="4.4882941246032715e-01" purity="3.8753777742385864e-01" nType="-99"/>
          <Node pos="r" depth="2" NCoef="0" IVar="-1" Cut="0.0000000000000000e+00" cType="1" res="1.7861045489553362e-04" rms="4.5687648653984070e-01" purity="5.3315055370330811e-01" nType="-99"/>
        </Node>
      </Node>
    </BinaryTree>
    <BinaryTree type="DecisionTree" boostWeight="1.0000000000000000e+00" itree="429">
      <Node pos="s" depth="0" NCoef="0" IVar="1" Cut="1.9953173398971558e+00" cType="1" res="-1.9543652888387442e-03" rms="4.5761656761169434e-01" purity="5.0401628017425537e-01" nType="0">
        <Node pos="l" depth="1" NCoef="0" IVar="4" Cut="3.9872167968750000e+02" cType="1" res="5.0172610208392143e-03" rms="4.6354103088378906e-01" purity="5.4170227050781250e-01" nType="0">
          <Node pos="l" depth="2" NCoef="0" IVar="-1" Cut="0.0000000000000000e+00" cType="1" res="3.6030396586284041e-04" rms="4.6559593081474304e-01" purity="5.5872076749801636e-01" nType="-99"/>
          <Node pos="r" depth="2" NCoef="0" IVar="-1" Cut="0.0000000000000000e+00" cType="1" res="-1.7835719045251608e-03" rms="4.3205094337463379e-01" purity="3.3786994218826294e-01" nType="-99"/>
        </Node>
        <Node pos="r" depth="1" NCoef="0" IVar="5" Cut="1.3821332454681396e+00" cType="1" res="-4.0628906339406967e-02" rms="4.2115706205368042e-01" purity="2.9495593905448914e-01" nType="0">
          <Node pos="l" depth="2" NCoef="0" IVar="-1" Cut="0.0000000000000000e+00" cType="1" res="-4.4164029532112181e-04" rms="4.7134765982627869e-01" purity="4.3674439191818237e-01" nType="-99"/>
          <Node pos="r" depth="2" NCoef="0" IVar="-1" Cut="0.0000000000000000e+00" cType="1" res="-1.7005475237965584e-03" rms="3.7502181529998779e-01" purity="1.8151663243770599e-01" nType="-99"/>
        </Node>
      </Node>
    </BinaryTree>
    <BinaryTree type="DecisionTree" boostWeight="1.0000000000000000e+00" itree="430">
      <Node pos="s" depth="0" NCoef="0" IVar="3" Cut="4.6528812408447266e+01" cType="1" res="-1.6220316756516695e-03" rms="4.5335280895233154e-01" purity="5.0194638967514038e-01" nType="0">
        <Node pos="l" depth="1" NCoef="0" IVar="3" Cut="3.7022068023681641e+01" cType="1" res="-4.1726153343915939e-02" rms="4.5353057980537415e-01" purity="4.0624415874481201e-01" nType="0">
          <Node pos="l" depth="2" NCoef="0" IVar="-1" Cut="0.0000000000000000e+00" cType="1" res="-2.1652143914252520e-03" rms="4.4674414396286011e-01" purity="3.4581005573272705e-01" nType="-99"/>
          <Node pos="r" depth="2" NCoef="0" IVar="-1" Cut="0.0000000000000000e+00" cType="1" res="-2.3732775298412889e-04" rms="4.5657455921173096e-01" purity="4.5807915925979614e-01" nType="-99"/>
        </Node>
        <Node pos="r" depth="1" NCoef="0" IVar="8" Cut="6.2170869112014771e-01" cType="1" res="7.7905026264488697e-03" rms="4.5279669761657715e-01" purity="5.2440792322158813e-01" nType="0">
          <Node pos="l" depth="2" NCoef="0" IVar="-1" Cut="0.0000000000000000e+00" cType="1" res="-1.0970955918310210e-04" rms="4.5700550079345703e-01" purity="4.8678731918334961e-01" nType="-99"/>
          <Node pos="r" depth="2" NCoef="0" IVar="-1" Cut="0.0000000000000000e+00" cType="1" res="2.1809514146298170e-03" rms="4.3261772394180298e-01" purity="6.7472255229949951e-01" nType="-99"/>
        </Node>
      </Node>
    </BinaryTree>
    <BinaryTree type="DecisionTree" boostWeight="1.0000000000000000e+00" itree="431">
      <Node pos="s" depth="0" NCoef="0" IVar="5" Cut="6.1287921667098999e-01" cType="1" res="-3.8536351639777422e-03" rms="4.5425513386726379e-01" purity="5.0130170583724976e-01" nType="0">
        <Node pos="l" depth="1" NCoef="0" IVar="1" Cut="6.4286404848098755e-01" cType="1" res="3.7950310856103897e-02" rms="4.4747728109359741e-01" purity="6.7762899398803711e-01" nType="0">
          <Node pos="l" depth="2" NCoef="0" IVar="-1" Cut="0.0000000000000000e+00" cType="1" res="3.0716194305568933e-03" rms="4.2687645554542542e-01" purity="7.3268926143646240e-01" nType="-99"/>
          <Node pos="r" depth="2" NCoef="0" IVar="-1" Cut="0.0000000000000000e+00" cType="1" res="2.6086243451572955e-04" rms="4.6490877866744995e-01" purity="6.2324476242065430e-01" nType="-99"/>
        </Node>
        <Node pos="r" depth="1" NCoef="0" IVar="3" Cut="7.9019973754882812e+01" cType="1" res="-1.2356474995613098e-02" rms="4.5515173673629761e-01" purity="4.6543708443641663e-01" nType="0">
          <Node pos="l" depth="2" NCoef="0" IVar="-1" Cut="0.0000000000000000e+00" cType="1" res="-8.9714652858674526e-04" rms="4.5593672990798950e-01" purity="4.2090621590614319e-01" nType="-99"/>
          <Node pos="r" depth="2" NCoef="0" IVar="-1" Cut="0.0000000000000000e+00" cType="1" res="2.8539434424601495e-04" rms="4.5333576202392578e-01" purity="5.1564645767211914e-01" nType="-99"/>
        </Node>
      </Node>
    </BinaryTree>
    <BinaryTree type="DecisionTree" boostWeight="1.0000000000000000e+00" itree="432">
      <Node pos="s" depth="0" NCoef="0" IVar="8" Cut="6.5012240409851074e-01" cType="1" res="4.3468191870488226e-04" rms="4.5374637842178345e-01" purity="5.0164073705673218e-01" nType="0">
        <Node pos="l" depth="1" NCoef="0" IVar="0" Cut="7.3584592342376709e-01" cType="1" res="-7.5704483315348625e-03" rms="4.5654124021530151e-01" purity="4.7908473014831543e-01" nType="0">
          <Node pos="l" depth="2" NCoef="0" IVar="-1" Cut="0.0000000000000000e+00" cType="1" res="1.4723290223628283e-03" rms="4.5048081874847412e-01" purity="6.8691998720169067e-01" nType="-99"/>
          <Node pos="r" depth="2" NCoef="0" IVar="-1" Cut="0.0000000000000000e+00" cType="1" res="-4.2395063792355359e-04" rms="4.5706862211227417e-01" purity="4.4800600409507751e-01" nType="-99"/>
        </Node>
        <Node pos="r" depth="1" NCoef="0" IVar="4" Cut="1.3752310180664062e+02" cType="1" res="6.1417270451784134e-02" rms="4.2696353793144226e-01" purity="6.7347103357315063e-01" nType="0">
          <Node pos="l" depth="2" NCoef="0" IVar="-1" Cut="0.0000000000000000e+00" cType="1" res="3.8446707185357809e-03" rms="4.0827655792236328e-01" purity="7.2268438339233398e-01" nType="-99"/>
          <Node pos="r" depth="2" NCoef="0" IVar="-1" Cut="0.0000000000000000e+00" cType="1" res="1.3950298307463527e-03" rms="4.4251862168312073e-01" purity="6.2692523002624512e-01" nType="-99"/>
        </Node>
      </Node>
    </BinaryTree>
    <BinaryTree type="DecisionTree" boostWeight="1.0000000000000000e+00" itree="433">
      <Node pos="s" depth="0" NCoef="0" IVar="4" Cut="6.6589035034179688e+01" cType="1" res="-4.5892521739006042e-03" rms="4.5357501506805420e-01" purity="4.9882325530052185e-01" nType="0">
        <Node pos="l" depth="1" NCoef="0" IVar="-1" Cut="0.0000000000000000e+00" cType="1" res="-1.8639166373759508e-03" rms="4.4701284170150757e-01" purity="3.6584323644638062e-01" nType="-99"/>
        <Node pos="r" depth="1" NCoef="0" IVar="4" Cut="1.5953289794921875e+02" cType="1" res="1.1754826409742236e-03" rms="4.5375061035156250e-01" purity="5.1119399070739746e-01" nType="0">
          <Node pos="l" depth="2" NCoef="0" IVar="-1" Cut="0.0000000000000000e+00" cType="1" res="7.2867615381255746e-04" rms="4.5264813303947449e-01" purity="5.7550060749053955e-01" nType="-99"/>
          <Node pos="r" depth="2" NCoef="0" IVar="-1" Cut="0.0000000000000000e+00" cType="1" res="-6.0480338288471103e-04" rms="4.5393761992454529e-01" purity="4.4312161207199097e-01" nType="-99"/>
        </Node>
      </Node>
    </BinaryTree>
    <BinaryTree type="DecisionTree" boostWeight="1.0000000000000000e+00" itree="434">
      <Node pos="s" depth="0" NCoef="0" IVar="1" Cut="1.0653722286224365e+00" cType="1" res="-1.6193017363548279e-03" rms="4.5482343435287476e-01" purity="5.0095260143280029e-01" nType="0">
        <Node pos="l" depth="1" NCoef="0" IVar="3" Cut="9.3259597778320312e+01" cType="1" res="1.5819339081645012e-02" rms="4.5646050572395325e-01" purity="5.8693826198577881e-01" nType="0">
          <Node pos="l" depth="2" NCoef="0" IVar="-1" Cut="0.0000000000000000e+00" cType="1" res="-6.5681429987307638e-05" rms="4.7137585282325745e-01" purity="5.5138176679611206e-01" nType="-99"/>
          <Node pos="r" depth="2" NCoef="0" IVar="-1" Cut="0.0000000000000000e+00" cType="1" res="1.9857252482324839e-03" rms="4.2386382818222046e-01" purity="6.5598791837692261e-01" nType="-99"/>
        </Node>
        <Node pos="r" depth="1" NCoef="0" IVar="4" Cut="8.6385887145996094e+01" cType="1" res="-2.1782755851745605e-02" rms="4.5208540558815002e-01" purity="4.0153154730796814e-01" nType="0">
          <Node pos="l" depth="2" NCoef="0" IVar="-1" Cut="0.0000000000000000e+00" cType="1" res="-1.8110171658918262e-03" rms="4.3237242102622986e-01" purity="3.0839678645133972e-01" nType="-99"/>
          <Node pos="r" depth="2" NCoef="0" IVar="-1" Cut="0.0000000000000000e+00" cType="1" res="-3.7022502510808408e-04" rms="4.5547753572463989e-01" purity="4.2058011889457703e-01" nType="-99"/>
        </Node>
      </Node>
    </BinaryTree>
    <BinaryTree type="DecisionTree" boostWeight="1.0000000000000000e+00" itree="435">
      <Node pos="s" depth="0" NCoef="0" IVar="0" Cut="1.6420197486877441e+00" cType="1" res="-2.2848290391266346e-03" rms="4.5400011539459229e-01" purity="5.0258338451385498e-01" nType="0">
        <Node pos="l" depth="1" NCoef="0" IVar="4" Cut="3.6838244628906250e+02" cType="1" res="3.7195228505879641e-03" rms="4.5919194817543030e-01" purity="5.2995753288269043e-01" nType="0">
          <Node pos="l" depth="2" NCoef="0" IVar="-1" Cut="0.0000000000000000e+00" cType="1" res="3.0603527557104826e-04" rms="4.6044218540191650e-01" purity="5.4583150148391724e-01" nType="-99"/>
          <Node pos="r" depth="2" NCoef="0" IVar="-1" Cut="0.0000000000000000e+00" cType="1" res="-1.4753302093595266e-03" rms="4.4282162189483643e-01" purity="3.7303724884986877e-01" nType="-99"/>
        </Node>
        <Node pos="r" depth="1" NCoef="0" IVar="-1" Cut="0.0000000000000000e+00" cType="1" res="-1.7805087845772505e-03" rms="3.9128884673118591e-01" purity="2.2073195874691010e-01" nType="-99"/>
      </Node>
    </BinaryTree>
    <BinaryTree type="DecisionTree" boostWeight="1.0000000000000000e+00" itree="436">
      <Node pos="s" depth="0" NCoef="0" IVar="0" Cut="6.5709257125854492e-01" cType="1" res="3.0009634792804718e-04" rms="4.5296114683151245e-01" purity="5.0714254379272461e-01" nType="0">
        <Node pos="l" depth="1" NCoef="0" IVar="-1" Cut="0.0000000000000000e+00" cType="1" res="2.7732164599001408e-03" rms="4.2574706673622131e-01" purity="7.3561495542526245e-01" nType="-99"/>
        <Node pos="r" depth="1" NCoef="0" IVar="2" Cut="7.2693395614624023e-01" cType="1" res="-5.7417745701968670e-03" rms="4.5512035489082336e-01" purity="4.8453578352928162e-01" nType="0">
          <Node pos="l" depth="2" NCoef="0" IVar="-1" Cut="0.0000000000000000e+00" cType="1" res="-1.8857981776818633e-03" rms="4.0872982144355774e-01" purity="2.4018310010433197e-01" nType="-99"/>
          <Node pos="r" depth="2" NCoef="0" IVar="-1" Cut="0.0000000000000000e+00" cType="1" res="-2.5846869903034531e-05" rms="4.5804658532142639e-01" purity="5.0293570756912231e-01" nType="-99"/>
        </Node>
      </Node>
    </BinaryTree>
    <BinaryTree type="DecisionTree" boostWeight="1.0000000000000000e+00" itree="437">
      <Node pos="s" depth="0" NCoef="0" IVar="1" Cut="4.0112572908401489e-01" cType="1" res="-6.0694846324622631e-03" rms="4.5654374361038208e-01" purity="5.0056123733520508e-01" nType="0">
        <Node pos="l" depth="1" NCoef="0" IVar="1" Cut="2.0183596014976501e-01" cType="1" res="3.9917815476655960e-02" rms="4.4851210713386536e-01" purity="6.4669066667556763e-01" nType="0">
          <Node pos="l" depth="2" NCoef="0" IVar="-1" Cut="0.0000000000000000e+00" cType="1" res="3.3301375806331635e-03" rms="4.3113178014755249e-01" purity="6.9063860177993774e-01" nType="-99"/>
          <Node pos="r" depth="2" NCoef="0" IVar="-1" Cut="0.0000000000000000e+00" cType="1" res="6.7053269594907761e-04" rms="4.5555758476257324e-01" purity="6.2448263168334961e-01" nType="-99"/>
        </Node>
        <Node pos="r" depth="1" NCoef="0" IVar="3" Cut="4.3687431335449219e+01" cType="1" res="-1.4381153509020805e-02" rms="4.5748734474182129e-01" purity="4.7415006160736084e-01" nType="0">
          <Node pos="l" depth="2" NCoef="0" IVar="-1" Cut="0.0000000000000000e+00" cType="1" res="-1.5621735947206616e-03" rms="4.4719517230987549e-01" purity="3.6940333247184753e-01" nType="-99"/>
          <Node pos="r" depth="2" NCoef="0" IVar="-1" Cut="0.0000000000000000e+00" cType="1" res="-1.9632153271231800e-04" rms="4.5895081758499146e-01" purity="4.9388885498046875e-01" nType="-99"/>
        </Node>
      </Node>
    </BinaryTree>
    <BinaryTree type="DecisionTree" boostWeight="1.0000000000000000e+00" itree="438">
      <Node pos="s" depth="0" NCoef="0" IVar="2" Cut="8.4624832868576050e-01" cType="1" res="-8.1695420667529106e-03" rms="4.5370480418205261e-01" purity="4.9605149030685425e-01" nType="0">
        <Node pos="l" depth="1" NCoef="0" IVar="0" Cut="7.6989120244979858e-01" cType="1" res="-2.8031697496771812e-02" rms="4.5154449343681335e-01" purity="3.7482264637947083e-01" nType="0">
          <Node pos="l" depth="2" NCoef="0" IVar="-1" Cut="0.0000000000000000e+00" cType="1" res="1.0862913914024830e-03" rms="4.7620609402656555e-01" purity="5.9412473440170288e-01" nType="-99"/>
          <Node pos="r" depth="2" NCoef="0" IVar="-1" Cut="0.0000000000000000e+00" cType="1" res="-1.0448246030136943e-03" rms="4.4647687673568726e-01" purity="3.3830046653747559e-01" nType="-99"/>
        </Node>
        <Node pos="r" depth="1" NCoef="0" IVar="9" Cut="9.6836113929748535e-01" cType="1" res="7.0028319023549557e-03" rms="4.5476403832435608e-01" purity="5.8865624666213989e-01" nType="0">
          <Node pos="l" depth="2" NCoef="0" IVar="-1" Cut="0.0000000000000000e+00" cType="1" res="-7.3684070957824588e-04" rms="4.5972055196762085e-01" purity="5.3232747316360474e-01" nType="-99"/>
          <Node pos="r" depth="2" NCoef="0" IVar="-1" Cut="0.0000000000000000e+00" cType="1" res="6.5434066345915198e-04" rms="4.5238810777664185e-01" purity="6.0974645614624023e-01" nType="-99"/>
        </Node>
      </Node>
    </BinaryTree>
    <BinaryTree type="DecisionTree" boostWeight="1.0000000000000000e+00" itree="439">
      <Node pos="s" depth="0" NCoef="0" IVar="1" Cut="3.8535660505294800e-01" cType="1" res="-4.7395066358149052e-03" rms="4.5603609085083008e-01" purity="4.9620336294174194e-01" nType="0">
        <Node pos="l" depth="1" NCoef="0" IVar="1" Cut="2.8959316015243530e-01" cType="1" res="4.4832233339548111e-02" rms="4.4252339005470276e-01" purity="6.5066623687744141e-01" nType="0">
          <Node pos="l" depth="2" NCoef="0" IVar="-1" Cut="0.0000000000000000e+00" cType="1" res="2.7485592290759087e-03" rms="4.3425428867340088e-01" purity="6.8209660053253174e-01" nType="-99"/>
          <Node pos="r" depth="2" NCoef="0" IVar="-1" Cut="0.0000000000000000e+00" cType="1" res="2.4521164596080780e-04" rms="4.5384749770164490e-01" purity="5.9682983160018921e-01" nType="-99"/>
        </Node>
        <Node pos="r" depth="1" NCoef="0" IVar="3" Cut="5.9455116271972656e+01" cType="1" res="-1.2807967141270638e-02" rms="4.5768997073173523e-01" purity="4.7106248140335083e-01" nType="0">
          <Node pos="l" depth="2" NCoef="0" IVar="-1" Cut="0.0000000000000000e+00" cType="1" res="-1.0373934637755156e-03" rms="4.5572745800018311e-01" purity="4.1855511069297791e-01" nType="-99"/>
          <Node pos="r" depth="2" NCoef="0" IVar="-1" Cut="0.0000000000000000e+00" cType="1" res="-1.5593604985042475e-05" rms="4.5823645591735840e-01" purity="4.9863421916961670e-01" nType="-99"/>
        </Node>
      </Node>
    </BinaryTree>
    <BinaryTree type="DecisionTree" boostWeight="1.0000000000000000e+00" itree="440">
      <Node pos="s" depth="0" NCoef="0" IVar="7" Cut="6.7278885841369629e-01" cType="1" res="-3.5688704811036587e-03" rms="4.5213016867637634e-01" purity="4.9913913011550903e-01" nType="0">
        <Node pos="l" depth="1" NCoef="0" IVar="5" Cut="1.1418600082397461e+00" cType="1" res="-2.1114697679877281e-02" rms="4.4989606738090515e-01" purity="4.1059589385986328e-01" nType="0">
          <Node pos="l" depth="2" NCoef="0" IVar="-1" Cut="0.0000000000000000e+00" cType="1" res="-1.5568849630653858e-04" rms="4.7450745105743408e-01" purity="5.2929854393005371e-01" nType="-99"/>
          <Node pos="r" depth="2" NCoef="0" IVar="-1" Cut="0.0000000000000000e+00" cType="1" res="-1.1596888070926070e-03" rms="4.1425335407257080e-01" purity="2.5394490361213684e-01" nType="-99"/>
        </Node>
        <Node pos="r" depth="1" NCoef="0" IVar="4" Cut="1.6148406982421875e+02" cType="1" res="1.6790943220257759e-02" rms="4.5385938882827759e-01" purity="6.0188287496566772e-01" nType="0">
          <Node pos="l" depth="2" NCoef="0" IVar="-1" Cut="0.0000000000000000e+00" cType="1" res="1.5178679022938013e-03" rms="4.4435590505599976e-01" purity="6.5451270341873169e-01" nType="-99"/>
          <Node pos="r" depth="2" NCoef="0" IVar="-1" Cut="0.0000000000000000e+00" cType="1" res="-4.2499875416979194e-04" rms="4.6474710106849670e-01" purity="5.3052103519439697e-01" nType="-99"/>
        </Node>
      </Node>
    </BinaryTree>
    <BinaryTree type="DecisionTree" boostWeight="1.0000000000000000e+00" itree="441">
      <Node pos="s" depth="0" NCoef="0" IVar="5" Cut="1.7534837722778320e+00" cType="1" res="1.7525777220726013e-03" rms="4.5373806357383728e-01" purity="5.0685715675354004e-01" nType="0">
        <Node pos="l" depth="1" NCoef="0" IVar="7" Cut="5.5718690156936646e-01" cType="1" res="7.2445282712578773e-03" rms="4.6099361777305603e-01" purity="5.3965330123901367e-01" nType="0">
          <Node pos="l" depth="2" NCoef="0" IVar="-1" Cut="0.0000000000000000e+00" cType="1" res="-7.4328540358692408e-04" rms="4.5619255304336548e-01" purity="3.9767467975616455e-01" nType="-99"/>
          <Node pos="r" depth="2" NCoef="0" IVar="-1" Cut="0.0000000000000000e+00" cType="1" res="6.0260709142312407e-04" rms="4.6194621920585632e-01" purity="5.8321827650070190e-01" nType="-99"/>
        </Node>
        <Node pos="r" depth="1" NCoef="0" IVar="-1" Cut="0.0000000000000000e+00" cType="1" res="-1.6195136122405529e-03" rms="3.6460158228874207e-01" purity="1.6423004865646362e-01" nType="-99"/>
      </Node>
    </BinaryTree>
    <BinaryTree type="DecisionTree" boostWeight="1.0000000000000000e+00" itree="442">
      <Node pos="s" depth="0" NCoef="0" IVar="5" Cut="1.6567534208297729e+00" cType="1" res="-7.5414855964481831e-03" rms="4.5482954382896423e-01" purity="4.9583482742309570e-01" nType="0">
        <Node pos="l" depth="1" NCoef="0" IVar="2" Cut="7.5467717647552490e-01" cType="1" res="-9.4427977455779910e-04" rms="4.6479403972625732e-01" purity="5.3627359867095947e-01" nType="0">
          <Node pos="l" depth="2" NCoef="0" IVar="-1" Cut="0.0000000000000000e+00" cType="1" res="-1.2055863626301289e-03" rms="4.5865231752395630e-01" purity="3.2124623656272888e-01" nType="-99"/>
          <Node pos="r" depth="2" NCoef="0" IVar="-1" Cut="0.0000000000000000e+00" cType="1" res="1.5172908024396747e-04" rms="4.6523395180702209e-01" purity="5.6256741285324097e-01" nType="-99"/>
        </Node>
        <Node pos="r" depth="1" NCoef="0" IVar="-1" Cut="0.0000000000000000e+00" cType="1" res="-1.7957483651116490e-03" rms="3.5807034373283386e-01" purity="1.6329601407051086e-01" nType="-99"/>
      </Node>
    </BinaryTree>
    <BinaryTree type="DecisionTree" boostWeight="1.0000000000000000e+00" itree="443">
      <Node pos="s" depth="0" NCoef="0" IVar="3" Cut="4.5166519165039062e+01" cType="1" res="4.3798862025141716e-03" rms="4.5373311638832092e-01" purity="5.0983530282974243e-01" nType="0">
        <Node pos="l" depth="1" NCoef="0" IVar="1" Cut="8.2022905349731445e-01" cType="1" res="-4.1055895388126373e-02" rms="4.6319425106048584e-01" purity="4.1028216481208801e-01" nType="0">
          <Node pos="l" depth="2" NCoef="0" IVar="-1" Cut="0.0000000000000000e+00" cType="1" res="3.6712372093461454e-04" rms="4.8369866609573364e-01" purity="5.3637516498565674e-01" nType="-99"/>
          <Node pos="r" depth="2" NCoef="0" IVar="-1" Cut="0.0000000000000000e+00" cType="1" res="-1.9724920857697725e-03" rms="4.4697460532188416e-01" purity="3.3263763785362244e-01" nType="-99"/>
        </Node>
        <Node pos="r" depth="1" NCoef="0" IVar="2" Cut="7.6517522335052490e-01" cType="1" res="1.4383453875780106e-02" rms="4.5100900530815125e-01" purity="5.3175383806228638e-01" nType="0">
          <Node pos="l" depth="2" NCoef="0" IVar="-1" Cut="0.0000000000000000e+00" cType="1" res="-1.3080026255920529e-03" rms="4.4217848777770996e-01" purity="3.0063313245773315e-01" nType="-99"/>
          <Node pos="r" depth="2" NCoef="0" IVar="-1" Cut="0.0000000000000000e+00" cType="1" res="8.5339765064418316e-04" rms="4.5163697004318237e-01" purity="5.7016116380691528e-01" nType="-99"/>
        </Node>
      </Node>
    </BinaryTree>
    <BinaryTree type="DecisionTree" boostWeight="1.0000000000000000e+00" itree="444">
      <Node pos="s" depth="0" NCoef="0" IVar="9" Cut="7.9393941164016724e-01" cType="1" res="-6.0912431217730045e-04" rms="4.5486938953399658e-01" purity="5.0210201740264893e-01" nType="0">
        <Node pos="l" depth="1" NCoef="0" IVar="-1" Cut="0.0000000000000000e+00" cType="1" res="-1.5204519731923938e-03" rms="4.2624592781066895e-01" purity="2.7843788266181946e-01" nType="-99"/>
        <Node pos="r" depth="1" NCoef="0" IVar="1" Cut="2.5330047607421875e+00" cType="1" res="5.0873626023530960e-03" rms="4.5730942487716675e-01" purity="5.2494603395462036e-01" nType="0">
          <Node pos="l" depth="2" NCoef="0" IVar="-1" Cut="0.0000000000000000e+00" cType="1" res="3.5490328446030617e-04" rms="4.6138325333595276e-01" purity="5.4969304800033569e-01" nType="-99"/>
          <Node pos="r" depth="2" NCoef="0" IVar="-1" Cut="0.0000000000000000e+00" cType="1" res="-1.6332862433046103e-03" rms="4.0347644686698914e-01" purity="2.4824874103069305e-01" nType="-99"/>
        </Node>
      </Node>
    </BinaryTree>
    <BinaryTree type="DecisionTree" boostWeight="1.0000000000000000e+00" itree="445">
      <Node pos="s" depth="0" NCoef="0" IVar="1" Cut="1.9953173398971558e+00" cType="1" res="-1.1548713780939579e-02" rms="4.5577338337898254e-01" purity="4.9373203516006470e-01" nType="0">
        <Node pos="l" depth="1" NCoef="0" IVar="4" Cut="4.0028363037109375e+02" cType="1" res="-2.5688798632472754e-03" rms="4.6267703175544739e-01" purity="5.3574943542480469e-01" nType="0">
          <Node pos="l" depth="2" NCoef="0" IVar="-1" Cut="0.0000000000000000e+00" cType="1" res="1.1575758253457025e-04" rms="4.6465617418289185e-01" purity="5.5316448211669922e-01" nType="-99"/>
          <Node pos="r" depth="2" NCoef="0" IVar="-1" Cut="0.0000000000000000e+00" cType="1" res="-1.9706427119672298e-03" rms="4.3349367380142212e-01" purity="3.3751764893531799e-01" nType="-99"/>
        </Node>
        <Node pos="r" depth="1" NCoef="0" IVar="4" Cut="1.8062602233886719e+02" cType="1" res="-5.8009076863527298e-02" rms="4.1514825820922852e-01" purity="2.7634036540985107e-01" nType="0">
          <Node pos="l" depth="2" NCoef="0" IVar="-1" Cut="0.0000000000000000e+00" cType="1" res="-1.9840558525174856e-03" rms="4.1307252645492554e-01" purity="2.7205249667167664e-01" nType="-99"/>
          <Node pos="r" depth="2" NCoef="0" IVar="-1" Cut="0.0000000000000000e+00" cType="1" res="-1.0107443667948246e-03" rms="4.1721254587173462e-01" purity="2.8267306089401245e-01" nType="-99"/>
        </Node>
      </Node>
    </BinaryTree>
    <BinaryTree type="DecisionTree" boostWeight="1.0000000000000000e+00" itree="446">
      <Node pos="s" depth="0" NCoef="0" IVar="3" Cut="8.0293418884277344e+01" cType="1" res="-7.6462938450276852e-03" rms="4.5665597915649414e-01" purity="4.9991410970687866e-01" nType="0">
        <Node pos="l" depth="1" NCoef="0" IVar="3" Cut="3.4876853942871094e+01" cType="1" res="-2.4686761200428009e-02" rms="4.6411272883415222e-01" purity="4.6445828676223755e-01" nType="0">
          <Node pos="l" depth="2" NCoef="0" IVar="-1" Cut="0.0000000000000000e+00" cType="1" res="-2.5109690614044666e-03" rms="4.4057905673980713e-01" purity="3.2479783892631531e-01" nType="-99"/>
          <Node pos="r" depth="2" NCoef="0" IVar="-1" Cut="0.0000000000000000e+00" cType="1" res="-4.4829098624177277e-04" rms="4.6644100546836853e-01" purity="4.8402118682861328e-01" nType="-99"/>
        </Node>
        <Node pos="r" depth="1" NCoef="0" IVar="3" Cut="1.4724826049804688e+02" cType="1" res="1.2967178598046303e-02" rms="4.4660156965255737e-01" purity="5.4280430078506470e-01" nType="0">
          <Node pos="l" depth="2" NCoef="0" IVar="-1" Cut="0.0000000000000000e+00" cType="1" res="8.9831947116181254e-04" rms="4.4692301750183105e-01" purity="5.7522326707839966e-01" nType="-99"/>
          <Node pos="r" depth="2" NCoef="0" IVar="-1" Cut="0.0000000000000000e+00" cType="1" res="-1.5160334296524525e-03" rms="4.3937343358993530e-01" purity="3.7503001093864441e-01" nType="-99"/>
        </Node>
      </Node>
    </BinaryTree>
    <BinaryTree type="DecisionTree" boostWeight="1.0000000000000000e+00" itree="447">
      <Node pos="s" depth="0" NCoef="0" IVar="7" Cut="8.7251424789428711e-01" cType="1" res="-5.5656023323535919e-03" rms="4.5449239015579224e-01" purity="4.9636721611022949e-01" nType="0">
        <Node pos="l" depth="1" NCoef="0" IVar="3" Cut="1.4650984191894531e+02" cType="1" res="-1.2981206178665161e-02" rms="4.5645588636398315e-01" purity="4.6994671225547791e-01" nType="0">
          <Node pos="l" depth="2" NCoef="0" IVar="-1" Cut="0.0000000000000000e+00" cType="1" res="-2.4589637177996337e-04" rms="4.5780339837074280e-01" purity="4.8114204406738281e-01" nType="-99"/>
          <Node pos="r" depth="2" NCoef="0" IVar="-1" Cut="0.0000000000000000e+00" cType="1" res="-1.9165598787367344e-03" rms="4.3784034252166748e-01" purity="3.4816908836364746e-01" nType="-99"/>
        </Node>
        <Node pos="r" depth="1" NCoef="0" IVar="4" Cut="1.6625479125976562e+02" cType="1" res="3.7935726344585419e-02" rms="4.4029074907302856e-01" purity="6.5135478973388672e-01" nType="0">
          <Node pos="l" depth="2" NCoef="0" IVar="-1" Cut="0.0000000000000000e+00" cType="1" res="2.6327595114707947e-03" rms="4.2289856076240540e-01" purity="7.0138812065124512e-01" nType="-99"/>
          <Node pos="r" depth="2" NCoef="0" IVar="-1" Cut="0.0000000000000000e+00" cType="1" res="1.6927182150539011e-04" rms="4.6394994854927063e-01" purity="5.7412195205688477e-01" nType="-99"/>
        </Node>
      </Node>
    </BinaryTree>
    <BinaryTree type="DecisionTree" boostWeight="1.0000000000000000e+00" itree="448">
      <Node pos="s" depth="0" NCoef="0" IVar="3" Cut="6.0787792205810547e+01" cType="1" res="-1.0089806281030178e-02" rms="4.5982125401496887e-01" purity="4.9767151474952698e-01" nType="0">
        <Node pos="l" depth="1" NCoef="0" IVar="5" Cut="7.4101316928863525e-01" cType="1" res="-3.0159270390868187e-02" rms="4.6143358945846558e-01" purity="4.4318249821662903e-01" nType="0">
          <Node pos="l" depth="2" NCoef="0" IVar="-1" Cut="0.0000000000000000e+00" cType="1" res="3.3927554613910615e-04" rms="4.7337216138839722e-01" purity="5.9568196535110474e-01" nType="-99"/>
          <Node pos="r" depth="2" NCoef="0" IVar="-1" Cut="0.0000000000000000e+00" cType="1" res="-1.3882141793146729e-03" rms="4.5376750826835632e-01" purity="3.6470469832420349e-01" nType="-99"/>
        </Node>
        <Node pos="r" depth="1" NCoef="0" IVar="9" Cut="8.9937061071395874e-01" cType="1" res="1.3099331408739090e-03" rms="4.5851188898086548e-01" purity="5.2862203121185303e-01" nType="0">
          <Node pos="l" depth="2" NCoef="0" IVar="-1" Cut="0.0000000000000000e+00" cType="1" res="-8.3400995936244726e-04" rms="4.5902612805366516e-01" purity="3.7856221199035645e-01" nType="-99"/>
          <Node pos="r" depth="2" NCoef="0" IVar="-1" Cut="0.0000000000000000e+00" cType="1" res="3.8217133260332048e-04" rms="4.5791953802108765e-01" purity="5.7545626163482666e-01" nType="-99"/>
        </Node>
      </Node>
    </BinaryTree>
    <BinaryTree type="DecisionTree" boostWeight="1.0000000000000000e+00" itree="449">
      <Node pos="s" depth="0" NCoef="0" IVar="0" Cut="7.0909458398818970e-01" cType="1" res="-4.4846781529486179e-03" rms="4.5606502890586853e-01" purity="5.0104355812072754e-01" nType="0">
        <Node pos="l" depth="1" NCoef="0" IVar="2" Cut="8.8607442378997803e-01" cType="1" res="3.6698456853628159e-02" rms="4.4161263108253479e-01" purity="7.1120339632034302e-01" nType="0">
          <Node pos="l" depth="2" NCoef="0" IVar="-1" Cut="0.0000000000000000e+00" cType="1" res="2.3598710540682077e-03" rms="4.5151668787002563e-01" purity="6.7959928512573242e-01" nType="-99"/>
          <Node pos="r" depth="2" NCoef="0" IVar="-1" Cut="0.0000000000000000e+00" cType="1" res="1.8776915385387838e-04" rms="4.2604878544807434e-01" purity="7.5255280733108521e-01" nType="-99"/>
        </Node>
        <Node pos="r" depth="1" NCoef="0" IVar="4" Cut="2.7660958862304688e+02" cType="1" res="-1.0453108698129654e-02" rms="4.5781448483467102e-01" purity="4.7058629989624023e-01" nType="0">
          <Node pos="l" depth="2" NCoef="0" IVar="-1" Cut="0.0000000000000000e+00" cType="1" res="-1.0238776303594932e-04" rms="4.6187576651573181e-01" purity="4.9868017435073853e-01" nType="-99"/>
          <Node pos="r" depth="2" NCoef="0" IVar="-1" Cut="0.0000000000000000e+00" cType="1" res="-1.1167530901730061e-03" rms="4.3999177217483521e-01" purity="3.5798433423042297e-01" nType="-99"/>
        </Node>
      </Node>
    </BinaryTree>
    <BinaryTree type="DecisionTree" boostWeight="1.0000000000000000e+00" itree="450">
      <Node pos="s" depth="0" NCoef="0" IVar="4" Cut="1.6321961975097656e+02" cType="1" res="-4.9568908289074898e-03" rms="4.5475521683692932e-01" purity="4.9756699800491333e-01" nType="0">
        <Node pos="l" depth="1" NCoef="0" IVar="4" Cut="8.3205375671386719e+01" cType="1" res="1.0013012215495110e-02" rms="4.5325303077697754e-01" purity="5.4452699422836304e-01" nType="0">
          <Node pos="l" depth="2" NCoef="0" IVar="-1" Cut="0.0000000000000000e+00" cType="1" res="-1.4156573452055454e-03" rms="4.5206689834594727e-01" purity="4.0290167927742004e-01" nType="-99"/>
          <Node pos="r" depth="2" NCoef="0" IVar="-1" Cut="0.0000000000000000e+00" cType="1" res="1.1628583306446671e-03" rms="4.5163050293922424e-01" purity="5.9931302070617676e-01" nType="-99"/>
        </Node>
        <Node pos="r" depth="1" NCoef="0" IVar="3" Cut="1.3470619201660156e+02" cType="1" res="-2.4642486125230789e-02" rms="4.5597559213638306e-01" purity="4.3581399321556091e-01" nType="0">
          <Node pos="l" depth="2" NCoef="0" IVar="-1" Cut="0.0000000000000000e+00" cType="1" res="-4.7554180491715670e-04" rms="4.5891615748405457e-01" purity="4.5279979705810547e-01" nType="-99"/>
          <Node pos="r" depth="2" NCoef="0" IVar="-1" Cut="0.0000000000000000e+00" cType="1" res="-1.8943317700177431e-03" rms="4.3906560540199280e-01" purity="3.5427331924438477e-01" nType="-99"/>
        </Node>
      </Node>
    </BinaryTree>
    <BinaryTree type="DecisionTree" boostWeight="1.0000000000000000e+00" itree="451">
      <Node pos="s" depth="0" NCoef="0" IVar="2" Cut="7.2373604774475098e-01" cType="1" res="-9.7812125459313393e-03" rms="4.5790067315101624e-01" purity="4.9661639332771301e-01" nType="0">
        <Node pos="l" depth="1" NCoef="0" IVar="-1" Cut="0.0000000000000000e+00" cType="1" res="-1.9348670030012727e-03" rms="4.1309702396392822e-01" purity="2.4783597886562347e-01" nType="-99"/>
        <Node pos="r" depth="1" NCoef="0" IVar="3" Cut="9.2749938964843750e+01" cType="1" res="-5.5685583502054214e-03" rms="4.6042066812515259e-01" purity="5.1318156719207764e-01" nType="0">
          <Node pos="l" depth="2" NCoef="0" IVar="-1" Cut="0.0000000000000000e+00" cType="1" res="-5.3661741549149156e-04" rms="4.6631142497062683e-01" purity="4.8564293980598450e-01" nType="-99"/>
          <Node pos="r" depth="2" NCoef="0" IVar="-1" Cut="0.0000000000000000e+00" cType="1" res="5.8803957654163241e-04" rms="4.4828689098358154e-01" purity="5.6485974788665771e-01" nType="-99"/>
        </Node>
      </Node>
    </BinaryTree>
    <BinaryTree type="DecisionTree" boostWeight="1.0000000000000000e+00" itree="452">
      <Node pos="s" depth="0" NCoef="0" IVar="7" Cut="5.6768393516540527e-01" cType="1" res="5.1410601008683443e-04" rms="4.5426809787750244e-01" purity="5.0415235757827759e-01" nType="0">
        <Node pos="l" depth="1" NCoef="0" IVar="7" Cut="5.2935761213302612e-01" cType="1" res="-3.3170849084854126e-02" rms="4.4930094480514526e-01" purity="3.7352341413497925e-01" nType="0">
          <Node pos="l" depth="2" NCoef="0" IVar="-1" Cut="0.0000000000000000e+00" cType="1" res="-1.4364094240590930e-03" rms="4.4133272767066956e-01" purity="3.4193849563598633e-01" nType="-99"/>
          <Node pos="r" depth="2" NCoef="0" IVar="-1" Cut="0.0000000000000000e+00" cType="1" res="-2.9721506871283054e-04" rms="4.5715299248695374e-01" purity="4.0957406163215637e-01" nType="-99"/>
        </Node>
        <Node pos="r" depth="1" NCoef="0" IVar="0" Cut="1.3491293191909790e+00" cType="1" res="1.3455824926495552e-02" rms="4.5550018548965454e-01" purity="5.5433988571166992e-01" nType="0">
          <Node pos="l" depth="2" NCoef="0" IVar="-1" Cut="0.0000000000000000e+00" cType="1" res="8.5597054567188025e-04" rms="4.5986568927764893e-01" purity="6.2436491250991821e-01" nType="-99"/>
          <Node pos="r" depth="2" NCoef="0" IVar="-1" Cut="0.0000000000000000e+00" cType="1" res="-4.1343050543218851e-04" rms="4.4192308187484741e-01" purity="3.5959872603416443e-01" nType="-99"/>
        </Node>
      </Node>
    </BinaryTree>
    <BinaryTree type="DecisionTree" boostWeight="1.0000000000000000e+00" itree="453">
      <Node pos="s" depth="0" NCoef="0" IVar="4" Cut="1.6580592346191406e+02" cType="1" res="-3.8869032869115472e-04" rms="4.5231255888938904e-01" purity="5.0356256961822510e-01" nType="0">
        <Node pos="l" depth="1" NCoef="0" IVar="4" Cut="1.0127981567382812e+02" cType="1" res="1.7017908394336700e-02" rms="4.5160120725631714e-01" purity="5.5413061380386353e-01" nType="0">
          <Node pos="l" depth="2" NCoef="0" IVar="-1" Cut="0.0000000000000000e+00" cType="1" res="-8.5988099453970790e-04" rms="4.5768082141876221e-01" purity="4.6000888943672180e-01" nType="-99"/>
          <Node pos="r" depth="2" NCoef="0" IVar="-1" Cut="0.0000000000000000e+00" cType="1" res="1.8757820362225175e-03" rms="4.4396832585334778e-01" purity="6.2428325414657593e-01" nType="-99"/>
        </Node>
        <Node pos="r" depth="1" NCoef="0" IVar="3" Cut="8.9319038391113281e+01" cType="1" res="-2.4085495620965958e-02" rms="4.5220351219177246e-01" purity="4.3472066521644592e-01" nType="0">
          <Node pos="l" depth="2" NCoef="0" IVar="-1" Cut="0.0000000000000000e+00" cType="1" res="-1.2543026823550463e-03" rms="4.5482659339904785e-01" purity="3.9499723911285400e-01" nType="-99"/>
          <Node pos="r" depth="2" NCoef="0" IVar="-1" Cut="0.0000000000000000e+00" cType="1" res="-6.9634319515898824e-05" rms="4.4829311966896057e-01" purity="4.7823184728622437e-01" nType="-99"/>
        </Node>
      </Node>
    </BinaryTree>
    <BinaryTree type="DecisionTree" boostWeight="1.0000000000000000e+00" itree="454">
      <Node pos="s" depth="0" NCoef="0" IVar="4" Cut="1.3291340637207031e+02" cType="1" res="-6.5630762837827206e-03" rms="4.5413076877593994e-01" purity="4.9602633714675903e-01" nType="0">
        <Node pos="l" depth="1" NCoef="0" IVar="4" Cut="9.7102050781250000e+01" cType="1" res="1.3616254553198814e-02" rms="4.5255485177040100e-01" purity="5.4297113418579102e-01" nType="0">
          <Node pos="l" depth="2" NCoef="0" IVar="-1" Cut="0.0000000000000000e+00" cType="1" res="-8.0229574814438820e-04" rms="4.5526412129402161e-01" purity="4.4900530576705933e-01" nType="-99"/>
          <Node pos="r" depth="2" NCoef="0" IVar="-1" Cut="0.0000000000000000e+00" cType="1" res="2.0102772396057844e-03" rms="4.4625306129455566e-01" purity="6.3597309589385986e-01" nType="-99"/>
        </Node>
        <Node pos="r" depth="1" NCoef="0" IVar="8" Cut="6.3730263710021973e-01" cType="1" res="-2.2447757422924042e-02" rms="4.5473802089691162e-01" purity="4.5907253026962280e-01" nType="0">
          <Node pos="l" depth="2" NCoef="0" IVar="-1" Cut="0.0000000000000000e+00" cType="1" res="-9.4267830718308687e-04" rms="4.5602610707283020e-01" purity="4.3000057339668274e-01" nType="-99"/>
          <Node pos="r" depth="2" NCoef="0" IVar="-1" Cut="0.0000000000000000e+00" cType="1" res="1.2167856330052018e-03" rms="4.4329756498336792e-01" purity="6.2491238117218018e-01" nType="-99"/>
        </Node>
      </Node>
    </BinaryTree>
    <BinaryTree type="DecisionTree" boostWeight="1.0000000000000000e+00" itree="455">
      <Node pos="s" depth="0" NCoef="0" IVar="3" Cut="1.0356473541259766e+02" cType="1" res="-6.4663281664252281e-03" rms="4.5505458116531372e-01" purity="4.9598312377929688e-01" nType="0">
        <Node pos="l" depth="1" NCoef="0" IVar="0" Cut="1.0025551319122314e+00" cType="1" res="-1.7022956162691116e-02" rms="4.5897349715232849e-01" purity="4.7575944662094116e-01" nType="0">
          <Node pos="l" depth="2" NCoef="0" IVar="-1" Cut="0.0000000000000000e+00" cType="1" res="2.2838157019577920e-04" rms="4.7095713019371033e-01" purity="6.1928147077560425e-01" nType="-99"/>
          <Node pos="r" depth="2" NCoef="0" IVar="-1" Cut="0.0000000000000000e+00" cType="1" res="-9.2673976905643940e-04" rms="4.4986966252326965e-01" purity="3.7740358710289001e-01" nType="-99"/>
        </Node>
        <Node pos="r" depth="1" NCoef="0" IVar="3" Cut="1.5347616577148438e+02" cType="1" res="2.0612806081771851e-02" rms="4.4369724392890930e-01" purity="5.4785943031311035e-01" nType="0">
          <Node pos="l" depth="2" NCoef="0" IVar="-1" Cut="0.0000000000000000e+00" cType="1" res="1.3862029882147908e-03" rms="4.3887794017791748e-01" purity="5.9241604804992676e-01" nType="-99"/>
          <Node pos="r" depth="2" NCoef="0" IVar="-1" Cut="0.0000000000000000e+00" cType="1" res="-1.2487255735322833e-03" rms="4.5519244670867920e-01" purity="3.8602116703987122e-01" nType="-99"/>
        </Node>
      </Node>
    </BinaryTree>
    <BinaryTree type="DecisionTree" boostWeight="1.0000000000000000e+00" itree="456">
      <Node pos="s" depth="0" NCoef="0" IVar="4" Cut="9.2121437072753906e+01" cType="1" res="-3.0293075833469629e-03" rms="4.5634746551513672e-01" purity="5.0169676542282104e-01" nType="0">
        <Node pos="l" depth="1" NCoef="0" IVar="9" Cut="9.3800681829452515e-01" cType="1" res="-4.4797282665967941e-02" rms="4.6109852194786072e-01" purity="4.2643955349922180e-01" nType="0">
          <Node pos="l" depth="2" NCoef="0" IVar="-1" Cut="0.0000000000000000e+00" cType="1" res="-1.6192237671930343e-04" rms="4.4757333397865295e-01" purity="3.7847799062728882e-01" nType="-99"/>
          <Node pos="r" depth="2" NCoef="0" IVar="-1" Cut="0.0000000000000000e+00" cType="1" res="-1.7932527698576450e-03" rms="4.6573024988174438e-01" purity="4.4684499502182007e-01" nType="-99"/>
        </Node>
        <Node pos="r" depth="1" NCoef="0" IVar="4" Cut="1.2749069976806641e+02" cType="1" res="6.9395056925714016e-03" rms="4.5463934540748596e-01" purity="5.1965856552124023e-01" nType="0">
          <Node pos="l" depth="2" NCoef="0" IVar="-1" Cut="0.0000000000000000e+00" cType="1" res="1.5619739424437284e-03" rms="4.5182377099990845e-01" purity="6.2233603000640869e-01" nType="-99"/>
          <Node pos="r" depth="2" NCoef="0" IVar="-1" Cut="0.0000000000000000e+00" cType="1" res="-1.9676005467772484e-04" rms="4.5496311783790588e-01" purity="4.8168468475341797e-01" nType="-99"/>
        </Node>
      </Node>
    </BinaryTree>
    <BinaryTree type="DecisionTree" boostWeight="1.0000000000000000e+00" itree="457">
      <Node pos="s" depth="0" NCoef="0" IVar="1" Cut="2.5661261081695557e+00" cType="1" res="-2.9828485567122698e-03" rms="4.5195555686950684e-01" purity="4.9800282716751099e-01" nType="0">
        <Node pos="l" depth="1" NCoef="0" IVar="2" Cut="7.7267926931381226e-01" cType="1" res="2.5497623719274998e-03" rms="4.5700144767761230e-01" purity="5.2171993255615234e-01" nType="0">
          <Node pos="l" depth="2" NCoef="0" IVar="-1" Cut="0.0000000000000000e+00" cType="1" res="-1.0228477185592055e-03" rms="4.4708055257797241e-01" purity="3.1998279690742493e-01" nType="-99"/>
          <Node pos="r" depth="2" NCoef="0" IVar="-1" Cut="0.0000000000000000e+00" cType="1" res="3.4952865098603070e-04" rms="4.5849257707595825e-01" purity="5.6109154224395752e-01" nType="-99"/>
        </Node>
        <Node pos="r" depth="1" NCoef="0" IVar="-1" Cut="0.0000000000000000e+00" cType="1" res="-1.8999372841790318e-03" rms="3.8206309080123901e-01" purity="2.2015058994293213e-01" nType="-99"/>
      </Node>
    </BinaryTree>
    <BinaryTree type="DecisionTree" boostWeight="1.0000000000000000e+00" itree="458">
      <Node pos="s" depth="0" NCoef="0" IVar="3" Cut="1.4649679565429688e+02" cType="1" res="2.2501214407384396e-03" rms="4.5477893948554993e-01" purity="5.0582486391067505e-01" nType="0">
        <Node pos="l" depth="1" NCoef="0" IVar="3" Cut="9.0366806030273438e+01" cType="1" res="7.0653241127729416e-03" rms="4.5507454872131348e-01" purity="5.1686638593673706e-01" nType="0">
          <Node pos="l" depth="2" NCoef="0" IVar="-1" Cut="0.0000000000000000e+00" cType="1" res="-1.6606440476607531e-04" rms="4.5942527055740356e-01" purity="4.7962519526481628e-01" nType="-99"/>
          <Node pos="r" depth="2" NCoef="0" IVar="-1" Cut="0.0000000000000000e+00" cType="1" res="1.2479549041017890e-03" rms="4.4427514076232910e-01" purity="5.9775024652481079e-01" nType="-99"/>
        </Node>
        <Node pos="r" depth="1" NCoef="0" IVar="-1" Cut="0.0000000000000000e+00" cType="1" res="-1.6405946807935834e-03" rms="4.4682121276855469e-01" purity="3.6907556653022766e-01" nType="-99"/>
      </Node>
    </BinaryTree>
    <BinaryTree type="DecisionTree" boostWeight="1.0000000000000000e+00" itree="459">
      <Node pos="s" depth="0" NCoef="0" IVar="1" Cut="2.5279259681701660e+00" cType="1" res="-2.4965058546513319e-03" rms="4.5332407951354980e-01" purity="5.0127369165420532e-01" nType="0">
        <Node pos="l" depth="1" NCoef="0" IVar="4" Cut="6.5790687561035156e+01" cType="1" res="3.4150762949138880e-03" rms="4.5858272910118103e-01" purity="5.2701973915100098e-01" nType="0">
          <Node pos="l" depth="2" NCoef="0" IVar="-1" Cut="0.0000000000000000e+00" cType="1" res="-1.5880492283031344e-03" rms="4.7298476099967957e-01" purity="3.9596107602119446e-01" nType="-99"/>
          <Node pos="r" depth="2" NCoef="0" IVar="-1" Cut="0.0000000000000000e+00" cType="1" res="2.9941863613203168e-04" rms="4.5679140090942383e-01" purity="5.3934961557388306e-01" nType="-99"/>
        </Node>
        <Node pos="r" depth="1" NCoef="0" IVar="-1" Cut="0.0000000000000000e+00" cType="1" res="-1.8420496489852667e-03" rms="3.8664314150810242e-01" purity="2.2429637610912323e-01" nType="-99"/>
      </Node>
    </BinaryTree>
    <BinaryTree type="DecisionTree" boostWeight="1.0000000000000000e+00" itree="460">
      <Node pos="s" depth="0" NCoef="0" IVar="3" Cut="1.5393675231933594e+02" cType="1" res="-8.4084150148555636e-04" rms="4.5469972491264343e-01" purity="5.0360059738159180e-01" nType="0">
        <Node pos="l" depth="1" NCoef="0" IVar="3" Cut="4.8064010620117188e+01" cType="1" res="4.3113557621836662e-03" rms="4.5467954874038696e-01" purity="5.1414650678634644e-01" nType="0">
          <Node pos="l" depth="2" NCoef="0" IVar="-1" Cut="0.0000000000000000e+00" cType="1" res="-1.0606258874759078e-03" rms="4.6367871761322021e-01" purity="4.1920480132102966e-01" nType="-99"/>
          <Node pos="r" depth="2" NCoef="0" IVar="-1" Cut="0.0000000000000000e+00" cType="1" res="5.4776063188910484e-04" rms="4.5131623744964600e-01" purity="5.4171639680862427e-01" nType="-99"/>
        </Node>
        <Node pos="r" depth="1" NCoef="0" IVar="-1" Cut="0.0000000000000000e+00" cType="1" res="-2.2375450935214758e-03" rms="4.4773888587951660e-01" purity="3.4299251437187195e-01" nType="-99"/>
      </Node>
    </BinaryTree>
    <BinaryTree type="DecisionTree" boostWeight="1.0000000000000000e+00" itree="461">
      <Node pos="s" depth="0" NCoef="0" IVar="1" Cut="1.3310708999633789e+00" cType="1" res="-7.0072006201371551e-04" rms="4.5343294739723206e-01" purity="5.0497055053710938e-01" nType="0">
        <Node pos="l" depth="1" NCoef="0" IVar="7" Cut="5.2564269304275513e-01" cType="1" res="1.1477875523269176e-02" rms="4.5735442638397217e-01" purity="5.7416236400604248e-01" nType="0">
          <Node pos="l" depth="2" NCoef="0" IVar="-1" Cut="0.0000000000000000e+00" cType="1" res="-1.0607447475194931e-03" rms="4.6725344657897949e-01" purity="4.0644565224647522e-01" nType="-99"/>
          <Node pos="r" depth="2" NCoef="0" IVar="-1" Cut="0.0000000000000000e+00" cType="1" res="6.5592786995694041e-04" rms="4.5546987652778625e-01" purity="5.9818667173385620e-01" nType="-99"/>
        </Node>
        <Node pos="r" depth="1" NCoef="0" IVar="9" Cut="9.8948448896408081e-01" cType="1" res="-2.3981342092156410e-02" rms="4.4491392374038696e-01" purity="3.7270349264144897e-01" nType="0">
          <Node pos="l" depth="2" NCoef="0" IVar="-1" Cut="0.0000000000000000e+00" cType="1" res="-1.1664512567222118e-03" rms="4.4056168198585510e-01" purity="3.3152720332145691e-01" nType="-99"/>
          <Node pos="r" depth="2" NCoef="0" IVar="-1" Cut="0.0000000000000000e+00" cType="1" res="9.0584479039534926e-04" rms="4.5320799946784973e-01" purity="4.9231958389282227e-01" nType="-99"/>
        </Node>
      </Node>
    </BinaryTree>
    <BinaryTree type="DecisionTree" boostWeight="1.0000000000000000e+00" itree="462">
      <Node pos="s" depth="0" NCoef="0" IVar="1" Cut="2.5787792205810547e+00" cType="1" res="2.6804376393556595e-03" rms="4.5569461584091187e-01" purity="5.1025712490081787e-01" nType="0">
        <Node pos="l" depth="1" NCoef="0" IVar="9" Cut="9.8952841758728027e-01" cType="1" res="7.8678596764802933e-03" rms="4.5974189043045044e-01" purity="5.3266263008117676e-01" nType="0">
          <Node pos="l" depth="2" NCoef="0" IVar="-1" Cut="0.0000000000000000e+00" cType="1" res="-6.6286724177189171e-05" rms="4.6299251914024353e-01" purity="4.9678054451942444e-01" nType="-99"/>
          <Node pos="r" depth="2" NCoef="0" IVar="-1" Cut="0.0000000000000000e+00" cType="1" res="1.2692327145487070e-03" rms="4.4988316297531128e-01" purity="6.2826800346374512e-01" nType="-99"/>
        </Node>
        <Node pos="r" depth="1" NCoef="0" IVar="-1" Cut="0.0000000000000000e+00" cType="1" res="-1.7194511601701379e-03" rms="3.9658764004707336e-01" purity="2.3262065649032593e-01" nType="-99"/>
      </Node>
    </BinaryTree>
    <BinaryTree type="DecisionTree" boostWeight="1.0000000000000000e+00" itree="463">
      <Node pos="s" depth="0" NCoef="0" IVar="0" Cut="1.3915458917617798e+00" cType="1" res="8.1654390669427812e-05" rms="4.5157063007354736e-01" purity="5.0427985191345215e-01" nType="0">
        <Node pos="l" depth="1" NCoef="0" IVar="9" Cut="9.8948717117309570e-01" cType="1" res="1.1626499705016613e-02" rms="4.6045798063278198e-01" purity="5.6928586959838867e-01" nType="0">
          <Node pos="l" depth="2" NCoef="0" IVar="-1" Cut="0.0000000000000000e+00" cType="1" res="-1.1074337089667097e-04" rms="4.6730041503906250e-01" purity="5.2936184406280518e-01" nType="-99"/>
          <Node pos="r" depth="2" NCoef="0" IVar="-1" Cut="0.0000000000000000e+00" cType="1" res="1.9786490593105555e-03" rms="4.3985727429389954e-01" purity="6.7257368564605713e-01" nType="-99"/>
        </Node>
        <Node pos="r" depth="1" NCoef="0" IVar="3" Cut="1.0520645141601562e+02" cType="1" res="-3.7102341651916504e-02" rms="4.1952067613601685e-01" purity="2.9490676522254944e-01" nType="0">
          <Node pos="l" depth="2" NCoef="0" IVar="-1" Cut="0.0000000000000000e+00" cType="1" res="-1.4732709387317300e-03" rms="4.0753245353698730e-01" purity="2.6626685261726379e-01" nType="-99"/>
          <Node pos="r" depth="2" NCoef="0" IVar="-1" Cut="0.0000000000000000e+00" cType="1" res="-3.1205465347738937e-05" rms="4.4233632087707520e-01" purity="3.5718187689781189e-01" nType="-99"/>
        </Node>
      </Node>
    </BinaryTree>
    <BinaryTree type="DecisionTree" boostWeight="1.0000000000000000e+00" itree="464">
      <Node pos="s" depth="0" NCoef="0" IVar="2" Cut="7.4570745229721069e-01" cType="1" res="-6.0588996857404709e-03" rms="4.5333197712898254e-01" purity="4.9722430109977722e-01" nType="0">
        <Node pos="l" depth="1" NCoef="0" IVar="-1" Cut="0.0000000000000000e+00" cType="1" res="-1.7054073978215456e-03" rms="4.1684719920158386e-01" purity="2.5394377112388611e-01" nType="-99"/>
        <Node pos="r" depth="1" NCoef="0" IVar="3" Cut="1.4604472351074219e+02" cType="1" res="4.0445412741973996e-04" rms="4.5672813057899475e-01" purity="5.2412295341491699e-01" nType="0">
          <Node pos="l" depth="2" NCoef="0" IVar="-1" Cut="0.0000000000000000e+00" cType="1" res="1.9695691298693419e-04" rms="4.5653510093688965e-01" purity="5.3498882055282593e-01" nType="-99"/>
          <Node pos="r" depth="2" NCoef="0" IVar="-1" Cut="0.0000000000000000e+00" cType="1" res="-1.9717672839760780e-03" rms="4.5332419872283936e-01" purity="3.8915675878524780e-01" nType="-99"/>
        </Node>
      </Node>
    </BinaryTree>
    <BinaryTree type="DecisionTree" boostWeight="1.0000000000000000e+00" itree="465">
      <Node pos="s" depth="0" NCoef="0" IVar="8" Cut="5.9915667772293091e-01" cType="1" res="-7.3866806924343109e-03" rms="4.5351073145866394e-01" purity="4.9433895945549011e-01" nType="0">
        <Node pos="l" depth="1" NCoef="0" IVar="1" Cut="3.0012276768684387e-01" cType="1" res="-1.8144771456718445e-02" rms="4.5615506172180176e-01" purity="4.4693511724472046e-01" nType="0">
          <Node pos="l" depth="2" NCoef="0" IVar="-1" Cut="0.0000000000000000e+00" cType="1" res="1.5131313120946288e-03" rms="4.5626693964004517e-01" purity="6.1937767267227173e-01" nType="-99"/>
          <Node pos="r" depth="2" NCoef="0" IVar="-1" Cut="0.0000000000000000e+00" cType="1" res="-7.2399957571178675e-04" rms="4.5566666126251221e-01" purity="4.2845144867897034e-01" nType="-99"/>
        </Node>
        <Node pos="r" depth="1" NCoef="0" IVar="3" Cut="6.5266365051269531e+01" cType="1" res="1.9518332555890083e-02" rms="4.4569370150566101e-01" purity="6.1289155483245850e-01" nType="0">
          <Node pos="l" depth="2" NCoef="0" IVar="-1" Cut="0.0000000000000000e+00" cType="1" res="-2.7448820765130222e-04" rms="4.6159055829048157e-01" purity="5.4914170503616333e-01" nType="-99"/>
          <Node pos="r" depth="2" NCoef="0" IVar="-1" Cut="0.0000000000000000e+00" cType="1" res="1.6718056285753846e-03" rms="4.3158650398254395e-01" purity="6.6283822059631348e-01" nType="-99"/>
        </Node>
      </Node>
    </BinaryTree>
    <BinaryTree type="DecisionTree" boostWeight="1.0000000000000000e+00" itree="466">
      <Node pos="s" depth="0" NCoef="0" IVar="3" Cut="1.4526837158203125e+02" cType="1" res="-6.0124942101538181e-03" rms="4.5279255509376526e-01" purity="4.9947515130043030e-01" nType="0">
        <Node pos="l" depth="1" NCoef="0" IVar="3" Cut="1.0773660278320312e+02" cType="1" res="-1.1533680371940136e-03" rms="4.5339646935462952e-01" purity="5.0994491577148438e-01" nType="0">
          <Node pos="l" depth="2" NCoef="0" IVar="-1" Cut="0.0000000000000000e+00" cType="1" res="-3.4286032314412296e-04" rms="4.5686599612236023e-01" purity="4.8757529258728027e-01" nType="-99"/>
          <Node pos="r" depth="2" NCoef="0" IVar="-1" Cut="0.0000000000000000e+00" cType="1" res="1.5258317580446601e-03" rms="4.3553543090820312e-01" purity="6.0659205913543701e-01" nType="-99"/>
        </Node>
        <Node pos="r" depth="1" NCoef="0" IVar="-1" Cut="0.0000000000000000e+00" cType="1" res="-1.8792086048051715e-03" rms="4.4107359647750854e-01" purity="3.7177714705467224e-01" nType="-99"/>
      </Node>
    </BinaryTree>
    <BinaryTree type="DecisionTree" boostWeight="1.0000000000000000e+00" itree="467">
      <Node pos="s" depth="0" NCoef="0" IVar="4" Cut="8.5342384338378906e+01" cType="1" res="-6.5299398265779018e-03" rms="4.5403897762298584e-01" purity="4.9955570697784424e-01" nType="0">
        <Node pos="l" depth="1" NCoef="0" IVar="1" Cut="8.2340699434280396e-01" cType="1" res="-5.1609694957733154e-02" rms="4.5252493023872375e-01" purity="4.0570312738418579e-01" nType="0">
          <Node pos="l" depth="2" NCoef="0" IVar="-1" Cut="0.0000000000000000e+00" cType="1" res="-4.0632160380482674e-04" rms="4.7569188475608826e-01" purity="5.4463249444961548e-01" nType="-99"/>
          <Node pos="r" depth="2" NCoef="0" IVar="-1" Cut="0.0000000000000000e+00" cType="1" res="-2.0607125479727983e-03" rms="4.3591740727424622e-01" purity="3.1989666819572449e-01" nType="-99"/>
        </Node>
        <Node pos="r" depth="1" NCoef="0" IVar="4" Cut="1.4830986022949219e+02" cType="1" res="2.2840364836156368e-03" rms="4.5381134748458862e-01" purity="5.1790571212768555e-01" nType="0">
          <Node pos="l" depth="2" NCoef="0" IVar="-1" Cut="0.0000000000000000e+00" cType="1" res="1.1387976119294763e-03" rms="4.4832536578178406e-01" purity="6.0737800598144531e-01" nType="-99"/>
          <Node pos="r" depth="2" NCoef="0" IVar="-1" Cut="0.0000000000000000e+00" cType="1" res="-6.0184270842000842e-04" rms="4.5660638809204102e-01" purity="4.5101508498191833e-01" nType="-99"/>
        </Node>
      </Node>
    </BinaryTree>
    <BinaryTree type="DecisionTree" boostWeight="1.0000000000000000e+00" itree="468">
      <Node pos="s" depth="0" NCoef="0" IVar="1" Cut="7.8885221481323242e-01" cType="1" res="-1.8190923146903515e-03" rms="4.5737960934638977e-01" purity="5.0533396005630493e-01" nType="0">
        <Node pos="l" depth="1" NCoef="0" IVar="0" Cut="8.8392454385757446e-01" cType="1" res="1.6208821907639503e-02" rms="4.5896023511886597e-01" purity="6.0697036981582642e-01" nType="0">
          <Node pos="l" depth="2" NCoef="0" IVar="-1" Cut="0.0000000000000000e+00" cType="1" res="-1.9274087389931083e-04" rms="4.5792084932327271e-01" purity="6.6037297248840332e-01" nType="-99"/>
          <Node pos="r" depth="2" NCoef="0" IVar="-1" Cut="0.0000000000000000e+00" cType="1" res="1.0772832902148366e-03" rms="4.5909318327903748e-01" purity="5.6515187025070190e-01" nType="-99"/>
        </Node>
        <Node pos="r" depth="1" NCoef="0" IVar="4" Cut="9.2121437072753906e+01" cType="1" res="-1.3458840548992157e-02" rms="4.5597764849662781e-01" purity="4.3971219658851624e-01" nType="0">
          <Node pos="l" depth="2" NCoef="0" IVar="-1" Cut="0.0000000000000000e+00" cType="1" res="-1.5968013321980834e-03" rms="4.4305032491683960e-01" purity="3.5445502400398254e-01" nType="-99"/>
          <Node pos="r" depth="2" NCoef="0" IVar="-1" Cut="0.0000000000000000e+00" cType="1" res="-8.4465347754303366e-05" rms="4.5843344926834106e-01" purity="4.6046686172485352e-01" nType="-99"/>
        </Node>
      </Node>
    </BinaryTree>
    <BinaryTree type="DecisionTree" boostWeight="1.0000000000000000e+00" itree="469">
      <Node pos="s" depth="0" NCoef="0" IVar="3" Cut="1.4655760192871094e+02" cType="1" res="-5.6485901586711407e-03" rms="4.5362868905067444e-01" purity="4.9689269065856934e-01" nType="0">
        <Node pos="l" depth="1" NCoef="0" IVar="3" Cut="1.0376874542236328e+02" cType="1" res="-1.1699510650942102e-04" rms="4.5401042699813843e-01" purity="5.0863301753997803e-01" nType="0">
          <Node pos="l" depth="2" NCoef="0" IVar="-1" Cut="0.0000000000000000e+00" cType="1" res="-3.9622097392566502e-04" rms="4.5776364207267761e-01" purity="4.7936204075813293e-01" nType="-99"/>
          <Node pos="r" depth="2" NCoef="0" IVar="-1" Cut="0.0000000000000000e+00" cType="1" res="1.7035871278494596e-03" rms="4.3719834089279175e-01" purity="6.1404854059219360e-01" nType="-99"/>
        </Node>
        <Node pos="r" depth="1" NCoef="0" IVar="-1" Cut="0.0000000000000000e+00" cType="1" res="-1.9836402498185635e-03" rms="4.4414338469505310e-01" purity="3.6044380068778992e-01" nType="-99"/>
      </Node>
    </BinaryTree>
    <BinaryTree type="DecisionTree" boostWeight="1.0000000000000000e+00" itree="470">
      <Node pos="s" depth="0" NCoef="0" IVar="5" Cut="1.7431824207305908e+00" cType="1" res="-1.1373779736459255e-02" rms="4.5410007238388062e-01" purity="4.9067994952201843e-01" nType="0">
        <Node pos="l" depth="1" NCoef="0" IVar="4" Cut="6.4395103454589844e+01" cType="1" res="-5.8012050576508045e-03" rms="4.6207824349403381e-01" purity="5.2263754606246948e-01" nType="0">
          <Node pos="l" depth="2" NCoef="0" IVar="-1" Cut="0.0000000000000000e+00" cType="1" res="-1.8584963399916887e-03" rms="4.5294621586799622e-01" purity="3.7380972504615784e-01" nType="-99"/>
          <Node pos="r" depth="2" NCoef="0" IVar="-1" Cut="0.0000000000000000e+00" cType="1" res="-2.1080431906739250e-06" rms="4.6247920393943787e-01" purity="5.3623813390731812e-01" nType="-99"/>
        </Node>
        <Node pos="r" depth="1" NCoef="0" IVar="-1" Cut="0.0000000000000000e+00" cType="1" res="-2.0388416014611721e-03" rms="3.5200077295303345e-01" purity="1.4792150259017944e-01" nType="-99"/>
      </Node>
    </BinaryTree>
    <BinaryTree type="DecisionTree" boostWeight="1.0000000000000000e+00" itree="471">
      <Node pos="s" depth="0" NCoef="0" IVar="4" Cut="1.0524198150634766e+02" cType="1" res="-5.1970737986266613e-03" rms="4.5691180229187012e-01" purity="5.0003814697265625e-01" nType="0">
        <Node pos="l" depth="1" NCoef="0" IVar="0" Cut="9.1154342889785767e-01" cType="1" res="-3.6212731152772903e-02" rms="4.6205201745033264e-01" purity="4.5846235752105713e-01" nType="0">
          <Node pos="l" depth="2" NCoef="0" IVar="-1" Cut="0.0000000000000000e+00" cType="1" res="2.8341211145743728e-04" rms="4.6842655539512634e-01" purity="6.1975049972534180e-01" nType="-99"/>
          <Node pos="r" depth="2" NCoef="0" IVar="-1" Cut="0.0000000000000000e+00" cType="1" res="-1.6636212822049856e-03" rms="4.5705020427703857e-01" purity="3.7526997923851013e-01" nType="-99"/>
        </Node>
        <Node pos="r" depth="1" NCoef="0" IVar="4" Cut="1.4688957214355469e+02" cType="1" res="5.9549710713326931e-03" rms="4.5453238487243652e-01" purity="5.1498717069625854e-01" nType="0">
          <Node pos="l" depth="2" NCoef="0" IVar="-1" Cut="0.0000000000000000e+00" cType="1" res="1.4671093085780740e-03" rms="4.4491949677467346e-01" purity="6.2482118606567383e-01" nType="-99"/>
          <Node pos="r" depth="2" NCoef="0" IVar="-1" Cut="0.0000000000000000e+00" cType="1" res="-3.2989386818371713e-04" rms="4.5836693048477173e-01" purity="4.5991873741149902e-01" nType="-99"/>
        </Node>
      </Node>
    </BinaryTree>
    <BinaryTree type="DecisionTree" boostWeight="1.0000000000000000e+00" itree="472">
      <Node pos="s" depth="0" NCoef="0" IVar="5" Cut="1.6836928129196167e+00" cType="1" res="-3.4346428583376110e-04" rms="4.5204910635948181e-01" purity="5.0314354896545410e-01" nType="0">
        <Node pos="l" depth="1" NCoef="0" IVar="3" Cut="8.2358413696289062e+01" cType="1" res="5.8746947906911373e-03" rms="4.6108892560005188e-01" purity="5.4236316680908203e-01" nType="0">
          <Node pos="l" depth="2" NCoef="0" IVar="-1" Cut="0.0000000000000000e+00" cType="1" res="-2.6537969824858010e-04" rms="4.6966901421546936e-01" purity="5.0196003913879395e-01" nType="-99"/>
          <Node pos="r" depth="2" NCoef="0" IVar="-1" Cut="0.0000000000000000e+00" cType="1" res="9.3434349400922656e-04" rms="4.4806617498397827e-01" purity="5.9864497184753418e-01" nType="-99"/>
        </Node>
        <Node pos="r" depth="1" NCoef="0" IVar="-1" Cut="0.0000000000000000e+00" cType="1" res="-1.6124102985486388e-03" rms="3.6000615358352661e-01" purity="1.6339397430419922e-01" nType="-99"/>
      </Node>
    </BinaryTree>
    <BinaryTree type="DecisionTree" boostWeight="1.0000000000000000e+00" itree="473">
      <Node pos="s" depth="0" NCoef="0" IVar="5" Cut="6.9054579734802246e-01" cType="1" res="-2.7046930044889450e-03" rms="4.5250624418258667e-01" purity="4.9926966428756714e-01" nType="0">
        <Node pos="l" depth="1" NCoef="0" IVar="7" Cut="8.0953198671340942e-01" cType="1" res="3.0977316200733185e-02" rms="4.5107832551002502e-01" purity="6.7002147436141968e-01" nType="0">
          <Node pos="l" depth="2" NCoef="0" IVar="-1" Cut="0.0000000000000000e+00" cType="1" res="5.4797134362161160e-04" rms="4.6999871730804443e-01" purity="6.2509214878082275e-01" nType="-99"/>
          <Node pos="r" depth="2" NCoef="0" IVar="-1" Cut="0.0000000000000000e+00" cType="1" res="4.3178363703191280e-03" rms="3.8456526398658752e-01" purity="8.0567532777786255e-01" nType="-99"/>
        </Node>
        <Node pos="r" depth="1" NCoef="0" IVar="0" Cut="1.6605768203735352e+00" cType="1" res="-1.2689786963164806e-02" rms="4.5244708657264709e-01" purity="4.4864994287490845e-01" nType="0">
          <Node pos="l" depth="2" NCoef="0" IVar="-1" Cut="0.0000000000000000e+00" cType="1" res="-1.9261652778368443e-04" rms="4.5970287919044495e-01" purity="4.7790029644966125e-01" nType="-99"/>
          <Node pos="r" depth="2" NCoef="0" IVar="-1" Cut="0.0000000000000000e+00" cType="1" res="-1.9095046445727348e-03" rms="3.7999352812767029e-01" purity="1.9689637422561646e-01" nType="-99"/>
        </Node>
      </Node>
    </BinaryTree>
    <BinaryTree type="DecisionTree" boostWeight="1.0000000000000000e+00" itree="474">
      <Node pos="s" depth="0" NCoef="0" IVar="4" Cut="2.5536624145507812e+02" cType="1" res="1.3658108655363321e-03" rms="4.5417803525924683e-01" purity="5.0762510299682617e-01" nType="0">
        <Node pos="l" depth="1" NCoef="0" IVar="3" Cut="3.6168422698974609e+01" cType="1" res="1.1911273933947086e-02" rms="4.5687729120254517e-01" purity="5.4220604896545410e-01" nType="0">
          <Node pos="l" depth="2" NCoef="0" IVar="-1" Cut="0.0000000000000000e+00" cType="1" res="-1.8362775444984436e-03" rms="4.4823271036148071e-01" purity="3.6657345294952393e-01" nType="-99"/>
          <Node pos="r" depth="2" NCoef="0" IVar="-1" Cut="0.0000000000000000e+00" cType="1" res="6.5416045254096389e-04" rms="4.5697373151779175e-01" purity="5.5855083465576172e-01" nType="-99"/>
        </Node>
        <Node pos="r" depth="1" NCoef="0" IVar="5" Cut="1.0491751432418823e+00" cType="1" res="-3.5867940634489059e-02" rms="4.4251087307929993e-01" purity="3.8552728295326233e-01" nType="0">
          <Node pos="l" depth="2" NCoef="0" IVar="-1" Cut="0.0000000000000000e+00" cType="1" res="-3.2176927197724581e-04" rms="4.7577363252639771e-01" purity="5.8266866207122803e-01" nType="-99"/>
          <Node pos="r" depth="2" NCoef="0" IVar="-1" Cut="0.0000000000000000e+00" cType="1" res="-1.3785898918285966e-03" rms="4.2092216014862061e-01" purity="2.6933836936950684e-01" nType="-99"/>
        </Node>
      </Node>
    </BinaryTree>
    <BinaryTree type="DecisionTree" boostWeight="1.0000000000000000e+00" itree="475">
      <Node pos="s" depth="0" NCoef="0" IVar="3" Cut="3.6172302246093750e+01" cType="1" res="3.2431542058475316e-04" rms="4.5624345541000366e-01" purity="5.0966364145278931e-01" nType="0">
        <Node pos="l" depth="1" NCoef="0" IVar="-1" Cut="0.0000000000000000e+00" cType="1" res="-2.0953926723450422e-03" rms="4.5771336555480957e-01" purity="3.4925806522369385e-01" nType="-99"/>
        <Node pos="r" depth="1" NCoef="0" IVar="4" Cut="1.5577999877929688e+02" cType="1" res="7.3915589600801468e-03" rms="4.5544394850730896e-01" purity="5.2399843931198120e-01" nType="0">
          <Node pos="l" depth="2" NCoef="0" IVar="-1" Cut="0.0000000000000000e+00" cType="1" res="8.1053731264546514e-04" rms="4.5248854160308838e-01" purity="5.7834768295288086e-01" nType="-99"/>
          <Node pos="r" depth="2" NCoef="0" IVar="-1" Cut="0.0000000000000000e+00" cType="1" res="-3.1274513457901776e-04" rms="4.5809847116470337e-01" purity="4.6295478940010071e-01" nType="-99"/>
        </Node>
      </Node>
    </BinaryTree>
    <BinaryTree type="DecisionTree" boostWeight="1.0000000000000000e+00" itree="476">
      <Node pos="s" depth="0" NCoef="0" IVar="4" Cut="9.4717666625976562e+01" cType="1" res="-3.0472646467387676e-03" rms="4.5477938652038574e-01" purity="5.0283694267272949e-01" nType="0">
        <Node pos="l" depth="1" NCoef="0" IVar="5" Cut="8.5868656635284424e-01" cType="1" res="-3.9246235042810440e-02" rms="4.5603120326995850e-01" purity="4.3157568573951721e-01" nType="0">
          <Node pos="l" depth="2" NCoef="0" IVar="-1" Cut="0.0000000000000000e+00" cType="1" res="-3.4480105387046933e-04" rms="4.7347426414489746e-01" purity="5.6684464216232300e-01" nType="-99"/>
          <Node pos="r" depth="2" NCoef="0" IVar="-1" Cut="0.0000000000000000e+00" cType="1" res="-1.6578790964558721e-03" rms="4.4129741191864014e-01" purity="3.3006289601325989e-01" nType="-99"/>
        </Node>
        <Node pos="r" depth="1" NCoef="0" IVar="4" Cut="1.6792965698242188e+02" cType="1" res="6.5527446568012238e-03" rms="4.5396280288696289e-01" purity="5.2173554897308350e-01" nType="0">
          <Node pos="l" depth="2" NCoef="0" IVar="-1" Cut="0.0000000000000000e+00" cType="1" res="1.1358674382790923e-03" rms="4.5136103034019470e-01" purity="6.0730344057083130e-01" nType="-99"/>
          <Node pos="r" depth="2" NCoef="0" IVar="-1" Cut="0.0000000000000000e+00" cType="1" res="-4.9802759895101190e-04" rms="4.5511358976364136e-01" purity="4.4317999482154846e-01" nType="-99"/>
        </Node>
      </Node>
    </BinaryTree>
    <BinaryTree type="DecisionTree" boostWeight="1.0000000000000000e+00" itree="477">
      <Node pos="s" depth="0" NCoef="0" IVar="2" Cut="7.8292733430862427e-01" cType="1" res="-1.2701986124739051e-03" rms="4.4927427172660828e-01" purity="5.0109916925430298e-01" nType="0">
        <Node pos="l" depth="1" NCoef="0" IVar="7" Cut="5.3744482994079590e-01" cType="1" res="-5.0559651106595993e-02" rms="4.3303793668746948e-01" purity="2.9697751998901367e-01" nType="0">
          <Node pos="l" depth="2" NCoef="0" IVar="-1" Cut="0.0000000000000000e+00" cType="1" res="-2.0035565830767155e-03" rms="4.1721293330192566e-01" purity="2.5764629244804382e-01" nType="-99"/>
          <Node pos="r" depth="2" NCoef="0" IVar="-1" Cut="0.0000000000000000e+00" cType="1" res="-7.1717676473781466e-04" rms="4.4640064239501953e-01" purity="3.3497741818428040e-01" nType="-99"/>
        </Node>
        <Node pos="r" depth="1" NCoef="0" IVar="3" Cut="4.7296463012695312e+01" cType="1" res="1.0499877855181694e-02" rms="4.5227155089378357e-01" purity="5.4984241724014282e-01" nType="0">
          <Node pos="l" depth="2" NCoef="0" IVar="-1" Cut="0.0000000000000000e+00" cType="1" res="-1.1641731252893806e-03" rms="4.6002236008644104e-01" purity="4.3586701154708862e-01" nType="-99"/>
          <Node pos="r" depth="2" NCoef="0" IVar="-1" Cut="0.0000000000000000e+00" cType="1" res="7.9729937715455890e-04" rms="4.4945743680000305e-01" purity="5.7788854837417603e-01" nType="-99"/>
        </Node>
      </Node>
    </BinaryTree>
    <BinaryTree type="DecisionTree" boostWeight="1.0000000000000000e+00" itree="478">
      <Node pos="s" depth="0" NCoef="0" IVar="4" Cut="6.1784076690673828e+01" cType="1" res="1.3711054343730211e-03" rms="4.5567491650581360e-01" purity="5.0725865364074707e-01" nType="0">
        <Node pos="l" depth="1" NCoef="0" IVar="-1" Cut="0.0000000000000000e+00" cType="1" res="-1.4444774715229869e-03" rms="4.4037863612174988e-01" purity="3.5610932111740112e-01" nType="-99"/>
        <Node pos="r" depth="1" NCoef="0" IVar="9" Cut="7.6886332035064697e-01" cType="1" res="5.6403754279017448e-03" rms="4.5665234327316284e-01" purity="5.1972955465316772e-01" nType="0">
          <Node pos="l" depth="2" NCoef="0" IVar="-1" Cut="0.0000000000000000e+00" cType="1" res="-1.3751091901212931e-03" rms="4.2989328503608704e-01" purity="2.7707746624946594e-01" nType="-99"/>
          <Node pos="r" depth="2" NCoef="0" IVar="-1" Cut="0.0000000000000000e+00" cType="1" res="3.1983517692424357e-04" rms="4.5827224850654602e-01" purity="5.3737646341323853e-01" nType="-99"/>
        </Node>
      </Node>
    </BinaryTree>
    <BinaryTree type="DecisionTree" boostWeight="1.0000000000000000e+00" itree="479">
      <Node pos="s" depth="0" NCoef="0" IVar="7" Cut="8.6154228448867798e-01" cType="1" res="8.4310478996485472e-04" rms="4.5619073510169983e-01" purity="5.0801330804824829e-01" nType="0">
        <Node pos="l" depth="1" NCoef="0" IVar="3" Cut="1.4634167480468750e+02" cType="1" res="-7.7558788470923901e-03" rms="4.6032062172889709e-01" purity="4.7862166166305542e-01" nType="0">
          <Node pos="l" depth="2" NCoef="0" IVar="-1" Cut="0.0000000000000000e+00" cType="1" res="-9.6099691290874034e-05" rms="4.6072757244110107e-01" purity="4.8935288190841675e-01" nType="-99"/>
          <Node pos="r" depth="2" NCoef="0" IVar="-1" Cut="0.0000000000000000e+00" cType="1" res="-1.7599016427993774e-03" rms="4.5190849900245667e-01" purity="3.5249203443527222e-01" nType="-99"/>
        </Node>
        <Node pos="r" depth="1" NCoef="0" IVar="3" Cut="6.8184669494628906e+01" cType="1" res="4.5235730707645416e-02" rms="4.3152850866317749e-01" purity="6.5974909067153931e-01" nType="0">
          <Node pos="l" depth="2" NCoef="0" IVar="-1" Cut="0.0000000000000000e+00" cType="1" res="2.7958987629972398e-04" rms="4.5729348063468933e-01" purity="5.8446788787841797e-01" nType="-99"/>
          <Node pos="r" depth="2" NCoef="0" IVar="-1" Cut="0.0000000000000000e+00" cType="1" res="3.4726841840893030e-03" rms="4.0426662564277649e-01" purity="7.2698801755905151e-01" nType="-99"/>
        </Node>
      </Node>
    </BinaryTree>
    <BinaryTree type="DecisionTree" boostWeight="1.0000000000000000e+00" itree="480">
      <Node pos="s" depth="0" NCoef="0" IVar="0" Cut="9.9946862459182739e-01" cType="1" res="7.5201760046184063e-04" rms="4.5438528060913086e-01" purity="5.0446814298629761e-01" nType="0">
        <Node pos="l" depth="1" NCoef="0" IVar="4" Cut="1.0651410675048828e+02" cType="1" res="2.0545307546854019e-02" rms="4.5304524898529053e-01" purity="6.4876312017440796e-01" nType="0">
          <Node pos="l" depth="2" NCoef="0" IVar="-1" Cut="0.0000000000000000e+00" cType="1" res="-3.9454697980545461e-04" rms="4.7130388021469116e-01" purity="5.9112763404846191e-01" nType="-99"/>
          <Node pos="r" depth="2" NCoef="0" IVar="-1" Cut="0.0000000000000000e+00" cType="1" res="1.4077764935791492e-03" rms="4.4359126687049866e-01" purity="6.7530888319015503e-01" nType="-99"/>
        </Node>
        <Node pos="r" depth="1" NCoef="0" IVar="3" Cut="6.0787792205810547e+01" cType="1" res="-1.1845164932310581e-02" rms="4.5478770136833191e-01" purity="4.1263356804847717e-01" nType="0">
          <Node pos="l" depth="2" NCoef="0" IVar="-1" Cut="0.0000000000000000e+00" cType="1" res="-1.0425433283671737e-03" rms="4.4980224967002869e-01" purity="3.4587147831916809e-01" nType="-99"/>
          <Node pos="r" depth="2" NCoef="0" IVar="-1" Cut="0.0000000000000000e+00" cType="1" res="4.4647433242062107e-05" rms="4.5677956938743591e-01" purity="4.4721230864524841e-01" nType="-99"/>
        </Node>
      </Node>
    </BinaryTree>
    <BinaryTree type="DecisionTree" boostWeight="1.0000000000000000e+00" itree="481">
      <Node pos="s" depth="0" NCoef="0" IVar="7" Cut="8.9353156089782715e-01" cType="1" res="-6.0072336345911026e-03" rms="4.5449051260948181e-01" purity="4.9920144677162170e-01" nType="0">
        <Node pos="l" depth="1" NCoef="0" IVar="7" Cut="5.1074212789535522e-01" cType="1" res="-1.2967748567461967e-02" rms="4.5752909779548645e-01" purity="4.7776117920875549e-01" nType="0">
          <Node pos="l" depth="2" NCoef="0" IVar="-1" Cut="0.0000000000000000e+00" cType="1" res="-2.0272850524634123e-03" rms="4.3549975752830505e-01" purity="3.0604389309883118e-01" nType="-99"/>
          <Node pos="r" depth="2" NCoef="0" IVar="-1" Cut="0.0000000000000000e+00" cType="1" res="-2.2855226416140795e-04" rms="4.5900458097457886e-01" purity="4.9303209781646729e-01" nType="-99"/>
        </Node>
        <Node pos="r" depth="1" NCoef="0" IVar="3" Cut="6.8963172912597656e+01" cType="1" res="4.6823587268590927e-02" rms="4.2704659700393677e-01" purity="6.6193479299545288e-01" nType="0">
          <Node pos="l" depth="2" NCoef="0" IVar="-1" Cut="0.0000000000000000e+00" cType="1" res="2.3657892597839236e-05" rms="4.4789898395538330e-01" purity="5.7206398248672485e-01" nType="-99"/>
          <Node pos="r" depth="2" NCoef="0" IVar="-1" Cut="0.0000000000000000e+00" cType="1" res="4.3940469622612000e-03" rms="4.0070846676826477e-01" purity="7.4925762414932251e-01" nType="-99"/>
        </Node>
      </Node>
    </BinaryTree>
    <BinaryTree type="DecisionTree" boostWeight="1.0000000000000000e+00" itree="482">
      <Node pos="s" depth="0" NCoef="0" IVar="4" Cut="1.4074926757812500e+02" cType="1" res="-3.2138603273779154e-03" rms="4.5557847619056702e-01" purity="5.0062769651412964e-01" nType="0">
        <Node pos="l" depth="1" NCoef="0" IVar="4" Cut="9.7274635314941406e+01" cType="1" res="1.4392237178981304e-02" rms="4.5321843028068542e-01" purity="5.5071663856506348e-01" nType="0">
          <Node pos="l" depth="2" NCoef="0" IVar="-1" Cut="0.0000000000000000e+00" cType="1" res="-7.9895224189385772e-04" rms="4.6093252301216125e-01" purity="4.4917052984237671e-01" nType="-99"/>
          <Node pos="r" depth="2" NCoef="0" IVar="-1" Cut="0.0000000000000000e+00" cType="1" res="1.8526873318478465e-03" rms="4.4360440969467163e-01" purity="6.3675183057785034e-01" nType="-99"/>
        </Node>
        <Node pos="r" depth="1" NCoef="0" IVar="3" Cut="8.1712142944335938e+01" cType="1" res="-1.9470931962132454e-02" rms="4.5714515447616577e-01" purity="4.5437675714492798e-01" nType="0">
          <Node pos="l" depth="2" NCoef="0" IVar="-1" Cut="0.0000000000000000e+00" cType="1" res="-1.0763712925836444e-03" rms="4.5690202713012695e-01" purity="4.1678571701049805e-01" nType="-99"/>
          <Node pos="r" depth="2" NCoef="0" IVar="-1" Cut="0.0000000000000000e+00" cType="1" res="-9.9163175036665052e-05" rms="4.5675465464591980e-01" purity="4.8873367905616760e-01" nType="-99"/>
        </Node>
      </Node>
    </BinaryTree>
    <BinaryTree type="DecisionTree" boostWeight="1.0000000000000000e+00" itree="483">
      <Node pos="s" depth="0" NCoef="0" IVar="4" Cut="3.6572662353515625e+02" cType="1" res="-4.0140687488019466e-03" rms="4.5278674364089966e-01" purity="5.0071871280670166e-01" nType="0">
        <Node pos="l" depth="1" NCoef="0" IVar="4" Cut="9.0419181823730469e+01" cType="1" res="2.2699767723679543e-03" rms="4.5418423414230347e-01" purity="5.1965951919555664e-01" nType="0">
          <Node pos="l" depth="2" NCoef="0" IVar="-1" Cut="0.0000000000000000e+00" cType="1" res="-1.2489937944337726e-03" rms="4.5590472221374512e-01" purity="4.1874200105667114e-01" nType="-99"/>
          <Node pos="r" depth="2" NCoef="0" IVar="-1" Cut="0.0000000000000000e+00" cType="1" res="4.5824269182048738e-04" rms="4.5302766561508179e-01" purity="5.4530167579650879e-01" nType="-99"/>
        </Node>
        <Node pos="r" depth="1" NCoef="0" IVar="-1" Cut="0.0000000000000000e+00" cType="1" res="-1.6483092913404107e-03" rms="4.3688368797302246e-01" purity="3.3794346451759338e-01" nType="-99"/>
      </Node>
    </BinaryTree>
    <BinaryTree type="DecisionTree" boostWeight="1.0000000000000000e+00" itree="484">
      <Node pos="s" depth="0" NCoef="0" IVar="3" Cut="4.6695823669433594e+01" cType="1" res="-9.1966325417160988e-03" rms="4.5624509453773499e-01" purity="4.9529811739921570e-01" nType="0">
        <Node pos="l" depth="1" NCoef="0" IVar="4" Cut="1.3138259887695312e+02" cType="1" res="-4.1053250432014465e-02" rms="4.5138531923294067e-01" purity="3.9591118693351746e-01" nType="0">
          <Node pos="l" depth="2" NCoef="0" IVar="-1" Cut="0.0000000000000000e+00" cType="1" res="-3.0677297036163509e-04" rms="4.4671273231506348e-01" purity="4.2975991964340210e-01" nType="-99"/>
          <Node pos="r" depth="2" NCoef="0" IVar="-1" Cut="0.0000000000000000e+00" cType="1" res="-2.1084521431475878e-03" rms="4.5425477623939514e-01" purity="3.5318470001220703e-01" nType="-99"/>
        </Node>
        <Node pos="r" depth="1" NCoef="0" IVar="2" Cut="7.7585947513580322e-01" cType="1" res="-1.4746598899364471e-03" rms="4.5708110928535461e-01" purity="5.1938927173614502e-01" nType="0">
          <Node pos="l" depth="2" NCoef="0" IVar="-1" Cut="0.0000000000000000e+00" cType="1" res="-1.0656984522938728e-03" rms="4.4537064433097839e-01" purity="3.1995579600334167e-01" nType="-99"/>
          <Node pos="r" depth="2" NCoef="0" IVar="-1" Cut="0.0000000000000000e+00" cType="1" res="2.2107757104095072e-04" rms="4.5913147926330566e-01" purity="5.6166625022888184e-01" nType="-99"/>
        </Node>
      </Node>
    </BinaryTree>
    <BinaryTree type="DecisionTree" boostWeight="1.0000000000000000e+00" itree="485">
      <Node pos="s" depth="0" NCoef="0" IVar="2" Cut="7.4355262517929077e-01" cType="1" res="-7.3546683415770531e-03" rms="4.5623180270195007e-01" purity="4.9871659278869629e-01" nType="0">
        <Node pos="l" depth="1" NCoef="0" IVar="-1" Cut="0.0000000000000000e+00" cType="1" res="-1.6214530915021896e-03" rms="4.2023420333862305e-01" purity="2.5963369011878967e-01" nType="-99"/>
        <Node pos="r" depth="1" NCoef="0" IVar="4" Cut="2.5536624145507812e+02" cType="1" res="-1.6121065709739923e-03" rms="4.5959526300430298e-01" purity="5.2461534738540649e-01" nType="0">
          <Node pos="l" depth="2" NCoef="0" IVar="-1" Cut="0.0000000000000000e+00" cType="1" res="2.7252204017713666e-04" rms="4.6205681562423706e-01" purity="5.5671769380569458e-01" nType="-99"/>
          <Node pos="r" depth="2" NCoef="0" IVar="-1" Cut="0.0000000000000000e+00" cType="1" res="-1.0767198400571942e-03" rms="4.4862475991249084e-01" purity="4.0672984719276428e-01" nType="-99"/>
        </Node>
      </Node>
    </BinaryTree>
    <BinaryTree type="DecisionTree" boostWeight="1.0000000000000000e+00" itree="486">
      <Node pos="s" depth="0" NCoef="0" IVar="7" Cut="5.4666620492935181e-01" cType="1" res="3.5460777580738068e-03" rms="4.5398938655853271e-01" purity="5.0994318723678589e-01" nType="0">
        <Node pos="l" depth="1" NCoef="0" IVar="8" Cut="4.9247592687606812e-01" cType="1" res="-3.2259959727525711e-02" rms="4.5405846834182739e-01" purity="3.6964279413223267e-01" nType="0">
          <Node pos="l" depth="2" NCoef="0" IVar="-1" Cut="0.0000000000000000e+00" cType="1" res="-1.4609482605010271e-04" rms="4.4237512350082397e-01" purity="3.5301360487937927e-01" nType="-99"/>
          <Node pos="r" depth="2" NCoef="0" IVar="-1" Cut="0.0000000000000000e+00" cType="1" res="-1.4723769854754210e-03" rms="4.6153536438941956e-01" purity="3.8203912973403931e-01" nType="-99"/>
        </Node>
        <Node pos="r" depth="1" NCoef="0" IVar="0" Cut="1.5933114290237427e+00" cType="1" res="1.2478144839406013e-02" rms="4.5353180170059204e-01" purity="5.4494214057922363e-01" nType="0">
          <Node pos="l" depth="2" NCoef="0" IVar="-1" Cut="0.0000000000000000e+00" cType="1" res="6.4050487708300352e-04" rms="4.5698752999305725e-01" purity="5.7688534259796143e-01" nType="-99"/>
          <Node pos="r" depth="2" NCoef="0" IVar="-1" Cut="0.0000000000000000e+00" cType="1" res="-1.0698628611862659e-03" rms="4.1981005668640137e-01" purity="2.7537947893142700e-01" nType="-99"/>
        </Node>
      </Node>
    </BinaryTree>
    <BinaryTree type="DecisionTree" boostWeight="1.0000000000000000e+00" itree="487">
      <Node pos="s" depth="0" NCoef="0" IVar="0" Cut="6.5640097856521606e-01" cType="1" res="8.2180311437696218e-04" rms="4.5330920815467834e-01" purity="5.0647956132888794e-01" nType="0">
        <Node pos="l" depth="1" NCoef="0" IVar="-1" Cut="0.0000000000000000e+00" cType="1" res="2.6021981611847878e-03" rms="4.2710366845130920e-01" purity="7.3190385103225708e-01" nType="-99"/>
        <Node pos="r" depth="1" NCoef="0" IVar="9" Cut="7.9388171434402466e-01" cType="1" res="-5.1329238340258598e-03" rms="4.5552867650985718e-01" purity="4.8308598995208740e-01" nType="0">
          <Node pos="l" depth="2" NCoef="0" IVar="-1" Cut="0.0000000000000000e+00" cType="1" res="-1.7708946252241731e-03" rms="4.1151872277259827e-01" purity="2.4975624680519104e-01" nType="-99"/>
          <Node pos="r" depth="2" NCoef="0" IVar="-1" Cut="0.0000000000000000e+00" cType="1" res="2.6560615879134275e-05" rms="4.5925194025039673e-01" purity="5.0631898641586304e-01" nType="-99"/>
        </Node>
      </Node>
    </BinaryTree>
    <BinaryTree type="DecisionTree" boostWeight="1.0000000000000000e+00" itree="488">
      <Node pos="s" depth="0" NCoef="0" IVar="6" Cut="2.1849006414413452e-02" cType="1" res="-7.3003587312996387e-03" rms="4.5720204710960388e-01" purity="5.0009411573410034e-01" nType="0">
        <Node pos="l" depth="1" NCoef="0" IVar="3" Cut="7.2604072570800781e+01" cType="1" res="-2.0303059369325638e-02" rms="4.5872056484222412e-01" purity="5.3483909368515015e-01" nType="0">
          <Node pos="l" depth="2" NCoef="0" IVar="-1" Cut="0.0000000000000000e+00" cType="1" res="-1.1049092281609774e-03" rms="4.6366646885871887e-01" purity="4.8957142233848572e-01" nType="-99"/>
          <Node pos="r" depth="2" NCoef="0" IVar="-1" Cut="0.0000000000000000e+00" cType="1" res="-1.9554213213268667e-04" rms="4.5355412364006042e-01" purity="5.7710772752761841e-01" nType="-99"/>
        </Node>
        <Node pos="r" depth="1" NCoef="0" IVar="8" Cut="6.0282385349273682e-01" cType="1" res="1.1857097968459129e-02" rms="4.5427793264389038e-01" purity="4.4890287518501282e-01" nType="0">
          <Node pos="l" depth="2" NCoef="0" IVar="-1" Cut="0.0000000000000000e+00" cType="1" res="6.7331842728890479e-05" rms="4.5514839887619019e-01" purity="4.2435154318809509e-01" nType="-99"/>
          <Node pos="r" depth="2" NCoef="0" IVar="-1" Cut="0.0000000000000000e+00" cType="1" res="2.8965394012629986e-03" rms="4.4236600399017334e-01" purity="6.2067735195159912e-01" nType="-99"/>
        </Node>
      </Node>
    </BinaryTree>
    <BinaryTree type="DecisionTree" boostWeight="1.0000000000000000e+00" itree="489">
      <Node pos="s" depth="0" NCoef="0" IVar="0" Cut="7.8330767154693604e-01" cType="1" res="-5.2183358930051327e-03" rms="4.5305866003036499e-01" purity="4.9628633260726929e-01" nType="0">
        <Node pos="l" depth="1" NCoef="0" IVar="7" Cut="6.9329869747161865e-01" cType="1" res="3.1009152531623840e-02" rms="4.4510307908058167e-01" purity="6.9074141979217529e-01" nType="0">
          <Node pos="l" depth="2" NCoef="0" IVar="-1" Cut="0.0000000000000000e+00" cType="1" res="2.1379583049565554e-03" rms="4.5441851019859314e-01" purity="6.5205049514770508e-01" nType="-99"/>
          <Node pos="r" depth="2" NCoef="0" IVar="-1" Cut="0.0000000000000000e+00" cType="1" res="-8.0827467172639444e-06" rms="4.3233308196067810e-01" purity="7.3397523164749146e-01" nType="-99"/>
        </Node>
        <Node pos="r" depth="1" NCoef="0" IVar="9" Cut="7.8475689888000488e-01" cType="1" res="-1.3114002533257008e-02" rms="4.5439088344573975e-01" purity="4.5390543341636658e-01" nType="0">
          <Node pos="l" depth="2" NCoef="0" IVar="-1" Cut="0.0000000000000000e+00" cType="1" res="-1.8817732343450189e-03" rms="4.0319043397903442e-01" purity="2.2888360917568207e-01" nType="-99"/>
          <Node pos="r" depth="2" NCoef="0" IVar="-1" Cut="0.0000000000000000e+00" cType="1" res="-2.3541071277577430e-04" rms="4.5857822895050049e-01" purity="4.7526207566261292e-01" nType="-99"/>
        </Node>
      </Node>
    </BinaryTree>
    <BinaryTree type="DecisionTree" boostWeight="1.0000000000000000e+00" itree="490">
      <Node pos="s" depth="0" NCoef="0" IVar="3" Cut="1.4648326110839844e+02" cType="1" res="-5.3384313359856606e-03" rms="4.5336857438087463e-01" purity="4.9740651249885559e-01" nType="0">
        <Node pos="l" depth="1" NCoef="0" IVar="3" Cut="1.0905963897705078e+02" cType="1" res="2.9916947823949158e-04" rms="4.5345541834831238e-01" purity="5.0890678167343140e-01" nType="0">
          <Node pos="l" depth="2" NCoef="0" IVar="-1" Cut="0.0000000000000000e+00" cType="1" res="-4.4305773917585611e-04" rms="4.5826160907745361e-01" purity="4.8289278149604797e-01" nType="-99"/>
          <Node pos="r" depth="2" NCoef="0" IVar="-1" Cut="0.0000000000000000e+00" cType="1" res="2.6023441459983587e-03" rms="4.2385303974151611e-01" purity="6.3008403778076172e-01" nType="-99"/>
        </Node>
        <Node pos="r" depth="1" NCoef="0" IVar="-1" Cut="0.0000000000000000e+00" cType="1" res="-2.0285914652049541e-03" rms="4.4705963134765625e-01" purity="3.6235675215721130e-01" nType="-99"/>
      </Node>
    </BinaryTree>
    <BinaryTree type="DecisionTree" boostWeight="1.0000000000000000e+00" itree="491">
      <Node pos="s" depth="0" NCoef="0" IVar="5" Cut="1.6984581947326660e+00" cType="1" res="-4.8178466968238354e-03" rms="4.5199692249298096e-01" purity="4.9719125032424927e-01" nType="0">
        <Node pos="l" depth="1" NCoef="0" IVar="8" Cut="4.9140650033950806e-01" cType="1" res="9.9031545687466860e-04" rms="4.6097415685653687e-01" purity="5.3485375642776489e-01" nType="0">
          <Node pos="l" depth="2" NCoef="0" IVar="-1" Cut="0.0000000000000000e+00" cType="1" res="-7.7310955384746194e-04" rms="4.6519017219543457e-01" purity="4.2294308543205261e-01" nType="-99"/>
          <Node pos="r" depth="2" NCoef="0" IVar="-1" Cut="0.0000000000000000e+00" cType="1" res="3.4203578252345324e-04" rms="4.5923456549644470e-01" purity="5.7090252637863159e-01" nType="-99"/>
        </Node>
        <Node pos="r" depth="1" NCoef="0" IVar="-1" Cut="0.0000000000000000e+00" cType="1" res="-1.6779009019955993e-03" rms="3.5704302787780762e-01" purity="1.5813612937927246e-01" nType="-99"/>
      </Node>
    </BinaryTree>
    <BinaryTree type="DecisionTree" boostWeight="1.0000000000000000e+00" itree="492">
      <Node pos="s" depth="0" NCoef="0" IVar="3" Cut="7.5046775817871094e+01" cType="1" res="-1.9638030789792538e-03" rms="4.5430648326873779e-01" purity="5.0324809551239014e-01" nType="0">
        <Node pos="l" depth="1" NCoef="0" IVar="4" Cut="7.9054153442382812e+01" cType="1" res="-2.1444326266646385e-02" rms="4.5953744649887085e-01" purity="4.6024715900421143e-01" nType="0">
          <Node pos="l" depth="2" NCoef="0" IVar="-1" Cut="0.0000000000000000e+00" cType="1" res="-1.9018496386706829e-03" rms="4.5689615607261658e-01" purity="3.7778198719024658e-01" nType="-99"/>
          <Node pos="r" depth="2" NCoef="0" IVar="-1" Cut="0.0000000000000000e+00" cType="1" res="-2.3816975590307266e-04" rms="4.5943439006805420e-01" purity="4.8482599854469299e-01" nType="-99"/>
        </Node>
        <Node pos="r" depth="1" NCoef="0" IVar="3" Cut="1.5347256469726562e+02" cType="1" res="1.8076539039611816e-02" rms="4.4797846674919128e-01" purity="5.4748475551605225e-01" nType="0">
          <Node pos="l" depth="2" NCoef="0" IVar="-1" Cut="0.0000000000000000e+00" cType="1" res="9.4400980742648244e-04" rms="4.4807419180870056e-01" purity="5.7288658618927002e-01" nType="-99"/>
          <Node pos="r" depth="2" NCoef="0" IVar="-1" Cut="0.0000000000000000e+00" cType="1" res="-1.2225628597661853e-03" rms="4.4267508387565613e-01" purity="3.7050351500511169e-01" nType="-99"/>
        </Node>
      </Node>
    </BinaryTree>
    <BinaryTree type="DecisionTree" boostWeight="1.0000000000000000e+00" itree="493">
      <Node pos="s" depth="0" NCoef="0" IVar="5" Cut="1.7046725749969482e+00" cType="1" res="-6.8042073398828506e-03" rms="4.5268440246582031e-01" purity="4.9579966068267822e-01" nType="0">
        <Node pos="l" depth="1" NCoef="0" IVar="3" Cut="1.0090112304687500e+02" cType="1" res="-1.6283927252516150e-03" rms="4.6144509315490723e-01" purity="5.3198158740997314e-01" nType="0">
          <Node pos="l" depth="2" NCoef="0" IVar="-1" Cut="0.0000000000000000e+00" cType="1" res="-3.8316636346280575e-04" rms="4.6643844246864319e-01" purity="5.0521188974380493e-01" nType="-99"/>
          <Node pos="r" depth="2" NCoef="0" IVar="-1" Cut="0.0000000000000000e+00" cType="1" res="9.5696450443938375e-04" rms="4.4695562124252319e-01" purity="6.0163110494613647e-01" nType="-99"/>
        </Node>
        <Node pos="r" depth="1" NCoef="0" IVar="-1" Cut="0.0000000000000000e+00" cType="1" res="-1.6608346486464143e-03" rms="3.5714468359947205e-01" purity="1.5792354941368103e-01" nType="-99"/>
      </Node>
    </BinaryTree>
    <BinaryTree type="DecisionTree" boostWeight="1.0000000000000000e+00" itree="494">
      <Node pos="s" depth="0" NCoef="0" IVar="1" Cut="2.5317099094390869e+00" cType="1" res="-4.0768836624920368e-03" rms="4.5500481128692627e-01" purity="5.0183278322219849e-01" nType="0">
        <Node pos="l" depth="1" NCoef="0" IVar="9" Cut="9.7934013605117798e-01" cType="1" res="5.1265640649944544e-04" rms="4.5983281731605530e-01" purity="5.2593445777893066e-01" nType="0">
          <Node pos="l" depth="2" NCoef="0" IVar="-1" Cut="0.0000000000000000e+00" cType="1" res="-3.8599080289714038e-04" rms="4.6505397558212280e-01" purity="4.6859559416770935e-01" nType="-99"/>
          <Node pos="r" depth="2" NCoef="0" IVar="-1" Cut="0.0000000000000000e+00" cType="1" res="6.9490028545260429e-04" rms="4.5160129666328430e-01" purity="6.0783833265304565e-01" nType="-99"/>
        </Node>
        <Node pos="r" depth="1" NCoef="0" IVar="-1" Cut="0.0000000000000000e+00" cType="1" res="-1.5994295245036483e-03" rms="3.9301556348800659e-01" purity="2.3080924153327942e-01" nType="-99"/>
      </Node>
    </BinaryTree>
    <BinaryTree type="DecisionTree" boostWeight="1.0000000000000000e+00" itree="495">
      <Node pos="s" depth="0" NCoef="0" IVar="4" Cut="9.9836463928222656e+01" cType="1" res="-2.3203746241051704e-04" rms="4.5448818802833557e-01" purity="5.0550651550292969e-01" nType="0">
        <Node pos="l" depth="1" NCoef="0" IVar="0" Cut="9.3724620342254639e-01" cType="1" res="-2.9173245653510094e-02" rms="4.5897409319877625e-01" purity="4.4964945316314697e-01" nType="0">
          <Node pos="l" depth="2" NCoef="0" IVar="-1" Cut="0.0000000000000000e+00" cType="1" res="-4.1011840949067846e-05" rms="4.7716212272644043e-01" purity="6.0021150112152100e-01" nType="-99"/>
          <Node pos="r" depth="2" NCoef="0" IVar="-1" Cut="0.0000000000000000e+00" cType="1" res="-1.2853810330852866e-03" rms="4.4687139987945557e-01" purity="3.5933640599250793e-01" nType="-99"/>
        </Node>
        <Node pos="r" depth="1" NCoef="0" IVar="4" Cut="1.3904600524902344e+02" cType="1" res="8.7886881083250046e-03" rms="4.5270282030105591e-01" purity="5.2291667461395264e-01" nType="0">
          <Node pos="l" depth="2" NCoef="0" IVar="-1" Cut="0.0000000000000000e+00" cType="1" res="1.7835802864283323e-03" rms="4.4149923324584961e-01" purity="6.3730633258819580e-01" nType="-99"/>
          <Node pos="r" depth="2" NCoef="0" IVar="-1" Cut="0.0000000000000000e+00" cType="1" res="-2.9303124756552279e-04" rms="4.5682650804519653e-01" purity="4.6837362647056580e-01" nType="-99"/>
        </Node>
      </Node>
    </BinaryTree>
    <BinaryTree type="DecisionTree" boostWeight="1.0000000000000000e+00" itree="496">
      <Node pos="s" depth="0" NCoef="0" IVar="8" Cut="5.8412152528762817e-01" cType="1" res="-2.4261663202196360e-03" rms="4.5459327101707458e-01" purity="5.0464355945587158e-01" nType="0">
        <Node pos="l" depth="1" NCoef="0" IVar="4" Cut="3.2253149414062500e+02" cType="1" res="-1.5505793504416943e-02" rms="4.5849299430847168e-01" purity="4.4731938838958740e-01" nType="0">
          <Node pos="l" depth="2" NCoef="0" IVar="-1" Cut="0.0000000000000000e+00" cType="1" res="-2.8523299260996282e-04" rms="4.6227866411209106e-01" purity="4.7093150019645691e-01" nType="-99"/>
          <Node pos="r" depth="2" NCoef="0" IVar="-1" Cut="0.0000000000000000e+00" cType="1" res="-1.4490738976746798e-03" rms="4.3442767858505249e-01" purity="3.1153365969657898e-01" nType="-99"/>
        </Node>
        <Node pos="r" depth="1" NCoef="0" IVar="8" Cut="6.6190379858016968e-01" cType="1" res="2.1842962130904198e-02" rms="4.4625282287597656e-01" purity="6.1100810766220093e-01" nType="0">
          <Node pos="l" depth="2" NCoef="0" IVar="-1" Cut="0.0000000000000000e+00" cType="1" res="4.3814579839818180e-04" rms="4.5199143886566162e-01" purity="5.9013289213180542e-01" nType="-99"/>
          <Node pos="r" depth="2" NCoef="0" IVar="-1" Cut="0.0000000000000000e+00" cType="1" res="2.0539297256618738e-03" rms="4.2715466022491455e-01" purity="6.7408740520477295e-01" nType="-99"/>
        </Node>
      </Node>
    </BinaryTree>
    <BinaryTree type="DecisionTree" boostWeight="1.0000000000000000e+00" itree="497">
      <Node pos="s" depth="0" NCoef="0" IVar="3" Cut="1.4774862670898438e+02" cType="1" res="-4.8072342760860920e-03" rms="4.5489674806594849e-01" purity="4.9782609939575195e-01" nType="0">
        <Node pos="l" depth="1" NCoef="0" IVar="3" Cut="9.8530380249023438e+01" cType="1" res="1.1007782304659486e-03" rms="4.5479136705398560e-01" purity="5.0926500558853149e-01" nType="0">
          <Node pos="l" depth="2" NCoef="0" IVar="-1" Cut="0.0000000000000000e+00" cType="1" res="-3.2478413777425885e-04" rms="4.5881012082099915e-01" purity="4.7797405719757080e-01" nType="-99"/>
          <Node pos="r" depth="2" NCoef="0" IVar="-1" Cut="0.0000000000000000e+00" cType="1" res="1.2982786865904927e-03" rms="4.4090715050697327e-01" purity="6.0166049003601074e-01" nType="-99"/>
        </Node>
        <Node pos="r" depth="1" NCoef="0" IVar="-1" Cut="0.0000000000000000e+00" cType="1" res="-2.2505836095660925e-03" rms="4.4946736097335815e-01" purity="3.5180130600929260e-01" nType="-99"/>
      </Node>
    </BinaryTree>
    <BinaryTree type="DecisionTree" boostWeight="1.0000000000000000e+00" itree="498">
      <Node pos="s" depth="0" NCoef="0" IVar="3" Cut="4.4186679840087891e+01" cType="1" res="-2.4944576434791088e-03" rms="4.5500901341438293e-01" purity="5.0152486562728882e-01" nType="0">
        <Node pos="l" depth="1" NCoef="0" IVar="4" Cut="1.0019023895263672e+02" cType="1" res="-3.8513310253620148e-02" rms="4.5370543003082275e-01" purity="3.9830243587493896e-01" nType="0">
          <Node pos="l" depth="2" NCoef="0" IVar="-1" Cut="0.0000000000000000e+00" cType="1" res="-1.8117583822458982e-03" rms="4.4421786069869995e-01" purity="3.5160440206527710e-01" nType="-99"/>
          <Node pos="r" depth="2" NCoef="0" IVar="-1" Cut="0.0000000000000000e+00" cType="1" res="-5.5194267770275474e-04" rms="4.5920214056968689e-01" purity="4.3088954687118530e-01" nType="-99"/>
        </Node>
        <Node pos="r" depth="1" NCoef="0" IVar="4" Cut="2.6470254516601562e+02" cType="1" res="4.7168857418000698e-03" rms="4.5492702722549438e-01" purity="5.2219110727310181e-01" nType="0">
          <Node pos="l" depth="2" NCoef="0" IVar="-1" Cut="0.0000000000000000e+00" cType="1" res="4.9268506700173020e-04" rms="4.5575550198554993e-01" purity="5.5819767713546753e-01" nType="-99"/>
          <Node pos="r" depth="2" NCoef="0" IVar="-1" Cut="0.0000000000000000e+00" cType="1" res="-8.5090700304135680e-04" rms="4.5045828819274902e-01" purity="3.9817574620246887e-01" nType="-99"/>
        </Node>
      </Node>
    </BinaryTree>
    <BinaryTree type="DecisionTree" boostWeight="1.0000000000000000e+00" itree="499">
      <Node pos="s" depth="0" NCoef="0" IVar="4" Cut="1.0092000579833984e+02" cType="1" res="-4.8746173270046711e-03" rms="4.5536154508590698e-01" purity="4.9944683909416199e-01" nType="0">
        <Node pos="l" depth="1" NCoef="0" IVar="0" Cut="9.1021019220352173e-01" cType="1" res="-4.5025467872619629e-02" rms="4.5666632056236267e-01" purity="4.3534889817237854e-01" nType="0">
          <Node pos="l" depth="2" NCoef="0" IVar="-1" Cut="0.0000000000000000e+00" cType="1" res="-2.6910763699561357e-04" rms="4.7573354840278625e-01" purity="5.9177178144454956e-01" nType="-99"/>
          <Node pos="r" depth="2" NCoef="0" IVar="-1" Cut="0.0000000000000000e+00" cType="1" res="-1.7971302149817348e-03" rms="4.4524037837982178e-01" purity="3.5421842336654663e-01" nType="-99"/>
        </Node>
        <Node pos="r" depth="1" NCoef="0" IVar="4" Cut="1.4011445617675781e+02" cType="1" res="8.0073196440935135e-03" rms="4.5419067144393921e-01" purity="5.2001196146011353e-01" nType="0">
          <Node pos="l" depth="2" NCoef="0" IVar="-1" Cut="0.0000000000000000e+00" cType="1" res="1.6028719255700707e-03" rms="4.4516927003860474e-01" purity="6.3396239280700684e-01" nType="-99"/>
          <Node pos="r" depth="2" NCoef="0" IVar="-1" Cut="0.0000000000000000e+00" cType="1" res="-2.6485667331144214e-04" rms="4.5749074220657349e-01" purity="4.6578538417816162e-01" nType="-99"/>
        </Node>
      </Node>
    </BinaryTree>
    <BinaryTree type="DecisionTree" boostWeight="1.0000000000000000e+00" itree="500">
      <Node pos="s" depth="0" NCoef="0" IVar="4" Cut="9.2847412109375000e+01" cType="1" res="1.0124151594936848e-03" rms="4.5399409532546997e-01" purity="5.0474381446838379e-01" nType="0">
        <Node pos="l" depth="1" NCoef="0" IVar="4" Cut="6.8273315429687500e+01" cType="1" res="-3.5113107413053513e-02" rms="4.5419207215309143e-01" purity="4.2779183387756348e-01" nType="0">
          <Node pos="l" depth="2" NCoef="0" IVar="-1" Cut="0.0000000000000000e+00" cType="1" res="-1.8918744754046202e-03" rms="4.4081777334213257e-01" purity="3.5391879081726074e-01" nType="-99"/>
          <Node pos="r" depth="2" NCoef="0" IVar="-1" Cut="0.0000000000000000e+00" cType="1" res="-1.0567634308245033e-04" rms="4.6401086449623108e-01" purity="4.9629881978034973e-01" nType="-99"/>
        </Node>
        <Node pos="r" depth="1" NCoef="0" IVar="4" Cut="1.2816822814941406e+02" cType="1" res="9.9912891164422035e-03" rms="4.5349857211112976e-01" purity="5.2386993169784546e-01" nType="0">
          <Node pos="l" depth="2" NCoef="0" IVar="-1" Cut="0.0000000000000000e+00" cType="1" res="1.4287892263382673e-03" rms="4.5027002692222595e-01" purity="6.2507718801498413e-01" nType="-99"/>
          <Node pos="r" depth="2" NCoef="0" IVar="-1" Cut="0.0000000000000000e+00" cType="1" res="-1.8546788851381280e-05" rms="4.5423746109008789e-01" purity="4.8628133535385132e-01" nType="-99"/>
        </Node>
      </Node>
    </BinaryTree>
    <BinaryTree type="DecisionTree" boostWeight="1.0000000000000000e+00" itree="501">
      <Node pos="s" depth="0" NCoef="0" IVar="3" Cut="3.6168422698974609e+01" cType="1" res="-4.3983142822980881e-03" rms="4.5524471998214722e-01" purity="5.0044053792953491e-01" nType="0">
        <Node pos="l" depth="1" NCoef="0" IVar="-1" Cut="0.0000000000000000e+00" cType="1" res="-1.8082377500832081e-03" rms="4.4575947523117065e-01" purity="3.4680840373039246e-01" nType="-99"/>
        <Node pos="r" depth="1" NCoef="0" IVar="5" Cut="5.3394597768783569e-01" cType="1" res="1.0720454156398773e-03" rms="4.5565393567085266e-01" purity="5.1384466886520386e-01" nType="0">
          <Node pos="l" depth="2" NCoef="0" IVar="-1" Cut="0.0000000000000000e+00" cType="1" res="2.2730808705091476e-03" rms="4.4259101152420044e-01" purity="7.0838636159896851e-01" nType="-99"/>
          <Node pos="r" depth="2" NCoef="0" IVar="-1" Cut="0.0000000000000000e+00" cType="1" res="-1.7872365424409509e-04" rms="4.5687079429626465e-01" purity="4.8881188035011292e-01" nType="-99"/>
        </Node>
      </Node>
    </BinaryTree>
    <BinaryTree type="DecisionTree" boostWeight="1.0000000000000000e+00" itree="502">
      <Node pos="s" depth="0" NCoef="0" IVar="1" Cut="1.9953173398971558e+00" cType="1" res="-3.2773523125797510e-03" rms="4.5210155844688416e-01" purity="4.9839586019515991e-01" nType="0">
        <Node pos="l" depth="1" NCoef="0" IVar="9" Cut="8.5857021808624268e-01" cType="1" res="5.6995954364538193e-03" rms="4.5908614993095398e-01" purity="5.4015028476715088e-01" nType="0">
          <Node pos="l" depth="2" NCoef="0" IVar="-1" Cut="0.0000000000000000e+00" cType="1" res="-1.0954455938190222e-03" rms="4.4902804493904114e-01" purity="3.4774300456047058e-01" nType="-99"/>
          <Node pos="r" depth="2" NCoef="0" IVar="-1" Cut="0.0000000000000000e+00" cType="1" res="4.5774879981763661e-04" rms="4.6033346652984619e-01" purity="5.7306885719299316e-01" nType="-99"/>
        </Node>
        <Node pos="r" depth="1" NCoef="0" IVar="5" Cut="1.3061919212341309e+00" cType="1" res="-5.1613189280033112e-02" rms="4.0909335017204285e-01" purity="2.7357167005538940e-01" nType="0">
          <Node pos="l" depth="2" NCoef="0" IVar="-1" Cut="0.0000000000000000e+00" cType="1" res="-8.0913904821500182e-04" rms="4.6818724274635315e-01" purity="4.3490290641784668e-01" nType="-99"/>
          <Node pos="r" depth="2" NCoef="0" IVar="-1" Cut="0.0000000000000000e+00" cType="1" res="-1.8592750420793891e-03" rms="3.6716547608375549e-01" purity="1.7388653755187988e-01" nType="-99"/>
        </Node>
      </Node>
    </BinaryTree>
    <BinaryTree type="DecisionTree" boostWeight="1.0000000000000000e+00" itree="503">
      <Node pos="s" depth="0" NCoef="0" IVar="1" Cut="3.0081513524055481e-01" cType="1" res="-4.9402285367250443e-03" rms="4.5407778024673462e-01" purity="4.9985706806182861e-01" nType="0">
        <Node pos="l" depth="1" NCoef="0" IVar="8" Cut="5.5633366107940674e-01" cType="1" res="4.3063439428806305e-02" rms="4.4708514213562012e-01" purity="6.6507446765899658e-01" nType="0">
          <Node pos="l" depth="2" NCoef="0" IVar="-1" Cut="0.0000000000000000e+00" cType="1" res="1.0520743671804667e-03" rms="4.6736538410186768e-01" purity="5.9670698642730713e-01" nType="-99"/>
          <Node pos="r" depth="2" NCoef="0" IVar="-1" Cut="0.0000000000000000e+00" cType="1" res="2.5909123942255974e-03" rms="4.2532256245613098e-01" purity="7.3388731479644775e-01" nType="-99"/>
        </Node>
        <Node pos="r" depth="1" NCoef="0" IVar="3" Cut="9.5040588378906250e+01" cType="1" res="-1.0282538831233978e-02" rms="4.5453596115112305e-01" purity="4.8147001862525940e-01" nType="0">
          <Node pos="l" depth="2" NCoef="0" IVar="-1" Cut="0.0000000000000000e+00" cType="1" res="-6.5325549803674221e-04" rms="4.5915734767913818e-01" purity="4.5433309674263000e-01" nType="-99"/>
          <Node pos="r" depth="2" NCoef="0" IVar="-1" Cut="0.0000000000000000e+00" cType="1" res="4.1627098107710481e-04" rms="4.4444689154624939e-01" purity="5.3488761186599731e-01" nType="-99"/>
        </Node>
      </Node>
    </BinaryTree>
    <BinaryTree type="DecisionTree" boostWeight="1.0000000000000000e+00" itree="504">
      <Node pos="s" depth="0" NCoef="0" IVar="5" Cut="1.7043089866638184e+00" cType="1" res="-5.3802882321178913e-03" rms="4.5332849025726318e-01" purity="4.9698582291603088e-01" nType="0">
        <Node pos="l" depth="1" NCoef="0" IVar="3" Cut="8.5582702636718750e+01" cType="1" res="-8.9871627278625965e-04" rms="4.6184852719306946e-01" purity="5.3160947561264038e-01" nType="0">
          <Node pos="l" depth="2" NCoef="0" IVar="-1" Cut="0.0000000000000000e+00" cType="1" res="-3.8494469481520355e-04" rms="4.6915373206138611e-01" purity="4.9155610799789429e-01" nType="-99"/>
          <Node pos="r" depth="2" NCoef="0" IVar="-1" Cut="0.0000000000000000e+00" cType="1" res="6.2149966834113002e-04" rms="4.4961065053939819e-01" purity="5.9402501583099365e-01" nType="-99"/>
        </Node>
        <Node pos="r" depth="1" NCoef="0" IVar="-1" Cut="0.0000000000000000e+00" cType="1" res="-1.4909974997863173e-03" rms="3.5766255855560303e-01" purity="1.6170403361320496e-01" nType="-99"/>
      </Node>
    </BinaryTree>
    <BinaryTree type="DecisionTree" boostWeight="1.0000000000000000e+00" itree="505">
      <Node pos="s" depth="0" NCoef="0" IVar="0" Cut="1.6369217634201050e+00" cType="1" res="-2.9110049363225698e-03" rms="4.5463973283767700e-01" purity="5.0024348497390747e-01" nType="0">
        <Node pos="l" depth="1" NCoef="0" IVar="8" Cut="6.5755277872085571e-01" cType="1" res="1.7660789890214801e-03" rms="4.6008580923080444e-01" purity="5.2707409858703613e-01" nType="0">
          <Node pos="l" depth="2" NCoef="0" IVar="-1" Cut="0.0000000000000000e+00" cType="1" res="-8.4725303167942911e-05" rms="4.6231210231781006e-01" purity="5.0933635234832764e-01" nType="-99"/>
          <Node pos="r" depth="2" NCoef="0" IVar="-1" Cut="0.0000000000000000e+00" cType="1" res="1.8386087613180280e-03" rms="4.3676188588142395e-01" purity="6.9152140617370605e-01" nType="-99"/>
        </Node>
        <Node pos="r" depth="1" NCoef="0" IVar="-1" Cut="0.0000000000000000e+00" cType="1" res="-1.4628776116296649e-03" rms="3.9053362607955933e-01" purity="2.2229726612567902e-01" nType="-99"/>
      </Node>
    </BinaryTree>
    <BinaryTree type="DecisionTree" boostWeight="1.0000000000000000e+00" itree="506">
      <Node pos="s" depth="0" NCoef="0" IVar="8" Cut="6.4818221330642700e-01" cType="1" res="-1.9511326681822538e-03" rms="4.5402416586875916e-01" purity="5.0411874055862427e-01" nType="0">
        <Node pos="l" depth="1" NCoef="0" IVar="4" Cut="3.6666882324218750e+02" cType="1" res="-8.1761917099356651e-03" rms="4.5743364095687866e-01" purity="4.8107200860977173e-01" nType="0">
          <Node pos="l" depth="2" NCoef="0" IVar="-1" Cut="0.0000000000000000e+00" cType="1" res="-1.2700000661425292e-04" rms="4.6006929874420166e-01" purity="4.9897453188896179e-01" nType="-99"/>
          <Node pos="r" depth="2" NCoef="0" IVar="-1" Cut="0.0000000000000000e+00" cType="1" res="-1.2632625875994563e-03" rms="4.3291106820106506e-01" purity="3.2962980866432190e-01" nType="-99"/>
        </Node>
        <Node pos="r" depth="1" NCoef="0" IVar="4" Cut="1.5110580444335938e+02" cType="1" res="4.2253352701663971e-02" rms="4.2642873525619507e-01" purity="6.6777479648590088e-01" nType="0">
          <Node pos="l" depth="2" NCoef="0" IVar="-1" Cut="0.0000000000000000e+00" cType="1" res="3.4006044734269381e-03" rms="3.9839437603950500e-01" purity="7.2936576604843140e-01" nType="-99"/>
          <Node pos="r" depth="2" NCoef="0" IVar="-1" Cut="0.0000000000000000e+00" cType="1" res="6.3076629885472357e-05" rms="4.5664295554161072e-01" purity="5.8893972635269165e-01" nType="-99"/>
        </Node>
      </Node>
    </BinaryTree>
    <BinaryTree type="DecisionTree" boostWeight="1.0000000000000000e+00" itree="507">
      <Node pos="s" depth="0" NCoef="0" IVar="3" Cut="1.4648326110839844e+02" cType="1" res="-5.5424538441002369e-03" rms="4.5258498191833496e-01" purity="4.9814662337303162e-01" nType="0">
        <Node pos="l" depth="1" NCoef="0" IVar="3" Cut="1.0103650665283203e+02" cType="1" res="-3.2855931203812361e-04" rms="4.5241063833236694e-01" purity="5.0959557294845581e-01" nType="0">
          <Node pos="l" depth="2" NCoef="0" IVar="-1" Cut="0.0000000000000000e+00" cType="1" res="-3.8715251139365137e-04" rms="4.5691648125648499e-01" purity="4.7916156053543091e-01" nType="-99"/>
          <Node pos="r" depth="2" NCoef="0" IVar="-1" Cut="0.0000000000000000e+00" cType="1" res="1.4593560481444001e-03" rms="4.3520393967628479e-01" purity="6.0786479711532593e-01" nType="-99"/>
        </Node>
        <Node pos="r" depth="1" NCoef="0" IVar="-1" Cut="0.0000000000000000e+00" cType="1" res="-1.9380792509764433e-03" rms="4.4996339082717896e-01" purity="3.6034426093101501e-01" nType="-99"/>
      </Node>
    </BinaryTree>
    <BinaryTree type="DecisionTree" boostWeight="1.0000000000000000e+00" itree="508">
      <Node pos="s" depth="0" NCoef="0" IVar="5" Cut="5.7814127206802368e-01" cType="1" res="-2.7320249937474728e-03" rms="4.5500928163528442e-01" purity="5.0267356634140015e-01" nType="0">
        <Node pos="l" depth="1" NCoef="0" IVar="0" Cut="7.5622761249542236e-01" cType="1" res="4.0971301496028900e-02" rms="4.4350311160087585e-01" purity="6.8350160121917725e-01" nType="0">
          <Node pos="l" depth="2" NCoef="0" IVar="-1" Cut="0.0000000000000000e+00" cType="1" res="-3.6747663398273289e-04" rms="4.4785884022712708e-01" purity="6.5905225276947021e-01" nType="-99"/>
          <Node pos="r" depth="2" NCoef="0" IVar="-1" Cut="0.0000000000000000e+00" cType="1" res="4.0069702081382275e-03" rms="4.3202939629554749e-01" purity="7.1021944284439087e-01" nType="-99"/>
        </Node>
        <Node pos="r" depth="1" NCoef="0" IVar="4" Cut="1.0092000579833984e+02" cType="1" res="-1.0033507831394672e-02" rms="4.5649564266204834e-01" purity="4.7246277332305908e-01" nType="0">
          <Node pos="l" depth="2" NCoef="0" IVar="-1" Cut="0.0000000000000000e+00" cType="1" res="-1.0607964359223843e-03" rms="4.5322212576866150e-01" purity="4.1581112146377563e-01" nType="-99"/>
          <Node pos="r" depth="2" NCoef="0" IVar="-1" Cut="0.0000000000000000e+00" cType="1" res="-6.5569583966862410e-05" rms="4.5719406008720398e-01" purity="4.8975184559822083e-01" nType="-99"/>
        </Node>
      </Node>
    </BinaryTree>
    <BinaryTree type="DecisionTree" boostWeight="1.0000000000000000e+00" itree="509">
      <Node pos="s" depth="0" NCoef="0" IVar="1" Cut="1.5972342491149902e+00" cType="1" res="1.8446446629241109e-03" rms="4.5198112726211548e-01" purity="5.0481128692626953e-01" nType="0">
        <Node pos="l" depth="1" NCoef="0" IVar="2" Cut="8.3214575052261353e-01" cType="1" res="1.1422178708016872e-02" rms="4.5764046907424927e-01" purity="5.6177651882171631e-01" nType="0">
          <Node pos="l" depth="2" NCoef="0" IVar="-1" Cut="0.0000000000000000e+00" cType="1" res="-3.5660580033436418e-04" rms="4.6819442510604858e-01" purity="4.1788712143898010e-01" nType="-99"/>
          <Node pos="r" depth="2" NCoef="0" IVar="-1" Cut="0.0000000000000000e+00" cType="1" res="9.4238482415676117e-04" rms="4.5108965039253235e-01" purity="6.4198279380798340e-01" nType="-99"/>
        </Node>
        <Node pos="r" depth="1" NCoef="0" IVar="1" Cut="2.4939680099487305e+00" cType="1" res="-2.6726497337222099e-02" rms="4.3340533971786499e-01" purity="3.3487594127655029e-01" nType="0">
          <Node pos="l" depth="2" NCoef="0" IVar="-1" Cut="0.0000000000000000e+00" cType="1" res="-4.3229476432316005e-04" rms="4.5155176520347595e-01" purity="3.8354349136352539e-01" nType="-99"/>
          <Node pos="r" depth="2" NCoef="0" IVar="-1" Cut="0.0000000000000000e+00" cType="1" res="-1.4635457191616297e-03" rms="3.9247861504554749e-01" purity="2.3506057262420654e-01" nType="-99"/>
        </Node>
      </Node>
    </BinaryTree>
    <BinaryTree type="DecisionTree" boostWeight="1.0000000000000000e+00" itree="510">
      <Node pos="s" depth="0" NCoef="0" IVar="2" Cut="9.6011364459991455e-01" cType="1" res="-9.9682863801717758e-03" rms="4.5243877172470093e-01" purity="4.9604880809783936e-01" nType="0">
        <Node pos="l" depth="1" NCoef="0" IVar="4" Cut="1.6274763488769531e+02" cType="1" res="-1.5353605151176453e-02" rms="4.5451039075851440e-01" purity="4.7719928622245789e-01" nType="0">
          <Node pos="l" depth="2" NCoef="0" IVar="-1" Cut="0.0000000000000000e+00" cType="1" res="-4.8425728891743347e-05" rms="4.5253559947013855e-01" purity="5.2357685565948486e-01" nType="-99"/>
          <Node pos="r" depth="2" NCoef="0" IVar="-1" Cut="0.0000000000000000e+00" cType="1" res="-9.7892212215811014e-04" rms="4.5640984177589417e-01" purity="4.1792923212051392e-01" nType="-99"/>
        </Node>
        <Node pos="r" depth="1" NCoef="0" IVar="-1" Cut="0.0000000000000000e+00" cType="1" res="1.6584243858233094e-03" rms="4.2918455600738525e-01" purity="6.7327141761779785e-01" nType="-99"/>
      </Node>
    </BinaryTree>
    <BinaryTree type="DecisionTree" boostWeight="1.0000000000000000e+00" itree="511">
      <Node pos="s" depth="0" NCoef="0" IVar="1" Cut="3.0012276768684387e-01" cType="1" res="-2.3616477847099304e-03" rms="4.5520380139350891e-01" purity="5.0574404001235962e-01" nType="0">
        <Node pos="l" depth="1" NCoef="0" IVar="-1" Cut="0.0000000000000000e+00" cType="1" res="1.7195628024637699e-03" rms="4.4488900899887085e-01" purity="6.5990626811981201e-01" nType="-99"/>
        <Node pos="r" depth="1" NCoef="0" IVar="8" Cut="6.6136354207992554e-01" cType="1" res="-7.5437207706272602e-03" rms="4.5604833960533142e-01" purity="4.8852682113647461e-01" nType="0">
          <Node pos="l" depth="2" NCoef="0" IVar="-1" Cut="0.0000000000000000e+00" cType="1" res="-4.0708290180191398e-04" rms="4.5788860321044922e-01" purity="4.7235810756683350e-01" nType="-99"/>
          <Node pos="r" depth="2" NCoef="0" IVar="-1" Cut="0.0000000000000000e+00" cType="1" res="2.0447073038667440e-03" rms="4.3194130063056946e-01" purity="6.5815395116806030e-01" nType="-99"/>
        </Node>
      </Node>
    </BinaryTree>
    <BinaryTree type="DecisionTree" boostWeight="1.0000000000000000e+00" itree="512">
      <Node pos="s" depth="0" NCoef="0" IVar="4" Cut="1.3539630126953125e+02" cType="1" res="-2.5775567628443241e-03" rms="4.5235514640808105e-01" purity="5.0257021188735962e-01" nType="0">
        <Node pos="l" depth="1" NCoef="0" IVar="4" Cut="9.7253967285156250e+01" cType="1" res="2.0291544497013092e-02" rms="4.4758251309394836e-01" purity="5.5479007959365845e-01" nType="0">
          <Node pos="l" depth="2" NCoef="0" IVar="-1" Cut="0.0000000000000000e+00" cType="1" res="-9.3389838002622128e-04" rms="4.5204287767410278e-01" purity="4.3818181753158569e-01" nType="-99"/>
          <Node pos="r" depth="2" NCoef="0" IVar="-1" Cut="0.0000000000000000e+00" cType="1" res="2.7298952918499708e-03" rms="4.3792742490768433e-01" purity="6.6358441114425659e-01" nType="-99"/>
        </Node>
        <Node pos="r" depth="1" NCoef="0" IVar="3" Cut="8.9476791381835938e+01" cType="1" res="-2.1104425191879272e-02" rms="4.5534357428550720e-01" purity="4.6026545763015747e-01" nType="0">
          <Node pos="l" depth="2" NCoef="0" IVar="-1" Cut="0.0000000000000000e+00" cType="1" res="-1.2188747059553862e-03" rms="4.5762148499488831e-01" purity="4.1909337043762207e-01" nType="-99"/>
          <Node pos="r" depth="2" NCoef="0" IVar="-1" Cut="0.0000000000000000e+00" cType="1" res="1.5680571959819645e-04" rms="4.5118460059165955e-01" purity="5.1097613573074341e-01" nType="-99"/>
        </Node>
      </Node>
    </BinaryTree>
    <BinaryTree type="DecisionTree" boostWeight="1.0000000000000000e+00" itree="513">
      <Node pos="s" depth="0" NCoef="0" IVar="8" Cut="6.6290992498397827e-01" cType="1" res="1.8525840714573860e-03" rms="4.5276802778244019e-01" purity="5.0715678930282593e-01" nType="0">
        <Node pos="l" depth="1" NCoef="0" IVar="5" Cut="8.5083776712417603e-01" cType="1" res="-3.2550462055951357e-03" rms="4.5518070459365845e-01" purity="4.9062523245811462e-01" nType="0">
          <Node pos="l" depth="2" NCoef="0" IVar="-1" Cut="0.0000000000000000e+00" cType="1" res="6.9392105797305703e-04" rms="4.5734894275665283e-01" purity="6.4299565553665161e-01" nType="-99"/>
          <Node pos="r" depth="2" NCoef="0" IVar="-1" Cut="0.0000000000000000e+00" cType="1" res="-4.6014669351279736e-04" rms="4.5345702767372131e-01" purity="4.0344926714897156e-01" nType="-99"/>
        </Node>
        <Node pos="r" depth="1" NCoef="0" IVar="-1" Cut="0.0000000000000000e+00" cType="1" res="2.4699501227587461e-03" rms="4.2142391204833984e-01" purity="6.8817883729934692e-01" nType="-99"/>
      </Node>
    </BinaryTree>
    <BinaryTree type="DecisionTree" boostWeight="1.0000000000000000e+00" itree="514">
      <Node pos="s" depth="0" NCoef="0" IVar="3" Cut="3.6172302246093750e+01" cType="1" res="-9.9584367126226425e-04" rms="4.5280769467353821e-01" purity="5.0374335050582886e-01" nType="0">
        <Node pos="l" depth="1" NCoef="0" IVar="-1" Cut="0.0000000000000000e+00" cType="1" res="-1.8103818874806166e-03" rms="4.3868181109428406e-01" purity="3.4178575873374939e-01" nType="-99"/>
        <Node pos="r" depth="1" NCoef="0" IVar="1" Cut="2.4268434047698975e+00" cType="1" res="5.3148837760090828e-03" rms="4.5363101363182068e-01" purity="5.1921516656875610e-01" nType="0">
          <Node pos="l" depth="2" NCoef="0" IVar="-1" Cut="0.0000000000000000e+00" cType="1" res="3.7311020423658192e-04" rms="4.5826515555381775e-01" purity="5.4703980684280396e-01" nType="-99"/>
          <Node pos="r" depth="2" NCoef="0" IVar="-1" Cut="0.0000000000000000e+00" cType="1" res="-1.5013753436505795e-03" rms="4.0097162127494812e-01" purity="2.4691177904605865e-01" nType="-99"/>
        </Node>
      </Node>
    </BinaryTree>
    <BinaryTree type="DecisionTree" boostWeight="1.0000000000000000e+00" itree="515">
      <Node pos="s" depth="0" NCoef="0" IVar="1" Cut="2.5282013416290283e+00" cType="1" res="9.6976890927180648e-04" rms="4.5508751273155212e-01" purity="5.0508236885070801e-01" nType="0">
        <Node pos="l" depth="1" NCoef="0" IVar="4" Cut="1.0013864898681641e+02" cType="1" res="5.8628278784453869e-03" rms="4.5971259474754333e-01" purity="5.2874237298965454e-01" nType="0">
          <Node pos="l" depth="2" NCoef="0" IVar="-1" Cut="0.0000000000000000e+00" cType="1" res="-5.6368968216702342e-04" rms="4.6547770500183105e-01" purity="4.7723367810249329e-01" nType="-99"/>
          <Node pos="r" depth="2" NCoef="0" IVar="-1" Cut="0.0000000000000000e+00" cType="1" res="4.5718206092715263e-04" rms="4.5759797096252441e-01" purity="5.4503959417343140e-01" nType="-99"/>
        </Node>
        <Node pos="r" depth="1" NCoef="0" IVar="-1" Cut="0.0000000000000000e+00" cType="1" res="-1.5564963687211275e-03" rms="3.9441105723381042e-01" purity="2.3572038114070892e-01" nType="-99"/>
      </Node>
    </BinaryTree>
    <BinaryTree type="DecisionTree" boostWeight="1.0000000000000000e+00" itree="516">
      <Node pos="s" depth="0" NCoef="0" IVar="9" Cut="7.8360551595687866e-01" cType="1" res="-2.5217221118509769e-03" rms="4.5344299077987671e-01" purity="5.0064045190811157e-01" nType="0">
        <Node pos="l" depth="1" NCoef="0" IVar="-1" Cut="0.0000000000000000e+00" cType="1" res="-1.6893112333491445e-03" rms="4.2000159621238708e-01" purity="2.5885933637619019e-01" nType="-99"/>
        <Node pos="r" depth="1" NCoef="0" IVar="1" Cut="8.9521265029907227e-01" cType="1" res="2.6565315201878548e-03" rms="4.5589572191238403e-01" purity="5.2185410261154175e-01" nType="0">
          <Node pos="l" depth="2" NCoef="0" IVar="-1" Cut="0.0000000000000000e+00" cType="1" res="7.8892940655350685e-04" rms="4.5083013176918030e-01" purity="6.2117177248001099e-01" nType="-99"/>
          <Node pos="r" depth="2" NCoef="0" IVar="-1" Cut="0.0000000000000000e+00" cType="1" res="-3.8382937782444060e-04" rms="4.5943716168403625e-01" purity="4.4027683138847351e-01" nType="-99"/>
        </Node>
      </Node>
    </BinaryTree>
    <BinaryTree type="DecisionTree" boostWeight="1.0000000000000000e+00" itree="517">
      <Node pos="s" depth="0" NCoef="0" IVar="5" Cut="4.3067258596420288e-01" cType="1" res="-4.4750822708010674e-03" rms="4.5311492681503296e-01" purity="4.9855682253837585e-01" nType="0">
        <Node pos="l" depth="1" NCoef="0" IVar="-1" Cut="0.0000000000000000e+00" cType="1" res="2.5551507715135813e-03" rms="4.3748646974563599e-01" purity="7.0659041404724121e-01" nType="-99"/>
        <Node pos="r" depth="1" NCoef="0" IVar="4" Cut="1.4307281494140625e+02" cType="1" res="-8.6436728015542030e-03" rms="4.5376485586166382e-01" purity="4.8538553714752197e-01" nType="0">
          <Node pos="l" depth="2" NCoef="0" IVar="-1" Cut="0.0000000000000000e+00" cType="1" res="1.6401879838667810e-04" rms="4.5296576619148254e-01" purity="5.3172510862350464e-01" nType="-99"/>
          <Node pos="r" depth="2" NCoef="0" IVar="-1" Cut="0.0000000000000000e+00" cType="1" res="-6.4211385324597359e-04" rms="4.5413923263549805e-01" purity="4.4255250692367554e-01" nType="-99"/>
        </Node>
      </Node>
    </BinaryTree>
    <BinaryTree type="DecisionTree" boostWeight="1.0000000000000000e+00" itree="518">
      <Node pos="s" depth="0" NCoef="0" IVar="4" Cut="6.5481933593750000e+01" cType="1" res="4.0241089300252497e-04" rms="4.5104825496673584e-01" purity="5.0219994783401489e-01" nType="0">
        <Node pos="l" depth="1" NCoef="0" IVar="-1" Cut="0.0000000000000000e+00" cType="1" res="-1.5726691344752908e-03" rms="4.4859242439270020e-01" purity="3.5610821843147278e-01" nType="-99"/>
        <Node pos="r" depth="1" NCoef="0" IVar="9" Cut="7.8899079561233521e-01" cType="1" res="6.0233925469219685e-03" rms="4.5090681314468384e-01" purity="5.1678240299224854e-01" nType="0">
          <Node pos="l" depth="2" NCoef="0" IVar="-1" Cut="0.0000000000000000e+00" cType="1" res="-1.5991899417713284e-03" rms="4.2749553918838501e-01" purity="2.6936683058738708e-01" nType="-99"/>
          <Node pos="r" depth="2" NCoef="0" IVar="-1" Cut="0.0000000000000000e+00" cType="1" res="4.0016332059167325e-04" rms="4.5254370570182800e-01" purity="5.3976571559906006e-01" nType="-99"/>
        </Node>
      </Node>
    </BinaryTree>
    <BinaryTree type="DecisionTree" boostWeight="1.0000000000000000e+00" itree="519">
      <Node pos="s" depth="0" NCoef="0" IVar="3" Cut="3.4991127014160156e+01" cType="1" res="9.5707998843863606e-04" rms="4.5347219705581665e-01" purity="5.0254750251770020e-01" nType="0">
        <Node pos="l" depth="1" NCoef="0" IVar="-1" Cut="0.0000000000000000e+00" cType="1" res="-2.0776146557182074e-03" rms="4.4041612744331360e-01" purity="3.3255395293235779e-01" nType="-99"/>
        <Node pos="r" depth="1" NCoef="0" IVar="4" Cut="1.4219737243652344e+02" cType="1" res="6.9481451064348221e-03" rms="4.5390129089355469e-01" purity="5.1556748151779175e-01" nType="0">
          <Node pos="l" depth="2" NCoef="0" IVar="-1" Cut="0.0000000000000000e+00" cType="1" res="7.8318355372175574e-04" rms="4.5045319199562073e-01" purity="5.6587636470794678e-01" nType="-99"/>
          <Node pos="r" depth="2" NCoef="0" IVar="-1" Cut="0.0000000000000000e+00" cType="1" res="-2.2446931689046323e-04" rms="4.5655050873756409e-01" purity="4.6986815333366394e-01" nType="-99"/>
        </Node>
      </Node>
    </BinaryTree>
    <BinaryTree type="DecisionTree" boostWeight="1.0000000000000000e+00" itree="520">
      <Node pos="s" depth="0" NCoef="0" IVar="3" Cut="1.4639373779296875e+02" cType="1" res="-2.4327761493623257e-03" rms="4.5314151048660278e-01" purity="5.0228559970855713e-01" nType="0">
        <Node pos="l" depth="1" NCoef="0" IVar="4" Cut="9.4415481567382812e+01" cType="1" res="1.6107647679746151e-03" rms="4.5328444242477417e-01" purity="5.1246291399002075e-01" nType="0">
          <Node pos="l" depth="2" NCoef="0" IVar="-1" Cut="0.0000000000000000e+00" cType="1" res="-8.7884831009432673e-04" rms="4.5775160193443298e-01" purity="4.3614414334297180e-01" nType="-99"/>
          <Node pos="r" depth="2" NCoef="0" IVar="-1" Cut="0.0000000000000000e+00" cType="1" res="3.5156853846274316e-04" rms="4.5159956812858582e-01" purity="5.3429108858108521e-01" nType="-99"/>
        </Node>
        <Node pos="r" depth="1" NCoef="0" IVar="-1" Cut="0.0000000000000000e+00" cType="1" res="-1.5052345115691423e-03" rms="4.4840937852859497e-01" purity="3.7714061141014099e-01" nType="-99"/>
      </Node>
    </BinaryTree>
    <BinaryTree type="DecisionTree" boostWeight="1.0000000000000000e+00" itree="521">
      <Node pos="s" depth="0" NCoef="0" IVar="3" Cut="4.5166519165039062e+01" cType="1" res="-7.0671946741640568e-03" rms="4.5215788483619690e-01" purity="4.9641865491867065e-01" nType="0">
        <Node pos="l" depth="1" NCoef="0" IVar="9" Cut="9.7986257076263428e-01" cType="1" res="-4.5591566711664200e-02" rms="4.5267441868782043e-01" purity="3.8942500948905945e-01" nType="0">
          <Node pos="l" depth="2" NCoef="0" IVar="-1" Cut="0.0000000000000000e+00" cType="1" res="-6.9732248084619641e-04" rms="4.4776871800422668e-01" purity="3.6950522661209106e-01" nType="-99"/>
          <Node pos="r" depth="2" NCoef="0" IVar="-1" Cut="0.0000000000000000e+00" cType="1" res="-2.0749969407916069e-03" rms="4.5760008692741394e-01" purity="4.1560533642768860e-01" nType="-99"/>
        </Node>
        <Node pos="r" depth="1" NCoef="0" IVar="1" Cut="7.7587205171585083e-01" cType="1" res="1.2689636787399650e-03" rms="4.5161375403404236e-01" purity="5.1957064867019653e-01" nType="0">
          <Node pos="l" depth="2" NCoef="0" IVar="-1" Cut="0.0000000000000000e+00" cType="1" res="9.6672994550317526e-04" rms="4.4110417366027832e-01" purity="6.3176351785659790e-01" nType="-99"/>
          <Node pos="r" depth="2" NCoef="0" IVar="-1" Cut="0.0000000000000000e+00" cType="1" res="-4.0605483809486032e-04" rms="4.5724457502365112e-01" purity="4.5155242085456848e-01" nType="-99"/>
        </Node>
      </Node>
    </BinaryTree>
    <BinaryTree type="DecisionTree" boostWeight="1.0000000000000000e+00" itree="522">
      <Node pos="s" depth="0" NCoef="0" IVar="5" Cut="1.7037984132766724e+00" cType="1" res="-3.1288408208638430e-03" rms="4.5304071903228760e-01" purity="4.9789595603942871e-01" nType="0">
        <Node pos="l" depth="1" NCoef="0" IVar="3" Cut="1.0424604797363281e+02" cType="1" res="1.9567080307751894e-03" rms="4.6144154667854309e-01" purity="5.3304624557495117e-01" nType="0">
          <Node pos="l" depth="2" NCoef="0" IVar="-1" Cut="0.0000000000000000e+00" cType="1" res="-2.2559668286703527e-04" rms="4.6696782112121582e-01" purity="5.0950956344604492e-01" nType="-99"/>
          <Node pos="r" depth="2" NCoef="0" IVar="-1" Cut="0.0000000000000000e+00" cType="1" res="1.0342750465497375e-03" rms="4.4388884305953979e-01" purity="6.0154730081558228e-01" nType="-99"/>
        </Node>
        <Node pos="r" depth="1" NCoef="0" IVar="-1" Cut="0.0000000000000000e+00" cType="1" res="-1.5580714680254459e-03" rms="3.5874629020690918e-01" purity="1.5975007414817810e-01" nType="-99"/>
      </Node>
    </BinaryTree>
    <BinaryTree type="DecisionTree" boostWeight="1.0000000000000000e+00" itree="523">
      <Node pos="s" depth="0" NCoef="0" IVar="8" Cut="6.6136354207992554e-01" cType="1" res="1.6749065835028887e-03" rms="4.5196190476417542e-01" purity="5.0350075960159302e-01" nType="0">
        <Node pos="l" depth="1" NCoef="0" IVar="3" Cut="8.2373329162597656e+01" cType="1" res="-5.9953602030873299e-03" rms="4.5507687330245972e-01" purity="4.8505181074142456e-01" nType="0">
          <Node pos="l" depth="2" NCoef="0" IVar="-1" Cut="0.0000000000000000e+00" cType="1" res="-5.5836903629824519e-04" rms="4.5966231822967529e-01" purity="4.4788432121276855e-01" nType="-99"/>
          <Node pos="r" depth="2" NCoef="0" IVar="-1" Cut="0.0000000000000000e+00" cType="1" res="3.7980219349265099e-04" rms="4.4827762246131897e-01" purity="5.3488802909851074e-01" nType="-99"/>
        </Node>
        <Node pos="r" depth="1" NCoef="0" IVar="-1" Cut="0.0000000000000000e+00" cType="1" res="3.8661186117678881e-03" rms="4.0580028295516968e-01" purity="7.0974290370941162e-01" nType="-99"/>
      </Node>
    </BinaryTree>
    <BinaryTree type="DecisionTree" boostWeight="1.0000000000000000e+00" itree="524">
      <Node pos="s" depth="0" NCoef="0" IVar="1" Cut="3.0012276768684387e-01" cType="1" res="-3.5093980841338634e-03" rms="4.5291474461555481e-01" purity="4.9994310736656189e-01" nType="0">
        <Node pos="l" depth="1" NCoef="0" IVar="-1" Cut="0.0000000000000000e+00" cType="1" res="1.9152801251038909e-03" rms="4.4064816832542419e-01" purity="6.6861999034881592e-01" nType="-99"/>
        <Node pos="r" depth="1" NCoef="0" IVar="2" Cut="7.8462606668472290e-01" cType="1" res="-8.9371604844927788e-03" rms="4.5385473966598511e-01" purity="4.8208928108215332e-01" nType="0">
          <Node pos="l" depth="2" NCoef="0" IVar="-1" Cut="0.0000000000000000e+00" cType="1" res="-1.0067180264741182e-03" rms="4.4157704710960388e-01" purity="3.0641204118728638e-01" nType="-99"/>
          <Node pos="r" depth="2" NCoef="0" IVar="-1" Cut="0.0000000000000000e+00" cType="1" res="-7.1159418439492583e-05" rms="4.5650559663772583e-01" purity="5.2438139915466309e-01" nType="-99"/>
        </Node>
      </Node>
    </BinaryTree>
    <BinaryTree type="DecisionTree" boostWeight="1.0000000000000000e+00" itree="525">
      <Node pos="s" depth="0" NCoef="0" IVar="7" Cut="5.1509886980056763e-01" cType="1" res="-3.5048327408730984e-03" rms="4.5159345865249634e-01" purity="4.9804693460464478e-01" nType="0">
        <Node pos="l" depth="1" NCoef="0" IVar="-1" Cut="0.0000000000000000e+00" cType="1" res="-1.6522035002708435e-03" rms="4.4366174936294556e-01" purity="3.2876154780387878e-01" nType="-99"/>
        <Node pos="r" depth="1" NCoef="0" IVar="4" Cut="6.5481933593750000e+01" cType="1" res="2.2471714764833450e-03" rms="4.5197629928588867e-01" purity="5.1497185230255127e-01" nType="0">
          <Node pos="l" depth="2" NCoef="0" IVar="-1" Cut="0.0000000000000000e+00" cType="1" res="-1.3486352981999516e-03" rms="4.4279021024703979e-01" purity="3.7392649054527283e-01" nType="-99"/>
          <Node pos="r" depth="2" NCoef="0" IVar="-1" Cut="0.0000000000000000e+00" cType="1" res="2.4131014652084559e-04" rms="4.5258027315139771e-01" purity="5.2911120653152466e-01" nType="-99"/>
        </Node>
      </Node>
    </BinaryTree>
    <BinaryTree type="DecisionTree" boostWeight="1.0000000000000000e+00" itree="526">
      <Node pos="s" depth="0" NCoef="0" IVar="1" Cut="2.5935871601104736e+00" cType="1" res="-1.5397332608699799e-03" rms="4.5170524716377258e-01" purity="5.0234049558639526e-01" nType="0">
        <Node pos="l" depth="1" NCoef="0" IVar="4" Cut="1.6196417236328125e+02" cType="1" res="3.2064921688288450e-03" rms="4.5648998022079468e-01" purity="5.2543681859970093e-01" nType="0">
          <Node pos="l" depth="2" NCoef="0" IVar="-1" Cut="0.0000000000000000e+00" cType="1" res="6.7006098106503487e-04" rms="4.5403307676315308e-01" purity="5.7668590545654297e-01" nType="-99"/>
          <Node pos="r" depth="2" NCoef="0" IVar="-1" Cut="0.0000000000000000e+00" cType="1" res="-5.3141999524086714e-04" rms="4.5878359675407410e-01" purity="4.5987516641616821e-01" nType="-99"/>
        </Node>
        <Node pos="r" depth="1" NCoef="0" IVar="-1" Cut="0.0000000000000000e+00" cType="1" res="-1.7064143903553486e-03" rms="3.8363176584243774e-01" purity="2.1952363848686218e-01" nType="-99"/>
      </Node>
    </BinaryTree>
    <BinaryTree type="DecisionTree" boostWeight="1.0000000000000000e+00" itree="527">
      <Node pos="s" depth="0" NCoef="0" IVar="4" Cut="6.6589035034179688e+01" cType="1" res="-9.5526427030563354e-03" rms="4.5520773530006409e-01" purity="4.9299597740173340e-01" nType="0">
        <Node pos="l" depth="1" NCoef="0" IVar="-1" Cut="0.0000000000000000e+00" cType="1" res="-1.8696280894801021e-03" rms="4.3695810437202454e-01" purity="3.4128221869468689e-01" nType="-99"/>
        <Node pos="r" depth="1" NCoef="0" IVar="3" Cut="1.4649679565429688e+02" cType="1" res="-3.6098298151046038e-03" rms="4.5662865042686462e-01" purity="5.0859802961349487e-01" nType="0">
          <Node pos="l" depth="2" NCoef="0" IVar="-1" Cut="0.0000000000000000e+00" cType="1" res="7.4739444244187325e-05" rms="4.5725843310356140e-01" purity="5.2287197113037109e-01" nType="-99"/>
          <Node pos="r" depth="2" NCoef="0" IVar="-1" Cut="0.0000000000000000e+00" cType="1" res="-1.8883186858147383e-03" rms="4.4498974084854126e-01" purity="3.5602727532386780e-01" nType="-99"/>
        </Node>
      </Node>
    </BinaryTree>
    <BinaryTree type="DecisionTree" boostWeight="1.0000000000000000e+00" itree="528">
      <Node pos="s" depth="0" NCoef="0" IVar="1" Cut="2.4669206142425537e-01" cType="1" res="-6.3333371654152870e-03" rms="4.5488515496253967e-01" purity="4.9994847178459167e-01" nType="0">
        <Node pos="l" depth="1" NCoef="0" IVar="-1" Cut="0.0000000000000000e+00" cType="1" res="1.6400597523897886e-03" rms="4.4162234663963318e-01" purity="6.6832780838012695e-01" nType="-99"/>
        <Node pos="r" depth="1" NCoef="0" IVar="9" Cut="7.7332830429077148e-01" cType="1" res="-1.0130188427865505e-02" rms="4.5569953322410583e-01" purity="4.8665672540664673e-01" nType="0">
          <Node pos="l" depth="2" NCoef="0" IVar="-1" Cut="0.0000000000000000e+00" cType="1" res="-1.5239428030326962e-03" rms="4.2004528641700745e-01" purity="2.5604006648063660e-01" nType="-99"/>
          <Node pos="r" depth="2" NCoef="0" IVar="-1" Cut="0.0000000000000000e+00" cType="1" res="-2.0719972962979227e-04" rms="4.5826181769371033e-01" purity="5.0526112318038940e-01" nType="-99"/>
        </Node>
      </Node>
    </BinaryTree>
    <BinaryTree type="DecisionTree" boostWeight="1.0000000000000000e+00" itree="529">
      <Node pos="s" depth="0" NCoef="0" IVar="0" Cut="6.6512858867645264e-01" cType="1" res="-5.4674297571182251e-03" rms="4.5489498972892761e-01" purity="4.9994486570358276e-01" nType="0">
        <Node pos="l" depth="1" NCoef="0" IVar="-1" Cut="0.0000000000000000e+00" cType="1" res="2.1159902680665255e-03" rms="4.2871469259262085e-01" purity="7.2618299722671509e-01" nType="-99"/>
        <Node pos="r" depth="1" NCoef="0" IVar="8" Cut="6.6764098405838013e-01" cType="1" res="-1.0954665020108223e-02" rms="4.5717674493789673e-01" purity="4.7646051645278931e-01" nType="0">
          <Node pos="l" depth="2" NCoef="0" IVar="-1" Cut="0.0000000000000000e+00" cType="1" res="-4.7330613597296178e-04" rms="4.5837250351905823e-01" purity="4.6303641796112061e-01" nType="-99"/>
          <Node pos="r" depth="2" NCoef="0" IVar="-1" Cut="0.0000000000000000e+00" cType="1" res="2.1624562796205282e-03" rms="4.3442168831825256e-01" purity="6.6988140344619751e-01" nType="-99"/>
        </Node>
      </Node>
    </BinaryTree>
    <BinaryTree type="DecisionTree" boostWeight="1.0000000000000000e+00" itree="530">
      <Node pos="s" depth="0" NCoef="0" IVar="3" Cut="1.5480047607421875e+02" cType="1" res="2.5282390415668488e-03" rms="4.5418000221252441e-01" purity="5.0790542364120483e-01" nType="0">
        <Node pos="l" depth="1" NCoef="0" IVar="9" Cut="7.8796273469924927e-01" cType="1" res="6.0899844393134117e-03" rms="4.5367938280105591e-01" purity="5.1642292737960815e-01" nType="0">
          <Node pos="l" depth="2" NCoef="0" IVar="-1" Cut="0.0000000000000000e+00" cType="1" res="-1.3452792773023248e-03" rms="4.2176505923271179e-01" purity="2.7397501468658447e-01" nType="-99"/>
          <Node pos="r" depth="2" NCoef="0" IVar="-1" Cut="0.0000000000000000e+00" cType="1" res="3.7360170972533524e-04" rms="4.5619922876358032e-01" purity="5.3900486230850220e-01" nType="-99"/>
        </Node>
        <Node pos="r" depth="1" NCoef="0" IVar="-1" Cut="0.0000000000000000e+00" cType="1" res="-1.6781510785222054e-03" rms="4.5837879180908203e-01" purity="3.6877667903900146e-01" nType="-99"/>
      </Node>
    </BinaryTree>
    <BinaryTree type="DecisionTree" boostWeight="1.0000000000000000e+00" itree="531">
      <Node pos="s" depth="0" NCoef="0" IVar="5" Cut="4.5565611124038696e-01" cType="1" res="-4.8278947360813618e-03" rms="4.5704236626625061e-01" purity="5.0406622886657715e-01" nType="0">
        <Node pos="l" depth="1" NCoef="0" IVar="-1" Cut="0.0000000000000000e+00" cType="1" res="1.9765652250498533e-03" rms="4.4125932455062866e-01" purity="6.9511806964874268e-01" nType="-99"/>
        <Node pos="r" depth="1" NCoef="0" IVar="4" Cut="6.7090469360351562e+01" cType="1" res="-8.9018233120441437e-03" rms="4.5797371864318848e-01" purity="4.8943784832954407e-01" nType="0">
          <Node pos="l" depth="2" NCoef="0" IVar="-1" Cut="0.0000000000000000e+00" cType="1" res="-1.4472493203356862e-03" rms="4.4831803441047668e-01" purity="3.6592069268226624e-01" nType="-99"/>
          <Node pos="r" depth="2" NCoef="0" IVar="-1" Cut="0.0000000000000000e+00" cType="1" res="-1.5074243128765374e-04" rms="4.5868489146232605e-01" purity="5.0144010782241821e-01" nType="-99"/>
        </Node>
      </Node>
    </BinaryTree>
    <BinaryTree type="DecisionTree" boostWeight="1.0000000000000000e+00" itree="532">
      <Node pos="s" depth="0" NCoef="0" IVar="6" Cut="3.7397712469100952e-02" cType="1" res="-6.8578259088099003e-03" rms="4.5119363069534302e-01" purity="4.9490880966186523e-01" nType="0">
        <Node pos="l" depth="1" NCoef="0" IVar="5" Cut="6.4038109779357910e-01" cType="1" res="-1.2256951304152608e-03" rms="4.5106101036071777e-01" purity="5.0913828611373901e-01" nType="0">
          <Node pos="l" depth="2" NCoef="0" IVar="-1" Cut="0.0000000000000000e+00" cType="1" res="1.3549581635743380e-03" rms="4.4264432787895203e-01" purity="6.8435662984848022e-01" nType="-99"/>
          <Node pos="r" depth="2" NCoef="0" IVar="-1" Cut="0.0000000000000000e+00" cType="1" res="-2.9025666299276054e-04" rms="4.5263296365737915e-01" purity="4.6797937154769897e-01" nType="-99"/>
        </Node>
        <Node pos="r" depth="1" NCoef="0" IVar="-1" Cut="0.0000000000000000e+00" cType="1" res="-1.5357789816334844e-03" rms="4.4928374886512756e-01" purity="3.6857587099075317e-01" nType="-99"/>
      </Node>
    </BinaryTree>
    <BinaryTree type="DecisionTree" boostWeight="1.0000000000000000e+00" itree="533">
      <Node pos="s" depth="0" NCoef="0" IVar="4" Cut="1.4840426635742188e+02" cType="1" res="-7.2611980140209198e-03" rms="4.5410674810409546e-01" purity="4.9557328224182129e-01" nType="0">
        <Node pos="l" depth="1" NCoef="0" IVar="4" Cut="1.0765106964111328e+02" cType="1" res="6.8609672598540783e-03" rms="4.5130360126495361e-01" purity="5.4484534263610840e-01" nType="0">
          <Node pos="l" depth="2" NCoef="0" IVar="-1" Cut="0.0000000000000000e+00" cType="1" res="-5.3902348736301064e-04" rms="4.5756849646568298e-01" purity="4.7865110635757446e-01" nType="-99"/>
          <Node pos="r" depth="2" NCoef="0" IVar="-1" Cut="0.0000000000000000e+00" cType="1" res="1.2885176111012697e-03" rms="4.4221675395965576e-01" purity="6.2233358621597290e-01" nType="-99"/>
        </Node>
        <Node pos="r" depth="1" NCoef="0" IVar="3" Cut="4.6711780548095703e+01" cType="1" res="-2.2079711779952049e-02" rms="4.5656016469001770e-01" purity="4.4387164711952209e-01" nType="0">
          <Node pos="l" depth="2" NCoef="0" IVar="-1" Cut="0.0000000000000000e+00" cType="1" res="-1.8043483141809702e-03" rms="4.4578677415847778e-01" purity="3.3717951178550720e-01" nType="-99"/>
          <Node pos="r" depth="2" NCoef="0" IVar="-1" Cut="0.0000000000000000e+00" cType="1" res="-4.5636278809979558e-04" rms="4.5789599418640137e-01" purity="4.6138915419578552e-01" nType="-99"/>
        </Node>
      </Node>
    </BinaryTree>
    <BinaryTree type="DecisionTree" boostWeight="1.0000000000000000e+00" itree="534">
      <Node pos="s" depth="0" NCoef="0" IVar="3" Cut="1.4648326110839844e+02" cType="1" res="-7.2474009357392788e-03" rms="4.5248067378997803e-01" purity="4.9125674366950989e-01" nType="0">
        <Node pos="l" depth="1" NCoef="0" IVar="3" Cut="8.5004013061523438e+01" cType="1" res="-3.0451102647930384e-03" rms="4.5295032858848572e-01" purity="5.0144612789154053e-01" nType="0">
          <Node pos="l" depth="2" NCoef="0" IVar="-1" Cut="0.0000000000000000e+00" cType="1" res="-4.5287914690561593e-04" rms="4.5645529031753540e-01" purity="4.6001884341239929e-01" nType="-99"/>
          <Node pos="r" depth="2" NCoef="0" IVar="-1" Cut="0.0000000000000000e+00" cType="1" res="6.4984633354470134e-04" rms="4.4579190015792847e-01" purity="5.7589703798294067e-01" nType="-99"/>
        </Node>
        <Node pos="r" depth="1" NCoef="0" IVar="-1" Cut="0.0000000000000000e+00" cType="1" res="-1.7283640336245298e-03" rms="4.4321954250335693e-01" purity="3.6389142274856567e-01" nType="-99"/>
      </Node>
    </BinaryTree>
    <BinaryTree type="DecisionTree" boostWeight="1.0000000000000000e+00" itree="535">
      <Node pos="s" depth="0" NCoef="0" IVar="0" Cut="1.5259261131286621e+00" cType="1" res="-1.0146046988666058e-03" rms="4.5457002520561218e-01" purity="5.0385046005249023e-01" nType="0">
        <Node pos="l" depth="1" NCoef="0" IVar="7" Cut="5.1513886451721191e-01" cType="1" res="5.3509580902755260e-03" rms="4.6207422018051147e-01" purity="5.4487574100494385e-01" nType="0">
          <Node pos="l" depth="2" NCoef="0" IVar="-1" Cut="0.0000000000000000e+00" cType="1" res="-1.1052744230255485e-03" rms="4.6451666951179504e-01" purity="3.7381967902183533e-01" nType="-99"/>
          <Node pos="r" depth="2" NCoef="0" IVar="-1" Cut="0.0000000000000000e+00" cType="1" res="3.1965548987500370e-04" rms="4.6162816882133484e-01" purity="5.6033283472061157e-01" nType="-99"/>
        </Node>
        <Node pos="r" depth="1" NCoef="0" IVar="0" Cut="1.6734546422958374e+00" cType="1" res="-3.8519117981195450e-02" rms="4.0553784370422363e-01" purity="2.6213878393173218e-01" nType="0">
          <Node pos="l" depth="2" NCoef="0" IVar="-1" Cut="0.0000000000000000e+00" cType="1" res="-6.0572684742510319e-04" rms="4.1901016235351562e-01" purity="3.0295252799987793e-01" nType="-99"/>
          <Node pos="r" depth="2" NCoef="0" IVar="-1" Cut="0.0000000000000000e+00" cType="1" res="-1.5255463076755404e-03" rms="3.9235138893127441e-01" purity="2.2533023357391357e-01" nType="-99"/>
        </Node>
      </Node>
    </BinaryTree>
    <BinaryTree type="DecisionTree" boostWeight="1.0000000000000000e+00" itree="536">
      <Node pos="s" depth="0" NCoef="0" IVar="9" Cut="7.6427441835403442e-01" cType="1" res="1.8638867186382413e-03" rms="4.5180884003639221e-01" purity="5.0616312026977539e-01" nType="0">
        <Node pos="l" depth="1" NCoef="0" IVar="-1" Cut="0.0000000000000000e+00" cType="1" res="-1.6741291619837284e-03" rms="4.1214638948440552e-01" purity="2.5028315186500549e-01" nType="-99"/>
        <Node pos="r" depth="1" NCoef="0" IVar="5" Cut="7.4251168966293335e-01" cType="1" res="6.4045558683574200e-03" rms="4.5418733358383179e-01" purity="5.2455091476440430e-01" nType="0">
          <Node pos="l" depth="2" NCoef="0" IVar="-1" Cut="0.0000000000000000e+00" cType="1" res="1.3547848211601377e-03" rms="4.4554430246353149e-01" purity="6.8710160255432129e-01" nType="-99"/>
          <Node pos="r" depth="2" NCoef="0" IVar="-1" Cut="0.0000000000000000e+00" cType="1" res="-1.2221871293149889e-04" rms="4.5708310604095459e-01" purity="4.6131023764610291e-01" nType="-99"/>
        </Node>
      </Node>
    </BinaryTree>
    <BinaryTree type="DecisionTree" boostWeight="1.0000000000000000e+00" itree="537">
      <Node pos="s" depth="0" NCoef="0" IVar="3" Cut="1.4213145446777344e+02" cType="1" res="-6.9008390419185162e-03" rms="4.5388981699943542e-01" purity="4.9997332692146301e-01" nType="0">
        <Node pos="l" depth="1" NCoef="0" IVar="3" Cut="1.1374176788330078e+02" cType="1" res="-1.7038680380210280e-03" rms="4.5460909605026245e-01" purity="5.1203441619873047e-01" nType="0">
          <Node pos="l" depth="2" NCoef="0" IVar="-1" Cut="0.0000000000000000e+00" cType="1" res="-3.4708471503108740e-04" rms="4.5847493410110474e-01" purity="4.9225285649299622e-01" nType="-99"/>
          <Node pos="r" depth="2" NCoef="0" IVar="-1" Cut="0.0000000000000000e+00" cType="1" res="2.2473277058452368e-03" rms="4.2453357577323914e-01" purity="6.3759791851043701e-01" nType="-99"/>
        </Node>
        <Node pos="r" depth="1" NCoef="0" IVar="-1" Cut="0.0000000000000000e+00" cType="1" res="-1.7456318018957973e-03" rms="4.4283214211463928e-01" purity="3.7534070014953613e-01" nType="-99"/>
      </Node>
    </BinaryTree>
    <BinaryTree type="DecisionTree" boostWeight="1.0000000000000000e+00" itree="538">
      <Node pos="s" depth="0" NCoef="0" IVar="4" Cut="6.5790687561035156e+01" cType="1" res="-3.3949317876249552e-03" rms="4.5593020319938660e-01" purity="5.0069499015808105e-01" nType="0">
        <Node pos="l" depth="1" NCoef="0" IVar="-1" Cut="0.0000000000000000e+00" cType="1" res="-1.2651784345507622e-03" rms="4.5224890112876892e-01" purity="3.7542894482612610e-01" nType="-99"/>
        <Node pos="r" depth="1" NCoef="0" IVar="4" Cut="2.5174475097656250e+02" cType="1" res="5.4301769705489278e-04" rms="4.5608240365982056e-01" purity="5.1259404420852661e-01" nType="0">
          <Node pos="l" depth="2" NCoef="0" IVar="-1" Cut="0.0000000000000000e+00" cType="1" res="2.5775074027478695e-04" rms="4.5861312747001648e-01" purity="5.4882663488388062e-01" nType="-99"/>
          <Node pos="r" depth="2" NCoef="0" IVar="-1" Cut="0.0000000000000000e+00" cType="1" res="-6.4869096968322992e-04" rms="4.4736495614051819e-01" purity="3.9961245656013489e-01" nType="-99"/>
        </Node>
      </Node>
    </BinaryTree>
    <BinaryTree type="DecisionTree" boostWeight="1.0000000000000000e+00" itree="539">
      <Node pos="s" depth="0" NCoef="0" IVar="1" Cut="2.5321102142333984e+00" cType="1" res="-1.4080547261983156e-03" rms="4.5275887846946716e-01" purity="5.0171202421188354e-01" nType="0">
        <Node pos="l" depth="1" NCoef="0" IVar="7" Cut="8.3005708456039429e-01" cType="1" res="2.8596036136150360e-03" rms="4.5761242508888245e-01" purity="5.2454954385757446e-01" nType="0">
          <Node pos="l" depth="2" NCoef="0" IVar="-1" Cut="0.0000000000000000e+00" cType="1" res="-1.5203165821731091e-04" rms="4.6290373802185059e-01" purity="4.8924180865287781e-01" nType="-99"/>
          <Node pos="r" depth="2" NCoef="0" IVar="-1" Cut="0.0000000000000000e+00" cType="1" res="1.3025890802964568e-03" rms="4.3528297543525696e-01" purity="6.6092985868453979e-01" nType="-99"/>
        </Node>
        <Node pos="r" depth="1" NCoef="0" IVar="-1" Cut="0.0000000000000000e+00" cType="1" res="-1.5157464658841491e-03" rms="3.8663598895072937e-01" purity="2.2935110330581665e-01" nType="-99"/>
      </Node>
    </BinaryTree>
    <BinaryTree type="DecisionTree" boostWeight="1.0000000000000000e+00" itree="540">
      <Node pos="s" depth="0" NCoef="0" IVar="4" Cut="1.6071969604492188e+02" cType="1" res="-4.2358948849141598e-03" rms="4.5468574762344360e-01" purity="4.9637618660926819e-01" nType="0">
        <Node pos="l" depth="1" NCoef="0" IVar="1" Cut="2.0853924751281738e+00" cType="1" res="1.0920760221779346e-02" rms="4.5264118909835815e-01" purity="5.4755544662475586e-01" nType="0">
          <Node pos="l" depth="2" NCoef="0" IVar="-1" Cut="0.0000000000000000e+00" cType="1" res="6.3557759858667850e-04" rms="4.5834323763847351e-01" purity="5.8599877357482910e-01" nType="-99"/>
          <Node pos="r" depth="2" NCoef="0" IVar="-1" Cut="0.0000000000000000e+00" cType="1" res="-1.1891453759744763e-03" rms="4.0700891613960266e-01" purity="2.8016394376754761e-01" nType="-99"/>
        </Node>
        <Node pos="r" depth="1" NCoef="0" IVar="3" Cut="1.3427320861816406e+02" cType="1" res="-2.2925455123186111e-02" rms="4.5650196075439453e-01" purity="4.3326744437217712e-01" nType="0">
          <Node pos="l" depth="2" NCoef="0" IVar="-1" Cut="0.0000000000000000e+00" cType="1" res="-4.5528754708357155e-04" rms="4.5571309328079224e-01" purity="4.4684496521949768e-01" nType="-99"/>
          <Node pos="r" depth="2" NCoef="0" IVar="-1" Cut="0.0000000000000000e+00" cType="1" res="-1.6927280230447650e-03" rms="4.5835825800895691e-01" purity="3.7058824300765991e-01" nType="-99"/>
        </Node>
      </Node>
    </BinaryTree>
    <BinaryTree type="DecisionTree" boostWeight="1.0000000000000000e+00" itree="541">
      <Node pos="s" depth="0" NCoef="0" IVar="8" Cut="6.0267376899719238e-01" cType="1" res="2.5869573000818491e-03" rms="4.5305413007736206e-01" purity="5.0411605834960938e-01" nType="0">
        <Node pos="l" depth="1" NCoef="0" IVar="2" Cut="8.6612993478775024e-01" cType="1" res="-5.9319920837879181e-03" rms="4.5473375916481018e-01" purity="4.5663702487945557e-01" nType="0">
          <Node pos="l" depth="2" NCoef="0" IVar="-1" Cut="0.0000000000000000e+00" cType="1" res="-4.8385924310423434e-04" rms="4.5384439826011658e-01" purity="3.9330145716667175e-01" nType="-99"/>
          <Node pos="r" depth="2" NCoef="0" IVar="-1" Cut="0.0000000000000000e+00" cType="1" res="4.9448158824816346e-04" rms="4.5573240518569946e-01" purity="5.7704746723175049e-01" nType="-99"/>
        </Node>
        <Node pos="r" depth="1" NCoef="0" IVar="6" Cut="9.0950438752770424e-03" cType="1" res="2.5282697752118111e-02" rms="4.4775825738906860e-01" purity="6.3060724735260010e-01" nType="0">
          <Node pos="l" depth="2" NCoef="0" IVar="-1" Cut="0.0000000000000000e+00" cType="1" res="-6.1180551711004227e-05" rms="4.4351133704185486e-01" purity="6.2685889005661011e-01" nType="-99"/>
          <Node pos="r" depth="2" NCoef="0" IVar="-1" Cut="0.0000000000000000e+00" cType="1" res="2.3348797112703323e-03" rms="4.5083743333816528e-01" purity="6.3550156354904175e-01" nType="-99"/>
        </Node>
      </Node>
    </BinaryTree>
    <BinaryTree type="DecisionTree" boostWeight="1.0000000000000000e+00" itree="542">
      <Node pos="s" depth="0" NCoef="0" IVar="7" Cut="8.7171953916549683e-01" cType="1" res="-4.8771393485367298e-03" rms="4.5249578356742859e-01" purity="4.9902728199958801e-01" nType="0">
        <Node pos="l" depth="1" NCoef="0" IVar="0" Cut="1.0939195156097412e+00" cType="1" res="-1.2329062446951866e-02" rms="4.5607256889343262e-01" purity="4.7122666239738464e-01" nType="0">
          <Node pos="l" depth="2" NCoef="0" IVar="-1" Cut="0.0000000000000000e+00" cType="1" res="2.1231222490314394e-04" rms="4.6766492724418640e-01" purity="6.0052561759948730e-01" nType="-99"/>
          <Node pos="r" depth="2" NCoef="0" IVar="-1" Cut="0.0000000000000000e+00" cType="1" res="-8.1859255442395806e-04" rms="4.4467481970787048e-01" purity="3.5435524582862854e-01" nType="-99"/>
        </Node>
        <Node pos="r" depth="1" NCoef="0" IVar="9" Cut="9.8983168601989746e-01" cType="1" res="3.8241624832153320e-02" rms="4.2868158221244812e-01" purity="6.5988850593566895e-01" nType="0">
          <Node pos="l" depth="2" NCoef="0" IVar="-1" Cut="0.0000000000000000e+00" cType="1" res="4.1784130735322833e-04" rms="4.4238233566284180e-01" purity="6.1456334590911865e-01" nType="-99"/>
          <Node pos="r" depth="2" NCoef="0" IVar="-1" Cut="0.0000000000000000e+00" cType="1" res="2.5508429389446974e-03" rms="4.1679415106773376e-01" purity="6.9433081150054932e-01" nType="-99"/>
        </Node>
      </Node>
    </BinaryTree>
    <BinaryTree type="DecisionTree" boostWeight="1.0000000000000000e+00" itree="543">
      <Node pos="s" depth="0" NCoef="0" IVar="5" Cut="8.5083776712417603e-01" cType="1" res="-7.7691520564258099e-03" rms="4.5332449674606323e-01" purity="4.9604877829551697e-01" nType="0">
        <Node pos="l" depth="1" NCoef="0" IVar="4" Cut="1.0514887237548828e+02" cType="1" res="1.3505754992365837e-02" rms="4.5276281237602234e-01" purity="6.4763540029525757e-01" nType="0">
          <Node pos="l" depth="2" NCoef="0" IVar="-1" Cut="0.0000000000000000e+00" cType="1" res="-6.5155496122315526e-04" rms="4.7197270393371582e-01" purity="5.7752400636672974e-01" nType="-99"/>
          <Node pos="r" depth="2" NCoef="0" IVar="-1" Cut="0.0000000000000000e+00" cType="1" res="1.1408480349928141e-03" rms="4.4297257065773010e-01" purity="6.7938482761383057e-01" nType="-99"/>
        </Node>
        <Node pos="r" depth="1" NCoef="0" IVar="1" Cut="2.0008420944213867e+00" cType="1" res="-2.0041627809405327e-02" rms="4.5319420099258423e-01" purity="4.0860569477081299e-01" nType="0">
          <Node pos="l" depth="2" NCoef="0" IVar="-1" Cut="0.0000000000000000e+00" cType="1" res="-4.0332306525669992e-04" rms="4.6411985158920288e-01" purity="4.4961008429527283e-01" nType="-99"/>
          <Node pos="r" depth="2" NCoef="0" IVar="-1" Cut="0.0000000000000000e+00" cType="1" res="-1.2467363849282265e-03" rms="4.0937814116477966e-01" purity="2.5688385963439941e-01" nType="-99"/>
        </Node>
      </Node>
    </BinaryTree>
    <BinaryTree type="DecisionTree" boostWeight="1.0000000000000000e+00" itree="544">
      <Node pos="s" depth="0" NCoef="0" IVar="5" Cut="1.7431824207305908e+00" cType="1" res="-4.5480811968445778e-03" rms="4.5265853404998779e-01" purity="4.9667254090309143e-01" nType="0">
        <Node pos="l" depth="1" NCoef="0" IVar="3" Cut="8.9555709838867188e+01" cType="1" res="-1.6753240197431296e-04" rms="4.6056988835334778e-01" purity="5.2794218063354492e-01" nType="0">
          <Node pos="l" depth="2" NCoef="0" IVar="-1" Cut="0.0000000000000000e+00" cType="1" res="-3.8613643846474588e-04" rms="4.6724924445152283e-01" purity="4.8868444561958313e-01" nType="-99"/>
          <Node pos="r" depth="2" NCoef="0" IVar="-1" Cut="0.0000000000000000e+00" cType="1" res="7.8643497545272112e-04" rms="4.4772455096244812e-01" purity="5.9707075357437134e-01" nType="-99"/>
        </Node>
        <Node pos="r" depth="1" NCoef="0" IVar="-1" Cut="0.0000000000000000e+00" cType="1" res="-1.6063705552369356e-03" rms="3.5057166218757629e-01" purity="1.5273639559745789e-01" nType="-99"/>
      </Node>
    </BinaryTree>
    <BinaryTree type="DecisionTree" boostWeight="1.0000000000000000e+00" itree="545">
      <Node pos="s" depth="0" NCoef="0" IVar="4" Cut="4.0919107055664062e+02" cType="1" res="-7.1822549216449261e-03" rms="4.5432659983634949e-01" purity="4.9839755892753601e-01" nType="0">
        <Node pos="l" depth="1" NCoef="0" IVar="8" Cut="6.6617786884307861e-01" cType="1" res="-2.6436913758516312e-03" rms="4.5653620362281799e-01" purity="5.1559931039810181e-01" nType="0">
          <Node pos="l" depth="2" NCoef="0" IVar="-1" Cut="0.0000000000000000e+00" cType="1" res="-2.3720547324046493e-04" rms="4.5902830362319946e-01" purity="5.0058341026306152e-01" nType="-99"/>
          <Node pos="r" depth="2" NCoef="0" IVar="-1" Cut="0.0000000000000000e+00" cType="1" res="2.3393195588141680e-03" rms="4.2081770300865173e-01" purity="6.9797915220260620e-01" nType="-99"/>
        </Node>
        <Node pos="r" depth="1" NCoef="0" IVar="-1" Cut="0.0000000000000000e+00" cType="1" res="-1.6417971346527338e-03" rms="4.2524167895317078e-01" purity="3.0418151617050171e-01" nType="-99"/>
      </Node>
    </BinaryTree>
    <BinaryTree type="DecisionTree" boostWeight="1.0000000000000000e+00" itree="546">
      <Node pos="s" depth="0" NCoef="0" IVar="6" Cut="3.8629725575447083e-02" cType="1" res="-9.2830285429954529e-03" rms="4.5369309186935425e-01" purity="4.9352464079856873e-01" nType="0">
        <Node pos="l" depth="1" NCoef="0" IVar="5" Cut="6.2412422895431519e-01" cType="1" res="-4.8541291616857052e-03" rms="4.5418775081634521e-01" purity="5.0659972429275513e-01" nType="0">
          <Node pos="l" depth="2" NCoef="0" IVar="-1" Cut="0.0000000000000000e+00" cType="1" res="1.4235947746783495e-03" rms="4.4132494926452637e-01" purity="6.8691092729568481e-01" nType="-99"/>
          <Node pos="r" depth="2" NCoef="0" IVar="-1" Cut="0.0000000000000000e+00" cType="1" res="-4.0945268119685352e-04" rms="4.5639672875404358e-01" purity="4.6889159083366394e-01" nType="-99"/>
        </Node>
        <Node pos="r" depth="1" NCoef="0" IVar="-1" Cut="0.0000000000000000e+00" cType="1" res="-1.5840632840991020e-03" rms="4.4537386298179626e-01" purity="3.5041823983192444e-01" nType="-99"/>
      </Node>
    </BinaryTree>
    <BinaryTree type="DecisionTree" boostWeight="1.0000000000000000e+00" itree="547">
      <Node pos="s" depth="0" NCoef="0" IVar="8" Cut="6.5161359310150146e-01" cType="1" res="-9.4090448692440987e-03" rms="4.5468652248382568e-01" purity="4.9337008595466614e-01" nType="0">
        <Node pos="l" depth="1" NCoef="0" IVar="1" Cut="6.2115257978439331e-01" cType="1" res="-1.4503585174679756e-02" rms="4.5722916722297668e-01" purity="4.7160199284553528e-01" nType="0">
          <Node pos="l" depth="2" NCoef="0" IVar="-1" Cut="0.0000000000000000e+00" cType="1" res="2.6962431729771197e-04" rms="4.5685994625091553e-01" purity="5.8362495899200439e-01" nType="-99"/>
          <Node pos="r" depth="2" NCoef="0" IVar="-1" Cut="0.0000000000000000e+00" cType="1" res="-7.0114765549078584e-04" rms="4.5707273483276367e-01" purity="4.2658787965774536e-01" nType="-99"/>
        </Node>
        <Node pos="r" depth="1" NCoef="0" IVar="4" Cut="1.3769479370117188e+02" cType="1" res="2.9914516955614090e-02" rms="4.3254566192626953e-01" purity="6.6139304637908936e-01" nType="0">
          <Node pos="l" depth="2" NCoef="0" IVar="-1" Cut="0.0000000000000000e+00" cType="1" res="2.5566425174474716e-03" rms="4.1369900107383728e-01" purity="7.1346509456634521e-01" nType="-99"/>
          <Node pos="r" depth="2" NCoef="0" IVar="-1" Cut="0.0000000000000000e+00" cType="1" res="2.1670758724212646e-04" rms="4.4755721092224121e-01" purity="6.1424708366394043e-01" nType="-99"/>
        </Node>
      </Node>
    </BinaryTree>
    <BinaryTree type="DecisionTree" boostWeight="1.0000000000000000e+00" itree="548">
      <Node pos="s" depth="0" NCoef="0" IVar="4" Cut="9.9836463928222656e+01" cType="1" res="-7.7307475730776787e-03" rms="4.5684793591499329e-01" purity="4.9736729264259338e-01" nType="0">
        <Node pos="l" depth="1" NCoef="0" IVar="7" Cut="6.0932779312133789e-01" cType="1" res="-2.8253797441720963e-02" rms="4.6071246266365051e-01" purity="4.5138585567474365e-01" nType="0">
          <Node pos="l" depth="2" NCoef="0" IVar="-1" Cut="0.0000000000000000e+00" cType="1" res="-1.4701025793328881e-04" rms="4.5507434010505676e-01" purity="3.8835492730140686e-01" nType="-99"/>
          <Node pos="r" depth="2" NCoef="0" IVar="-1" Cut="0.0000000000000000e+00" cType="1" res="-1.2656865874305367e-03" rms="4.6340984106063843e-01" purity="4.8782604932785034e-01" nType="-99"/>
        </Node>
        <Node pos="r" depth="1" NCoef="0" IVar="3" Cut="1.4526837158203125e+02" cType="1" res="-1.6452891286462545e-03" rms="4.5551800727844238e-01" purity="5.1100164651870728e-01" nType="0">
          <Node pos="l" depth="2" NCoef="0" IVar="-1" Cut="0.0000000000000000e+00" cType="1" res="9.9327487987466156e-05" rms="4.5638075470924377e-01" purity="5.2544504404067993e-01" nType="-99"/>
          <Node pos="r" depth="2" NCoef="0" IVar="-1" Cut="0.0000000000000000e+00" cType="1" res="-1.3385455822572112e-03" rms="4.4523409008979797e-01" purity="3.7824910879135132e-01" nType="-99"/>
        </Node>
      </Node>
    </BinaryTree>
    <BinaryTree type="DecisionTree" boostWeight="1.0000000000000000e+00" itree="549">
      <Node pos="s" depth="0" NCoef="0" IVar="5" Cut="5.7814127206802368e-01" cType="1" res="-5.0313230603933334e-03" rms="4.5607897639274597e-01" purity="4.9959936738014221e-01" nType="0">
        <Node pos="l" depth="1" NCoef="0" IVar="3" Cut="5.5245372772216797e+01" cType="1" res="2.9214087873697281e-02" rms="4.4832342863082886e-01" purity="6.7153185606002808e-01" nType="0">
          <Node pos="l" depth="2" NCoef="0" IVar="-1" Cut="0.0000000000000000e+00" cType="1" res="2.5014032144099474e-03" rms="4.5657533407211304e-01" purity="6.5526169538497925e-01" nType="-99"/>
          <Node pos="r" depth="2" NCoef="0" IVar="-1" Cut="0.0000000000000000e+00" cType="1" res="2.4818556266836822e-04" rms="4.4161847233772278e-01" purity="6.8141865730285645e-01" nType="-99"/>
        </Node>
        <Node pos="r" depth="1" NCoef="0" IVar="4" Cut="1.1295301055908203e+02" cType="1" res="-1.0912897996604443e-02" rms="4.5713970065116882e-01" purity="4.7007030248641968e-01" nType="0">
          <Node pos="l" depth="2" NCoef="0" IVar="-1" Cut="0.0000000000000000e+00" cType="1" res="-1.0480427881702781e-03" rms="4.6362671256065369e-01" purity="4.5382681488990784e-01" nType="-99"/>
          <Node pos="r" depth="2" NCoef="0" IVar="-1" Cut="0.0000000000000000e+00" cType="1" res="-1.2093435543647502e-05" rms="4.5381200313568115e-01" purity="4.7733867168426514e-01" nType="-99"/>
        </Node>
      </Node>
    </BinaryTree>
    <BinaryTree type="DecisionTree" boostWeight="1.0000000000000000e+00" itree="550">
      <Node pos="s" depth="0" NCoef="0" IVar="1" Cut="2.6085418462753296e-01" cType="1" res="-3.2211112556979060e-04" rms="4.5312675833702087e-01" purity="5.0245141983032227e-01" nType="0">
        <Node pos="l" depth="1" NCoef="0" IVar="-1" Cut="0.0000000000000000e+00" cType="1" res="2.7031095232814550e-03" rms="4.2425593733787537e-01" purity="6.7817050218582153e-01" nType="-99"/>
        <Node pos="r" depth="1" NCoef="0" IVar="7" Cut="5.2559649944305420e-01" cType="1" res="-6.0823620297014713e-03" rms="4.5505836606025696e-01" purity="4.8737016320228577e-01" nType="0">
          <Node pos="l" depth="2" NCoef="0" IVar="-1" Cut="0.0000000000000000e+00" cType="1" res="-1.1516016675159335e-03" rms="4.4044545292854309e-01" purity="3.3392536640167236e-01" nType="-99"/>
          <Node pos="r" depth="2" NCoef="0" IVar="-1" Cut="0.0000000000000000e+00" cType="1" res="-2.4470284188282676e-05" rms="4.5699533820152283e-01" purity="5.1061511039733887e-01" nType="-99"/>
        </Node>
      </Node>
    </BinaryTree>
    <BinaryTree type="DecisionTree" boostWeight="1.0000000000000000e+00" itree="551">
      <Node pos="s" depth="0" NCoef="0" IVar="2" Cut="7.4339723587036133e-01" cType="1" res="-4.9472092650830746e-03" rms="4.5297408103942871e-01" purity="4.9751335382461548e-01" nType="0">
        <Node pos="l" depth="1" NCoef="0" IVar="-1" Cut="0.0000000000000000e+00" cType="1" res="-1.4223391190171242e-03" rms="4.2440843582153320e-01" purity="2.6331365108489990e-01" nType="-99"/>
        <Node pos="r" depth="1" NCoef="0" IVar="4" Cut="3.9872167968750000e+02" cType="1" res="1.0482540346856695e-05" rms="4.5558717846870422e-01" purity="5.2211475372314453e-01" nType="0">
          <Node pos="l" depth="2" NCoef="0" IVar="-1" Cut="0.0000000000000000e+00" cType="1" res="1.5769703895784914e-04" rms="4.5755386352539062e-01" purity="5.3860616683959961e-01" nType="-99"/>
          <Node pos="r" depth="2" NCoef="0" IVar="-1" Cut="0.0000000000000000e+00" cType="1" res="-1.5156266745179892e-03" rms="4.2899847030639648e-01" purity="3.3519223332405090e-01" nType="-99"/>
        </Node>
      </Node>
    </BinaryTree>
    <BinaryTree type="DecisionTree" boostWeight="1.0000000000000000e+00" itree="552">
      <Node pos="s" depth="0" NCoef="0" IVar="4" Cut="2.5564871215820312e+02" cType="1" res="-1.8281784141436219e-03" rms="4.5318540930747986e-01" purity="5.0200396776199341e-01" nType="0">
        <Node pos="l" depth="1" NCoef="0" IVar="1" Cut="1.1817630529403687e+00" cType="1" res="6.6493251360952854e-03" rms="4.5524930953979492e-01" purity="5.3347295522689819e-01" nType="0">
          <Node pos="l" depth="2" NCoef="0" IVar="-1" Cut="0.0000000000000000e+00" cType="1" res="7.1667815791442990e-04" rms="4.5563179254531860e-01" purity="6.1251920461654663e-01" nType="-99"/>
          <Node pos="r" depth="2" NCoef="0" IVar="-1" Cut="0.0000000000000000e+00" cType="1" res="-4.0857869316823781e-04" rms="4.5389413833618164e-01" purity="4.1086244583129883e-01" nType="-99"/>
        </Node>
        <Node pos="r" depth="1" NCoef="0" IVar="6" Cut="1.9344782456755638e-02" cType="1" res="-3.2222896814346313e-02" rms="4.4437968730926514e-01" purity="3.8917705416679382e-01" nType="0">
          <Node pos="l" depth="2" NCoef="0" IVar="-1" Cut="0.0000000000000000e+00" cType="1" res="-1.4946843730285764e-03" rms="4.4957944750785828e-01" purity="4.2024156451225281e-01" nType="-99"/>
          <Node pos="r" depth="2" NCoef="0" IVar="-1" Cut="0.0000000000000000e+00" cType="1" res="-4.1037952178157866e-04" rms="4.3831405043601990e-01" purity="3.5786139965057373e-01" nType="-99"/>
        </Node>
      </Node>
    </BinaryTree>
    <BinaryTree type="DecisionTree" boostWeight="1.0000000000000000e+00" itree="553">
      <Node pos="s" depth="0" NCoef="0" IVar="3" Cut="4.1561588287353516e+01" cType="1" res="1.7732983687892556e-03" rms="4.5657730102539062e-01" purity="5.0565296411514282e-01" nType="0">
        <Node pos="l" depth="1" NCoef="0" IVar="3" Cut="3.6358997344970703e+01" cType="1" res="-3.0894350260496140e-02" rms="4.5543235540390015e-01" purity="3.9453855156898499e-01" nType="0">
          <Node pos="l" depth="2" NCoef="0" IVar="-1" Cut="0.0000000000000000e+00" cType="1" res="-1.6878563910722733e-03" rms="4.5040521025657654e-01" purity="3.4894749522209167e-01" nType="-99"/>
          <Node pos="r" depth="2" NCoef="0" IVar="-1" Cut="0.0000000000000000e+00" cType="1" res="6.0883443802595139e-04" rms="4.5906499028205872e-01" purity="4.6926069259643555e-01" nType="-99"/>
        </Node>
        <Node pos="r" depth="1" NCoef="0" IVar="4" Cut="1.0024775695800781e+02" cType="1" res="6.9234590046107769e-03" rms="4.5654428005218506e-01" purity="5.2317053079605103e-01" nType="0">
          <Node pos="l" depth="2" NCoef="0" IVar="-1" Cut="0.0000000000000000e+00" cType="1" res="-6.4006244065240026e-04" rms="4.7184008359909058e-01" purity="4.7607395052909851e-01" nType="-99"/>
          <Node pos="r" depth="2" NCoef="0" IVar="-1" Cut="0.0000000000000000e+00" cType="1" res="4.8764146049506962e-04" rms="4.5205214619636536e-01" purity="5.3584402799606323e-01" nType="-99"/>
        </Node>
      </Node>
    </BinaryTree>
    <BinaryTree type="DecisionTree" boostWeight="1.0000000000000000e+00" itree="554">
      <Node pos="s" depth="0" NCoef="0" IVar="3" Cut="1.0232089996337891e+02" cType="1" res="-3.9882739074528217e-03" rms="4.5388516783714294e-01" purity="5.0183379650115967e-01" nType="0">
        <Node pos="l" depth="1" NCoef="0" IVar="0" Cut="1.1325671672821045e+00" cType="1" res="-1.1814811266958714e-02" rms="4.5788279175758362e-01" purity="4.8086917400360107e-01" nType="0">
          <Node pos="l" depth="2" NCoef="0" IVar="-1" Cut="0.0000000000000000e+00" cType="1" res="1.3153541658539325e-04" rms="4.7086858749389648e-01" purity="5.9545373916625977e-01" nType="-99"/>
          <Node pos="r" depth="2" NCoef="0" IVar="-1" Cut="0.0000000000000000e+00" cType="1" res="-8.7840371998026967e-04" rms="4.4075551629066467e-01" purity="3.4097698330879211e-01" nType="-99"/>
        </Node>
        <Node pos="r" depth="1" NCoef="0" IVar="3" Cut="1.2733032226562500e+02" cType="1" res="1.5922708436846733e-02" rms="4.4292971491813660e-01" purity="5.5516850948333740e-01" nType="0">
          <Node pos="l" depth="2" NCoef="0" IVar="-1" Cut="0.0000000000000000e+00" cType="1" res="1.7210600199177861e-03" rms="4.3054911494255066e-01" purity="6.2835073471069336e-01" nType="-99"/>
          <Node pos="r" depth="2" NCoef="0" IVar="-1" Cut="0.0000000000000000e+00" cType="1" res="-5.1885371794924140e-04" rms="4.5411109924316406e-01" purity="4.7430586814880371e-01" nType="-99"/>
        </Node>
      </Node>
    </BinaryTree>
    <BinaryTree type="DecisionTree" boostWeight="1.0000000000000000e+00" itree="555">
      <Node pos="s" depth="0" NCoef="0" IVar="7" Cut="5.6770128011703491e-01" cType="1" res="-9.6498494967818260e-03" rms="4.5344462990760803e-01" purity="4.9459290504455566e-01" nType="0">
        <Node pos="l" depth="1" NCoef="0" IVar="8" Cut="5.5941981077194214e-01" cType="1" res="-4.0161855518817902e-02" rms="4.4791224598884583e-01" purity="3.6145731806755066e-01" nType="0">
          <Node pos="l" depth="2" NCoef="0" IVar="-1" Cut="0.0000000000000000e+00" cType="1" res="-1.3852561824023724e-03" rms="4.4527223706245422e-01" purity="3.3213216066360474e-01" nType="-99"/>
          <Node pos="r" depth="2" NCoef="0" IVar="-1" Cut="0.0000000000000000e+00" cType="1" res="-9.9069133284501731e-05" rms="4.5542186498641968e-01" purity="4.6743506193161011e-01" nType="-99"/>
        </Node>
        <Node pos="r" depth="1" NCoef="0" IVar="0" Cut="1.5462530851364136e+00" cType="1" res="2.1521802991628647e-03" rms="4.5501810312271118e-01" purity="5.4608964920043945e-01" nType="0">
          <Node pos="l" depth="2" NCoef="0" IVar="-1" Cut="0.0000000000000000e+00" cType="1" res="2.6902789250016212e-04" rms="4.5944118499755859e-01" purity="5.8248102664947510e-01" nType="-99"/>
          <Node pos="r" depth="2" NCoef="0" IVar="-1" Cut="0.0000000000000000e+00" cType="1" res="-1.0983967222273350e-03" rms="4.1936001181602478e-01" purity="2.8245165944099426e-01" nType="-99"/>
        </Node>
      </Node>
    </BinaryTree>
    <BinaryTree type="DecisionTree" boostWeight="1.0000000000000000e+00" itree="556">
      <Node pos="s" depth="0" NCoef="0" IVar="7" Cut="5.1512938737869263e-01" cType="1" res="-3.5090604797005653e-03" rms="4.5538815855979919e-01" purity="5.0185674428939819e-01" nType="0">
        <Node pos="l" depth="1" NCoef="0" IVar="-1" Cut="0.0000000000000000e+00" cType="1" res="-1.4156167162582278e-03" rms="4.4022169709205627e-01" purity="3.2946428656578064e-01" nType="-99"/>
        <Node pos="r" depth="1" NCoef="0" IVar="8" Cut="4.5019581913948059e-01" cType="1" res="1.0780241573229432e-03" rms="4.5654621720314026e-01" purity="5.1832276582717896e-01" nType="0">
          <Node pos="l" depth="2" NCoef="0" IVar="-1" Cut="0.0000000000000000e+00" cType="1" res="-1.0088288690894842e-03" rms="4.4792881608009338e-01" purity="3.7743386626243591e-01" nType="-99"/>
          <Node pos="r" depth="2" NCoef="0" IVar="-1" Cut="0.0000000000000000e+00" cType="1" res="1.8875110254157335e-04" rms="4.5741727948188782e-01" purity="5.3610599040985107e-01" nType="-99"/>
        </Node>
      </Node>
    </BinaryTree>
    <BinaryTree type="DecisionTree" boostWeight="1.0000000000000000e+00" itree="557">
      <Node pos="s" depth="0" NCoef="0" IVar="3" Cut="1.4648326110839844e+02" cType="1" res="2.3002857342362404e-03" rms="4.5114052295684814e-01" purity="5.0528019666671753e-01" nType="0">
        <Node pos="l" depth="1" NCoef="0" IVar="3" Cut="1.1173242187500000e+02" cType="1" res="6.8909451365470886e-03" rms="4.5126381516456604e-01" purity="5.1615792512893677e-01" nType="0">
          <Node pos="l" depth="2" NCoef="0" IVar="-1" Cut="0.0000000000000000e+00" cType="1" res="-6.9510165303654503e-06" rms="4.5540001988410950e-01" purity="4.9661582708358765e-01" nType="-99"/>
          <Node pos="r" depth="2" NCoef="0" IVar="-1" Cut="0.0000000000000000e+00" cType="1" res="1.6437439480796456e-03" rms="4.2763996124267578e-01" purity="6.1611753702163696e-01" nType="-99"/>
        </Node>
        <Node pos="r" depth="1" NCoef="0" IVar="-1" Cut="0.0000000000000000e+00" cType="1" res="-1.5884612221270800e-03" rms="4.4586661458015442e-01" purity="3.7291347980499268e-01" nType="-99"/>
      </Node>
    </BinaryTree>
    <BinaryTree type="DecisionTree" boostWeight="1.0000000000000000e+00" itree="558">
      <Node pos="s" depth="0" NCoef="0" IVar="6" Cut="3.8629744201898575e-02" cType="1" res="-7.7035110443830490e-03" rms="4.5460149645805359e-01" purity="4.9689057469367981e-01" nType="0">
        <Node pos="l" depth="1" NCoef="0" IVar="4" Cut="6.7908752441406250e+01" cType="1" res="-2.7854531072080135e-03" rms="4.5406049489974976e-01" purity="5.0916296243667603e-01" nType="0">
          <Node pos="l" depth="2" NCoef="0" IVar="-1" Cut="0.0000000000000000e+00" cType="1" res="-1.6417233273386955e-03" rms="4.4431564211845398e-01" purity="3.5720816254615784e-01" nType="-99"/>
          <Node pos="r" depth="2" NCoef="0" IVar="-1" Cut="0.0000000000000000e+00" cType="1" res="1.0322379239369184e-04" rms="4.5466682314872742e-01" purity="5.2512502670288086e-01" nType="-99"/>
        </Node>
        <Node pos="r" depth="1" NCoef="0" IVar="-1" Cut="0.0000000000000000e+00" cType="1" res="-1.6816717106848955e-03" rms="4.5702093839645386e-01" purity="3.6022475361824036e-01" nType="-99"/>
      </Node>
    </BinaryTree>
    <BinaryTree type="DecisionTree" boostWeight="1.0000000000000000e+00" itree="559">
      <Node pos="s" depth="0" NCoef="0" IVar="4" Cut="1.0602333831787109e+02" cType="1" res="5.3323446772992611e-03" rms="4.5364880561828613e-01" purity="5.0777822732925415e-01" nType="0">
        <Node pos="l" depth="1" NCoef="0" IVar="3" Cut="7.8867416381835938e+01" cType="1" res="-2.1685900166630745e-02" rms="4.6027663350105286e-01" purity="4.6916985511779785e-01" nType="0">
          <Node pos="l" depth="2" NCoef="0" IVar="-1" Cut="0.0000000000000000e+00" cType="1" res="-3.0174074345268309e-04" rms="4.5958593487739563e-01" purity="4.5518833398818970e-01" nType="-99"/>
          <Node pos="r" depth="2" NCoef="0" IVar="-1" Cut="0.0000000000000000e+00" cType="1" res="-1.6816932475194335e-03" rms="4.6068134903907776e-01" purity="5.0415569543838501e-01" nType="-99"/>
        </Node>
        <Node pos="r" depth="1" NCoef="0" IVar="4" Cut="1.4765786743164062e+02" cType="1" res="1.5451083891093731e-02" rms="4.5072486996650696e-01" purity="5.2223759889602661e-01" nType="0">
          <Node pos="l" depth="2" NCoef="0" IVar="-1" Cut="0.0000000000000000e+00" cType="1" res="1.8412835197523236e-03" rms="4.4183287024497986e-01" purity="6.4153605699539185e-01" nType="-99"/>
          <Node pos="r" depth="2" NCoef="0" IVar="-1" Cut="0.0000000000000000e+00" cType="1" res="-1.0684132575988770e-05" rms="4.5414453744888306e-01" purity="4.6426057815551758e-01" nType="-99"/>
        </Node>
      </Node>
    </BinaryTree>
    <BinaryTree type="DecisionTree" boostWeight="1.0000000000000000e+00" itree="560">
      <Node pos="s" depth="0" NCoef="0" IVar="4" Cut="6.5481933593750000e+01" cType="1" res="-7.2860717773437500e-03" rms="4.5353969931602478e-01" purity="4.9577531218528748e-01" nType="0">
        <Node pos="l" depth="1" NCoef="0" IVar="-1" Cut="0.0000000000000000e+00" cType="1" res="-1.6553970053792000e-03" rms="4.5125654339790344e-01" purity="3.5770115256309509e-01" nType="-99"/>
        <Node pos="r" depth="1" NCoef="0" IVar="2" Cut="7.7338957786560059e-01" cType="1" res="-2.4461331777274609e-03" rms="4.5344266295433044e-01" purity="5.0847744941711426e-01" nType="0">
          <Node pos="l" depth="2" NCoef="0" IVar="-1" Cut="0.0000000000000000e+00" cType="1" res="-1.1430614395067096e-03" rms="4.4407057762145996e-01" purity="3.0790606141090393e-01" nType="-99"/>
          <Node pos="r" depth="2" NCoef="0" IVar="-1" Cut="0.0000000000000000e+00" cType="1" res="1.7552667122799903e-04" rms="4.5486146211624146e-01" purity="5.4778879880905151e-01" nType="-99"/>
        </Node>
      </Node>
    </BinaryTree>
    <BinaryTree type="DecisionTree" boostWeight="1.0000000000000000e+00" itree="561">
      <Node pos="s" depth="0" NCoef="0" IVar="6" Cut="2.0633256062865257e-02" cType="1" res="-4.1762003675103188e-03" rms="4.5483341813087463e-01" purity="4.9961104989051819e-01" nType="0">
        <Node pos="l" depth="1" NCoef="0" IVar="8" Cut="4.6972998976707458e-01" cType="1" res="-1.4989864081144333e-02" rms="4.5572677254676819e-01" purity="5.4023802280426025e-01" nType="0">
          <Node pos="l" depth="2" NCoef="0" IVar="-1" Cut="0.0000000000000000e+00" cType="1" res="-1.5443927841261029e-03" rms="4.4569638371467590e-01" purity="3.8891708850860596e-01" nType="-99"/>
          <Node pos="r" depth="2" NCoef="0" IVar="-1" Cut="0.0000000000000000e+00" cType="1" res="-3.0275227618403733e-04" rms="4.5699948072433472e-01" purity="5.6432944536209106e-01" nType="-99"/>
        </Node>
        <Node pos="r" depth="1" NCoef="0" IVar="7" Cut="5.7747048139572144e-01" cType="1" res="9.8946373909711838e-03" rms="4.5328223705291748e-01" purity="4.4674685597419739e-01" nType="0">
          <Node pos="l" depth="2" NCoef="0" IVar="-1" Cut="0.0000000000000000e+00" cType="1" res="-2.8864917112514377e-04" rms="4.5103597640991211e-01" purity="3.9769887924194336e-01" nType="-99"/>
          <Node pos="r" depth="2" NCoef="0" IVar="-1" Cut="0.0000000000000000e+00" cType="1" res="1.5112913679331541e-03" rms="4.5516306161880493e-01" purity="5.3437137603759766e-01" nType="-99"/>
        </Node>
      </Node>
    </BinaryTree>
    <BinaryTree type="DecisionTree" boostWeight="1.0000000000000000e+00" itree="562">
      <Node pos="s" depth="0" NCoef="0" IVar="0" Cut="1.6365941762924194e+00" cType="1" res="8.5774762555956841e-04" rms="4.5334976911544800e-01" purity="5.0666034221649170e-01" nType="0">
        <Node pos="l" depth="1" NCoef="0" IVar="9" Cut="7.9808032512664795e-01" cType="1" res="6.2359208241105080e-03" rms="4.5925924181938171e-01" purity="5.3532439470291138e-01" nType="0">
          <Node pos="l" depth="2" NCoef="0" IVar="-1" Cut="0.0000000000000000e+00" cType="1" res="-1.1275672586634755e-03" rms="4.4081735610961914e-01" purity="3.0320313572883606e-01" nType="-99"/>
          <Node pos="r" depth="2" NCoef="0" IVar="-1" Cut="0.0000000000000000e+00" cType="1" res="3.5591589403338730e-04" rms="4.6067887544631958e-01" purity="5.5673265457153320e-01" nType="-99"/>
        </Node>
        <Node pos="r" depth="1" NCoef="0" IVar="-1" Cut="0.0000000000000000e+00" cType="1" res="-1.5340083045884967e-03" rms="3.8548761606216431e-01" purity="2.2091305255889893e-01" nType="-99"/>
      </Node>
    </BinaryTree>
    <BinaryTree type="DecisionTree" boostWeight="1.0000000000000000e+00" itree="563">
      <Node pos="s" depth="0" NCoef="0" IVar="7" Cut="5.8873003721237183e-01" cType="1" res="-7.9916715621948242e-03" rms="4.5410096645355225e-01" purity="4.9604988098144531e-01" nType="0">
        <Node pos="l" depth="1" NCoef="0" IVar="2" Cut="7.2828227281570435e-01" cType="1" res="-3.1498130410909653e-02" rms="4.5236790180206299e-01" purity="3.7599271535873413e-01" nType="0">
          <Node pos="l" depth="2" NCoef="0" IVar="-1" Cut="0.0000000000000000e+00" cType="1" res="-1.7917485674843192e-03" rms="4.1548833250999451e-01" purity="2.3814083635807037e-01" nType="-99"/>
          <Node pos="r" depth="2" NCoef="0" IVar="-1" Cut="0.0000000000000000e+00" cType="1" res="-6.5600598463788629e-04" rms="4.6033775806427002e-01" purity="4.0890496969223022e-01" nType="-99"/>
        </Node>
        <Node pos="r" depth="1" NCoef="0" IVar="4" Cut="1.3141886901855469e+02" cType="1" res="4.0056686848402023e-03" rms="4.5451462268829346e-01" purity="5.5732518434524536e-01" nType="0">
          <Node pos="l" depth="2" NCoef="0" IVar="-1" Cut="0.0000000000000000e+00" cType="1" res="9.6519396174699068e-04" rms="4.4342917203903198e-01" purity="6.0469961166381836e-01" nType="-99"/>
          <Node pos="r" depth="2" NCoef="0" IVar="-1" Cut="0.0000000000000000e+00" cType="1" res="-4.3526530498638749e-04" rms="4.6212306618690491e-01" purity="5.2080690860748291e-01" nType="-99"/>
        </Node>
      </Node>
    </BinaryTree>
    <BinaryTree type="DecisionTree" boostWeight="1.0000000000000000e+00" itree="564">
      <Node pos="s" depth="0" NCoef="0" IVar="7" Cut="9.0353381633758545e-01" cType="1" res="-3.4606424160301685e-03" rms="4.5331427454948425e-01" purity="5.0136464834213257e-01" nType="0">
        <Node pos="l" depth="1" NCoef="0" IVar="2" Cut="9.0948152542114258e-01" cType="1" res="-8.3589544519782066e-03" rms="4.5570707321166992e-01" purity="4.8195862770080566e-01" nType="0">
          <Node pos="l" depth="2" NCoef="0" IVar="-1" Cut="0.0000000000000000e+00" cType="1" res="-6.0620099247898906e-05" rms="4.5610451698303223e-01" purity="4.6047243475914001e-01" nType="-99"/>
          <Node pos="r" depth="2" NCoef="0" IVar="-1" Cut="0.0000000000000000e+00" cType="1" res="-1.1718289460986853e-03" rms="4.5322951674461365e-01" purity="5.6742918491363525e-01" nType="-99"/>
        </Node>
        <Node pos="r" depth="1" NCoef="0" IVar="2" Cut="9.7573041915893555e-01" cType="1" res="3.7201270461082458e-02" rms="4.3079626560211182e-01" purity="6.6245865821838379e-01" nType="0">
          <Node pos="l" depth="2" NCoef="0" IVar="-1" Cut="0.0000000000000000e+00" cType="1" res="2.4525462649762630e-03" rms="4.3035629391670227e-01" purity="6.8300366401672363e-01" nType="-99"/>
          <Node pos="r" depth="2" NCoef="0" IVar="-1" Cut="0.0000000000000000e+00" cType="1" res="5.8914627879858017e-04" rms="4.3009948730468750e-01" purity="6.4179533720016479e-01" nType="-99"/>
        </Node>
      </Node>
    </BinaryTree>
    <BinaryTree type="DecisionTree" boostWeight="1.0000000000000000e+00" itree="565">
      <Node pos="s" depth="0" NCoef="0" IVar="5" Cut="5.8805882930755615e-01" cType="1" res="-5.2296980284154415e-03" rms="4.5289972424507141e-01" purity="4.9786788225173950e-01" nType="0">
        <Node pos="l" depth="1" NCoef="0" IVar="4" Cut="1.1088732147216797e+02" cType="1" res="3.0229846015572548e-02" rms="4.4459730386734009e-01" purity="6.7858040332794189e-01" nType="0">
          <Node pos="l" depth="2" NCoef="0" IVar="-1" Cut="0.0000000000000000e+00" cType="1" res="-3.0794856138527393e-04" rms="4.6461784839630127e-01" purity="6.1518794298171997e-01" nType="-99"/>
          <Node pos="r" depth="2" NCoef="0" IVar="-1" Cut="0.0000000000000000e+00" cType="1" res="2.2674337960779667e-03" rms="4.3137124180793762e-01" purity="7.1427416801452637e-01" nType="-99"/>
        </Node>
        <Node pos="r" depth="1" NCoef="0" IVar="3" Cut="5.9455116271972656e+01" cType="1" res="-1.1341599747538567e-02" rms="4.5403569936752319e-01" purity="4.6671980619430542e-01" nType="0">
          <Node pos="l" depth="2" NCoef="0" IVar="-1" Cut="0.0000000000000000e+00" cType="1" res="-1.1147888144478202e-03" rms="4.5043638348579407e-01" purity="3.9356046915054321e-01" nType="-99"/>
          <Node pos="r" depth="2" NCoef="0" IVar="-1" Cut="0.0000000000000000e+00" cType="1" res="7.4950134148821235e-05" rms="4.5517235994338989e-01" purity="5.0266617536544800e-01" nType="-99"/>
        </Node>
      </Node>
    </BinaryTree>
    <BinaryTree type="DecisionTree" boostWeight="1.0000000000000000e+00" itree="566">
      <Node pos="s" depth="0" NCoef="0" IVar="6" Cut="3.8727231323719025e-02" cType="1" res="7.2631486691534519e-03" rms="4.5476675033569336e-01" purity="5.1353502273559570e-01" nType="0">
        <Node pos="l" depth="1" NCoef="0" IVar="4" Cut="4.1052581787109375e+02" cType="1" res="1.1400616727769375e-02" rms="4.5425817370414734e-01" purity="5.2527046203613281e-01" nType="0">
          <Node pos="l" depth="2" NCoef="0" IVar="-1" Cut="0.0000000000000000e+00" cType="1" res="5.1840790547430515e-04" rms="4.5563247799873352e-01" purity="5.4112148284912109e-01" nType="-99"/>
          <Node pos="r" depth="2" NCoef="0" IVar="-1" Cut="0.0000000000000000e+00" cType="1" res="-1.0236828820779920e-03" rms="4.3535906076431274e-01" purity="3.4167256951332092e-01" nType="-99"/>
        </Node>
        <Node pos="r" depth="1" NCoef="0" IVar="-1" Cut="0.0000000000000000e+00" cType="1" res="-1.2129604583606124e-03" rms="4.5792278647422791e-01" purity="3.7150338292121887e-01" nType="-99"/>
      </Node>
    </BinaryTree>
    <BinaryTree type="DecisionTree" boostWeight="1.0000000000000000e+00" itree="567">
      <Node pos="s" depth="0" NCoef="0" IVar="4" Cut="3.9984484863281250e+02" cType="1" res="-3.8304738700389862e-03" rms="4.5550575852394104e-01" purity="4.9935540556907654e-01" nType="0">
        <Node pos="l" depth="1" NCoef="0" IVar="4" Cut="1.0742283630371094e+02" cType="1" res="-7.1040835791791324e-06" rms="4.5805054903030396e-01" purity="5.1503598690032959e-01" nType="0">
          <Node pos="l" depth="2" NCoef="0" IVar="-1" Cut="0.0000000000000000e+00" cType="1" res="-8.4932654863223433e-04" rms="4.6350985765457153e-01" purity="4.6577373147010803e-01" nType="-99"/>
          <Node pos="r" depth="2" NCoef="0" IVar="-1" Cut="0.0000000000000000e+00" cType="1" res="4.1659752605482936e-04" rms="4.5499905943870544e-01" purity="5.3742527961730957e-01" nType="-99"/>
        </Node>
        <Node pos="r" depth="1" NCoef="0" IVar="-1" Cut="0.0000000000000000e+00" cType="1" res="-1.3586160494014621e-03" rms="4.2391979694366455e-01" purity="3.2524853944778442e-01" nType="-99"/>
      </Node>
    </BinaryTree>
    <BinaryTree type="DecisionTree" boostWeight="1.0000000000000000e+00" itree="568">
      <Node pos="s" depth="0" NCoef="0" IVar="4" Cut="1.6196417236328125e+02" cType="1" res="-1.1802321532741189e-03" rms="4.5384833216667175e-01" purity="5.0283634662628174e-01" nType="0">
        <Node pos="l" depth="1" NCoef="0" IVar="4" Cut="9.9692535400390625e+01" cType="1" res="1.1733024381101131e-02" rms="4.5324626564979553e-01" purity="5.5178833007812500e-01" nType="0">
          <Node pos="l" depth="2" NCoef="0" IVar="-1" Cut="0.0000000000000000e+00" cType="1" res="-4.0255198837257922e-04" rms="4.6314743161201477e-01" purity="4.6524032950401306e-01" nType="-99"/>
          <Node pos="r" depth="2" NCoef="0" IVar="-1" Cut="0.0000000000000000e+00" cType="1" res="1.0552579769864678e-03" rms="4.4540944695472717e-01" purity="6.1207079887390137e-01" nType="-99"/>
        </Node>
        <Node pos="r" depth="1" NCoef="0" IVar="5" Cut="5.9835070371627808e-01" cType="1" res="-1.7765145748853683e-02" rms="4.5408207178115845e-01" purity="4.3996587395668030e-01" nType="0">
          <Node pos="l" depth="2" NCoef="0" IVar="-1" Cut="0.0000000000000000e+00" cType="1" res="1.5831405762583017e-03" rms="4.5651558041572571e-01" purity="6.7443078756332397e-01" nType="-99"/>
          <Node pos="r" depth="2" NCoef="0" IVar="-1" Cut="0.0000000000000000e+00" cType="1" res="-7.6372805051505566e-04" rms="4.5315396785736084e-01" purity="4.0726646780967712e-01" nType="-99"/>
        </Node>
      </Node>
    </BinaryTree>
    <BinaryTree type="DecisionTree" boostWeight="1.0000000000000000e+00" itree="569">
      <Node pos="s" depth="0" NCoef="0" IVar="3" Cut="9.3796752929687500e+01" cType="1" res="-7.3048621416091919e-03" rms="4.5589885115623474e-01" purity="4.9864029884338379e-01" nType="0">
        <Node pos="l" depth="1" NCoef="0" IVar="9" Cut="9.7927248477935791e-01" cType="1" res="-1.9042730331420898e-02" rms="4.6109071373939514e-01" purity="4.6806681156158447e-01" nType="0">
          <Node pos="l" depth="2" NCoef="0" IVar="-1" Cut="0.0000000000000000e+00" cType="1" res="-8.6253613699227571e-04" rms="4.5876047015190125e-01" purity="4.0972071886062622e-01" nType="-99"/>
          <Node pos="r" depth="2" NCoef="0" IVar="-1" Cut="0.0000000000000000e+00" cType="1" res="-1.4628536882810295e-04" rms="4.6389818191528320e-01" purity="5.4879599809646606e-01" nType="-99"/>
        </Node>
        <Node pos="r" depth="1" NCoef="0" IVar="3" Cut="1.2757892608642578e+02" cType="1" res="1.5270361676812172e-02" rms="4.4487369060516357e-01" purity="5.5744177103042603e-01" nType="0">
          <Node pos="l" depth="2" NCoef="0" IVar="-1" Cut="0.0000000000000000e+00" cType="1" res="1.2746717547997832e-03" rms="4.3692320585250854e-01" purity="6.0621351003646851e-01" nType="-99"/>
          <Node pos="r" depth="2" NCoef="0" IVar="-1" Cut="0.0000000000000000e+00" cType="1" res="-5.1470828475430608e-04" rms="4.5560050010681152e-01" purity="4.7933486104011536e-01" nType="-99"/>
        </Node>
      </Node>
    </BinaryTree>
    <BinaryTree type="DecisionTree" boostWeight="1.0000000000000000e+00" itree="570">
      <Node pos="s" depth="0" NCoef="0" IVar="1" Cut="3.0071666836738586e-01" cType="1" res="-1.3713565422222018e-03" rms="4.5077517628669739e-01" purity="4.9663859605789185e-01" nType="0">
        <Node pos="l" depth="1" NCoef="0" IVar="-1" Cut="0.0000000000000000e+00" cType="1" res="1.7676091520115733e-03" rms="4.3677198886871338e-01" purity="6.6761815547943115e-01" nType="-99"/>
        <Node pos="r" depth="1" NCoef="0" IVar="9" Cut="8.4919953346252441e-01" cType="1" res="-6.2643927522003651e-03" rms="4.5197874307632446e-01" purity="4.7829228639602661e-01" nType="0">
          <Node pos="l" depth="2" NCoef="0" IVar="-1" Cut="0.0000000000000000e+00" cType="1" res="-1.1430801823735237e-03" rms="4.3207460641860962e-01" purity="2.9455229640007019e-01" nType="-99"/>
          <Node pos="r" depth="2" NCoef="0" IVar="-1" Cut="0.0000000000000000e+00" cType="1" res="4.3139857552887406e-06" rms="4.5526179671287537e-01" purity="5.1214200258255005e-01" nType="-99"/>
        </Node>
      </Node>
    </BinaryTree>
    <BinaryTree type="DecisionTree" boostWeight="1.0000000000000000e+00" itree="571">
      <Node pos="s" depth="0" NCoef="0" IVar="1" Cut="2.5321764945983887e+00" cType="1" res="-6.9971596822142601e-03" rms="4.5485126972198486e-01" purity="4.9383661150932312e-01" nType="0">
        <Node pos="l" depth="1" NCoef="0" IVar="4" Cut="2.7871112060546875e+02" cType="1" res="-2.9175975359976292e-03" rms="4.5904421806335449e-01" purity="5.1594531536102295e-01" nType="0">
          <Node pos="l" depth="2" NCoef="0" IVar="-1" Cut="0.0000000000000000e+00" cType="1" res="1.2281119416002184e-04" rms="4.6118697524070740e-01" purity="5.4486769437789917e-01" nType="-99"/>
          <Node pos="r" depth="2" NCoef="0" IVar="-1" Cut="0.0000000000000000e+00" cType="1" res="-9.3247258337214589e-04" rms="4.4850790500640869e-01" purity="3.9058461785316467e-01" nType="-99"/>
        </Node>
        <Node pos="r" depth="1" NCoef="0" IVar="-1" Cut="0.0000000000000000e+00" cType="1" res="-1.5628904802724719e-03" rms="3.9920619130134583e-01" purity="2.3402953147888184e-01" nType="-99"/>
      </Node>
    </BinaryTree>
    <BinaryTree type="DecisionTree" boostWeight="1.0000000000000000e+00" itree="572">
      <Node pos="s" depth="0" NCoef="0" IVar="1" Cut="1.0456978082656860e+00" cType="1" res="-1.2061790330335498e-03" rms="4.5250916481018066e-01" purity="5.0162398815155029e-01" nType="0">
        <Node pos="l" depth="1" NCoef="0" IVar="4" Cut="3.0651748657226562e+02" cType="1" res="1.3804224319756031e-02" rms="4.5582318305969238e-01" purity="5.9012305736541748e-01" nType="0">
          <Node pos="l" depth="2" NCoef="0" IVar="-1" Cut="0.0000000000000000e+00" cType="1" res="7.5434154132381082e-04" rms="4.5840001106262207e-01" purity="6.1584377288818359e-01" nType="-99"/>
          <Node pos="r" depth="2" NCoef="0" IVar="-1" Cut="0.0000000000000000e+00" cType="1" res="-8.9368358021602035e-04" rms="4.3671998381614685e-01" purity="4.2805901169776917e-01" nType="-99"/>
        </Node>
        <Node pos="r" depth="1" NCoef="0" IVar="4" Cut="9.1819252014160156e+01" cType="1" res="-1.8063420429825783e-02" rms="4.4815927743911743e-01" purity="4.0223622322082520e-01" nType="0">
          <Node pos="l" depth="2" NCoef="0" IVar="-1" Cut="0.0000000000000000e+00" cType="1" res="-1.8526669591665268e-03" rms="4.2145633697509766e-01" purity="2.9570409655570984e-01" nType="-99"/>
          <Node pos="r" depth="2" NCoef="0" IVar="-1" Cut="0.0000000000000000e+00" cType="1" res="-1.6800693992991000e-04" rms="4.5386835932731628e-01" purity="4.2938590049743652e-01" nType="-99"/>
        </Node>
      </Node>
    </BinaryTree>
    <BinaryTree type="DecisionTree" boostWeight="1.0000000000000000e+00" itree="573">
      <Node pos="s" depth="0" NCoef="0" IVar="4" Cut="1.1295301055908203e+02" cType="1" res="-6.1956881545484066e-03" rms="4.5351630449295044e-01" purity="4.9336260557174683e-01" nType="0">
        <Node pos="l" depth="1" NCoef="0" IVar="4" Cut="9.7128082275390625e+01" cType="1" res="-2.8690882027149200e-02" rms="4.5529842376708984e-01" purity="4.7134035825729370e-01" nType="0">
          <Node pos="l" depth="2" NCoef="0" IVar="-1" Cut="0.0000000000000000e+00" cType="1" res="-1.3393437257036567e-03" rms="4.5346432924270630e-01" purity="4.2043477296829224e-01" nType="-99"/>
          <Node pos="r" depth="2" NCoef="0" IVar="-1" Cut="0.0000000000000000e+00" cType="1" res="4.3717803782783449e-04" rms="4.5718145370483398e-01" purity="5.9537792205810547e-01" nType="-99"/>
        </Node>
        <Node pos="r" depth="1" NCoef="0" IVar="4" Cut="3.4042160034179688e+02" cType="1" res="3.9766929112374783e-03" rms="4.5234093070030212e-01" purity="5.0332117080688477e-01" nType="0">
          <Node pos="l" depth="2" NCoef="0" IVar="-1" Cut="0.0000000000000000e+00" cType="1" res="4.2319597559981048e-04" rms="4.5394501090049744e-01" purity="5.3503859043121338e-01" nType="-99"/>
          <Node pos="r" depth="2" NCoef="0" IVar="-1" Cut="0.0000000000000000e+00" cType="1" res="-1.0671194177120924e-03" rms="4.4251036643981934e-01" purity="3.5458800196647644e-01" nType="-99"/>
        </Node>
      </Node>
    </BinaryTree>
    <BinaryTree type="DecisionTree" boostWeight="1.0000000000000000e+00" itree="574">
      <Node pos="s" depth="0" NCoef="0" IVar="4" Cut="6.5481933593750000e+01" cType="1" res="2.7456491807242855e-05" rms="4.5318263769149780e-01" purity="5.0202959775924683e-01" nType="0">
        <Node pos="l" depth="1" NCoef="0" IVar="-1" Cut="0.0000000000000000e+00" cType="1" res="-1.4367984840646386e-03" rms="4.4686999917030334e-01" purity="3.6007788777351379e-01" nType="-99"/>
        <Node pos="r" depth="1" NCoef="0" IVar="2" Cut="9.2073893547058105e-01" cType="1" res="4.5832651667296886e-03" rms="4.5346978306770325e-01" purity="5.1481157541275024e-01" nType="0">
          <Node pos="l" depth="2" NCoef="0" IVar="-1" Cut="0.0000000000000000e+00" cType="1" res="-1.4497310621663928e-04" rms="4.5849174261093140e-01" purity="4.7176766395568848e-01" nType="-99"/>
          <Node pos="r" depth="2" NCoef="0" IVar="-1" Cut="0.0000000000000000e+00" cType="1" res="1.4672923134639859e-03" rms="4.3432152271270752e-01" purity="6.6241919994354248e-01" nType="-99"/>
        </Node>
      </Node>
    </BinaryTree>
    <BinaryTree type="DecisionTree" boostWeight="1.0000000000000000e+00" itree="575">
      <Node pos="s" depth="0" NCoef="0" IVar="3" Cut="1.4518669128417969e+02" cType="1" res="-1.1160628637298942e-03" rms="4.5425820350646973e-01" purity="5.0192630290985107e-01" nType="0">
        <Node pos="l" depth="1" NCoef="0" IVar="3" Cut="3.5339740753173828e+01" cType="1" res="2.3157994728535414e-03" rms="4.5488479733467102e-01" purity="5.1301115751266479e-01" nType="0">
          <Node pos="l" depth="2" NCoef="0" IVar="-1" Cut="0.0000000000000000e+00" cType="1" res="-2.0287770312279463e-03" rms="4.4948944449424744e-01" purity="3.4631749987602234e-01" nType="-99"/>
          <Node pos="r" depth="2" NCoef="0" IVar="-1" Cut="0.0000000000000000e+00" cType="1" res="3.0991106177680194e-04" rms="4.5470914244651794e-01" purity="5.2787935733795166e-01" nType="-99"/>
        </Node>
        <Node pos="r" depth="1" NCoef="0" IVar="-1" Cut="0.0000000000000000e+00" cType="1" res="-1.1824099346995354e-03" rms="4.4524213671684265e-01" purity="3.7620097398757935e-01" nType="-99"/>
      </Node>
    </BinaryTree>
    <BinaryTree type="DecisionTree" boostWeight="1.0000000000000000e+00" itree="576">
      <Node pos="s" depth="0" NCoef="0" IVar="3" Cut="8.5582702636718750e+01" cType="1" res="-8.8844532147049904e-03" rms="4.5574918389320374e-01" purity="4.9638608098030090e-01" nType="0">
        <Node pos="l" depth="1" NCoef="0" IVar="2" Cut="8.1539469957351685e-01" cType="1" res="-2.0508350804448128e-02" rms="4.6255838871002197e-01" purity="4.6352508664131165e-01" nType="0">
          <Node pos="l" depth="2" NCoef="0" IVar="-1" Cut="0.0000000000000000e+00" cType="1" res="1.9349479407537729e-04" rms="4.5175567269325256e-01" purity="3.5957592725753784e-01" nType="-99"/>
          <Node pos="r" depth="2" NCoef="0" IVar="-1" Cut="0.0000000000000000e+00" cType="1" res="-9.7511266358196735e-04" rms="4.6630516648292542e-01" purity="5.0441563129425049e-01" nType="-99"/>
        </Node>
        <Node pos="r" depth="1" NCoef="0" IVar="2" Cut="7.7024829387664795e-01" cType="1" res="8.1363311037421227e-03" rms="4.4504335522651672e-01" purity="5.4450410604476929e-01" nType="0">
          <Node pos="l" depth="2" NCoef="0" IVar="-1" Cut="0.0000000000000000e+00" cType="1" res="-1.2927005300298333e-03" rms="4.3163534998893738e-01" purity="3.0224704742431641e-01" nType="-99"/>
          <Node pos="r" depth="2" NCoef="0" IVar="-1" Cut="0.0000000000000000e+00" cType="1" res="6.9066142896190286e-04" rms="4.4685244560241699e-01" purity="5.9256798028945923e-01" nType="-99"/>
        </Node>
      </Node>
    </BinaryTree>
    <BinaryTree type="DecisionTree" boostWeight="1.0000000000000000e+00" itree="577">
      <Node pos="s" depth="0" NCoef="0" IVar="7" Cut="8.8313293457031250e-01" cType="1" res="-7.8415926545858383e-03" rms="4.5301264524459839e-01" purity="4.9198931455612183e-01" nType="0">
        <Node pos="l" depth="1" NCoef="0" IVar="4" Cut="2.3954579162597656e+02" cType="1" res="-1.4232832938432693e-02" rms="4.5543676614761353e-01" purity="4.6678864955902100e-01" nType="0">
          <Node pos="l" depth="2" NCoef="0" IVar="-1" Cut="0.0000000000000000e+00" cType="1" res="-2.0190028590150177e-04" rms="4.5901444554328918e-01" purity="5.0001835823059082e-01" nType="-99"/>
          <Node pos="r" depth="2" NCoef="0" IVar="-1" Cut="0.0000000000000000e+00" cType="1" res="-1.0844361968338490e-03" rms="4.4406479597091675e-01" purity="3.7010502815246582e-01" nType="-99"/>
        </Node>
        <Node pos="r" depth="1" NCoef="0" IVar="4" Cut="1.6625479125976562e+02" cType="1" res="3.4290857613086700e-02" rms="4.3434852361679077e-01" purity="6.5811765193939209e-01" nType="0">
          <Node pos="l" depth="2" NCoef="0" IVar="-1" Cut="0.0000000000000000e+00" cType="1" res="2.7043162845075130e-03" rms="4.1257828474044800e-01" purity="7.1206635236740112e-01" nType="-99"/>
          <Node pos="r" depth="2" NCoef="0" IVar="-1" Cut="0.0000000000000000e+00" cType="1" res="-7.7636046626139432e-05" rms="4.6270722150802612e-01" purity="5.7717174291610718e-01" nType="-99"/>
        </Node>
      </Node>
    </BinaryTree>
    <BinaryTree type="DecisionTree" boostWeight="1.0000000000000000e+00" itree="578">
      <Node pos="s" depth="0" NCoef="0" IVar="5" Cut="4.6766981482505798e-01" cType="1" res="-1.9358019344508648e-03" rms="4.5227292180061340e-01" purity="4.9798622727394104e-01" nType="0">
        <Node pos="l" depth="1" NCoef="0" IVar="-1" Cut="0.0000000000000000e+00" cType="1" res="1.7819411586970091e-03" rms="4.3836835026741028e-01" purity="6.8864881992340088e-01" nType="-99"/>
        <Node pos="r" depth="1" NCoef="0" IVar="3" Cut="4.5715980529785156e+01" cType="1" res="-5.9205149300396442e-03" rms="4.5322999358177185e-01" purity="4.8156172037124634e-01" nType="0">
          <Node pos="l" depth="2" NCoef="0" IVar="-1" Cut="0.0000000000000000e+00" cType="1" res="-1.0367842623963952e-03" rms="4.4667240977287292e-01" purity="3.7819859385490417e-01" nType="-99"/>
          <Node pos="r" depth="2" NCoef="0" IVar="-1" Cut="0.0000000000000000e+00" cType="1" res="2.5650993848103099e-05" rms="4.5438152551651001e-01" purity="5.0424814224243164e-01" nType="-99"/>
        </Node>
      </Node>
    </BinaryTree>
    <BinaryTree type="DecisionTree" boostWeight="1.0000000000000000e+00" itree="579">
      <Node pos="s" depth="0" NCoef="0" IVar="8" Cut="6.7150282859802246e-01" cType="1" res="-3.2219218555837870e-03" rms="4.5366585254669189e-01" purity="4.9818903207778931e-01" nType="0">
        <Node pos="l" depth="1" NCoef="0" IVar="8" Cut="4.2359912395477295e-01" cType="1" res="-7.7166557312011719e-03" rms="4.5617920160293579e-01" purity="4.8549845814704895e-01" nType="0">
          <Node pos="l" depth="2" NCoef="0" IVar="-1" Cut="0.0000000000000000e+00" cType="1" res="-1.2487103231251240e-03" rms="4.4206273555755615e-01" purity="3.4443590044975281e-01" nType="-99"/>
          <Node pos="r" depth="2" NCoef="0" IVar="-1" Cut="0.0000000000000000e+00" cType="1" res="-1.5450146747753024e-04" rms="4.5717716217041016e-01" purity="4.9693322181701660e-01" nType="-99"/>
        </Node>
        <Node pos="r" depth="1" NCoef="0" IVar="-1" Cut="0.0000000000000000e+00" cType="1" res="2.7850931510329247e-03" rms="4.0711450576782227e-01" purity="6.9254809617996216e-01" nType="-99"/>
      </Node>
    </BinaryTree>
    <BinaryTree type="DecisionTree" boostWeight="1.0000000000000000e+00" itree="580">
      <Node pos="s" depth="0" NCoef="0" IVar="4" Cut="1.6071969604492188e+02" cType="1" res="7.7130127465352416e-04" rms="4.5246127247810364e-01" purity="5.0320404767990112e-01" nType="0">
        <Node pos="l" depth="1" NCoef="0" IVar="4" Cut="8.3588554382324219e+01" cType="1" res="1.3005822896957397e-02" rms="4.5181399583816528e-01" purity="5.5360990762710571e-01" nType="0">
          <Node pos="l" depth="2" NCoef="0" IVar="-1" Cut="0.0000000000000000e+00" cType="1" res="-6.0142955044284463e-04" rms="4.5071017742156982e-01" purity="4.2051750421524048e-01" nType="-99"/>
          <Node pos="r" depth="2" NCoef="0" IVar="-1" Cut="0.0000000000000000e+00" cType="1" res="9.1610109666362405e-04" rms="4.5159938931465149e-01" purity="6.0301673412322998e-01" nType="-99"/>
        </Node>
        <Node pos="r" depth="1" NCoef="0" IVar="5" Cut="5.9978276491165161e-01" cType="1" res="-1.4351635240018368e-02" rms="4.5280346274375916e-01" purity="4.4089803099632263e-01" nType="0">
          <Node pos="l" depth="2" NCoef="0" IVar="-1" Cut="0.0000000000000000e+00" cType="1" res="1.8710760632529855e-03" rms="4.5759049057960510e-01" purity="6.8477803468704224e-01" nType="-99"/>
          <Node pos="r" depth="2" NCoef="0" IVar="-1" Cut="0.0000000000000000e+00" cType="1" res="-6.6258548758924007e-04" rms="4.5154216885566711e-01" purity="4.0824189782142639e-01" nType="-99"/>
        </Node>
      </Node>
    </BinaryTree>
    <BinaryTree type="DecisionTree" boostWeight="1.0000000000000000e+00" itree="581">
      <Node pos="s" depth="0" NCoef="0" IVar="7" Cut="6.2023639678955078e-01" cType="1" res="-5.2628917619585991e-03" rms="4.5356902480125427e-01" purity="4.9672088027000427e-01" nType="0">
        <Node pos="l" depth="1" NCoef="0" IVar="7" Cut="5.5716896057128906e-01" cType="1" res="-2.0012203603982925e-02" rms="4.5352521538734436e-01" purity="3.9404413104057312e-01" nType="0">
          <Node pos="l" depth="2" NCoef="0" IVar="-1" Cut="0.0000000000000000e+00" cType="1" res="-2.1795110660605133e-04" rms="4.4760200381278992e-01" purity="3.8106697797775269e-01" nType="-99"/>
          <Node pos="r" depth="2" NCoef="0" IVar="-1" Cut="0.0000000000000000e+00" cType="1" res="-1.0430290130898356e-03" rms="4.6046578884124756e-01" purity="4.1057339310646057e-01" nType="-99"/>
        </Node>
        <Node pos="r" depth="1" NCoef="0" IVar="0" Cut="1.4624422788619995e+00" cType="1" res="5.2434918470680714e-03" rms="4.5330765843391418e-01" purity="5.6986063718795776e-01" nType="0">
          <Node pos="l" depth="2" NCoef="0" IVar="-1" Cut="0.0000000000000000e+00" cType="1" res="4.3629939318634570e-04" rms="4.5657014846801758e-01" purity="6.2138795852661133e-01" nType="-99"/>
          <Node pos="r" depth="2" NCoef="0" IVar="-1" Cut="0.0000000000000000e+00" cType="1" res="-7.2142656426876783e-04" rms="4.3657654523849487e-01" purity="3.3142334222793579e-01" nType="-99"/>
        </Node>
      </Node>
    </BinaryTree>
    <BinaryTree type="DecisionTree" boostWeight="1.0000000000000000e+00" itree="582">
      <Node pos="s" depth="0" NCoef="0" IVar="1" Cut="2.5275938510894775e+00" cType="1" res="1.0750619694590569e-03" rms="4.5370784401893616e-01" purity="5.0323146581649780e-01" nType="0">
        <Node pos="l" depth="1" NCoef="0" IVar="3" Cut="1.0535530853271484e+02" cType="1" res="4.6555460430681705e-03" rms="4.5883387327194214e-01" purity="5.2685719728469849e-01" nType="0">
          <Node pos="l" depth="2" NCoef="0" IVar="-1" Cut="0.0000000000000000e+00" cType="1" res="-1.0010580444941297e-04" rms="4.6533536911010742e-01" purity="5.0798565149307251e-01" nType="-99"/>
          <Node pos="r" depth="2" NCoef="0" IVar="-1" Cut="0.0000000000000000e+00" cType="1" res="9.7723677754402161e-04" rms="4.3881037831306458e-01" purity="5.8117640018463135e-01" nType="-99"/>
        </Node>
        <Node pos="r" depth="1" NCoef="0" IVar="-1" Cut="0.0000000000000000e+00" cType="1" res="-1.1891684262081981e-03" rms="3.8784283399581909e-01" purity="2.3251932859420776e-01" nType="-99"/>
      </Node>
    </BinaryTree>
    <BinaryTree type="DecisionTree" boostWeight="1.0000000000000000e+00" itree="583">
      <Node pos="s" depth="0" NCoef="0" IVar="6" Cut="3.8687262684106827e-02" cType="1" res="-3.2934398041106761e-04" rms="4.5156124234199524e-01" purity="4.9942162632942200e-01" nType="0">
        <Node pos="l" depth="1" NCoef="0" IVar="3" Cut="1.4634167480468750e+02" cType="1" res="5.2827745676040649e-03" rms="4.5273387432098389e-01" purity="5.1473188400268555e-01" nType="0">
          <Node pos="l" depth="2" NCoef="0" IVar="-1" Cut="0.0000000000000000e+00" cType="1" res="3.3729206188581884e-04" rms="4.5313963294029236e-01" purity="5.2706348896026611e-01" nType="-99"/>
          <Node pos="r" depth="2" NCoef="0" IVar="-1" Cut="0.0000000000000000e+00" cType="1" res="-1.5300851082429290e-03" rms="4.4387531280517578e-01" purity="3.6782845854759216e-01" nType="-99"/>
        </Node>
        <Node pos="r" depth="1" NCoef="0" IVar="-1" Cut="0.0000000000000000e+00" cType="1" res="-1.6157551435753703e-03" rms="4.3479159474372864e-01" purity="3.3930724859237671e-01" nType="-99"/>
      </Node>
    </BinaryTree>
    <BinaryTree type="DecisionTree" boostWeight="1.0000000000000000e+00" itree="584">
      <Node pos="s" depth="0" NCoef="0" IVar="5" Cut="1.5918872356414795e+00" cType="1" res="-1.1282333871349692e-03" rms="4.5338001847267151e-01" purity="5.0253939628601074e-01" nType="0">
        <Node pos="l" depth="1" NCoef="0" IVar="4" Cut="1.0524198150634766e+02" cType="1" res="5.0062187947332859e-03" rms="4.6420514583587646e-01" purity="5.5245155096054077e-01" nType="0">
          <Node pos="l" depth="2" NCoef="0" IVar="-1" Cut="0.0000000000000000e+00" cType="1" res="-5.3740973817184567e-04" rms="4.7655767202377319e-01" purity="5.0538331270217896e-01" nType="-99"/>
          <Node pos="r" depth="2" NCoef="0" IVar="-1" Cut="0.0000000000000000e+00" cType="1" res="4.6392114018090069e-04" rms="4.5904788374900818e-01" purity="5.7064318656921387e-01" nType="-99"/>
        </Node>
        <Node pos="r" depth="1" NCoef="0" IVar="-1" Cut="0.0000000000000000e+00" cType="1" res="-1.2008422054350376e-03" rms="3.7516412138938904e-01" purity="1.8571849167346954e-01" nType="-99"/>
      </Node>
    </BinaryTree>
    <BinaryTree type="DecisionTree" boostWeight="1.0000000000000000e+00" itree="585">
      <Node pos="s" depth="0" NCoef="0" IVar="8" Cut="5.3036081790924072e-01" cType="1" res="-1.0085094254463911e-03" rms="4.5261311531066895e-01" purity="4.9976935982704163e-01" nType="0">
        <Node pos="l" depth="1" NCoef="0" IVar="6" Cut="3.2272715121507645e-02" cType="1" res="-1.6215786337852478e-02" rms="4.5497530698776245e-01" purity="4.1450768709182739e-01" nType="0">
          <Node pos="l" depth="2" NCoef="0" IVar="-1" Cut="0.0000000000000000e+00" cType="1" res="-1.8638370966073126e-04" rms="4.5670869946479797e-01" purity="4.3914249539375305e-01" nType="-99"/>
          <Node pos="r" depth="2" NCoef="0" IVar="-1" Cut="0.0000000000000000e+00" cType="1" res="-1.2314171763136983e-03" rms="4.4891813397407532e-01" purity="3.4586957097053528e-01" nType="-99"/>
        </Node>
        <Node pos="r" depth="1" NCoef="0" IVar="3" Cut="1.3300910949707031e+02" cType="1" res="9.5961112529039383e-03" rms="4.5065495371818542e-01" purity="5.5922555923461914e-01" nType="0">
          <Node pos="l" depth="2" NCoef="0" IVar="-1" Cut="0.0000000000000000e+00" cType="1" res="5.4863357217982411e-04" rms="4.5011335611343384e-01" purity="5.6776106357574463e-01" nType="-99"/>
          <Node pos="r" depth="2" NCoef="0" IVar="-1" Cut="0.0000000000000000e+00" cType="1" res="-1.3809029478579760e-03" rms="4.5187705755233765e-01" purity="4.8581168055534363e-01" nType="-99"/>
        </Node>
      </Node>
    </BinaryTree>
    <BinaryTree type="DecisionTree" boostWeight="1.0000000000000000e+00" itree="586">
      <Node pos="s" depth="0" NCoef="0" IVar="4" Cut="6.5481933593750000e+01" cType="1" res="-3.0046910978853703e-03" rms="4.5216313004493713e-01" purity="4.9727395176887512e-01" nType="0">
        <Node pos="l" depth="1" NCoef="0" IVar="-1" Cut="0.0000000000000000e+00" cType="1" res="-1.3823400950059295e-03" rms="4.4404411315917969e-01" purity="3.5186418890953064e-01" nType="-99"/>
        <Node pos="r" depth="1" NCoef="0" IVar="5" Cut="1.6984581947326660e+00" cType="1" res="1.3328767381608486e-03" rms="4.5268374681472778e-01" purity="5.1103687286376953e-01" nType="0">
          <Node pos="l" depth="2" NCoef="0" IVar="-1" Cut="0.0000000000000000e+00" cType="1" res="1.9438791787251830e-04" rms="4.6074008941650391e-01" purity="5.4758328199386597e-01" nType="-99"/>
          <Node pos="r" depth="2" NCoef="0" IVar="-1" Cut="0.0000000000000000e+00" cType="1" res="-1.2617274187505245e-03" rms="3.6641785502433777e-01" purity="1.7006684839725494e-01" nType="-99"/>
        </Node>
      </Node>
    </BinaryTree>
    <BinaryTree type="DecisionTree" boostWeight="1.0000000000000000e+00" itree="587">
      <Node pos="s" depth="0" NCoef="0" IVar="3" Cut="4.1798767089843750e+01" cType="1" res="-2.8679505339823663e-04" rms="4.5207217335700989e-01" purity="5.0289767980575562e-01" nType="0">
        <Node pos="l" depth="1" NCoef="0" IVar="3" Cut="3.4859977722167969e+01" cType="1" res="-4.2090222239494324e-02" rms="4.4905668497085571e-01" purity="3.8855773210525513e-01" nType="0">
          <Node pos="l" depth="2" NCoef="0" IVar="-1" Cut="0.0000000000000000e+00" cType="1" res="-2.0460193045437336e-03" rms="4.3477100133895874e-01" purity="3.2848569750785828e-01" nType="-99"/>
          <Node pos="r" depth="2" NCoef="0" IVar="-1" Cut="0.0000000000000000e+00" cType="1" res="-2.6177271502092481e-04" rms="4.6049505472183228e-01" purity="4.4851234555244446e-01" nType="-99"/>
        </Node>
        <Node pos="r" depth="1" NCoef="0" IVar="7" Cut="5.1513350009918213e-01" cType="1" res="6.2705506570637226e-03" rms="4.5219287276268005e-01" purity="5.2083319425582886e-01" nType="0">
          <Node pos="l" depth="2" NCoef="0" IVar="-1" Cut="0.0000000000000000e+00" cType="1" res="-1.3824179768562317e-03" rms="4.4230237603187561e-01" purity="3.3335086703300476e-01" nType="-99"/>
          <Node pos="r" depth="2" NCoef="0" IVar="-1" Cut="0.0000000000000000e+00" cType="1" res="4.0598804480396211e-04" rms="4.5279669761657715e-01" purity="5.3980320692062378e-01" nType="-99"/>
        </Node>
      </Node>
    </BinaryTree>
    <BinaryTree type="DecisionTree" boostWeight="1.0000000000000000e+00" itree="588">
      <Node pos="s" depth="0" NCoef="0" IVar="1" Cut="5.1774579286575317e-01" cType="1" res="2.0542512647807598e-03" rms="4.5603749155998230e-01" purity="5.0893062353134155e-01" nType="0">
        <Node pos="l" depth="1" NCoef="0" IVar="7" Cut="5.5699849128723145e-01" cType="1" res="-2.1487571299076080e-02" rms="4.6355000138282776e-01" purity="5.8784711360931396e-01" nType="0">
          <Node pos="l" depth="2" NCoef="0" IVar="-1" Cut="0.0000000000000000e+00" cType="1" res="-1.7467625439167023e-03" rms="4.7354710102081299e-01" purity="4.2723986506462097e-01" nType="-99"/>
          <Node pos="r" depth="2" NCoef="0" IVar="-1" Cut="0.0000000000000000e+00" cType="1" res="-3.4816094557754695e-04" rms="4.5981961488723755e-01" purity="6.3516402244567871e-01" nType="-99"/>
        </Node>
        <Node pos="r" depth="1" NCoef="0" IVar="1" Cut="7.5392591953277588e-01" cType="1" res="9.4567807391285896e-03" rms="4.5339697599411011e-01" purity="4.8411598801612854e-01" nType="0">
          <Node pos="l" depth="2" NCoef="0" IVar="-1" Cut="0.0000000000000000e+00" cType="1" res="1.7957373056560755e-03" rms="4.4402721524238586e-01" purity="6.2265670299530029e-01" nType="-99"/>
          <Node pos="r" depth="2" NCoef="0" IVar="-1" Cut="0.0000000000000000e+00" cType="1" res="2.2724107111571357e-05" rms="4.5497620105743408e-01" purity="4.5354038476943970e-01" nType="-99"/>
        </Node>
      </Node>
    </BinaryTree>
    <BinaryTree type="DecisionTree" boostWeight="1.0000000000000000e+00" itree="589">
      <Node pos="s" depth="0" NCoef="0" IVar="4" Cut="1.0524198150634766e+02" cType="1" res="1.9330262439325452e-03" rms="4.5242270827293396e-01" purity="5.0492542982101440e-01" nType="0">
        <Node pos="l" depth="1" NCoef="0" IVar="4" Cut="7.2643470764160156e+01" cType="1" res="-2.5386704131960869e-02" rms="4.6045565605163574e-01" purity="4.5965114235877991e-01" nType="0">
          <Node pos="l" depth="2" NCoef="0" IVar="-1" Cut="0.0000000000000000e+00" cType="1" res="-1.4970572665333748e-03" rms="4.4769677519798279e-01" purity="3.6860722303390503e-01" nType="-99"/>
          <Node pos="r" depth="2" NCoef="0" IVar="-1" Cut="0.0000000000000000e+00" cType="1" res="-1.9403004262130708e-04" rms="4.6864712238311768e-01" purity="5.2643066644668579e-01" nType="-99"/>
        </Node>
        <Node pos="r" depth="1" NCoef="0" IVar="4" Cut="1.4688957214355469e+02" cType="1" res="1.2097789905965328e-02" rms="4.4897314906120300e-01" purity="5.2177053689956665e-01" nType="0">
          <Node pos="l" depth="2" NCoef="0" IVar="-1" Cut="0.0000000000000000e+00" cType="1" res="1.7006458947435021e-03" rms="4.3625554442405701e-01" purity="6.4083254337310791e-01" nType="-99"/>
          <Node pos="r" depth="2" NCoef="0" IVar="-1" Cut="0.0000000000000000e+00" cType="1" res="-1.2154527939856052e-04" rms="4.5432323217391968e-01" purity="4.6253588795661926e-01" nType="-99"/>
        </Node>
      </Node>
    </BinaryTree>
    <BinaryTree type="DecisionTree" boostWeight="1.0000000000000000e+00" itree="590">
      <Node pos="s" depth="0" NCoef="0" IVar="5" Cut="5.7814127206802368e-01" cType="1" res="-3.7745297886431217e-03" rms="4.5207622647285461e-01" purity="4.9697923660278320e-01" nType="0">
        <Node pos="l" depth="1" NCoef="0" IVar="1" Cut="6.4233469963073730e-01" cType="1" res="4.0249206125736237e-02" rms="4.3771389126777649e-01" purity="6.9210451841354370e-01" nType="0">
          <Node pos="l" depth="2" NCoef="0" IVar="-1" Cut="0.0000000000000000e+00" cType="1" res="3.4062701743096113e-03" rms="4.2044335603713989e-01" purity="7.5030285120010376e-01" nType="-99"/>
          <Node pos="r" depth="2" NCoef="0" IVar="-1" Cut="0.0000000000000000e+00" cType="1" res="3.1076587038114667e-04" rms="4.5243272185325623e-01" purity="6.3275611400604248e-01" nType="-99"/>
        </Node>
        <Node pos="r" depth="1" NCoef="0" IVar="1" Cut="1.0679978132247925e+00" cType="1" res="-1.0898648761212826e-02" rms="4.5395657420158386e-01" purity="4.6540319919586182e-01" nType="0">
          <Node pos="l" depth="2" NCoef="0" IVar="-1" Cut="0.0000000000000000e+00" cType="1" res="1.0690138151403517e-04" rms="4.5937263965606689e-01" purity="5.5342841148376465e-01" nType="-99"/>
          <Node pos="r" depth="2" NCoef="0" IVar="-1" Cut="0.0000000000000000e+00" cType="1" res="-7.2551419725641608e-04" rms="4.4805121421813965e-01" purity="3.7765875458717346e-01" nType="-99"/>
        </Node>
      </Node>
    </BinaryTree>
    <BinaryTree type="DecisionTree" boostWeight="1.0000000000000000e+00" itree="591">
      <Node pos="s" depth="0" NCoef="0" IVar="1" Cut="2.6827642321586609e-01" cType="1" res="-9.8675843328237534e-03" rms="4.5426729321479797e-01" purity="4.9413609504699707e-01" nType="0">
        <Node pos="l" depth="1" NCoef="0" IVar="-1" Cut="0.0000000000000000e+00" cType="1" res="1.7380487406626344e-03" rms="4.3594193458557129e-01" purity="6.6542387008666992e-01" nType="-99"/>
        <Node pos="r" depth="1" NCoef="0" IVar="9" Cut="9.8974174261093140e-01" cType="1" res="-1.4682172797620296e-02" rms="4.5557478070259094e-01" purity="4.7870120406150818e-01" nType="0">
          <Node pos="l" depth="2" NCoef="0" IVar="-1" Cut="0.0000000000000000e+00" cType="1" res="-6.9872487802058458e-04" rms="4.5757043361663818e-01" purity="4.4533261656761169e-01" nType="-99"/>
          <Node pos="r" depth="2" NCoef="0" IVar="-1" Cut="0.0000000000000000e+00" cType="1" res="2.3787601094227284e-04" rms="4.4954627752304077e-01" purity="5.6689965724945068e-01" nType="-99"/>
        </Node>
      </Node>
    </BinaryTree>
    <BinaryTree type="DecisionTree" boostWeight="1.0000000000000000e+00" itree="592">
      <Node pos="s" depth="0" NCoef="0" IVar="3" Cut="1.4654072570800781e+02" cType="1" res="-1.2352944351732731e-02" rms="4.5600265264511108e-01" purity="4.9231541156768799e-01" nType="0">
        <Node pos="l" depth="1" NCoef="0" IVar="3" Cut="1.0377639770507812e+02" cType="1" res="-7.3087606579065323e-03" rms="4.5703625679016113e-01" purity="5.0458180904388428e-01" nType="0">
          <Node pos="l" depth="2" NCoef="0" IVar="-1" Cut="0.0000000000000000e+00" cType="1" res="-4.5293028233572841e-04" rms="4.5941397547721863e-01" purity="4.7895953059196472e-01" nType="-99"/>
          <Node pos="r" depth="2" NCoef="0" IVar="-1" Cut="0.0000000000000000e+00" cType="1" res="6.9281813921406865e-04" rms="4.4736877083778381e-01" purity="5.9729969501495361e-01" nType="-99"/>
        </Node>
        <Node pos="r" depth="1" NCoef="0" IVar="-1" Cut="0.0000000000000000e+00" cType="1" res="-2.1512021776288748e-03" rms="4.3824711441993713e-01" purity="3.4060990810394287e-01" nType="-99"/>
      </Node>
    </BinaryTree>
    <BinaryTree type="DecisionTree" boostWeight="1.0000000000000000e+00" itree="593">
      <Node pos="s" depth="0" NCoef="0" IVar="1" Cut="1.0518915653228760e+00" cType="1" res="1.3890389818698168e-03" rms="4.5130279660224915e-01" purity="5.0110369920730591e-01" nType="0">
        <Node pos="l" depth="1" NCoef="0" IVar="1" Cut="4.1911914944648743e-01" cType="1" res="1.4343815855681896e-02" rms="4.5324495434761047e-01" purity="5.8933424949645996e-01" nType="0">
          <Node pos="l" depth="2" NCoef="0" IVar="-1" Cut="0.0000000000000000e+00" cType="1" res="-2.2035108122508973e-04" rms="4.5620739459991455e-01" purity="6.0399317741394043e-01" nType="-99"/>
          <Node pos="r" depth="2" NCoef="0" IVar="-1" Cut="0.0000000000000000e+00" cType="1" res="8.4988499293103814e-04" rms="4.5146235823631287e-01" purity="5.8220779895782471e-01" nType="-99"/>
        </Node>
        <Node pos="r" depth="1" NCoef="0" IVar="9" Cut="9.6900618076324463e-01" cType="1" res="-1.3331109657883644e-02" rms="4.4863203167915344e-01" purity="4.0084981918334961e-01" nType="0">
          <Node pos="l" depth="2" NCoef="0" IVar="-1" Cut="0.0000000000000000e+00" cType="1" res="-8.0441893078386784e-04" rms="4.3559136986732483e-01" purity="3.2740932703018188e-01" nType="-99"/>
          <Node pos="r" depth="2" NCoef="0" IVar="-1" Cut="0.0000000000000000e+00" cType="1" res="7.0958740252535790e-05" rms="4.6155792474746704e-01" purity="4.7879099845886230e-01" nType="-99"/>
        </Node>
      </Node>
    </BinaryTree>
    <BinaryTree type="DecisionTree" boostWeight="1.0000000000000000e+00" itree="594">
      <Node pos="s" depth="0" NCoef="0" IVar="4" Cut="3.6598937988281250e+02" cType="1" res="1.0522016091272235e-03" rms="4.5219919085502625e-01" purity="5.0274872779846191e-01" nType="0">
        <Node pos="l" depth="1" NCoef="0" IVar="4" Cut="9.7986457824707031e+01" cType="1" res="6.2134694308042526e-03" rms="4.5489075779914856e-01" purity="5.2341216802597046e-01" nType="0">
          <Node pos="l" depth="2" NCoef="0" IVar="-1" Cut="0.0000000000000000e+00" cType="1" res="-7.7930971747264266e-04" rms="4.5902046561241150e-01" purity="4.3902483582496643e-01" nType="-99"/>
          <Node pos="r" depth="2" NCoef="0" IVar="-1" Cut="0.0000000000000000e+00" cType="1" res="5.8090139646083117e-04" rms="4.5297524333000183e-01" purity="5.5196237564086914e-01" nType="-99"/>
        </Node>
        <Node pos="r" depth="1" NCoef="0" IVar="-1" Cut="0.0000000000000000e+00" cType="1" res="-1.2299419613555074e-03" rms="4.2675495147705078e-01" purity="3.3093118667602539e-01" nType="-99"/>
      </Node>
    </BinaryTree>
    <BinaryTree type="DecisionTree" boostWeight="1.0000000000000000e+00" itree="595">
      <Node pos="s" depth="0" NCoef="0" IVar="4" Cut="1.6042408752441406e+02" cType="1" res="-4.0618632920086384e-03" rms="4.5231142640113831e-01" purity="4.9636122584342957e-01" nType="0">
        <Node pos="l" depth="1" NCoef="0" IVar="4" Cut="1.0700418853759766e+02" cType="1" res="8.7140277028083801e-03" rms="4.4965016841888428e-01" purity="5.4814743995666504e-01" nType="0">
          <Node pos="l" depth="2" NCoef="0" IVar="-1" Cut="0.0000000000000000e+00" cType="1" res="-4.8908474855124950e-04" rms="4.5985531806945801e-01" purity="4.7587433457374573e-01" nType="-99"/>
          <Node pos="r" depth="2" NCoef="0" IVar="-1" Cut="0.0000000000000000e+00" cType="1" res="1.2140026083216071e-03" rms="4.3819123506546021e-01" purity="6.1845183372497559e-01" nType="-99"/>
        </Node>
        <Node pos="r" depth="1" NCoef="0" IVar="2" Cut="8.9615660905838013e-01" cType="1" res="-2.0031226798892021e-02" rms="4.5511198043823242e-01" purity="4.3163052201271057e-01" nType="0">
          <Node pos="l" depth="2" NCoef="0" IVar="-1" Cut="0.0000000000000000e+00" cType="1" res="-1.2379666441120207e-04" rms="4.4856476783752441e-01" purity="3.9747175574302673e-01" nType="-99"/>
          <Node pos="r" depth="2" NCoef="0" IVar="-1" Cut="0.0000000000000000e+00" cType="1" res="-1.7832485027611256e-03" rms="4.6752005815505981e-01" purity="5.0837200880050659e-01" nType="-99"/>
        </Node>
      </Node>
    </BinaryTree>
    <BinaryTree type="DecisionTree" boostWeight="1.0000000000000000e+00" itree="596">
      <Node pos="s" depth="0" NCoef="0" IVar="6" Cut="3.8687281310558319e-02" cType="1" res="-1.0394584387540817e-03" rms="4.5167768001556396e-01" purity="4.9957129359245300e-01" nType="0">
        <Node pos="l" depth="1" NCoef="0" IVar="5" Cut="1.6924126148223877e+00" cType="1" res="3.0024468433111906e-03" rms="4.5224404335021973e-01" purity="5.1178133487701416e-01" nType="0">
          <Node pos="l" depth="2" NCoef="0" IVar="-1" Cut="0.0000000000000000e+00" cType="1" res="2.5019462918862700e-04" rms="4.6028086543083191e-01" purity="5.4843962192535400e-01" nType="-99"/>
          <Node pos="r" depth="2" NCoef="0" IVar="-1" Cut="0.0000000000000000e+00" cType="1" res="-1.2105677742511034e-03" rms="3.6627796292304993e-01" purity="1.6998805105686188e-01" nType="-99"/>
        </Node>
        <Node pos="r" depth="1" NCoef="0" IVar="-1" Cut="0.0000000000000000e+00" cType="1" res="-1.2974545825272799e-03" rms="4.4269296526908875e-01" purity="3.6187326908111572e-01" nType="-99"/>
      </Node>
    </BinaryTree>
    <BinaryTree type="DecisionTree" boostWeight="1.0000000000000000e+00" itree="597">
      <Node pos="s" depth="0" NCoef="0" IVar="5" Cut="1.7606980800628662e+00" cType="1" res="1.9216722575947642e-03" rms="4.5262449979782104e-01" purity="5.0299006700515747e-01" nType="0">
        <Node pos="l" depth="1" NCoef="0" IVar="3" Cut="5.3871719360351562e+01" cType="1" res="6.8364636972546577e-03" rms="4.6079131960868835e-01" purity="5.3670907020568848e-01" nType="0">
          <Node pos="l" depth="2" NCoef="0" IVar="-1" Cut="0.0000000000000000e+00" cType="1" res="-4.2119124555028975e-04" rms="4.6347272396087646e-01" purity="4.6446740627288818e-01" nType="-99"/>
          <Node pos="r" depth="2" NCoef="0" IVar="-1" Cut="0.0000000000000000e+00" cType="1" res="5.1714543951675296e-04" rms="4.5946919918060303e-01" purity="5.6512969732284546e-01" nType="-99"/>
        </Node>
        <Node pos="r" depth="1" NCoef="0" IVar="-1" Cut="0.0000000000000000e+00" cType="1" res="-1.5310207381844521e-03" rms="3.5302761197090149e-01" purity="1.5317492187023163e-01" nType="-99"/>
      </Node>
    </BinaryTree>
    <BinaryTree type="DecisionTree" boostWeight="1.0000000000000000e+00" itree="598">
      <Node pos="s" depth="0" NCoef="0" IVar="0" Cut="1.6393125057220459e+00" cType="1" res="-7.1588705759495497e-04" rms="4.5179891586303711e-01" purity="5.0008094310760498e-01" nType="0">
        <Node pos="l" depth="1" NCoef="0" IVar="4" Cut="2.4327827453613281e+02" cType="1" res="4.1428389959037304e-03" rms="4.5748904347419739e-01" purity="5.2977621555328369e-01" nType="0">
          <Node pos="l" depth="2" NCoef="0" IVar="-1" Cut="0.0000000000000000e+00" cType="1" res="3.9688198012299836e-04" rms="4.5685282349586487e-01" purity="5.5853551626205444e-01" nType="-99"/>
          <Node pos="r" depth="2" NCoef="0" IVar="-1" Cut="0.0000000000000000e+00" cType="1" res="-6.3168333144858479e-04" rms="4.5868203043937683e-01" purity="4.3447655439376831e-01" nType="-99"/>
        </Node>
        <Node pos="r" depth="1" NCoef="0" IVar="-1" Cut="0.0000000000000000e+00" cType="1" res="-1.3512024888768792e-03" rms="3.9157211780548096e-01" purity="2.2173258662223816e-01" nType="-99"/>
      </Node>
    </BinaryTree>
    <BinaryTree type="DecisionTree" boostWeight="1.0000000000000000e+00" itree="599">
      <Node pos="s" depth="0" NCoef="0" IVar="3" Cut="1.0399223327636719e+02" cType="1" res="-1.5643024817109108e-03" rms="4.5402964949607849e-01" purity="5.0391548871994019e-01" nType="0">
        <Node pos="l" depth="1" NCoef="0" IVar="3" Cut="3.6614280700683594e+01" cType="1" res="-1.0554718784987926e-02" rms="4.5987001061439514e-01" purity="4.8336341977119446e-01" nType="0">
          <Node pos="l" depth="2" NCoef="0" IVar="-1" Cut="0.0000000000000000e+00" cType="1" res="-1.6372908139601350e-03" rms="4.4546166062355042e-01" purity="3.4563285112380981e-01" nType="-99"/>
          <Node pos="r" depth="2" NCoef="0" IVar="-1" Cut="0.0000000000000000e+00" cType="1" res="-1.3213742931839079e-04" rms="4.6133074164390564e-01" purity="5.0135856866836548e-01" nType="-99"/>
        </Node>
        <Node pos="r" depth="1" NCoef="0" IVar="3" Cut="1.4665597534179688e+02" cType="1" res="2.2510435432195663e-02" rms="4.3709725141525269e-01" purity="5.5895036458969116e-01" nType="0">
          <Node pos="l" depth="2" NCoef="0" IVar="-1" Cut="0.0000000000000000e+00" cType="1" res="1.5760150272399187e-03" rms="4.3212342262268066e-01" purity="6.1860626935958862e-01" nType="-99"/>
          <Node pos="r" depth="2" NCoef="0" IVar="-1" Cut="0.0000000000000000e+00" cType="1" res="-9.4372290186583996e-04" rms="4.4646334648132324e-01" purity="3.9008933305740356e-01" nType="-99"/>
        </Node>
      </Node>
    </BinaryTree>
    <BinaryTree type="DecisionTree" boostWeight="1.0000000000000000e+00" itree="600">
      <Node pos="s" depth="0" NCoef="0" IVar="1" Cut="1.1509141921997070e+00" cType="1" res="1.0849629761651158e-03" rms="4.5128178596496582e-01" purity="5.0119644403457642e-01" nType="0">
        <Node pos="l" depth="1" NCoef="0" IVar="3" Cut="1.0465274047851562e+02" cType="1" res="1.5380538068711758e-02" rms="4.5333880186080933e-01" purity="5.8498400449752808e-01" nType="0">
          <Node pos="l" depth="2" NCoef="0" IVar="-1" Cut="0.0000000000000000e+00" cType="1" res="1.0872508573811501e-04" rms="4.6398907899856567e-01" purity="5.5988693237304688e-01" nType="-99"/>
          <Node pos="r" depth="2" NCoef="0" IVar="-1" Cut="0.0000000000000000e+00" cType="1" res="2.0573276560753584e-03" rms="4.1930085420608521e-01" purity="6.5707951784133911e-01" nType="-99"/>
        </Node>
        <Node pos="r" depth="1" NCoef="0" IVar="9" Cut="9.0212476253509521e-01" cType="1" res="-1.8113529309630394e-02" rms="4.4778701663017273e-01" purity="3.8867244124412537e-01" nType="0">
          <Node pos="l" depth="2" NCoef="0" IVar="-1" Cut="0.0000000000000000e+00" cType="1" res="-1.5780515968799591e-03" rms="4.1721946001052856e-01" purity="2.4672120809555054e-01" nType="-99"/>
          <Node pos="r" depth="2" NCoef="0" IVar="-1" Cut="0.0000000000000000e+00" cType="1" res="-1.4961013221181929e-04" rms="4.5711222290992737e-01" purity="4.3756550550460815e-01" nType="-99"/>
        </Node>
      </Node>
    </BinaryTree>
    <BinaryTree type="DecisionTree" boostWeight="1.0000000000000000e+00" itree="601">
      <Node pos="s" depth="0" NCoef="0" IVar="1" Cut="1.0452282428741455e+00" cType="1" res="-1.5195442829281092e-03" rms="4.4931599497795105e-01" purity="4.9738484621047974e-01" nType="0">
        <Node pos="l" depth="1" NCoef="0" IVar="4" Cut="2.6583679199218750e+02" cType="1" res="1.3435968197882175e-02" rms="4.5018103718757629e-01" purity="5.8789730072021484e-01" nType="0">
          <Node pos="l" depth="2" NCoef="0" IVar="-1" Cut="0.0000000000000000e+00" cType="1" res="9.1301527572795749e-04" rms="4.5057994127273560e-01" purity="6.2219566106796265e-01" nType="-99"/>
          <Node pos="r" depth="2" NCoef="0" IVar="-1" Cut="0.0000000000000000e+00" cType="1" res="-1.0765478946268559e-03" rms="4.4519358873367310e-01" purity="4.4269236922264099e-01" nType="-99"/>
        </Node>
        <Node pos="r" depth="1" NCoef="0" IVar="8" Cut="6.2530344724655151e-01" cType="1" res="-1.8091211095452309e-02" rms="4.4777250289916992e-01" purity="3.9709120988845825e-01" nType="0">
          <Node pos="l" depth="2" NCoef="0" IVar="-1" Cut="0.0000000000000000e+00" cType="1" res="-7.4328941991552711e-04" rms="4.4605070352554321e-01" purity="3.6403203010559082e-01" nType="-99"/>
          <Node pos="r" depth="2" NCoef="0" IVar="-1" Cut="0.0000000000000000e+00" cType="1" res="5.5755150970071554e-04" rms="4.5399558544158936e-01" purity="5.4928547143936157e-01" nType="-99"/>
        </Node>
      </Node>
    </BinaryTree>
    <BinaryTree type="DecisionTree" boostWeight="1.0000000000000000e+00" itree="602">
      <Node pos="s" depth="0" NCoef="0" IVar="8" Cut="6.0399919748306274e-01" cType="1" res="5.1938677206635475e-03" rms="4.5030367374420166e-01" purity="5.0608903169631958e-01" nType="0">
        <Node pos="l" depth="1" NCoef="0" IVar="7" Cut="6.3057774305343628e-01" cType="1" res="-3.0614356510341167e-03" rms="4.5340105891227722e-01" purity="4.6203467249870300e-01" nType="0">
          <Node pos="l" depth="2" NCoef="0" IVar="-1" Cut="0.0000000000000000e+00" cType="1" res="-4.4521005474962294e-04" rms="4.5029205083847046e-01" purity="3.9367130398750305e-01" nType="-99"/>
          <Node pos="r" depth="2" NCoef="0" IVar="-1" Cut="0.0000000000000000e+00" cType="1" res="4.1441616485826671e-04" rms="4.5682686567306519e-01" purity="5.4828655719757080e-01" nType="-99"/>
        </Node>
        <Node pos="r" depth="1" NCoef="0" IVar="2" Cut="8.7205976247787476e-01" cType="1" res="2.7831744402647018e-02" rms="4.4090607762336731e-01" purity="6.2689590454101562e-01" nType="0">
          <Node pos="l" depth="2" NCoef="0" IVar="-1" Cut="0.0000000000000000e+00" cType="1" res="4.2001907713711262e-03" rms="4.3537887930870056e-01" purity="6.2792909145355225e-01" nType="-99"/>
          <Node pos="r" depth="2" NCoef="0" IVar="-1" Cut="0.0000000000000000e+00" cType="1" res="3.0393258202821016e-04" rms="4.3983256816864014e-01" purity="6.2665182352066040e-01" nType="-99"/>
        </Node>
      </Node>
    </BinaryTree>
    <BinaryTree type="DecisionTree" boostWeight="1.0000000000000000e+00" itree="603">
      <Node pos="s" depth="0" NCoef="0" IVar="3" Cut="4.5166519165039062e+01" cType="1" res="-2.8834484983235598e-03" rms="4.5512059330940247e-01" purity="5.0235056877136230e-01" nType="0">
        <Node pos="l" depth="1" NCoef="0" IVar="2" Cut="8.5185462236404419e-01" cType="1" res="-3.0799632892012596e-02" rms="4.5760080218315125e-01" purity="4.0451708436012268e-01" nType="0">
          <Node pos="l" depth="2" NCoef="0" IVar="-1" Cut="0.0000000000000000e+00" cType="1" res="1.2480269651859999e-04" rms="4.4694006443023682e-01" purity="3.4679141640663147e-01" nType="-99"/>
          <Node pos="r" depth="2" NCoef="0" IVar="-1" Cut="0.0000000000000000e+00" cType="1" res="-1.7152219079434872e-03" rms="4.6416169404983521e-01" purity="4.5169115066528320e-01" nType="-99"/>
        </Node>
        <Node pos="r" depth="1" NCoef="0" IVar="7" Cut="9.1467601060867310e-01" cType="1" res="3.1543145887553692e-03" rms="4.5435684919357300e-01" purity="5.2351015806198120e-01" nType="0">
          <Node pos="l" depth="2" NCoef="0" IVar="-1" Cut="0.0000000000000000e+00" cType="1" res="-2.6390398488729261e-05" rms="4.5673325657844543e-01" purity="5.0612586736679077e-01" nType="-99"/>
          <Node pos="r" depth="2" NCoef="0" IVar="-1" Cut="0.0000000000000000e+00" cType="1" res="1.8358414527028799e-03" rms="4.2802143096923828e-01" purity="6.9641625881195068e-01" nType="-99"/>
        </Node>
      </Node>
    </BinaryTree>
    <BinaryTree type="DecisionTree" boostWeight="1.0000000000000000e+00" itree="604">
      <Node pos="s" depth="0" NCoef="0" IVar="3" Cut="1.3089808654785156e+02" cType="1" res="-1.0991689050570130e-03" rms="4.5409521460533142e-01" purity="5.0343769788742065e-01" nType="0">
        <Node pos="l" depth="1" NCoef="0" IVar="3" Cut="1.0707722473144531e+02" cType="1" res="4.4569130986928940e-03" rms="4.5475307106971741e-01" purity="5.1312249898910522e-01" nType="0">
          <Node pos="l" depth="2" NCoef="0" IVar="-1" Cut="0.0000000000000000e+00" cType="1" res="-9.0762143372558057e-05" rms="4.5824304223060608e-01" purity="4.9327692389488220e-01" nType="-99"/>
          <Node pos="r" depth="2" NCoef="0" IVar="-1" Cut="0.0000000000000000e+00" cType="1" res="1.6301104333251715e-03" rms="4.3345060944557190e-01" purity="6.1966228485107422e-01" nType="-99"/>
        </Node>
        <Node pos="r" depth="1" NCoef="0" IVar="4" Cut="1.8415184020996094e+02" cType="1" res="-4.0745664387941360e-02" rms="4.4737446308135986e-01" purity="4.3433013558387756e-01" nType="0">
          <Node pos="l" depth="2" NCoef="0" IVar="-1" Cut="0.0000000000000000e+00" cType="1" res="-6.1635725433006883e-04" rms="4.4706374406814575e-01" purity="5.3442698717117310e-01" nType="-99"/>
          <Node pos="r" depth="2" NCoef="0" IVar="-1" Cut="0.0000000000000000e+00" cType="1" res="-1.6967603005468845e-03" rms="4.4683748483657837e-01" purity="3.5679450631141663e-01" nType="-99"/>
        </Node>
      </Node>
    </BinaryTree>
    <BinaryTree type="DecisionTree" boostWeight="1.0000000000000000e+00" itree="605">
      <Node pos="s" depth="0" NCoef="0" IVar="5" Cut="1.7037984132766724e+00" cType="1" res="2.3732970003038645e-03" rms="4.5255234837532043e-01" purity="5.0306946039199829e-01" nType="0">
        <Node pos="l" depth="1" NCoef="0" IVar="9" Cut="7.8859895467758179e-01" cType="1" res="6.8773473612964153e-03" rms="4.6106573939323425e-01" purity="5.3920137882232666e-01" nType="0">
          <Node pos="l" depth="2" NCoef="0" IVar="-1" Cut="0.0000000000000000e+00" cType="1" res="-1.1654433328658342e-03" rms="4.3992951512336731e-01" purity="2.9805156588554382e-01" nType="-99"/>
          <Node pos="r" depth="2" NCoef="0" IVar="-1" Cut="0.0000000000000000e+00" cType="1" res="3.7781175342388451e-04" rms="4.6261090040206909e-01" purity="5.6025832891464233e-01" nType="-99"/>
        </Node>
        <Node pos="r" depth="1" NCoef="0" IVar="-1" Cut="0.0000000000000000e+00" cType="1" res="-1.2479830766096711e-03" rms="3.5991418361663818e-01" purity="1.6268254816532135e-01" nType="-99"/>
      </Node>
    </BinaryTree>
    <BinaryTree type="DecisionTree" boostWeight="1.0000000000000000e+00" itree="606">
      <Node pos="s" depth="0" NCoef="0" IVar="9" Cut="7.6425254344940186e-01" cType="1" res="-5.4926010780036449e-03" rms="4.5215940475463867e-01" purity="4.9901723861694336e-01" nType="0">
        <Node pos="l" depth="1" NCoef="0" IVar="-1" Cut="0.0000000000000000e+00" cType="1" res="-1.5798220410943031e-03" rms="4.1217929124832153e-01" purity="2.5419005751609802e-01" nType="-99"/>
        <Node pos="r" depth="1" NCoef="0" IVar="3" Cut="1.4649679565429688e+02" cType="1" res="-1.7262076726183295e-03" rms="4.5469784736633301e-01" purity="5.1681011915206909e-01" nType="0">
          <Node pos="l" depth="2" NCoef="0" IVar="-1" Cut="0.0000000000000000e+00" cType="1" res="7.2779977926984429e-05" rms="4.5487093925476074e-01" purity="5.2732664346694946e-01" nType="-99"/>
          <Node pos="r" depth="2" NCoef="0" IVar="-1" Cut="0.0000000000000000e+00" cType="1" res="-1.5276834601536393e-03" rms="4.4951152801513672e-01" purity="3.8318982720375061e-01" nType="-99"/>
        </Node>
      </Node>
    </BinaryTree>
    <BinaryTree type="DecisionTree" boostWeight="1.0000000000000000e+00" itree="607">
      <Node pos="s" depth="0" NCoef="0" IVar="4" Cut="5.9232410430908203e+01" cType="1" res="-4.9664638936519623e-03" rms="4.5192703604698181e-01" purity="4.9694502353668213e-01" nType="0">
        <Node pos="l" depth="1" NCoef="0" IVar="-1" Cut="0.0000000000000000e+00" cType="1" res="-1.6154076438397169e-03" rms="4.4244518876075745e-01" purity="3.4129378199577332e-01" nType="-99"/>
        <Node pos="r" depth="1" NCoef="0" IVar="4" Cut="1.3936500549316406e+02" cType="1" res="-1.0888610268011689e-03" rms="4.5238852500915527e-01" purity="5.0857472419738770e-01" nType="0">
          <Node pos="l" depth="2" NCoef="0" IVar="-1" Cut="0.0000000000000000e+00" cType="1" res="6.0789764393121004e-04" rms="4.4683331251144409e-01" purity="5.7359540462493896e-01" nType="-99"/>
          <Node pos="r" depth="2" NCoef="0" IVar="-1" Cut="0.0000000000000000e+00" cType="1" res="-4.7537975478917360e-04" rms="4.5612716674804688e-01" purity="4.5826387405395508e-01" nType="-99"/>
        </Node>
      </Node>
    </BinaryTree>
    <BinaryTree type="DecisionTree" boostWeight="1.0000000000000000e+00" itree="608">
      <Node pos="s" depth="0" NCoef="0" IVar="4" Cut="2.5564871215820312e+02" cType="1" res="-3.2669028732925653e-03" rms="4.5208865404129028e-01" purity="4.9988549947738647e-01" nType="0">
        <Node pos="l" depth="1" NCoef="0" IVar="0" Cut="1.5014383792877197e+00" cType="1" res="4.8286169767379761e-03" rms="4.5371943712234497e-01" purity="5.3241074085235596e-01" nType="0">
          <Node pos="l" depth="2" NCoef="0" IVar="-1" Cut="0.0000000000000000e+00" cType="1" res="3.6745870602317154e-04" rms="4.5885628461837769e-01" purity="5.7071667909622192e-01" nType="-99"/>
          <Node pos="r" depth="2" NCoef="0" IVar="-1" Cut="0.0000000000000000e+00" cType="1" res="-9.3146349536255002e-04" rms="4.1768270730972290e-01" purity="2.8921759128570557e-01" nType="-99"/>
        </Node>
        <Node pos="r" depth="1" NCoef="0" IVar="8" Cut="5.3820127248764038e-01" cType="1" res="-3.2169781625270844e-02" rms="4.4501787424087524e-01" purity="3.8376295566558838e-01" nType="0">
          <Node pos="l" depth="2" NCoef="0" IVar="-1" Cut="0.0000000000000000e+00" cType="1" res="-6.1009779983578483e-07" rms="4.3588942289352417e-01" purity="3.4803858399391174e-01" nType="-99"/>
          <Node pos="r" depth="2" NCoef="0" IVar="-1" Cut="0.0000000000000000e+00" cType="1" res="-1.7262879991903901e-03" rms="4.5077481865882874e-01" purity="4.1377040743827820e-01" nType="-99"/>
        </Node>
      </Node>
    </BinaryTree>
    <BinaryTree type="DecisionTree" boostWeight="1.0000000000000000e+00" itree="609">
      <Node pos="s" depth="0" NCoef="0" IVar="3" Cut="1.4659786987304688e+02" cType="1" res="1.2739624362438917e-03" rms="4.5560798048973083e-01" purity="5.0753396749496460e-01" nType="0">
        <Node pos="l" depth="1" NCoef="0" IVar="4" Cut="1.0524198150634766e+02" cType="1" res="4.9139093607664108e-03" rms="4.5621478557586670e-01" purity="5.1873886585235596e-01" nType="0">
          <Node pos="l" depth="2" NCoef="0" IVar="-1" Cut="0.0000000000000000e+00" cType="1" res="-6.6020688973367214e-04" rms="4.6413576602935791e-01" purity="4.6876463294029236e-01" nType="-99"/>
          <Node pos="r" depth="2" NCoef="0" IVar="-1" Cut="0.0000000000000000e+00" cType="1" res="5.2414857782423496e-04" rms="4.5256161689758301e-01" purity="5.3883904218673706e-01" nType="-99"/>
        </Node>
        <Node pos="r" depth="1" NCoef="0" IVar="-1" Cut="0.0000000000000000e+00" cType="1" res="-1.2606091331690550e-03" rms="4.4579052925109863e-01" purity="3.7127053737640381e-01" nType="-99"/>
      </Node>
    </BinaryTree>
    <BinaryTree type="DecisionTree" boostWeight="1.0000000000000000e+00" itree="610">
      <Node pos="s" depth="0" NCoef="0" IVar="4" Cut="1.0092000579833984e+02" cType="1" res="-5.3355428390204906e-03" rms="4.5412296056747437e-01" purity="4.9672624468803406e-01" nType="0">
        <Node pos="l" depth="1" NCoef="0" IVar="2" Cut="9.0836369991302490e-01" cType="1" res="-2.8481164947152138e-02" rms="4.6036738157272339e-01" purity="4.4622838497161865e-01" nType="0">
          <Node pos="l" depth="2" NCoef="0" IVar="-1" Cut="0.0000000000000000e+00" cType="1" res="-4.8071777564473450e-04" rms="4.5664396882057190e-01" purity="4.1304045915603638e-01" nType="-99"/>
          <Node pos="r" depth="2" NCoef="0" IVar="-1" Cut="0.0000000000000000e+00" cType="1" res="-1.8169847317039967e-03" rms="4.6767869591712952e-01" purity="5.2357965707778931e-01" nType="-99"/>
        </Node>
        <Node pos="r" depth="1" NCoef="0" IVar="3" Cut="1.3340243530273438e+02" cType="1" res="2.0348280668258667e-03" rms="4.5186761021614075e-01" purity="5.1280647516250610e-01" nType="0">
          <Node pos="l" depth="2" NCoef="0" IVar="-1" Cut="0.0000000000000000e+00" cType="1" res="2.8623573598451912e-04" rms="4.5194879174232483e-01" purity="5.2685034275054932e-01" nType="-99"/>
          <Node pos="r" depth="2" NCoef="0" IVar="-1" Cut="0.0000000000000000e+00" cType="1" res="-1.1380818905308843e-03" rms="4.4951006770133972e-01" purity="4.3062245845794678e-01" nType="-99"/>
        </Node>
      </Node>
    </BinaryTree>
    <BinaryTree type="DecisionTree" boostWeight="1.0000000000000000e+00" itree="611">
      <Node pos="s" depth="0" NCoef="0" IVar="4" Cut="2.5637911987304688e+02" cType="1" res="1.9695998635143042e-03" rms="4.5357057452201843e-01" purity="5.0515002012252808e-01" nType="0">
        <Node pos="l" depth="1" NCoef="0" IVar="3" Cut="3.6168422698974609e+01" cType="1" res="9.5563866198062897e-03" rms="4.5652380585670471e-01" purity="5.3915393352508545e-01" nType="0">
          <Node pos="l" depth="2" NCoef="0" IVar="-1" Cut="0.0000000000000000e+00" cType="1" res="-1.4147711917757988e-03" rms="4.5946907997131348e-01" purity="3.7495100498199463e-01" nType="-99"/>
          <Node pos="r" depth="2" NCoef="0" IVar="-1" Cut="0.0000000000000000e+00" cType="1" res="5.3363380720838904e-04" rms="4.5580002665519714e-01" purity="5.5526542663574219e-01" nType="-99"/>
        </Node>
        <Node pos="r" depth="1" NCoef="0" IVar="9" Cut="9.7049027681350708e-01" cType="1" res="-2.4548429995775223e-02" rms="4.4207188487052917e-01" purity="3.8629633188247681e-01" nType="0">
          <Node pos="l" depth="2" NCoef="0" IVar="-1" Cut="0.0000000000000000e+00" cType="1" res="-1.0976917110383511e-03" rms="4.3222528696060181e-01" purity="3.3018189668655396e-01" nType="-99"/>
          <Node pos="r" depth="2" NCoef="0" IVar="-1" Cut="0.0000000000000000e+00" cType="1" res="-1.7861135711427778e-04" rms="4.5500653982162476e-01" purity="4.6588653326034546e-01" nType="-99"/>
        </Node>
      </Node>
    </BinaryTree>
    <BinaryTree type="DecisionTree" boostWeight="1.0000000000000000e+00" itree="612">
      <Node pos="s" depth="0" NCoef="0" IVar="3" Cut="3.8080696105957031e+01" cType="1" res="3.2849712297320366e-03" rms="4.5275318622589111e-01" purity="5.0586688518524170e-01" nType="0">
        <Node pos="l" depth="1" NCoef="0" IVar="-1" Cut="0.0000000000000000e+00" cType="1" res="-1.1473224731162190e-03" rms="4.4367405772209167e-01" purity="3.6393463611602783e-01" nType="-99"/>
        <Node pos="r" depth="1" NCoef="0" IVar="4" Cut="1.3517431640625000e+02" cType="1" res="8.2026878371834755e-03" rms="4.5348051190376282e-01" purity="5.2159023284912109e-01" nType="0">
          <Node pos="l" depth="2" NCoef="0" IVar="-1" Cut="0.0000000000000000e+00" cType="1" res="8.5758982459083200e-04" rms="4.5451685786247253e-01" purity="5.7774561643600464e-01" nType="-99"/>
          <Node pos="r" depth="2" NCoef="0" IVar="-1" Cut="0.0000000000000000e+00" cType="1" res="-1.3049138942733407e-04" rms="4.5229968428611755e-01" purity="4.7836956381797791e-01" nType="-99"/>
        </Node>
      </Node>
    </BinaryTree>
    <BinaryTree type="DecisionTree" boostWeight="1.0000000000000000e+00" itree="613">
      <Node pos="s" depth="0" NCoef="0" IVar="8" Cut="6.6617786884307861e-01" cType="1" res="-4.3839709833264351e-03" rms="4.5512977242469788e-01" purity="5.0135618448257446e-01" nType="0">
        <Node pos="l" depth="1" NCoef="0" IVar="1" Cut="3.0248120427131653e-01" cType="1" res="-8.2962112501263618e-03" rms="4.5657333731651306e-01" purity="4.8659062385559082e-01" nType="0">
          <Node pos="l" depth="2" NCoef="0" IVar="-1" Cut="0.0000000000000000e+00" cType="1" res="1.2391087366268039e-03" rms="4.5639479160308838e-01" purity="6.5092945098876953e-01" nType="-99"/>
          <Node pos="r" depth="2" NCoef="0" IVar="-1" Cut="0.0000000000000000e+00" cType="1" res="-3.9615240530110896e-04" rms="4.5638078451156616e-01" purity="4.6826058626174927e-01" nType="-99"/>
        </Node>
        <Node pos="r" depth="1" NCoef="0" IVar="-1" Cut="0.0000000000000000e+00" cType="1" res="1.9105011597275734e-03" rms="4.3360131978988647e-01" purity="6.8677610158920288e-01" nType="-99"/>
      </Node>
    </BinaryTree>
    <BinaryTree type="DecisionTree" boostWeight="1.0000000000000000e+00" itree="614">
      <Node pos="s" depth="0" NCoef="0" IVar="0" Cut="6.9185751676559448e-01" cType="1" res="-5.0807422958314419e-03" rms="4.5499786734580994e-01" purity="4.9593576788902283e-01" nType="0">
        <Node pos="l" depth="1" NCoef="0" IVar="7" Cut="6.7227691411972046e-01" cType="1" res="3.0445963144302368e-02" rms="4.3772324919700623e-01" purity="7.1233439445495605e-01" nType="0">
          <Node pos="l" depth="2" NCoef="0" IVar="-1" Cut="0.0000000000000000e+00" cType="1" res="2.5021750479936600e-03" rms="4.5341563224792480e-01" purity="6.7249166965484619e-01" nType="-99"/>
          <Node pos="r" depth="2" NCoef="0" IVar="-1" Cut="0.0000000000000000e+00" cType="1" res="-4.1940544178942218e-05" rms="4.2116197943687439e-01" purity="7.4686080217361450e-01" nType="-99"/>
        </Node>
        <Node pos="r" depth="1" NCoef="0" IVar="3" Cut="1.4648326110839844e+02" cType="1" res="-9.4045838341116905e-03" rms="4.5686718821525574e-01" purity="4.6959859132766724e-01" nType="0">
          <Node pos="l" depth="2" NCoef="0" IVar="-1" Cut="0.0000000000000000e+00" cType="1" res="-1.9385565246921033e-04" rms="4.5765376091003418e-01" purity="4.8009648919105530e-01" nType="-99"/>
          <Node pos="r" depth="2" NCoef="0" IVar="-1" Cut="0.0000000000000000e+00" cType="1" res="-1.3434557477012277e-03" rms="4.4620934128761292e-01" purity="3.5061052441596985e-01" nType="-99"/>
        </Node>
      </Node>
    </BinaryTree>
    <BinaryTree type="DecisionTree" boostWeight="1.0000000000000000e+00" itree="615">
      <Node pos="s" depth="0" NCoef="0" IVar="4" Cut="1.2872344970703125e+02" cType="1" res="-4.3470128439366817e-03" rms="4.5109701156616211e-01" purity="4.9764609336853027e-01" nType="0">
        <Node pos="l" depth="1" NCoef="0" IVar="4" Cut="1.1487365722656250e+02" cType="1" res="1.4675056561827660e-02" rms="4.4780287146568298e-01" purity="5.4050505161285400e-01" nType="0">
          <Node pos="l" depth="2" NCoef="0" IVar="-1" Cut="0.0000000000000000e+00" cType="1" res="-1.3549625873565674e-04" rms="4.5483922958374023e-01" purity="4.9795567989349365e-01" nType="-99"/>
          <Node pos="r" depth="2" NCoef="0" IVar="-1" Cut="0.0000000000000000e+00" cType="1" res="3.6652255803346634e-03" rms="4.1257855296134949e-01" purity="7.0068830251693726e-01" nType="-99"/>
        </Node>
        <Node pos="r" depth="1" NCoef="0" IVar="3" Cut="1.4518669128417969e+02" cType="1" res="-1.7655117437243462e-02" rms="4.5291265845298767e-01" purity="4.6766141057014465e-01" nType="0">
          <Node pos="l" depth="2" NCoef="0" IVar="-1" Cut="0.0000000000000000e+00" cType="1" res="-3.4156284527853131e-04" rms="4.5574855804443359e-01" purity="4.8649939894676208e-01" nType="-99"/>
          <Node pos="r" depth="2" NCoef="0" IVar="-1" Cut="0.0000000000000000e+00" cType="1" res="-1.8594133434817195e-03" rms="4.3042188882827759e-01" purity="3.4055271744728088e-01" nType="-99"/>
        </Node>
      </Node>
    </BinaryTree>
    <BinaryTree type="DecisionTree" boostWeight="1.0000000000000000e+00" itree="616">
      <Node pos="s" depth="0" NCoef="0" IVar="7" Cut="5.6759107112884521e-01" cType="1" res="-1.3776903506368399e-03" rms="4.5102623105049133e-01" purity="4.9963077902793884e-01" nType="0">
        <Node pos="l" depth="1" NCoef="0" IVar="9" Cut="9.0704774856567383e-01" cType="1" res="-2.5292681530117989e-02" rms="4.4418755173683167e-01" purity="3.6997580528259277e-01" nType="0">
          <Node pos="l" depth="2" NCoef="0" IVar="-1" Cut="0.0000000000000000e+00" cType="1" res="-1.4471794711425900e-03" rms="4.2993435263633728e-01" purity="2.8682368993759155e-01" nType="-99"/>
          <Node pos="r" depth="2" NCoef="0" IVar="-1" Cut="0.0000000000000000e+00" cType="1" res="-1.4999471022747457e-04" rms="4.5337468385696411e-01" purity="4.3144464492797852e-01" nType="-99"/>
        </Node>
        <Node pos="r" depth="1" NCoef="0" IVar="4" Cut="1.0759981536865234e+02" cType="1" res="7.7560050413012505e-03" rms="4.5327803492546082e-01" purity="5.4914903640747070e-01" nType="0">
          <Node pos="l" depth="2" NCoef="0" IVar="-1" Cut="0.0000000000000000e+00" cType="1" res="-5.7917594676837325e-04" rms="4.6060115098953247e-01" purity="5.1066583395004272e-01" nType="-99"/>
          <Node pos="r" depth="2" NCoef="0" IVar="-1" Cut="0.0000000000000000e+00" cType="1" res="6.3481181859970093e-04" rms="4.4991871714591980e-01" purity="5.6446182727813721e-01" nType="-99"/>
        </Node>
      </Node>
    </BinaryTree>
    <BinaryTree type="DecisionTree" boostWeight="1.0000000000000000e+00" itree="617">
      <Node pos="s" depth="0" NCoef="0" IVar="7" Cut="9.0416544675827026e-01" cType="1" res="-2.6289543602615595e-03" rms="4.5103707909584045e-01" purity="4.9640113115310669e-01" nType="0">
        <Node pos="l" depth="1" NCoef="0" IVar="0" Cut="6.6018450260162354e-01" cType="1" res="-7.5850859284400940e-03" rms="4.5322984457015991e-01" purity="4.7689348459243774e-01" nType="0">
          <Node pos="l" depth="2" NCoef="0" IVar="-1" Cut="0.0000000000000000e+00" cType="1" res="1.9192249746993184e-03" rms="4.4058510661125183e-01" purity="7.1510154008865356e-01" nType="-99"/>
          <Node pos="r" depth="2" NCoef="0" IVar="-1" Cut="0.0000000000000000e+00" cType="1" res="-3.8400964695028961e-04" rms="4.5410615205764771e-01" purity="4.5436692237854004e-01" nType="-99"/>
        </Node>
        <Node pos="r" depth="1" NCoef="0" IVar="7" Cut="9.4754534959793091e-01" cType="1" res="4.0959145873785019e-02" rms="4.2881211638450623e-01" purity="6.6796672344207764e-01" nType="0">
          <Node pos="l" depth="2" NCoef="0" IVar="-1" Cut="0.0000000000000000e+00" cType="1" res="2.3881266824901104e-03" rms="4.1297480463981628e-01" purity="6.7774325609207153e-01" nType="-99"/>
          <Node pos="r" depth="2" NCoef="0" IVar="-1" Cut="0.0000000000000000e+00" cType="1" res="9.7287207609042525e-04" rms="4.4341632723808289e-01" purity="6.5822076797485352e-01" nType="-99"/>
        </Node>
      </Node>
    </BinaryTree>
    <BinaryTree type="DecisionTree" boostWeight="1.0000000000000000e+00" itree="618">
      <Node pos="s" depth="0" NCoef="0" IVar="3" Cut="1.4518669128417969e+02" cType="1" res="-2.4657016620039940e-03" rms="4.5293986797332764e-01" purity="5.0024479627609253e-01" nType="0">
        <Node pos="l" depth="1" NCoef="0" IVar="3" Cut="3.8021175384521484e+01" cType="1" res="2.1842373535037041e-03" rms="4.5394536852836609e-01" purity="5.1239746809005737e-01" nType="0">
          <Node pos="l" depth="2" NCoef="0" IVar="-1" Cut="0.0000000000000000e+00" cType="1" res="-1.2336036888882518e-03" rms="4.3630877137184143e-01" purity="3.5752537846565247e-01" nType="-99"/>
          <Node pos="r" depth="2" NCoef="0" IVar="-1" Cut="0.0000000000000000e+00" cType="1" res="2.5543879019096494e-04" rms="4.5573255419731140e-01" purity="5.3114497661590576e-01" nType="-99"/>
        </Node>
        <Node pos="r" depth="1" NCoef="0" IVar="-1" Cut="0.0000000000000000e+00" cType="1" res="-1.6497258329764009e-03" rms="4.3755203485488892e-01" purity="3.5957136750221252e-01" nType="-99"/>
      </Node>
    </BinaryTree>
    <BinaryTree type="DecisionTree" boostWeight="1.0000000000000000e+00" itree="619">
      <Node pos="s" depth="0" NCoef="0" IVar="2" Cut="7.2666001319885254e-01" cType="1" res="-8.2228914834558964e-04" rms="4.5209825038909912e-01" purity="5.0071316957473755e-01" nType="0">
        <Node pos="l" depth="1" NCoef="0" IVar="-1" Cut="0.0000000000000000e+00" cType="1" res="-1.3726016040891409e-03" rms="4.0665033459663391e-01" purity="2.4389781057834625e-01" nType="-99"/>
        <Node pos="r" depth="1" NCoef="0" IVar="6" Cut="2.0654600113630295e-02" cType="1" res="2.7395321521908045e-03" rms="4.5514762401580811e-01" purity="5.2010661363601685e-01" nType="0">
          <Node pos="l" depth="2" NCoef="0" IVar="-1" Cut="0.0000000000000000e+00" cType="1" res="-2.4034320085775107e-04" rms="4.5447391271591187e-01" purity="5.6184583902359009e-01" nType="-99"/>
          <Node pos="r" depth="2" NCoef="0" IVar="-1" Cut="0.0000000000000000e+00" cType="1" res="4.9550092080608010e-04" rms="4.5572879910469055e-01" purity="4.6360650658607483e-01" nType="-99"/>
        </Node>
      </Node>
    </BinaryTree>
    <BinaryTree type="DecisionTree" boostWeight="1.0000000000000000e+00" itree="620">
      <Node pos="s" depth="0" NCoef="0" IVar="5" Cut="8.8406717777252197e-01" cType="1" res="-2.9386645182967186e-03" rms="4.5251891016960144e-01" purity="5.0249099731445312e-01" nType="0">
        <Node pos="l" depth="1" NCoef="0" IVar="6" Cut="1.5354470349848270e-02" cType="1" res="1.4889007434248924e-02" rms="4.5438054203987122e-01" purity="6.5253895521163940e-01" nType="0">
          <Node pos="l" depth="2" NCoef="0" IVar="-1" Cut="0.0000000000000000e+00" cType="1" res="-1.0529558494454250e-04" rms="4.4022837281227112e-01" purity="6.9678378105163574e-01" nType="-99"/>
          <Node pos="r" depth="2" NCoef="0" IVar="-1" Cut="0.0000000000000000e+00" cType="1" res="1.0617760708555579e-03" rms="4.6656093001365662e-01" purity="6.1147111654281616e-01" nType="-99"/>
        </Node>
        <Node pos="r" depth="1" NCoef="0" IVar="0" Cut="8.6898577213287354e-01" cType="1" res="-1.4456452801823616e-02" rms="4.5093744993209839e-01" purity="4.0555062890052795e-01" nType="0">
          <Node pos="l" depth="2" NCoef="0" IVar="-1" Cut="0.0000000000000000e+00" cType="1" res="-2.1941422019153833e-03" rms="4.7732779383659363e-01" purity="5.3527873754501343e-01" nType="-99"/>
          <Node pos="r" depth="2" NCoef="0" IVar="-1" Cut="0.0000000000000000e+00" cType="1" res="-2.5830609956756234e-04" rms="4.4767984747886658e-01" purity="3.9188924431800842e-01" nType="-99"/>
        </Node>
      </Node>
    </BinaryTree>
    <BinaryTree type="DecisionTree" boostWeight="1.0000000000000000e+00" itree="621">
      <Node pos="s" depth="0" NCoef="0" IVar="1" Cut="2.5326497554779053e+00" cType="1" res="-7.6581547036767006e-03" rms="4.5400920510292053e-01" purity="4.9673101305961609e-01" nType="0">
        <Node pos="l" depth="1" NCoef="0" IVar="3" Cut="3.4991127014160156e+01" cType="1" res="-3.1018578447401524e-03" rms="4.5903280377388000e-01" purity="5.2165490388870239e-01" nType="0">
          <Node pos="l" depth="2" NCoef="0" IVar="-1" Cut="0.0000000000000000e+00" cType="1" res="-1.4375316677615047e-03" rms="4.5178100466728210e-01" purity="3.6745893955230713e-01" nType="-99"/>
          <Node pos="r" depth="2" NCoef="0" IVar="-1" Cut="0.0000000000000000e+00" cType="1" res="1.7388625565217808e-05" rms="4.5933941006660461e-01" purity="5.3278720378875732e-01" nType="-99"/>
        </Node>
        <Node pos="r" depth="1" NCoef="0" IVar="-1" Cut="0.0000000000000000e+00" cType="1" res="-1.7059840029105544e-03" rms="3.8979789614677429e-01" purity="2.1771334111690521e-01" nType="-99"/>
      </Node>
    </BinaryTree>
    <BinaryTree type="DecisionTree" boostWeight="1.0000000000000000e+00" itree="622">
      <Node pos="s" depth="0" NCoef="0" IVar="4" Cut="1.0493979644775391e+02" cType="1" res="-6.1224313685670495e-04" rms="4.5484778285026550e-01" purity="5.0263065099716187e-01" nType="0">
        <Node pos="l" depth="1" NCoef="0" IVar="3" Cut="8.2946838378906250e+01" cType="1" res="-2.6783397421240807e-02" rms="4.6135798096656799e-01" purity="4.6030855178833008e-01" nType="0">
          <Node pos="l" depth="2" NCoef="0" IVar="-1" Cut="0.0000000000000000e+00" cType="1" res="-1.1433445615693927e-03" rms="4.5904695987701416e-01" purity="4.2448931932449341e-01" nType="-99"/>
          <Node pos="r" depth="2" NCoef="0" IVar="-1" Cut="0.0000000000000000e+00" cType="1" res="6.9227174390107393e-04" rms="4.6742746233940125e-01" purity="5.9904861450195312e-01" nType="-99"/>
        </Node>
        <Node pos="r" depth="1" NCoef="0" IVar="4" Cut="1.4659341430664062e+02" cType="1" res="8.6937081068754196e-03" rms="4.5214536786079407e-01" purity="5.1767957210540771e-01" nType="0">
          <Node pos="l" depth="2" NCoef="0" IVar="-1" Cut="0.0000000000000000e+00" cType="1" res="1.3601381797343493e-03" rms="4.4113159179687500e-01" purity="6.3345956802368164e-01" nType="-99"/>
          <Node pos="r" depth="2" NCoef="0" IVar="-1" Cut="0.0000000000000000e+00" cType="1" res="-1.4228637155611068e-04" rms="4.5684123039245605e-01" purity="4.6116730570793152e-01" nType="-99"/>
        </Node>
      </Node>
    </BinaryTree>
    <BinaryTree type="DecisionTree" boostWeight="1.0000000000000000e+00" itree="623">
      <Node pos="s" depth="0" NCoef="0" IVar="4" Cut="1.1295301055908203e+02" cType="1" res="-7.2939074598252773e-03" rms="4.5644733309745789e-01" purity="4.9627423286437988e-01" nType="0">
        <Node pos="l" depth="1" NCoef="0" IVar="9" Cut="9.8971569538116455e-01" cType="1" res="-2.3200912401080132e-02" rms="4.5992946624755859e-01" purity="4.7659012675285339e-01" nType="0">
          <Node pos="l" depth="2" NCoef="0" IVar="-1" Cut="0.0000000000000000e+00" cType="1" res="-1.0435808217152953e-03" rms="4.6281129121780396e-01" purity="4.3722486495971680e-01" nType="-99"/>
          <Node pos="r" depth="2" NCoef="0" IVar="-1" Cut="0.0000000000000000e+00" cType="1" res="2.1565800125245005e-04" rms="4.5106768608093262e-01" purity="5.7833486795425415e-01" nType="-99"/>
        </Node>
        <Node pos="r" depth="1" NCoef="0" IVar="4" Cut="1.5844941711425781e+02" cType="1" res="2.1658590412698686e-04" rms="4.5460054278373718e-01" purity="5.0556814670562744e-01" nType="0">
          <Node pos="l" depth="2" NCoef="0" IVar="-1" Cut="0.0000000000000000e+00" cType="1" res="8.2570005906745791e-04" rms="4.5144078135490417e-01" purity="6.1704856157302856e-01" nType="-99"/>
          <Node pos="r" depth="2" NCoef="0" IVar="-1" Cut="0.0000000000000000e+00" cType="1" res="-3.5349704558029771e-04" rms="4.5583954453468323e-01" purity="4.4625478982925415e-01" nType="-99"/>
        </Node>
      </Node>
    </BinaryTree>
    <BinaryTree type="DecisionTree" boostWeight="1.0000000000000000e+00" itree="624">
      <Node pos="s" depth="0" NCoef="0" IVar="4" Cut="1.3261779785156250e+02" cType="1" res="1.4062648406252265e-03" rms="4.5117306709289551e-01" purity="5.0248521566390991e-01" nType="0">
        <Node pos="l" depth="1" NCoef="0" IVar="4" Cut="1.0873705291748047e+02" cType="1" res="1.9874861463904381e-02" rms="4.4626605510711670e-01" purity="5.4887753725051880e-01" nType="0">
          <Node pos="l" depth="2" NCoef="0" IVar="-1" Cut="0.0000000000000000e+00" cType="1" res="-1.3640026736538857e-04" rms="4.5747721195220947e-01" purity="4.8712110519409180e-01" nType="-99"/>
          <Node pos="r" depth="2" NCoef="0" IVar="-1" Cut="0.0000000000000000e+00" cType="1" res="2.6720201130956411e-03" rms="4.2005318403244019e-01" purity="6.6737806797027588e-01" nType="-99"/>
        </Node>
        <Node pos="r" depth="1" NCoef="0" IVar="1" Cut="9.3419229984283447e-01" cType="1" res="-1.2939099222421646e-02" rms="4.5443043112754822e-01" purity="4.6645024418830872e-01" nType="0">
          <Node pos="l" depth="2" NCoef="0" IVar="-1" Cut="0.0000000000000000e+00" cType="1" res="-1.0245298035442829e-03" rms="4.6003514528274536e-01" purity="5.2710872888565063e-01" nType="-99"/>
          <Node pos="r" depth="2" NCoef="0" IVar="-1" Cut="0.0000000000000000e+00" cType="1" res="1.0847396333701909e-04" rms="4.4870859384536743e-01" purity="4.1210824251174927e-01" nType="-99"/>
        </Node>
      </Node>
    </BinaryTree>
    <BinaryTree type="DecisionTree" boostWeight="1.0000000000000000e+00" itree="625">
      <Node pos="s" depth="0" NCoef="0" IVar="7" Cut="5.1513034105300903e-01" cType="1" res="-7.6185711659491062e-03" rms="4.5595791935920715e-01" purity="4.9477395415306091e-01" nType="0">
        <Node pos="l" depth="1" NCoef="0" IVar="-1" Cut="0.0000000000000000e+00" cType="1" res="-1.2781700352206826e-03" rms="4.4259983301162720e-01" purity="3.2589748501777649e-01" nType="-99"/>
        <Node pos="r" depth="1" NCoef="0" IVar="6" Cut="2.1859530359506607e-02" cType="1" res="-4.0085725486278534e-03" rms="4.5702794194221497e-01" purity="5.1065206527709961e-01" nType="0">
          <Node pos="l" depth="2" NCoef="0" IVar="-1" Cut="0.0000000000000000e+00" cType="1" res="-4.6079215826466680e-04" rms="4.5617592334747314e-01" purity="5.4053163528442383e-01" nType="-99"/>
          <Node pos="r" depth="2" NCoef="0" IVar="-1" Cut="0.0000000000000000e+00" cType="1" res="4.1104253614321351e-04" rms="4.5803561806678772e-01" purity="4.5754525065422058e-01" nType="-99"/>
        </Node>
      </Node>
    </BinaryTree>
    <BinaryTree type="DecisionTree" boostWeight="1.0000000000000000e+00" itree="626">
      <Node pos="s" depth="0" NCoef="0" IVar="4" Cut="1.6042408752441406e+02" cType="1" res="-2.6509701274335384e-03" rms="4.5205622911453247e-01" purity="5.0024962425231934e-01" nType="0">
        <Node pos="l" depth="1" NCoef="0" IVar="4" Cut="6.5474349975585938e+01" cType="1" res="8.1137334927916527e-03" rms="4.5054936408996582e-01" purity="5.4767280817031860e-01" nType="0">
          <Node pos="l" depth="2" NCoef="0" IVar="-1" Cut="0.0000000000000000e+00" cType="1" res="-1.1292927665635943e-03" rms="4.4161030650138855e-01" purity="3.6139798164367676e-01" nType="-99"/>
          <Node pos="r" depth="2" NCoef="0" IVar="-1" Cut="0.0000000000000000e+00" cType="1" res="5.8457540581002831e-04" rms="4.5165583491325378e-01" purity="5.8184444904327393e-01" nType="-99"/>
        </Node>
        <Node pos="r" depth="1" NCoef="0" IVar="6" Cut="1.0327503085136414e-02" cType="1" res="-1.6151733696460724e-02" rms="4.5357802510261536e-01" purity="4.4077304005622864e-01" nType="0">
          <Node pos="l" depth="2" NCoef="0" IVar="-1" Cut="0.0000000000000000e+00" cType="1" res="-1.3110588770359755e-03" rms="4.5228561758995056e-01" purity="4.9623101949691772e-01" nType="-99"/>
          <Node pos="r" depth="2" NCoef="0" IVar="-1" Cut="0.0000000000000000e+00" cType="1" res="-1.2060651351930574e-04" rms="4.5368960499763489e-01" purity="4.1429245471954346e-01" nType="-99"/>
        </Node>
      </Node>
    </BinaryTree>
    <BinaryTree type="DecisionTree" boostWeight="1.0000000000000000e+00" itree="627">
      <Node pos="s" depth="0" NCoef="0" IVar="5" Cut="1.7605198621749878e+00" cType="1" res="-9.4152661040425301e-03" rms="4.5001032948493958e-01" purity="4.8982638120651245e-01" nType="0">
        <Node pos="l" depth="1" NCoef="0" IVar="1" Cut="2.6887032389640808e-01" cType="1" res="-4.9512269906699657e-03" rms="4.5851272344589233e-01" purity="5.2234870195388794e-01" nType="0">
          <Node pos="l" depth="2" NCoef="0" IVar="-1" Cut="0.0000000000000000e+00" cType="1" res="1.4754753792658448e-03" rms="4.4601279497146606e-01" purity="6.6292232275009155e-01" nType="-99"/>
          <Node pos="r" depth="2" NCoef="0" IVar="-1" Cut="0.0000000000000000e+00" cType="1" res="-2.8803938766941428e-04" rms="4.5949408411979675e-01" purity="5.0873351097106934e-01" nType="-99"/>
        </Node>
        <Node pos="r" depth="1" NCoef="0" IVar="-1" Cut="0.0000000000000000e+00" cType="1" res="-1.7516249790787697e-03" rms="3.4354111552238464e-01" purity="1.4446361362934113e-01" nType="-99"/>
      </Node>
    </BinaryTree>
    <BinaryTree type="DecisionTree" boostWeight="1.0000000000000000e+00" itree="628">
      <Node pos="s" depth="0" NCoef="0" IVar="3" Cut="4.3854438781738281e+01" cType="1" res="-8.5603445768356323e-03" rms="4.5479434728622437e-01" purity="4.9317631125450134e-01" nType="0">
        <Node pos="l" depth="1" NCoef="0" IVar="4" Cut="1.0253166198730469e+02" cType="1" res="-4.4678375124931335e-02" rms="4.4674474000930786e-01" purity="3.8024243712425232e-01" nType="0">
          <Node pos="l" depth="2" NCoef="0" IVar="-1" Cut="0.0000000000000000e+00" cType="1" res="-2.1862478461116552e-03" rms="4.4271430373191833e-01" purity="3.2717522978782654e-01" nType="-99"/>
          <Node pos="r" depth="2" NCoef="0" IVar="-1" Cut="0.0000000000000000e+00" cType="1" res="-5.8615446323528886e-04" rms="4.4793355464935303e-01" purity="4.1767051815986633e-01" nType="-99"/>
        </Node>
        <Node pos="r" depth="1" NCoef="0" IVar="5" Cut="1.0822857618331909e+00" cType="1" res="-1.5737060457468033e-03" rms="4.5600497722625732e-01" purity="5.1502215862274170e-01" nType="0">
          <Node pos="l" depth="2" NCoef="0" IVar="-1" Cut="0.0000000000000000e+00" cType="1" res="-4.9565837252885103e-04" rms="4.6105697751045227e-01" purity="6.2231498956680298e-01" nType="-99"/>
          <Node pos="r" depth="2" NCoef="0" IVar="-1" Cut="0.0000000000000000e+00" cType="1" res="3.9485772140324116e-04" rms="4.4914627075195312e-01" purity="3.8055875897407532e-01" nType="-99"/>
        </Node>
      </Node>
    </BinaryTree>
    <BinaryTree type="DecisionTree" boostWeight="1.0000000000000000e+00" itree="629">
      <Node pos="s" depth="0" NCoef="0" IVar="3" Cut="1.0083958435058594e+02" cType="1" res="-2.9027813579887152e-03" rms="4.5341220498085022e-01" purity="4.9938580393791199e-01" nType="0">
        <Node pos="l" depth="1" NCoef="0" IVar="6" Cut="1.7993358895182610e-02" cType="1" res="-1.0795678943395615e-02" rms="4.5874455571174622e-01" purity="4.7876060009002686e-01" nType="0">
          <Node pos="l" depth="2" NCoef="0" IVar="-1" Cut="0.0000000000000000e+00" cType="1" res="-7.9391512554138899e-04" rms="4.5914101600646973e-01" purity="5.1893258094787598e-01" nType="-99"/>
          <Node pos="r" depth="2" NCoef="0" IVar="-1" Cut="0.0000000000000000e+00" cType="1" res="1.1591238580876961e-04" rms="4.5786848664283752e-01" purity="4.3571975827217102e-01" nType="-99"/>
        </Node>
        <Node pos="r" depth="1" NCoef="0" IVar="3" Cut="1.4901559448242188e+02" cType="1" res="1.6207164153456688e-02" rms="4.3964788317680359e-01" purity="5.4932260513305664e-01" nType="0">
          <Node pos="l" depth="2" NCoef="0" IVar="-1" Cut="0.0000000000000000e+00" cType="1" res="1.1816428741440177e-03" rms="4.3896278738975525e-01" purity="6.0646098852157593e-01" nType="-99"/>
          <Node pos="r" depth="2" NCoef="0" IVar="-1" Cut="0.0000000000000000e+00" cType="1" res="-9.7302126232534647e-04" rms="4.3832084536552429e-01" purity="3.6670902371406555e-01" nType="-99"/>
        </Node>
      </Node>
    </BinaryTree>
    <BinaryTree type="DecisionTree" boostWeight="1.0000000000000000e+00" itree="630">
      <Node pos="s" depth="0" NCoef="0" IVar="7" Cut="5.6770128011703491e-01" cType="1" res="2.5749970227479935e-03" rms="4.5271456241607666e-01" purity="5.0538021326065063e-01" nType="0">
        <Node pos="l" depth="1" NCoef="0" IVar="6" Cut="3.2365493476390839e-02" cType="1" res="-2.4787839502096176e-02" rms="4.4471350312232971e-01" purity="3.7007364630699158e-01" nType="0">
          <Node pos="l" depth="2" NCoef="0" IVar="-1" Cut="0.0000000000000000e+00" cType="1" res="-1.1768250260502100e-03" rms="4.3565815687179565e-01" purity="3.2319915294647217e-01" nType="-99"/>
          <Node pos="r" depth="2" NCoef="0" IVar="-1" Cut="0.0000000000000000e+00" cType="1" res="-3.7187090492807329e-04" rms="4.5072802901268005e-01" purity="4.0382289886474609e-01" nType="-99"/>
        </Node>
        <Node pos="r" depth="1" NCoef="0" IVar="4" Cut="2.3926988220214844e+02" cType="1" res="1.2771325185894966e-02" rms="4.5523968338966370e-01" purity="5.5580008029937744e-01" nType="0">
          <Node pos="l" depth="2" NCoef="0" IVar="-1" Cut="0.0000000000000000e+00" cType="1" res="6.9618114503100514e-04" rms="4.5176237821578979e-01" purity="5.8630692958831787e-01" nType="-99"/>
          <Node pos="r" depth="2" NCoef="0" IVar="-1" Cut="0.0000000000000000e+00" cType="1" res="-2.6578910183161497e-04" rms="4.6544045209884644e-01" purity="4.5910599827766418e-01" nType="-99"/>
        </Node>
      </Node>
    </BinaryTree>
    <BinaryTree type="DecisionTree" boostWeight="1.0000000000000000e+00" itree="631">
      <Node pos="s" depth="0" NCoef="0" IVar="5" Cut="1.7030385732650757e+00" cType="1" res="-7.0589319802820683e-03" rms="4.5529901981353760e-01" purity="4.9529555439949036e-01" nType="0">
        <Node pos="l" depth="1" NCoef="0" IVar="4" Cut="1.0404443359375000e+02" cType="1" res="-3.6416009534150362e-03" rms="4.6379983425140381e-01" purity="5.3070175647735596e-01" nType="0">
          <Node pos="l" depth="2" NCoef="0" IVar="-1" Cut="0.0000000000000000e+00" cType="1" res="-8.0831069499254227e-04" rms="4.6829658746719360e-01" purity="4.7619265317916870e-01" nType="-99"/>
          <Node pos="r" depth="2" NCoef="0" IVar="-1" Cut="0.0000000000000000e+00" cType="1" res="1.5261008229572326e-04" rms="4.6190077066421509e-01" purity="5.5022889375686646e-01" nType="-99"/>
        </Node>
        <Node pos="r" depth="1" NCoef="0" IVar="-1" Cut="0.0000000000000000e+00" cType="1" res="-1.2169035617262125e-03" rms="3.6515527963638306e-01" purity="1.6523189842700958e-01" nType="-99"/>
      </Node>
    </BinaryTree>
    <BinaryTree type="DecisionTree" boostWeight="1.0000000000000000e+00" itree="632">
      <Node pos="s" depth="0" NCoef="0" IVar="1" Cut="2.5321764945983887e+00" cType="1" res="3.0719991773366928e-03" rms="4.5235684514045715e-01" purity="5.0557696819305420e-01" nType="0">
        <Node pos="l" depth="1" NCoef="0" IVar="9" Cut="7.6424419879913330e-01" cType="1" res="7.2741643525660038e-03" rms="4.5681500434875488e-01" purity="5.2890855073928833e-01" nType="0">
          <Node pos="l" depth="2" NCoef="0" IVar="-1" Cut="0.0000000000000000e+00" cType="1" res="-1.3037825701758265e-03" rms="4.2459496855735779e-01" purity="2.7292823791503906e-01" nType="-99"/>
          <Node pos="r" depth="2" NCoef="0" IVar="-1" Cut="0.0000000000000000e+00" cType="1" res="3.7605708348564804e-04" rms="4.5880192518234253e-01" purity="5.4735380411148071e-01" nType="-99"/>
        </Node>
        <Node pos="r" depth="1" NCoef="0" IVar="-1" Cut="0.0000000000000000e+00" cType="1" res="-1.3158090878278017e-03" rms="3.9425599575042725e-01" purity="2.3706299066543579e-01" nType="-99"/>
      </Node>
    </BinaryTree>
    <BinaryTree type="DecisionTree" boostWeight="1.0000000000000000e+00" itree="633">
      <Node pos="s" depth="0" NCoef="0" IVar="7" Cut="5.6768000125885010e-01" cType="1" res="-5.4703373461961746e-03" rms="4.5052132010459900e-01" purity="4.9520695209503174e-01" nType="0">
        <Node pos="l" depth="1" NCoef="0" IVar="7" Cut="5.1096004247665405e-01" cType="1" res="-3.4584823995828629e-02" rms="4.4539597630500793e-01" purity="3.5993999242782593e-01" nType="0">
          <Node pos="l" depth="2" NCoef="0" IVar="-1" Cut="0.0000000000000000e+00" cType="1" res="-1.8318879883736372e-03" rms="4.3198582530021667e-01" purity="2.9943346977233887e-01" nType="-99"/>
          <Node pos="r" depth="2" NCoef="0" IVar="-1" Cut="0.0000000000000000e+00" cType="1" res="-6.6293578129261732e-04" rms="4.4972047209739685e-01" purity="3.8243889808654785e-01" nType="-99"/>
        </Node>
        <Node pos="r" depth="1" NCoef="0" IVar="6" Cut="1.9829267635941505e-02" cType="1" res="5.7472498156130314e-03" rms="4.5198035240173340e-01" purity="5.4732429981231689e-01" nType="0">
          <Node pos="l" depth="2" NCoef="0" IVar="-1" Cut="0.0000000000000000e+00" cType="1" res="-1.9085493113379925e-04" rms="4.4881710410118103e-01" purity="5.6125032901763916e-01" nType="-99"/>
          <Node pos="r" depth="2" NCoef="0" IVar="-1" Cut="0.0000000000000000e+00" cType="1" res="1.1505095753818750e-03" rms="4.5875069499015808e-01" purity="5.1152318716049194e-01" nType="-99"/>
        </Node>
      </Node>
    </BinaryTree>
    <BinaryTree type="DecisionTree" boostWeight="1.0000000000000000e+00" itree="634">
      <Node pos="s" depth="0" NCoef="0" IVar="5" Cut="5.7814127206802368e-01" cType="1" res="-1.6990868607535958e-03" rms="4.5324030518531799e-01" purity="5.0188821554183960e-01" nType="0">
        <Node pos="l" depth="1" NCoef="0" IVar="3" Cut="7.2926910400390625e+01" cType="1" res="2.7450205758213997e-02" rms="4.4449052214622498e-01" purity="6.7678827047348022e-01" nType="0">
          <Node pos="l" depth="2" NCoef="0" IVar="-1" Cut="0.0000000000000000e+00" cType="1" res="1.9106141990050673e-03" rms="4.4571077823638916e-01" purity="6.5738844871520996e-01" nType="-99"/>
          <Node pos="r" depth="2" NCoef="0" IVar="-1" Cut="0.0000000000000000e+00" cType="1" res="-2.4318807118106633e-04" rms="4.4070628285408020e-01" purity="7.0365732908248901e-01" nType="-99"/>
        </Node>
        <Node pos="r" depth="1" NCoef="0" IVar="3" Cut="9.1506103515625000e+01" cType="1" res="-6.7162173800170422e-03" rms="4.5454078912734985e-01" purity="4.7178471088409424e-01" nType="0">
          <Node pos="l" depth="2" NCoef="0" IVar="-1" Cut="0.0000000000000000e+00" cType="1" res="-5.3491309517994523e-04" rms="4.6031850576400757e-01" purity="4.4054904580116272e-01" nType="-99"/>
          <Node pos="r" depth="2" NCoef="0" IVar="-1" Cut="0.0000000000000000e+00" cType="1" res="4.0141606586985290e-04" rms="4.4405242800712585e-01" purity="5.2426618337631226e-01" nType="-99"/>
        </Node>
      </Node>
    </BinaryTree>
    <BinaryTree type="DecisionTree" boostWeight="1.0000000000000000e+00" itree="635">
      <Node pos="s" depth="0" NCoef="0" IVar="1" Cut="6.4054244756698608e-01" cType="1" res="-3.3602761104702950e-03" rms="4.5158657431602478e-01" purity="4.9578535556793213e-01" nType="0">
        <Node pos="l" depth="1" NCoef="0" IVar="4" Cut="1.4081053161621094e+02" cType="1" res="2.1623706445097923e-02" rms="4.5134329795837402e-01" purity="6.1934971809387207e-01" nType="0">
          <Node pos="l" depth="2" NCoef="0" IVar="-1" Cut="0.0000000000000000e+00" cType="1" res="1.7841514199972153e-03" rms="4.4086787104606628e-01" purity="6.7892628908157349e-01" nType="-99"/>
          <Node pos="r" depth="2" NCoef="0" IVar="-1" Cut="0.0000000000000000e+00" cType="1" res="-3.6872040709567955e-06" rms="4.6049940586090088e-01" purity="5.6009411811828613e-01" nType="-99"/>
        </Node>
        <Node pos="r" depth="1" NCoef="0" IVar="0" Cut="9.0204983949661255e-01" cType="1" res="-1.3813262805342674e-02" rms="4.5127806067466736e-01" purity="4.4408756494522095e-01" nType="0">
          <Node pos="l" depth="2" NCoef="0" IVar="-1" Cut="0.0000000000000000e+00" cType="1" res="-1.7003254033625126e-03" rms="4.6915966272354126e-01" purity="5.7089310884475708e-01" nType="-99"/>
          <Node pos="r" depth="2" NCoef="0" IVar="-1" Cut="0.0000000000000000e+00" cType="1" res="-1.0263696458423510e-04" rms="4.4555240869522095e-01" purity="4.0832158923149109e-01" nType="-99"/>
        </Node>
      </Node>
    </BinaryTree>
    <BinaryTree type="DecisionTree" boostWeight="1.0000000000000000e+00" itree="636">
      <Node pos="s" depth="0" NCoef="0" IVar="7" Cut="6.2024468183517456e-01" cType="1" res="-6.3569154590368271e-03" rms="4.5334371924400330e-01" purity="4.9698424339294434e-01" nType="0">
        <Node pos="l" depth="1" NCoef="0" IVar="0" Cut="7.3943024873733521e-01" cType="1" res="-2.2101858630776405e-02" rms="4.5322859287261963e-01" purity="3.9418590068817139e-01" nType="0">
          <Node pos="l" depth="2" NCoef="0" IVar="-1" Cut="0.0000000000000000e+00" cType="1" res="7.9898489639163017e-04" rms="4.7729870676994324e-01" purity="6.1779451370239258e-01" nType="-99"/>
          <Node pos="r" depth="2" NCoef="0" IVar="-1" Cut="0.0000000000000000e+00" cType="1" res="-8.3700177492573857e-04" rms="4.4893765449523926e-01" purity="3.5923725366592407e-01" nType="-99"/>
        </Node>
        <Node pos="r" depth="1" NCoef="0" IVar="6" Cut="2.1833486855030060e-02" cType="1" res="4.7393380664288998e-03" rms="4.5309630036354065e-01" purity="5.6943136453628540e-01" nType="0">
          <Node pos="l" depth="2" NCoef="0" IVar="-1" Cut="0.0000000000000000e+00" cType="1" res="-2.8336588002275676e-05" rms="4.5238542556762695e-01" purity="5.6915301084518433e-01" nType="-99"/>
          <Node pos="r" depth="2" NCoef="0" IVar="-1" Cut="0.0000000000000000e+00" cType="1" res="1.9924505613744259e-03" rms="4.5644584298133850e-01" purity="5.7207489013671875e-01" nType="-99"/>
        </Node>
      </Node>
    </BinaryTree>
    <BinaryTree type="DecisionTree" boostWeight="1.0000000000000000e+00" itree="637">
      <Node pos="s" depth="0" NCoef="0" IVar="3" Cut="9.9381378173828125e+01" cType="1" res="-7.4034789577126503e-03" rms="4.5289701223373413e-01" purity="4.9675953388214111e-01" nType="0">
        <Node pos="l" depth="1" NCoef="0" IVar="7" Cut="7.7755308151245117e-01" cType="1" res="-1.8065646290779114e-02" rms="4.5794901251792908e-01" purity="4.7121363878250122e-01" nType="0">
          <Node pos="l" depth="2" NCoef="0" IVar="-1" Cut="0.0000000000000000e+00" cType="1" res="-8.6755695519968867e-04" rms="4.5920383930206299e-01" purity="4.2180049419403076e-01" nType="-99"/>
          <Node pos="r" depth="2" NCoef="0" IVar="-1" Cut="0.0000000000000000e+00" cType="1" res="3.9528973866254091e-04" rms="4.5344799757003784e-01" purity="5.9635317325592041e-01" nType="-99"/>
        </Node>
        <Node pos="r" depth="1" NCoef="0" IVar="3" Cut="1.4767718505859375e+02" cType="1" res="1.7255477607250214e-02" rms="4.4000270962715149e-01" purity="5.5584084987640381e-01" nType="0">
          <Node pos="l" depth="2" NCoef="0" IVar="-1" Cut="0.0000000000000000e+00" cType="1" res="1.4188812347128987e-03" rms="4.3567177653312683e-01" purity="6.1398708820343018e-01" nType="-99"/>
          <Node pos="r" depth="2" NCoef="0" IVar="-1" Cut="0.0000000000000000e+00" cType="1" res="-1.4274144778028131e-03" rms="4.4760289788246155e-01" purity="3.6525771021842957e-01" nType="-99"/>
        </Node>
      </Node>
    </BinaryTree>
    <BinaryTree type="DecisionTree" boostWeight="1.0000000000000000e+00" itree="638">
      <Node pos="s" depth="0" NCoef="0" IVar="3" Cut="8.9461868286132812e+01" cType="1" res="-7.2586648166179657e-03" rms="4.5412635803222656e-01" purity="4.9498367309570312e-01" nType="0">
        <Node pos="l" depth="1" NCoef="0" IVar="9" Cut="9.8943763971328735e-01" cType="1" res="-1.8333107233047485e-02" rms="4.5889353752136230e-01" purity="4.6001148223876953e-01" nType="0">
          <Node pos="l" depth="2" NCoef="0" IVar="-1" Cut="0.0000000000000000e+00" cType="1" res="-7.8925094567239285e-04" rms="4.5754146575927734e-01" purity="4.2314153909683228e-01" nType="-99"/>
          <Node pos="r" depth="2" NCoef="0" IVar="-1" Cut="0.0000000000000000e+00" cType="1" res="6.8256558733992279e-05" rms="4.6156954765319824e-01" purity="5.5065351724624634e-01" nType="-99"/>
        </Node>
        <Node pos="r" depth="1" NCoef="0" IVar="5" Cut="1.5159503221511841e+00" cType="1" res="1.1571634560823441e-02" rms="4.4527167081832886e-01" purity="5.5444830656051636e-01" nType="0">
          <Node pos="l" depth="2" NCoef="0" IVar="-1" Cut="0.0000000000000000e+00" cType="1" res="7.9553067917004228e-04" rms="4.5210579037666321e-01" purity="6.3387244939804077e-01" nType="-99"/>
          <Node pos="r" depth="2" NCoef="0" IVar="-1" Cut="0.0000000000000000e+00" cType="1" res="-6.4845976885408163e-04" rms="4.1629812121391296e-01" purity="2.5091573596000671e-01" nType="-99"/>
        </Node>
      </Node>
    </BinaryTree>
    <BinaryTree type="DecisionTree" boostWeight="1.0000000000000000e+00" itree="639">
      <Node pos="s" depth="0" NCoef="0" IVar="3" Cut="1.3208268737792969e+02" cType="1" res="-3.6945261526852846e-03" rms="4.5179486274719238e-01" purity="5.0031566619873047e-01" nType="0">
        <Node pos="l" depth="1" NCoef="0" IVar="3" Cut="4.8903877258300781e+01" cType="1" res="6.1323959380388260e-04" rms="4.5203241705894470e-01" purity="5.0866830348968506e-01" nType="0">
          <Node pos="l" depth="2" NCoef="0" IVar="-1" Cut="0.0000000000000000e+00" cType="1" res="-6.4713077154010534e-04" rms="4.4702312350273132e-01" purity="4.1765987873077393e-01" nType="-99"/>
          <Node pos="r" depth="2" NCoef="0" IVar="-1" Cut="0.0000000000000000e+00" cType="1" res="2.6717031141743064e-04" rms="4.5339643955230713e-01" purity="5.3799140453338623e-01" nType="-99"/>
        </Node>
        <Node pos="r" depth="1" NCoef="0" IVar="5" Cut="1.0914717912673950e+00" cType="1" res="-3.6775708198547363e-02" rms="4.4859004020690918e-01" purity="4.3617242574691772e-01" nType="0">
          <Node pos="l" depth="2" NCoef="0" IVar="-1" Cut="0.0000000000000000e+00" cType="1" res="-2.7076797559857368e-03" rms="4.6730837225914001e-01" purity="5.6161659955978394e-01" nType="-99"/>
          <Node pos="r" depth="2" NCoef="0" IVar="-1" Cut="0.0000000000000000e+00" cType="1" res="-2.8444135750760324e-05" rms="4.2897543311119080e-01" purity="3.3079808950424194e-01" nType="-99"/>
        </Node>
      </Node>
    </BinaryTree>
    <BinaryTree type="DecisionTree" boostWeight="1.0000000000000000e+00" itree="640">
      <Node pos="s" depth="0" NCoef="0" IVar="0" Cut="1.4943883419036865e+00" cType="1" res="-3.4364748280495405e-03" rms="4.5327413082122803e-01" purity="4.9675068259239197e-01" nType="0">
        <Node pos="l" depth="1" NCoef="0" IVar="6" Cut="6.4383768476545811e-03" cType="1" res="2.8280734550207853e-03" rms="4.6235719323158264e-01" purity="5.4404407739639282e-01" nType="0">
          <Node pos="l" depth="2" NCoef="0" IVar="-1" Cut="0.0000000000000000e+00" cType="1" res="-5.7218893198296428e-04" rms="4.5254248380661011e-01" purity="6.1643296480178833e-01" nType="-99"/>
          <Node pos="r" depth="2" NCoef="0" IVar="-1" Cut="0.0000000000000000e+00" cType="1" res="3.0283164232969284e-04" rms="4.6569675207138062e-01" purity="5.1772385835647583e-01" nType="-99"/>
        </Node>
        <Node pos="r" depth="1" NCoef="0" IVar="3" Cut="9.3745620727539062e+01" cType="1" res="-3.4710463136434555e-02" rms="4.0344074368476868e-01" purity="2.6065188646316528e-01" nType="0">
          <Node pos="l" depth="2" NCoef="0" IVar="-1" Cut="0.0000000000000000e+00" cType="1" res="-1.6171496827155352e-03" rms="3.8561341166496277e-01" purity="2.1512237191200256e-01" nType="-99"/>
          <Node pos="r" depth="2" NCoef="0" IVar="-1" Cut="0.0000000000000000e+00" cType="1" res="-5.6962806411320344e-05" rms="4.2763319611549377e-01" purity="3.3144855499267578e-01" nType="-99"/>
        </Node>
      </Node>
    </BinaryTree>
    <BinaryTree type="DecisionTree" boostWeight="1.0000000000000000e+00" itree="641">
      <Node pos="s" depth="0" NCoef="0" IVar="3" Cut="1.4077740478515625e+02" cType="1" res="-9.2235498595982790e-04" rms="4.5181795954704285e-01" purity="5.0116604566574097e-01" nType="0">
        <Node pos="l" depth="1" NCoef="0" IVar="9" Cut="9.6894007921218872e-01" cType="1" res="3.4215264022350311e-03" rms="4.5236882567405701e-01" purity="5.1275753974914551e-01" nType="0">
          <Node pos="l" depth="2" NCoef="0" IVar="-1" Cut="0.0000000000000000e+00" cType="1" res="-3.3321231603622437e-04" rms="4.5420435070991516e-01" purity="4.3554005026817322e-01" nType="-99"/>
          <Node pos="r" depth="2" NCoef="0" IVar="-1" Cut="0.0000000000000000e+00" cType="1" res="6.3816463807597756e-04" rms="4.5013016462326050e-01" purity="5.8788049221038818e-01" nType="-99"/>
        </Node>
        <Node pos="r" depth="1" NCoef="0" IVar="-1" Cut="0.0000000000000000e+00" cType="1" res="-1.3424340868368745e-03" rms="4.4390955567359924e-01" purity="3.8489612936973572e-01" nType="-99"/>
      </Node>
    </BinaryTree>
    <BinaryTree type="DecisionTree" boostWeight="1.0000000000000000e+00" itree="642">
      <Node pos="s" depth="0" NCoef="0" IVar="7" Cut="7.0438879728317261e-01" cType="1" res="1.2740013189613819e-03" rms="4.5175763964653015e-01" purity="5.0420182943344116e-01" nType="0">
        <Node pos="l" depth="1" NCoef="0" IVar="0" Cut="1.5228286981582642e+00" cType="1" res="-1.1324122548103333e-02" rms="4.5379841327667236e-01" purity="4.2831072211265564e-01" nType="0">
          <Node pos="l" depth="2" NCoef="0" IVar="-1" Cut="0.0000000000000000e+00" cType="1" res="-1.5182919742073864e-04" rms="4.6508926153182983e-01" purity="4.7036471962928772e-01" nType="-99"/>
          <Node pos="r" depth="2" NCoef="0" IVar="-1" Cut="0.0000000000000000e+00" cType="1" res="-1.3231907505542040e-03" rms="3.8754406571388245e-01" purity="2.0765349268913269e-01" nType="-99"/>
        </Node>
        <Node pos="r" depth="1" NCoef="0" IVar="4" Cut="1.1403655242919922e+02" cType="1" res="2.0346296951174736e-02" rms="4.4797673821449280e-01" purity="6.1909329891204834e-01" nType="0">
          <Node pos="l" depth="2" NCoef="0" IVar="-1" Cut="0.0000000000000000e+00" cType="1" res="-4.4919273932464421e-05" rms="4.5560824871063232e-01" purity="5.9518432617187500e-01" nType="-99"/>
          <Node pos="r" depth="2" NCoef="0" IVar="-1" Cut="0.0000000000000000e+00" cType="1" res="1.1871691094711423e-03" rms="4.4374957680702209e-01" purity="6.3096296787261963e-01" nType="-99"/>
        </Node>
      </Node>
    </BinaryTree>
    <BinaryTree type="DecisionTree" boostWeight="1.0000000000000000e+00" itree="643">
      <Node pos="s" depth="0" NCoef="0" IVar="2" Cut="7.2392743825912476e-01" cType="1" res="-2.2998938802629709e-03" rms="4.5407029986381531e-01" purity="5.0098687410354614e-01" nType="0">
        <Node pos="l" depth="1" NCoef="0" IVar="-1" Cut="0.0000000000000000e+00" cType="1" res="-1.3206051662564278e-03" rms="4.1768306493759155e-01" purity="2.5446242094039917e-01" nType="-99"/>
        <Node pos="r" depth="1" NCoef="0" IVar="0" Cut="6.0739135742187500e-01" cType="1" res="6.5811374224722385e-04" rms="4.5617452263832092e-01" purity="5.1698797941207886e-01" nType="0">
          <Node pos="l" depth="2" NCoef="0" IVar="-1" Cut="0.0000000000000000e+00" cType="1" res="1.7084192950278521e-03" rms="4.2365035414695740e-01" purity="7.3837047815322876e-01" nType="-99"/>
          <Node pos="r" depth="2" NCoef="0" IVar="-1" Cut="0.0000000000000000e+00" cType="1" res="-6.0091595514677465e-05" rms="4.5828443765640259e-01" purity="5.0131958723068237e-01" nType="-99"/>
        </Node>
      </Node>
    </BinaryTree>
    <BinaryTree type="DecisionTree" boostWeight="1.0000000000000000e+00" itree="644">
      <Node pos="s" depth="0" NCoef="0" IVar="6" Cut="4.0018137544393539e-02" cType="1" res="-2.7332694735378027e-03" rms="4.5302593708038330e-01" purity="5.0106650590896606e-01" nType="0">
        <Node pos="l" depth="1" NCoef="0" IVar="4" Cut="1.0731497955322266e+02" cType="1" res="9.8088814411312342e-04" rms="4.5440635085105896e-01" purity="5.1215839385986328e-01" nType="0">
          <Node pos="l" depth="2" NCoef="0" IVar="-1" Cut="0.0000000000000000e+00" cType="1" res="-7.6802761759608984e-04" rms="4.6541941165924072e-01" purity="4.7893854975700378e-01" nType="-99"/>
          <Node pos="r" depth="2" NCoef="0" IVar="-1" Cut="0.0000000000000000e+00" cType="1" res="3.6501738941296935e-04" rms="4.4965508580207825e-01" purity="5.2509826421737671e-01" nType="-99"/>
        </Node>
        <Node pos="r" depth="1" NCoef="0" IVar="-1" Cut="0.0000000000000000e+00" cType="1" res="-1.5329901361837983e-03" rms="4.2939710617065430e-01" purity="3.4298968315124512e-01" nType="-99"/>
      </Node>
    </BinaryTree>
    <BinaryTree type="DecisionTree" boostWeight="1.0000000000000000e+00" itree="645">
      <Node pos="s" depth="0" NCoef="0" IVar="9" Cut="7.6305693387985229e-01" cType="1" res="-7.5407093390822411e-03" rms="4.5401632785797119e-01" purity="4.9420520663261414e-01" nType="0">
        <Node pos="l" depth="1" NCoef="0" IVar="-1" Cut="0.0000000000000000e+00" cType="1" res="-1.3777248095721006e-03" rms="4.1457846760749817e-01" purity="2.5747820734977722e-01" nType="-99"/>
        <Node pos="r" depth="1" NCoef="0" IVar="3" Cut="1.2836749267578125e+02" cType="1" res="-4.5147645287215710e-03" rms="4.5659106969833374e-01" purity="5.1134490966796875e-01" nType="0">
          <Node pos="l" depth="2" NCoef="0" IVar="-1" Cut="0.0000000000000000e+00" cType="1" res="-6.9907364377286285e-06" rms="4.5788511633872986e-01" purity="5.1992505788803101e-01" nType="-99"/>
          <Node pos="r" depth="2" NCoef="0" IVar="-1" Cut="0.0000000000000000e+00" cType="1" res="-1.0248278267681599e-03" rms="4.4729754328727722e-01" purity="4.5672824978828430e-01" nType="-99"/>
        </Node>
      </Node>
    </BinaryTree>
    <BinaryTree type="DecisionTree" boostWeight="1.0000000000000000e+00" itree="646">
      <Node pos="s" depth="0" NCoef="0" IVar="5" Cut="1.7370114326477051e+00" cType="1" res="-2.9701229650527239e-03" rms="4.4885614514350891e-01" purity="4.9540737271308899e-01" nType="0">
        <Node pos="l" depth="1" NCoef="0" IVar="7" Cut="7.3593187332153320e-01" cType="1" res="1.8024662276729941e-03" rms="4.5731696486473083e-01" purity="5.2889376878738403e-01" nType="0">
          <Node pos="l" depth="2" NCoef="0" IVar="-1" Cut="0.0000000000000000e+00" cType="1" res="-2.7854728978127241e-04" rms="4.6160778403282166e-01" purity="4.6557658910751343e-01" nType="-99"/>
          <Node pos="r" depth="2" NCoef="0" IVar="-1" Cut="0.0000000000000000e+00" cType="1" res="8.9440692681819201e-04" rms="4.4824618101119995e-01" purity="6.4977735280990601e-01" nType="-99"/>
        </Node>
        <Node pos="r" depth="1" NCoef="0" IVar="-1" Cut="0.0000000000000000e+00" cType="1" res="-1.6710198251530528e-03" rms="3.4347775578498840e-01" purity="1.4281131327152252e-01" nType="-99"/>
      </Node>
    </BinaryTree>
    <BinaryTree type="DecisionTree" boostWeight="1.0000000000000000e+00" itree="647">
      <Node pos="s" depth="0" NCoef="0" IVar="5" Cut="1.6984581947326660e+00" cType="1" res="-4.8957676626741886e-03" rms="4.5164659619331360e-01" purity="4.9540197849273682e-01" nType="0">
        <Node pos="l" depth="1" NCoef="0" IVar="4" Cut="1.2901905822753906e+02" cType="1" res="-7.6616380829364061e-04" rms="4.6074387431144714e-01" purity="5.3197515010833740e-01" nType="0">
          <Node pos="l" depth="2" NCoef="0" IVar="-1" Cut="0.0000000000000000e+00" cType="1" res="5.2003946620970964e-04" rms="4.5410248637199402e-01" purity="5.6350404024124146e-01" nType="-99"/>
          <Node pos="r" depth="2" NCoef="0" IVar="-1" Cut="0.0000000000000000e+00" cType="1" res="-4.1673734085634351e-04" rms="4.6536707878112793e-01" purity="5.0793969631195068e-01" nType="-99"/>
        </Node>
        <Node pos="r" depth="1" NCoef="0" IVar="-1" Cut="0.0000000000000000e+00" cType="1" res="-1.3627259759232402e-03" rms="3.5469102859497070e-01" purity="1.5801338851451874e-01" nType="-99"/>
      </Node>
    </BinaryTree>
    <BinaryTree type="DecisionTree" boostWeight="1.0000000000000000e+00" itree="648">
      <Node pos="s" depth="0" NCoef="0" IVar="3" Cut="1.3602192687988281e+02" cType="1" res="-3.6067576147615910e-03" rms="4.5138233900070190e-01" purity="4.9847194552421570e-01" nType="0">
        <Node pos="l" depth="1" NCoef="0" IVar="6" Cut="3.7397690117359161e-02" cType="1" res="1.8886799225583673e-03" rms="4.5147925615310669e-01" purity="5.1005983352661133e-01" nType="0">
          <Node pos="l" depth="2" NCoef="0" IVar="-1" Cut="0.0000000000000000e+00" cType="1" res="2.2009719396010041e-04" rms="4.5144000649452209e-01" purity="5.2540975809097290e-01" nType="-99"/>
          <Node pos="r" depth="2" NCoef="0" IVar="-1" Cut="0.0000000000000000e+00" cType="1" res="-1.0752215748652816e-03" rms="4.4979184865951538e-01" purity="3.7716248631477356e-01" nType="-99"/>
        </Node>
        <Node pos="r" depth="1" NCoef="0" IVar="-1" Cut="0.0000000000000000e+00" cType="1" res="-1.5359426615759730e-03" rms="4.4795808196067810e-01" purity="4.0187683701515198e-01" nType="-99"/>
      </Node>
    </BinaryTree>
    <BinaryTree type="DecisionTree" boostWeight="1.0000000000000000e+00" itree="649">
      <Node pos="s" depth="0" NCoef="0" IVar="4" Cut="2.5637911987304688e+02" cType="1" res="-6.5303902374580503e-04" rms="4.5250564813613892e-01" purity="5.0256127119064331e-01" nType="0">
        <Node pos="l" depth="1" NCoef="0" IVar="3" Cut="3.6025035858154297e+01" cType="1" res="6.2813283875584602e-03" rms="4.5388355851173401e-01" purity="5.3426283597946167e-01" nType="0">
          <Node pos="l" depth="2" NCoef="0" IVar="-1" Cut="0.0000000000000000e+00" cType="1" res="-1.2990966206416488e-03" rms="4.4912621378898621e-01" purity="3.7761256098747253e-01" nType="-99"/>
          <Node pos="r" depth="2" NCoef="0" IVar="-1" Cut="0.0000000000000000e+00" cType="1" res="3.9412765181623399e-04" rms="4.5401653647422791e-01" purity="5.4966986179351807e-01" nType="-99"/>
        </Node>
        <Node pos="r" depth="1" NCoef="0" IVar="1" Cut="1.4907157421112061e+00" cType="1" res="-2.5506444275379181e-02" rms="4.4664865732192993e-01" purity="3.8894012570381165e-01" nType="0">
          <Node pos="l" depth="2" NCoef="0" IVar="-1" Cut="0.0000000000000000e+00" cType="1" res="-1.1592140654101968e-03" rms="4.5214632153511047e-01" purity="4.1771304607391357e-01" nType="-99"/>
          <Node pos="r" depth="2" NCoef="0" IVar="-1" Cut="0.0000000000000000e+00" cType="1" res="1.7778709297999740e-04" rms="4.3251389265060425e-01" purity="3.2482627034187317e-01" nType="-99"/>
        </Node>
      </Node>
    </BinaryTree>
    <BinaryTree type="DecisionTree" boostWeight="1.0000000000000000e+00" itree="650">
      <Node pos="s" depth="0" NCoef="0" IVar="3" Cut="1.0062521362304688e+02" cType="1" res="-7.0895445533096790e-03" rms="4.5201095938682556e-01" purity="4.9352940917015076e-01" nType="0">
        <Node pos="l" depth="1" NCoef="0" IVar="1" Cut="3.0081513524055481e-01" cType="1" res="-1.6700828447937965e-02" rms="4.5736047625541687e-01" purity="4.6933403611183167e-01" nType="0">
          <Node pos="l" depth="2" NCoef="0" IVar="-1" Cut="0.0000000000000000e+00" cType="1" res="7.8210432548075914e-04" rms="4.6739751100540161e-01" purity="6.3675427436828613e-01" nType="-99"/>
          <Node pos="r" depth="2" NCoef="0" IVar="-1" Cut="0.0000000000000000e+00" cType="1" res="-6.4403144642710686e-04" rms="4.5600843429565430e-01" purity="4.5024958252906799e-01" nType="-99"/>
        </Node>
        <Node pos="r" depth="1" NCoef="0" IVar="3" Cut="1.3677476501464844e+02" cType="1" res="1.6311593353748322e-02" rms="4.3783220648765564e-01" purity="5.5243939161300659e-01" nType="0">
          <Node pos="l" depth="2" NCoef="0" IVar="-1" Cut="0.0000000000000000e+00" cType="1" res="1.3259248808026314e-03" rms="4.3169185519218445e-01" purity="6.1518853902816772e-01" nType="-99"/>
          <Node pos="r" depth="2" NCoef="0" IVar="-1" Cut="0.0000000000000000e+00" cType="1" res="-6.7635747836902738e-04" rms="4.4766765832901001e-01" purity="4.2497551441192627e-01" nType="-99"/>
        </Node>
      </Node>
    </BinaryTree>
    <BinaryTree type="DecisionTree" boostWeight="1.0000000000000000e+00" itree="651">
      <Node pos="s" depth="0" NCoef="0" IVar="4" Cut="1.4840426635742188e+02" cType="1" res="-6.0799969360232353e-03" rms="4.5217087864875793e-01" purity="4.9746400117874146e-01" nType="0">
        <Node pos="l" depth="1" NCoef="0" IVar="1" Cut="7.2012239694595337e-01" cType="1" res="1.1526421643793583e-02" rms="4.4799411296844482e-01" purity="5.5224144458770752e-01" nType="0">
          <Node pos="l" depth="2" NCoef="0" IVar="-1" Cut="0.0000000000000000e+00" cType="1" res="1.6455739969387650e-03" rms="4.3529301881790161e-01" purity="6.7680013179779053e-01" nType="-99"/>
          <Node pos="r" depth="2" NCoef="0" IVar="-1" Cut="0.0000000000000000e+00" cType="1" res="-1.6433538985438645e-04" rms="4.5425346493721008e-01" purity="4.8104748129844666e-01" nType="-99"/>
        </Node>
        <Node pos="r" depth="1" NCoef="0" IVar="6" Cut="2.0633289590477943e-02" cType="1" res="-2.4184890091419220e-02" rms="4.5571720600128174e-01" purity="4.4113567471504211e-01" nType="0">
          <Node pos="l" depth="2" NCoef="0" IVar="-1" Cut="0.0000000000000000e+00" cType="1" res="-1.2857395922765136e-03" rms="4.6044167876243591e-01" purity="4.7559893131256104e-01" nType="-99"/>
          <Node pos="r" depth="2" NCoef="0" IVar="-1" Cut="0.0000000000000000e+00" cType="1" res="-7.6416188676375896e-05" rms="4.4884532690048218e-01" purity="3.9839312434196472e-01" nType="-99"/>
        </Node>
      </Node>
    </BinaryTree>
    <BinaryTree type="DecisionTree" boostWeight="1.0000000000000000e+00" itree="652">
      <Node pos="s" depth="0" NCoef="0" IVar="3" Cut="1.4648326110839844e+02" cType="1" res="6.0743526555597782e-03" rms="4.5201838016510010e-01" purity="5.0812077522277832e-01" nType="0">
        <Node pos="l" depth="1" NCoef="0" IVar="0" Cut="9.7877275943756104e-01" cType="1" res="1.1631599627435207e-02" rms="4.5283564925193787e-01" purity="5.2153593301773071e-01" nType="0">
          <Node pos="l" depth="2" NCoef="0" IVar="-1" Cut="0.0000000000000000e+00" cType="1" res="1.2827658792957664e-03" rms="4.4649988412857056e-01" purity="6.7166048288345337e-01" nType="-99"/>
          <Node pos="r" depth="2" NCoef="0" IVar="-1" Cut="0.0000000000000000e+00" cType="1" res="-1.9989543943665922e-05" rms="4.5610761642456055e-01" purity="4.3249061703681946e-01" nType="-99"/>
        </Node>
        <Node pos="r" depth="1" NCoef="0" IVar="-1" Cut="0.0000000000000000e+00" cType="1" res="-1.6623244155198336e-03" rms="4.3768820166587830e-01" purity="3.5560953617095947e-01" nType="-99"/>
      </Node>
    </BinaryTree>
    <BinaryTree type="DecisionTree" boostWeight="1.0000000000000000e+00" itree="653">
      <Node pos="s" depth="0" NCoef="0" IVar="3" Cut="4.3854438781738281e+01" cType="1" res="4.6603148803114891e-04" rms="4.5224273204803467e-01" purity="5.0196897983551025e-01" nType="0">
        <Node pos="l" depth="1" NCoef="0" IVar="2" Cut="8.4126651287078857e-01" cType="1" res="-2.6573045179247856e-02" rms="4.5265027880668640e-01" purity="4.0176042914390564e-01" nType="0">
          <Node pos="l" depth="2" NCoef="0" IVar="-1" Cut="0.0000000000000000e+00" cType="1" res="2.2238628298509866e-04" rms="4.5484507083892822e-01" purity="3.4445202350616455e-01" nType="-99"/>
          <Node pos="r" depth="2" NCoef="0" IVar="-1" Cut="0.0000000000000000e+00" cType="1" res="-1.4045956777408719e-03" rms="4.4988644123077393e-01" purity="4.3837502598762512e-01" nType="-99"/>
        </Node>
        <Node pos="r" depth="1" NCoef="0" IVar="1" Cut="2.4669206142425537e-01" cType="1" res="5.6216795928776264e-03" rms="4.5198142528533936e-01" purity="5.2107620239257812e-01" nType="0">
          <Node pos="l" depth="2" NCoef="0" IVar="-1" Cut="0.0000000000000000e+00" cType="1" res="2.3347928654402494e-03" rms="4.2880386114120483e-01" purity="6.9722509384155273e-01" nType="-99"/>
          <Node pos="r" depth="2" NCoef="0" IVar="-1" Cut="0.0000000000000000e+00" cType="1" res="6.5095082391053438e-05" rms="4.5348662137985229e-01" purity="5.0768750905990601e-01" nType="-99"/>
        </Node>
      </Node>
    </BinaryTree>
    <BinaryTree type="DecisionTree" boostWeight="1.0000000000000000e+00" itree="654">
      <Node pos="s" depth="0" NCoef="0" IVar="7" Cut="5.1512938737869263e-01" cType="1" res="5.2700228989124298e-03" rms="4.5343637466430664e-01" purity="5.0827193260192871e-01" nType="0">
        <Node pos="l" depth="1" NCoef="0" IVar="-1" Cut="0.0000000000000000e+00" cType="1" res="-9.8925631027668715e-04" rms="4.5183753967285156e-01" purity="3.4080341458320618e-01" nType="-99"/>
        <Node pos="r" depth="1" NCoef="0" IVar="6" Cut="2.0645154640078545e-02" cType="1" res="9.1019263491034508e-03" rms="4.5340120792388916e-01" purity="5.2417272329330444e-01" nType="0">
          <Node pos="l" depth="2" NCoef="0" IVar="-1" Cut="0.0000000000000000e+00" cType="1" res="-1.2976993457414210e-04" rms="4.5179647207260132e-01" purity="5.5291295051574707e-01" nType="-99"/>
          <Node pos="r" depth="2" NCoef="0" IVar="-1" Cut="0.0000000000000000e+00" cType="1" res="9.5217209309339523e-04" rms="4.5520368218421936e-01" purity="4.7811472415924072e-01" nType="-99"/>
        </Node>
      </Node>
    </BinaryTree>
    <BinaryTree type="DecisionTree" boostWeight="1.0000000000000000e+00" itree="655">
      <Node pos="s" depth="0" NCoef="0" IVar="6" Cut="2.0633256062865257e-02" cType="1" res="-2.8971866704523563e-03" rms="4.5359599590301514e-01" purity="4.9903365969657898e-01" nType="0">
        <Node pos="l" depth="1" NCoef="0" IVar="3" Cut="6.8510116577148438e+01" cType="1" res="-1.3883439823985100e-02" rms="4.5364284515380859e-01" purity="5.4264235496520996e-01" nType="0">
          <Node pos="l" depth="2" NCoef="0" IVar="-1" Cut="0.0000000000000000e+00" cType="1" res="-1.0615468490868807e-03" rms="4.6555843949317932e-01" purity="4.9008944630622864e-01" nType="-99"/>
          <Node pos="r" depth="2" NCoef="0" IVar="-1" Cut="0.0000000000000000e+00" cType="1" res="7.0720976509619504e-05" rms="4.4355082511901855e-01" purity="5.8333545923233032e-01" nType="-99"/>
        </Node>
        <Node pos="r" depth="1" NCoef="0" IVar="5" Cut="9.8274123668670654e-01" cType="1" res="1.1354064568877220e-02" rms="4.5313856005668640e-01" purity="4.4246491789817810e-01" nType="0">
          <Node pos="l" depth="2" NCoef="0" IVar="-1" Cut="0.0000000000000000e+00" cType="1" res="1.0229197796434164e-03" rms="4.7004282474517822e-01" purity="5.9075355529785156e-01" nType="-99"/>
          <Node pos="r" depth="2" NCoef="0" IVar="-1" Cut="0.0000000000000000e+00" cType="1" res="-1.0996885976055637e-04" rms="4.3884781002998352e-01" purity="3.2625845074653625e-01" nType="-99"/>
        </Node>
      </Node>
    </BinaryTree>
    <BinaryTree type="DecisionTree" boostWeight="1.0000000000000000e+00" itree="656">
      <Node pos="s" depth="0" NCoef="0" IVar="3" Cut="4.3122234344482422e+01" cType="1" res="4.1636587120592594e-03" rms="4.5346990227699280e-01" purity="5.0923526287078857e-01" nType="0">
        <Node pos="l" depth="1" NCoef="0" IVar="5" Cut="8.9798647165298462e-01" cType="1" res="-3.1015072017908096e-02" rms="4.5009559392929077e-01" purity="3.9368638396263123e-01" nType="0">
          <Node pos="l" depth="2" NCoef="0" IVar="-1" Cut="0.0000000000000000e+00" cType="1" res="-1.7613465024624020e-04" rms="4.7507512569427490e-01" purity="5.2416425943374634e-01" nType="-99"/>
          <Node pos="r" depth="2" NCoef="0" IVar="-1" Cut="0.0000000000000000e+00" cType="1" res="-1.4776602620258927e-03" rms="4.2535677552223206e-01" purity="2.7740648388862610e-01" nType="-99"/>
        </Node>
        <Node pos="r" depth="1" NCoef="0" IVar="5" Cut="8.6798739433288574e-01" cType="1" res="1.0741190053522587e-02" rms="4.5379552245140076e-01" purity="5.3083997964859009e-01" nType="0">
          <Node pos="l" depth="2" NCoef="0" IVar="-1" Cut="0.0000000000000000e+00" cType="1" res="1.1791286524385214e-03" rms="4.4524097442626953e-01" purity="6.8974047899246216e-01" nType="-99"/>
          <Node pos="r" depth="2" NCoef="0" IVar="-1" Cut="0.0000000000000000e+00" cType="1" res="6.7821310949511826e-06" rms="4.5848932862281799e-01" purity="4.3624147772789001e-01" nType="-99"/>
        </Node>
      </Node>
    </BinaryTree>
    <BinaryTree type="DecisionTree" boostWeight="1.0000000000000000e+00" itree="657">
      <Node pos="s" depth="0" NCoef="0" IVar="2" Cut="7.4431425333023071e-01" cType="1" res="2.0994129590690136e-03" rms="4.5294135808944702e-01" purity="5.0226080417633057e-01" nType="0">
        <Node pos="l" depth="1" NCoef="0" IVar="-1" Cut="0.0000000000000000e+00" cType="1" res="-1.2358141830191016e-03" rms="4.2569392919540405e-01" purity="2.5821536779403687e-01" nType="-99"/>
        <Node pos="r" depth="1" NCoef="0" IVar="3" Cut="9.2902420043945312e+01" cType="1" res="7.4287843890488148e-03" rms="4.5568388700485229e-01" purity="5.3045833110809326e-01" nType="0">
          <Node pos="l" depth="2" NCoef="0" IVar="-1" Cut="0.0000000000000000e+00" cType="1" res="-9.4556387921329588e-05" rms="4.6423438191413879e-01" purity="5.0100815296173096e-01" nType="-99"/>
          <Node pos="r" depth="2" NCoef="0" IVar="-1" Cut="0.0000000000000000e+00" cType="1" res="1.0076403850689530e-03" rms="4.3864747881889343e-01" purity="5.8534336090087891e-01" nType="-99"/>
        </Node>
      </Node>
    </BinaryTree>
    <BinaryTree type="DecisionTree" boostWeight="1.0000000000000000e+00" itree="658">
      <Node pos="s" depth="0" NCoef="0" IVar="8" Cut="6.4237147569656372e-01" cType="1" res="2.8744989540427923e-03" rms="4.5243504643440247e-01" purity="5.0477910041809082e-01" nType="0">
        <Node pos="l" depth="1" NCoef="0" IVar="2" Cut="9.1005688905715942e-01" cType="1" res="-3.4562631044536829e-03" rms="4.5687136054039001e-01" purity="4.7780165076255798e-01" nType="0">
          <Node pos="l" depth="2" NCoef="0" IVar="-1" Cut="0.0000000000000000e+00" cType="1" res="7.7126300311647356e-05" rms="4.5417940616607666e-01" purity="4.5558270812034607e-01" nType="-99"/>
          <Node pos="r" depth="2" NCoef="0" IVar="-1" Cut="0.0000000000000000e+00" cType="1" res="-9.1610400704666972e-04" rms="4.6649104356765747e-01" purity="5.6434786319732666e-01" nType="-99"/>
        </Node>
        <Node pos="r" depth="1" NCoef="0" IVar="7" Cut="8.9366519451141357e-01" cType="1" res="4.3144430965185165e-02" rms="4.2090457677841187e-01" purity="6.7638242244720459e-01" nType="0">
          <Node pos="l" depth="2" NCoef="0" IVar="-1" Cut="0.0000000000000000e+00" cType="1" res="2.5746824685484171e-03" rms="4.2597702145576477e-01" purity="6.7595654726028442e-01" nType="-99"/>
          <Node pos="r" depth="2" NCoef="0" IVar="-1" Cut="0.0000000000000000e+00" cType="1" res="9.1385678388178349e-04" rms="4.1397395730018616e-01" purity="6.7687386274337769e-01" nType="-99"/>
        </Node>
      </Node>
    </BinaryTree>
    <BinaryTree type="DecisionTree" boostWeight="1.0000000000000000e+00" itree="659">
      <Node pos="s" depth="0" NCoef="0" IVar="6" Cut="4.0018115192651749e-02" cType="1" res="2.8522359207272530e-03" rms="4.5258200168609619e-01" purity="5.0965833663940430e-01" nType="0">
        <Node pos="l" depth="1" NCoef="0" IVar="5" Cut="1.7037984132766724e+00" cType="1" res="5.7223187759518623e-03" rms="4.5232835412025452e-01" purity="5.1881706714630127e-01" nType="0">
          <Node pos="l" depth="2" NCoef="0" IVar="-1" Cut="0.0000000000000000e+00" cType="1" res="3.2571470364928246e-04" rms="4.6034532785415649e-01" purity="5.5529898405075073e-01" nType="-99"/>
          <Node pos="r" depth="2" NCoef="0" IVar="-1" Cut="0.0000000000000000e+00" cType="1" res="-1.0371265234425664e-03" rms="3.6426863074302673e-01" purity="1.6819767653942108e-01" nType="-99"/>
        </Node>
        <Node pos="r" depth="1" NCoef="0" IVar="-1" Cut="0.0000000000000000e+00" cType="1" res="-1.1463603004813194e-03" rms="4.5419055223464966e-01" purity="3.6982351541519165e-01" nType="-99"/>
      </Node>
    </BinaryTree>
    <BinaryTree type="DecisionTree" boostWeight="1.0000000000000000e+00" itree="660">
      <Node pos="s" depth="0" NCoef="0" IVar="7" Cut="9.4621998071670532e-01" cType="1" res="-3.7124403752386570e-03" rms="4.5405197143554688e-01" purity="5.0395023822784424e-01" nType="0">
        <Node pos="l" depth="1" NCoef="0" IVar="4" Cut="1.0602333831787109e+02" cType="1" res="-7.1524633094668388e-03" rms="4.5519149303436279e-01" purity="4.9319210648536682e-01" nType="0">
          <Node pos="l" depth="2" NCoef="0" IVar="-1" Cut="0.0000000000000000e+00" cType="1" res="-7.5022084638476372e-04" rms="4.6143043041229248e-01" purity="4.5678165555000305e-01" nType="-99"/>
          <Node pos="r" depth="2" NCoef="0" IVar="-1" Cut="0.0000000000000000e+00" cType="1" res="-1.9532957594492473e-05" rms="4.5262467861175537e-01" purity="5.0703418254852295e-01" nType="-99"/>
        </Node>
        <Node pos="r" depth="1" NCoef="0" IVar="-1" Cut="0.0000000000000000e+00" cType="1" res="2.5221542455255985e-03" rms="4.2851933836936951e-01" purity="6.9640940427780151e-01" nType="-99"/>
      </Node>
    </BinaryTree>
    <BinaryTree type="DecisionTree" boostWeight="1.0000000000000000e+00" itree="661">
      <Node pos="s" depth="0" NCoef="0" IVar="3" Cut="4.1561588287353516e+01" cType="1" res="-5.7581271976232529e-03" rms="4.5390844345092773e-01" purity="4.9773171544075012e-01" nType="0">
        <Node pos="l" depth="1" NCoef="0" IVar="6" Cut="1.9211173057556152e-02" cType="1" res="-3.9523866027593613e-02" rms="4.4877815246582031e-01" purity="3.7889549136161804e-01" nType="0">
          <Node pos="l" depth="2" NCoef="0" IVar="-1" Cut="0.0000000000000000e+00" cType="1" res="-2.1669645793735981e-03" rms="4.5497032999992371e-01" purity="3.9048281311988831e-01" nType="-99"/>
          <Node pos="r" depth="2" NCoef="0" IVar="-1" Cut="0.0000000000000000e+00" cType="1" res="2.2538188204634935e-04" rms="4.3671825528144836e-01" purity="3.6533403396606445e-01" nType="-99"/>
        </Node>
        <Node pos="r" depth="1" NCoef="0" IVar="5" Cut="1.7043089866638184e+00" cType="1" res="-3.2049618312157691e-04" rms="4.5449477434158325e-01" purity="5.1686906814575195e-01" nType="0">
          <Node pos="l" depth="2" NCoef="0" IVar="-1" Cut="0.0000000000000000e+00" cType="1" res="1.0730731446528807e-04" rms="4.6186459064483643e-01" purity="5.5299037694931030e-01" nType="-99"/>
          <Node pos="r" depth="2" NCoef="0" IVar="-1" Cut="0.0000000000000000e+00" cType="1" res="-1.0434131836518645e-03" rms="3.7568935751914978e-01" purity="1.7351859807968140e-01" nType="-99"/>
        </Node>
      </Node>
    </BinaryTree>
    <BinaryTree type="DecisionTree" boostWeight="1.0000000000000000e+00" itree="662">
      <Node pos="s" depth="0" NCoef="0" IVar="6" Cut="6.4383768476545811e-03" cType="1" res="-4.9445391632616520e-03" rms="4.5371535420417786e-01" purity="4.9781402945518494e-01" nType="0">
        <Node pos="l" depth="1" NCoef="0" IVar="9" Cut="9.6900504827499390e-01" cType="1" res="-3.0184393748641014e-02" rms="4.4943279027938843e-01" purity="5.6690841913223267e-01" nType="0">
          <Node pos="l" depth="2" NCoef="0" IVar="-1" Cut="0.0000000000000000e+00" cType="1" res="-2.3306179791688919e-03" rms="4.5874637365341187e-01" purity="4.6836754679679871e-01" nType="-99"/>
          <Node pos="r" depth="2" NCoef="0" IVar="-1" Cut="0.0000000000000000e+00" cType="1" res="-3.6163025652058423e-04" rms="4.4359678030014038e-01" purity="6.1191701889038086e-01" nType="-99"/>
        </Node>
        <Node pos="r" depth="1" NCoef="0" IVar="0" Cut="9.7877275943756104e-01" cType="1" res="3.7159204948693514e-03" rms="4.5485290884971619e-01" purity="4.7410589456558228e-01" nType="0">
          <Node pos="l" depth="2" NCoef="0" IVar="-1" Cut="0.0000000000000000e+00" cType="1" res="8.0907187657430768e-04" rms="4.5906108617782593e-01" purity="6.2842297554016113e-01" nType="-99"/>
          <Node pos="r" depth="2" NCoef="0" IVar="-1" Cut="0.0000000000000000e+00" cType="1" res="-1.9479566253721714e-04" rms="4.5217302441596985e-01" purity="3.8861021399497986e-01" nType="-99"/>
        </Node>
      </Node>
    </BinaryTree>
    <BinaryTree type="DecisionTree" boostWeight="1.0000000000000000e+00" itree="663">
      <Node pos="s" depth="0" NCoef="0" IVar="1" Cut="1.3121314048767090e+00" cType="1" res="-6.1736622592434287e-04" rms="4.5323082804679871e-01" purity="5.0192207098007202e-01" nType="0">
        <Node pos="l" depth="1" NCoef="0" IVar="0" Cut="8.3076947927474976e-01" cType="1" res="9.0179815888404846e-03" rms="4.5668885111808777e-01" purity="5.7191699743270874e-01" nType="0">
          <Node pos="l" depth="2" NCoef="0" IVar="-1" Cut="0.0000000000000000e+00" cType="1" res="-6.2933465233072639e-04" rms="4.5259124040603638e-01" purity="6.5378534793853760e-01" nType="-99"/>
          <Node pos="r" depth="2" NCoef="0" IVar="-1" Cut="0.0000000000000000e+00" cType="1" res="6.6010560840368271e-04" rms="4.5804652571678162e-01" purity="5.3599065542221069e-01" nType="-99"/>
        </Node>
        <Node pos="r" depth="1" NCoef="0" IVar="4" Cut="9.3338180541992188e+01" cType="1" res="-1.8198043107986450e-02" rms="4.4631668925285339e-01" purity="3.7420919537544250e-01" nType="0">
          <Node pos="l" depth="2" NCoef="0" IVar="-1" Cut="0.0000000000000000e+00" cType="1" res="-1.5653715236112475e-03" rms="4.2122793197631836e-01" purity="2.6891449093818665e-01" nType="-99"/>
          <Node pos="r" depth="2" NCoef="0" IVar="-1" Cut="0.0000000000000000e+00" cType="1" res="-2.5797894340939820e-04" rms="4.5217072963714600e-01" purity="4.0178433060646057e-01" nType="-99"/>
        </Node>
      </Node>
    </BinaryTree>
    <BinaryTree type="DecisionTree" boostWeight="1.0000000000000000e+00" itree="664">
      <Node pos="s" depth="0" NCoef="0" IVar="1" Cut="2.5329720973968506e+00" cType="1" res="-2.5230452883988619e-03" rms="4.5400404930114746e-01" purity="5.0085258483886719e-01" nType="0">
        <Node pos="l" depth="1" NCoef="0" IVar="5" Cut="1.1471773386001587e+00" cType="1" res="8.0255354987457395e-04" rms="4.5838814973831177e-01" purity="5.2292847633361816e-01" nType="0">
          <Node pos="l" depth="2" NCoef="0" IVar="-1" Cut="0.0000000000000000e+00" cType="1" res="-2.6312237605452538e-04" rms="4.6310067176818848e-01" purity="6.0259401798248291e-01" nType="-99"/>
          <Node pos="r" depth="2" NCoef="0" IVar="-1" Cut="0.0000000000000000e+00" cType="1" res="4.9617985496297479e-04" rms="4.4874048233032227e-01" purity="3.6950024962425232e-01" nType="-99"/>
        </Node>
        <Node pos="r" depth="1" NCoef="0" IVar="-1" Cut="0.0000000000000000e+00" cType="1" res="-1.2665084796026349e-03" rms="3.9495727419853210e-01" purity="2.3386162519454956e-01" nType="-99"/>
      </Node>
    </BinaryTree>
    <BinaryTree type="DecisionTree" boostWeight="1.0000000000000000e+00" itree="665">
      <Node pos="s" depth="0" NCoef="0" IVar="9" Cut="7.6302671432495117e-01" cType="1" res="-3.6253582220524549e-03" rms="4.5231556892395020e-01" purity="4.9859029054641724e-01" nType="0">
        <Node pos="l" depth="1" NCoef="0" IVar="-1" Cut="0.0000000000000000e+00" cType="1" res="-1.6692305216565728e-03" rms="4.0437114238739014e-01" purity="2.3442451655864716e-01" nType="-99"/>
        <Node pos="r" depth="1" NCoef="0" IVar="4" Cut="6.5481933593750000e+01" cType="1" res="6.1610026750713587e-04" rms="4.5546269416809082e-01" purity="5.1860719919204712e-01" nType="0">
          <Node pos="l" depth="2" NCoef="0" IVar="-1" Cut="0.0000000000000000e+00" cType="1" res="-1.4045699499547482e-03" rms="4.5358210802078247e-01" purity="3.7010318040847778e-01" nType="-99"/>
          <Node pos="r" depth="2" NCoef="0" IVar="-1" Cut="0.0000000000000000e+00" cType="1" res="1.8175206787418574e-04" rms="4.5534953474998474e-01" purity="5.3272879123687744e-01" nType="-99"/>
        </Node>
      </Node>
    </BinaryTree>
    <BinaryTree type="DecisionTree" boostWeight="1.0000000000000000e+00" itree="666">
      <Node pos="s" depth="0" NCoef="0" IVar="9" Cut="7.8475689888000488e-01" cType="1" res="3.4665577113628387e-03" rms="4.5311823487281799e-01" purity="5.0747269392013550e-01" nType="0">
        <Node pos="l" depth="1" NCoef="0" IVar="-1" Cut="0.0000000000000000e+00" cType="1" res="-1.0827962541952729e-03" rms="4.2732924222946167e-01" purity="2.7454808354377747e-01" nType="-99"/>
        <Node pos="r" depth="1" NCoef="0" IVar="3" Cut="1.4193238830566406e+02" cType="1" res="7.0807882584631443e-03" rms="4.5511260628700256e-01" purity="5.2772915363311768e-01" nType="0">
          <Node pos="l" depth="2" NCoef="0" IVar="-1" Cut="0.0000000000000000e+00" cType="1" res="3.7437037099152803e-04" rms="4.5600870251655579e-01" purity="5.4033416509628296e-01" nType="-99"/>
          <Node pos="r" depth="2" NCoef="0" IVar="-1" Cut="0.0000000000000000e+00" cType="1" res="-1.0383251355960965e-03" rms="4.4355252385139465e-01" purity="3.9651721715927124e-01" nType="-99"/>
        </Node>
      </Node>
    </BinaryTree>
    <BinaryTree type="DecisionTree" boostWeight="1.0000000000000000e+00" itree="667">
      <Node pos="s" depth="0" NCoef="0" IVar="7" Cut="5.2563363313674927e-01" cType="1" res="-4.8106191679835320e-03" rms="4.5191720128059387e-01" purity="4.9882331490516663e-01" nType="0">
        <Node pos="l" depth="1" NCoef="0" IVar="5" Cut="9.1935616731643677e-01" cType="1" res="-5.3165875375270844e-02" rms="4.4610211253166199e-01" purity="3.2991096377372742e-01" nType="0">
          <Node pos="l" depth="2" NCoef="0" IVar="-1" Cut="0.0000000000000000e+00" cType="1" res="-2.6504124980419874e-03" rms="4.6945974230766296e-01" purity="3.9066675305366516e-01" nType="-99"/>
          <Node pos="r" depth="2" NCoef="0" IVar="-1" Cut="0.0000000000000000e+00" cType="1" res="-3.9706905954517424e-04" rms="4.2263081669807434e-01" purity="2.8213313221931458e-01" nType="-99"/>
        </Node>
        <Node pos="r" depth="1" NCoef="0" IVar="0" Cut="1.4535858631134033e+00" cType="1" res="2.4125294294208288e-03" rms="4.5233589410781860e-01" purity="5.2405488491058350e-01" nType="0">
          <Node pos="l" depth="2" NCoef="0" IVar="-1" Cut="0.0000000000000000e+00" cType="1" res="3.6480772541835904e-04" rms="4.5746198296546936e-01" purity="5.7647448778152466e-01" nType="-99"/>
          <Node pos="r" depth="2" NCoef="0" IVar="-1" Cut="0.0000000000000000e+00" cType="1" res="-9.4618595903739333e-04" rms="4.2755031585693359e-01" purity="2.9641866683959961e-01" nType="-99"/>
        </Node>
      </Node>
    </BinaryTree>
    <BinaryTree type="DecisionTree" boostWeight="1.0000000000000000e+00" itree="668">
      <Node pos="s" depth="0" NCoef="0" IVar="6" Cut="2.5791544467210770e-02" cType="1" res="-1.3787849457003176e-04" rms="4.5488622784614563e-01" purity="5.0462657213211060e-01" nType="0">
        <Node pos="l" depth="1" NCoef="0" IVar="4" Cut="8.6385887145996094e+01" cType="1" res="-1.1233191937208176e-02" rms="4.5564156770706177e-01" purity="5.3014492988586426e-01" nType="0">
          <Node pos="l" depth="2" NCoef="0" IVar="-1" Cut="0.0000000000000000e+00" cType="1" res="-1.4067729935050011e-03" rms="4.5768994092941284e-01" purity="4.2815339565277100e-01" nType="-99"/>
          <Node pos="r" depth="2" NCoef="0" IVar="-1" Cut="0.0000000000000000e+00" cType="1" res="-1.2003509618807584e-04" rms="4.5483103394508362e-01" purity="5.5148565769195557e-01" nType="-99"/>
        </Node>
        <Node pos="r" depth="1" NCoef="0" IVar="2" Cut="7.5744122266769409e-01" cType="1" res="2.3308914154767990e-02" rms="4.5239159464836121e-01" purity="4.5070093870162964e-01" nType="0">
          <Node pos="l" depth="2" NCoef="0" IVar="-1" Cut="0.0000000000000000e+00" cType="1" res="-4.2451560148037970e-04" rms="4.3219238519668579e-01" purity="2.9811710119247437e-01" nType="-99"/>
          <Node pos="r" depth="2" NCoef="0" IVar="-1" Cut="0.0000000000000000e+00" cType="1" res="1.0431013070046902e-03" rms="4.5676267147064209e-01" purity="4.8843869566917419e-01" nType="-99"/>
        </Node>
      </Node>
    </BinaryTree>
    <BinaryTree type="DecisionTree" boostWeight="1.0000000000000000e+00" itree="669">
      <Node pos="s" depth="0" NCoef="0" IVar="3" Cut="1.0377910614013672e+02" cType="1" res="-2.3684124462306499e-03" rms="4.5209157466888428e-01" purity="4.9999538064002991e-01" nType="0">
        <Node pos="l" depth="1" NCoef="0" IVar="1" Cut="3.0151748657226562e-01" cType="1" res="-1.0961704887449741e-02" rms="4.5799893140792847e-01" purity="4.8002171516418457e-01" nType="0">
          <Node pos="l" depth="2" NCoef="0" IVar="-1" Cut="0.0000000000000000e+00" cType="1" res="1.1482217814773321e-03" rms="4.5557659864425659e-01" purity="6.4112436771392822e-01" nType="-99"/>
          <Node pos="r" depth="2" NCoef="0" IVar="-1" Cut="0.0000000000000000e+00" cType="1" res="-4.9393071094527841e-04" rms="4.5803347229957581e-01" purity="4.6084091067314148e-01" nType="-99"/>
        </Node>
        <Node pos="r" depth="1" NCoef="0" IVar="3" Cut="1.4119888305664062e+02" cType="1" res="2.1295974031090736e-02" rms="4.3453219532966614e-01" purity="5.5499935150146484e-01" nType="0">
          <Node pos="l" depth="2" NCoef="0" IVar="-1" Cut="0.0000000000000000e+00" cType="1" res="1.7358079785481095e-03" rms="4.2825183272361755e-01" purity="6.2396645545959473e-01" nType="-99"/>
          <Node pos="r" depth="2" NCoef="0" IVar="-1" Cut="0.0000000000000000e+00" cType="1" res="-8.7416562018916011e-04" rms="4.4374141097068787e-01" purity="4.0634605288505554e-01" nType="-99"/>
        </Node>
      </Node>
    </BinaryTree>
    <BinaryTree type="DecisionTree" boostWeight="1.0000000000000000e+00" itree="670">
      <Node pos="s" depth="0" NCoef="0" IVar="3" Cut="1.0356473541259766e+02" cType="1" res="-3.1512291170656681e-03" rms="4.5280298590660095e-01" purity="5.0200527906417847e-01" nType="0">
        <Node pos="l" depth="1" NCoef="0" IVar="4" Cut="2.7614639282226562e+02" cType="1" res="-1.2491897679865360e-02" rms="4.5867824554443359e-01" purity="4.8037266731262207e-01" nType="0">
          <Node pos="l" depth="2" NCoef="0" IVar="-1" Cut="0.0000000000000000e+00" cType="1" res="-2.4497669073753059e-04" rms="4.6238189935684204e-01" purity="5.0252228975296021e-01" nType="-99"/>
          <Node pos="r" depth="2" NCoef="0" IVar="-1" Cut="0.0000000000000000e+00" cType="1" res="-1.2154320720583200e-03" rms="4.3422907590866089e-01" purity="3.4535735845565796e-01" nType="-99"/>
        </Node>
        <Node pos="r" depth="1" NCoef="0" IVar="1" Cut="1.0815492868423462e+00" cType="1" res="2.1639851853251457e-02" rms="4.3585684895515442e-01" purity="5.5942040681838989e-01" nType="0">
          <Node pos="l" depth="2" NCoef="0" IVar="-1" Cut="0.0000000000000000e+00" cType="1" res="1.8527384381741285e-03" rms="4.2431819438934326e-01" purity="6.7196679115295410e-01" nType="-99"/>
          <Node pos="r" depth="2" NCoef="0" IVar="-1" Cut="0.0000000000000000e+00" cType="1" res="-1.0099108476424590e-04" rms="4.4708326458930969e-01" purity="4.3371820449829102e-01" nType="-99"/>
        </Node>
      </Node>
    </BinaryTree>
    <BinaryTree type="DecisionTree" boostWeight="1.0000000000000000e+00" itree="671">
      <Node pos="s" depth="0" NCoef="0" IVar="9" Cut="9.3952250480651855e-01" cType="1" res="-4.0649250149726868e-03" rms="4.5312216877937317e-01" purity="4.9810174107551575e-01" nType="0">
        <Node pos="l" depth="1" NCoef="0" IVar="0" Cut="7.8376281261444092e-01" cType="1" res="-2.2584605962038040e-02" rms="4.5147687196731567e-01" purity="3.8711237907409668e-01" nType="0">
          <Node pos="l" depth="2" NCoef="0" IVar="-1" Cut="0.0000000000000000e+00" cType="1" res="1.3357135467231274e-03" rms="4.6817776560783386e-01" purity="6.2192076444625854e-01" nType="-99"/>
          <Node pos="r" depth="2" NCoef="0" IVar="-1" Cut="0.0000000000000000e+00" cType="1" res="-9.5826166216284037e-04" rms="4.4751474261283875e-01" purity="3.4471821784973145e-01" nType="-99"/>
        </Node>
        <Node pos="r" depth="1" NCoef="0" IVar="0" Cut="1.3425362110137939e+00" cType="1" res="5.7598319835960865e-03" rms="4.5368576049804688e-01" purity="5.5698204040527344e-01" nType="0">
          <Node pos="l" depth="2" NCoef="0" IVar="-1" Cut="0.0000000000000000e+00" cType="1" res="-8.6169115093071014e-05" rms="4.5662245154380798e-01" purity="6.0759979486465454e-01" nType="-99"/>
          <Node pos="r" depth="2" NCoef="0" IVar="-1" Cut="0.0000000000000000e+00" cType="1" res="9.3095778720453382e-04" rms="4.4387385249137878e-01" purity="4.0533122420310974e-01" nType="-99"/>
        </Node>
      </Node>
    </BinaryTree>
    <BinaryTree type="DecisionTree" boostWeight="1.0000000000000000e+00" itree="672">
      <Node pos="s" depth="0" NCoef="0" IVar="3" Cut="3.8080696105957031e+01" cType="1" res="3.0044494196772575e-03" rms="4.5338833332061768e-01" purity="5.0653791427612305e-01" nType="0">
        <Node pos="l" depth="1" NCoef="0" IVar="-1" Cut="0.0000000000000000e+00" cType="1" res="-9.6020847558975220e-04" rms="4.5234116911888123e-01" purity="3.7731671333312988e-01" nType="-99"/>
        <Node pos="r" depth="1" NCoef="0" IVar="4" Cut="2.7118325805664062e+02" cType="1" res="6.9425492547452450e-03" rms="4.5332470536231995e-01" purity="5.2043622732162476e-01" nType="0">
          <Node pos="l" depth="2" NCoef="0" IVar="-1" Cut="0.0000000000000000e+00" cType="1" res="4.6173587907105684e-04" rms="4.5620360970497131e-01" purity="5.5351793766021729e-01" nType="-99"/>
          <Node pos="r" depth="2" NCoef="0" IVar="-1" Cut="0.0000000000000000e+00" cType="1" res="-5.3964433027431369e-04" rms="4.4152107834815979e-01" purity="3.9674717187881470e-01" nType="-99"/>
        </Node>
      </Node>
    </BinaryTree>
    <BinaryTree type="DecisionTree" boostWeight="1.0000000000000000e+00" itree="673">
      <Node pos="s" depth="0" NCoef="0" IVar="1" Cut="2.6016178727149963e-01" cType="1" res="-5.4942728020250797e-03" rms="4.5269441604614258e-01" purity="4.9505352973937988e-01" nType="0">
        <Node pos="l" depth="1" NCoef="0" IVar="-1" Cut="0.0000000000000000e+00" cType="1" res="1.7996657406911254e-03" rms="4.3448358774185181e-01" purity="6.7208844423294067e-01" nType="-99"/>
        <Node pos="r" depth="1" NCoef="0" IVar="5" Cut="1.7480139732360840e+00" cType="1" res="-9.8103750497102737e-03" rms="4.5399346947669983e-01" purity="4.7960382699966431e-01" nType="0">
          <Node pos="l" depth="2" NCoef="0" IVar="-1" Cut="0.0000000000000000e+00" cType="1" res="-2.1773696062155068e-04" rms="4.6296206116676331e-01" purity="5.1261013746261597e-01" nType="-99"/>
          <Node pos="r" depth="2" NCoef="0" IVar="-1" Cut="0.0000000000000000e+00" cType="1" res="-1.2906979536637664e-03" rms="3.5172745585441589e-01" purity="1.5280474722385406e-01" nType="-99"/>
        </Node>
      </Node>
    </BinaryTree>
    <BinaryTree type="DecisionTree" boostWeight="1.0000000000000000e+00" itree="674">
      <Node pos="s" depth="0" NCoef="0" IVar="7" Cut="5.1512938737869263e-01" cType="1" res="4.3713692575693130e-03" rms="4.5047873258590698e-01" purity="5.0578767061233521e-01" nType="0">
        <Node pos="l" depth="1" NCoef="0" IVar="-1" Cut="0.0000000000000000e+00" cType="1" res="-1.2587143573909998e-03" rms="4.4164836406707764e-01" purity="3.1974798440933228e-01" nType="-99"/>
        <Node pos="r" depth="1" NCoef="0" IVar="3" Cut="9.0370285034179688e+01" cType="1" res="9.1126775369048119e-03" rms="4.5104342699050903e-01" purity="5.2381861209869385e-01" nType="0">
          <Node pos="l" depth="2" NCoef="0" IVar="-1" Cut="0.0000000000000000e+00" cType="1" res="-6.1642698710784316e-05" rms="4.5900213718414307e-01" purity="4.9092906713485718e-01" nType="-99"/>
          <Node pos="r" depth="2" NCoef="0" IVar="-1" Cut="0.0000000000000000e+00" cType="1" res="1.0541412048041821e-03" rms="4.3618264794349670e-01" purity="5.8104664087295532e-01" nType="-99"/>
        </Node>
      </Node>
    </BinaryTree>
    <BinaryTree type="DecisionTree" boostWeight="1.0000000000000000e+00" itree="675">
      <Node pos="s" depth="0" NCoef="0" IVar="1" Cut="2.4907295703887939e+00" cType="1" res="-1.0767704807221889e-02" rms="4.5468106865882874e-01" purity="4.9128568172454834e-01" nType="0">
        <Node pos="l" depth="1" NCoef="0" IVar="2" Cut="7.7308368682861328e-01" cType="1" res="-8.0979960039258003e-03" rms="4.6020716428756714e-01" purity="5.1489281654357910e-01" nType="0">
          <Node pos="l" depth="2" NCoef="0" IVar="-1" Cut="0.0000000000000000e+00" cType="1" res="-8.6415844270959496e-04" rms="4.5099821686744690e-01" purity="3.1797766685485840e-01" nType="-99"/>
          <Node pos="r" depth="2" NCoef="0" IVar="-1" Cut="0.0000000000000000e+00" cType="1" res="-1.2376188533380628e-04" rms="4.6180486679077148e-01" purity="5.5233180522918701e-01" nType="-99"/>
        </Node>
        <Node pos="r" depth="1" NCoef="0" IVar="-1" Cut="0.0000000000000000e+00" cType="1" res="-1.1934390058740973e-03" rms="3.8815188407897949e-01" purity="2.3378336429595947e-01" nType="-99"/>
      </Node>
    </BinaryTree>
    <BinaryTree type="DecisionTree" boostWeight="1.0000000000000000e+00" itree="676">
      <Node pos="s" depth="0" NCoef="0" IVar="4" Cut="6.7908752441406250e+01" cType="1" res="-6.2275966629385948e-03" rms="4.5206037163734436e-01" purity="4.9547916650772095e-01" nType="0">
        <Node pos="l" depth="1" NCoef="0" IVar="-1" Cut="0.0000000000000000e+00" cType="1" res="-1.4065104769542813e-03" rms="4.3699279427528381e-01" purity="3.4657508134841919e-01" nType="-99"/>
        <Node pos="r" depth="1" NCoef="0" IVar="3" Cut="1.3222792053222656e+02" cType="1" res="-1.7190375365316868e-03" rms="4.5342120528221130e-01" purity="5.1150196790695190e-01" nType="0">
          <Node pos="l" depth="2" NCoef="0" IVar="-1" Cut="0.0000000000000000e+00" cType="1" res="1.1157388507854193e-04" rms="4.5502871274948120e-01" purity="5.2457183599472046e-01" nType="-99"/>
          <Node pos="r" depth="2" NCoef="0" IVar="-1" Cut="0.0000000000000000e+00" cType="1" res="-1.1425517732277513e-03" rms="4.4090467691421509e-01" purity="4.2341482639312744e-01" nType="-99"/>
        </Node>
      </Node>
    </BinaryTree>
    <BinaryTree type="DecisionTree" boostWeight="1.0000000000000000e+00" itree="677">
      <Node pos="s" depth="0" NCoef="0" IVar="3" Cut="1.0232089996337891e+02" cType="1" res="-5.7287109084427357e-03" rms="4.5273509621620178e-01" purity="4.9341586232185364e-01" nType="0">
        <Node pos="l" depth="1" NCoef="0" IVar="4" Cut="1.2864036560058594e+02" cType="1" res="-1.4781082980334759e-02" rms="4.5780831575393677e-01" purity="4.7248253226280212e-01" nType="0">
          <Node pos="l" depth="2" NCoef="0" IVar="-1" Cut="0.0000000000000000e+00" cType="1" res="-7.6260315836407244e-05" rms="4.5997118949890137e-01" purity="5.0361388921737671e-01" nType="-99"/>
          <Node pos="r" depth="2" NCoef="0" IVar="-1" Cut="0.0000000000000000e+00" cType="1" res="-7.9436966916546226e-04" rms="4.5555284619331360e-01" purity="4.4433563947677612e-01" nType="-99"/>
        </Node>
        <Node pos="r" depth="1" NCoef="0" IVar="9" Cut="9.1942226886749268e-01" cType="1" res="1.7470154911279678e-02" rms="4.3861439824104309e-01" purity="5.4706257581710815e-01" nType="0">
          <Node pos="l" depth="2" NCoef="0" IVar="-1" Cut="0.0000000000000000e+00" cType="1" res="-9.9703820887953043e-04" rms="4.4710788130760193e-01" purity="3.8497865200042725e-01" nType="-99"/>
          <Node pos="r" depth="2" NCoef="0" IVar="-1" Cut="0.0000000000000000e+00" cType="1" res="1.5746870776638389e-03" rms="4.3281945586204529e-01" purity="6.1935913562774658e-01" nType="-99"/>
        </Node>
      </Node>
    </BinaryTree>
    <BinaryTree type="DecisionTree" boostWeight="1.0000000000000000e+00" itree="678">
      <Node pos="s" depth="0" NCoef="0" IVar="0" Cut="7.5442034006118774e-01" cType="1" res="-2.5731103960424662e-03" rms="4.5175209641456604e-01" purity="4.9814796447753906e-01" nType="0">
        <Node pos="l" depth="1" NCoef="0" IVar="8" Cut="5.6775403022766113e-01" cType="1" res="3.1251031905412674e-02" rms="4.3561139702796936e-01" purity="7.0695090293884277e-01" nType="0">
          <Node pos="l" depth="2" NCoef="0" IVar="-1" Cut="0.0000000000000000e+00" cType="1" res="2.4671712890267372e-04" rms="4.6872669458389282e-01" purity="6.1552679538726807e-01" nType="-99"/>
          <Node pos="r" depth="2" NCoef="0" IVar="-1" Cut="0.0000000000000000e+00" cType="1" res="2.8646374121308327e-03" rms="4.0283292531967163e-01" purity="7.8784281015396118e-01" nType="-99"/>
        </Node>
        <Node pos="r" depth="1" NCoef="0" IVar="4" Cut="1.6376885986328125e+02" cType="1" res="-8.7645007297396660e-03" rms="4.5437198877334595e-01" purity="4.5992732048034668e-01" nType="0">
          <Node pos="l" depth="2" NCoef="0" IVar="-1" Cut="0.0000000000000000e+00" cType="1" res="1.3839479652233422e-04" rms="4.5624348521232605e-01" purity="5.0983905792236328e-01" nType="-99"/>
          <Node pos="r" depth="2" NCoef="0" IVar="-1" Cut="0.0000000000000000e+00" cType="1" res="-7.2132033528760076e-04" rms="4.5162132382392883e-01" purity="3.9998254179954529e-01" nType="-99"/>
        </Node>
      </Node>
    </BinaryTree>
    <BinaryTree type="DecisionTree" boostWeight="1.0000000000000000e+00" itree="679">
      <Node pos="s" depth="0" NCoef="0" IVar="1" Cut="2.5317099094390869e+00" cType="1" res="3.9261556230485439e-03" rms="4.5222526788711548e-01" purity="5.0653988122940063e-01" nType="0">
        <Node pos="l" depth="1" NCoef="0" IVar="4" Cut="2.5793692016601562e+02" cType="1" res="8.1136999651789665e-03" rms="4.5709800720214844e-01" purity="5.3094565868377686e-01" nType="0">
          <Node pos="l" depth="2" NCoef="0" IVar="-1" Cut="0.0000000000000000e+00" cType="1" res="4.6137894969433546e-04" rms="4.5886236429214478e-01" purity="5.5931484699249268e-01" nType="-99"/>
          <Node pos="r" depth="2" NCoef="0" IVar="-1" Cut="0.0000000000000000e+00" cType="1" res="-3.9354109321720898e-04" rms="4.4963288307189941e-01" purity="4.2187541723251343e-01" nType="-99"/>
        </Node>
        <Node pos="r" depth="1" NCoef="0" IVar="-1" Cut="0.0000000000000000e+00" cType="1" res="-1.2688071001321077e-03" rms="3.9040198922157288e-01" purity="2.3283305764198303e-01" nType="-99"/>
      </Node>
    </BinaryTree>
    <BinaryTree type="DecisionTree" boostWeight="1.0000000000000000e+00" itree="680">
      <Node pos="s" depth="0" NCoef="0" IVar="6" Cut="2.7081150561571121e-02" cType="1" res="-1.0557779110968113e-02" rms="4.5395502448081970e-01" purity="4.9395388364791870e-01" nType="0">
        <Node pos="l" depth="1" NCoef="0" IVar="2" Cut="9.3745243549346924e-01" cType="1" res="-1.9503321498632431e-02" rms="4.5418888330459595e-01" purity="5.1484107971191406e-01" nType="0">
          <Node pos="l" depth="2" NCoef="0" IVar="-1" Cut="0.0000000000000000e+00" cType="1" res="-8.5118593415245414e-04" rms="4.5787990093231201e-01" purity="4.7808450460433960e-01" nType="-99"/>
          <Node pos="r" depth="2" NCoef="0" IVar="-1" Cut="0.0000000000000000e+00" cType="1" res="1.6202850383706391e-04" rms="4.4153407216072083e-01" purity="6.3053596019744873e-01" nType="-99"/>
        </Node>
        <Node pos="r" depth="1" NCoef="0" IVar="6" Cut="3.8687858730554581e-02" cType="1" res="1.1942635290324688e-02" rms="4.5258525013923645e-01" purity="4.4141709804534912e-01" nType="0">
          <Node pos="l" depth="2" NCoef="0" IVar="-1" Cut="0.0000000000000000e+00" cType="1" res="8.0656190402805805e-04" rms="4.5101428031921387e-01" purity="4.6102672815322876e-01" nType="-99"/>
          <Node pos="r" depth="2" NCoef="0" IVar="-1" Cut="0.0000000000000000e+00" cType="1" res="-7.5088528683409095e-04" rms="4.5482715964317322e-01" purity="3.8604718446731567e-01" nType="-99"/>
        </Node>
      </Node>
    </BinaryTree>
    <BinaryTree type="DecisionTree" boostWeight="1.0000000000000000e+00" itree="681">
      <Node pos="s" depth="0" NCoef="0" IVar="4" Cut="6.5790687561035156e+01" cType="1" res="-5.0908089615404606e-03" rms="4.5408329367637634e-01" purity="4.9863132834434509e-01" nType="0">
        <Node pos="l" depth="1" NCoef="0" IVar="-1" Cut="0.0000000000000000e+00" cType="1" res="-1.2649588752537966e-03" rms="4.4602161645889282e-01" purity="3.5974833369255066e-01" nType="-99"/>
        <Node pos="r" depth="1" NCoef="0" IVar="7" Cut="8.3046352863311768e-01" cType="1" res="-1.1978020193055272e-03" rms="4.5471227169036865e-01" purity="5.1272070407867432e-01" nType="0">
          <Node pos="l" depth="2" NCoef="0" IVar="-1" Cut="0.0000000000000000e+00" cType="1" res="-2.9610347701236606e-04" rms="4.5863398909568787e-01" purity="4.7257506847381592e-01" nType="-99"/>
          <Node pos="r" depth="2" NCoef="0" IVar="-1" Cut="0.0000000000000000e+00" cType="1" res="1.2418848928064108e-03" rms="4.3787765502929688e-01" purity="6.6707754135131836e-01" nType="-99"/>
        </Node>
      </Node>
    </BinaryTree>
    <BinaryTree type="DecisionTree" boostWeight="1.0000000000000000e+00" itree="682">
      <Node pos="s" depth="0" NCoef="0" IVar="8" Cut="6.3709414005279541e-01" cType="1" res="-1.6137976199388504e-03" rms="4.5171442627906799e-01" purity="5.0015729665756226e-01" nType="0">
        <Node pos="l" depth="1" NCoef="0" IVar="4" Cut="2.5564871215820312e+02" cType="1" res="-8.5249198600649834e-03" rms="4.5514178276062012e-01" purity="4.7042238712310791e-01" nType="0">
          <Node pos="l" depth="2" NCoef="0" IVar="-1" Cut="0.0000000000000000e+00" cType="1" res="-4.4044812966603786e-05" rms="4.5893788337707520e-01" purity="5.0266784429550171e-01" nType="-99"/>
          <Node pos="r" depth="2" NCoef="0" IVar="-1" Cut="0.0000000000000000e+00" cType="1" res="-9.4696925953030586e-04" rms="4.4127288460731506e-01" purity="3.6188727617263794e-01" nType="-99"/>
        </Node>
        <Node pos="r" depth="1" NCoef="0" IVar="0" Cut="9.1813933849334717e-01" cType="1" res="3.6542318761348724e-02" rms="4.3030983209609985e-01" purity="6.6432279348373413e-01" nType="0">
          <Node pos="l" depth="2" NCoef="0" IVar="-1" Cut="0.0000000000000000e+00" cType="1" res="3.7132680881768465e-03" rms="3.7904852628707886e-01" purity="8.1275004148483276e-01" nType="-99"/>
          <Node pos="r" depth="2" NCoef="0" IVar="-1" Cut="0.0000000000000000e+00" cType="1" res="7.3327450081706047e-04" rms="4.5752650499343872e-01" purity="5.7561928033828735e-01" nType="-99"/>
        </Node>
      </Node>
    </BinaryTree>
    <BinaryTree type="DecisionTree" boostWeight="1.0000000000000000e+00" itree="683">
      <Node pos="s" depth="0" NCoef="0" IVar="4" Cut="1.2893598937988281e+02" cType="1" res="-1.7232282552868128e-03" rms="4.5495221018791199e-01" purity="5.0442284345626831e-01" nType="0">
        <Node pos="l" depth="1" NCoef="0" IVar="4" Cut="1.1971421051025391e+02" cType="1" res="1.5998346731066704e-02" rms="4.5062020421028137e-01" purity="5.4752254486083984e-01" nType="0">
          <Node pos="l" depth="2" NCoef="0" IVar="-1" Cut="0.0000000000000000e+00" cType="1" res="1.4563606237061322e-04" rms="4.5374795794487000e-01" purity="5.2112734317779541e-01" nType="-99"/>
          <Node pos="r" depth="2" NCoef="0" IVar="-1" Cut="0.0000000000000000e+00" cType="1" res="3.5935412161052227e-03" rms="4.2551705241203308e-01" purity="7.0196199417114258e-01" nType="-99"/>
        </Node>
        <Node pos="r" depth="1" NCoef="0" IVar="0" Cut="1.1966627836227417e+00" cType="1" res="-1.4514303766191006e-02" rms="4.5762729644775391e-01" purity="4.7331437468528748e-01" nType="0">
          <Node pos="l" depth="2" NCoef="0" IVar="-1" Cut="0.0000000000000000e+00" cType="1" res="-8.5804663831368089e-04" rms="4.6967789530754089e-01" purity="5.6128287315368652e-01" nType="-99"/>
          <Node pos="r" depth="2" NCoef="0" IVar="-1" Cut="0.0000000000000000e+00" cType="1" res="6.3913666963344440e-06" rms="4.4093358516693115e-01" purity="3.5824242234230042e-01" nType="-99"/>
        </Node>
      </Node>
    </BinaryTree>
    <BinaryTree type="DecisionTree" boostWeight="1.0000000000000000e+00" itree="684">
      <Node pos="s" depth="0" NCoef="0" IVar="4" Cut="1.3291340637207031e+02" cType="1" res="-6.7078489810228348e-03" rms="4.5493641495704651e-01" purity="4.9514719843864441e-01" nType="0">
        <Node pos="l" depth="1" NCoef="0" IVar="4" Cut="8.0393218994140625e+01" cType="1" res="5.1776086911559105e-03" rms="4.5328825712203979e-01" purity="5.3792101144790649e-01" nType="0">
          <Node pos="l" depth="2" NCoef="0" IVar="-1" Cut="0.0000000000000000e+00" cType="1" res="-7.1525422390550375e-04" rms="4.5214003324508667e-01" purity="4.0321254730224609e-01" nType="-99"/>
          <Node pos="r" depth="2" NCoef="0" IVar="-1" Cut="0.0000000000000000e+00" cType="1" res="6.5553956665098667e-04" rms="4.5319402217864990e-01" purity="5.9731256961822510e-01" nType="-99"/>
        </Node>
        <Node pos="r" depth="1" NCoef="0" IVar="0" Cut="8.8151693344116211e-01" cType="1" res="-1.6064083203673363e-02" rms="4.5601180195808411e-01" purity="4.6147561073303223e-01" nType="0">
          <Node pos="l" depth="2" NCoef="0" IVar="-1" Cut="0.0000000000000000e+00" cType="1" res="-1.6456525772809982e-03" rms="4.6629142761230469e-01" purity="6.0175186395645142e-01" nType="-99"/>
          <Node pos="r" depth="2" NCoef="0" IVar="-1" Cut="0.0000000000000000e+00" cType="1" res="-1.9629794405773282e-04" rms="4.5224943757057190e-01" purity="4.1651430726051331e-01" nType="-99"/>
        </Node>
      </Node>
    </BinaryTree>
    <BinaryTree type="DecisionTree" boostWeight="1.0000000000000000e+00" itree="685">
      <Node pos="s" depth="0" NCoef="0" IVar="0" Cut="1.6365941762924194e+00" cType="1" res="-5.0773276016116142e-03" rms="4.5174527168273926e-01" purity="4.9659362435340881e-01" nType="0">
        <Node pos="l" depth="1" NCoef="0" IVar="1" Cut="7.2408735752105713e-01" cType="1" res="-8.0583576345816255e-04" rms="4.5779547095298767e-01" purity="5.2348995208740234e-01" nType="0">
          <Node pos="l" depth="2" NCoef="0" IVar="-1" Cut="0.0000000000000000e+00" cType="1" res="4.1702477028593421e-04" rms="4.5277327299118042e-01" purity="6.1598074436187744e-01" nType="-99"/>
          <Node pos="r" depth="2" NCoef="0" IVar="-1" Cut="0.0000000000000000e+00" cType="1" res="-2.4923941236920655e-04" rms="4.6059909462928772e-01" purity="4.6856465935707092e-01" nType="-99"/>
        </Node>
        <Node pos="r" depth="1" NCoef="0" IVar="-1" Cut="0.0000000000000000e+00" cType="1" res="-1.4702775515615940e-03" rms="3.7923064827919006e-01" purity="2.1293325722217560e-01" nType="-99"/>
      </Node>
    </BinaryTree>
    <BinaryTree type="DecisionTree" boostWeight="1.0000000000000000e+00" itree="686">
      <Node pos="s" depth="0" NCoef="0" IVar="3" Cut="3.6848266601562500e+01" cType="1" res="-3.1778956763446331e-03" rms="4.5274978876113892e-01" purity="4.9826449155807495e-01" nType="0">
        <Node pos="l" depth="1" NCoef="0" IVar="-1" Cut="0.0000000000000000e+00" cType="1" res="-1.1412531603127718e-03" rms="4.5115071535110474e-01" purity="3.6358037590980530e-01" nType="-99"/>
        <Node pos="r" depth="1" NCoef="0" IVar="4" Cut="1.0420793151855469e+02" cType="1" res="2.3222867457661778e-04" rms="4.5274367928504944e-01" purity="5.1063203811645508e-01" nType="0">
          <Node pos="l" depth="2" NCoef="0" IVar="-1" Cut="0.0000000000000000e+00" cType="1" res="-6.8086781539022923e-04" rms="4.5548754930496216e-01" purity="4.6956169605255127e-01" nType="-99"/>
          <Node pos="r" depth="2" NCoef="0" IVar="-1" Cut="0.0000000000000000e+00" cType="1" res="2.5568867567926645e-04" rms="4.5158910751342773e-01" purity="5.2429646253585815e-01" nType="-99"/>
        </Node>
      </Node>
    </BinaryTree>
    <BinaryTree type="DecisionTree" boostWeight="1.0000000000000000e+00" itree="687">
      <Node pos="s" depth="0" NCoef="0" IVar="6" Cut="6.2287966720759869e-03" cType="1" res="8.5354205220937729e-03" rms="4.5344355702400208e-01" purity="5.1258760690689087e-01" nType="0">
        <Node pos="l" depth="1" NCoef="0" IVar="4" Cut="1.4517858886718750e+02" cType="1" res="-1.3852710835635662e-02" rms="4.4976738095283508e-01" purity="5.8749318122863770e-01" nType="0">
          <Node pos="l" depth="2" NCoef="0" IVar="-1" Cut="0.0000000000000000e+00" cType="1" res="5.7178986025974154e-04" rms="4.3752285838127136e-01" purity="6.4467048645019531e-01" nType="-99"/>
          <Node pos="r" depth="2" NCoef="0" IVar="-1" Cut="0.0000000000000000e+00" cType="1" res="-1.4591448707506061e-03" rms="4.6079301834106445e-01" purity="5.2516889572143555e-01" nType="-99"/>
        </Node>
        <Node pos="r" depth="1" NCoef="0" IVar="6" Cut="3.9708815515041351e-02" cType="1" res="1.6322702169418335e-02" rms="4.5445680618286133e-01" purity="4.8653304576873779e-01" nType="0">
          <Node pos="l" depth="2" NCoef="0" IVar="-1" Cut="0.0000000000000000e+00" cType="1" res="7.0675840834155679e-04" rms="4.5549130439758301e-01" purity="4.9938741326332092e-01" nType="-99"/>
          <Node pos="r" depth="2" NCoef="0" IVar="-1" Cut="0.0000000000000000e+00" cType="1" res="-1.0040745837613940e-03" rms="4.4092300534248352e-01" purity="3.6115792393684387e-01" nType="-99"/>
        </Node>
      </Node>
    </BinaryTree>
    <BinaryTree type="DecisionTree" boostWeight="1.0000000000000000e+00" itree="688">
      <Node pos="s" depth="0" NCoef="0" IVar="1" Cut="1.7296187877655029e+00" cType="1" res="-1.0222468525171280e-02" rms="4.5488914847373962e-01" purity="4.9400147795677185e-01" nType="0">
        <Node pos="l" depth="1" NCoef="0" IVar="4" Cut="1.3539630126953125e+02" cType="1" res="-4.3008374050259590e-03" rms="4.6087819337844849e-01" purity="5.4263806343078613e-01" nType="0">
          <Node pos="l" depth="2" NCoef="0" IVar="-1" Cut="0.0000000000000000e+00" cType="1" res="3.0060776043683290e-04" rms="4.5642548799514771e-01" purity="5.8947581052780151e-01" nType="-99"/>
          <Node pos="r" depth="2" NCoef="0" IVar="-1" Cut="0.0000000000000000e+00" cType="1" res="-4.9264496192336082e-04" rms="4.6445128321647644e-01" purity="5.0165659189224243e-01" nType="-99"/>
        </Node>
        <Node pos="r" depth="1" NCoef="0" IVar="2" Cut="8.1590557098388672e-01" cType="1" res="-3.1966492533683777e-02" rms="4.3148979544639587e-01" purity="3.1540974974632263e-01" nType="0">
          <Node pos="l" depth="2" NCoef="0" IVar="-1" Cut="0.0000000000000000e+00" cType="1" res="-1.3891917478758842e-04" rms="4.0444606542587280e-01" purity="2.3918601870536804e-01" nType="-99"/>
          <Node pos="r" depth="2" NCoef="0" IVar="-1" Cut="0.0000000000000000e+00" cType="1" res="-1.2711294693872333e-03" rms="4.4326376914978027e-01" purity="3.5196158289909363e-01" nType="-99"/>
        </Node>
      </Node>
    </BinaryTree>
    <BinaryTree type="DecisionTree" boostWeight="1.0000000000000000e+00" itree="689">
      <Node pos="s" depth="0" NCoef="0" IVar="5" Cut="4.5366162061691284e-01" cType="1" res="-4.0687955915927887e-03" rms="4.5273211598396301e-01" purity="4.9694773554801941e-01" nType="0">
        <Node pos="l" depth="1" NCoef="0" IVar="-1" Cut="0.0000000000000000e+00" cType="1" res="1.9477675668895245e-03" rms="4.3680527806282043e-01" purity="6.9677865505218506e-01" nType="-99"/>
        <Node pos="r" depth="1" NCoef="0" IVar="3" Cut="1.0666465759277344e+02" cType="1" res="-7.9728169366717339e-03" rms="4.5370283722877502e-01" purity="4.8153465986251831e-01" nType="0">
          <Node pos="l" depth="2" NCoef="0" IVar="-1" Cut="0.0000000000000000e+00" cType="1" res="-4.8666007933206856e-04" rms="4.5722544193267822e-01" purity="4.6254611015319824e-01" nType="-99"/>
          <Node pos="r" depth="2" NCoef="0" IVar="-1" Cut="0.0000000000000000e+00" cType="1" res="4.9063691403716803e-04" rms="4.4271725416183472e-01" purity="5.3596735000610352e-01" nType="-99"/>
        </Node>
      </Node>
    </BinaryTree>
    <BinaryTree type="DecisionTree" boostWeight="1.0000000000000000e+00" itree="690">
      <Node pos="s" depth="0" NCoef="0" IVar="0" Cut="1.6376199722290039e+00" cType="1" res="3.7714430618507322e-06" rms="4.5367079973220825e-01" purity="5.0259727239608765e-01" nType="0">
        <Node pos="l" depth="1" NCoef="0" IVar="8" Cut="6.0129731893539429e-01" cType="1" res="3.4973556175827980e-03" rms="4.5918720960617065e-01" purity="5.2967423200607300e-01" nType="0">
          <Node pos="l" depth="2" NCoef="0" IVar="-1" Cut="0.0000000000000000e+00" cType="1" res="-1.1583282321225852e-04" rms="4.6416136622428894e-01" purity="4.8136460781097412e-01" nType="-99"/>
          <Node pos="r" depth="2" NCoef="0" IVar="-1" Cut="0.0000000000000000e+00" cType="1" res="8.7162607815116644e-04" rms="4.4579026103019714e-01" purity="6.5225881338119507e-01" nType="-99"/>
        </Node>
        <Node pos="r" depth="1" NCoef="0" IVar="-1" Cut="0.0000000000000000e+00" cType="1" res="-1.0669844923540950e-03" rms="3.9120882749557495e-01" purity="2.2633859515190125e-01" nType="-99"/>
      </Node>
    </BinaryTree>
    <BinaryTree type="DecisionTree" boostWeight="1.0000000000000000e+00" itree="691">
      <Node pos="s" depth="0" NCoef="0" IVar="4" Cut="1.2909146118164062e+02" cType="1" res="-1.9023599452339113e-04" rms="4.5214036107063293e-01" purity="5.0258350372314453e-01" nType="0">
        <Node pos="l" depth="1" NCoef="0" IVar="4" Cut="1.0618488311767578e+02" cType="1" res="2.1264435723423958e-02" rms="4.4893878698348999e-01" purity="5.5321794748306274e-01" nType="0">
          <Node pos="l" depth="2" NCoef="0" IVar="-1" Cut="0.0000000000000000e+00" cType="1" res="8.3425926277413964e-05" rms="4.5750218629837036e-01" purity="4.9117186665534973e-01" nType="-99"/>
          <Node pos="r" depth="2" NCoef="0" IVar="-1" Cut="0.0000000000000000e+00" cType="1" res="2.1821928676217794e-03" rms="4.3129739165306091e-01" purity="6.6352808475494385e-01" nType="-99"/>
        </Node>
        <Node pos="r" depth="1" NCoef="0" IVar="3" Cut="4.5731941223144531e+01" cType="1" res="-1.5037543140351772e-02" rms="4.5374917984008789e-01" purity="4.6754294633865356e-01" nType="0">
          <Node pos="l" depth="2" NCoef="0" IVar="-1" Cut="0.0000000000000000e+00" cType="1" res="-1.4254952548071742e-03" rms="4.4756549596786499e-01" purity="3.5927852988243103e-01" nType="-99"/>
          <Node pos="r" depth="2" NCoef="0" IVar="-1" Cut="0.0000000000000000e+00" cType="1" res="-2.9304224881343544e-04" rms="4.5451125502586365e-01" purity="4.8583945631980896e-01" nType="-99"/>
        </Node>
      </Node>
    </BinaryTree>
    <BinaryTree type="DecisionTree" boostWeight="1.0000000000000000e+00" itree="692">
      <Node pos="s" depth="0" NCoef="0" IVar="7" Cut="5.8873867988586426e-01" cType="1" res="-2.4448502808809280e-03" rms="4.4983670115470886e-01" purity="4.9855795502662659e-01" nType="0">
        <Node pos="l" depth="1" NCoef="0" IVar="4" Cut="1.3072172546386719e+02" cType="1" res="-2.2566787898540497e-02" rms="4.4722712039947510e-01" purity="3.7861466407775879e-01" nType="0">
          <Node pos="l" depth="2" NCoef="0" IVar="-1" Cut="0.0000000000000000e+00" cType="1" res="-1.9138124480377883e-04" rms="4.5855787396430969e-01" purity="4.3110024929046631e-01" nType="-99"/>
          <Node pos="r" depth="2" NCoef="0" IVar="-1" Cut="0.0000000000000000e+00" cType="1" res="-9.6421560738235712e-04" rms="4.3900722265243530e-01" purity="3.4289562702178955e-01" nType="-99"/>
        </Node>
        <Node pos="r" depth="1" NCoef="0" IVar="6" Cut="2.0285947248339653e-02" cType="1" res="7.7830492518842220e-03" rms="4.5081320405006409e-01" purity="5.5952471494674683e-01" nType="0">
          <Node pos="l" depth="2" NCoef="0" IVar="-1" Cut="0.0000000000000000e+00" cType="1" res="-4.9268805014435202e-05" rms="4.5000502467155457e-01" purity="5.6621623039245605e-01" nType="-99"/>
          <Node pos="r" depth="2" NCoef="0" IVar="-1" Cut="0.0000000000000000e+00" cType="1" res="1.4503675047308207e-03" rms="4.5217254757881165e-01" purity="5.3397113084793091e-01" nType="-99"/>
        </Node>
      </Node>
    </BinaryTree>
    <BinaryTree type="DecisionTree" boostWeight="1.0000000000000000e+00" itree="693">
      <Node pos="s" depth="0" NCoef="0" IVar="4" Cut="9.4415481567382812e+01" cType="1" res="-2.2178327199071646e-03" rms="4.5094907283782959e-01" purity="4.9871343374252319e-01" nType="0">
        <Node pos="l" depth="1" NCoef="0" IVar="0" Cut="1.0267361402511597e+00" cType="1" res="-2.1365938708186150e-02" rms="4.4388031959533691e-01" purity="4.2506584525108337e-01" nType="0">
          <Node pos="l" depth="2" NCoef="0" IVar="-1" Cut="0.0000000000000000e+00" cType="1" res="5.9577671345323324e-04" rms="4.7076246142387390e-01" purity="5.8360046148300171e-01" nType="-99"/>
          <Node pos="r" depth="2" NCoef="0" IVar="-1" Cut="0.0000000000000000e+00" cType="1" res="-1.4936380321159959e-03" rms="4.1862782835960388e-01" purity="2.9889452457427979e-01" nType="-99"/>
        </Node>
        <Node pos="r" depth="1" NCoef="0" IVar="0" Cut="8.8151693344116211e-01" cType="1" res="2.8661105316132307e-03" rms="4.5267125964164734e-01" purity="5.1826733350753784e-01" nType="0">
          <Node pos="l" depth="2" NCoef="0" IVar="-1" Cut="0.0000000000000000e+00" cType="1" res="-6.7356752697378397e-04" rms="4.5126393437385559e-01" purity="6.6002273559570312e-01" nType="-99"/>
          <Node pos="r" depth="2" NCoef="0" IVar="-1" Cut="0.0000000000000000e+00" cType="1" res="3.1600357033312321e-04" rms="4.5297166705131531e-01" purity="4.6676224470138550e-01" nType="-99"/>
        </Node>
      </Node>
    </BinaryTree>
    <BinaryTree type="DecisionTree" boostWeight="1.0000000000000000e+00" itree="694">
      <Node pos="s" depth="0" NCoef="0" IVar="4" Cut="2.4087345886230469e+02" cType="1" res="-6.1687058769166470e-03" rms="4.5179808139801025e-01" purity="4.9656945466995239e-01" nType="0">
        <Node pos="l" depth="1" NCoef="0" IVar="3" Cut="3.5454566955566406e+01" cType="1" res="-3.2443477539345622e-04" rms="4.5445689558982849e-01" purity="5.2942723035812378e-01" nType="0">
          <Node pos="l" depth="2" NCoef="0" IVar="-1" Cut="0.0000000000000000e+00" cType="1" res="-1.7425281694158912e-03" rms="4.4815126061439514e-01" purity="3.4650033712387085e-01" nType="-99"/>
          <Node pos="r" depth="2" NCoef="0" IVar="-1" Cut="0.0000000000000000e+00" cType="1" res="2.0327544189058244e-04" rms="4.5459589362144470e-01" purity="5.4749250411987305e-01" nType="-99"/>
        </Node>
        <Node pos="r" depth="1" NCoef="0" IVar="5" Cut="7.8820019960403442e-01" cType="1" res="-2.4459172040224075e-02" rms="4.4287580251693726e-01" purity="3.9373648166656494e-01" nType="0">
          <Node pos="l" depth="2" NCoef="0" IVar="-1" Cut="0.0000000000000000e+00" cType="1" res="2.0024420518893749e-04" rms="4.6062168478965759e-01" purity="6.1094284057617188e-01" nType="-99"/>
          <Node pos="r" depth="2" NCoef="0" IVar="-1" Cut="0.0000000000000000e+00" cType="1" res="-9.5883768517524004e-04" rms="4.3734282255172729e-01" purity="3.3225613832473755e-01" nType="-99"/>
        </Node>
      </Node>
    </BinaryTree>
    <BinaryTree type="DecisionTree" boostWeight="1.0000000000000000e+00" itree="695">
      <Node pos="s" depth="0" NCoef="0" IVar="7" Cut="8.7261855602264404e-01" cType="1" res="3.0139836599119008e-04" rms="4.5379957556724548e-01" purity="5.0384688377380371e-01" nType="0">
        <Node pos="l" depth="1" NCoef="0" IVar="1" Cut="7.4708741903305054e-01" cType="1" res="-3.7445372436195612e-03" rms="4.5694252848625183e-01" purity="4.7930487990379333e-01" nType="0">
          <Node pos="l" depth="2" NCoef="0" IVar="-1" Cut="0.0000000000000000e+00" cType="1" res="3.8727378705516458e-04" rms="4.5964327454566956e-01" purity="5.8768546581268311e-01" nType="-99"/>
          <Node pos="r" depth="2" NCoef="0" IVar="-1" Cut="0.0000000000000000e+00" cType="1" res="-3.7604657700285316e-04" rms="4.5513564348220825e-01" purity="4.1596552729606628e-01" nType="-99"/>
        </Node>
        <Node pos="r" depth="1" NCoef="0" IVar="3" Cut="6.9273399353027344e+01" cType="1" res="2.4022769182920456e-02" rms="4.3415784835815430e-01" purity="6.4773690700531006e-01" nType="0">
          <Node pos="l" depth="2" NCoef="0" IVar="-1" Cut="0.0000000000000000e+00" cType="1" res="-8.6380539869423956e-05" rms="4.5393261313438416e-01" purity="5.7532608509063721e-01" nType="-99"/>
          <Node pos="r" depth="2" NCoef="0" IVar="-1" Cut="0.0000000000000000e+00" cType="1" res="2.3418534547090530e-03" rms="4.1135272383689880e-01" purity="7.2131890058517456e-01" nType="-99"/>
        </Node>
      </Node>
    </BinaryTree>
    <BinaryTree type="DecisionTree" boostWeight="1.0000000000000000e+00" itree="696">
      <Node pos="s" depth="0" NCoef="0" IVar="3" Cut="1.0371721649169922e+02" cType="1" res="-3.2393978908658028e-03" rms="4.5313239097595215e-01" purity="4.9864390492439270e-01" nType="0">
        <Node pos="l" depth="1" NCoef="0" IVar="8" Cut="6.6453117132186890e-01" cType="1" res="-1.1620556935667992e-02" rms="4.5814898610115051e-01" purity="4.7911295294761658e-01" nType="0">
          <Node pos="l" depth="2" NCoef="0" IVar="-1" Cut="0.0000000000000000e+00" cType="1" res="-4.7083184472285211e-04" rms="4.5965033769607544e-01" purity="4.6469035744667053e-01" nType="-99"/>
          <Node pos="r" depth="2" NCoef="0" IVar="-1" Cut="0.0000000000000000e+00" cType="1" res="1.2145685032010078e-03" rms="4.3832230567932129e-01" purity="6.4564305543899536e-01" nType="-99"/>
        </Node>
        <Node pos="r" depth="1" NCoef="0" IVar="2" Cut="8.8522410392761230e-01" cType="1" res="1.9215961918234825e-02" rms="4.3862071633338928e-01" purity="5.5097258090972900e-01" nType="0">
          <Node pos="l" depth="2" NCoef="0" IVar="-1" Cut="0.0000000000000000e+00" cType="1" res="-1.1180946603417397e-04" rms="4.5399880409240723e-01" purity="4.6454408764839172e-01" nType="-99"/>
          <Node pos="r" depth="2" NCoef="0" IVar="-1" Cut="0.0000000000000000e+00" cType="1" res="2.8876878786832094e-03" rms="4.0505939722061157e-01" purity="7.1191036701202393e-01" nType="-99"/>
        </Node>
      </Node>
    </BinaryTree>
    <BinaryTree type="DecisionTree" boostWeight="1.0000000000000000e+00" itree="697">
      <Node pos="s" depth="0" NCoef="0" IVar="0" Cut="1.3846426010131836e+00" cType="1" res="-2.8204927220940590e-03" rms="4.5260819792747498e-01" purity="4.9944689869880676e-01" nType="0">
        <Node pos="l" depth="1" NCoef="0" IVar="4" Cut="1.4994435119628906e+02" cType="1" res="6.8970220163464546e-03" rms="4.6040543913841248e-01" purity="5.6604075431823730e-01" nType="0">
          <Node pos="l" depth="2" NCoef="0" IVar="-1" Cut="0.0000000000000000e+00" cType="1" res="7.9694291343912482e-04" rms="4.5419242978096008e-01" purity="6.1140608787536621e-01" nType="-99"/>
          <Node pos="r" depth="2" NCoef="0" IVar="-1" Cut="0.0000000000000000e+00" cType="1" res="-3.3934158273041248e-04" rms="4.6700593829154968e-01" purity="5.1257473230361938e-01" nType="-99"/>
        </Node>
        <Node pos="r" depth="1" NCoef="0" IVar="7" Cut="5.7814353704452515e-01" cType="1" res="-3.2553233206272125e-02" rms="4.2649650573730469e-01" purity="2.9568934440612793e-01" nType="0">
          <Node pos="l" depth="2" NCoef="0" IVar="-1" Cut="0.0000000000000000e+00" cType="1" res="1.1650785017991439e-04" rms="4.1330182552337646e-01" purity="2.5615793466567993e-01" nType="-99"/>
          <Node pos="r" depth="2" NCoef="0" IVar="-1" Cut="0.0000000000000000e+00" cType="1" res="-1.3592265313491225e-03" rms="4.3113660812377930e-01" purity="3.1278184056282043e-01" nType="-99"/>
        </Node>
      </Node>
    </BinaryTree>
    <BinaryTree type="DecisionTree" boostWeight="1.0000000000000000e+00" itree="698">
      <Node pos="s" depth="0" NCoef="0" IVar="9" Cut="7.8801900148391724e-01" cType="1" res="3.6777062341570854e-03" rms="4.5075240731239319e-01" purity="5.0431036949157715e-01" nType="0">
        <Node pos="l" depth="1" NCoef="0" IVar="-1" Cut="0.0000000000000000e+00" cType="1" res="-1.2267199344933033e-03" rms="4.2084822058677673e-01" purity="2.6475828886032104e-01" nType="-99"/>
        <Node pos="r" depth="1" NCoef="0" IVar="4" Cut="2.0789515686035156e+02" cType="1" res="8.0017484724521637e-03" rms="4.5320472121238708e-01" purity="5.2669525146484375e-01" nType="0">
          <Node pos="l" depth="2" NCoef="0" IVar="-1" Cut="0.0000000000000000e+00" cType="1" res="6.1615236336365342e-04" rms="4.5261412858963013e-01" purity="5.6709992885589600e-01" nType="-99"/>
          <Node pos="r" depth="2" NCoef="0" IVar="-1" Cut="0.0000000000000000e+00" cType="1" res="-4.2706521344371140e-04" rms="4.5378988981246948e-01" purity="4.3460392951965332e-01" nType="-99"/>
        </Node>
      </Node>
    </BinaryTree>
    <BinaryTree type="DecisionTree" boostWeight="1.0000000000000000e+00" itree="699">
      <Node pos="s" depth="0" NCoef="0" IVar="5" Cut="5.6330710649490356e-01" cType="1" res="-2.5400199228897691e-04" rms="4.5118463039398193e-01" purity="5.0299239158630371e-01" nType="0">
        <Node pos="l" depth="1" NCoef="0" IVar="0" Cut="7.5622761249542236e-01" cType="1" res="2.8236208483576775e-02" rms="4.4566643238067627e-01" purity="6.8464601039886475e-01" nType="0">
          <Node pos="l" depth="2" NCoef="0" IVar="-1" Cut="0.0000000000000000e+00" cType="1" res="-1.0171636677114293e-04" rms="4.4461137056350708e-01" purity="6.8287783861160278e-01" nType="-99"/>
          <Node pos="r" depth="2" NCoef="0" IVar="-1" Cut="0.0000000000000000e+00" cType="1" res="2.4819427635520697e-03" rms="4.4445195794105530e-01" purity="6.8653821945190430e-01" nType="-99"/>
        </Node>
        <Node pos="r" depth="1" NCoef="0" IVar="3" Cut="5.9455116271972656e+01" cType="1" res="-4.7298138961195946e-03" rms="4.5188218355178833e-01" purity="4.7445461153984070e-01" nType="0">
          <Node pos="l" depth="2" NCoef="0" IVar="-1" Cut="0.0000000000000000e+00" cType="1" res="-6.5867992816492915e-04" rms="4.5041692256927490e-01" purity="4.0280982851982117e-01" nType="-99"/>
          <Node pos="r" depth="2" NCoef="0" IVar="-1" Cut="0.0000000000000000e+00" cType="1" res="1.2893705570604652e-04" rms="4.5235180854797363e-01" purity="5.0963509082794189e-01" nType="-99"/>
        </Node>
      </Node>
    </BinaryTree>
    <BinaryTree type="DecisionTree" boostWeight="1.0000000000000000e+00" itree="700">
      <Node pos="s" depth="0" NCoef="0" IVar="3" Cut="1.4648326110839844e+02" cType="1" res="-3.4429470542818308e-03" rms="4.5016226172447205e-01" purity="4.9394682049751282e-01" nType="0">
        <Node pos="l" depth="1" NCoef="0" IVar="9" Cut="8.0423355102539062e-01" cType="1" res="4.2143842438235879e-04" rms="4.5076933503150940e-01" purity="5.0587391853332520e-01" nType="0">
          <Node pos="l" depth="2" NCoef="0" IVar="-1" Cut="0.0000000000000000e+00" cType="1" res="-1.0660171974450350e-03" rms="4.2367628216743469e-01" purity="2.7958735823631287e-01" nType="-99"/>
          <Node pos="r" depth="2" NCoef="0" IVar="-1" Cut="0.0000000000000000e+00" cType="1" res="1.5537691069766879e-04" rms="4.5348128676414490e-01" purity="5.3097099065780640e-01" nType="-99"/>
        </Node>
        <Node pos="r" depth="1" NCoef="0" IVar="-1" Cut="0.0000000000000000e+00" cType="1" res="-1.4369428390637040e-03" rms="4.4050219655036926e-01" purity="3.5458460450172424e-01" nType="-99"/>
      </Node>
    </BinaryTree>
    <BinaryTree type="DecisionTree" boostWeight="1.0000000000000000e+00" itree="701">
      <Node pos="s" depth="0" NCoef="0" IVar="7" Cut="9.2504096031188965e-01" cType="1" res="-2.9292709659785032e-03" rms="4.5122531056404114e-01" purity="5.0195765495300293e-01" nType="0">
        <Node pos="l" depth="1" NCoef="0" IVar="9" Cut="7.8360551595687866e-01" cType="1" res="-6.6075371578335762e-03" rms="4.5311641693115234e-01" purity="4.8733142018318176e-01" nType="0">
          <Node pos="l" depth="2" NCoef="0" IVar="-1" Cut="0.0000000000000000e+00" cType="1" res="-1.1898371158167720e-03" rms="4.2793416976928711e-01" purity="2.6545074582099915e-01" nType="-99"/>
          <Node pos="r" depth="2" NCoef="0" IVar="-1" Cut="0.0000000000000000e+00" cType="1" res="-1.0683915752451867e-04" rms="4.5526537299156189e-01" purity="5.0815719366073608e-01" nType="-99"/>
        </Node>
        <Node pos="r" depth="1" NCoef="0" IVar="-1" Cut="0.0000000000000000e+00" cType="1" res="1.7128529725596309e-03" rms="4.2543473839759827e-01" purity="6.7730611562728882e-01" nType="-99"/>
      </Node>
    </BinaryTree>
    <BinaryTree type="DecisionTree" boostWeight="1.0000000000000000e+00" itree="702">
      <Node pos="s" depth="0" NCoef="0" IVar="3" Cut="1.0232089996337891e+02" cType="1" res="-6.1174919828772545e-03" rms="4.5169979333877563e-01" purity="4.9732497334480286e-01" nType="0">
        <Node pos="l" depth="1" NCoef="0" IVar="3" Cut="3.8020149230957031e+01" cType="1" res="-1.3474679552018642e-02" rms="4.5544770359992981e-01" purity="4.7509244084358215e-01" nType="0">
          <Node pos="l" depth="2" NCoef="0" IVar="-1" Cut="0.0000000000000000e+00" cType="1" res="-1.2114895507693291e-03" rms="4.4465538859367371e-01" purity="3.5861831903457642e-01" nType="-99"/>
          <Node pos="r" depth="2" NCoef="0" IVar="-1" Cut="0.0000000000000000e+00" cType="1" res="-2.8805687907151878e-04" rms="4.5693084597587585e-01" purity="4.9317792057991028e-01" nType="-99"/>
        </Node>
        <Node pos="r" depth="1" NCoef="0" IVar="9" Cut="9.2230939865112305e-01" cType="1" res="1.2856868095695972e-02" rms="4.4132149219512939e-01" purity="5.5466306209564209e-01" nType="0">
          <Node pos="l" depth="2" NCoef="0" IVar="-1" Cut="0.0000000000000000e+00" cType="1" res="-7.9544266918674111e-04" rms="4.5771661400794983e-01" purity="3.9800739288330078e-01" nType="-99"/>
          <Node pos="r" depth="2" NCoef="0" IVar="-1" Cut="0.0000000000000000e+00" cType="1" res="1.1930873151868582e-03" rms="4.3280473351478577e-01" purity="6.2342756986618042e-01" nType="-99"/>
        </Node>
      </Node>
    </BinaryTree>
    <BinaryTree type="DecisionTree" boostWeight="1.0000000000000000e+00" itree="703">
      <Node pos="s" depth="0" NCoef="0" IVar="3" Cut="4.5731941223144531e+01" cType="1" res="-4.1636917740106583e-03" rms="4.5148074626922607e-01" purity="4.9779534339904785e-01" nType="0">
        <Node pos="l" depth="1" NCoef="0" IVar="3" Cut="3.5981189727783203e+01" cType="1" res="-2.5145713239908218e-02" rms="4.5154479146003723e-01" purity="4.0171760320663452e-01" nType="0">
          <Node pos="l" depth="2" NCoef="0" IVar="-1" Cut="0.0000000000000000e+00" cType="1" res="-1.5808832831680775e-03" rms="4.3574631214141846e-01" purity="3.3772075176239014e-01" nType="-99"/>
          <Node pos="r" depth="2" NCoef="0" IVar="-1" Cut="0.0000000000000000e+00" cType="1" res="-2.7373996999813244e-05" rms="4.6177512407302856e-01" purity="4.5058295130729675e-01" nType="-99"/>
        </Node>
        <Node pos="r" depth="1" NCoef="0" IVar="2" Cut="7.4599242210388184e-01" cType="1" res="5.7195691624656320e-04" rms="4.5133140683174133e-01" purity="5.1948010921478271e-01" nType="0">
          <Node pos="l" depth="2" NCoef="0" IVar="-1" Cut="0.0000000000000000e+00" cType="1" res="-9.2968234093859792e-04" rms="4.2621603608131409e-01" purity="2.7498078346252441e-01" nType="-99"/>
          <Node pos="r" depth="2" NCoef="0" IVar="-1" Cut="0.0000000000000000e+00" cType="1" res="1.4243472833186388e-04" rms="4.5381274819374084e-01" purity="5.4585438966751099e-01" nType="-99"/>
        </Node>
      </Node>
    </BinaryTree>
    <BinaryTree type="DecisionTree" boostWeight="1.0000000000000000e+00" itree="704">
      <Node pos="s" depth="0" NCoef="0" IVar="8" Cut="5.4106563329696655e-01" cType="1" res="-7.7108796685934067e-03" rms="4.5356661081314087e-01" purity="4.9564340710639954e-01" nType="0">
        <Node pos="l" depth="1" NCoef="0" IVar="0" Cut="9.0722960233688354e-01" cType="1" res="1.1009227484464645e-02" rms="4.5336169004440308e-01" purity="4.4761282205581665e-01" nType="0">
          <Node pos="l" depth="2" NCoef="0" IVar="-1" Cut="0.0000000000000000e+00" cType="1" res="-7.7063683420419693e-04" rms="4.7808235883712769e-01" purity="5.5423206090927124e-01" nType="-99"/>
          <Node pos="r" depth="2" NCoef="0" IVar="-1" Cut="0.0000000000000000e+00" cType="1" res="7.2022195672616363e-04" rms="4.4399687647819519e-01" purity="4.1130781173706055e-01" nType="-99"/>
        </Node>
        <Node pos="r" depth="1" NCoef="0" IVar="9" Cut="9.6490418910980225e-01" cType="1" res="-2.2145174443721771e-02" rms="4.5319685339927673e-01" purity="5.3267782926559448e-01" nType="0">
          <Node pos="l" depth="2" NCoef="0" IVar="-1" Cut="0.0000000000000000e+00" cType="1" res="-1.2923566391691566e-03" rms="4.5553255081176758e-01" purity="4.5120328664779663e-01" nType="-99"/>
          <Node pos="r" depth="2" NCoef="0" IVar="-1" Cut="0.0000000000000000e+00" cType="1" res="-3.9861220284365118e-04" rms="4.5158386230468750e-01" purity="5.7557892799377441e-01" nType="-99"/>
        </Node>
      </Node>
    </BinaryTree>
    <BinaryTree type="DecisionTree" boostWeight="1.0000000000000000e+00" itree="705">
      <Node pos="s" depth="0" NCoef="0" IVar="5" Cut="8.4619086980819702e-01" cType="1" res="5.6151901371777058e-03" rms="4.5142748951911926e-01" purity="5.0621533393859863e-01" nType="0">
        <Node pos="l" depth="1" NCoef="0" IVar="7" Cut="5.7826352119445801e-01" cType="1" res="2.5677537545561790e-02" rms="4.4917735457420349e-01" purity="6.6344463825225830e-01" nType="0">
          <Node pos="l" depth="2" NCoef="0" IVar="-1" Cut="0.0000000000000000e+00" cType="1" res="-1.2097608123440295e-04" rms="4.7785931825637817e-01" purity="5.2191883325576782e-01" nType="-99"/>
          <Node pos="r" depth="2" NCoef="0" IVar="-1" Cut="0.0000000000000000e+00" cType="1" res="1.7192838713526726e-03" rms="4.3608015775680542e-01" purity="7.2239327430725098e-01" nType="-99"/>
        </Node>
        <Node pos="r" depth="1" NCoef="0" IVar="4" Cut="1.0267671203613281e+02" cType="1" res="-5.5108284577727318e-03" rms="4.5228707790374756e-01" purity="4.1902029514312744e-01" nType="0">
          <Node pos="l" depth="2" NCoef="0" IVar="-1" Cut="0.0000000000000000e+00" cType="1" res="-1.0308780474588275e-03" rms="4.4364556670188904e-01" purity="3.5763433575630188e-01" nType="-99"/>
          <Node pos="r" depth="2" NCoef="0" IVar="-1" Cut="0.0000000000000000e+00" cType="1" res="1.1041663674404845e-04" rms="4.5447894930839539e-01" purity="4.3759572505950928e-01" nType="-99"/>
        </Node>
      </Node>
    </BinaryTree>
    <BinaryTree type="DecisionTree" boostWeight="1.0000000000000000e+00" itree="706">
      <Node pos="s" depth="0" NCoef="0" IVar="0" Cut="8.5243964195251465e-01" cType="1" res="-6.1642695218324661e-03" rms="4.5297256112098694e-01" purity="4.9462288618087769e-01" nType="0">
        <Node pos="l" depth="1" NCoef="0" IVar="4" Cut="1.5122599792480469e+02" cType="1" res="-2.8971768915653229e-02" rms="4.6336778998374939e-01" purity="6.3090670108795166e-01" nType="0">
          <Node pos="l" depth="2" NCoef="0" IVar="-1" Cut="0.0000000000000000e+00" cType="1" res="-2.9398256447166204e-04" rms="4.5493814349174500e-01" purity="6.6293901205062866e-01" nType="-99"/>
          <Node pos="r" depth="2" NCoef="0" IVar="-1" Cut="0.0000000000000000e+00" cType="1" res="-2.1259302739053965e-03" rms="4.7383517026901245e-01" purity="5.8301472663879395e-01" nType="-99"/>
        </Node>
        <Node pos="r" depth="1" NCoef="0" IVar="3" Cut="5.9318031311035156e+01" cType="1" res="1.3914286391809583e-03" rms="4.4922053813934326e-01" purity="4.4947460293769836e-01" nType="0">
          <Node pos="l" depth="2" NCoef="0" IVar="-1" Cut="0.0000000000000000e+00" cType="1" res="-6.6154514206573367e-04" rms="4.4694513082504272e-01" purity="3.7657821178436279e-01" nType="-99"/>
          <Node pos="r" depth="2" NCoef="0" IVar="-1" Cut="0.0000000000000000e+00" cType="1" res="4.3139513581991196e-04" rms="4.4986078143119812e-01" purity="4.8529502749443054e-01" nType="-99"/>
        </Node>
      </Node>
    </BinaryTree>
    <BinaryTree type="DecisionTree" boostWeight="1.0000000000000000e+00" itree="707">
      <Node pos="s" depth="0" NCoef="0" IVar="0" Cut="1.6383863687515259e+00" cType="1" res="3.8427861873060465e-03" rms="4.5256149768829346e-01" purity="5.0538945198059082e-01" nType="0">
        <Node pos="l" depth="1" NCoef="0" IVar="7" Cut="6.4130192995071411e-01" cType="1" res="7.3878634721040726e-03" rms="4.5844724774360657e-01" purity="5.3412342071533203e-01" nType="0">
          <Node pos="l" depth="2" NCoef="0" IVar="-1" Cut="0.0000000000000000e+00" cType="1" res="-9.4950002676341683e-05" rms="4.6172037720680237e-01" purity="4.3752178549766541e-01" nType="-99"/>
          <Node pos="r" depth="2" NCoef="0" IVar="-1" Cut="0.0000000000000000e+00" cType="1" res="6.0242589097470045e-04" rms="4.5551735162734985e-01" purity="6.1455750465393066e-01" nType="-99"/>
        </Node>
        <Node pos="r" depth="1" NCoef="0" IVar="-1" Cut="0.0000000000000000e+00" cType="1" res="-9.3935133190825582e-04" rms="3.8917413353919983e-01" purity="2.2646519541740417e-01" nType="-99"/>
      </Node>
    </BinaryTree>
    <BinaryTree type="DecisionTree" boostWeight="1.0000000000000000e+00" itree="708">
      <Node pos="s" depth="0" NCoef="0" IVar="4" Cut="3.5267929077148438e+02" cType="1" res="-6.1745014972984791e-03" rms="4.5225280523300171e-01" purity="4.9563089013099670e-01" nType="0">
        <Node pos="l" depth="1" NCoef="0" IVar="1" Cut="2.4022710323333740e+00" cType="1" res="-1.3271614443510771e-03" rms="4.5486247539520264e-01" purity="5.1687413454055786e-01" nType="0">
          <Node pos="l" depth="2" NCoef="0" IVar="-1" Cut="0.0000000000000000e+00" cType="1" res="7.3785697168204933e-05" rms="4.6028795838356018e-01" purity="5.4264783859252930e-01" nType="-99"/>
          <Node pos="r" depth="2" NCoef="0" IVar="-1" Cut="0.0000000000000000e+00" cType="1" res="-1.1322081554681063e-03" rms="3.9219868183135986e-01" purity="2.4901163578033447e-01" nType="-99"/>
        </Node>
        <Node pos="r" depth="1" NCoef="0" IVar="-1" Cut="0.0000000000000000e+00" cType="1" res="-1.2692023301497102e-03" rms="4.2963567376136780e-01" purity="3.3095076680183411e-01" nType="-99"/>
      </Node>
    </BinaryTree>
    <BinaryTree type="DecisionTree" boostWeight="1.0000000000000000e+00" itree="709">
      <Node pos="s" depth="0" NCoef="0" IVar="1" Cut="1.7049974203109741e+00" cType="1" res="5.6705437600612640e-03" rms="4.5399990677833557e-01" purity="5.0996977090835571e-01" nType="0">
        <Node pos="l" depth="1" NCoef="0" IVar="4" Cut="2.5683789062500000e+02" cType="1" res="1.1154456995427608e-02" rms="4.5928284525871277e-01" purity="5.6030762195587158e-01" nType="0">
          <Node pos="l" depth="2" NCoef="0" IVar="-1" Cut="0.0000000000000000e+00" cType="1" res="6.4706656849011779e-04" rms="4.5853349566459656e-01" purity="5.9004956483840942e-01" nType="-99"/>
          <Node pos="r" depth="2" NCoef="0" IVar="-1" Cut="0.0000000000000000e+00" cType="1" res="-5.1417865324765444e-04" rms="4.6113982796669006e-01" purity="4.4405996799468994e-01" nType="-99"/>
        </Node>
        <Node pos="r" depth="1" NCoef="0" IVar="4" Cut="1.8980325317382812e+02" cType="1" res="-1.3997570611536503e-02" rms="4.3395498394966125e-01" purity="3.2943257689476013e-01" nType="0">
          <Node pos="l" depth="2" NCoef="0" IVar="-1" Cut="0.0000000000000000e+00" cType="1" res="-8.1068743020296097e-04" rms="4.3231856822967529e-01" purity="3.3746349811553955e-01" nType="-99"/>
          <Node pos="r" depth="2" NCoef="0" IVar="-1" Cut="0.0000000000000000e+00" cType="1" res="2.3808653349988163e-04" rms="4.3569833040237427e-01" purity="3.1655338406562805e-01" nType="-99"/>
        </Node>
      </Node>
    </BinaryTree>
    <BinaryTree type="DecisionTree" boostWeight="1.0000000000000000e+00" itree="710">
      <Node pos="s" depth="0" NCoef="0" IVar="7" Cut="8.9364910125732422e-01" cType="1" res="-9.1735250316560268e-04" rms="4.5226436853408813e-01" purity="5.0291329622268677e-01" nType="0">
        <Node pos="l" depth="1" NCoef="0" IVar="8" Cut="5.1667338609695435e-01" cType="1" res="-6.1619700863957405e-03" rms="4.5522728562355042e-01" purity="4.7996276617050171e-01" nType="0">
          <Node pos="l" depth="2" NCoef="0" IVar="-1" Cut="0.0000000000000000e+00" cType="1" res="-6.4962543547153473e-04" rms="4.5951777696609497e-01" purity="4.0307438373565674e-01" nType="-99"/>
          <Node pos="r" depth="2" NCoef="0" IVar="-1" Cut="0.0000000000000000e+00" cType="1" res="1.1528580944286659e-04" rms="4.5228692889213562e-01" purity="5.2750313282012939e-01" nType="-99"/>
        </Node>
        <Node pos="r" depth="1" NCoef="0" IVar="7" Cut="9.4844138622283936e-01" cType="1" res="3.8036592304706573e-02" rms="4.2761009931564331e-01" purity="6.7337667942047119e-01" nType="0">
          <Node pos="l" depth="2" NCoef="0" IVar="-1" Cut="0.0000000000000000e+00" cType="1" res="2.4069449864327908e-03" rms="4.1725426912307739e-01" purity="6.9425040483474731e-01" nType="-99"/>
          <Node pos="r" depth="2" NCoef="0" IVar="-1" Cut="0.0000000000000000e+00" cType="1" res="5.6649465113878250e-04" rms="4.3928560614585876e-01" purity="6.4680457115173340e-01" nType="-99"/>
        </Node>
      </Node>
    </BinaryTree>
    <BinaryTree type="DecisionTree" boostWeight="1.0000000000000000e+00" itree="711">
      <Node pos="s" depth="0" NCoef="0" IVar="6" Cut="3.4766785800457001e-02" cType="1" res="-4.6679093502461910e-03" rms="4.5301792025566101e-01" purity="4.9837902188301086e-01" nType="0">
        <Node pos="l" depth="1" NCoef="0" IVar="7" Cut="8.3004832267761230e-01" cType="1" res="-9.8041575402021408e-03" rms="4.5357102155685425e-01" purity="5.0727826356887817e-01" nType="0">
          <Node pos="l" depth="2" NCoef="0" IVar="-1" Cut="0.0000000000000000e+00" cType="1" res="-5.1451998297125101e-04" rms="4.5647010207176208e-01" purity="4.6783173084259033e-01" nType="-99"/>
          <Node pos="r" depth="2" NCoef="0" IVar="-1" Cut="0.0000000000000000e+00" cType="1" res="4.3569708941504359e-04" rms="4.4344386458396912e-01" purity="6.3446652889251709e-01" nType="-99"/>
        </Node>
        <Node pos="r" depth="1" NCoef="0" IVar="4" Cut="1.5394912719726562e+02" cType="1" res="2.7979729697108269e-02" rms="4.4811210036277771e-01" purity="4.4181233644485474e-01" nType="0">
          <Node pos="l" depth="2" NCoef="0" IVar="-1" Cut="0.0000000000000000e+00" cType="1" res="2.1958460565656424e-03" rms="4.4143757224082947e-01" purity="5.0445669889450073e-01" nType="-99"/>
          <Node pos="r" depth="2" NCoef="0" IVar="-1" Cut="0.0000000000000000e+00" cType="1" res="-3.3621184411458671e-04" rms="4.5158943533897400e-01" purity="3.7642160058021545e-01" nType="-99"/>
        </Node>
      </Node>
    </BinaryTree>
    <BinaryTree type="DecisionTree" boostWeight="1.0000000000000000e+00" itree="712">
      <Node pos="s" depth="0" NCoef="0" IVar="4" Cut="1.1325519561767578e+02" cType="1" res="-1.1474679922685027e-03" rms="4.5411998033523560e-01" purity="5.0322031974792480e-01" nType="0">
        <Node pos="l" depth="1" NCoef="0" IVar="5" Cut="8.5948383808135986e-01" cType="1" res="-1.6457587480545044e-02" rms="4.5782428979873657e-01" purity="4.9088403582572937e-01" nType="0">
          <Node pos="l" depth="2" NCoef="0" IVar="-1" Cut="0.0000000000000000e+00" cType="1" res="4.5374181354418397e-04" rms="4.6128049492835999e-01" purity="6.2523442506790161e-01" nType="-99"/>
          <Node pos="r" depth="2" NCoef="0" IVar="-1" Cut="0.0000000000000000e+00" cType="1" res="-1.1377856135368347e-03" rms="4.5381999015808105e-01" purity="3.8592964410781860e-01" nType="-99"/>
        </Node>
        <Node pos="r" depth="1" NCoef="0" IVar="7" Cut="5.2563464641571045e-01" cType="1" res="6.1959940940141678e-03" rms="4.5214852690696716e-01" purity="5.0913733243942261e-01" nType="0">
          <Node pos="l" depth="2" NCoef="0" IVar="-1" Cut="0.0000000000000000e+00" cType="1" res="-9.7207055659964681e-04" rms="4.3844753503799438e-01" purity="3.3648219704627991e-01" nType="-99"/>
          <Node pos="r" depth="2" NCoef="0" IVar="-1" Cut="0.0000000000000000e+00" cType="1" res="4.1663122829049826e-04" rms="4.5383024215698242e-01" purity="5.3461122512817383e-01" nType="-99"/>
        </Node>
      </Node>
    </BinaryTree>
    <BinaryTree type="DecisionTree" boostWeight="1.0000000000000000e+00" itree="713">
      <Node pos="s" depth="0" NCoef="0" IVar="3" Cut="1.0232089996337891e+02" cType="1" res="-5.1920157857239246e-03" rms="4.5466828346252441e-01" purity="4.9832698702812195e-01" nType="0">
        <Node pos="l" depth="1" NCoef="0" IVar="3" Cut="3.4449775695800781e+01" cType="1" res="-1.1837777681648731e-02" rms="4.6111473441123962e-01" purity="4.8090049624443054e-01" nType="0">
          <Node pos="l" depth="2" NCoef="0" IVar="-1" Cut="0.0000000000000000e+00" cType="1" res="-1.6727165784686804e-03" rms="4.4720661640167236e-01" purity="3.3812192082405090e-01" nType="-99"/>
          <Node pos="r" depth="2" NCoef="0" IVar="-1" Cut="0.0000000000000000e+00" cType="1" res="-2.2124148381408304e-04" rms="4.6221771836280823e-01" purity="4.9540424346923828e-01" nType="-99"/>
        </Node>
        <Node pos="r" depth="1" NCoef="0" IVar="2" Cut="7.8289353847503662e-01" cType="1" res="1.1921772733330727e-02" rms="4.3716609477996826e-01" purity="5.4320263862609863e-01" nType="0">
          <Node pos="l" depth="2" NCoef="0" IVar="-1" Cut="0.0000000000000000e+00" cType="1" res="-9.9808606319129467e-04" rms="4.3933618068695068e-01" purity="3.2918384671211243e-01" nType="-99"/>
          <Node pos="r" depth="2" NCoef="0" IVar="-1" Cut="0.0000000000000000e+00" cType="1" res="9.3094073235988617e-04" rms="4.3573865294456482e-01" purity="6.0045230388641357e-01" nType="-99"/>
        </Node>
      </Node>
    </BinaryTree>
    <BinaryTree type="DecisionTree" boostWeight="1.0000000000000000e+00" itree="714">
      <Node pos="s" depth="0" NCoef="0" IVar="3" Cut="4.6711780548095703e+01" cType="1" res="3.4486434888094664e-03" rms="4.5125010609626770e-01" purity="5.0756806135177612e-01" nType="0">
        <Node pos="l" depth="1" NCoef="0" IVar="8" Cut="5.7956087589263916e-01" cType="1" res="-2.6732144877314568e-02" rms="4.5539477467536926e-01" purity="4.0757295489311218e-01" nType="0">
          <Node pos="l" depth="2" NCoef="0" IVar="-1" Cut="0.0000000000000000e+00" cType="1" res="1.1580275167943910e-04" rms="4.5657613873481750e-01" purity="3.9210110902786255e-01" nType="-99"/>
          <Node pos="r" depth="2" NCoef="0" IVar="-1" Cut="0.0000000000000000e+00" cType="1" res="-1.9799654837697744e-03" rms="4.5022726058959961e-01" purity="4.2928144335746765e-01" nType="-99"/>
        </Node>
        <Node pos="r" depth="1" NCoef="0" IVar="0" Cut="1.5426963567733765e+00" cType="1" res="1.0884825140237808e-02" rms="4.4991227984428406e-01" purity="5.3220564126968384e-01" nType="0">
          <Node pos="l" depth="2" NCoef="0" IVar="-1" Cut="0.0000000000000000e+00" cType="1" res="5.6869263062253594e-04" rms="4.5551562309265137e-01" purity="5.7303106784820557e-01" nType="-99"/>
          <Node pos="r" depth="2" NCoef="0" IVar="-1" Cut="0.0000000000000000e+00" cType="1" res="-6.7175133153796196e-04" rms="4.1129070520401001e-01" purity="2.7493479847908020e-01" nType="-99"/>
        </Node>
      </Node>
    </BinaryTree>
    <BinaryTree type="DecisionTree" boostWeight="1.0000000000000000e+00" itree="715">
      <Node pos="s" depth="0" NCoef="0" IVar="6" Cut="1.5451996587216854e-02" cType="1" res="-4.3870997615158558e-03" rms="4.5464271306991577e-01" purity="4.9807548522949219e-01" nType="0">
        <Node pos="l" depth="1" NCoef="0" IVar="0" Cut="1.1046690940856934e+00" cType="1" res="-2.2535247728228569e-02" rms="4.5669114589691162e-01" purity="5.4719835519790649e-01" nType="0">
          <Node pos="l" depth="2" NCoef="0" IVar="-1" Cut="0.0000000000000000e+00" cType="1" res="-1.6016550362110138e-03" rms="4.6112614870071411e-01" purity="6.3448017835617065e-01" nType="-99"/>
          <Node pos="r" depth="2" NCoef="0" IVar="-1" Cut="0.0000000000000000e+00" cType="1" res="-4.0961189370136708e-05" rms="4.5067480206489563e-01" purity="4.4828101992607117e-01" nType="-99"/>
        </Node>
        <Node pos="r" depth="1" NCoef="0" IVar="6" Cut="3.9596110582351685e-02" cType="1" res="1.0849446058273315e-02" rms="4.5235386490821838e-01" purity="4.5683363080024719e-01" nType="0">
          <Node pos="l" depth="2" NCoef="0" IVar="-1" Cut="0.0000000000000000e+00" cType="1" res="6.3100887928158045e-04" rms="4.5332318544387817e-01" purity="4.7355991601943970e-01" nType="-99"/>
          <Node pos="r" depth="2" NCoef="0" IVar="-1" Cut="0.0000000000000000e+00" cType="1" res="-1.3319409918040037e-03" rms="4.4165322184562683e-01" purity="3.4787803888320923e-01" nType="-99"/>
        </Node>
      </Node>
    </BinaryTree>
    <BinaryTree type="DecisionTree" boostWeight="1.0000000000000000e+00" itree="716">
      <Node pos="s" depth="0" NCoef="0" IVar="1" Cut="7.4644017219543457e-01" cType="1" res="-1.1910218745470047e-03" rms="4.5198050141334534e-01" purity="5.0180947780609131e-01" nType="0">
        <Node pos="l" depth="1" NCoef="0" IVar="7" Cut="5.9926474094390869e-01" cType="1" res="1.9430672749876976e-02" rms="4.4620820879936218e-01" purity="6.1637049913406372e-01" nType="0">
          <Node pos="l" depth="2" NCoef="0" IVar="-1" Cut="0.0000000000000000e+00" cType="1" res="-6.0737697640433908e-04" rms="4.6707835793495178e-01" purity="4.7502300143241882e-01" nType="-99"/>
          <Node pos="r" depth="2" NCoef="0" IVar="-1" Cut="0.0000000000000000e+00" cType="1" res="1.7662115860730410e-03" rms="4.3266835808753967e-01" purity="6.9451999664306641e-01" nType="-99"/>
        </Node>
        <Node pos="r" depth="1" NCoef="0" IVar="1" Cut="1.8126848936080933e+00" cType="1" res="-1.2812232598662376e-02" rms="4.5478942990303040e-01" purity="4.3724939227104187e-01" nType="0">
          <Node pos="l" depth="2" NCoef="0" IVar="-1" Cut="0.0000000000000000e+00" cType="1" res="-6.1167206149548292e-04" rms="4.6518236398696899e-01" purity="4.7819814085960388e-01" nType="-99"/>
          <Node pos="r" depth="2" NCoef="0" IVar="-1" Cut="0.0000000000000000e+00" cType="1" res="1.3731294893659651e-04" rms="4.2739358544349670e-01" purity="3.3553475141525269e-01" nType="-99"/>
        </Node>
      </Node>
    </BinaryTree>
    <BinaryTree type="DecisionTree" boostWeight="1.0000000000000000e+00" itree="717">
      <Node pos="s" depth="0" NCoef="0" IVar="3" Cut="4.5747325897216797e+01" cType="1" res="2.0327290985733271e-03" rms="4.5618003606796265e-01" purity="5.0656700134277344e-01" nType="0">
        <Node pos="l" depth="1" NCoef="0" IVar="3" Cut="3.7716751098632812e+01" cType="1" res="-2.3948397487401962e-02" rms="4.5490711927413940e-01" purity="4.0484866499900818e-01" nType="0">
          <Node pos="l" depth="2" NCoef="0" IVar="-1" Cut="0.0000000000000000e+00" cType="1" res="-1.6314515378326178e-03" rms="4.4394040107727051e-01" purity="3.4301972389221191e-01" nType="-99"/>
          <Node pos="r" depth="2" NCoef="0" IVar="-1" Cut="0.0000000000000000e+00" cType="1" res="4.1577071533538401e-04" rms="4.6351498365402222e-01" purity="4.7117963433265686e-01" nType="-99"/>
        </Node>
        <Node pos="r" depth="1" NCoef="0" IVar="6" Cut="2.0633293315768242e-02" cType="1" res="8.1770764663815498e-03" rms="4.5626428723335266e-01" purity="5.3062266111373901e-01" nType="0">
          <Node pos="l" depth="2" NCoef="0" IVar="-1" Cut="0.0000000000000000e+00" cType="1" res="-6.6500761022325605e-05" rms="4.5492321252822876e-01" purity="5.7267504930496216e-01" nType="-99"/>
          <Node pos="r" depth="2" NCoef="0" IVar="-1" Cut="0.0000000000000000e+00" cType="1" res="6.8736431421712041e-04" rms="4.5770061016082764e-01" purity="4.7468882799148560e-01" nType="-99"/>
        </Node>
      </Node>
    </BinaryTree>
    <BinaryTree type="DecisionTree" boostWeight="1.0000000000000000e+00" itree="718">
      <Node pos="s" depth="0" NCoef="0" IVar="2" Cut="7.2354173660278320e-01" cType="1" res="4.1996953077614307e-03" rms="4.4889593124389648e-01" purity="5.0300079584121704e-01" nType="0">
        <Node pos="l" depth="1" NCoef="0" IVar="-1" Cut="0.0000000000000000e+00" cType="1" res="-1.5348285669460893e-03" rms="4.0839821100234985e-01" purity="2.3170548677444458e-01" nType="-99"/>
        <Node pos="r" depth="1" NCoef="0" IVar="1" Cut="2.5321102142333984e+00" cType="1" res="8.2846917212009430e-03" rms="4.5135536789894104e-01" purity="5.2226853370666504e-01" nType="0">
          <Node pos="l" depth="2" NCoef="0" IVar="-1" Cut="0.0000000000000000e+00" cType="1" res="4.0989805711433291e-04" rms="4.5543941855430603e-01" purity="5.4673510789871216e-01" nType="-99"/>
          <Node pos="r" depth="2" NCoef="0" IVar="-1" Cut="0.0000000000000000e+00" cType="1" res="-1.0304518509656191e-03" rms="3.9993575215339661e-01" purity="2.4630545079708099e-01" nType="-99"/>
        </Node>
      </Node>
    </BinaryTree>
    <BinaryTree type="DecisionTree" boostWeight="1.0000000000000000e+00" itree="719">
      <Node pos="s" depth="0" NCoef="0" IVar="0" Cut="5.9399801492691040e-01" cType="1" res="-2.2724210284650326e-03" rms="4.5196941494941711e-01" purity="4.9928346276283264e-01" nType="0">
        <Node pos="l" depth="1" NCoef="0" IVar="-1" Cut="0.0000000000000000e+00" cType="1" res="-1.9528825068846345e-03" rms="4.6426528692245483e-01" purity="6.4808869361877441e-01" nType="-99"/>
        <Node pos="r" depth="1" NCoef="0" IVar="3" Cut="1.4648326110839844e+02" cType="1" res="1.0627178708091378e-03" rms="4.5089411735534668e-01" purity="4.8866650462150574e-01" nType="0">
          <Node pos="l" depth="2" NCoef="0" IVar="-1" Cut="0.0000000000000000e+00" cType="1" res="1.5915046969894320e-04" rms="4.5057481527328491e-01" purity="4.9904051423072815e-01" nType="-99"/>
          <Node pos="r" depth="2" NCoef="0" IVar="-1" Cut="0.0000000000000000e+00" cType="1" res="-1.3839695602655411e-03" rms="4.5218321681022644e-01" purity="3.5971200466156006e-01" nType="-99"/>
        </Node>
      </Node>
    </BinaryTree>
    <BinaryTree type="DecisionTree" boostWeight="1.0000000000000000e+00" itree="720">
      <Node pos="s" depth="0" NCoef="0" IVar="4" Cut="5.9232410430908203e+01" cType="1" res="-1.8240704666823149e-03" rms="4.5171004533767700e-01" purity="4.9894884228706360e-01" nType="0">
        <Node pos="l" depth="1" NCoef="0" IVar="-1" Cut="0.0000000000000000e+00" cType="1" res="-1.3690235791727901e-03" rms="4.3433207273483276e-01" purity="3.3151876926422119e-01" nType="-99"/>
        <Node pos="r" depth="1" NCoef="0" IVar="7" Cut="5.2565306425094604e-01" cType="1" res="1.5800311230123043e-03" rms="4.5280060172080994e-01" purity="5.1148408651351929e-01" nType="0">
          <Node pos="l" depth="2" NCoef="0" IVar="-1" Cut="0.0000000000000000e+00" cType="1" res="-1.0274280793964863e-03" rms="4.4706365466117859e-01" purity="3.4743016958236694e-01" nType="-99"/>
          <Node pos="r" depth="2" NCoef="0" IVar="-1" Cut="0.0000000000000000e+00" cType="1" res="2.3836044420022517e-04" rms="4.5336148142814636e-01" purity="5.3505641222000122e-01" nType="-99"/>
        </Node>
      </Node>
    </BinaryTree>
    <BinaryTree type="DecisionTree" boostWeight="1.0000000000000000e+00" itree="721">
      <Node pos="s" depth="0" NCoef="0" IVar="6" Cut="1.1588992550969124e-02" cType="1" res="1.2863453011959791e-03" rms="4.5065769553184509e-01" purity="5.0258737802505493e-01" nType="0">
        <Node pos="l" depth="1" NCoef="0" IVar="8" Cut="6.6316348314285278e-01" cType="1" res="-1.3804599642753601e-02" rms="4.4957962632179260e-01" purity="5.7373601198196411e-01" nType="0">
          <Node pos="l" depth="2" NCoef="0" IVar="-1" Cut="0.0000000000000000e+00" cType="1" res="-7.1250228211283684e-04" rms="4.5465961098670959e-01" purity="5.5569630861282349e-01" nType="-99"/>
          <Node pos="r" depth="2" NCoef="0" IVar="-1" Cut="0.0000000000000000e+00" cType="1" res="1.0153478942811489e-03" rms="4.1878387331962585e-01" purity="6.7226362228393555e-01" nType="-99"/>
        </Node>
        <Node pos="r" depth="1" NCoef="0" IVar="7" Cut="5.6699615716934204e-01" cType="1" res="1.0235347785055637e-02" rms="4.5105737447738647e-01" purity="4.6039587259292603e-01" nType="0">
          <Node pos="l" depth="2" NCoef="0" IVar="-1" Cut="0.0000000000000000e+00" cType="1" res="-2.7659404440782964e-04" rms="4.4959244132041931e-01" purity="3.8050892949104309e-01" nType="-99"/>
          <Node pos="r" depth="2" NCoef="0" IVar="-1" Cut="0.0000000000000000e+00" cType="1" res="7.9933024244382977e-04" rms="4.5157951116561890e-01" purity="5.1733756065368652e-01" nType="-99"/>
        </Node>
      </Node>
    </BinaryTree>
    <BinaryTree type="DecisionTree" boostWeight="1.0000000000000000e+00" itree="722">
      <Node pos="s" depth="0" NCoef="0" IVar="8" Cut="6.6463148593902588e-01" cType="1" res="-6.0564461164176464e-03" rms="4.5150873064994812e-01" purity="4.9907836318016052e-01" nType="0">
        <Node pos="l" depth="1" NCoef="0" IVar="6" Cut="1.2896793195977807e-03" cType="1" res="-1.0070777498185635e-02" rms="4.5342183113098145e-01" purity="4.8358711600303650e-01" nType="0">
          <Node pos="l" depth="2" NCoef="0" IVar="-1" Cut="0.0000000000000000e+00" cType="1" res="-1.8517195712774992e-03" rms="4.5011347532272339e-01" purity="5.5667906999588013e-01" nType="-99"/>
          <Node pos="r" depth="2" NCoef="0" IVar="-1" Cut="0.0000000000000000e+00" cType="1" res="-2.0070363825652748e-04" rms="4.5349457859992981e-01" purity="4.7748109698295593e-01" nType="-99"/>
        </Node>
        <Node pos="r" depth="1" NCoef="0" IVar="-1" Cut="0.0000000000000000e+00" cType="1" res="1.7410420114174485e-03" rms="4.2573344707489014e-01" purity="6.8004482984542847e-01" nType="-99"/>
      </Node>
    </BinaryTree>
    <BinaryTree type="DecisionTree" boostWeight="1.0000000000000000e+00" itree="723">
      <Node pos="s" depth="0" NCoef="0" IVar="2" Cut="7.4447667598724365e-01" cType="1" res="-4.6478090807795525e-03" rms="4.5309838652610779e-01" purity="4.9903056025505066e-01" nType="0">
        <Node pos="l" depth="1" NCoef="0" IVar="-1" Cut="0.0000000000000000e+00" cType="1" res="-1.2076848652213812e-03" rms="4.2070817947387695e-01" purity="2.5528135895729065e-01" nType="-99"/>
        <Node pos="r" depth="1" NCoef="0" IVar="3" Cut="4.6695823669433594e+01" cType="1" res="-5.8842776343226433e-04" rms="4.5617830753326416e-01" purity="5.2464157342910767e-01" nType="0">
          <Node pos="l" depth="2" NCoef="0" IVar="-1" Cut="0.0000000000000000e+00" cType="1" res="-6.7663635127246380e-04" rms="4.6215155720710754e-01" purity="4.2817723751068115e-01" nType="-99"/>
          <Node pos="r" depth="2" NCoef="0" IVar="-1" Cut="0.0000000000000000e+00" cType="1" res="1.6181693354155868e-04" rms="4.5456826686859131e-01" purity="5.4783546924591064e-01" nType="-99"/>
        </Node>
      </Node>
    </BinaryTree>
    <BinaryTree type="DecisionTree" boostWeight="1.0000000000000000e+00" itree="724">
      <Node pos="s" depth="0" NCoef="0" IVar="4" Cut="2.5637911987304688e+02" cType="1" res="-6.6692889668047428e-03" rms="4.5297992229461670e-01" purity="4.9556139111518860e-01" nType="0">
        <Node pos="l" depth="1" NCoef="0" IVar="4" Cut="9.3273780822753906e+01" cType="1" res="5.0599423957464751e-06" rms="4.5539385080337524e-01" purity="5.2710545063018799e-01" nType="0">
          <Node pos="l" depth="2" NCoef="0" IVar="-1" Cut="0.0000000000000000e+00" cType="1" res="-7.6396251097321510e-04" rms="4.5620182156562805e-01" purity="4.2255234718322754e-01" nType="-99"/>
          <Node pos="r" depth="2" NCoef="0" IVar="-1" Cut="0.0000000000000000e+00" cType="1" res="3.0693356529809535e-04" rms="4.5477974414825439e-01" purity="5.6324356794357300e-01" nType="-99"/>
        </Node>
        <Node pos="r" depth="1" NCoef="0" IVar="1" Cut="1.5558421611785889e+00" cType="1" res="-3.1001422554254532e-02" rms="4.4321814179420471e-01" purity="3.8056379556655884e-01" nType="0">
          <Node pos="l" depth="2" NCoef="0" IVar="-1" Cut="0.0000000000000000e+00" cType="1" res="-1.3616352807730436e-03" rms="4.4468048214912415e-01" purity="4.0328270196914673e-01" nType="-99"/>
          <Node pos="r" depth="2" NCoef="0" IVar="-1" Cut="0.0000000000000000e+00" cType="1" res="1.9830431847367436e-04" rms="4.3736237287521362e-01" purity="3.2474967837333679e-01" nType="-99"/>
        </Node>
      </Node>
    </BinaryTree>
    <BinaryTree type="DecisionTree" boostWeight="1.0000000000000000e+00" itree="725">
      <Node pos="s" depth="0" NCoef="0" IVar="9" Cut="9.8948448896408081e-01" cType="1" res="-1.3770672958344221e-03" rms="4.5449158549308777e-01" purity="5.0123447179794312e-01" nType="0">
        <Node pos="l" depth="1" NCoef="0" IVar="0" Cut="1.3354238271713257e+00" cType="1" res="-8.9854039251804352e-03" rms="4.5746865868568420e-01" purity="4.6683064103126526e-01" nType="0">
          <Node pos="l" depth="2" NCoef="0" IVar="-1" Cut="0.0000000000000000e+00" cType="1" res="-5.4942932911217213e-04" rms="4.6584984660148621e-01" purity="5.2029573917388916e-01" nType="-99"/>
          <Node pos="r" depth="2" NCoef="0" IVar="-1" Cut="0.0000000000000000e+00" cType="1" res="3.8315402343869209e-04" rms="4.3431583046913147e-01" purity="3.2860666513442993e-01" nType="-99"/>
        </Node>
        <Node pos="r" depth="1" NCoef="0" IVar="1" Cut="1.0633748769760132e+00" cType="1" res="1.9248912110924721e-02" rms="4.4566801190376282e-01" purity="5.9450232982635498e-01" nType="0">
          <Node pos="l" depth="2" NCoef="0" IVar="-1" Cut="0.0000000000000000e+00" cType="1" res="-6.0392221712390892e-06" rms="4.4557017087936401e-01" purity="6.4487636089324951e-01" nType="-99"/>
          <Node pos="r" depth="2" NCoef="0" IVar="-1" Cut="0.0000000000000000e+00" cType="1" res="1.5061221783980727e-03" rms="4.4455322623252869e-01" purity="5.2980428934097290e-01" nType="-99"/>
        </Node>
      </Node>
    </BinaryTree>
    <BinaryTree type="DecisionTree" boostWeight="1.0000000000000000e+00" itree="726">
      <Node pos="s" depth="0" NCoef="0" IVar="5" Cut="1.7037984132766724e+00" cType="1" res="4.6463338658213615e-03" rms="4.5248004794120789e-01" purity="5.0574970245361328e-01" nType="0">
        <Node pos="l" depth="1" NCoef="0" IVar="6" Cut="3.8727208971977234e-02" cType="1" res="8.7685612961649895e-03" rms="4.6076008677482605e-01" purity="5.4217618703842163e-01" nType="0">
          <Node pos="l" depth="2" NCoef="0" IVar="-1" Cut="0.0000000000000000e+00" cType="1" res="4.1369855171069503e-04" rms="4.6115306019783020e-01" purity="5.5469971895217896e-01" nType="-99"/>
          <Node pos="r" depth="2" NCoef="0" IVar="-1" Cut="0.0000000000000000e+00" cType="1" res="-8.8173529366031289e-04" rms="4.5426401495933533e-01" purity="3.9766654372215271e-01" nType="-99"/>
        </Node>
        <Node pos="r" depth="1" NCoef="0" IVar="-1" Cut="0.0000000000000000e+00" cType="1" res="-1.0792295215651393e-03" rms="3.6402732133865356e-01" purity="1.6573248803615570e-01" nType="-99"/>
      </Node>
    </BinaryTree>
    <BinaryTree type="DecisionTree" boostWeight="1.0000000000000000e+00" itree="727">
      <Node pos="s" depth="0" NCoef="0" IVar="3" Cut="1.1318005371093750e+02" cType="1" res="2.5809204671531916e-03" rms="4.5128580927848816e-01" purity="5.0460779666900635e-01" nType="0">
        <Node pos="l" depth="1" NCoef="0" IVar="3" Cut="3.6712070465087891e+01" cType="1" res="-3.5827937535941601e-03" rms="4.5546978712081909e-01" purity="4.9232834577560425e-01" nType="0">
          <Node pos="l" depth="2" NCoef="0" IVar="-1" Cut="0.0000000000000000e+00" cType="1" res="-1.2657763436436653e-03" rms="4.4864255189895630e-01" purity="3.5576418042182922e-01" nType="-99"/>
          <Node pos="r" depth="2" NCoef="0" IVar="-1" Cut="0.0000000000000000e+00" cType="1" res="4.6660275984322652e-05" rms="4.5601931214332581e-01" purity="5.0860947370529175e-01" nType="-99"/>
        </Node>
        <Node pos="r" depth="1" NCoef="0" IVar="1" Cut="1.4829553365707397e+00" cType="1" res="2.5041934102773666e-02" rms="4.3496081233024597e-01" purity="5.4935508966445923e-01" nType="0">
          <Node pos="l" depth="2" NCoef="0" IVar="-1" Cut="0.0000000000000000e+00" cType="1" res="1.7236823914572597e-03" rms="4.2923644185066223e-01" purity="6.2868982553482056e-01" nType="-99"/>
          <Node pos="r" depth="2" NCoef="0" IVar="-1" Cut="0.0000000000000000e+00" cType="1" res="-5.6448025861755013e-04" rms="4.4507795572280884e-01" purity="3.6316382884979248e-01" nType="-99"/>
        </Node>
      </Node>
    </BinaryTree>
    <BinaryTree type="DecisionTree" boostWeight="1.0000000000000000e+00" itree="728">
      <Node pos="s" depth="0" NCoef="0" IVar="3" Cut="1.2910923767089844e+02" cType="1" res="-1.0892783757299185e-04" rms="4.5417788624763489e-01" purity="5.0365686416625977e-01" nType="0">
        <Node pos="l" depth="1" NCoef="0" IVar="1" Cut="1.9376811981201172e+00" cType="1" res="5.7503972202539444e-03" rms="4.5495238900184631e-01" purity="5.1353162527084351e-01" nType="0">
          <Node pos="l" depth="2" NCoef="0" IVar="-1" Cut="0.0000000000000000e+00" cType="1" res="3.6067771725356579e-04" rms="4.6092578768730164e-01" purity="5.5262565612792969e-01" nType="-99"/>
          <Node pos="r" depth="2" NCoef="0" IVar="-1" Cut="0.0000000000000000e+00" cType="1" res="-6.1118364101275802e-04" rms="4.2084378004074097e-01" purity="3.0583652853965759e-01" nType="-99"/>
        </Node>
        <Node pos="r" depth="1" NCoef="0" IVar="8" Cut="5.3410351276397705e-01" cType="1" res="-4.0306061506271362e-02" rms="4.4676133990287781e-01" purity="4.3591257929801941e-01" nType="0">
          <Node pos="l" depth="2" NCoef="0" IVar="-1" Cut="0.0000000000000000e+00" cType="1" res="-2.2329094645101577e-04" rms="4.3794789910316467e-01" purity="3.9364114403724670e-01" nType="-99"/>
          <Node pos="r" depth="2" NCoef="0" IVar="-1" Cut="0.0000000000000000e+00" cType="1" res="-2.2310209460556507e-03" rms="4.5219060778617859e-01" purity="4.7171944379806519e-01" nType="-99"/>
        </Node>
      </Node>
    </BinaryTree>
    <BinaryTree type="DecisionTree" boostWeight="1.0000000000000000e+00" itree="729">
      <Node pos="s" depth="0" NCoef="0" IVar="4" Cut="5.8923656463623047e+01" cType="1" res="-5.3718229755759239e-03" rms="4.5219698548316956e-01" purity="4.9561473727226257e-01" nType="0">
        <Node pos="l" depth="1" NCoef="0" IVar="-1" Cut="0.0000000000000000e+00" cType="1" res="-1.5357830561697483e-03" rms="4.3773972988128662e-01" purity="3.2674717903137207e-01" nType="-99"/>
        <Node pos="r" depth="1" NCoef="0" IVar="4" Cut="1.3904864501953125e+02" cType="1" res="-1.8573947018012404e-03" rms="4.5304524898529053e-01" purity="5.0805574655532837e-01" nType="0">
          <Node pos="l" depth="2" NCoef="0" IVar="-1" Cut="0.0000000000000000e+00" cType="1" res="4.6437172568403184e-04" rms="4.5566371083259583e-01" purity="5.8207178115844727e-01" nType="-99"/>
          <Node pos="r" depth="2" NCoef="0" IVar="-1" Cut="0.0000000000000000e+00" cType="1" res="-4.0535989683121443e-04" rms="4.5074862241744995e-01" purity="4.5241206884384155e-01" nType="-99"/>
        </Node>
      </Node>
    </BinaryTree>
    <BinaryTree type="DecisionTree" boostWeight="1.0000000000000000e+00" itree="730">
      <Node pos="s" depth="0" NCoef="0" IVar="3" Cut="1.4648326110839844e+02" cType="1" res="1.3665579899679869e-04" rms="4.4819387793540955e-01" purity="4.9926123023033142e-01" nType="0">
        <Node pos="l" depth="1" NCoef="0" IVar="3" Cut="1.0638686370849609e+02" cType="1" res="4.0504112839698792e-03" rms="4.4883832335472107e-01" purity="5.1079016923904419e-01" nType="0">
          <Node pos="l" depth="2" NCoef="0" IVar="-1" Cut="0.0000000000000000e+00" cType="1" res="-1.1545499000931159e-04" rms="4.5337951183319092e-01" purity="4.8611471056938171e-01" nType="-99"/>
          <Node pos="r" depth="2" NCoef="0" IVar="-1" Cut="0.0000000000000000e+00" cType="1" res="1.3346748892217875e-03" rms="4.2862570285797119e-01" purity="6.1045777797698975e-01" nType="-99"/>
        </Node>
        <Node pos="r" depth="1" NCoef="0" IVar="-1" Cut="0.0000000000000000e+00" cType="1" res="-1.4106752350926399e-03" rms="4.3731573224067688e-01" purity="3.5725900530815125e-01" nType="-99"/>
      </Node>
    </BinaryTree>
    <BinaryTree type="DecisionTree" boostWeight="1.0000000000000000e+00" itree="731">
      <Node pos="s" depth="0" NCoef="0" IVar="3" Cut="1.0374584197998047e+02" cType="1" res="-2.8193842153996229e-03" rms="4.5314854383468628e-01" purity="5.0135862827301025e-01" nType="0">
        <Node pos="l" depth="1" NCoef="0" IVar="3" Cut="3.7813884735107422e+01" cType="1" res="-1.1308968998491764e-02" rms="4.5735487341880798e-01" purity="4.7904321551322937e-01" nType="0">
          <Node pos="l" depth="2" NCoef="0" IVar="-1" Cut="0.0000000000000000e+00" cType="1" res="-1.1471823090687394e-03" rms="4.4402605295181274e-01" purity="3.6536902189254761e-01" nType="-99"/>
          <Node pos="r" depth="2" NCoef="0" IVar="-1" Cut="0.0000000000000000e+00" cType="1" res="-2.1616634330712259e-04" rms="4.5923095941543579e-01" purity="4.9681451916694641e-01" nType="-99"/>
        </Node>
        <Node pos="r" depth="1" NCoef="0" IVar="3" Cut="1.2871073913574219e+02" cType="1" res="1.9478421658277512e-02" rms="4.4113260507583618e-01" purity="5.5996966361999512e-01" nType="0">
          <Node pos="l" depth="2" NCoef="0" IVar="-1" Cut="0.0000000000000000e+00" cType="1" res="1.9560256041586399e-03" rms="4.2847236990928650e-01" purity="6.3998240232467651e-01" nType="-99"/>
          <Node pos="r" depth="2" NCoef="0" IVar="-1" Cut="0.0000000000000000e+00" cType="1" res="-4.4765387428924441e-04" rms="4.5272859930992126e-01" purity="4.6984475851058960e-01" nType="-99"/>
        </Node>
      </Node>
    </BinaryTree>
    <BinaryTree type="DecisionTree" boostWeight="1.0000000000000000e+00" itree="732">
      <Node pos="s" depth="0" NCoef="0" IVar="5" Cut="1.6836928129196167e+00" cType="1" res="2.8968851547688246e-03" rms="4.5023912191390991e-01" purity="5.0427687168121338e-01" nType="0">
        <Node pos="l" depth="1" NCoef="0" IVar="3" Cut="3.8377567291259766e+01" cType="1" res="7.0463852025568485e-03" rms="4.5969334244728088e-01" purity="5.4404485225677490e-01" nType="0">
          <Node pos="l" depth="2" NCoef="0" IVar="-1" Cut="0.0000000000000000e+00" cType="1" res="-9.9844415672123432e-04" rms="4.5502120256423950e-01" purity="3.9207524061203003e-01" nType="-99"/>
          <Node pos="r" depth="2" NCoef="0" IVar="-1" Cut="0.0000000000000000e+00" cType="1" res="4.0435799746774137e-04" rms="4.5995894074440002e-01" purity="5.6104999780654907e-01" nType="-99"/>
        </Node>
        <Node pos="r" depth="1" NCoef="0" IVar="-1" Cut="0.0000000000000000e+00" cType="1" res="-1.0640891268849373e-03" rms="3.5771480202674866e-01" purity="1.6516888141632080e-01" nType="-99"/>
      </Node>
    </BinaryTree>
    <BinaryTree type="DecisionTree" boostWeight="1.0000000000000000e+00" itree="733">
      <Node pos="s" depth="0" NCoef="0" IVar="7" Cut="5.6768083572387695e-01" cType="1" res="-3.5103396512567997e-03" rms="4.5175623893737793e-01" purity="4.9789297580718994e-01" nType="0">
        <Node pos="l" depth="1" NCoef="0" IVar="2" Cut="8.2687026262283325e-01" cType="1" res="-2.3537054657936096e-02" rms="4.4783085584640503e-01" purity="3.6911249160766602e-01" nType="0">
          <Node pos="l" depth="2" NCoef="0" IVar="-1" Cut="0.0000000000000000e+00" cType="1" res="-1.0277158580720425e-03" rms="4.3770998716354370e-01" purity="3.1281626224517822e-01" nType="-99"/>
          <Node pos="r" depth="2" NCoef="0" IVar="-1" Cut="0.0000000000000000e+00" cType="1" res="2.7613670681603253e-04" rms="4.7094258666038513e-01" purity="5.1161938905715942e-01" nType="-99"/>
        </Node>
        <Node pos="r" depth="1" NCoef="0" IVar="4" Cut="2.5536624145507812e+02" cType="1" res="3.9842007681727409e-03" rms="4.5298886299133301e-01" purity="5.4608613252639771e-01" nType="0">
          <Node pos="l" depth="2" NCoef="0" IVar="-1" Cut="0.0000000000000000e+00" cType="1" res="3.8108957232907414e-04" rms="4.5306053757667542e-01" purity="5.7851684093475342e-01" nType="-99"/>
          <Node pos="r" depth="2" NCoef="0" IVar="-1" Cut="0.0000000000000000e+00" cType="1" res="-6.2116089975461364e-04" rms="4.5188227295875549e-01" purity="4.2722094058990479e-01" nType="-99"/>
        </Node>
      </Node>
    </BinaryTree>
    <BinaryTree type="DecisionTree" boostWeight="1.0000000000000000e+00" itree="734">
      <Node pos="s" depth="0" NCoef="0" IVar="6" Cut="3.9917401969432831e-02" cType="1" res="-5.9414012357592583e-03" rms="4.5248603820800781e-01" purity="4.9795347452163696e-01" nType="0">
        <Node pos="l" depth="1" NCoef="0" IVar="3" Cut="1.0233065795898438e+02" cType="1" res="-2.6004505343735218e-03" rms="4.5278170704841614e-01" purity="5.0832724571228027e-01" nType="0">
          <Node pos="l" depth="2" NCoef="0" IVar="-1" Cut="0.0000000000000000e+00" cType="1" res="-2.9999023536220193e-04" rms="4.5663952827453613e-01" purity="4.8615804314613342e-01" nType="-99"/>
          <Node pos="r" depth="2" NCoef="0" IVar="-1" Cut="0.0000000000000000e+00" cType="1" res="5.3784856572747231e-04" rms="4.4235810637474060e-01" purity="5.6465095281600952e-01" nType="-99"/>
        </Node>
        <Node pos="r" depth="1" NCoef="0" IVar="-1" Cut="0.0000000000000000e+00" cType="1" res="-1.5052795642986894e-03" rms="4.4547727704048157e-01" purity="3.4918883442878723e-01" nType="-99"/>
      </Node>
    </BinaryTree>
    <BinaryTree type="DecisionTree" boostWeight="1.0000000000000000e+00" itree="735">
      <Node pos="s" depth="0" NCoef="0" IVar="1" Cut="3.0081513524055481e-01" cType="1" res="-1.5887363115325570e-03" rms="4.5106449723243713e-01" purity="5.0051921606063843e-01" nType="0">
        <Node pos="l" depth="1" NCoef="0" IVar="-1" Cut="0.0000000000000000e+00" cType="1" res="1.6781686572358012e-03" rms="4.3451014161109924e-01" purity="6.7572695016860962e-01" nType="-99"/>
        <Node pos="r" depth="1" NCoef="0" IVar="4" Cut="2.5564871215820312e+02" cType="1" res="-6.2254751101136208e-03" rms="4.5257943868637085e-01" purity="4.8153027892112732e-01" nType="0">
          <Node pos="l" depth="2" NCoef="0" IVar="-1" Cut="0.0000000000000000e+00" cType="1" res="-8.9195555119658820e-06" rms="4.5570749044418335e-01" purity="5.1441878080368042e-01" nType="-99"/>
          <Node pos="r" depth="2" NCoef="0" IVar="-1" Cut="0.0000000000000000e+00" cType="1" res="-7.9533713869750500e-04" rms="4.4128760695457458e-01" purity="3.7073361873626709e-01" nType="-99"/>
        </Node>
      </Node>
    </BinaryTree>
    <BinaryTree type="DecisionTree" boostWeight="1.0000000000000000e+00" itree="736">
      <Node pos="s" depth="0" NCoef="0" IVar="9" Cut="7.6864218711853027e-01" cType="1" res="4.4176476076245308e-03" rms="4.5150068402290344e-01" purity="5.0377774238586426e-01" nType="0">
        <Node pos="l" depth="1" NCoef="0" IVar="-1" Cut="0.0000000000000000e+00" cType="1" res="-1.4213840477168560e-03" rms="4.1951808333396912e-01" purity="2.5038802623748779e-01" nType="-99"/>
        <Node pos="r" depth="1" NCoef="0" IVar="4" Cut="1.3291340637207031e+02" cType="1" res="8.8527854532003403e-03" rms="4.5369821786880493e-01" purity="5.2426350116729736e-01" nType="0">
          <Node pos="l" depth="2" NCoef="0" IVar="-1" Cut="0.0000000000000000e+00" cType="1" res="8.2403258420526981e-04" rms="4.4974684715270996e-01" purity="5.6873810291290283e-01" nType="-99"/>
          <Node pos="r" depth="2" NCoef="0" IVar="-1" Cut="0.0000000000000000e+00" cType="1" res="-7.8428820415865630e-05" rms="4.5645314455032349e-01" purity="4.8942103981971741e-01" nType="-99"/>
        </Node>
      </Node>
    </BinaryTree>
    <BinaryTree type="DecisionTree" boostWeight="1.0000000000000000e+00" itree="737">
      <Node pos="s" depth="0" NCoef="0" IVar="6" Cut="1.5451748855412006e-02" cType="1" res="-1.2355497106909752e-02" rms="4.5320394635200500e-01" purity="4.8851975798606873e-01" nType="0">
        <Node pos="l" depth="1" NCoef="0" IVar="0" Cut="1.0555195808410645e+00" cType="1" res="-2.5632491335272789e-02" rms="4.5474115014076233e-01" purity="5.4316401481628418e-01" nType="0">
          <Node pos="l" depth="2" NCoef="0" IVar="-1" Cut="0.0000000000000000e+00" cType="1" res="-1.6858640592545271e-03" rms="4.5789030194282532e-01" purity="6.4226371049880981e-01" nType="-99"/>
          <Node pos="r" depth="2" NCoef="0" IVar="-1" Cut="0.0000000000000000e+00" cType="1" res="-2.9617358813993633e-04" rms="4.5119181275367737e-01" purity="4.5060509443283081e-01" nType="-99"/>
        </Node>
        <Node pos="r" depth="1" NCoef="0" IVar="8" Cut="6.0642945766448975e-01" cType="1" res="-1.4034033520147204e-03" rms="4.5163831114768982e-01" purity="4.4344413280487061e-01" nType="0">
          <Node pos="l" depth="2" NCoef="0" IVar="-1" Cut="0.0000000000000000e+00" cType="1" res="-2.7619584579952061e-04" rms="4.5189675688743591e-01" purity="4.1798484325408936e-01" nType="-99"/>
          <Node pos="r" depth="2" NCoef="0" IVar="-1" Cut="0.0000000000000000e+00" cType="1" res="1.8320463132113218e-03" rms="4.4673436880111694e-01" purity="6.0787183046340942e-01" nType="-99"/>
        </Node>
      </Node>
    </BinaryTree>
    <BinaryTree type="DecisionTree" boostWeight="1.0000000000000000e+00" itree="738">
      <Node pos="s" depth="0" NCoef="0" IVar="4" Cut="1.4074926757812500e+02" cType="1" res="-1.8394303042441607e-03" rms="4.5348793268203735e-01" purity="5.0141757726669312e-01" nType="0">
        <Node pos="l" depth="1" NCoef="0" IVar="4" Cut="8.4487548828125000e+01" cType="1" res="9.9984761327505112e-03" rms="4.5043230056762695e-01" purity="5.5008178949356079e-01" nType="0">
          <Node pos="l" depth="2" NCoef="0" IVar="-1" Cut="0.0000000000000000e+00" cType="1" res="-5.7195144472643733e-04" rms="4.4891199469566345e-01" purity="4.1228747367858887e-01" nType="-99"/>
          <Node pos="r" depth="2" NCoef="0" IVar="-1" Cut="0.0000000000000000e+00" cType="1" res="8.9256244245916605e-04" rms="4.5050841569900513e-01" purity="6.1680251359939575e-01" nType="-99"/>
        </Node>
        <Node pos="r" depth="1" NCoef="0" IVar="7" Cut="8.9364957809448242e-01" cType="1" res="-1.2877673842012882e-02" rms="4.5604193210601807e-01" purity="4.5604062080383301e-01" nType="0">
          <Node pos="l" depth="2" NCoef="0" IVar="-1" Cut="0.0000000000000000e+00" cType="1" res="-2.1658596233464777e-04" rms="4.5341292023658752e-01" purity="4.4336155056953430e-01" nType="-99"/>
          <Node pos="r" depth="2" NCoef="0" IVar="-1" Cut="0.0000000000000000e+00" cType="1" res="-1.9850186072289944e-03" rms="4.7331765294075012e-01" purity="5.5348891019821167e-01" nType="-99"/>
        </Node>
      </Node>
    </BinaryTree>
    <BinaryTree type="DecisionTree" boostWeight="1.0000000000000000e+00" itree="739">
      <Node pos="s" depth="0" NCoef="0" IVar="9" Cut="9.5885765552520752e-01" cType="1" res="4.4975224882364273e-03" rms="4.5107132196426392e-01" purity="5.0711613893508911e-01" nType="0">
        <Node pos="l" depth="1" NCoef="0" IVar="0" Cut="7.6268857717514038e-01" cType="1" res="-1.0532555170357227e-02" rms="4.5322912931442261e-01" purity="4.1630253195762634e-01" nType="0">
          <Node pos="l" depth="2" NCoef="0" IVar="-1" Cut="0.0000000000000000e+00" cType="1" res="1.4938008971512318e-03" rms="4.5887392759323120e-01" purity="6.3669067621231079e-01" nType="-99"/>
          <Node pos="r" depth="2" NCoef="0" IVar="-1" Cut="0.0000000000000000e+00" cType="1" res="-5.8593531139194965e-04" rms="4.5160469412803650e-01" purity="3.7729415297508240e-01" nType="-99"/>
        </Node>
        <Node pos="r" depth="1" NCoef="0" IVar="6" Cut="7.7260732650756836e-03" cType="1" res="1.6091234982013702e-02" rms="4.4905623793601990e-01" purity="5.7716679573059082e-01" nType="0">
          <Node pos="l" depth="2" NCoef="0" IVar="-1" Cut="0.0000000000000000e+00" cType="1" res="1.4159274287521839e-03" rms="4.3077066540718079e-01" purity="6.5522503852844238e-01" nType="-99"/>
          <Node pos="r" depth="2" NCoef="0" IVar="-1" Cut="0.0000000000000000e+00" cType="1" res="1.7846748232841492e-04" rms="4.5874801278114319e-01" purity="5.3292590379714966e-01" nType="-99"/>
        </Node>
      </Node>
    </BinaryTree>
    <BinaryTree type="DecisionTree" boostWeight="1.0000000000000000e+00" itree="740">
      <Node pos="s" depth="0" NCoef="0" IVar="3" Cut="1.4654072570800781e+02" cType="1" res="-5.3110974840819836e-03" rms="4.5479530096054077e-01" purity="4.9907916784286499e-01" nType="0">
        <Node pos="l" depth="1" NCoef="0" IVar="3" Cut="3.6958507537841797e+01" cType="1" res="-2.3285518400371075e-03" rms="4.5433965325355530e-01" purity="5.0800228118896484e-01" nType="0">
          <Node pos="l" depth="2" NCoef="0" IVar="-1" Cut="0.0000000000000000e+00" cType="1" res="-1.6006493242457509e-03" rms="4.4845682382583618e-01" purity="3.4443819522857666e-01" nType="-99"/>
          <Node pos="r" depth="2" NCoef="0" IVar="-1" Cut="0.0000000000000000e+00" cType="1" res="1.2007445911876857e-04" rms="4.5456534624099731e-01" purity="5.2548700571060181e-01" nType="-99"/>
        </Node>
        <Node pos="r" depth="1" NCoef="0" IVar="-1" Cut="0.0000000000000000e+00" cType="1" res="-1.3406240614131093e-03" rms="4.5891597867012024e-01" purity="3.8312694430351257e-01" nType="-99"/>
      </Node>
    </BinaryTree>
    <BinaryTree type="DecisionTree" boostWeight="1.0000000000000000e+00" itree="741">
      <Node pos="s" depth="0" NCoef="0" IVar="3" Cut="1.2896449279785156e+02" cType="1" res="-2.3134362418204546e-03" rms="4.5274075865745544e-01" purity="4.9790093302726746e-01" nType="0">
        <Node pos="l" depth="1" NCoef="0" IVar="3" Cut="1.0554653930664062e+02" cType="1" res="3.6120249424129725e-03" rms="4.5286557078361511e-01" purity="5.0754803419113159e-01" nType="0">
          <Node pos="l" depth="2" NCoef="0" IVar="-1" Cut="0.0000000000000000e+00" cType="1" res="-9.5896750281099230e-05" rms="4.5680409669876099e-01" purity="4.8622581362724304e-01" nType="-99"/>
          <Node pos="r" depth="2" NCoef="0" IVar="-1" Cut="0.0000000000000000e+00" cType="1" res="1.4840429648756981e-03" rms="4.2988720536231995e-01" purity="6.1971837282180786e-01" nType="-99"/>
        </Node>
        <Node pos="r" depth="1" NCoef="0" IVar="5" Cut="1.0917803049087524e+00" cType="1" res="-4.1293699294328690e-02" rms="4.4997799396514893e-01" purity="4.3443825840950012e-01" nType="0">
          <Node pos="l" depth="2" NCoef="0" IVar="-1" Cut="0.0000000000000000e+00" cType="1" res="-2.4521972518414259e-03" rms="4.6992078423500061e-01" purity="5.7404524087905884e-01" nType="-99"/>
          <Node pos="r" depth="2" NCoef="0" IVar="-1" Cut="0.0000000000000000e+00" cType="1" res="-5.0108187133446336e-04" rms="4.3058666586875916e-01" purity="3.1431314349174500e-01" nType="-99"/>
        </Node>
      </Node>
    </BinaryTree>
    <BinaryTree type="DecisionTree" boostWeight="1.0000000000000000e+00" itree="742">
      <Node pos="s" depth="0" NCoef="0" IVar="1" Cut="2.4911661148071289e+00" cType="1" res="-1.9761894363909960e-03" rms="4.5141929388046265e-01" purity="5.0145149230957031e-01" nType="0">
        <Node pos="l" depth="1" NCoef="0" IVar="4" Cut="4.0199609375000000e+02" cType="1" res="2.0338175818324089e-03" rms="4.5629033446311951e-01" purity="5.2638506889343262e-01" nType="0">
          <Node pos="l" depth="2" NCoef="0" IVar="-1" Cut="0.0000000000000000e+00" cType="1" res="1.7581545398570597e-04" rms="4.5822611451148987e-01" purity="5.4093378782272339e-01" nType="-99"/>
          <Node pos="r" depth="2" NCoef="0" IVar="-1" Cut="0.0000000000000000e+00" cType="1" res="-1.0867370292544365e-03" rms="4.3028682470321655e-01" purity="3.5026520490646362e-01" nType="-99"/>
        </Node>
        <Node pos="r" depth="1" NCoef="0" IVar="-1" Cut="0.0000000000000000e+00" cType="1" res="-1.3597214128822088e-03" rms="3.9196977019309998e-01" purity="2.3040935397148132e-01" nType="-99"/>
      </Node>
    </BinaryTree>
    <BinaryTree type="DecisionTree" boostWeight="1.0000000000000000e+00" itree="743">
      <Node pos="s" depth="0" NCoef="0" IVar="4" Cut="1.3261779785156250e+02" cType="1" res="9.6685357857495546e-04" rms="4.5025908946990967e-01" purity="4.9976834654808044e-01" nType="0">
        <Node pos="l" depth="1" NCoef="0" IVar="4" Cut="8.2474822998046875e+01" cType="1" res="2.2302504628896713e-02" rms="4.4517037272453308e-01" purity="5.5125904083251953e-01" nType="0">
          <Node pos="l" depth="2" NCoef="0" IVar="-1" Cut="0.0000000000000000e+00" cType="1" res="-4.1756051359698176e-04" rms="4.4638514518737793e-01" purity="4.0894907712936401e-01" nType="-99"/>
          <Node pos="r" depth="2" NCoef="0" IVar="-1" Cut="0.0000000000000000e+00" cType="1" res="1.5797709347680211e-03" rms="4.4333016872406006e-01" purity="6.2693107128143311e-01" nType="-99"/>
        </Node>
        <Node pos="r" depth="1" NCoef="0" IVar="6" Cut="9.0364729985594749e-03" cType="1" res="-1.5453330241143703e-02" rms="4.5345351099967957e-01" purity="4.6014049649238586e-01" nType="0">
          <Node pos="l" depth="2" NCoef="0" IVar="-1" Cut="0.0000000000000000e+00" cType="1" res="-1.4149207854643464e-03" rms="4.5679783821105957e-01" purity="5.2239489555358887e-01" nType="-99"/>
          <Node pos="r" depth="2" NCoef="0" IVar="-1" Cut="0.0000000000000000e+00" cType="1" res="-1.0320603178115562e-04" rms="4.5143708586692810e-01" purity="4.3259251117706299e-01" nType="-99"/>
        </Node>
      </Node>
    </BinaryTree>
    <BinaryTree type="DecisionTree" boostWeight="1.0000000000000000e+00" itree="744">
      <Node pos="s" depth="0" NCoef="0" IVar="0" Cut="1.4003109931945801e+00" cType="1" res="-4.8012202605605125e-03" rms="4.5364242792129517e-01" purity="4.9617192149162292e-01" nType="0">
        <Node pos="l" depth="1" NCoef="0" IVar="4" Cut="3.6226882934570312e+02" cType="1" res="3.0979065923020244e-04" rms="4.6140366792678833e-01" purity="5.5415213108062744e-01" nType="0">
          <Node pos="l" depth="2" NCoef="0" IVar="-1" Cut="0.0000000000000000e+00" cType="1" res="1.3342834427021444e-04" rms="4.6154293417930603e-01" purity="5.6654012203216553e-01" nType="-99"/>
          <Node pos="r" depth="2" NCoef="0" IVar="-1" Cut="0.0000000000000000e+00" cType="1" res="-1.1737502645701170e-03" rms="4.5790097117424011e-01" purity="4.1572225093841553e-01" nType="-99"/>
        </Node>
        <Node pos="r" depth="1" NCoef="0" IVar="2" Cut="8.6140882968902588e-01" cType="1" res="-2.2182455286383629e-02" rms="4.2573326826095581e-01" purity="2.9899594187736511e-01" nType="0">
          <Node pos="l" depth="2" NCoef="0" IVar="-1" Cut="0.0000000000000000e+00" cType="1" res="-1.6867347585503012e-04" rms="4.0583297610282898e-01" purity="2.4927756190299988e-01" nType="-99"/>
          <Node pos="r" depth="2" NCoef="0" IVar="-1" Cut="0.0000000000000000e+00" cType="1" res="-1.1472118785604835e-03" rms="4.4673651456832886e-01" purity="3.5615444183349609e-01" nType="-99"/>
        </Node>
      </Node>
    </BinaryTree>
    <BinaryTree type="DecisionTree" boostWeight="1.0000000000000000e+00" itree="745">
      <Node pos="s" depth="0" NCoef="0" IVar="4" Cut="2.9151098632812500e+02" cType="1" res="4.2906459420919418e-03" rms="4.5085805654525757e-01" purity="5.0372731685638428e-01" nType="0">
        <Node pos="l" depth="1" NCoef="0" IVar="3" Cut="3.5201698303222656e+01" cType="1" res="1.0288543999195099e-02" rms="4.5268261432647705e-01" purity="5.3163498640060425e-01" nType="0">
          <Node pos="l" depth="2" NCoef="0" IVar="-1" Cut="0.0000000000000000e+00" cType="1" res="-1.1655816342681646e-03" rms="4.4565641880035400e-01" purity="3.5563302040100098e-01" nType="-99"/>
          <Node pos="r" depth="2" NCoef="0" IVar="-1" Cut="0.0000000000000000e+00" cType="1" res="5.2199803758412600e-04" rms="4.5301079750061035e-01" purity="5.4752957820892334e-01" nType="-99"/>
        </Node>
        <Node pos="r" depth="1" NCoef="0" IVar="6" Cut="1.2877961620688438e-02" cType="1" res="-2.4193240329623222e-02" rms="4.4097828865051270e-01" purity="3.7119460105895996e-01" nType="0">
          <Node pos="l" depth="2" NCoef="0" IVar="-1" Cut="0.0000000000000000e+00" cType="1" res="-1.5872191870585084e-03" rms="4.5342513918876648e-01" purity="4.2155712842941284e-01" nType="-99"/>
          <Node pos="r" depth="2" NCoef="0" IVar="-1" Cut="0.0000000000000000e+00" cType="1" res="-2.4525891058146954e-04" rms="4.3325248360633850e-01" purity="3.4403100609779358e-01" nType="-99"/>
        </Node>
      </Node>
    </BinaryTree>
    <BinaryTree type="DecisionTree" boostWeight="1.0000000000000000e+00" itree="746">
      <Node pos="s" depth="0" NCoef="0" IVar="6" Cut="2.0654594525694847e-02" cType="1" res="-3.5241045989096165e-03" rms="4.5126709342002869e-01" purity="4.9992245435714722e-01" nType="0">
        <Node pos="l" depth="1" NCoef="0" IVar="0" Cut="9.9182957410812378e-01" cType="1" res="-1.4252629131078720e-02" rms="4.4974294304847717e-01" purity="5.4004991054534912e-01" nType="0">
          <Node pos="l" depth="2" NCoef="0" IVar="-1" Cut="0.0000000000000000e+00" cType="1" res="1.4161503349896520e-04" rms="4.4419154524803162e-01" purity="6.8634885549545288e-01" nType="-99"/>
          <Node pos="r" depth="2" NCoef="0" IVar="-1" Cut="0.0000000000000000e+00" cType="1" res="-7.7505788067355752e-04" rms="4.5298635959625244e-01" purity="4.4377908110618591e-01" nType="-99"/>
        </Node>
        <Node pos="r" depth="1" NCoef="0" IVar="7" Cut="6.2976533174514771e-01" cType="1" res="1.0920521803200245e-02" rms="4.5290979743003845e-01" purity="4.4589588046073914e-01" nType="0">
          <Node pos="l" depth="2" NCoef="0" IVar="-1" Cut="0.0000000000000000e+00" cType="1" res="5.3767984354635701e-05" rms="4.5111617445945740e-01" purity="4.2419418692588806e-01" nType="-99"/>
          <Node pos="r" depth="2" NCoef="0" IVar="-1" Cut="0.0000000000000000e+00" cType="1" res="2.5605109985917807e-03" rms="4.6003070473670959e-01" purity="5.8957356214523315e-01" nType="-99"/>
        </Node>
      </Node>
    </BinaryTree>
    <BinaryTree type="DecisionTree" boostWeight="1.0000000000000000e+00" itree="747">
      <Node pos="s" depth="0" NCoef="0" IVar="9" Cut="9.7002476453781128e-01" cType="1" res="1.7597305122762918e-03" rms="4.5070073008537292e-01" purity="5.0332272052764893e-01" nType="0">
        <Node pos="l" depth="1" NCoef="0" IVar="7" Cut="8.0548799037933350e-01" cType="1" res="-1.2913139536976814e-02" rms="4.5381855964660645e-01" purity="4.2867505550384521e-01" nType="0">
          <Node pos="l" depth="2" NCoef="0" IVar="-1" Cut="0.0000000000000000e+00" cType="1" res="-2.4342126562260091e-04" rms="4.5300737023353577e-01" purity="4.1485700011253357e-01" nType="-99"/>
          <Node pos="r" depth="2" NCoef="0" IVar="-1" Cut="0.0000000000000000e+00" cType="1" res="-1.6064888332039118e-03" rms="4.5819181203842163e-01" purity="5.3141129016876221e-01" nType="-99"/>
        </Node>
        <Node pos="r" depth="1" NCoef="0" IVar="0" Cut="6.7069631814956665e-01" cType="1" res="1.7525514587759972e-02" rms="4.4678971171379089e-01" purity="5.8353054523468018e-01" nType="0">
          <Node pos="l" depth="2" NCoef="0" IVar="-1" Cut="0.0000000000000000e+00" cType="1" res="-1.2436889810487628e-03" rms="4.4731700420379639e-01" purity="7.0936518907546997e-01" nType="-99"/>
          <Node pos="r" depth="2" NCoef="0" IVar="-1" Cut="0.0000000000000000e+00" cType="1" res="8.0661347601562738e-04" rms="4.4643127918243408e-01" purity="5.6809580326080322e-01" nType="-99"/>
        </Node>
      </Node>
    </BinaryTree>
    <BinaryTree type="DecisionTree" boostWeight="1.0000000000000000e+00" itree="748">
      <Node pos="s" depth="0" NCoef="0" IVar="6" Cut="2.0654642954468727e-02" cType="1" res="-3.4481396432965994e-03" rms="4.5224854350090027e-01" purity="4.9678495526313782e-01" nType="0">
        <Node pos="l" depth="1" NCoef="0" IVar="4" Cut="1.6331311035156250e+02" cType="1" res="-1.2939465232193470e-02" rms="4.5364403724670410e-01" purity="5.4195052385330200e-01" nType="0">
          <Node pos="l" depth="2" NCoef="0" IVar="-1" Cut="0.0000000000000000e+00" cType="1" res="1.0958047823805828e-05" rms="4.4718724489212036e-01" purity="5.9229648113250732e-01" nType="-99"/>
          <Node pos="r" depth="2" NCoef="0" IVar="-1" Cut="0.0000000000000000e+00" cType="1" res="-9.6981774549931288e-04" rms="4.6175608038902283e-01" purity="4.7272247076034546e-01" nType="-99"/>
        </Node>
        <Node pos="r" depth="1" NCoef="0" IVar="7" Cut="5.8816272020339966e-01" cType="1" res="8.6984336376190186e-03" rms="4.5016452670097351e-01" purity="4.3898418545722961e-01" nType="0">
          <Node pos="l" depth="2" NCoef="0" IVar="-1" Cut="0.0000000000000000e+00" cType="1" res="-1.2757239164784551e-04" rms="4.4857788085937500e-01" purity="3.9770203828811646e-01" nType="-99"/>
          <Node pos="r" depth="2" NCoef="0" IVar="-1" Cut="0.0000000000000000e+00" cType="1" res="1.3234694488346577e-03" rms="4.5243060588836670e-01" purity="5.3697258234024048e-01" nType="-99"/>
        </Node>
      </Node>
    </BinaryTree>
    <BinaryTree type="DecisionTree" boostWeight="1.0000000000000000e+00" itree="749">
      <Node pos="s" depth="0" NCoef="0" IVar="3" Cut="8.9461868286132812e+01" cType="1" res="-8.1045040860772133e-03" rms="4.5355862379074097e-01" purity="4.9227902293205261e-01" nType="0">
        <Node pos="l" depth="1" NCoef="0" IVar="9" Cut="9.2917180061340332e-01" cType="1" res="-1.7578665167093277e-02" rms="4.5966559648513794e-01" purity="4.5907893776893616e-01" nType="0">
          <Node pos="l" depth="2" NCoef="0" IVar="-1" Cut="0.0000000000000000e+00" cType="1" res="2.4270964786410332e-04" rms="4.4690519571304321e-01" purity="3.7574350833892822e-01" nType="-99"/>
          <Node pos="r" depth="2" NCoef="0" IVar="-1" Cut="0.0000000000000000e+00" cType="1" res="-8.9157558977603912e-04" rms="4.6445435285568237e-01" purity="4.9374669790267944e-01" nType="-99"/>
        </Node>
        <Node pos="r" depth="1" NCoef="0" IVar="3" Cut="1.2778489685058594e+02" cType="1" res="8.3607733249664307e-03" rms="4.4226229190826416e-01" purity="5.4997789859771729e-01" nType="0">
          <Node pos="l" depth="2" NCoef="0" IVar="-1" Cut="0.0000000000000000e+00" cType="1" res="8.9175719767808914e-04" rms="4.3816116452217102e-01" purity="6.0273516178131104e-01" nType="-99"/>
          <Node pos="r" depth="2" NCoef="0" IVar="-1" Cut="0.0000000000000000e+00" cType="1" res="-6.2108441488817334e-04" rms="4.4819971919059753e-01" purity="4.5568430423736572e-01" nType="-99"/>
        </Node>
      </Node>
    </BinaryTree>
    <BinaryTree type="DecisionTree" boostWeight="1.0000000000000000e+00" itree="750">
      <Node pos="s" depth="0" NCoef="0" IVar="4" Cut="1.0493979644775391e+02" cType="1" res="4.2230079998262227e-04" rms="4.4978338479995728e-01" purity="5.0173324346542358e-01" nType="0">
        <Node pos="l" depth="1" NCoef="0" IVar="7" Cut="6.5135800838470459e-01" cType="1" res="-2.5040574371814728e-02" rms="4.5712220668792725e-01" purity="4.6138703823089600e-01" nType="0">
          <Node pos="l" depth="2" NCoef="0" IVar="-1" Cut="0.0000000000000000e+00" cType="1" res="-1.4459580415859818e-03" rms="4.4729864597320557e-01" purity="3.5551252961158752e-01" nType="-99"/>
          <Node pos="r" depth="2" NCoef="0" IVar="-1" Cut="0.0000000000000000e+00" cType="1" res="-2.1271625882945955e-05" rms="4.6496245265007019e-01" purity="5.6209874153137207e-01" nType="-99"/>
        </Node>
        <Node pos="r" depth="1" NCoef="0" IVar="5" Cut="1.4726341962814331e+00" cType="1" res="9.6484785899519920e-03" rms="4.4673645496368408e-01" purity="5.1635223627090454e-01" nType="0">
          <Node pos="l" depth="2" NCoef="0" IVar="-1" Cut="0.0000000000000000e+00" cType="1" res="5.6776363635435700e-04" rms="4.5615887641906738e-01" purity="5.8613818883895874e-01" nType="-99"/>
          <Node pos="r" depth="2" NCoef="0" IVar="-1" Cut="0.0000000000000000e+00" cType="1" res="-5.1603798056021333e-04" rms="4.0497919917106628e-01" purity="2.3204451799392700e-01" nType="-99"/>
        </Node>
      </Node>
    </BinaryTree>
    <BinaryTree type="DecisionTree" boostWeight="1.0000000000000000e+00" itree="751">
      <Node pos="s" depth="0" NCoef="0" IVar="5" Cut="1.6972441673278809e+00" cType="1" res="9.0893777087330818e-03" rms="4.5129024982452393e-01" purity="5.1325511932373047e-01" nType="0">
        <Node pos="l" depth="1" NCoef="0" IVar="6" Cut="3.7342071533203125e-02" cType="1" res="1.2699423357844353e-02" rms="4.5948588848114014e-01" purity="5.5014818906784058e-01" nType="0">
          <Node pos="l" depth="2" NCoef="0" IVar="-1" Cut="0.0000000000000000e+00" cType="1" res="5.5648753186687827e-04" rms="4.5957693457603455e-01" purity="5.6369626522064209e-01" nType="-99"/>
          <Node pos="r" depth="2" NCoef="0" IVar="-1" Cut="0.0000000000000000e+00" cType="1" res="-6.2558584613725543e-04" rms="4.5714664459228516e-01" purity="4.1834175586700439e-01" nType="-99"/>
        </Node>
        <Node pos="r" depth="1" NCoef="0" IVar="-1" Cut="0.0000000000000000e+00" cType="1" res="-8.0740492558106780e-04" rms="3.6449629068374634e-01" purity="1.6949044167995453e-01" nType="-99"/>
      </Node>
    </BinaryTree>
    <BinaryTree type="DecisionTree" boostWeight="1.0000000000000000e+00" itree="752">
      <Node pos="s" depth="0" NCoef="0" IVar="9" Cut="9.3927043676376343e-01" cType="1" res="-2.5349750649183989e-03" rms="4.5367169380187988e-01" purity="5.0036907196044922e-01" nType="0">
        <Node pos="l" depth="1" NCoef="0" IVar="9" Cut="8.6867231130599976e-01" cType="1" res="1.2816119007766247e-02" rms="4.5067369937896729e-01" purity="4.1958287358283997e-01" nType="0">
          <Node pos="l" depth="2" NCoef="0" IVar="-1" Cut="0.0000000000000000e+00" cType="1" res="-4.4576259097084403e-04" rms="4.4151875376701355e-01" purity="3.3693060278892517e-01" nType="-99"/>
          <Node pos="r" depth="2" NCoef="0" IVar="-1" Cut="0.0000000000000000e+00" cType="1" res="1.3701802818104625e-03" rms="4.5821034908294678e-01" purity="5.0572419166564941e-01" nType="-99"/>
        </Node>
        <Node pos="r" depth="1" NCoef="0" IVar="0" Cut="8.3076947927474976e-01" cType="1" res="-1.0234811343252659e-02" rms="4.5497298240661621e-01" purity="5.4088997840881348e-01" nType="0">
          <Node pos="l" depth="2" NCoef="0" IVar="-1" Cut="0.0000000000000000e+00" cType="1" res="-1.5210619894787669e-03" rms="4.5144581794738770e-01" purity="6.6737717390060425e-01" nType="-99"/>
          <Node pos="r" depth="2" NCoef="0" IVar="-1" Cut="0.0000000000000000e+00" cType="1" res="-6.6117128881160170e-05" rms="4.5573720335960388e-01" purity="5.0209850072860718e-01" nType="-99"/>
        </Node>
      </Node>
    </BinaryTree>
    <BinaryTree type="DecisionTree" boostWeight="1.0000000000000000e+00" itree="753">
      <Node pos="s" depth="0" NCoef="0" IVar="4" Cut="6.5481933593750000e+01" cType="1" res="5.0449986010789871e-03" rms="4.5131567120552063e-01" purity="5.0743091106414795e-01" nType="0">
        <Node pos="l" depth="1" NCoef="0" IVar="-1" Cut="0.0000000000000000e+00" cType="1" res="-8.7928248103708029e-04" rms="4.4141402840614319e-01" purity="3.7187793850898743e-01" nType="-99"/>
        <Node pos="r" depth="1" NCoef="0" IVar="7" Cut="9.1455441713333130e-01" cType="1" res="8.2775363698601723e-03" rms="4.5209041237831116e-01" purity="5.2004563808441162e-01" nType="0">
          <Node pos="l" depth="2" NCoef="0" IVar="-1" Cut="0.0000000000000000e+00" cType="1" res="1.5543002518825233e-04" rms="4.5358988642692566e-01" purity="5.0265544652938843e-01" nType="-99"/>
          <Node pos="r" depth="2" NCoef="0" IVar="-1" Cut="0.0000000000000000e+00" cType="1" res="1.8758921651169658e-03" rms="4.3518540263175964e-01" purity="6.9455188512802124e-01" nType="-99"/>
        </Node>
      </Node>
    </BinaryTree>
    <BinaryTree type="DecisionTree" boostWeight="1.0000000000000000e+00" itree="754">
      <Node pos="s" depth="0" NCoef="0" IVar="3" Cut="1.4648326110839844e+02" cType="1" res="-3.0967195052653551e-03" rms="4.5268678665161133e-01" purity="4.9954989552497864e-01" nType="0">
        <Node pos="l" depth="1" NCoef="0" IVar="3" Cut="9.3022964477539062e+01" cType="1" res="1.2851580686401576e-04" rms="4.5374706387519836e-01" purity="5.1130431890487671e-01" nType="0">
          <Node pos="l" depth="2" NCoef="0" IVar="-1" Cut="0.0000000000000000e+00" cType="1" res="-2.5536911562085152e-04" rms="4.5843032002449036e-01" purity="4.7326967120170593e-01" nType="-99"/>
          <Node pos="r" depth="2" NCoef="0" IVar="-1" Cut="0.0000000000000000e+00" cType="1" res="7.6837075175717473e-04" rms="4.4142782688140869e-01" purity="6.0437691211700439e-01" nType="-99"/>
        </Node>
        <Node pos="r" depth="1" NCoef="0" IVar="-1" Cut="0.0000000000000000e+00" cType="1" res="-1.2600495247170329e-03" rms="4.3800491094589233e-01" purity="3.5925403237342834e-01" nType="-99"/>
      </Node>
    </BinaryTree>
    <BinaryTree type="DecisionTree" boostWeight="1.0000000000000000e+00" itree="755">
      <Node pos="s" depth="0" NCoef="0" IVar="5" Cut="4.5366162061691284e-01" cType="1" res="1.9629795569926500e-03" rms="4.5171573758125305e-01" purity="5.0538653135299683e-01" nType="0">
        <Node pos="l" depth="1" NCoef="0" IVar="-1" Cut="0.0000000000000000e+00" cType="1" res="2.2915292065590620e-03" rms="4.2764088511466980e-01" purity="7.0954149961471558e-01" nType="-99"/>
        <Node pos="r" depth="1" NCoef="0" IVar="0" Cut="1.6549186706542969e+00" cType="1" res="-1.7877721693366766e-03" rms="4.5319664478302002e-01" purity="4.9047112464904785e-01" nType="0">
          <Node pos="l" depth="2" NCoef="0" IVar="-1" Cut="0.0000000000000000e+00" cType="1" res="5.8850233472185209e-05" rms="4.5837658643722534e-01" purity="5.1641815900802612e-01" nType="-99"/>
          <Node pos="r" depth="2" NCoef="0" IVar="-1" Cut="0.0000000000000000e+00" cType="1" res="-1.1755495797842741e-03" rms="3.9378577470779419e-01" purity="2.2222350537776947e-01" nType="-99"/>
        </Node>
      </Node>
    </BinaryTree>
    <BinaryTree type="DecisionTree" boostWeight="1.0000000000000000e+00" itree="756">
      <Node pos="s" depth="0" NCoef="0" IVar="4" Cut="2.5564871215820312e+02" cType="1" res="-1.7972602508962154e-03" rms="4.5118653774261475e-01" purity="5.0133025646209717e-01" nType="0">
        <Node pos="l" depth="1" NCoef="0" IVar="5" Cut="4.2073735594749451e-01" cType="1" res="3.6339687649160624e-03" rms="4.5388320088386536e-01" purity="5.3310346603393555e-01" nType="0">
          <Node pos="l" depth="2" NCoef="0" IVar="-1" Cut="0.0000000000000000e+00" cType="1" res="-1.5139804454520345e-03" rms="4.5941981673240662e-01" purity="6.0304361581802368e-01" nType="-99"/>
          <Node pos="r" depth="2" NCoef="0" IVar="-1" Cut="0.0000000000000000e+00" cType="1" res="2.3471204622182995e-04" rms="4.5330086350440979e-01" purity="5.2807712554931641e-01" nType="-99"/>
        </Node>
        <Node pos="r" depth="1" NCoef="0" IVar="3" Cut="7.0662269592285156e+01" cType="1" res="-2.1198833361268044e-02" rms="4.4087284803390503e-01" purity="3.8782909512519836e-01" nType="0">
          <Node pos="l" depth="2" NCoef="0" IVar="-1" Cut="0.0000000000000000e+00" cType="1" res="-1.5216702595353127e-03" rms="4.3659478425979614e-01" purity="3.1033498048782349e-01" nType="-99"/>
          <Node pos="r" depth="2" NCoef="0" IVar="-1" Cut="0.0000000000000000e+00" cType="1" res="-2.2890971740707755e-04" rms="4.4193977117538452e-01" purity="4.2060616612434387e-01" nType="-99"/>
        </Node>
      </Node>
    </BinaryTree>
    <BinaryTree type="DecisionTree" boostWeight="1.0000000000000000e+00" itree="757">
      <Node pos="s" depth="0" NCoef="0" IVar="3" Cut="1.4077740478515625e+02" cType="1" res="-1.6130928997881711e-04" rms="4.4990399479866028e-01" purity="4.9890747666358948e-01" nType="0">
        <Node pos="l" depth="1" NCoef="0" IVar="5" Cut="1.6896111965179443e+00" cType="1" res="3.9044150616973639e-03" rms="4.5051008462905884e-01" purity="5.1090288162231445e-01" nType="0">
          <Node pos="l" depth="2" NCoef="0" IVar="-1" Cut="0.0000000000000000e+00" cType="1" res="2.7031794888898730e-04" rms="4.5843020081520081e-01" purity="5.4576355218887329e-01" nType="-99"/>
          <Node pos="r" depth="2" NCoef="0" IVar="-1" Cut="0.0000000000000000e+00" cType="1" res="-1.2156944721937180e-03" rms="3.5930791497230530e-01" purity="1.6256640851497650e-01" nType="-99"/>
        </Node>
        <Node pos="r" depth="1" NCoef="0" IVar="-1" Cut="0.0000000000000000e+00" cType="1" res="-1.2258188799023628e-03" rms="4.4185444712638855e-01" purity="3.8026660680770874e-01" nType="-99"/>
      </Node>
    </BinaryTree>
    <BinaryTree type="DecisionTree" boostWeight="1.0000000000000000e+00" itree="758">
      <Node pos="s" depth="0" NCoef="0" IVar="4" Cut="1.1403655242919922e+02" cType="1" res="-9.6303713507950306e-04" rms="4.5091512799263000e-01" purity="5.0236499309539795e-01" nType="0">
        <Node pos="l" depth="1" NCoef="0" IVar="6" Cut="2.5732614099979401e-02" cType="1" res="-1.8884079530835152e-02" rms="4.5793238282203674e-01" purity="4.8391601443290710e-01" nType="0">
          <Node pos="l" depth="2" NCoef="0" IVar="-1" Cut="0.0000000000000000e+00" cType="1" res="-2.8281277627684176e-04" rms="4.5861741900444031e-01" purity="5.3364604711532593e-01" nType="-99"/>
          <Node pos="r" depth="2" NCoef="0" IVar="-1" Cut="0.0000000000000000e+00" cType="1" res="-1.1731940321624279e-03" rms="4.5582050085067749e-01" purity="3.8411524891853333e-01" nType="-99"/>
        </Node>
        <Node pos="r" depth="1" NCoef="0" IVar="0" Cut="7.2549235820770264e-01" cType="1" res="7.6221786439418793e-03" rms="4.4726014137268066e-01" purity="5.1120311021804810e-01" nType="0">
          <Node pos="l" depth="2" NCoef="0" IVar="-1" Cut="0.0000000000000000e+00" cType="1" res="2.5826783385127783e-03" rms="4.1204574704170227e-01" purity="7.5467026233673096e-01" nType="-99"/>
          <Node pos="r" depth="2" NCoef="0" IVar="-1" Cut="0.0000000000000000e+00" cType="1" res="4.3214902689214796e-05" rms="4.5155695080757141e-01" purity="4.7752678394317627e-01" nType="-99"/>
        </Node>
      </Node>
    </BinaryTree>
    <BinaryTree type="DecisionTree" boostWeight="1.0000000000000000e+00" itree="759">
      <Node pos="s" depth="0" NCoef="0" IVar="6" Cut="3.8687262684106827e-02" cType="1" res="4.8486758023500443e-03" rms="4.5138221979141235e-01" purity="5.0835549831390381e-01" nType="0">
        <Node pos="l" depth="1" NCoef="0" IVar="4" Cut="2.6348767089843750e+02" cType="1" res="8.7551483884453773e-03" rms="4.5175415277481079e-01" purity="5.2149683237075806e-01" nType="0">
          <Node pos="l" depth="2" NCoef="0" IVar="-1" Cut="0.0000000000000000e+00" cType="1" res="5.1799585344269872e-04" rms="4.5210698246955872e-01" purity="5.5197840929031372e-01" nType="-99"/>
          <Node pos="r" depth="2" NCoef="0" IVar="-1" Cut="0.0000000000000000e+00" cType="1" res="-4.4758224976249039e-04" rms="4.4963046908378601e-01" purity="4.0485036373138428e-01" nType="-99"/>
        </Node>
        <Node pos="r" depth="1" NCoef="0" IVar="-1" Cut="0.0000000000000000e+00" cType="1" res="-1.1256980942562222e-03" rms="4.4470000267028809e-01" purity="3.5852280259132385e-01" nType="-99"/>
      </Node>
    </BinaryTree>
    <BinaryTree type="DecisionTree" boostWeight="1.0000000000000000e+00" itree="760">
      <Node pos="s" depth="0" NCoef="0" IVar="0" Cut="1.6398562192916870e+00" cType="1" res="-2.2552690934389830e-03" rms="4.5291680097579956e-01" purity="4.9965825676918030e-01" nType="0">
        <Node pos="l" depth="1" NCoef="0" IVar="4" Cut="1.6196417236328125e+02" cType="1" res="1.4215252595022321e-03" rms="4.5884776115417480e-01" purity="5.2830827236175537e-01" nType="0">
          <Node pos="l" depth="2" NCoef="0" IVar="-1" Cut="0.0000000000000000e+00" cType="1" res="4.3395956163294613e-04" rms="4.5744755864143372e-01" purity="5.7739847898483276e-01" nType="-99"/>
          <Node pos="r" depth="2" NCoef="0" IVar="-1" Cut="0.0000000000000000e+00" cType="1" res="-4.0115480078384280e-04" rms="4.6030163764953613e-01" purity="4.6329519152641296e-01" nType="-99"/>
        </Node>
        <Node pos="r" depth="1" NCoef="0" IVar="-1" Cut="0.0000000000000000e+00" cType="1" res="-1.1623129248619080e-03" rms="3.8828125596046448e-01" purity="2.1916264295578003e-01" nType="-99"/>
      </Node>
    </BinaryTree>
    <BinaryTree type="DecisionTree" boostWeight="1.0000000000000000e+00" itree="761">
      <Node pos="s" depth="0" NCoef="0" IVar="5" Cut="8.5083776712417603e-01" cType="1" res="-3.4819669090211391e-03" rms="4.5319697260856628e-01" purity="4.9855333566665649e-01" nType="0">
        <Node pos="l" depth="1" NCoef="0" IVar="9" Cut="9.6989232301712036e-01" cType="1" res="9.9696749821305275e-03" rms="4.5489004254341125e-01" purity="6.4951169490814209e-01" nType="0">
          <Node pos="l" depth="2" NCoef="0" IVar="-1" Cut="0.0000000000000000e+00" cType="1" res="-2.9033477767370641e-04" rms="4.7685235738754272e-01" purity="5.7190781831741333e-01" nType="-99"/>
          <Node pos="r" depth="2" NCoef="0" IVar="-1" Cut="0.0000000000000000e+00" cType="1" res="1.3119435170665383e-03" rms="4.3177452683448792e-01" purity="7.2467440366744995e-01" nType="-99"/>
        </Node>
        <Node pos="r" depth="1" NCoef="0" IVar="5" Cut="1.1037077903747559e+00" cType="1" res="-1.1202812194824219e-02" rms="4.5204156637191772e-01" purity="4.1190770268440247e-01" nType="0">
          <Node pos="l" depth="2" NCoef="0" IVar="-1" Cut="0.0000000000000000e+00" cType="1" res="-8.6555065354332328e-04" rms="4.7051951289176941e-01" purity="5.3683769702911377e-01" nType="-99"/>
          <Node pos="r" depth="2" NCoef="0" IVar="-1" Cut="0.0000000000000000e+00" cType="1" res="-8.2626051153056324e-05" rms="4.4181558489799500e-01" purity="3.4642007946968079e-01" nType="-99"/>
        </Node>
      </Node>
    </BinaryTree>
    <BinaryTree type="DecisionTree" boostWeight="1.0000000000000000e+00" itree="762">
      <Node pos="s" depth="0" NCoef="0" IVar="4" Cut="9.9836463928222656e+01" cType="1" res="-1.9195262575522065e-03" rms="4.5222020149230957e-01" purity="5.0180459022521973e-01" nType="0">
        <Node pos="l" depth="1" NCoef="0" IVar="0" Cut="9.4357019662857056e-01" cType="1" res="-2.7010470628738403e-02" rms="4.5513036847114563e-01" purity="4.4027948379516602e-01" nType="0">
          <Node pos="l" depth="2" NCoef="0" IVar="-1" Cut="0.0000000000000000e+00" cType="1" res="3.8758804294047877e-05" rms="4.7087645530700684e-01" purity="5.9322929382324219e-01" nType="-99"/>
          <Node pos="r" depth="2" NCoef="0" IVar="-1" Cut="0.0000000000000000e+00" cType="1" res="-1.2779789976775646e-03" rms="4.4416299462318420e-01" purity="3.4520757198333740e-01" nType="-99"/>
        </Node>
        <Node pos="r" depth="1" NCoef="0" IVar="4" Cut="1.3905139160156250e+02" cType="1" res="5.8762435801327229e-03" rms="4.5102804899215698e-01" purity="5.2092039585113525e-01" nType="0">
          <Node pos="l" depth="2" NCoef="0" IVar="-1" Cut="0.0000000000000000e+00" cType="1" res="1.0001583723351359e-03" rms="4.3822714686393738e-01" purity="6.3455492258071899e-01" nType="-99"/>
          <Node pos="r" depth="2" NCoef="0" IVar="-1" Cut="0.0000000000000000e+00" cType="1" res="-1.1231897951802239e-04" rms="4.5665898919105530e-01" purity="4.6714159846305847e-01" nType="-99"/>
        </Node>
      </Node>
    </BinaryTree>
    <BinaryTree type="DecisionTree" boostWeight="1.0000000000000000e+00" itree="763">
      <Node pos="s" depth="0" NCoef="0" IVar="6" Cut="2.4465531110763550e-02" cType="1" res="-3.5491217859089375e-03" rms="4.5244625210762024e-01" purity="4.9831777811050415e-01" nType="0">
        <Node pos="l" depth="1" NCoef="0" IVar="0" Cut="6.6512858867645264e-01" cType="1" res="-1.2485098093748093e-02" rms="4.5123839378356934e-01" purity="5.3035295009613037e-01" nType="0">
          <Node pos="l" depth="2" NCoef="0" IVar="-1" Cut="0.0000000000000000e+00" cType="1" res="2.5217202492058277e-03" rms="3.9779940247535706e-01" purity="7.7111649513244629e-01" nType="-99"/>
          <Node pos="r" depth="2" NCoef="0" IVar="-1" Cut="0.0000000000000000e+00" cType="1" res="-6.1349215684458613e-04" rms="4.5592248439788818e-01" purity="5.0550961494445801e-01" nType="-99"/>
        </Node>
        <Node pos="r" depth="1" NCoef="0" IVar="7" Cut="5.7759809494018555e-01" cType="1" res="1.2900697067379951e-02" rms="4.5420187711715698e-01" purity="4.3934568762779236e-01" nType="0">
          <Node pos="l" depth="2" NCoef="0" IVar="-1" Cut="0.0000000000000000e+00" cType="1" res="-2.2588859428651631e-04" rms="4.5303064584732056e-01" purity="3.9848762750625610e-01" nType="-99"/>
          <Node pos="r" depth="2" NCoef="0" IVar="-1" Cut="0.0000000000000000e+00" cType="1" res="2.6607068721204996e-03" rms="4.5216071605682373e-01" purity="5.6211644411087036e-01" nType="-99"/>
        </Node>
      </Node>
    </BinaryTree>
    <BinaryTree type="DecisionTree" boostWeight="1.0000000000000000e+00" itree="764">
      <Node pos="s" depth="0" NCoef="0" IVar="8" Cut="5.1138615608215332e-01" cType="1" res="-2.0103952847421169e-03" rms="4.5222318172454834e-01" purity="5.0110316276550293e-01" nType="0">
        <Node pos="l" depth="1" NCoef="0" IVar="6" Cut="2.0602602511644363e-02" cType="1" res="-1.9688297063112259e-02" rms="4.5315924286842346e-01" purity="3.9984866976737976e-01" nType="0">
          <Node pos="l" depth="2" NCoef="0" IVar="-1" Cut="0.0000000000000000e+00" cType="1" res="-1.2765771243721247e-03" rms="4.5522901415824890e-01" purity="4.2029231786727905e-01" nType="-99"/>
          <Node pos="r" depth="2" NCoef="0" IVar="-1" Cut="0.0000000000000000e+00" cType="1" res="-3.3397664083167911e-05" rms="4.5063620805740356e-01" purity="3.8348591327667236e-01" nType="-99"/>
        </Node>
        <Node pos="r" depth="1" NCoef="0" IVar="4" Cut="9.2847412109375000e+01" cType="1" res="6.6997385583817959e-03" rms="4.5150679349899292e-01" purity="5.5099248886108398e-01" nType="0">
          <Node pos="l" depth="2" NCoef="0" IVar="-1" Cut="0.0000000000000000e+00" cType="1" res="-4.1372101986780763e-04" rms="4.5905107259750366e-01" purity="4.7380426526069641e-01" nType="-99"/>
          <Node pos="r" depth="2" NCoef="0" IVar="-1" Cut="0.0000000000000000e+00" cType="1" res="4.0279541281051934e-04" rms="4.4959405064582825e-01" purity="5.6907296180725098e-01" nType="-99"/>
        </Node>
      </Node>
    </BinaryTree>
    <BinaryTree type="DecisionTree" boostWeight="1.0000000000000000e+00" itree="765">
      <Node pos="s" depth="0" NCoef="0" IVar="3" Cut="1.4526837158203125e+02" cType="1" res="-3.3939658896997571e-04" rms="4.5253321528434753e-01" purity="5.0322061777114868e-01" nType="0">
        <Node pos="l" depth="1" NCoef="0" IVar="5" Cut="5.9941327571868896e-01" cType="1" res="4.0814476087689400e-03" rms="4.5362049341201782e-01" purity="5.1661252975463867e-01" nType="0">
          <Node pos="l" depth="2" NCoef="0" IVar="-1" Cut="0.0000000000000000e+00" cType="1" res="1.5466063050553203e-03" rms="4.4144278764724731e-01" purity="6.9068044424057007e-01" nType="-99"/>
          <Node pos="r" depth="2" NCoef="0" IVar="-1" Cut="0.0000000000000000e+00" cType="1" res="-7.0063746534287930e-05" rms="4.5566394925117493e-01" purity="4.8305767774581909e-01" nType="-99"/>
        </Node>
        <Node pos="r" depth="1" NCoef="0" IVar="-1" Cut="0.0000000000000000e+00" cType="1" res="-1.5389234758913517e-03" rms="4.3698489665985107e-01" purity="3.5206741094589233e-01" nType="-99"/>
      </Node>
    </BinaryTree>
    <BinaryTree type="DecisionTree" boostWeight="1.0000000000000000e+00" itree="766">
      <Node pos="s" depth="0" NCoef="0" IVar="4" Cut="1.0493979644775391e+02" cType="1" res="-3.8701593875885010e-03" rms="4.5047304034233093e-01" purity="4.9760451912879944e-01" nType="0">
        <Node pos="l" depth="1" NCoef="0" IVar="8" Cut="4.9621474742889404e-01" cType="1" res="-2.3207996040582657e-02" rms="4.5736134052276611e-01" purity="4.5557472109794617e-01" nType="0">
          <Node pos="l" depth="2" NCoef="0" IVar="-1" Cut="0.0000000000000000e+00" cType="1" res="1.4143751468509436e-04" rms="4.4404539465904236e-01" purity="3.9022541046142578e-01" nType="-99"/>
          <Node pos="r" depth="2" NCoef="0" IVar="-1" Cut="0.0000000000000000e+00" cType="1" res="-1.0262724244967103e-03" rms="4.6148431301116943e-01" purity="4.7815647721290588e-01" nType="-99"/>
        </Node>
        <Node pos="r" depth="1" NCoef="0" IVar="1" Cut="2.6448851823806763e-01" cType="1" res="3.2958113588392735e-03" rms="4.4768148660659790e-01" purity="5.1317942142486572e-01" nType="0">
          <Node pos="l" depth="2" NCoef="0" IVar="-1" Cut="0.0000000000000000e+00" cType="1" res="2.5386002380400896e-03" rms="4.1690501570701599e-01" purity="7.0089972019195557e-01" nType="-99"/>
          <Node pos="r" depth="2" NCoef="0" IVar="-1" Cut="0.0000000000000000e+00" cType="1" res="-5.4702511988580227e-05" rms="4.4998228549957275e-01" purity="4.9648249149322510e-01" nType="-99"/>
        </Node>
      </Node>
    </BinaryTree>
    <BinaryTree type="DecisionTree" boostWeight="1.0000000000000000e+00" itree="767">
      <Node pos="s" depth="0" NCoef="0" IVar="3" Cut="9.3796752929687500e+01" cType="1" res="-8.9200213551521301e-03" rms="4.5035344362258911e-01" purity="4.9504852294921875e-01" nType="0">
        <Node pos="l" depth="1" NCoef="0" IVar="3" Cut="3.4282230377197266e+01" cType="1" res="-1.6328422352671623e-02" rms="4.5679628849029541e-01" purity="4.6763333678245544e-01" nType="0">
          <Node pos="l" depth="2" NCoef="0" IVar="-1" Cut="0.0000000000000000e+00" cType="1" res="-1.8880323041230440e-03" rms="4.3091717362403870e-01" purity="3.1677940487861633e-01" nType="-99"/>
          <Node pos="r" depth="2" NCoef="0" IVar="-1" Cut="0.0000000000000000e+00" cType="1" res="-3.2750493846833706e-04" rms="4.5921233296394348e-01" purity="4.8449718952178955e-01" nType="-99"/>
        </Node>
        <Node pos="r" depth="1" NCoef="0" IVar="3" Cut="1.5009776306152344e+02" cType="1" res="5.4811206646263599e-03" rms="4.3719884753227234e-01" purity="5.4834079742431641e-01" nType="0">
          <Node pos="l" depth="2" NCoef="0" IVar="-1" Cut="0.0000000000000000e+00" cType="1" res="6.4813776407390833e-04" rms="4.3457502126693726e-01" purity="5.9239214658737183e-01" nType="-99"/>
          <Node pos="r" depth="2" NCoef="0" IVar="-1" Cut="0.0000000000000000e+00" cType="1" res="-1.3953053858131170e-03" rms="4.4482570886611938e-01" purity="3.5409694910049438e-01" nType="-99"/>
        </Node>
      </Node>
    </BinaryTree>
    <BinaryTree type="DecisionTree" boostWeight="1.0000000000000000e+00" itree="768">
      <Node pos="s" depth="0" NCoef="0" IVar="3" Cut="1.4518669128417969e+02" cType="1" res="6.2784535111859441e-04" rms="4.5065221190452576e-01" purity="5.0288575887680054e-01" nType="0">
        <Node pos="l" depth="1" NCoef="0" IVar="3" Cut="9.4279762268066406e+01" cType="1" res="3.7574027664959431e-03" rms="4.5127800107002258e-01" purity="5.1539683341979980e-01" nType="0">
          <Node pos="l" depth="2" NCoef="0" IVar="-1" Cut="0.0000000000000000e+00" cType="1" res="-2.0054393098689616e-04" rms="4.5728874206542969e-01" purity="4.7722187638282776e-01" nType="-99"/>
          <Node pos="r" depth="2" NCoef="0" IVar="-1" Cut="0.0000000000000000e+00" cType="1" res="1.1642838362604380e-03" rms="4.3425065279006958e-01" purity="6.1417877674102783e-01" nType="-99"/>
        </Node>
        <Node pos="r" depth="1" NCoef="0" IVar="-1" Cut="0.0000000000000000e+00" cType="1" res="-1.0593462502583861e-03" rms="4.4200155138969421e-01" purity="3.6178109049797058e-01" nType="-99"/>
      </Node>
    </BinaryTree>
    <BinaryTree type="DecisionTree" boostWeight="1.0000000000000000e+00" itree="769">
      <Node pos="s" depth="0" NCoef="0" IVar="7" Cut="8.7261831760406494e-01" cType="1" res="1.2087051291018724e-03" rms="4.5152088999748230e-01" purity="5.0490850210189819e-01" nType="0">
        <Node pos="l" depth="1" NCoef="0" IVar="7" Cut="8.0158585309982300e-01" cType="1" res="-2.8757969848811626e-03" rms="4.5420274138450623e-01" purity="4.7879594564437866e-01" nType="0">
          <Node pos="l" depth="2" NCoef="0" IVar="-1" Cut="0.0000000000000000e+00" cType="1" res="6.9524729042313993e-05" rms="4.5287126302719116e-01" purity="4.6793076395988464e-01" nType="-99"/>
          <Node pos="r" depth="2" NCoef="0" IVar="-1" Cut="0.0000000000000000e+00" cType="1" res="-1.3341103913262486e-03" rms="4.6195140480995178e-01" purity="5.5597603321075439e-01" nType="-99"/>
        </Node>
        <Node pos="r" depth="1" NCoef="0" IVar="7" Cut="9.1993659734725952e-01" cType="1" res="2.4186415597796440e-02" rms="4.3541324138641357e-01" purity="6.5180689096450806e-01" nType="0">
          <Node pos="l" depth="2" NCoef="0" IVar="-1" Cut="0.0000000000000000e+00" cType="1" res="1.9623364787548780e-03" rms="4.2725491523742676e-01" purity="6.5919572114944458e-01" nType="-99"/>
          <Node pos="r" depth="2" NCoef="0" IVar="-1" Cut="0.0000000000000000e+00" cType="1" res="3.3298245398327708e-04" rms="4.3997731804847717e-01" purity="6.4694172143936157e-01" nType="-99"/>
        </Node>
      </Node>
    </BinaryTree>
    <BinaryTree type="DecisionTree" boostWeight="1.0000000000000000e+00" itree="770">
      <Node pos="s" depth="0" NCoef="0" IVar="5" Cut="1.7431824207305908e+00" cType="1" res="-1.4414656907320023e-03" rms="4.5019927620887756e-01" purity="4.9737712740898132e-01" nType="0">
        <Node pos="l" depth="1" NCoef="0" IVar="8" Cut="4.2025110125541687e-01" cType="1" res="2.8170621953904629e-03" rms="4.5934739708900452e-01" purity="5.3177195787429810e-01" nType="0">
          <Node pos="l" depth="2" NCoef="0" IVar="-1" Cut="0.0000000000000000e+00" cType="1" res="-1.1862593237310648e-03" rms="4.4177958369255066e-01" purity="3.4915548563003540e-01" nType="-99"/>
          <Node pos="r" depth="2" NCoef="0" IVar="-1" Cut="0.0000000000000000e+00" cType="1" res="2.0502114784903824e-04" rms="4.6042537689208984e-01" purity="5.4502856731414795e-01" nType="-99"/>
        </Node>
        <Node pos="r" depth="1" NCoef="0" IVar="-1" Cut="0.0000000000000000e+00" cType="1" res="-1.4870400773361325e-03" rms="3.3865576982498169e-01" purity="1.4240680634975433e-01" nType="-99"/>
      </Node>
    </BinaryTree>
    <BinaryTree type="DecisionTree" boostWeight="1.0000000000000000e+00" itree="771">
      <Node pos="s" depth="0" NCoef="0" IVar="8" Cut="4.2443010210990906e-01" cType="1" res="-2.2923508659005165e-03" rms="4.4989994168281555e-01" purity="5.0014072656631470e-01" nType="0">
        <Node pos="l" depth="1" NCoef="0" IVar="-1" Cut="0.0000000000000000e+00" cType="1" res="-1.3470387784764171e-03" rms="4.3341916799545288e-01" purity="3.3361768722534180e-01" nType="-99"/>
        <Node pos="r" depth="1" NCoef="0" IVar="0" Cut="1.0236035585403442e+00" cType="1" res="1.1700078612193465e-03" rms="4.5094636082649231e-01" purity="5.1285648345947266e-01" nType="0">
          <Node pos="l" depth="2" NCoef="0" IVar="-1" Cut="0.0000000000000000e+00" cType="1" res="5.5326550500467420e-04" rms="4.5497769117355347e-01" purity="6.5359175205230713e-01" nType="-99"/>
          <Node pos="r" depth="2" NCoef="0" IVar="-1" Cut="0.0000000000000000e+00" cType="1" res="-2.5903939967975020e-04" rms="4.4766518473625183e-01" purity="4.0778514742851257e-01" nType="-99"/>
        </Node>
      </Node>
    </BinaryTree>
    <BinaryTree type="DecisionTree" boostWeight="1.0000000000000000e+00" itree="772">
      <Node pos="s" depth="0" NCoef="0" IVar="9" Cut="9.7929978370666504e-01" cType="1" res="1.6758339479565620e-03" rms="4.5429939031600952e-01" purity="5.0706803798675537e-01" nType="0">
        <Node pos="l" depth="1" NCoef="0" IVar="6" Cut="6.0435780324041843e-03" cType="1" res="-7.9190414398908615e-03" rms="4.5805257558822632e-01" purity="4.4545823335647583e-01" nType="0">
          <Node pos="l" depth="2" NCoef="0" IVar="-1" Cut="0.0000000000000000e+00" cType="1" res="-1.5562619082629681e-03" rms="4.6345150470733643e-01" purity="5.2300173044204712e-01" nType="-99"/>
          <Node pos="r" depth="2" NCoef="0" IVar="-1" Cut="0.0000000000000000e+00" cType="1" res="-1.0996683158737142e-05" rms="4.5660153031349182e-01" purity="4.3018546700477600e-01" nType="-99"/>
        </Node>
        <Node pos="r" depth="1" NCoef="0" IVar="3" Cut="4.2033557891845703e+01" cType="1" res="1.4939860440790653e-02" rms="4.4872158765792847e-01" purity="5.9223783016204834e-01" nType="0">
          <Node pos="l" depth="2" NCoef="0" IVar="-1" Cut="0.0000000000000000e+00" cType="1" res="-8.7213428923860192e-04" rms="4.5867055654525757e-01" purity="4.5169565081596375e-01" nType="-99"/>
          <Node pos="r" depth="2" NCoef="0" IVar="-1" Cut="0.0000000000000000e+00" cType="1" res="8.6507271043956280e-04" rms="4.4651570916175842e-01" purity="6.1671954393386841e-01" nType="-99"/>
        </Node>
      </Node>
    </BinaryTree>
    <BinaryTree type="DecisionTree" boostWeight="1.0000000000000000e+00" itree="773">
      <Node pos="s" depth="0" NCoef="0" IVar="8" Cut="4.6227794885635376e-01" cType="1" res="-3.1150255381362513e-05" rms="4.5445084571838379e-01" purity="5.0348889827728271e-01" nType="0">
        <Node pos="l" depth="1" NCoef="0" IVar="9" Cut="8.6653041839599609e-01" cType="1" res="3.0186530202627182e-02" rms="4.4720163941383362e-01" purity="4.1689538955688477e-01" nType="0">
          <Node pos="l" depth="2" NCoef="0" IVar="-1" Cut="0.0000000000000000e+00" cType="1" res="-3.9204016502480954e-05" rms="4.3176448345184326e-01" purity="3.0646914243698120e-01" nType="-99"/>
          <Node pos="r" depth="2" NCoef="0" IVar="-1" Cut="0.0000000000000000e+00" cType="1" res="1.8246342660859227e-03" rms="4.5741701126098633e-01" purity="5.0334614515304565e-01" nType="-99"/>
        </Node>
        <Node pos="r" depth="1" NCoef="0" IVar="4" Cut="1.2864036560058594e+02" cType="1" res="-5.3440323099493980e-03" rms="4.5550632476806641e-01" purity="5.1871377229690552e-01" nType="0">
          <Node pos="l" depth="2" NCoef="0" IVar="-1" Cut="0.0000000000000000e+00" cType="1" res="2.8968963306397200e-04" rms="4.5491781830787659e-01" purity="5.6121522188186646e-01" nType="-99"/>
          <Node pos="r" depth="2" NCoef="0" IVar="-1" Cut="0.0000000000000000e+00" cType="1" res="-4.8736241296865046e-04" rms="4.5568147301673889e-01" purity="4.8795944452285767e-01" nType="-99"/>
        </Node>
      </Node>
    </BinaryTree>
    <BinaryTree type="DecisionTree" boostWeight="1.0000000000000000e+00" itree="774">
      <Node pos="s" depth="0" NCoef="0" IVar="5" Cut="1.6984581947326660e+00" cType="1" res="-1.4502503909170628e-03" rms="4.5163500308990479e-01" purity="4.9938100576400757e-01" nType="0">
        <Node pos="l" depth="1" NCoef="0" IVar="0" Cut="1.2603996992111206e+00" cType="1" res="2.6238039135932922e-03" rms="4.6047231554985046e-01" purity="5.3710401058197021e-01" nType="0">
          <Node pos="l" depth="2" NCoef="0" IVar="-1" Cut="0.0000000000000000e+00" cType="1" res="-1.9280194828752428e-04" rms="4.6019956469535828e-01" purity="5.7778108119964600e-01" nType="-99"/>
          <Node pos="r" depth="2" NCoef="0" IVar="-1" Cut="0.0000000000000000e+00" cType="1" res="7.1682251291349530e-04" rms="4.6049338579177856e-01" purity="4.3263638019561768e-01" nType="-99"/>
        </Node>
        <Node pos="r" depth="1" NCoef="0" IVar="-1" Cut="0.0000000000000000e+00" cType="1" res="-1.2310674646869302e-03" rms="3.5989549756050110e-01" purity="1.5802666544914246e-01" nType="-99"/>
      </Node>
    </BinaryTree>
    <BinaryTree type="DecisionTree" boostWeight="1.0000000000000000e+00" itree="775">
      <Node pos="s" depth="0" NCoef="0" IVar="8" Cut="6.6512030363082886e-01" cType="1" res="-1.2286561541259289e-03" rms="4.5127907395362854e-01" purity="4.9844369292259216e-01" nType="0">
        <Node pos="l" depth="1" NCoef="0" IVar="7" Cut="5.1507943868637085e-01" cType="1" res="-4.9182027578353882e-03" rms="4.5308116078376770e-01" purity="4.8337742686271667e-01" nType="0">
          <Node pos="l" depth="2" NCoef="0" IVar="-1" Cut="0.0000000000000000e+00" cType="1" res="-1.1201318120583892e-03" rms="4.4146522879600525e-01" purity="3.2524737715721130e-01" nType="-99"/>
          <Node pos="r" depth="2" NCoef="0" IVar="-1" Cut="0.0000000000000000e+00" cType="1" res="-4.5713688450632617e-05" rms="4.5409849286079407e-01" purity="4.9946767091751099e-01" nType="-99"/>
        </Node>
        <Node pos="r" depth="1" NCoef="0" IVar="-1" Cut="0.0000000000000000e+00" cType="1" res="1.9453129498288035e-03" rms="4.2600494623184204e-01" purity="6.8299549818038940e-01" nType="-99"/>
      </Node>
    </BinaryTree>
    <BinaryTree type="DecisionTree" boostWeight="1.0000000000000000e+00" itree="776">
      <Node pos="s" depth="0" NCoef="0" IVar="2" Cut="8.4147185087203979e-01" cType="1" res="-9.0316906571388245e-03" rms="4.5430904626846313e-01" purity="4.9472543597221375e-01" nType="0">
        <Node pos="l" depth="1" NCoef="0" IVar="0" Cut="7.6850849390029907e-01" cType="1" res="1.0313255712389946e-02" rms="4.5180961489677429e-01" purity="3.9972546696662903e-01" nType="0">
          <Node pos="l" depth="2" NCoef="0" IVar="-1" Cut="0.0000000000000000e+00" cType="1" res="1.7990821506828070e-03" rms="4.6348074078559875e-01" purity="6.1563116312026978e-01" nType="-99"/>
          <Node pos="r" depth="2" NCoef="0" IVar="-1" Cut="0.0000000000000000e+00" cType="1" res="8.1174614024348557e-05" rms="4.4930210709571838e-01" purity="3.6181521415710449e-01" nType="-99"/>
        </Node>
        <Node pos="r" depth="1" NCoef="0" IVar="3" Cut="1.3208268737792969e+02" cType="1" res="-2.1925963461399078e-02" rms="4.5551136136054993e-01" purity="5.5804723501205444e-01" nType="0">
          <Node pos="l" depth="2" NCoef="0" IVar="-1" Cut="0.0000000000000000e+00" cType="1" res="-5.6462897919118404e-04" rms="4.5530727505683899e-01" purity="5.6735944747924805e-01" nType="-99"/>
          <Node pos="r" depth="2" NCoef="0" IVar="-1" Cut="0.0000000000000000e+00" cType="1" res="-2.2847664076834917e-03" rms="4.5441758632659912e-01" purity="4.8212626576423645e-01" nType="-99"/>
        </Node>
      </Node>
    </BinaryTree>
    <BinaryTree type="DecisionTree" boostWeight="1.0000000000000000e+00" itree="777">
      <Node pos="s" depth="0" NCoef="0" IVar="1" Cut="3.0071666836738586e-01" cType="1" res="6.8549643037840724e-04" rms="4.5003107190132141e-01" purity="5.0187677145004272e-01" nType="0">
        <Node pos="l" depth="1" NCoef="0" IVar="-1" Cut="0.0000000000000000e+00" cType="1" res="2.2590982262045145e-03" rms="4.3320500850677490e-01" purity="6.8885397911071777e-01" nType="-99"/>
        <Node pos="r" depth="1" NCoef="0" IVar="4" Cut="1.3261779785156250e+02" cType="1" res="-4.9555217847228050e-03" rms="4.5148074626922607e-01" purity="4.8138111829757690e-01" nType="0">
          <Node pos="l" depth="2" NCoef="0" IVar="-1" Cut="0.0000000000000000e+00" cType="1" res="3.2719346927478909e-04" rms="4.5011150836944580e-01" purity="5.2991813421249390e-01" nType="-99"/>
          <Node pos="r" depth="2" NCoef="0" IVar="-1" Cut="0.0000000000000000e+00" cType="1" res="-4.9996632151305676e-04" rms="4.5220458507537842e-01" purity="4.4440633058547974e-01" nType="-99"/>
        </Node>
      </Node>
    </BinaryTree>
    <BinaryTree type="DecisionTree" boostWeight="1.0000000000000000e+00" itree="778">
      <Node pos="s" depth="0" NCoef="0" IVar="1" Cut="1.9344577789306641e+00" cType="1" res="4.4032088480889797e-03" rms="4.5400848984718323e-01" purity="5.0920116901397705e-01" nType="0">
        <Node pos="l" depth="1" NCoef="0" IVar="0" Cut="1.0682425498962402e+00" cType="1" res="8.8437311351299286e-03" rms="4.5918637514114380e-01" purity="5.4984629154205322e-01" nType="0">
          <Node pos="l" depth="2" NCoef="0" IVar="-1" Cut="0.0000000000000000e+00" cType="1" res="-1.1954714136663824e-04" rms="4.5919185876846313e-01" purity="6.2516158819198608e-01" nType="-99"/>
          <Node pos="r" depth="2" NCoef="0" IVar="-1" Cut="0.0000000000000000e+00" cType="1" res="6.9968192838132381e-04" rms="4.5879551768302917e-01" purity="4.6436330676078796e-01" nType="-99"/>
        </Node>
        <Node pos="r" depth="1" NCoef="0" IVar="8" Cut="5.5068814754486084e-01" cType="1" res="-1.7967529594898224e-02" rms="4.2626613378524780e-01" purity="3.0443677306175232e-01" nType="0">
          <Node pos="l" depth="2" NCoef="0" IVar="-1" Cut="0.0000000000000000e+00" cType="1" res="3.4241157118231058e-04" rms="4.0935972332954407e-01" purity="2.7468103170394897e-01" nType="-99"/>
          <Node pos="r" depth="2" NCoef="0" IVar="-1" Cut="0.0000000000000000e+00" cType="1" res="-1.3447506353259087e-03" rms="4.4065988063812256e-01" purity="3.3415877819061279e-01" nType="-99"/>
        </Node>
      </Node>
    </BinaryTree>
    <BinaryTree type="DecisionTree" boostWeight="1.0000000000000000e+00" itree="779">
      <Node pos="s" depth="0" NCoef="0" IVar="5" Cut="4.7490742802619934e-01" cType="1" res="-3.5680066794157028e-03" rms="4.5181605219841003e-01" purity="4.9945071339607239e-01" nType="0">
        <Node pos="l" depth="1" NCoef="0" IVar="-1" Cut="0.0000000000000000e+00" cType="1" res="1.5593501739203930e-03" rms="4.4637823104858398e-01" purity="6.9411790370941162e-01" nType="-99"/>
        <Node pos="r" depth="1" NCoef="0" IVar="7" Cut="9.1452866792678833e-01" cType="1" res="-7.1569355204701424e-03" rms="4.5212319493293762e-01" purity="4.8210865259170532e-01" nType="0">
          <Node pos="l" depth="2" NCoef="0" IVar="-1" Cut="0.0000000000000000e+00" cType="1" res="-3.6491465289145708e-04" rms="4.5448479056358337e-01" purity="4.6414968371391296e-01" nType="-99"/>
          <Node pos="r" depth="2" NCoef="0" IVar="-1" Cut="0.0000000000000000e+00" cType="1" res="1.3360921293497086e-03" rms="4.2710709571838379e-01" purity="6.5130341053009033e-01" nType="-99"/>
        </Node>
      </Node>
    </BinaryTree>
    <BinaryTree type="DecisionTree" boostWeight="1.0000000000000000e+00" itree="780">
      <Node pos="s" depth="0" NCoef="0" IVar="0" Cut="1.2241752147674561e+00" cType="1" res="-7.8749638050794601e-03" rms="4.5652517676353455e-01" purity="4.9749296903610229e-01" nType="0">
        <Node pos="l" depth="1" NCoef="0" IVar="4" Cut="1.4499822998046875e+02" cType="1" res="-1.7423233017325401e-02" rms="4.6367132663726807e-01" purity="5.7276463508605957e-01" nType="0">
          <Node pos="l" depth="2" NCoef="0" IVar="-1" Cut="0.0000000000000000e+00" cType="1" res="4.1403389332117513e-05" rms="4.5346921682357788e-01" purity="6.1253941059112549e-01" nType="-99"/>
          <Node pos="r" depth="2" NCoef="0" IVar="-1" Cut="0.0000000000000000e+00" cType="1" res="-1.2588934041559696e-03" rms="4.7461330890655518e-01" purity="5.2529221773147583e-01" nType="-99"/>
        </Node>
        <Node pos="r" depth="1" NCoef="0" IVar="1" Cut="2.2374255657196045e+00" cType="1" res="8.1481197848916054e-03" rms="4.4381356239318848e-01" purity="3.7117844820022583e-01" nType="0">
          <Node pos="l" depth="2" NCoef="0" IVar="-1" Cut="0.0000000000000000e+00" cType="1" res="5.3551275050267577e-04" rms="4.5698761940002441e-01" purity="4.1606131196022034e-01" nType="-99"/>
          <Node pos="r" depth="2" NCoef="0" IVar="-1" Cut="0.0000000000000000e+00" cType="1" res="-7.4322579894214869e-04" rms="3.9454343914985657e-01" purity="2.1990096569061279e-01" nType="-99"/>
        </Node>
      </Node>
    </BinaryTree>
    <BinaryTree type="DecisionTree" boostWeight="1.0000000000000000e+00" itree="781">
      <Node pos="s" depth="0" NCoef="0" IVar="4" Cut="1.0493979644775391e+02" cType="1" res="-5.2347299642860889e-03" rms="4.5427504181861877e-01" purity="4.9804252386093140e-01" nType="0">
        <Node pos="l" depth="1" NCoef="0" IVar="4" Cut="9.0434036254882812e+01" cType="1" res="-2.3341756314039230e-02" rms="4.6112421154975891e-01" purity="4.6248662471771240e-01" nType="0">
          <Node pos="l" depth="2" NCoef="0" IVar="-1" Cut="0.0000000000000000e+00" cType="1" res="-2.4308398133143783e-04" rms="4.5054766535758972e-01" purity="4.3536493182182312e-01" nType="-99"/>
          <Node pos="r" depth="2" NCoef="0" IVar="-1" Cut="0.0000000000000000e+00" cType="1" res="-1.7993331421166658e-03" rms="4.8128467798233032e-01" purity="5.2041518688201904e-01" nType="-99"/>
        </Node>
        <Node pos="r" depth="1" NCoef="0" IVar="3" Cut="1.3240046691894531e+02" cType="1" res="1.2521408498287201e-03" rms="4.5161947607994080e-01" purity="5.1078045368194580e-01" nType="0">
          <Node pos="l" depth="2" NCoef="0" IVar="-1" Cut="0.0000000000000000e+00" cType="1" res="2.0136748207733035e-04" rms="4.5250171422958374e-01" purity="5.2553945779800415e-01" nType="-99"/>
          <Node pos="r" depth="2" NCoef="0" IVar="-1" Cut="0.0000000000000000e+00" cType="1" res="-8.1950129242613912e-04" rms="4.4565156102180481e-01" purity="4.2715588212013245e-01" nType="-99"/>
        </Node>
      </Node>
    </BinaryTree>
    <BinaryTree type="DecisionTree" boostWeight="1.0000000000000000e+00" itree="782">
      <Node pos="s" depth="0" NCoef="0" IVar="3" Cut="1.4518669128417969e+02" cType="1" res="-3.1734339427202940e-03" rms="4.5493558049201965e-01" purity="4.9858221411705017e-01" nType="0">
        <Node pos="l" depth="1" NCoef="0" IVar="3" Cut="1.0498411560058594e+02" cType="1" res="1.3804814079776406e-04" rms="4.5625323057174683e-01" purity="5.1150935888290405e-01" nType="0">
          <Node pos="l" depth="2" NCoef="0" IVar="-1" Cut="0.0000000000000000e+00" cType="1" res="-2.3639480059500784e-04" rms="4.6028792858123779e-01" purity="4.8589578270912170e-01" nType="-99"/>
          <Node pos="r" depth="2" NCoef="0" IVar="-1" Cut="0.0000000000000000e+00" cType="1" res="1.1739642359316349e-03" rms="4.3851950764656067e-01" purity="6.1363613605499268e-01" nType="-99"/>
        </Node>
        <Node pos="r" depth="1" NCoef="0" IVar="-1" Cut="0.0000000000000000e+00" cType="1" res="-1.2269424041733146e-03" rms="4.3807491660118103e-01" purity="3.5280984640121460e-01" nType="-99"/>
      </Node>
    </BinaryTree>
    <BinaryTree type="DecisionTree" boostWeight="1.0000000000000000e+00" itree="783">
      <Node pos="s" depth="0" NCoef="0" IVar="4" Cut="1.3026353454589844e+02" cType="1" res="-3.2075815834105015e-03" rms="4.4857037067413330e-01" purity="4.9636787176132202e-01" nType="0">
        <Node pos="l" depth="1" NCoef="0" IVar="4" Cut="1.1643460845947266e+02" cType="1" res="1.3694111257791519e-02" rms="4.4680899381637573e-01" purity="5.4429697990417480e-01" nType="0">
          <Node pos="l" depth="2" NCoef="0" IVar="-1" Cut="0.0000000000000000e+00" cType="1" res="5.0733404350467026e-05" rms="4.5148634910583496e-01" purity="5.0915187597274780e-01" nType="-99"/>
          <Node pos="r" depth="2" NCoef="0" IVar="-1" Cut="0.0000000000000000e+00" cType="1" res="2.4950585793703794e-03" rms="4.2526322603225708e-01" purity="6.7863440513610840e-01" nType="-99"/>
        </Node>
        <Node pos="r" depth="1" NCoef="0" IVar="8" Cut="4.7894957661628723e-01" cType="1" res="-1.5381800942122936e-02" rms="4.4944116473197937e-01" purity="4.6184474229812622e-01" nType="0">
          <Node pos="l" depth="2" NCoef="0" IVar="-1" Cut="0.0000000000000000e+00" cType="1" res="-1.3990912120789289e-03" rms="4.4021868705749512e-01" purity="3.4054875373840332e-01" nType="-99"/>
          <Node pos="r" depth="2" NCoef="0" IVar="-1" Cut="0.0000000000000000e+00" cType="1" res="-2.0507715817075223e-04" rms="4.5148453116416931e-01" purity="4.9476909637451172e-01" nType="-99"/>
        </Node>
      </Node>
    </BinaryTree>
    <BinaryTree type="DecisionTree" boostWeight="1.0000000000000000e+00" itree="784">
      <Node pos="s" depth="0" NCoef="0" IVar="4" Cut="1.4074926757812500e+02" cType="1" res="-5.5834194645285606e-03" rms="4.5211511850357056e-01" purity="4.9724131822586060e-01" nType="0">
        <Node pos="l" depth="1" NCoef="0" IVar="7" Cut="8.8165730237960815e-01" cType="1" res="9.7314212471246719e-03" rms="4.5011499524116516e-01" purity="5.5269700288772583e-01" nType="0">
          <Node pos="l" depth="2" NCoef="0" IVar="-1" Cut="0.0000000000000000e+00" cType="1" res="1.0667007882148027e-04" rms="4.5586991310119629e-01" purity="5.2608591318130493e-01" nType="-99"/>
          <Node pos="r" depth="2" NCoef="0" IVar="-1" Cut="0.0000000000000000e+00" cType="1" res="2.2896295413374901e-03" rms="4.1129913926124573e-01" purity="7.1398872137069702e-01" nType="-99"/>
        </Node>
        <Node pos="r" depth="1" NCoef="0" IVar="6" Cut="9.0137328952550888e-03" cType="1" res="-1.9451864063739777e-02" rms="4.5347270369529724e-01" purity="4.4702309370040894e-01" nType="0">
          <Node pos="l" depth="2" NCoef="0" IVar="-1" Cut="0.0000000000000000e+00" cType="1" res="-1.3405922800302505e-03" rms="4.4956219196319580e-01" purity="5.1122969388961792e-01" nType="-99"/>
          <Node pos="r" depth="2" NCoef="0" IVar="-1" Cut="0.0000000000000000e+00" cType="1" res="-3.1259839306585491e-04" rms="4.5483210682868958e-01" purity="4.1944056749343872e-01" nType="-99"/>
        </Node>
      </Node>
    </BinaryTree>
    <BinaryTree type="DecisionTree" boostWeight="1.0000000000000000e+00" itree="785">
      <Node pos="s" depth="0" NCoef="0" IVar="8" Cut="6.6617786884307861e-01" cType="1" res="3.1765107996761799e-03" rms="4.5067042112350464e-01" purity="5.0492697954177856e-01" nType="0">
        <Node pos="l" depth="1" NCoef="0" IVar="3" Cut="1.3224179077148438e+02" cType="1" res="-4.3764221481978893e-04" rms="4.5300766825675964e-01" purity="4.8999989032745361e-01" nType="0">
          <Node pos="l" depth="2" NCoef="0" IVar="-1" Cut="0.0000000000000000e+00" cType="1" res="1.0421552724437788e-04" rms="4.5436802506446838e-01" purity="5.0044775009155273e-01" nType="-99"/>
          <Node pos="r" depth="2" NCoef="0" IVar="-1" Cut="0.0000000000000000e+00" cType="1" res="-8.6811080109328032e-04" rms="4.4181126356124878e-01" purity="4.1222274303436279e-01" nType="-99"/>
        </Node>
        <Node pos="r" depth="1" NCoef="0" IVar="-1" Cut="0.0000000000000000e+00" cType="1" res="2.0951584447175264e-03" rms="4.1809207201004028e-01" purity="6.8966895341873169e-01" nType="-99"/>
      </Node>
    </BinaryTree>
    <BinaryTree type="DecisionTree" boostWeight="1.0000000000000000e+00" itree="786">
      <Node pos="s" depth="0" NCoef="0" IVar="5" Cut="5.0573676824569702e-01" cType="1" res="1.5271937008947134e-03" rms="4.5294129848480225e-01" purity="5.0282627344131470e-01" nType="0">
        <Node pos="l" depth="1" NCoef="0" IVar="7" Cut="6.5193569660186768e-01" cType="1" res="-3.4015387296676636e-02" rms="4.6047902107238770e-01" purity="6.1332643032073975e-01" nType="0">
          <Node pos="l" depth="2" NCoef="0" IVar="-1" Cut="0.0000000000000000e+00" cType="1" res="-1.8367725424468517e-03" rms="4.7870665788650513e-01" purity="5.1777058839797974e-01" nType="-99"/>
          <Node pos="r" depth="2" NCoef="0" IVar="-1" Cut="0.0000000000000000e+00" cType="1" res="-4.2323351954109967e-04" rms="4.4070103764533997e-01" purity="7.0588099956512451e-01" nType="-99"/>
        </Node>
        <Node pos="r" depth="1" NCoef="0" IVar="9" Cut="9.0938478708267212e-01" cType="1" res="5.6981872767210007e-03" rms="4.5186522603034973e-01" purity="4.8985883593559265e-01" nType="0">
          <Node pos="l" depth="2" NCoef="0" IVar="-1" Cut="0.0000000000000000e+00" cType="1" res="7.3662650538608432e-04" rms="4.4839677214622498e-01" purity="3.8560384511947632e-01" nType="-99"/>
          <Node pos="r" depth="2" NCoef="0" IVar="-1" Cut="0.0000000000000000e+00" cType="1" res="-3.0564578992198221e-06" rms="4.5283076167106628e-01" purity="5.2360165119171143e-01" nType="-99"/>
        </Node>
      </Node>
    </BinaryTree>
    <BinaryTree type="DecisionTree" boostWeight="1.0000000000000000e+00" itree="787">
      <Node pos="s" depth="0" NCoef="0" IVar="4" Cut="1.6302627563476562e+02" cType="1" res="-3.4840588923543692e-03" rms="4.4946607947349548e-01" purity="4.9695315957069397e-01" nType="0">
        <Node pos="l" depth="1" NCoef="0" IVar="8" Cut="5.2264106273651123e-01" cType="1" res="7.0481514558196068e-03" rms="4.4859418272972107e-01" purity="5.4822629690170288e-01" nType="0">
          <Node pos="l" depth="2" NCoef="0" IVar="-1" Cut="0.0000000000000000e+00" cType="1" res="-5.7714135618880391e-04" rms="4.5918658375740051e-01" purity="4.4630223512649536e-01" nType="-99"/>
          <Node pos="r" depth="2" NCoef="0" IVar="-1" Cut="0.0000000000000000e+00" cType="1" res="8.0175820039585233e-04" rms="4.4199299812316895e-01" purity="6.0442513227462769e-01" nType="-99"/>
        </Node>
        <Node pos="r" depth="1" NCoef="0" IVar="1" Cut="4.0295794606208801e-01" cType="1" res="-1.7156640067696571e-02" rms="4.5022806525230408e-01" purity="4.3039193749427795e-01" nType="0">
          <Node pos="l" depth="2" NCoef="0" IVar="-1" Cut="0.0000000000000000e+00" cType="1" res="1.4836828922852874e-03" rms="4.5263901352882385e-01" purity="6.0804283618927002e-01" nType="-99"/>
          <Node pos="r" depth="2" NCoef="0" IVar="-1" Cut="0.0000000000000000e+00" cType="1" res="-8.0546591198071837e-04" rms="4.4911751151084900e-01" purity="4.0136826038360596e-01" nType="-99"/>
        </Node>
      </Node>
    </BinaryTree>
    <BinaryTree type="DecisionTree" boostWeight="1.0000000000000000e+00" itree="788">
      <Node pos="s" depth="0" NCoef="0" IVar="7" Cut="9.4608837366104126e-01" cType="1" res="-4.8286975361406803e-03" rms="4.4985109567642212e-01" purity="4.9475279450416565e-01" nType="0">
        <Node pos="l" depth="1" NCoef="0" IVar="4" Cut="4.1209783935546875e+02" cType="1" res="-7.2289980016648769e-03" rms="4.5057299733161926e-01" purity="4.8499000072479248e-01" nType="0">
          <Node pos="l" depth="2" NCoef="0" IVar="-1" Cut="0.0000000000000000e+00" cType="1" res="-1.3150814629625529e-04" rms="4.5273372530937195e-01" purity="5.0213259458541870e-01" nType="-99"/>
          <Node pos="r" depth="2" NCoef="0" IVar="-1" Cut="0.0000000000000000e+00" cType="1" res="-1.2378402752801776e-03" rms="4.2489904165267944e-01" purity="2.9920247197151184e-01" nType="-99"/>
        </Node>
        <Node pos="r" depth="1" NCoef="0" IVar="-1" Cut="0.0000000000000000e+00" cType="1" res="1.5771307516843081e-03" rms="4.3441170454025269e-01" purity="6.7027521133422852e-01" nType="-99"/>
      </Node>
    </BinaryTree>
    <BinaryTree type="DecisionTree" boostWeight="1.0000000000000000e+00" itree="789">
      <Node pos="s" depth="0" NCoef="0" IVar="5" Cut="5.8968222141265869e-01" cType="1" res="-1.5044709434732795e-03" rms="4.5622527599334717e-01" purity="5.0505834817886353e-01" nType="0">
        <Node pos="l" depth="1" NCoef="0" IVar="3" Cut="7.1399406433105469e+01" cType="1" res="2.2481571882963181e-02" rms="4.5084071159362793e-01" purity="6.8244636058807373e-01" nType="0">
          <Node pos="l" depth="2" NCoef="0" IVar="-1" Cut="0.0000000000000000e+00" cType="1" res="2.2144846152514219e-03" rms="4.5170706510543823e-01" purity="6.7150187492370605e-01" nType="-99"/>
          <Node pos="r" depth="2" NCoef="0" IVar="-1" Cut="0.0000000000000000e+00" cType="1" res="-8.6923013441264629e-04" rms="4.4627708196640015e-01" purity="6.9607269763946533e-01" nType="-99"/>
        </Node>
        <Node pos="r" depth="1" NCoef="0" IVar="5" Cut="1.0929868221282959e+00" cType="1" res="-5.6997383944690228e-03" rms="4.5703122019767761e-01" purity="4.7403237223625183e-01" nType="0">
          <Node pos="l" depth="2" NCoef="0" IVar="-1" Cut="0.0000000000000000e+00" cType="1" res="-6.1483087483793497e-04" rms="4.6867790818214417e-01" purity="5.8271622657775879e-01" nType="-99"/>
          <Node pos="r" depth="2" NCoef="0" IVar="-1" Cut="0.0000000000000000e+00" cType="1" res="2.1253146405797452e-04" rms="4.4412621855735779e-01" purity="3.6001700162887573e-01" nType="-99"/>
        </Node>
      </Node>
    </BinaryTree>
    <BinaryTree type="DecisionTree" boostWeight="1.0000000000000000e+00" itree="790">
      <Node pos="s" depth="0" NCoef="0" IVar="3" Cut="1.0373178863525391e+02" cType="1" res="-3.7782345898449421e-03" rms="4.5009830594062805e-01" purity="4.9534749984741211e-01" nType="0">
        <Node pos="l" depth="1" NCoef="0" IVar="0" Cut="1.0065946578979492e+00" cType="1" res="-1.2190544046461582e-02" rms="4.5381522178649902e-01" purity="4.7330355644226074e-01" nType="0">
          <Node pos="l" depth="2" NCoef="0" IVar="-1" Cut="0.0000000000000000e+00" cType="1" res="1.9638430967461318e-04" rms="4.6473082900047302e-01" purity="6.2039452791213989e-01" nType="-99"/>
          <Node pos="r" depth="2" NCoef="0" IVar="-1" Cut="0.0000000000000000e+00" cType="1" res="-7.1254314389079809e-04" rms="4.4577038288116455e-01" purity="3.7239831686019897e-01" nType="-99"/>
        </Node>
        <Node pos="r" depth="1" NCoef="0" IVar="7" Cut="7.8758281469345093e-01" cType="1" res="1.9423939287662506e-02" rms="4.3884891271591187e-01" purity="5.5614739656448364e-01" nType="0">
          <Node pos="l" depth="2" NCoef="0" IVar="-1" Cut="0.0000000000000000e+00" cType="1" res="1.1391546577215195e-03" rms="4.4131058454513550e-01" purity="5.2352839708328247e-01" nType="-99"/>
          <Node pos="r" depth="2" NCoef="0" IVar="-1" Cut="0.0000000000000000e+00" cType="1" res="-6.6341261845082045e-04" rms="4.3022111058235168e-01" purity="6.4300197362899780e-01" nType="-99"/>
        </Node>
      </Node>
    </BinaryTree>
    <BinaryTree type="DecisionTree" boostWeight="1.0000000000000000e+00" itree="791">
      <Node pos="s" depth="0" NCoef="0" IVar="1" Cut="5.2639925479888916e-01" cType="1" res="-1.0180710814893246e-02" rms="4.5616766810417175e-01" purity="4.9333122372627258e-01" nType="0">
        <Node pos="l" depth="1" NCoef="0" IVar="5" Cut="1.0241608619689941e+00" cType="1" res="-2.9779022559523582e-02" rms="4.6170905232429504e-01" purity="5.8081865310668945e-01" nType="0">
          <Node pos="l" depth="2" NCoef="0" IVar="-1" Cut="0.0000000000000000e+00" cType="1" res="-1.5433854423463345e-03" rms="4.6116241812705994e-01" purity="6.2564200162887573e-01" nType="-99"/>
          <Node pos="r" depth="2" NCoef="0" IVar="-1" Cut="0.0000000000000000e+00" cType="1" res="-1.9914623408112675e-05" rms="4.6188756823539734e-01" purity="4.6232098340988159e-01" nType="-99"/>
        </Node>
        <Node pos="r" depth="1" NCoef="0" IVar="1" Cut="6.4646559953689575e-01" cType="1" res="-4.1271192021667957e-03" rms="4.5427149534225464e-01" purity="4.6630781888961792e-01" nType="0">
          <Node pos="l" depth="2" NCoef="0" IVar="-1" Cut="0.0000000000000000e+00" cType="1" res="1.5890497015789151e-03" rms="4.4799974560737610e-01" purity="6.2454360723495483e-01" nType="-99"/>
          <Node pos="r" depth="2" NCoef="0" IVar="-1" Cut="0.0000000000000000e+00" cType="1" res="-2.7295784093439579e-04" rms="4.5461422204971313e-01" purity="4.5087331533432007e-01" nType="-99"/>
        </Node>
      </Node>
    </BinaryTree>
    <BinaryTree type="DecisionTree" boostWeight="1.0000000000000000e+00" itree="792">
      <Node pos="s" depth="0" NCoef="0" IVar="6" Cut="3.8598258048295975e-02" cType="1" res="3.7118038744665682e-04" rms="4.5138594508171082e-01" purity="5.0058495998382568e-01" nType="0">
        <Node pos="l" depth="1" NCoef="0" IVar="4" Cut="3.9872167968750000e+02" cType="1" res="4.8310309648513794e-03" rms="4.5129489898681641e-01" purity="5.1370984315872192e-01" nType="0">
          <Node pos="l" depth="2" NCoef="0" IVar="-1" Cut="0.0000000000000000e+00" cType="1" res="3.1479875906370580e-04" rms="4.5294722914695740e-01" purity="5.3274917602539062e-01" nType="-99"/>
          <Node pos="r" depth="2" NCoef="0" IVar="-1" Cut="0.0000000000000000e+00" cType="1" res="-1.1642397148534656e-03" rms="4.3218496441841125e-01" purity="3.2546764612197876e-01" nType="-99"/>
        </Node>
        <Node pos="r" depth="1" NCoef="0" IVar="-1" Cut="0.0000000000000000e+00" cType="1" res="-1.3305501779541373e-03" rms="4.4953602552413940e-01" purity="3.5814622044563293e-01" nType="-99"/>
      </Node>
    </BinaryTree>
    <BinaryTree type="DecisionTree" boostWeight="1.0000000000000000e+00" itree="793">
      <Node pos="s" depth="0" NCoef="0" IVar="7" Cut="5.1512426137924194e-01" cType="1" res="7.6947163324803114e-04" rms="4.5252710580825806e-01" purity="5.0200372934341431e-01" nType="0">
        <Node pos="l" depth="1" NCoef="0" IVar="-1" Cut="0.0000000000000000e+00" cType="1" res="-1.0671853087842464e-03" rms="4.4859784841537476e-01" purity="3.2508406043052673e-01" nType="-99"/>
        <Node pos="r" depth="1" NCoef="0" IVar="1" Cut="3.0012276768684387e-01" cType="1" res="4.3858117423951626e-03" rms="4.5273002982139587e-01" purity="5.1874268054962158e-01" nType="0">
          <Node pos="l" depth="2" NCoef="0" IVar="-1" Cut="0.0000000000000000e+00" cType="1" res="1.4939049724489450e-03" rms="4.3380796909332275e-01" purity="6.7787903547286987e-01" nType="-99"/>
          <Node pos="r" depth="2" NCoef="0" IVar="-1" Cut="0.0000000000000000e+00" cType="1" res="2.9486089260899462e-05" rms="4.5464628934860229e-01" purity="5.0109434127807617e-01" nType="-99"/>
        </Node>
      </Node>
    </BinaryTree>
    <BinaryTree type="DecisionTree" boostWeight="1.0000000000000000e+00" itree="794">
      <Node pos="s" depth="0" NCoef="0" IVar="7" Cut="8.3056080341339111e-01" cType="1" res="-3.1721731647849083e-03" rms="4.5297506451606750e-01" purity="4.9965751171112061e-01" nType="0">
        <Node pos="l" depth="1" NCoef="0" IVar="4" Cut="1.0651410675048828e+02" cType="1" res="-1.0091005824506283e-02" rms="4.5576801896095276e-01" purity="4.6123775839805603e-01" nType="0">
          <Node pos="l" depth="2" NCoef="0" IVar="-1" Cut="0.0000000000000000e+00" cType="1" res="-8.4950891323387623e-04" rms="4.6005535125732422e-01" purity="4.2746067047119141e-01" nType="-99"/>
          <Node pos="r" depth="2" NCoef="0" IVar="-1" Cut="0.0000000000000000e+00" cType="1" res="-9.9866250820923597e-05" rms="4.5393413305282593e-01" purity="4.7408023476600647e-01" nType="-99"/>
        </Node>
        <Node pos="r" depth="1" NCoef="0" IVar="5" Cut="1.1523512601852417e+00" cType="1" res="2.4086713790893555e-02" rms="4.4074392318725586e-01" purity="6.5102404356002808e-01" nType="0">
          <Node pos="l" depth="2" NCoef="0" IVar="-1" Cut="0.0000000000000000e+00" cType="1" res="3.4579416387714446e-04" rms="4.3284395337104797e-01" purity="7.1972346305847168e-01" nType="-99"/>
          <Node pos="r" depth="2" NCoef="0" IVar="-1" Cut="0.0000000000000000e+00" cType="1" res="1.9116154871881008e-03" rms="4.5561274886131287e-01" purity="4.9863207340240479e-01" nType="-99"/>
        </Node>
      </Node>
    </BinaryTree>
    <BinaryTree type="DecisionTree" boostWeight="1.0000000000000000e+00" itree="795">
      <Node pos="s" depth="0" NCoef="0" IVar="3" Cut="8.2202293395996094e+01" cType="1" res="-3.7593357264995575e-03" rms="4.5196005702018738e-01" purity="4.9923714995384216e-01" nType="0">
        <Node pos="l" depth="1" NCoef="0" IVar="9" Cut="9.0765154361724854e-01" cType="1" res="-1.4387517236173153e-02" rms="4.5813524723052979e-01" purity="4.6231386065483093e-01" nType="0">
          <Node pos="l" depth="2" NCoef="0" IVar="-1" Cut="0.0000000000000000e+00" cType="1" res="4.2293424485251307e-04" rms="4.4129788875579834e-01" purity="3.6637347936630249e-01" nType="-99"/>
          <Node pos="r" depth="2" NCoef="0" IVar="-1" Cut="0.0000000000000000e+00" cType="1" res="-7.0855126250535250e-04" rms="4.6259215474128723e-01" purity="4.9023234844207764e-01" nType="-99"/>
        </Node>
        <Node pos="r" depth="1" NCoef="0" IVar="0" Cut="7.8679245710372925e-01" cType="1" res="1.0540666058659554e-02" rms="4.4311374425888062e-01" purity="5.4891663789749146e-01" nType="0">
          <Node pos="l" depth="2" NCoef="0" IVar="-1" Cut="0.0000000000000000e+00" cType="1" res="4.6742651611566544e-03" rms="3.6497876048088074e-01" purity="8.2820945978164673e-01" nType="-99"/>
          <Node pos="r" depth="2" NCoef="0" IVar="-1" Cut="0.0000000000000000e+00" cType="1" res="-2.7206384402234107e-05" rms="4.5433193445205688e-01" purity="5.0051718950271606e-01" nType="-99"/>
        </Node>
      </Node>
    </BinaryTree>
    <BinaryTree type="DecisionTree" boostWeight="1.0000000000000000e+00" itree="796">
      <Node pos="s" depth="0" NCoef="0" IVar="1" Cut="1.0445145368576050e+00" cType="1" res="-5.9800734743475914e-03" rms="4.5240619778633118e-01" purity="4.9573880434036255e-01" nType="0">
        <Node pos="l" depth="1" NCoef="0" IVar="1" Cut="1.9843171536922455e-01" cType="1" res="6.0815038159489632e-03" rms="4.5336171984672546e-01" purity="5.8729892969131470e-01" nType="0">
          <Node pos="l" depth="2" NCoef="0" IVar="-1" Cut="0.0000000000000000e+00" cType="1" res="2.2084657102823257e-03" rms="4.1826197504997253e-01" purity="6.8169492483139038e-01" nType="-99"/>
          <Node pos="r" depth="2" NCoef="0" IVar="-1" Cut="0.0000000000000000e+00" cType="1" res="2.6170697310590185e-05" rms="4.5682099461555481e-01" purity="5.7671231031417847e-01" nType="-99"/>
        </Node>
        <Node pos="r" depth="1" NCoef="0" IVar="5" Cut="7.7179557085037231e-01" cType="1" res="-1.9090108573436737e-02" rms="4.5099958777427673e-01" purity="3.9621978998184204e-01" nType="0">
          <Node pos="l" depth="2" NCoef="0" IVar="-1" Cut="0.0000000000000000e+00" cType="1" res="-1.8582895863801241e-03" rms="4.8026433587074280e-01" purity="5.2441298961639404e-01" nType="-99"/>
          <Node pos="r" depth="2" NCoef="0" IVar="-1" Cut="0.0000000000000000e+00" cType="1" res="-3.0534793040715158e-04" rms="4.4397020339965820e-01" purity="3.6871659755706787e-01" nType="-99"/>
        </Node>
      </Node>
    </BinaryTree>
    <BinaryTree type="DecisionTree" boostWeight="1.0000000000000000e+00" itree="797">
      <Node pos="s" depth="0" NCoef="0" IVar="3" Cut="3.8377567291259766e+01" cType="1" res="4.8777568154036999e-03" rms="4.5082825422286987e-01" purity="5.0742644071578979e-01" nType="0">
        <Node pos="l" depth="1" NCoef="0" IVar="-1" Cut="0.0000000000000000e+00" cType="1" res="-8.5570389637723565e-04" rms="4.4009745121002197e-01" purity="3.6290782690048218e-01" nType="-99"/>
        <Node pos="r" depth="1" NCoef="0" IVar="3" Cut="1.3514210510253906e+02" cType="1" res="8.7127229198813438e-03" rms="4.5185303688049316e-01" purity="5.2361690998077393e-01" nType="0">
          <Node pos="l" depth="2" NCoef="0" IVar="-1" Cut="0.0000000000000000e+00" cType="1" res="4.4187007006257772e-04" rms="4.5305353403091431e-01" purity="5.3855699300765991e-01" nType="-99"/>
          <Node pos="r" depth="2" NCoef="0" IVar="-1" Cut="0.0000000000000000e+00" cType="1" res="-7.1456778096035123e-04" rms="4.4158810377120972e-01" purity="4.1262668371200562e-01" nType="-99"/>
        </Node>
      </Node>
    </BinaryTree>
    <BinaryTree type="DecisionTree" boostWeight="1.0000000000000000e+00" itree="798">
      <Node pos="s" depth="0" NCoef="0" IVar="0" Cut="1.6365941762924194e+00" cType="1" res="-4.8189396038651466e-03" rms="4.5266276597976685e-01" purity="4.9813714623451233e-01" nType="0">
        <Node pos="l" depth="1" NCoef="0" IVar="5" Cut="1.2562700510025024e+00" cType="1" res="-1.4609403442591429e-03" rms="4.5914542675018311e-01" purity="5.2698940038681030e-01" nType="0">
          <Node pos="l" depth="2" NCoef="0" IVar="-1" Cut="0.0000000000000000e+00" cType="1" res="-2.4573085829615593e-04" rms="4.6442055702209473e-01" purity="5.8825743198394775e-01" nType="-99"/>
          <Node pos="r" depth="2" NCoef="0" IVar="-1" Cut="0.0000000000000000e+00" cType="1" res="4.6501157339662313e-04" rms="4.4221645593643188e-01" purity="3.4000685811042786e-01" nType="-99"/>
        </Node>
        <Node pos="r" depth="1" NCoef="0" IVar="-1" Cut="0.0000000000000000e+00" cType="1" res="-1.1513356585055590e-03" rms="3.8268357515335083e-01" purity="2.1850356459617615e-01" nType="-99"/>
      </Node>
    </BinaryTree>
    <BinaryTree type="DecisionTree" boostWeight="1.0000000000000000e+00" itree="799">
      <Node pos="s" depth="0" NCoef="0" IVar="1" Cut="2.5267145633697510e+00" cType="1" res="-8.9867766946554184e-03" rms="4.5206856727600098e-01" purity="4.9406781792640686e-01" nType="0">
        <Node pos="l" depth="1" NCoef="0" IVar="3" Cut="1.4276994323730469e+02" cType="1" res="-5.0948057323694229e-03" rms="4.5795828104019165e-01" purity="5.1923960447311401e-01" nType="0">
          <Node pos="l" depth="2" NCoef="0" IVar="-1" Cut="0.0000000000000000e+00" cType="1" res="-6.9812609581276774e-05" rms="4.5806390047073364e-01" purity="5.2990061044692993e-01" nType="-99"/>
          <Node pos="r" depth="2" NCoef="0" IVar="-1" Cut="0.0000000000000000e+00" cType="1" res="-1.2011295184493065e-03" rms="4.5535093545913696e-01" purity="3.9745503664016724e-01" nType="-99"/>
        </Node>
        <Node pos="r" depth="1" NCoef="0" IVar="-1" Cut="0.0000000000000000e+00" cType="1" res="-1.5631349524483085e-03" rms="3.7739661335945129e-01" purity="2.1285639703273773e-01" nType="-99"/>
      </Node>
    </BinaryTree>
    <BinaryTree type="DecisionTree" boostWeight="1.0000000000000000e+00" itree="800">
      <Node pos="s" depth="0" NCoef="0" IVar="1" Cut="6.5735459327697754e-01" cType="1" res="3.5636271350085735e-03" rms="4.5252001285552979e-01" purity="5.0627893209457397e-01" nType="0">
        <Node pos="l" depth="1" NCoef="0" IVar="5" Cut="7.5277936458587646e-01" cType="1" res="2.0306725054979324e-02" rms="4.4625851511955261e-01" purity="6.2297314405441284e-01" nType="0">
          <Node pos="l" depth="2" NCoef="0" IVar="-1" Cut="0.0000000000000000e+00" cType="1" res="1.8342788098379970e-03" rms="4.2844307422637939e-01" purity="7.1992403268814087e-01" nType="-99"/>
          <Node pos="r" depth="2" NCoef="0" IVar="-1" Cut="0.0000000000000000e+00" cType="1" res="1.5016831457614899e-04" rms="4.5894414186477661e-01" purity="5.4794979095458984e-01" nType="-99"/>
        </Node>
        <Node pos="r" depth="1" NCoef="0" IVar="5" Cut="9.0743517875671387e-01" cType="1" res="-4.1357781738042831e-03" rms="4.5516380667686462e-01" purity="4.5261648297309875e-01" nType="0">
          <Node pos="l" depth="2" NCoef="0" IVar="-1" Cut="0.0000000000000000e+00" cType="1" res="-8.8027090532705188e-04" rms="4.6943452954292297e-01" purity="5.7920473814010620e-01" nType="-99"/>
          <Node pos="r" depth="2" NCoef="0" IVar="-1" Cut="0.0000000000000000e+00" cType="1" res="2.2353524400386959e-04" rms="4.4699606299400330e-01" purity="3.8556221127510071e-01" nType="-99"/>
        </Node>
      </Node>
    </BinaryTree>
    <BinaryTree type="DecisionTree" boostWeight="1.0000000000000000e+00" itree="801">
      <Node pos="s" depth="0" NCoef="0" IVar="1" Cut="1.6779350042343140e+00" cType="1" res="-1.4598042471334338e-03" rms="4.5232373476028442e-01" purity="4.9949663877487183e-01" nType="0">
        <Node pos="l" depth="1" NCoef="0" IVar="0" Cut="7.3584592342376709e-01" cType="1" res="4.1712769307196140e-03" rms="4.5827031135559082e-01" purity="5.5250203609466553e-01" nType="0">
          <Node pos="l" depth="2" NCoef="0" IVar="-1" Cut="0.0000000000000000e+00" cType="1" res="-1.0153991170227528e-03" rms="4.5599091053009033e-01" purity="6.6352808475494385e-01" nType="-99"/>
          <Node pos="r" depth="2" NCoef="0" IVar="-1" Cut="0.0000000000000000e+00" cType="1" res="3.5125738941133022e-04" rms="4.5853173732757568e-01" purity="5.2749657630920410e-01" nType="-99"/>
        </Node>
        <Node pos="r" depth="1" NCoef="0" IVar="5" Cut="9.9846148490905762e-01" cType="1" res="-2.0356772467494011e-02" rms="4.3123272061347961e-01" purity="3.2161936163902283e-01" nType="0">
          <Node pos="l" depth="2" NCoef="0" IVar="-1" Cut="0.0000000000000000e+00" cType="1" res="-1.6511143185198307e-03" rms="4.7721543908119202e-01" purity="4.6905246376991272e-01" nType="-99"/>
          <Node pos="r" depth="2" NCoef="0" IVar="-1" Cut="0.0000000000000000e+00" cType="1" res="-2.7454580413177609e-04" rms="4.1560101509094238e-01" purity="2.7683526277542114e-01" nType="-99"/>
        </Node>
      </Node>
    </BinaryTree>
    <BinaryTree type="DecisionTree" boostWeight="1.0000000000000000e+00" itree="802">
      <Node pos="s" depth="0" NCoef="0" IVar="2" Cut="7.2392743825912476e-01" cType="1" res="-6.4665023237466812e-03" rms="4.5400756597518921e-01" purity="4.9887359142303467e-01" nType="0">
        <Node pos="l" depth="1" NCoef="0" IVar="-1" Cut="0.0000000000000000e+00" cType="1" res="-1.2503252364695072e-03" rms="4.1122078895568848e-01" purity="2.3542375862598419e-01" nType="-99"/>
        <Node pos="r" depth="1" NCoef="0" IVar="8" Cut="4.4946742057800293e-01" cType="1" res="-3.9511779323220253e-03" rms="4.5668020844459534e-01" purity="5.1689749956130981e-01" nType="0">
          <Node pos="l" depth="2" NCoef="0" IVar="-1" Cut="0.0000000000000000e+00" cType="1" res="1.3115818146616220e-03" rms="4.5283076167106628e-01" purity="4.6208375692367554e-01" nType="-99"/>
          <Node pos="r" depth="2" NCoef="0" IVar="-1" Cut="0.0000000000000000e+00" cType="1" res="-2.7738243807107210e-04" rms="4.5681703090667725e-01" purity="5.2226310968399048e-01" nType="-99"/>
        </Node>
      </Node>
    </BinaryTree>
    <BinaryTree type="DecisionTree" boostWeight="1.0000000000000000e+00" itree="803">
      <Node pos="s" depth="0" NCoef="0" IVar="3" Cut="3.8080696105957031e+01" cType="1" res="-3.7069551181048155e-03" rms="4.5159599184989929e-01" purity="4.9745318293571472e-01" nType="0">
        <Node pos="l" depth="1" NCoef="0" IVar="-1" Cut="0.0000000000000000e+00" cType="1" res="-1.1601145379245281e-03" rms="4.3931055068969727e-01" purity="3.5736352205276489e-01" nType="-99"/>
        <Node pos="r" depth="1" NCoef="0" IVar="4" Cut="1.5817480468750000e+02" cType="1" res="3.0113369575701654e-04" rms="4.5272201299667358e-01" purity="5.1259446144104004e-01" nType="0">
          <Node pos="l" depth="2" NCoef="0" IVar="-1" Cut="0.0000000000000000e+00" cType="1" res="4.6268402365967631e-04" rms="4.4993481040000916e-01" purity="5.7399696111679077e-01" nType="-99"/>
          <Node pos="r" depth="2" NCoef="0" IVar="-1" Cut="0.0000000000000000e+00" cType="1" res="-4.2046883027069271e-04" rms="4.5534297823905945e-01" purity="4.4568952918052673e-01" nType="-99"/>
        </Node>
      </Node>
    </BinaryTree>
    <BinaryTree type="DecisionTree" boostWeight="1.0000000000000000e+00" itree="804">
      <Node pos="s" depth="0" NCoef="0" IVar="7" Cut="6.2027317285537720e-01" cType="1" res="-3.3564816694706678e-03" rms="4.5189890265464783e-01" purity="4.9829387664794922e-01" nType="0">
        <Node pos="l" depth="1" NCoef="0" IVar="4" Cut="2.7907357788085938e+02" cType="1" res="-1.7197098582983017e-02" rms="4.5227313041687012e-01" purity="3.9558902382850647e-01" nType="0">
          <Node pos="l" depth="2" NCoef="0" IVar="-1" Cut="0.0000000000000000e+00" cType="1" res="-7.2927476139739156e-04" rms="4.5696875452995300e-01" purity="4.1094276309013367e-01" nType="-99"/>
          <Node pos="r" depth="2" NCoef="0" IVar="-1" Cut="0.0000000000000000e+00" cType="1" res="4.3435711995698512e-04" rms="4.3096652626991272e-01" purity="3.3220630884170532e-01" nType="-99"/>
        </Node>
        <Node pos="r" depth="1" NCoef="0" IVar="9" Cut="9.7737717628479004e-01" cType="1" res="6.4619658514857292e-03" rms="4.5137602090835571e-01" purity="5.7115203142166138e-01" nType="0">
          <Node pos="l" depth="2" NCoef="0" IVar="-1" Cut="0.0000000000000000e+00" cType="1" res="1.0382143082097173e-03" rms="4.5193615555763245e-01" purity="5.5459183454513550e-01" nType="-99"/>
          <Node pos="r" depth="2" NCoef="0" IVar="-1" Cut="0.0000000000000000e+00" cType="1" res="-4.5637504081241786e-04" rms="4.5001968741416931e-01" purity="5.8452904224395752e-01" nType="-99"/>
        </Node>
      </Node>
    </BinaryTree>
    <BinaryTree type="DecisionTree" boostWeight="1.0000000000000000e+00" itree="805">
      <Node pos="s" depth="0" NCoef="0" IVar="7" Cut="5.1513957977294922e-01" cType="1" res="-2.2699651308357716e-03" rms="4.5175370573997498e-01" purity="4.9791052937507629e-01" nType="0">
        <Node pos="l" depth="1" NCoef="0" IVar="-1" Cut="0.0000000000000000e+00" cType="1" res="-8.7654707022011280e-04" rms="4.3979391455650330e-01" purity="3.2983046770095825e-01" nType="-99"/>
        <Node pos="r" depth="1" NCoef="0" IVar="8" Cut="4.6099239587783813e-01" cType="1" res="4.0005746996030211e-04" rms="4.5276683568954468e-01" purity="5.1366716623306274e-01" nType="0">
          <Node pos="l" depth="2" NCoef="0" IVar="-1" Cut="0.0000000000000000e+00" cType="1" res="-5.8586813975125551e-04" rms="4.4513082504272461e-01" purity="3.8270846009254456e-01" nType="-99"/>
          <Node pos="r" depth="2" NCoef="0" IVar="-1" Cut="0.0000000000000000e+00" cType="1" res="1.2762556434608996e-04" rms="4.5394584536552429e-01" purity="5.3555494546890259e-01" nType="-99"/>
        </Node>
      </Node>
    </BinaryTree>
    <BinaryTree type="DecisionTree" boostWeight="1.0000000000000000e+00" itree="806">
      <Node pos="s" depth="0" NCoef="0" IVar="3" Cut="1.0377910614013672e+02" cType="1" res="-4.4525214470922947e-03" rms="4.5181676745414734e-01" purity="4.9609148502349854e-01" nType="0">
        <Node pos="l" depth="1" NCoef="0" IVar="5" Cut="5.8805882930755615e-01" cType="1" res="-1.1535099707543850e-02" rms="4.5479080080986023e-01" purity="4.7261303663253784e-01" nType="0">
          <Node pos="l" depth="2" NCoef="0" IVar="-1" Cut="0.0000000000000000e+00" cType="1" res="9.0597284724935889e-04" rms="4.5435783267021179e-01" purity="6.5303236246109009e-01" nType="-99"/>
          <Node pos="r" depth="2" NCoef="0" IVar="-1" Cut="0.0000000000000000e+00" cType="1" res="-5.6549021974205971e-04" rms="4.5455494523048401e-01" purity="4.3684622645378113e-01" nType="-99"/>
        </Node>
        <Node pos="r" depth="1" NCoef="0" IVar="3" Cut="1.2872468566894531e+02" cType="1" res="1.4601562172174454e-02" rms="4.4315531849861145e-01" purity="5.5925500392913818e-01" nType="0">
          <Node pos="l" depth="2" NCoef="0" IVar="-1" Cut="0.0000000000000000e+00" cType="1" res="1.4417929342016578e-03" rms="4.3159693479537964e-01" purity="6.3276636600494385e-01" nType="-99"/>
          <Node pos="r" depth="2" NCoef="0" IVar="-1" Cut="0.0000000000000000e+00" cType="1" res="-2.9594585066661239e-04" rms="4.5429965853691101e-01" purity="4.7890737652778625e-01" nType="-99"/>
        </Node>
      </Node>
    </BinaryTree>
    <BinaryTree type="DecisionTree" boostWeight="1.0000000000000000e+00" itree="807">
      <Node pos="s" depth="0" NCoef="0" IVar="1" Cut="2.5267145633697510e+00" cType="1" res="3.5088579170405865e-03" rms="4.5062747597694397e-01" purity="5.0606113672256470e-01" nType="0">
        <Node pos="l" depth="1" NCoef="0" IVar="8" Cut="6.2248504161834717e-01" cType="1" res="7.0793996565043926e-03" rms="4.5505094528198242e-01" purity="5.2935940027236938e-01" nType="0">
          <Node pos="l" depth="2" NCoef="0" IVar="-1" Cut="0.0000000000000000e+00" cType="1" res="-4.3083155105705373e-06" rms="4.6066123247146606e-01" purity="4.9110585451126099e-01" nType="-99"/>
          <Node pos="r" depth="2" NCoef="0" IVar="-1" Cut="0.0000000000000000e+00" cType="1" res="1.5221141511574388e-03" rms="4.3090543150901794e-01" purity="6.8101763725280762e-01" nType="-99"/>
        </Node>
        <Node pos="r" depth="1" NCoef="0" IVar="-1" Cut="0.0000000000000000e+00" cType="1" res="-1.1665448546409607e-03" rms="3.9241373538970947e-01" purity="2.3180347681045532e-01" nType="-99"/>
      </Node>
    </BinaryTree>
    <BinaryTree type="DecisionTree" boostWeight="1.0000000000000000e+00" itree="808">
      <Node pos="s" depth="0" NCoef="0" IVar="1" Cut="8.6666071414947510e-01" cType="1" res="-5.8773979544639587e-03" rms="4.4971486926078796e-01" purity="4.9568355083465576e-01" nType="0">
        <Node pos="l" depth="1" NCoef="0" IVar="5" Cut="9.3351107835769653e-01" cType="1" res="8.1339031457901001e-03" rms="4.4982859492301941e-01" purity="5.9905445575714111e-01" nType="0">
          <Node pos="l" depth="2" NCoef="0" IVar="-1" Cut="0.0000000000000000e+00" cType="1" res="8.2595122512429953e-04" rms="4.4120180606842041e-01" purity="6.8769031763076782e-01" nType="-99"/>
          <Node pos="r" depth="2" NCoef="0" IVar="-1" Cut="0.0000000000000000e+00" cType="1" res="-2.7343141846358776e-04" rms="4.6157938241958618e-01" purity="4.6990299224853516e-01" nType="-99"/>
        </Node>
        <Node pos="r" depth="1" NCoef="0" IVar="2" Cut="8.2541728019714355e-01" cType="1" res="-1.6463018953800201e-02" rms="4.4933927059173584e-01" purity="4.1758620738983154e-01" nType="0">
          <Node pos="l" depth="2" NCoef="0" IVar="-1" Cut="0.0000000000000000e+00" cType="1" res="-1.0314383544027805e-03" rms="4.2836067080497742e-01" purity="2.7947667241096497e-01" nType="-99"/>
          <Node pos="r" depth="2" NCoef="0" IVar="-1" Cut="0.0000000000000000e+00" cType="1" res="-1.7697180737741292e-04" rms="4.6038138866424561e-01" purity="4.9540314078330994e-01" nType="-99"/>
        </Node>
      </Node>
    </BinaryTree>
    <BinaryTree type="DecisionTree" boostWeight="1.0000000000000000e+00" itree="809">
      <Node pos="s" depth="0" NCoef="0" IVar="4" Cut="1.3261779785156250e+02" cType="1" res="5.5504948832094669e-03" rms="4.5317584276199341e-01" purity="5.0731265544891357e-01" nType="0">
        <Node pos="l" depth="1" NCoef="0" IVar="4" Cut="1.0873705291748047e+02" cType="1" res="1.7994476482272148e-02" rms="4.4844236969947815e-01" purity="5.5282860994338989e-01" nType="0">
          <Node pos="l" depth="2" NCoef="0" IVar="-1" Cut="0.0000000000000000e+00" cType="1" res="3.7979636545060202e-05" rms="4.5834562182426453e-01" purity="4.9399724602699280e-01" nType="-99"/>
          <Node pos="r" depth="2" NCoef="0" IVar="-1" Cut="0.0000000000000000e+00" cType="1" res="1.9730534404516220e-03" rms="4.2817452549934387e-01" purity="6.5971302986145020e-01" nType="-99"/>
        </Node>
        <Node pos="r" depth="1" NCoef="0" IVar="0" Cut="9.7591602802276611e-01" cType="1" res="-4.0649748407304287e-03" rms="4.5656755566596985e-01" purity="4.7214248776435852e-01" nType="0">
          <Node pos="l" depth="2" NCoef="0" IVar="-1" Cut="0.0000000000000000e+00" cType="1" res="-9.2354672960937023e-04" rms="4.6527552604675293e-01" purity="5.9978359937667847e-01" nType="-99"/>
          <Node pos="r" depth="2" NCoef="0" IVar="-1" Cut="0.0000000000000000e+00" cType="1" res="2.1120227756910026e-04" rms="4.5178261399269104e-01" purity="4.0880268812179565e-01" nType="-99"/>
        </Node>
      </Node>
    </BinaryTree>
    <BinaryTree type="DecisionTree" boostWeight="1.0000000000000000e+00" itree="810">
      <Node pos="s" depth="0" NCoef="0" IVar="0" Cut="6.8905746936798096e-01" cType="1" res="4.6813460066914558e-03" rms="4.5044660568237305e-01" purity="5.0478851795196533e-01" nType="0">
        <Node pos="l" depth="1" NCoef="0" IVar="7" Cut="6.8227303028106689e-01" cType="1" res="4.4423475861549377e-02" rms="4.2626181244850159e-01" purity="7.3320287466049194e-01" nType="0">
          <Node pos="l" depth="2" NCoef="0" IVar="-1" Cut="0.0000000000000000e+00" cType="1" res="2.9327187221497297e-03" rms="4.4558769464492798e-01" purity="6.9451510906219482e-01" nType="-99"/>
          <Node pos="r" depth="2" NCoef="0" IVar="-1" Cut="0.0000000000000000e+00" cType="1" res="8.6942402413114905e-04" rms="4.0427500009536743e-01" purity="7.7134406566619873e-01" nType="-99"/>
        </Node>
        <Node pos="r" depth="1" NCoef="0" IVar="3" Cut="1.4193238830566406e+02" cType="1" res="-1.2128743401262909e-04" rms="4.5304578542709351e-01" purity="4.7718578577041626e-01" nType="0">
          <Node pos="l" depth="2" NCoef="0" IVar="-1" Cut="0.0000000000000000e+00" cType="1" res="9.8351360065862536e-05" rms="4.5286786556243896e-01" purity="4.8685345053672791e-01" nType="-99"/>
          <Node pos="r" depth="2" NCoef="0" IVar="-1" Cut="0.0000000000000000e+00" cType="1" res="-1.0158886434510350e-03" rms="4.5358225703239441e-01" purity="3.7545868754386902e-01" nType="-99"/>
        </Node>
      </Node>
    </BinaryTree>
    <BinaryTree type="DecisionTree" boostWeight="1.0000000000000000e+00" itree="811">
      <Node pos="s" depth="0" NCoef="0" IVar="9" Cut="7.5400418043136597e-01" cType="1" res="-5.3457967005670071e-03" rms="4.5118185877799988e-01" purity="4.9415016174316406e-01" nType="0">
        <Node pos="l" depth="1" NCoef="0" IVar="-1" Cut="0.0000000000000000e+00" cType="1" res="-1.3173412298783660e-03" rms="4.1443365812301636e-01" purity="2.4552157521247864e-01" nType="-99"/>
        <Node pos="r" depth="1" NCoef="0" IVar="4" Cut="1.2978343200683594e+02" cType="1" res="-2.6723849587142467e-03" rms="4.5333597064018250e-01" purity="5.1029533147811890e-01" nType="0">
          <Node pos="l" depth="2" NCoef="0" IVar="-1" Cut="0.0000000000000000e+00" cType="1" res="3.7486338987946510e-04" rms="4.5275282859802246e-01" purity="5.5888247489929199e-01" nType="-99"/>
          <Node pos="r" depth="2" NCoef="0" IVar="-1" Cut="0.0000000000000000e+00" cType="1" res="-3.9122352609410882e-04" rms="4.5350867509841919e-01" purity="4.7536408901214600e-01" nType="-99"/>
        </Node>
      </Node>
    </BinaryTree>
    <BinaryTree type="DecisionTree" boostWeight="1.0000000000000000e+00" itree="812">
      <Node pos="s" depth="0" NCoef="0" IVar="0" Cut="8.7854474782943726e-01" cType="1" res="-8.6415139958262444e-03" rms="4.5423790812492371e-01" purity="4.9429315328598022e-01" nType="0">
        <Node pos="l" depth="1" NCoef="0" IVar="2" Cut="8.5785651206970215e-01" cType="1" res="-2.9186772182583809e-02" rms="4.6260496973991394e-01" purity="6.2593102455139160e-01" nType="0">
          <Node pos="l" depth="2" NCoef="0" IVar="-1" Cut="0.0000000000000000e+00" cType="1" res="1.4613727398682386e-04" rms="4.7224321961402893e-01" purity="5.6431084871292114e-01" nType="-99"/>
          <Node pos="r" depth="2" NCoef="0" IVar="-1" Cut="0.0000000000000000e+00" cType="1" res="-2.3842114023864269e-03" rms="4.5347198843955994e-01" purity="6.7272716760635376e-01" nType="-99"/>
        </Node>
        <Node pos="r" depth="1" NCoef="0" IVar="7" Cut="5.6769222021102905e-01" cType="1" res="-8.9654565090313554e-04" rms="4.5080053806304932e-01" purity="4.4466948509216309e-01" nType="0">
          <Node pos="l" depth="2" NCoef="0" IVar="-1" Cut="0.0000000000000000e+00" cType="1" res="-7.1182957617565989e-04" rms="4.3866139650344849e-01" purity="3.1650081276893616e-01" nType="-99"/>
          <Node pos="r" depth="2" NCoef="0" IVar="-1" Cut="0.0000000000000000e+00" cType="1" res="2.8931745328009129e-04" rms="4.5535168051719666e-01" purity="4.9751064181327820e-01" nType="-99"/>
        </Node>
      </Node>
    </BinaryTree>
    <BinaryTree type="DecisionTree" boostWeight="1.0000000000000000e+00" itree="813">
      <Node pos="s" depth="0" NCoef="0" IVar="9" Cut="8.6594706773757935e-01" cType="1" res="-4.5592617243528366e-03" rms="4.4881314039230347e-01" purity="4.9347680807113647e-01" nType="0">
        <Node pos="l" depth="1" NCoef="0" IVar="8" Cut="4.6488687396049500e-01" cType="1" res="-3.0282290652394295e-02" rms="4.3234065175056458e-01" purity="3.0905488133430481e-01" nType="0">
          <Node pos="l" depth="2" NCoef="0" IVar="-1" Cut="0.0000000000000000e+00" cType="1" res="-1.8147310474887490e-03" rms="4.0635570883750916e-01" purity="2.4053885042667389e-01" nType="-99"/>
          <Node pos="r" depth="2" NCoef="0" IVar="-1" Cut="0.0000000000000000e+00" cType="1" res="-1.8506839114706963e-04" rms="4.4876474142074585e-01" purity="3.5885819792747498e-01" nType="-99"/>
        </Node>
        <Node pos="r" depth="1" NCoef="0" IVar="3" Cut="5.0159053802490234e+01" cType="1" res="8.7712384993210435e-04" rms="4.5203036069869995e-01" purity="5.3245311975479126e-01" nType="0">
          <Node pos="l" depth="2" NCoef="0" IVar="-1" Cut="0.0000000000000000e+00" cType="1" res="-6.1100936727598310e-04" rms="4.5629575848579407e-01" purity="4.4417533278465271e-01" nType="-99"/>
          <Node pos="r" depth="2" NCoef="0" IVar="-1" Cut="0.0000000000000000e+00" cType="1" res="2.6242071180604398e-04" rms="4.5049360394477844e-01" purity="5.5990964174270630e-01" nType="-99"/>
        </Node>
      </Node>
    </BinaryTree>
    <BinaryTree type="DecisionTree" boostWeight="1.0000000000000000e+00" itree="814">
      <Node pos="s" depth="0" NCoef="0" IVar="3" Cut="1.2816333007812500e+02" cType="1" res="-2.7747540734708309e-03" rms="4.5071271061897278e-01" purity="4.9644303321838379e-01" nType="0">
        <Node pos="l" depth="1" NCoef="0" IVar="3" Cut="5.7012763977050781e+01" cType="1" res="1.9398001022636890e-03" rms="4.5158681273460388e-01" purity="5.0570327043533325e-01" nType="0">
          <Node pos="l" depth="2" NCoef="0" IVar="-1" Cut="0.0000000000000000e+00" cType="1" res="-4.5541554572992027e-04" rms="4.5473304390907288e-01" purity="4.3847823143005371e-01" nType="-99"/>
          <Node pos="r" depth="2" NCoef="0" IVar="-1" Cut="0.0000000000000000e+00" cType="1" res="3.9915414527058601e-04" rms="4.4952097535133362e-01" purity="5.4362809658050537e-01" nType="-99"/>
        </Node>
        <Node pos="r" depth="1" NCoef="0" IVar="1" Cut="9.7290033102035522e-01" cType="1" res="-3.2897390425205231e-02" rms="4.4390678405761719e-01" purity="4.3727707862854004e-01" nType="0">
          <Node pos="l" depth="2" NCoef="0" IVar="-1" Cut="0.0000000000000000e+00" cType="1" res="3.0345469713211060e-04" rms="4.3929329514503479e-01" purity="5.7759153842926025e-01" nType="-99"/>
          <Node pos="r" depth="2" NCoef="0" IVar="-1" Cut="0.0000000000000000e+00" cType="1" res="-1.9071268616244197e-03" rms="4.4486445188522339e-01" purity="3.2762071490287781e-01" nType="-99"/>
        </Node>
      </Node>
    </BinaryTree>
    <BinaryTree type="DecisionTree" boostWeight="1.0000000000000000e+00" itree="815">
      <Node pos="s" depth="0" NCoef="0" IVar="9" Cut="7.9499810934066772e-01" cType="1" res="-3.1674043275415897e-03" rms="4.5093229413032532e-01" purity="4.9839711189270020e-01" nType="0">
        <Node pos="l" depth="1" NCoef="0" IVar="-1" Cut="0.0000000000000000e+00" cType="1" res="-1.2621873756870627e-03" rms="4.1473710536956787e-01" purity="2.5428122282028198e-01" nType="-99"/>
        <Node pos="r" depth="1" NCoef="0" IVar="3" Cut="1.4145062255859375e+02" cType="1" res="8.4509950829669833e-04" rms="4.5418006181716919e-01" purity="5.2268552780151367e-01" nType="0">
          <Node pos="l" depth="2" NCoef="0" IVar="-1" Cut="0.0000000000000000e+00" cType="1" res="1.2757646618410945e-04" rms="4.5382481813430786e-01" purity="5.3242921829223633e-01" nType="-99"/>
          <Node pos="r" depth="2" NCoef="0" IVar="-1" Cut="0.0000000000000000e+00" cType="1" res="-9.5882621826604009e-04" rms="4.5679679512977600e-01" purity="4.1693845391273499e-01" nType="-99"/>
        </Node>
      </Node>
    </BinaryTree>
    <BinaryTree type="DecisionTree" boostWeight="1.0000000000000000e+00" itree="816">
      <Node pos="s" depth="0" NCoef="0" IVar="7" Cut="7.3593133687973022e-01" cType="1" res="1.1351155117154121e-03" rms="4.5053040981292725e-01" purity="5.0389844179153442e-01" nType="0">
        <Node pos="l" depth="1" NCoef="0" IVar="0" Cut="7.3584592342376709e-01" cType="1" res="-8.3013232797384262e-03" rms="4.5340794324874878e-01" purity="4.4000646471977234e-01" nType="0">
          <Node pos="l" depth="2" NCoef="0" IVar="-1" Cut="0.0000000000000000e+00" cType="1" res="1.2971500400453806e-03" rms="4.6241497993469238e-01" purity="6.7053318023681641e-01" nType="-99"/>
          <Node pos="r" depth="2" NCoef="0" IVar="-1" Cut="0.0000000000000000e+00" cType="1" res="-4.3460290180519223e-04" rms="4.5170253515243530e-01" purity="4.0492916107177734e-01" nType="-99"/>
        </Node>
        <Node pos="r" depth="1" NCoef="0" IVar="0" Cut="7.3410302400588989e-01" cType="1" res="1.9137412309646606e-02" rms="4.4443380832672119e-01" purity="6.2578779458999634e-01" nType="0">
          <Node pos="l" depth="2" NCoef="0" IVar="-1" Cut="0.0000000000000000e+00" cType="1" res="-2.1662160288542509e-03" rms="4.4016453623771667e-01" purity="7.2279012203216553e-01" nType="-99"/>
          <Node pos="r" depth="2" NCoef="0" IVar="-1" Cut="0.0000000000000000e+00" cType="1" res="1.1610708897933364e-03" rms="4.4427865743637085e-01" purity="6.0631430149078369e-01" nType="-99"/>
        </Node>
      </Node>
    </BinaryTree>
    <BinaryTree type="DecisionTree" boostWeight="1.0000000000000000e+00" itree="817">
      <Node pos="s" depth="0" NCoef="0" IVar="7" Cut="5.1508837938308716e-01" cType="1" res="-2.3549483157694340e-03" rms="4.5219358801841736e-01" purity="5.0035846233367920e-01" nType="0">
        <Node pos="l" depth="1" NCoef="0" IVar="-1" Cut="0.0000000000000000e+00" cType="1" res="-1.3339510187506676e-03" rms="4.3622657656669617e-01" purity="3.1755766272544861e-01" nType="-99"/>
        <Node pos="r" depth="1" NCoef="0" IVar="5" Cut="1.7093402147293091e+00" cType="1" res="2.0801555365324020e-03" rms="4.5348465442657471e-01" purity="5.1826745271682739e-01" nType="0">
          <Node pos="l" depth="2" NCoef="0" IVar="-1" Cut="0.0000000000000000e+00" cType="1" res="2.1811634360346943e-04" rms="4.6231031417846680e-01" purity="5.5655866861343384e-01" nType="-99"/>
          <Node pos="r" depth="2" NCoef="0" IVar="-1" Cut="0.0000000000000000e+00" cType="1" res="-1.2289929436519742e-03" rms="3.5829141736030579e-01" purity="1.6084736585617065e-01" nType="-99"/>
        </Node>
      </Node>
    </BinaryTree>
    <BinaryTree type="DecisionTree" boostWeight="1.0000000000000000e+00" itree="818">
      <Node pos="s" depth="0" NCoef="0" IVar="5" Cut="1.1471773386001587e+00" cType="1" res="-5.2799284458160400e-03" rms="4.5340815186500549e-01" purity="4.9511688947677612e-01" nType="0">
        <Node pos="l" depth="1" NCoef="0" IVar="5" Cut="8.6834722757339478e-01" cType="1" res="-1.2165670283138752e-02" rms="4.6371513605117798e-01" purity="5.9514027833938599e-01" nType="0">
          <Node pos="l" depth="2" NCoef="0" IVar="-1" Cut="0.0000000000000000e+00" cType="1" res="-2.0604087694664486e-05" rms="4.5541840791702271e-01" purity="6.3995152711868286e-01" nType="-99"/>
          <Node pos="r" depth="2" NCoef="0" IVar="-1" Cut="0.0000000000000000e+00" cType="1" res="-9.6834800206124783e-04" rms="4.7616648674011230e-01" purity="5.2303743362426758e-01" nType="-99"/>
        </Node>
        <Node pos="r" depth="1" NCoef="0" IVar="2" Cut="8.6181181669235229e-01" cType="1" res="5.6713065132498741e-03" rms="4.3629086017608643e-01" purity="3.3603754639625549e-01" nType="0">
          <Node pos="l" depth="2" NCoef="0" IVar="-1" Cut="0.0000000000000000e+00" cType="1" res="-3.3107897615991533e-04" rms="4.2096492648124695e-01" purity="2.6134237647056580e-01" nType="-99"/>
          <Node pos="r" depth="2" NCoef="0" IVar="-1" Cut="0.0000000000000000e+00" cType="1" res="7.9229229595512152e-04" rms="4.5391532778739929e-01" purity="4.2974209785461426e-01" nType="-99"/>
        </Node>
      </Node>
    </BinaryTree>
    <BinaryTree type="DecisionTree" boostWeight="1.0000000000000000e+00" itree="819">
      <Node pos="s" depth="0" NCoef="0" IVar="0" Cut="1.6370266675949097e+00" cType="1" res="-4.8477095551788807e-03" rms="4.5082256197929382e-01" purity="4.9664518237113953e-01" nType="0">
        <Node pos="l" depth="1" NCoef="0" IVar="8" Cut="4.2772823572158813e-01" cType="1" res="-1.5393334906548262e-03" rms="4.5697298645973206e-01" purity="5.2442914247512817e-01" nType="0">
          <Node pos="l" depth="2" NCoef="0" IVar="-1" Cut="0.0000000000000000e+00" cType="1" res="-1.1505212169140577e-03" rms="4.4053757190704346e-01" purity="3.5053947567939758e-01" nType="-99"/>
          <Node pos="r" depth="2" NCoef="0" IVar="-1" Cut="0.0000000000000000e+00" cType="1" res="6.1765698774252087e-05" rms="4.5819491147994995e-01" purity="5.3931736946105957e-01" nType="-99"/>
        </Node>
        <Node pos="r" depth="1" NCoef="0" IVar="-1" Cut="0.0000000000000000e+00" cType="1" res="-1.1910296743735671e-03" rms="3.8118085265159607e-01" purity="2.1448251605033875e-01" nType="-99"/>
      </Node>
    </BinaryTree>
    <BinaryTree type="DecisionTree" boostWeight="1.0000000000000000e+00" itree="820">
      <Node pos="s" depth="0" NCoef="0" IVar="6" Cut="1.9343722611665726e-02" cType="1" res="1.8699401989579201e-03" rms="4.5474159717559814e-01" purity="5.0580394268035889e-01" nType="0">
        <Node pos="l" depth="1" NCoef="0" IVar="5" Cut="1.1335719823837280e+00" cType="1" res="-6.9922534748911858e-03" rms="4.5391717553138733e-01" purity="5.5291479825973511e-01" nType="0">
          <Node pos="l" depth="2" NCoef="0" IVar="-1" Cut="0.0000000000000000e+00" cType="1" res="-6.7754194606095552e-04" rms="4.5715677738189697e-01" purity="6.3814634084701538e-01" nType="-99"/>
          <Node pos="r" depth="2" NCoef="0" IVar="-1" Cut="0.0000000000000000e+00" cType="1" res="3.7798777339048684e-04" rms="4.4728797674179077e-01" purity="3.9768543839454651e-01" nType="-99"/>
        </Node>
        <Node pos="r" depth="1" NCoef="0" IVar="7" Cut="6.4040762186050415e-01" cType="1" res="1.2314173392951488e-02" rms="4.5548996329307556e-01" purity="4.5028308033943176e-01" nType="0">
          <Node pos="l" depth="2" NCoef="0" IVar="-1" Cut="0.0000000000000000e+00" cType="1" res="1.6819428128656000e-04" rms="4.5489108562469482e-01" purity="4.2854434251785278e-01" nType="-99"/>
          <Node pos="r" depth="2" NCoef="0" IVar="-1" Cut="0.0000000000000000e+00" cType="1" res="2.2356156259775162e-03" rms="4.5673966407775879e-01" purity="6.0551375150680542e-01" nType="-99"/>
        </Node>
      </Node>
    </BinaryTree>
    <BinaryTree type="DecisionTree" boostWeight="1.0000000000000000e+00" itree="821">
      <Node pos="s" depth="0" NCoef="0" IVar="9" Cut="9.8948717117309570e-01" cType="1" res="2.5494248257018626e-04" rms="4.5150008797645569e-01" purity="5.0279748439788818e-01" nType="0">
        <Node pos="l" depth="1" NCoef="0" IVar="8" Cut="4.5488783717155457e-01" cType="1" res="-5.7411636225879192e-03" rms="4.5425841212272644e-01" purity="4.6928137540817261e-01" nType="0">
          <Node pos="l" depth="2" NCoef="0" IVar="-1" Cut="0.0000000000000000e+00" cType="1" res="5.5967707885429263e-04" rms="4.4665497541427612e-01" purity="3.8952106237411499e-01" nType="-99"/>
          <Node pos="r" depth="2" NCoef="0" IVar="-1" Cut="0.0000000000000000e+00" cType="1" res="-3.2412499422207475e-04" rms="4.5551148056983948e-01" purity="4.8398390412330627e-01" nType="-99"/>
        </Node>
        <Node pos="r" depth="1" NCoef="0" IVar="1" Cut="4.7212314605712891e-01" cType="1" res="1.6318697482347488e-02" rms="4.4362679123878479e-01" purity="5.9258824586868286e-01" nType="0">
          <Node pos="l" depth="2" NCoef="0" IVar="-1" Cut="0.0000000000000000e+00" cType="1" res="-9.9047773983329535e-04" rms="4.5313039422035217e-01" purity="6.5830731391906738e-01" nType="-99"/>
          <Node pos="r" depth="2" NCoef="0" IVar="-1" Cut="0.0000000000000000e+00" cType="1" res="9.6592854242771864e-04" rms="4.4041064381599426e-01" purity="5.7495445013046265e-01" nType="-99"/>
        </Node>
      </Node>
    </BinaryTree>
    <BinaryTree type="DecisionTree" boostWeight="1.0000000000000000e+00" itree="822">
      <Node pos="s" depth="0" NCoef="0" IVar="3" Cut="4.2923881530761719e+01" cType="1" res="-6.7260772921144962e-03" rms="4.5238018035888672e-01" purity="4.9565178155899048e-01" nType="0">
        <Node pos="l" depth="1" NCoef="0" IVar="3" Cut="3.6173950195312500e+01" cType="1" res="-2.9510715976357460e-02" rms="4.4837477803230286e-01" purity="3.8568362593650818e-01" nType="0">
          <Node pos="l" depth="2" NCoef="0" IVar="-1" Cut="0.0000000000000000e+00" cType="1" res="-1.4386066468432546e-03" rms="4.3674117326736450e-01" purity="3.3633586764335632e-01" nType="-99"/>
          <Node pos="r" depth="2" NCoef="0" IVar="-1" Cut="0.0000000000000000e+00" cType="1" res="-1.8844805890694261e-04" rms="4.5949825644493103e-01" purity="4.3906304240226746e-01" nType="-99"/>
        </Node>
        <Node pos="r" depth="1" NCoef="0" IVar="3" Cut="1.5036576843261719e+02" cType="1" res="-2.7134211268275976e-03" rms="4.5296323299407959e-01" purity="5.1501852273941040e-01" nType="0">
          <Node pos="l" depth="2" NCoef="0" IVar="-1" Cut="0.0000000000000000e+00" cType="1" res="1.3640860743180383e-05" rms="4.5468559861183167e-01" purity="5.2968710660934448e-01" nType="-99"/>
          <Node pos="r" depth="2" NCoef="0" IVar="-1" Cut="0.0000000000000000e+00" cType="1" res="-1.1656712740659714e-03" rms="4.3116328120231628e-01" purity="3.4715065360069275e-01" nType="-99"/>
        </Node>
      </Node>
    </BinaryTree>
    <BinaryTree type="DecisionTree" boostWeight="1.0000000000000000e+00" itree="823">
      <Node pos="s" depth="0" NCoef="0" IVar="4" Cut="2.8639282226562500e+02" cType="1" res="-7.6135329436510801e-04" rms="4.5044142007827759e-01" purity="4.9755868315696716e-01" nType="0">
        <Node pos="l" depth="1" NCoef="0" IVar="8" Cut="6.6463148593902588e-01" cType="1" res="-5.6643062271177769e-03" rms="4.5198696851730347e-01" purity="5.1543003320693970e-01" nType="0">
          <Node pos="l" depth="2" NCoef="0" IVar="-1" Cut="0.0000000000000000e+00" cType="1" res="-3.0746532138437033e-04" rms="4.5450434088706970e-01" purity="4.9961438775062561e-01" nType="-99"/>
          <Node pos="r" depth="2" NCoef="0" IVar="-1" Cut="0.0000000000000000e+00" cType="1" res="1.7757413443177938e-03" rms="4.1809165477752686e-01" purity="7.0436584949493408e-01" nType="-99"/>
        </Node>
        <Node pos="r" depth="1" NCoef="0" IVar="8" Cut="5.3033769130706787e-01" cType="1" res="2.3378865793347359e-02" rms="4.4196069240570068e-01" purity="4.0956711769104004e-01" nType="0">
          <Node pos="l" depth="2" NCoef="0" IVar="-1" Cut="0.0000000000000000e+00" cType="1" res="1.8300035735592246e-03" rms="4.3014571070671082e-01" purity="3.6657860875129700e-01" nType="-99"/>
          <Node pos="r" depth="2" NCoef="0" IVar="-1" Cut="0.0000000000000000e+00" cType="1" res="6.1609318890987197e-07" rms="4.4946685433387756e-01" purity="4.4271227717399597e-01" nType="-99"/>
        </Node>
      </Node>
    </BinaryTree>
    <BinaryTree type="DecisionTree" boostWeight="1.0000000000000000e+00" itree="824">
      <Node pos="s" depth="0" NCoef="0" IVar="4" Cut="1.3367778015136719e+02" cType="1" res="-6.4014960080385208e-03" rms="4.5093041658401489e-01" purity="4.9662935733795166e-01" nType="0">
        <Node pos="l" depth="1" NCoef="0" IVar="0" Cut="1.1955072879791260e+00" cType="1" res="5.3858752362430096e-03" rms="4.4935950636863708e-01" purity="5.4359495639801025e-01" nType="0">
          <Node pos="l" depth="2" NCoef="0" IVar="-1" Cut="0.0000000000000000e+00" cType="1" res="7.4954662704840302e-04" rms="4.5063588023185730e-01" purity="6.3565570116043091e-01" nType="-99"/>
          <Node pos="r" depth="2" NCoef="0" IVar="-1" Cut="0.0000000000000000e+00" cType="1" res="-6.0395064065232873e-04" rms="4.4594693183898926e-01" purity="3.7989217042922974e-01" nType="-99"/>
        </Node>
        <Node pos="r" depth="1" NCoef="0" IVar="0" Cut="8.8552343845367432e-01" cType="1" res="-1.5958381816744804e-02" rms="4.5197445154190063e-01" purity="4.5855090022087097e-01" nType="0">
          <Node pos="l" depth="2" NCoef="0" IVar="-1" Cut="0.0000000000000000e+00" cType="1" res="-1.6562283271923661e-03" rms="4.6901860833168030e-01" purity="6.0257899761199951e-01" nType="-99"/>
          <Node pos="r" depth="2" NCoef="0" IVar="-1" Cut="0.0000000000000000e+00" cType="1" res="-1.8341139366384596e-04" rms="4.4573372602462769e-01" purity="4.1079607605934143e-01" nType="-99"/>
        </Node>
      </Node>
    </BinaryTree>
    <BinaryTree type="DecisionTree" boostWeight="1.0000000000000000e+00" itree="825">
      <Node pos="s" depth="0" NCoef="0" IVar="9" Cut="9.0714097023010254e-01" cType="1" res="-2.9662456363439560e-03" rms="4.5170179009437561e-01" purity="4.9633723497390747e-01" nType="0">
        <Node pos="l" depth="1" NCoef="0" IVar="9" Cut="7.7330237627029419e-01" cType="1" res="1.7667502164840698e-02" rms="4.4873586297035217e-01" purity="3.9028286933898926e-01" nType="0">
          <Node pos="l" depth="2" NCoef="0" IVar="-1" Cut="0.0000000000000000e+00" cType="1" res="-6.8274111254140735e-04" rms="4.2058098316192627e-01" purity="2.7775722742080688e-01" nType="-99"/>
          <Node pos="r" depth="2" NCoef="0" IVar="-1" Cut="0.0000000000000000e+00" cType="1" res="1.1009930167347193e-03" rms="4.5889666676521301e-01" purity="4.3725684285163879e-01" nType="-99"/>
        </Node>
        <Node pos="r" depth="1" NCoef="0" IVar="4" Cut="3.1324444580078125e+02" cType="1" res="-9.4641977921128273e-03" rms="4.5243701338768005e-01" purity="5.2973574399948120e-01" nType="0">
          <Node pos="l" depth="2" NCoef="0" IVar="-1" Cut="0.0000000000000000e+00" cType="1" res="-1.7476556240580976e-04" rms="4.5369812846183777e-01" purity="5.5210256576538086e-01" nType="-99"/>
          <Node pos="r" depth="2" NCoef="0" IVar="-1" Cut="0.0000000000000000e+00" cType="1" res="-1.1328740511089563e-03" rms="4.4306463003158569e-01" purity="3.8414946198463440e-01" nType="-99"/>
        </Node>
      </Node>
    </BinaryTree>
    <BinaryTree type="DecisionTree" boostWeight="1.0000000000000000e+00" itree="826">
      <Node pos="s" depth="0" NCoef="0" IVar="0" Cut="7.5507545471191406e-01" cType="1" res="-8.8956458494067192e-03" rms="4.5025399327278137e-01" purity="4.9351564049720764e-01" nType="0">
        <Node pos="l" depth="1" NCoef="0" IVar="7" Cut="6.7207044363021851e-01" cType="1" res="1.7873298376798630e-02" rms="4.3985140323638916e-01" purity="6.9800060987472534e-01" nType="0">
          <Node pos="l" depth="2" NCoef="0" IVar="-1" Cut="0.0000000000000000e+00" cType="1" res="1.8920953152701259e-03" rms="4.5375531911849976e-01" purity="6.5941303968429565e-01" nType="-99"/>
          <Node pos="r" depth="2" NCoef="0" IVar="-1" Cut="0.0000000000000000e+00" cType="1" res="-5.2659522043541074e-04" rms="4.2499509453773499e-01" purity="7.3255705833435059e-01" nType="-99"/>
        </Node>
        <Node pos="r" depth="1" NCoef="0" IVar="8" Cut="5.5611890554428101e-01" cType="1" res="-1.3925338163971901e-02" rms="4.5200499892234802e-01" purity="4.5509442687034607e-01" nType="0">
          <Node pos="l" depth="2" NCoef="0" IVar="-1" Cut="0.0000000000000000e+00" cType="1" res="-1.0749260400189087e-04" rms="4.4788166880607605e-01" purity="4.1346442699432373e-01" nType="-99"/>
          <Node pos="r" depth="2" NCoef="0" IVar="-1" Cut="0.0000000000000000e+00" cType="1" res="-8.1818754551932216e-04" rms="4.5632994174957275e-01" purity="5.0208663940429688e-01" nType="-99"/>
        </Node>
      </Node>
    </BinaryTree>
    <BinaryTree type="DecisionTree" boostWeight="1.0000000000000000e+00" itree="827">
      <Node pos="s" depth="0" NCoef="0" IVar="5" Cut="1.6984581947326660e+00" cType="1" res="1.9495618762448430e-03" rms="4.5081645250320435e-01" purity="5.0422662496566772e-01" nType="0">
        <Node pos="l" depth="1" NCoef="0" IVar="1" Cut="1.8959684371948242e+00" cType="1" res="4.6235760673880577e-03" rms="4.5884370803833008e-01" purity="5.3893667459487915e-01" nType="0">
          <Node pos="l" depth="2" NCoef="0" IVar="-1" Cut="0.0000000000000000e+00" cType="1" res="3.0971024534665048e-04" rms="4.6102774143218994e-01" purity="5.7031017541885376e-01" nType="-99"/>
          <Node pos="r" depth="2" NCoef="0" IVar="-1" Cut="0.0000000000000000e+00" cType="1" res="-6.3313351711258292e-04" rms="4.4458556175231934e-01" purity="3.5079184174537659e-01" nType="-99"/>
        </Node>
        <Node pos="r" depth="1" NCoef="0" IVar="-1" Cut="0.0000000000000000e+00" cType="1" res="-8.0175121547654271e-04" rms="3.6262738704681396e-01" purity="1.6677324473857880e-01" nType="-99"/>
      </Node>
    </BinaryTree>
    <BinaryTree type="DecisionTree" boostWeight="1.0000000000000000e+00" itree="828">
      <Node pos="s" depth="0" NCoef="0" IVar="0" Cut="6.8838411569595337e-01" cType="1" res="-4.4392775744199753e-03" rms="4.5295521616935730e-01" purity="4.9889624118804932e-01" nType="0">
        <Node pos="l" depth="1" NCoef="0" IVar="7" Cut="6.6180109977722168e-01" cType="1" res="2.3778526112437248e-02" rms="4.4127273559570312e-01" purity="7.1255004405975342e-01" nType="0">
          <Node pos="l" depth="2" NCoef="0" IVar="-1" Cut="0.0000000000000000e+00" cType="1" res="1.6897243913263083e-03" rms="4.6189600229263306e-01" purity="6.6626894474029541e-01" nType="-99"/>
          <Node pos="r" depth="2" NCoef="0" IVar="-1" Cut="0.0000000000000000e+00" cType="1" res="3.3829786116257310e-04" rms="4.2131146788597107e-01" purity="7.5375288724899292e-01" nType="-99"/>
        </Node>
        <Node pos="r" depth="1" NCoef="0" IVar="7" Cut="8.3056080341339111e-01" cType="1" res="-7.8132059425115585e-03" rms="4.5421463251113892e-01" purity="4.7335019707679749e-01" nType="0">
          <Node pos="l" depth="2" NCoef="0" IVar="-1" Cut="0.0000000000000000e+00" cType="1" res="-4.0900084422901273e-04" rms="4.5622947812080383e-01" purity="4.3821084499359131e-01" nType="-99"/>
          <Node pos="r" depth="2" NCoef="0" IVar="-1" Cut="0.0000000000000000e+00" cType="1" res="5.0168595043942332e-04" rms="4.4559139013290405e-01" purity="6.1103165149688721e-01" nType="-99"/>
        </Node>
      </Node>
    </BinaryTree>
    <BinaryTree type="DecisionTree" boostWeight="1.0000000000000000e+00" itree="829">
      <Node pos="s" depth="0" NCoef="0" IVar="7" Cut="8.8313585519790649e-01" cType="1" res="2.7593374252319336e-03" rms="4.4848561286926270e-01" purity="5.0187671184539795e-01" nType="0">
        <Node pos="l" depth="1" NCoef="0" IVar="1" Cut="1.4908745288848877e+00" cType="1" res="-2.6601497083902359e-03" rms="4.5134952664375305e-01" purity="4.7637361288070679e-01" nType="0">
          <Node pos="l" depth="2" NCoef="0" IVar="-1" Cut="0.0000000000000000e+00" cType="1" res="1.3662739365827292e-04" rms="4.5839914679527283e-01" purity="5.4033207893371582e-01" nType="-99"/>
          <Node pos="r" depth="2" NCoef="0" IVar="-1" Cut="0.0000000000000000e+00" cType="1" res="-5.6506571127101779e-04" rms="4.3351951241493225e-01" purity="3.2276153564453125e-01" nType="-99"/>
        </Node>
        <Node pos="r" depth="1" NCoef="0" IVar="3" Cut="6.4575904846191406e+01" cType="1" res="3.7811044603586197e-02" rms="4.2784717679023743e-01" purity="6.6682386398315430e-01" nType="0">
          <Node pos="l" depth="2" NCoef="0" IVar="-1" Cut="0.0000000000000000e+00" cType="1" res="1.2236308248247951e-04" rms="4.5418810844421387e-01" purity="5.7607823610305786e-01" nType="-99"/>
          <Node pos="r" depth="2" NCoef="0" IVar="-1" Cut="0.0000000000000000e+00" cType="1" res="3.1031223479658365e-03" rms="4.0363302826881409e-01" purity="7.3889803886413574e-01" nType="-99"/>
        </Node>
      </Node>
    </BinaryTree>
    <BinaryTree type="DecisionTree" boostWeight="1.0000000000000000e+00" itree="830">
      <Node pos="s" depth="0" NCoef="0" IVar="7" Cut="9.4621896743774414e-01" cType="1" res="-2.5863887276500463e-03" rms="4.5016750693321228e-01" purity="4.9907919764518738e-01" nType="0">
        <Node pos="l" depth="1" NCoef="0" IVar="0" Cut="1.4952346086502075e+00" cType="1" res="-5.3210500627756119e-03" rms="4.5158186554908752e-01" purity="4.8860707879066467e-01" nType="0">
          <Node pos="l" depth="2" NCoef="0" IVar="-1" Cut="0.0000000000000000e+00" cType="1" res="8.7956423158175312e-06" rms="4.5954710245132446e-01" purity="5.3678351640701294e-01" nType="-99"/>
          <Node pos="r" depth="2" NCoef="0" IVar="-1" Cut="0.0000000000000000e+00" cType="1" res="-9.5426000189036131e-04" rms="4.1044214367866516e-01" purity="2.5888681411743164e-01" nType="-99"/>
        </Node>
        <Node pos="r" depth="1" NCoef="0" IVar="-1" Cut="0.0000000000000000e+00" cType="1" res="1.9977551419287920e-03" rms="4.2053341865539551e-01" purity="6.8951749801635742e-01" nType="-99"/>
      </Node>
    </BinaryTree>
    <BinaryTree type="DecisionTree" boostWeight="1.0000000000000000e+00" itree="831">
      <Node pos="s" depth="0" NCoef="0" IVar="5" Cut="1.3998804092407227e+00" cType="1" res="4.2243031784892082e-03" rms="4.4811627268791199e-01" purity="5.0300586223602295e-01" nType="0">
        <Node pos="l" depth="1" NCoef="0" IVar="4" Cut="1.1031503295898438e+02" cType="1" res="1.0737774893641472e-02" rms="4.5939791202545166e-01" purity="5.8120632171630859e-01" nType="0">
          <Node pos="l" depth="2" NCoef="0" IVar="-1" Cut="0.0000000000000000e+00" cType="1" res="-2.8104326338507235e-04" rms="4.7158163785934448e-01" purity="5.3811275959014893e-01" nType="-99"/>
          <Node pos="r" depth="2" NCoef="0" IVar="-1" Cut="0.0000000000000000e+00" cType="1" res="6.9710408570244908e-04" rms="4.5343104004859924e-01" purity="6.0094225406646729e-01" nType="-99"/>
        </Node>
        <Node pos="r" depth="1" NCoef="0" IVar="4" Cut="1.3133062744140625e+02" cType="1" res="-1.7637960612773895e-02" rms="4.0721431374549866e-01" purity="2.4052868783473969e-01" nType="0">
          <Node pos="l" depth="2" NCoef="0" IVar="-1" Cut="0.0000000000000000e+00" cType="1" res="1.6867065278347582e-04" rms="4.1619208455085754e-01" purity="2.7633765339851379e-01" nType="-99"/>
          <Node pos="r" depth="2" NCoef="0" IVar="-1" Cut="0.0000000000000000e+00" cType="1" res="-8.1980891991406679e-04" rms="4.0267258882522583e-01" purity="2.2440098226070404e-01" nType="-99"/>
        </Node>
      </Node>
    </BinaryTree>
    <BinaryTree type="DecisionTree" boostWeight="1.0000000000000000e+00" itree="832">
      <Node pos="s" depth="0" NCoef="0" IVar="3" Cut="1.3240046691894531e+02" cType="1" res="-3.1933030113577843e-03" rms="4.5192810893058777e-01" purity="4.9440640211105347e-01" nType="0">
        <Node pos="l" depth="1" NCoef="0" IVar="1" Cut="2.6887032389640808e-01" cType="1" res="2.4311072193086147e-03" rms="4.5308437943458557e-01" purity="5.0654155015945435e-01" nType="0">
          <Node pos="l" depth="2" NCoef="0" IVar="-1" Cut="0.0000000000000000e+00" cType="1" res="1.5218987828120589e-03" rms="4.4425189495086670e-01" purity="6.7563664913177490e-01" nType="-99"/>
          <Node pos="r" depth="2" NCoef="0" IVar="-1" Cut="0.0000000000000000e+00" cType="1" res="-2.8239042876521125e-05" rms="4.5377874374389648e-01" purity="4.9044090509414673e-01" nType="-99"/>
        </Node>
        <Node pos="r" depth="1" NCoef="0" IVar="0" Cut="1.1379548311233521e+00" cType="1" res="-4.4741053134202957e-02" rms="4.4107708334922791e-01" purity="4.0476340055465698e-01" nType="0">
          <Node pos="l" depth="2" NCoef="0" IVar="-1" Cut="0.0000000000000000e+00" cType="1" res="-2.9754803981631994e-03" rms="4.7146764397621155e-01" purity="5.1666665077209473e-01" nType="-99"/>
          <Node pos="r" depth="2" NCoef="0" IVar="-1" Cut="0.0000000000000000e+00" cType="1" res="-3.1575412140227854e-04" rms="4.1379347443580627e-01" purity="3.2193723320960999e-01" nType="-99"/>
        </Node>
      </Node>
    </BinaryTree>
    <BinaryTree type="DecisionTree" boostWeight="1.0000000000000000e+00" itree="833">
      <Node pos="s" depth="0" NCoef="0" IVar="0" Cut="1.3528492450714111e+00" cType="1" res="2.1187101083341986e-04" rms="4.4937336444854736e-01" purity="4.9807882308959961e-01" nType="0">
        <Node pos="l" depth="1" NCoef="0" IVar="2" Cut="8.1313097476959229e-01" cType="1" res="8.1291608512401581e-03" rms="4.5933312177658081e-01" purity="5.7174605131149292e-01" nType="0">
          <Node pos="l" depth="2" NCoef="0" IVar="-1" Cut="0.0000000000000000e+00" cType="1" res="8.8671653065830469e-04" rms="4.7060063481330872e-01" purity="4.4532451033592224e-01" nType="-99"/>
          <Node pos="r" depth="2" NCoef="0" IVar="-1" Cut="0.0000000000000000e+00" cType="1" res="3.0239864372560987e-06" rms="4.5484322309494019e-01" purity="6.1836975812911987e-01" nType="-99"/>
        </Node>
        <Node pos="r" depth="1" NCoef="0" IVar="3" Cut="9.3739257812500000e+01" cType="1" res="-2.0797476172447205e-02" rms="4.2108464241027832e-01" purity="3.0259534716606140e-01" nType="0">
          <Node pos="l" depth="2" NCoef="0" IVar="-1" Cut="0.0000000000000000e+00" cType="1" res="-9.6997380023822188e-04" rms="4.0949994325637817e-01" purity="2.6324993371963501e-01" nType="-99"/>
          <Node pos="r" depth="2" NCoef="0" IVar="-1" Cut="0.0000000000000000e+00" cType="1" res="-2.5256293156417087e-05" rms="4.3864730000495911e-01" purity="3.6696431040763855e-01" nType="-99"/>
        </Node>
      </Node>
    </BinaryTree>
    <BinaryTree type="DecisionTree" boostWeight="1.0000000000000000e+00" itree="834">
      <Node pos="s" depth="0" NCoef="0" IVar="5" Cut="1.7096356153488159e+00" cType="1" res="1.2817915994673967e-03" rms="4.5150330662727356e-01" purity="5.0286448001861572e-01" nType="0">
        <Node pos="l" depth="1" NCoef="0" IVar="5" Cut="9.7558259963989258e-01" cType="1" res="5.1042251288890839e-03" rms="4.6020698547363281e-01" purity="5.3866058588027954e-01" nType="0">
          <Node pos="l" depth="2" NCoef="0" IVar="-1" Cut="0.0000000000000000e+00" cType="1" res="-2.2426250507123768e-04" rms="4.6123775839805603e-01" purity="6.2347346544265747e-01" nType="-99"/>
          <Node pos="r" depth="2" NCoef="0" IVar="-1" Cut="0.0000000000000000e+00" cType="1" res="5.3944141836836934e-04" rms="4.5867675542831421e-01" purity="4.4093400239944458e-01" nType="-99"/>
        </Node>
        <Node pos="r" depth="1" NCoef="0" IVar="-1" Cut="0.0000000000000000e+00" cType="1" res="-1.1767838150262833e-03" rms="3.5402789711952209e-01" purity="1.5550704300403595e-01" nType="-99"/>
      </Node>
    </BinaryTree>
    <BinaryTree type="DecisionTree" boostWeight="1.0000000000000000e+00" itree="835">
      <Node pos="s" depth="0" NCoef="0" IVar="6" Cut="3.8727227598428726e-02" cType="1" res="4.4473875313997269e-03" rms="4.5237216353416443e-01" purity="5.0726294517517090e-01" nType="0">
        <Node pos="l" depth="1" NCoef="0" IVar="3" Cut="1.0062521362304688e+02" cType="1" res="8.4499651566147804e-03" rms="4.5202144980430603e-01" purity="5.1947677135467529e-01" nType="0">
          <Node pos="l" depth="2" NCoef="0" IVar="-1" Cut="0.0000000000000000e+00" cType="1" res="1.5739158698124811e-05" rms="4.5583730936050415e-01" purity="4.9495160579681396e-01" nType="-99"/>
          <Node pos="r" depth="2" NCoef="0" IVar="-1" Cut="0.0000000000000000e+00" cType="1" res="1.0423382045701146e-03" rms="4.4200775027275085e-01" purity="5.7910960912704468e-01" nType="-99"/>
        </Node>
        <Node pos="r" depth="1" NCoef="0" IVar="-1" Cut="0.0000000000000000e+00" cType="1" res="-1.1893438640981913e-03" rms="4.5386183261871338e-01" purity="3.6781457066535950e-01" nType="-99"/>
      </Node>
    </BinaryTree>
    <BinaryTree type="DecisionTree" boostWeight="1.0000000000000000e+00" itree="836">
      <Node pos="s" depth="0" NCoef="0" IVar="1" Cut="2.5267145633697510e+00" cType="1" res="-8.4994308417662978e-04" rms="4.4801250100135803e-01" purity="4.9928149580955505e-01" nType="0">
        <Node pos="l" depth="1" NCoef="0" IVar="1" Cut="2.6538184285163879e-01" cType="1" res="3.4862547181546688e-03" rms="4.5356851816177368e-01" purity="5.2546089887619019e-01" nType="0">
          <Node pos="l" depth="2" NCoef="0" IVar="-1" Cut="0.0000000000000000e+00" cType="1" res="1.8535336712375283e-03" rms="4.2833212018013000e-01" purity="6.8148696422576904e-01" nType="-99"/>
          <Node pos="r" depth="2" NCoef="0" IVar="-1" Cut="0.0000000000000000e+00" cType="1" res="-1.3335250514501240e-05" rms="4.5569124817848206e-01" purity="5.1070052385330200e-01" nType="-99"/>
        </Node>
        <Node pos="r" depth="1" NCoef="0" IVar="-1" Cut="0.0000000000000000e+00" cType="1" res="-1.4602189185097814e-03" rms="3.7913697957992554e-01" purity="2.1425758302211761e-01" nType="-99"/>
      </Node>
    </BinaryTree>
    <BinaryTree type="DecisionTree" boostWeight="1.0000000000000000e+00" itree="837">
      <Node pos="s" depth="0" NCoef="0" IVar="6" Cut="1.9343685358762741e-02" cType="1" res="-2.3893706966191530e-03" rms="4.5169913768768311e-01" purity="4.9957120418548584e-01" nType="0">
        <Node pos="l" depth="1" NCoef="0" IVar="1" Cut="5.2696734666824341e-01" cType="1" res="-1.0752247646450996e-02" rms="4.5204260945320129e-01" purity="5.4779124259948730e-01" nType="0">
          <Node pos="l" depth="2" NCoef="0" IVar="-1" Cut="0.0000000000000000e+00" cType="1" res="-1.2766229920089245e-03" rms="4.5597633719444275e-01" purity="6.3046342134475708e-01" nType="-99"/>
          <Node pos="r" depth="2" NCoef="0" IVar="-1" Cut="0.0000000000000000e+00" cType="1" res="-1.2019558198517188e-04" rms="4.5051810145378113e-01" purity="5.2077728509902954e-01" nType="-99"/>
        </Node>
        <Node pos="r" depth="1" NCoef="0" IVar="7" Cut="6.2932723760604858e-01" cType="1" res="7.2678765282034874e-03" rms="4.5110931992530823e-01" purity="4.4388785958290100e-01" nType="0">
          <Node pos="l" depth="2" NCoef="0" IVar="-1" Cut="0.0000000000000000e+00" cType="1" res="-7.2124321377486922e-06" rms="4.5042666792869568e-01" purity="4.1846337914466858e-01" nType="-99"/>
          <Node pos="r" depth="2" NCoef="0" IVar="-1" Cut="0.0000000000000000e+00" cType="1" res="1.7328665126115084e-03" rms="4.5263013243675232e-01" purity="5.8272588253021240e-01" nType="-99"/>
        </Node>
      </Node>
    </BinaryTree>
    <BinaryTree type="DecisionTree" boostWeight="1.0000000000000000e+00" itree="838">
      <Node pos="s" depth="0" NCoef="0" IVar="8" Cut="6.0976994037628174e-01" cType="1" res="8.2517851842567325e-04" rms="4.5433205366134644e-01" purity="5.0498372316360474e-01" nType="0">
        <Node pos="l" depth="1" NCoef="0" IVar="4" Cut="2.7711215209960938e+02" cType="1" res="7.4231149628758430e-03" rms="4.5585066080093384e-01" purity="4.7467768192291260e-01" nType="0">
          <Node pos="l" depth="2" NCoef="0" IVar="-1" Cut="0.0000000000000000e+00" cType="1" res="4.5628871885128319e-04" rms="4.5986643433570862e-01" purity="5.0678783655166626e-01" nType="-99"/>
          <Node pos="r" depth="2" NCoef="0" IVar="-1" Cut="0.0000000000000000e+00" cType="1" res="-5.6759756989777088e-04" rms="4.3840506672859192e-01" purity="3.4597188234329224e-01" nType="-99"/>
        </Node>
        <Node pos="r" depth="1" NCoef="0" IVar="7" Cut="6.9413286447525024e-01" cType="1" res="-1.8843077123165131e-02" rms="4.4920000433921814e-01" purity="5.9532511234283447e-01" nType="0">
          <Node pos="l" depth="2" NCoef="0" IVar="-1" Cut="0.0000000000000000e+00" cType="1" res="3.5621621645987034e-04" rms="4.5879068970680237e-01" purity="5.6863051652908325e-01" nType="-99"/>
          <Node pos="r" depth="2" NCoef="0" IVar="-1" Cut="0.0000000000000000e+00" cType="1" res="-9.8918261937797070e-04" rms="4.4637408852577209e-01" purity="6.0224854946136475e-01" nType="-99"/>
        </Node>
      </Node>
    </BinaryTree>
    <BinaryTree type="DecisionTree" boostWeight="1.0000000000000000e+00" itree="839">
      <Node pos="s" depth="0" NCoef="0" IVar="1" Cut="7.6813536882400513e-01" cType="1" res="-6.3612437807023525e-03" rms="4.5238143205642700e-01" purity="4.9418792128562927e-01" nType="0">
        <Node pos="l" depth="1" NCoef="0" IVar="6" Cut="1.7137076705694199e-02" cType="1" res="7.7833491377532482e-03" rms="4.5234724879264832e-01" purity="6.0372245311737061e-01" nType="0">
          <Node pos="l" depth="2" NCoef="0" IVar="-1" Cut="0.0000000000000000e+00" cType="1" res="-3.0344369588419795e-04" rms="4.4423508644104004e-01" purity="6.4820277690887451e-01" nType="-99"/>
          <Node pos="r" depth="2" NCoef="0" IVar="-1" Cut="0.0000000000000000e+00" cType="1" res="8.0300081754103303e-04" rms="4.6015834808349609e-01" purity="5.5703145265579224e-01" nType="-99"/>
        </Node>
        <Node pos="r" depth="1" NCoef="0" IVar="5" Cut="1.1745952367782593e+00" cType="1" res="-1.4851618558168411e-02" rms="4.5218950510025024e-01" purity="4.2843917012214661e-01" nType="0">
          <Node pos="l" depth="2" NCoef="0" IVar="-1" Cut="0.0000000000000000e+00" cType="1" res="-8.6764845764264464e-04" rms="4.7198215126991272e-01" purity="5.3466546535491943e-01" nType="-99"/>
          <Node pos="r" depth="2" NCoef="0" IVar="-1" Cut="0.0000000000000000e+00" cType="1" res="9.7752399597084150e-06" rms="4.2646476626396179e-01" purity="2.9961588978767395e-01" nType="-99"/>
        </Node>
      </Node>
    </BinaryTree>
    <BinaryTree type="DecisionTree" boostWeight="1.0000000000000000e+00" itree="840">
      <Node pos="s" depth="0" NCoef="0" IVar="3" Cut="1.2816333007812500e+02" cType="1" res="-6.6426373086869717e-04" rms="4.5025554299354553e-01" purity="4.9960669875144958e-01" nType="0">
        <Node pos="l" depth="1" NCoef="0" IVar="3" Cut="3.6367050170898438e+01" cType="1" res="4.1319658048450947e-03" rms="4.5138624310493469e-01" purity="5.0995415449142456e-01" nType="0">
          <Node pos="l" depth="2" NCoef="0" IVar="-1" Cut="0.0000000000000000e+00" cType="1" res="-1.1033250484615564e-03" rms="4.3902942538261414e-01" purity="3.4710508584976196e-01" nType="-99"/>
          <Node pos="r" depth="2" NCoef="0" IVar="-1" Cut="0.0000000000000000e+00" cType="1" res="2.8841441962867975e-04" rms="4.5242631435394287e-01" purity="5.2688437700271606e-01" nType="-99"/>
        </Node>
        <Node pos="r" depth="1" NCoef="0" IVar="0" Cut="1.1100659370422363e+00" cType="1" res="-3.0653085559606552e-02" rms="4.4194155931472778e-01" purity="4.3490818142890930e-01" nType="0">
          <Node pos="l" depth="2" NCoef="0" IVar="-1" Cut="0.0000000000000000e+00" cType="1" res="-1.6651905607432127e-03" rms="4.6467414498329163e-01" purity="5.8330923318862915e-01" nType="-99"/>
          <Node pos="r" depth="2" NCoef="0" IVar="-1" Cut="0.0000000000000000e+00" cType="1" res="-6.4946751808747649e-04" rms="4.2693772912025452e-01" purity="3.4261775016784668e-01" nType="-99"/>
        </Node>
      </Node>
    </BinaryTree>
    <BinaryTree type="DecisionTree" boostWeight="1.0000000000000000e+00" itree="841">
      <Node pos="s" depth="0" NCoef="0" IVar="3" Cut="3.6848266601562500e+01" cType="1" res="-4.4731553643941879e-03" rms="4.5538294315338135e-01" purity="4.9981939792633057e-01" nType="0">
        <Node pos="l" depth="1" NCoef="0" IVar="-1" Cut="0.0000000000000000e+00" cType="1" res="-1.1856548953801394e-03" rms="4.5218721032142639e-01" purity="3.6196503043174744e-01" nType="-99"/>
        <Node pos="r" depth="1" NCoef="0" IVar="4" Cut="1.1473224639892578e+02" cType="1" res="-9.3325151829048991e-04" rms="4.5551878213882446e-01" purity="5.1268064975738525e-01" nType="0">
          <Node pos="l" depth="2" NCoef="0" IVar="-1" Cut="0.0000000000000000e+00" cType="1" res="-6.3035968923941255e-04" rms="4.5817503333091736e-01" purity="5.0096839666366577e-01" nType="-99"/>
          <Node pos="r" depth="2" NCoef="0" IVar="-1" Cut="0.0000000000000000e+00" cType="1" res="2.5327238836325705e-04" rms="4.5405238866806030e-01" purity="5.1802611351013184e-01" nType="-99"/>
        </Node>
      </Node>
    </BinaryTree>
    <BinaryTree type="DecisionTree" boostWeight="1.0000000000000000e+00" itree="842">
      <Node pos="s" depth="0" NCoef="0" IVar="4" Cut="1.0493979644775391e+02" cType="1" res="-4.8852288164198399e-03" rms="4.5186641812324524e-01" purity="4.9771398305892944e-01" nType="0">
        <Node pos="l" depth="1" NCoef="0" IVar="5" Cut="1.1640092134475708e+00" cType="1" res="-2.9175698757171631e-02" rms="4.6033880114555359e-01" purity="4.5324271917343140e-01" nType="0">
          <Node pos="l" depth="2" NCoef="0" IVar="-1" Cut="0.0000000000000000e+00" cType="1" res="-1.3281399151310325e-03" rms="4.7481086850166321e-01" purity="5.1110345125198364e-01" nType="-99"/>
          <Node pos="r" depth="2" NCoef="0" IVar="-1" Cut="0.0000000000000000e+00" cType="1" res="3.0110712395980954e-04" rms="4.1743203997612000e-01" purity="3.0105066299438477e-01" nType="-99"/>
        </Node>
        <Node pos="r" depth="1" NCoef="0" IVar="3" Cut="1.3448001098632812e+02" cType="1" res="3.7064233329147100e-03" rms="4.4851657748222351e-01" purity="5.1344364881515503e-01" nType="0">
          <Node pos="l" depth="2" NCoef="0" IVar="-1" Cut="0.0000000000000000e+00" cType="1" res="3.2986662699840963e-04" rms="4.5029246807098389e-01" purity="5.3096669912338257e-01" nType="-99"/>
          <Node pos="r" depth="2" NCoef="0" IVar="-1" Cut="0.0000000000000000e+00" cType="1" res="-9.8495616111904383e-04" rms="4.3638116121292114e-01" purity="4.1144940257072449e-01" nType="-99"/>
        </Node>
      </Node>
    </BinaryTree>
    <BinaryTree type="DecisionTree" boostWeight="1.0000000000000000e+00" itree="843">
      <Node pos="s" depth="0" NCoef="0" IVar="5" Cut="4.3441030383110046e-01" cType="1" res="-1.3642403064295650e-03" rms="4.5377260446548462e-01" purity="5.0393795967102051e-01" nType="0">
        <Node pos="l" depth="1" NCoef="0" IVar="-1" Cut="0.0000000000000000e+00" cType="1" res="-1.4818231575191021e-03" rms="4.6604430675506592e-01" purity="6.1700832843780518e-01" nType="-99"/>
        <Node pos="r" depth="1" NCoef="0" IVar="5" Cut="5.8686584234237671e-01" cType="1" res="1.3811361277475953e-03" rms="4.5275080204010010e-01" purity="4.9578142166137695e-01" nType="0">
          <Node pos="l" depth="2" NCoef="0" IVar="-1" Cut="0.0000000000000000e+00" cType="1" res="1.4779348857700825e-03" rms="4.4021156430244446e-01" purity="6.9456285238265991e-01" nType="-99"/>
          <Node pos="r" depth="2" NCoef="0" IVar="-1" Cut="0.0000000000000000e+00" cType="1" res="-6.1662038206122816e-05" rms="4.5383119583129883e-01" purity="4.7623971104621887e-01" nType="-99"/>
        </Node>
      </Node>
    </BinaryTree>
    <BinaryTree type="DecisionTree" boostWeight="1.0000000000000000e+00" itree="844">
      <Node pos="s" depth="0" NCoef="0" IVar="7" Cut="7.7790677547454834e-01" cType="1" res="-1.7792945727705956e-03" rms="4.5082733035087585e-01" purity="4.9715161323547363e-01" nType="0">
        <Node pos="l" depth="1" NCoef="0" IVar="7" Cut="6.7137533426284790e-01" cType="1" res="-8.8348546996712685e-03" rms="4.5521977543830872e-01" purity="4.4707387685775757e-01" nType="0">
          <Node pos="l" depth="2" NCoef="0" IVar="-1" Cut="0.0000000000000000e+00" cType="1" res="-2.4899030904634856e-05" rms="4.4913160800933838e-01" purity="4.2071589827537537e-01" nType="-99"/>
          <Node pos="r" depth="2" NCoef="0" IVar="-1" Cut="0.0000000000000000e+00" cType="1" res="-9.8327279556542635e-04" rms="4.7052118182182312e-01" purity="5.1794362068176270e-01" nType="-99"/>
        </Node>
        <Node pos="r" depth="1" NCoef="0" IVar="6" Cut="5.3579155355691910e-03" cType="1" res="1.6243750229477882e-02" rms="4.3889322876930237e-01" purity="6.2507253885269165e-01" nType="0">
          <Node pos="l" depth="2" NCoef="0" IVar="-1" Cut="0.0000000000000000e+00" cType="1" res="3.4956898161908612e-05" rms="4.4332125782966614e-01" purity="6.1688303947448730e-01" nType="-99"/>
          <Node pos="r" depth="2" NCoef="0" IVar="-1" Cut="0.0000000000000000e+00" cType="1" res="2.5155856274068356e-03" rms="4.2144483327865601e-01" purity="6.5033924579620361e-01" nType="-99"/>
        </Node>
      </Node>
    </BinaryTree>
    <BinaryTree type="DecisionTree" boostWeight="1.0000000000000000e+00" itree="845">
      <Node pos="s" depth="0" NCoef="0" IVar="0" Cut="1.6401073932647705e+00" cType="1" res="3.5311600659042597e-03" rms="4.5058554410934448e-01" purity="5.0344413518905640e-01" nType="0">
        <Node pos="l" depth="1" NCoef="0" IVar="1" Cut="5.9900176525115967e-01" cType="1" res="7.3134931735694408e-03" rms="4.5647090673446655e-01" purity="5.3269988298416138e-01" nType="0">
          <Node pos="l" depth="2" NCoef="0" IVar="-1" Cut="0.0000000000000000e+00" cType="1" res="8.4507901920005679e-04" rms="4.4678524136543274e-01" purity="6.3542813062667847e-01" nType="-99"/>
          <Node pos="r" depth="2" NCoef="0" IVar="-1" Cut="0.0000000000000000e+00" cType="1" res="3.8323145417962223e-05" rms="4.6024769544601440e-01" purity="4.9054190516471863e-01" nType="-99"/>
        </Node>
        <Node pos="r" depth="1" NCoef="0" IVar="-1" Cut="0.0000000000000000e+00" cType="1" res="-1.0319421999156475e-03" rms="3.8689970970153809e-01" purity="2.1930442750453949e-01" nType="-99"/>
      </Node>
    </BinaryTree>
    <BinaryTree type="DecisionTree" boostWeight="1.0000000000000000e+00" itree="846">
      <Node pos="s" depth="0" NCoef="0" IVar="2" Cut="9.6051293611526489e-01" cType="1" res="-1.9125638063997030e-03" rms="4.5048046112060547e-01" purity="4.9933531880378723e-01" nType="0">
        <Node pos="l" depth="1" NCoef="0" IVar="6" Cut="5.2174511365592480e-03" cType="1" res="-6.2707741744816303e-03" rms="4.5344373583793640e-01" purity="4.8110386729240417e-01" nType="0">
          <Node pos="l" depth="2" NCoef="0" IVar="-1" Cut="0.0000000000000000e+00" cType="1" res="-1.2174965813755989e-03" rms="4.5548930764198303e-01" purity="5.4441523551940918e-01" nType="-99"/>
          <Node pos="r" depth="2" NCoef="0" IVar="-1" Cut="0.0000000000000000e+00" cType="1" res="-4.6631615987280384e-05" rms="4.5292508602142334e-01" purity="4.7069212794303894e-01" nType="-99"/>
        </Node>
        <Node pos="r" depth="1" NCoef="0" IVar="-1" Cut="0.0000000000000000e+00" cType="1" res="1.8162260530516505e-03" rms="4.1709846258163452e-01" purity="6.8216049671173096e-01" nType="-99"/>
      </Node>
    </BinaryTree>
    <BinaryTree type="DecisionTree" boostWeight="1.0000000000000000e+00" itree="847">
      <Node pos="s" depth="0" NCoef="0" IVar="7" Cut="6.3083428144454956e-01" cType="1" res="-2.8571258299052715e-03" rms="4.5092815160751343e-01" purity="4.9687168002128601e-01" nType="0">
        <Node pos="l" depth="1" NCoef="0" IVar="0" Cut="1.0413557291030884e+00" cType="1" res="-1.9556082785129547e-02" rms="4.4947135448455811e-01" purity="3.8969340920448303e-01" nType="0">
          <Node pos="l" depth="2" NCoef="0" IVar="-1" Cut="0.0000000000000000e+00" cType="1" res="-7.9513856690027751e-06" rms="4.7755524516105652e-01" purity="5.3440147638320923e-01" nType="-99"/>
          <Node pos="r" depth="2" NCoef="0" IVar="-1" Cut="0.0000000000000000e+00" cType="1" res="-9.3303370522335172e-04" rms="4.2966157197952271e-01" purity="2.9512923955917358e-01" nType="-99"/>
        </Node>
        <Node pos="r" depth="1" NCoef="0" IVar="0" Cut="1.0803271532058716e+00" cType="1" res="1.0370956733822823e-02" rms="4.5164078474044800e-01" purity="5.8177298307418823e-01" nType="0">
          <Node pos="l" depth="2" NCoef="0" IVar="-1" Cut="0.0000000000000000e+00" cType="1" res="-1.1999722482869402e-04" rms="4.4687551259994507e-01" purity="6.7680525779724121e-01" nType="-99"/>
          <Node pos="r" depth="2" NCoef="0" IVar="-1" Cut="0.0000000000000000e+00" cType="1" res="7.5820769416168332e-04" rms="4.5603889226913452e-01" purity="4.8517405986785889e-01" nType="-99"/>
        </Node>
      </Node>
    </BinaryTree>
    <BinaryTree type="DecisionTree" boostWeight="1.0000000000000000e+00" itree="848">
      <Node pos="s" depth="0" NCoef="0" IVar="7" Cut="6.4130264520645142e-01" cType="1" res="-4.7073960304260254e-03" rms="4.5124447345733643e-01" purity="4.9517288804054260e-01" nType="0">
        <Node pos="l" depth="1" NCoef="0" IVar="0" Cut="7.2255271673202515e-01" cType="1" res="-1.5761397778987885e-02" rms="4.5102319121360779e-01" purity="4.0131148695945740e-01" nType="0">
          <Node pos="l" depth="2" NCoef="0" IVar="-1" Cut="0.0000000000000000e+00" cType="1" res="6.8633403861895204e-04" rms="4.6389877796173096e-01" purity="6.2575131654739380e-01" nType="-99"/>
          <Node pos="r" depth="2" NCoef="0" IVar="-1" Cut="0.0000000000000000e+00" cType="1" res="-5.9338891878724098e-04" rms="4.4909989833831787e-01" purity="3.7183347344398499e-01" nType="-99"/>
        </Node>
        <Node pos="r" depth="1" NCoef="0" IVar="6" Cut="1.5423707664012909e-02" cType="1" res="4.9417116679251194e-03" rms="4.5121622085571289e-01" purity="5.7710510492324829e-01" nType="0">
          <Node pos="l" depth="2" NCoef="0" IVar="-1" Cut="0.0000000000000000e+00" cType="1" res="-1.3915316958446056e-04" rms="4.5074787735939026e-01" purity="5.7875537872314453e-01" nType="-99"/>
          <Node pos="r" depth="2" NCoef="0" IVar="-1" Cut="0.0000000000000000e+00" cType="1" res="1.3388990191742778e-03" rms="4.5141768455505371e-01" purity="5.7081836462020874e-01" nType="-99"/>
        </Node>
      </Node>
    </BinaryTree>
    <BinaryTree type="DecisionTree" boostWeight="1.0000000000000000e+00" itree="849">
      <Node pos="s" depth="0" NCoef="0" IVar="7" Cut="5.9921401739120483e-01" cType="1" res="-3.1889632809907198e-03" rms="4.5315805077552795e-01" purity="4.9885052442550659e-01" nType="0">
        <Node pos="l" depth="1" NCoef="0" IVar="1" Cut="7.4787437915802002e-01" cType="1" res="-1.8606865778565407e-02" rms="4.4939258694648743e-01" purity="3.8632503151893616e-01" nType="0">
          <Node pos="l" depth="2" NCoef="0" IVar="-1" Cut="0.0000000000000000e+00" cType="1" res="4.5171342208050191e-05" rms="4.6494191884994507e-01" purity="5.0810050964355469e-01" nType="-99"/>
          <Node pos="r" depth="2" NCoef="0" IVar="-1" Cut="0.0000000000000000e+00" cType="1" res="-8.4998458623886108e-04" rms="4.4066256284713745e-01" purity="3.2252514362335205e-01" nType="-99"/>
        </Node>
        <Node pos="r" depth="1" NCoef="0" IVar="6" Cut="2.4343077093362808e-02" cType="1" res="5.8952472172677517e-03" rms="4.5511764287948608e-01" purity="5.6515038013458252e-01" nType="0">
          <Node pos="l" depth="2" NCoef="0" IVar="-1" Cut="0.0000000000000000e+00" cType="1" res="-2.4178127205232158e-05" rms="4.5384576916694641e-01" purity="5.6284713745117188e-01" nType="-99"/>
          <Node pos="r" depth="2" NCoef="0" IVar="-1" Cut="0.0000000000000000e+00" cType="1" res="2.8272792696952820e-03" rms="4.6270158886909485e-01" purity="5.8995723724365234e-01" nType="-99"/>
        </Node>
      </Node>
    </BinaryTree>
    <BinaryTree type="DecisionTree" boostWeight="1.0000000000000000e+00" itree="850">
      <Node pos="s" depth="0" NCoef="0" IVar="3" Cut="1.4634167480468750e+02" cType="1" res="2.0269181113690138e-03" rms="4.5091834664344788e-01" purity="5.0402718782424927e-01" nType="0">
        <Node pos="l" depth="1" NCoef="0" IVar="3" Cut="1.0621989440917969e+02" cType="1" res="5.6954231113195419e-03" rms="4.5134210586547852e-01" purity="5.1653730869293213e-01" nType="0">
          <Node pos="l" depth="2" NCoef="0" IVar="-1" Cut="0.0000000000000000e+00" cType="1" res="9.8303407867206261e-06" rms="4.5648950338363647e-01" purity="4.9313658475875854e-01" nType="-99"/>
          <Node pos="r" depth="2" NCoef="0" IVar="-1" Cut="0.0000000000000000e+00" cType="1" res="1.0327786440029740e-03" rms="4.2958900332450867e-01" purity="6.0961461067199707e-01" nType="-99"/>
        </Node>
        <Node pos="r" depth="1" NCoef="0" IVar="-1" Cut="0.0000000000000000e+00" cType="1" res="-1.2450574431568384e-03" rms="4.4364401698112488e-01" purity="3.5705354809761047e-01" nType="-99"/>
      </Node>
    </BinaryTree>
    <BinaryTree type="DecisionTree" boostWeight="1.0000000000000000e+00" itree="851">
      <Node pos="s" depth="0" NCoef="0" IVar="3" Cut="1.2816333007812500e+02" cType="1" res="1.1372893641237170e-04" rms="4.5091024041175842e-01" purity="4.9923136830329895e-01" nType="0">
        <Node pos="l" depth="1" NCoef="0" IVar="7" Cut="7.3586142063140869e-01" cType="1" res="3.9905747398734093e-03" rms="4.5137113332748413e-01" purity="5.0806170701980591e-01" nType="0">
          <Node pos="l" depth="2" NCoef="0" IVar="-1" Cut="0.0000000000000000e+00" cType="1" res="-1.6108491399791092e-04" rms="4.5427519083023071e-01" purity="4.4243887066841125e-01" nType="-99"/>
          <Node pos="r" depth="2" NCoef="0" IVar="-1" Cut="0.0000000000000000e+00" cType="1" res="8.1334734568372369e-04" rms="4.4539639353752136e-01" purity="6.3048303127288818e-01" nType="-99"/>
        </Node>
        <Node pos="r" depth="1" NCoef="0" IVar="9" Cut="9.5125108957290649e-01" cType="1" res="-2.4977827444672585e-02" rms="4.4710350036621094e-01" purity="4.4207993149757385e-01" nType="0">
          <Node pos="l" depth="2" NCoef="0" IVar="-1" Cut="0.0000000000000000e+00" cType="1" res="4.5749027049168944e-04" rms="4.4396412372589111e-01" purity="3.8664093613624573e-01" nType="-99"/>
          <Node pos="r" depth="2" NCoef="0" IVar="-1" Cut="0.0000000000000000e+00" cType="1" res="-1.7117969691753387e-03" rms="4.4730609655380249e-01" purity="4.7989404201507568e-01" nType="-99"/>
        </Node>
      </Node>
    </BinaryTree>
    <BinaryTree type="DecisionTree" boostWeight="1.0000000000000000e+00" itree="852">
      <Node pos="s" depth="0" NCoef="0" IVar="3" Cut="5.7985355377197266e+01" cType="1" res="2.8282990679144859e-03" rms="4.5537334680557251e-01" purity="5.0664025545120239e-01" nType="0">
        <Node pos="l" depth="1" NCoef="0" IVar="8" Cut="5.6422787904739380e-01" cType="1" res="2.1311050280928612e-02" rms="4.5831584930419922e-01" purity="4.7641381621360779e-01" nType="0">
          <Node pos="l" depth="2" NCoef="0" IVar="-1" Cut="0.0000000000000000e+00" cType="1" res="1.3920989586040378e-03" rms="4.5730653405189514e-01" purity="4.4120872020721436e-01" nType="-99"/>
          <Node pos="r" depth="2" NCoef="0" IVar="-1" Cut="0.0000000000000000e+00" cType="1" res="-1.0795323760248721e-04" rms="4.5816373825073242e-01" purity="5.1525300741195679e-01" nType="-99"/>
        </Node>
        <Node pos="r" depth="1" NCoef="0" IVar="0" Cut="1.2775173187255859e+00" cType="1" res="-5.5698151700198650e-03" rms="4.5378136634826660e-01" purity="5.2037435770034790e-01" nType="0">
          <Node pos="l" depth="2" NCoef="0" IVar="-1" Cut="0.0000000000000000e+00" cType="1" res="-5.9477169997990131e-04" rms="4.5784983038902283e-01" purity="5.8903795480728149e-01" nType="-99"/>
          <Node pos="r" depth="2" NCoef="0" IVar="-1" Cut="0.0000000000000000e+00" cType="1" res="5.1463424460962415e-04" rms="4.4477266073226929e-01" purity="3.8414013385772705e-01" nType="-99"/>
        </Node>
      </Node>
    </BinaryTree>
    <BinaryTree type="DecisionTree" boostWeight="1.0000000000000000e+00" itree="853">
      <Node pos="s" depth="0" NCoef="0" IVar="0" Cut="8.2163000106811523e-01" cType="1" res="-2.0590911153703928e-03" rms="4.5400777459144592e-01" purity="4.9881774187088013e-01" nType="0">
        <Node pos="l" depth="1" NCoef="0" IVar="9" Cut="9.4935542345046997e-01" cType="1" res="-3.2176196575164795e-02" rms="4.6101912856101990e-01" purity="6.3225197792053223e-01" nType="0">
          <Node pos="l" depth="2" NCoef="0" IVar="-1" Cut="0.0000000000000000e+00" cType="1" res="1.3908099208492786e-04" rms="4.6366953849792480e-01" purity="5.8204859495162964e-01" nType="-99"/>
          <Node pos="r" depth="2" NCoef="0" IVar="-1" Cut="0.0000000000000000e+00" cType="1" res="-2.1212017163634300e-03" rms="4.5853725075721741e-01" purity="6.5797990560531616e-01" nType="-99"/>
        </Node>
        <Node pos="r" depth="1" NCoef="0" IVar="5" Cut="1.3742971420288086e+00" cType="1" res="6.3743605278432369e-03" rms="4.5166519284248352e-01" purity="4.6145322918891907e-01" nType="0">
          <Node pos="l" depth="2" NCoef="0" IVar="-1" Cut="0.0000000000000000e+00" cType="1" res="4.4438184704631567e-04" rms="4.6800774335861206e-01" purity="5.5445843935012817e-01" nType="-99"/>
          <Node pos="r" depth="2" NCoef="0" IVar="-1" Cut="0.0000000000000000e+00" cType="1" res="-2.9384403023868799e-04" rms="4.1212928295135498e-01" purity="2.5244244933128357e-01" nType="-99"/>
        </Node>
      </Node>
    </BinaryTree>
    <BinaryTree type="DecisionTree" boostWeight="1.0000000000000000e+00" itree="854">
      <Node pos="s" depth="0" NCoef="0" IVar="5" Cut="4.3428829312324524e-01" cType="1" res="-1.8753367476165295e-03" rms="4.5325428247451782e-01" purity="4.9964433908462524e-01" nType="0">
        <Node pos="l" depth="1" NCoef="0" IVar="-1" Cut="0.0000000000000000e+00" cType="1" res="-1.4231284148991108e-03" rms="4.6736171841621399e-01" purity="6.2152826786041260e-01" nType="-99"/>
        <Node pos="r" depth="1" NCoef="0" IVar="0" Cut="1.6330379247665405e+00" cType="1" res="7.1166863199323416e-04" rms="4.5211386680603027e-01" purity="4.9089202284812927e-01" nType="0">
          <Node pos="l" depth="2" NCoef="0" IVar="-1" Cut="0.0000000000000000e+00" cType="1" res="1.4023028779774904e-04" rms="4.5834711194038391e-01" purity="5.1961076259613037e-01" nType="-99"/>
          <Node pos="r" depth="2" NCoef="0" IVar="-1" Cut="0.0000000000000000e+00" cType="1" res="-9.9166005384176970e-04" rms="3.8765859603881836e-01" purity="2.2297278046607971e-01" nType="-99"/>
        </Node>
      </Node>
    </BinaryTree>
    <BinaryTree type="DecisionTree" boostWeight="1.0000000000000000e+00" itree="855">
      <Node pos="s" depth="0" NCoef="0" IVar="5" Cut="8.3745783567428589e-01" cType="1" res="2.5303855072706938e-03" rms="4.4894754886627197e-01" purity="5.0536566972732544e-01" nType="0">
        <Node pos="l" depth="1" NCoef="0" IVar="9" Cut="8.7876039743423462e-01" cType="1" res="2.5036528706550598e-02" rms="4.4715678691864014e-01" purity="6.7211741209030151e-01" nType="0">
          <Node pos="l" depth="2" NCoef="0" IVar="-1" Cut="0.0000000000000000e+00" cType="1" res="2.3276752326637506e-03" rms="4.7109931707382202e-01" purity="5.6230092048645020e-01" nType="-99"/>
          <Node pos="r" depth="2" NCoef="0" IVar="-1" Cut="0.0000000000000000e+00" cType="1" res="6.8805349292233586e-04" rms="4.4201824069023132e-01" purity="6.9240617752075195e-01" nType="-99"/>
        </Node>
        <Node pos="r" depth="1" NCoef="0" IVar="6" Cut="1.2910109944641590e-03" cType="1" res="-9.6711497753858566e-03" rms="4.4944453239440918e-01" purity="4.1496244072914124e-01" nType="0">
          <Node pos="l" depth="2" NCoef="0" IVar="-1" Cut="0.0000000000000000e+00" cType="1" res="-1.8370468169450760e-03" rms="4.5176228880882263e-01" purity="4.8578748106956482e-01" nType="-99"/>
          <Node pos="r" depth="2" NCoef="0" IVar="-1" Cut="0.0000000000000000e+00" cType="1" res="-1.3584471889771521e-04" rms="4.4887986779212952e-01" purity="4.0761160850524902e-01" nType="-99"/>
        </Node>
      </Node>
    </BinaryTree>
    <BinaryTree type="DecisionTree" boostWeight="1.0000000000000000e+00" itree="856">
      <Node pos="s" depth="0" NCoef="0" IVar="3" Cut="7.3743713378906250e+01" cType="1" res="-3.2730815000832081e-03" rms="4.5287534594535828e-01" purity="5.0010842084884644e-01" nType="0">
        <Node pos="l" depth="1" NCoef="0" IVar="0" Cut="8.5305839776992798e-01" cType="1" res="-1.3714987784624100e-02" rms="4.5915630459785461e-01" purity="4.5943301916122437e-01" nType="0">
          <Node pos="l" depth="2" NCoef="0" IVar="-1" Cut="0.0000000000000000e+00" cType="1" res="-1.2545350473374128e-03" rms="4.7829023003578186e-01" purity="5.7971757650375366e-01" nType="-99"/>
          <Node pos="r" depth="2" NCoef="0" IVar="-1" Cut="0.0000000000000000e+00" cType="1" res="-1.3233692152425647e-04" rms="4.5090141892433167e-01" purity="4.1109305620193481e-01" nType="-99"/>
        </Node>
        <Node pos="r" depth="1" NCoef="0" IVar="3" Cut="1.2613665008544922e+02" cType="1" res="7.1106115356087685e-03" rms="4.4629961252212524e-01" purity="5.4055708646774292e-01" nType="0">
          <Node pos="l" depth="2" NCoef="0" IVar="-1" Cut="0.0000000000000000e+00" cType="1" res="5.4657435975968838e-04" rms="4.4593611359596252e-01" purity="5.6627744436264038e-01" nType="-99"/>
          <Node pos="r" depth="2" NCoef="0" IVar="-1" Cut="0.0000000000000000e+00" cType="1" res="-4.5958906412124634e-04" rms="4.4654762744903564e-01" purity="4.7508537769317627e-01" nType="-99"/>
        </Node>
      </Node>
    </BinaryTree>
    <BinaryTree type="DecisionTree" boostWeight="1.0000000000000000e+00" itree="857">
      <Node pos="s" depth="0" NCoef="0" IVar="6" Cut="1.5452026389539242e-02" cType="1" res="-5.0166673026978970e-03" rms="4.5198684930801392e-01" purity="4.9466329813003540e-01" nType="0">
        <Node pos="l" depth="1" NCoef="0" IVar="0" Cut="1.2426595687866211e+00" cType="1" res="-1.9407078623771667e-02" rms="4.5159116387367249e-01" purity="5.4671722650527954e-01" nType="0">
          <Node pos="l" depth="2" NCoef="0" IVar="-1" Cut="0.0000000000000000e+00" cType="1" res="-1.3072756119072437e-03" rms="4.5920801162719727e-01" purity="6.1043512821197510e-01" nType="-99"/>
          <Node pos="r" depth="2" NCoef="0" IVar="-1" Cut="0.0000000000000000e+00" cType="1" res="3.7553560105152428e-04" rms="4.3438783288002014e-01" purity="4.2053827643394470e-01" nType="-99"/>
        </Node>
        <Node pos="r" depth="1" NCoef="0" IVar="8" Cut="6.1017960309982300e-01" cType="1" res="7.2579924017190933e-03" rms="4.5196214318275452e-01" purity="4.5026254653930664e-01" nType="0">
          <Node pos="l" depth="2" NCoef="0" IVar="-1" Cut="0.0000000000000000e+00" cType="1" res="4.5689273974858224e-05" rms="4.5268782973289490e-01" purity="4.2689979076385498e-01" nType="-99"/>
          <Node pos="r" depth="2" NCoef="0" IVar="-1" Cut="0.0000000000000000e+00" cType="1" res="2.0124246366322041e-03" rms="4.4370222091674805e-01" purity="6.3244003057479858e-01" nType="-99"/>
        </Node>
      </Node>
    </BinaryTree>
    <BinaryTree type="DecisionTree" boostWeight="1.0000000000000000e+00" itree="858">
      <Node pos="s" depth="0" NCoef="0" IVar="9" Cut="7.7332830429077148e-01" cType="1" res="8.7775202700868249e-04" rms="4.5279738306999207e-01" purity="5.0322592258453369e-01" nType="0">
        <Node pos="l" depth="1" NCoef="0" IVar="-1" Cut="0.0000000000000000e+00" cType="1" res="-8.7283737957477570e-04" rms="4.3253403902053833e-01" purity="2.7437764406204224e-01" nType="-99"/>
        <Node pos="r" depth="1" NCoef="0" IVar="4" Cut="2.3755348205566406e+02" cType="1" res="3.2388432882726192e-03" rms="4.5419722795486450e-01" purity="5.2043902873992920e-01" nType="0">
          <Node pos="l" depth="2" NCoef="0" IVar="-1" Cut="0.0000000000000000e+00" cType="1" res="3.1317735556513071e-04" rms="4.5454397797584534e-01" purity="5.5322349071502686e-01" nType="-99"/>
          <Node pos="r" depth="2" NCoef="0" IVar="-1" Cut="0.0000000000000000e+00" cType="1" res="-4.7111048479564488e-04" rms="4.5260587334632874e-01" purity="4.1733026504516602e-01" nType="-99"/>
        </Node>
      </Node>
    </BinaryTree>
    <BinaryTree type="DecisionTree" boostWeight="1.0000000000000000e+00" itree="859">
      <Node pos="s" depth="0" NCoef="0" IVar="8" Cut="5.4508852958679199e-01" cType="1" res="-2.6261392049491405e-03" rms="4.5295700430870056e-01" purity="4.9962231516838074e-01" nType="0">
        <Node pos="l" depth="1" NCoef="0" IVar="2" Cut="8.0407392978668213e-01" cType="1" res="9.1643491759896278e-03" rms="4.5247414708137512e-01" purity="4.4362413883209229e-01" nType="0">
          <Node pos="l" depth="2" NCoef="0" IVar="-1" Cut="0.0000000000000000e+00" cType="1" res="-3.8084213156253099e-04" rms="4.4397762417793274e-01" purity="3.3042225241661072e-01" nType="-99"/>
          <Node pos="r" depth="2" NCoef="0" IVar="-1" Cut="0.0000000000000000e+00" cType="1" res="9.5683382824063301e-04" rms="4.5882511138916016e-01" purity="5.4136431217193604e-01" nType="-99"/>
        </Node>
        <Node pos="r" depth="1" NCoef="0" IVar="8" Cut="5.8804523944854736e-01" cType="1" res="-1.2839683331549168e-02" rms="4.5312696695327759e-01" purity="5.4813092947006226e-01" nType="0">
          <Node pos="l" depth="2" NCoef="0" IVar="-1" Cut="0.0000000000000000e+00" cType="1" res="-9.3977007782086730e-04" rms="4.5480981469154358e-01" purity="4.6724280714988708e-01" nType="-99"/>
          <Node pos="r" depth="2" NCoef="0" IVar="-1" Cut="0.0000000000000000e+00" cType="1" res="-8.2000493421219289e-05" rms="4.5177549123764038e-01" purity="5.9693300724029541e-01" nType="-99"/>
        </Node>
      </Node>
    </BinaryTree>
    <BinaryTree type="DecisionTree" boostWeight="1.0000000000000000e+00" itree="860">
      <Node pos="s" depth="0" NCoef="0" IVar="6" Cut="2.0654594525694847e-02" cType="1" res="-8.0041773617267609e-03" rms="4.5198094844818115e-01" purity="4.9285286664962769e-01" nType="0">
        <Node pos="l" depth="1" NCoef="0" IVar="1" Cut="7.4699538946151733e-01" cType="1" res="-1.9151536747813225e-02" rms="4.5388063788414001e-01" purity="5.3515744209289551e-01" nType="0">
          <Node pos="l" depth="2" NCoef="0" IVar="-1" Cut="0.0000000000000000e+00" cType="1" res="7.1988761192187667e-05" rms="4.4565880298614502e-01" purity="6.5066099166870117e-01" nType="-99"/>
          <Node pos="r" depth="2" NCoef="0" IVar="-1" Cut="0.0000000000000000e+00" cType="1" res="-9.9740864243358374e-04" rms="4.5832133293151855e-01" purity="4.6524173021316528e-01" nType="-99"/>
        </Node>
        <Node pos="r" depth="1" NCoef="0" IVar="4" Cut="1.9215777587890625e+02" cType="1" res="6.3659832812845707e-03" rms="4.4911214709281921e-01" purity="4.3831768631935120e-01" nType="0">
          <Node pos="l" depth="2" NCoef="0" IVar="-1" Cut="0.0000000000000000e+00" cType="1" res="6.9723802153021097e-04" rms="4.5400509238243103e-01" purity="4.8845002055168152e-01" nType="-99"/>
          <Node pos="r" depth="2" NCoef="0" IVar="-1" Cut="0.0000000000000000e+00" cType="1" res="-5.6384707568213344e-04" rms="4.3986129760742188e-01" purity="3.5670793056488037e-01" nType="-99"/>
        </Node>
      </Node>
    </BinaryTree>
    <BinaryTree type="DecisionTree" boostWeight="1.0000000000000000e+00" itree="861">
      <Node pos="s" depth="0" NCoef="0" IVar="1" Cut="6.6747158765792847e-01" cType="1" res="-2.4842985440045595e-03" rms="4.5248603820800781e-01" purity="4.9842751026153564e-01" nType="0">
        <Node pos="l" depth="1" NCoef="0" IVar="4" Cut="1.3290055847167969e+02" cType="1" res="1.6278585419058800e-02" rms="4.5103731751441956e-01" purity="6.2169301509857178e-01" nType="0">
          <Node pos="l" depth="2" NCoef="0" IVar="-1" Cut="0.0000000000000000e+00" cType="1" res="1.6078356420621276e-03" rms="4.4097623229026794e-01" purity="6.8383872509002686e-01" nType="-99"/>
          <Node pos="r" depth="2" NCoef="0" IVar="-1" Cut="0.0000000000000000e+00" cType="1" res="-5.6027420214377344e-05" rms="4.5834028720855713e-01" purity="5.7079005241394043e-01" nType="-99"/>
        </Node>
        <Node pos="r" depth="1" NCoef="0" IVar="3" Cut="5.8410266876220703e+01" cType="1" res="-1.0843385942280293e-02" rms="4.5287969708442688e-01" purity="4.4351124763488770e-01" nType="0">
          <Node pos="l" depth="2" NCoef="0" IVar="-1" Cut="0.0000000000000000e+00" cType="1" res="-8.3803670713678002e-04" rms="4.4605058431625366e-01" purity="3.8031402230262756e-01" nType="-99"/>
          <Node pos="r" depth="2" NCoef="0" IVar="-1" Cut="0.0000000000000000e+00" cType="1" res="-6.8595109041780233e-05" rms="4.5594537258148193e-01" purity="4.7456616163253784e-01" nType="-99"/>
        </Node>
      </Node>
    </BinaryTree>
    <BinaryTree type="DecisionTree" boostWeight="1.0000000000000000e+00" itree="862">
      <Node pos="s" depth="0" NCoef="0" IVar="5" Cut="9.5158028602600098e-01" cType="1" res="-4.4620333937928081e-04" rms="4.4770196080207825e-01" purity="4.9565690755844116e-01" nType="0">
        <Node pos="l" depth="1" NCoef="0" IVar="8" Cut="6.3741183280944824e-01" cType="1" res="1.6020366922020912e-02" rms="4.5209267735481262e-01" purity="6.4851015806198120e-01" nType="0">
          <Node pos="l" depth="2" NCoef="0" IVar="-1" Cut="0.0000000000000000e+00" cType="1" res="3.2064359402284026e-04" rms="4.6311539411544800e-01" purity="6.1874020099639893e-01" nType="-99"/>
          <Node pos="r" depth="2" NCoef="0" IVar="-1" Cut="0.0000000000000000e+00" cType="1" res="3.0600754544138908e-03" rms="3.8774916529655457e-01" purity="8.0332279205322266e-01" nType="-99"/>
        </Node>
        <Node pos="r" depth="1" NCoef="0" IVar="9" Cut="8.6361730098724365e-01" cType="1" res="-1.3522597961127758e-02" rms="4.4374921917915344e-01" purity="3.7427344918251038e-01" nType="0">
          <Node pos="l" depth="2" NCoef="0" IVar="-1" Cut="0.0000000000000000e+00" cType="1" res="-1.3651996850967407e-03" rms="3.8882958889007568e-01" purity="2.1113559603691101e-01" nType="-99"/>
          <Node pos="r" depth="2" NCoef="0" IVar="-1" Cut="0.0000000000000000e+00" cType="1" res="-1.8918221758212894e-04" rms="4.5483547449111938e-01" purity="4.1081589460372925e-01" nType="-99"/>
        </Node>
      </Node>
    </BinaryTree>
    <BinaryTree type="DecisionTree" boostWeight="1.0000000000000000e+00" itree="863">
      <Node pos="s" depth="0" NCoef="0" IVar="4" Cut="1.1295301055908203e+02" cType="1" res="-8.4835235029459000e-03" rms="4.5420396327972412e-01" purity="4.9207502603530884e-01" nType="0">
        <Node pos="l" depth="1" NCoef="0" IVar="2" Cut="8.1559932231903076e-01" cType="1" res="-2.6147300377488136e-02" rms="4.5946907997131348e-01" purity="4.7336292266845703e-01" nType="0">
          <Node pos="l" depth="2" NCoef="0" IVar="-1" Cut="0.0000000000000000e+00" cType="1" res="1.3665652659256011e-04" rms="4.5738369226455688e-01" purity="3.7082588672637939e-01" nType="-99"/>
          <Node pos="r" depth="2" NCoef="0" IVar="-1" Cut="0.0000000000000000e+00" cType="1" res="-1.2198687763884664e-03" rms="4.5972195267677307e-01" purity="5.1271039247512817e-01" nType="-99"/>
        </Node>
        <Node pos="r" depth="1" NCoef="0" IVar="1" Cut="7.6867765188217163e-01" cType="1" res="-2.2893538698554039e-04" rms="4.5148557424545288e-01" purity="5.0081950426101685e-01" nType="0">
          <Node pos="l" depth="2" NCoef="0" IVar="-1" Cut="0.0000000000000000e+00" cType="1" res="-7.3273445013910532e-04" rms="4.5092537999153137e-01" purity="5.7169866561889648e-01" nType="-99"/>
          <Node pos="r" depth="2" NCoef="0" IVar="-1" Cut="0.0000000000000000e+00" cType="1" res="3.9107067277655005e-04" rms="4.5136380195617676e-01" purity="4.5778611302375793e-01" nType="-99"/>
        </Node>
      </Node>
    </BinaryTree>
    <BinaryTree type="DecisionTree" boostWeight="1.0000000000000000e+00" itree="864">
      <Node pos="s" depth="0" NCoef="0" IVar="6" Cut="1.5451990999281406e-02" cType="1" res="4.7752290265634656e-04" rms="4.5266905426979065e-01" purity="5.0015205144882202e-01" nType="0">
        <Node pos="l" depth="1" NCoef="0" IVar="5" Cut="6.1840844154357910e-01" cType="1" res="-1.1126365512609482e-02" rms="4.5284050703048706e-01" purity="5.5790275335311890e-01" nType="0">
          <Node pos="l" depth="2" NCoef="0" IVar="-1" Cut="0.0000000000000000e+00" cType="1" res="1.3773589162155986e-03" rms="4.1946837306022644e-01" purity="7.4211269617080688e-01" nType="-99"/>
          <Node pos="r" depth="2" NCoef="0" IVar="-1" Cut="0.0000000000000000e+00" cType="1" res="-6.4638134790584445e-04" rms="4.5909947156906128e-01" purity="5.1928263902664185e-01" nType="-99"/>
        </Node>
        <Node pos="r" depth="1" NCoef="0" IVar="5" Cut="8.9245897531509399e-01" cType="1" res="1.0075691156089306e-02" rms="4.5230224728584290e-01" purity="4.5238351821899414e-01" nType="0">
          <Node pos="l" depth="2" NCoef="0" IVar="-1" Cut="0.0000000000000000e+00" cType="1" res="1.1400487273931503e-03" rms="4.6363332867622375e-01" purity="6.1660987138748169e-01" nType="-99"/>
          <Node pos="r" depth="2" NCoef="0" IVar="-1" Cut="0.0000000000000000e+00" cType="1" res="-1.1651918612187728e-04" rms="4.4452393054962158e-01" purity="3.5004746913909912e-01" nType="-99"/>
        </Node>
      </Node>
    </BinaryTree>
    <BinaryTree type="DecisionTree" boostWeight="1.0000000000000000e+00" itree="865">
      <Node pos="s" depth="0" NCoef="0" IVar="3" Cut="1.0232089996337891e+02" cType="1" res="-2.2016151342540979e-03" rms="4.5296695828437805e-01" purity="5.0039070844650269e-01" nType="0">
        <Node pos="l" depth="1" NCoef="0" IVar="0" Cut="6.5709257125854492e-01" cType="1" res="-1.0715270414948463e-02" rms="4.5698517560958862e-01" purity="4.7842395305633545e-01" nType="0">
          <Node pos="l" depth="2" NCoef="0" IVar="-1" Cut="0.0000000000000000e+00" cType="1" res="1.4778135810047388e-03" rms="4.3935921788215637e-01" purity="7.0391088724136353e-01" nType="-99"/>
          <Node pos="r" depth="2" NCoef="0" IVar="-1" Cut="0.0000000000000000e+00" cType="1" res="-4.7727051423862576e-04" rms="4.5856472849845886e-01" purity="4.5436260104179382e-01" nType="-99"/>
        </Node>
        <Node pos="r" depth="1" NCoef="0" IVar="6" Cut="6.4059561118483543e-03" cType="1" res="1.9684305414557457e-02" rms="4.4171744585037231e-01" purity="5.5686026811599731e-01" nType="0">
          <Node pos="l" depth="2" NCoef="0" IVar="-1" Cut="0.0000000000000000e+00" cType="1" res="-7.9153600381687284e-04" rms="4.3214052915573120e-01" purity="6.2452787160873413e-01" nType="-99"/>
          <Node pos="r" depth="2" NCoef="0" IVar="-1" Cut="0.0000000000000000e+00" cType="1" res="1.1743494542315602e-03" rms="4.4417369365692139e-01" purity="5.3360968828201294e-01" nType="-99"/>
        </Node>
      </Node>
    </BinaryTree>
    <BinaryTree type="DecisionTree" boostWeight="1.0000000000000000e+00" itree="866">
      <Node pos="s" depth="0" NCoef="0" IVar="8" Cut="5.0108373165130615e-01" cType="1" res="-6.9978833198547363e-04" rms="4.5115083456039429e-01" purity="5.0064450502395630e-01" nType="0">
        <Node pos="l" depth="1" NCoef="0" IVar="5" Cut="9.7789853811264038e-01" cType="1" res="-2.0215742290019989e-02" rms="4.5149126648902893e-01" purity="3.9274057745933533e-01" nType="0">
          <Node pos="l" depth="2" NCoef="0" IVar="-1" Cut="0.0000000000000000e+00" cType="1" res="-1.3832382392138243e-03" rms="4.7411206364631653e-01" purity="4.9255841970443726e-01" nType="-99"/>
          <Node pos="r" depth="2" NCoef="0" IVar="-1" Cut="0.0000000000000000e+00" cType="1" res="8.8775792391970754e-05" rms="4.2992272973060608e-01" purity="3.0764991044998169e-01" nType="-99"/>
        </Node>
        <Node pos="r" depth="1" NCoef="0" IVar="8" Cut="5.3590345382690430e-01" cType="1" res="7.0928446948528290e-03" rms="4.5077887177467346e-01" purity="5.4373002052307129e-01" nType="0">
          <Node pos="l" depth="2" NCoef="0" IVar="-1" Cut="0.0000000000000000e+00" cType="1" res="1.3583988184109330e-03" rms="4.5269936323165894e-01" purity="4.9771752953529358e-01" nType="-99"/>
          <Node pos="r" depth="2" NCoef="0" IVar="-1" Cut="0.0000000000000000e+00" cType="1" res="-2.5548850317136385e-05" rms="4.4996649026870728e-01" purity="5.5469179153442383e-01" nType="-99"/>
        </Node>
      </Node>
    </BinaryTree>
    <BinaryTree type="DecisionTree" boostWeight="1.0000000000000000e+00" itree="867">
      <Node pos="s" depth="0" NCoef="0" IVar="9" Cut="9.0761733055114746e-01" cType="1" res="-1.4312940184026957e-03" rms="4.5211243629455566e-01" purity="5.0038522481918335e-01" nType="0">
        <Node pos="l" depth="1" NCoef="0" IVar="9" Cut="8.4935736656188965e-01" cType="1" res="1.4229600317776203e-02" rms="4.5088249444961548e-01" purity="3.8730087876319885e-01" nType="0">
          <Node pos="l" depth="2" NCoef="0" IVar="-1" Cut="0.0000000000000000e+00" cType="1" res="-3.0922691803425550e-04" rms="4.4156122207641602e-01" purity="3.2645657658576965e-01" nType="-99"/>
          <Node pos="r" depth="2" NCoef="0" IVar="-1" Cut="0.0000000000000000e+00" cType="1" res="1.5851763309910893e-03" rms="4.6148416399955750e-01" purity="4.7316113114356995e-01" nType="-99"/>
        </Node>
        <Node pos="r" depth="1" NCoef="0" IVar="4" Cut="9.4194435119628906e+01" cType="1" res="-6.4952457323670387e-03" rms="4.5239344239234924e-01" purity="5.3695106506347656e-01" nType="0">
          <Node pos="l" depth="2" NCoef="0" IVar="-1" Cut="0.0000000000000000e+00" cType="1" res="-9.0915989130735397e-04" rms="4.6390262246131897e-01" purity="4.6666243672370911e-01" nType="-99"/>
          <Node pos="r" depth="2" NCoef="0" IVar="-1" Cut="0.0000000000000000e+00" cType="1" res="-2.3038566723698750e-05" rms="4.4926461577415466e-01" purity="5.5462568998336792e-01" nType="-99"/>
        </Node>
      </Node>
    </BinaryTree>
    <BinaryTree type="DecisionTree" boostWeight="1.0000000000000000e+00" itree="868">
      <Node pos="s" depth="0" NCoef="0" IVar="2" Cut="8.0461102724075317e-01" cType="1" res="-5.0869742408394814e-03" rms="4.5254758000373840e-01" purity="4.9726819992065430e-01" nType="0">
        <Node pos="l" depth="1" NCoef="0" IVar="7" Cut="5.7582020759582520e-01" cType="1" res="8.9864451438188553e-03" rms="4.4408622384071350e-01" purity="3.6363768577575684e-01" nType="0">
          <Node pos="l" depth="2" NCoef="0" IVar="-1" Cut="0.0000000000000000e+00" cType="1" res="-2.2223222185857594e-04" rms="4.4061970710754395e-01" purity="3.3391350507736206e-01" nType="-99"/>
          <Node pos="r" depth="2" NCoef="0" IVar="-1" Cut="0.0000000000000000e+00" cType="1" res="1.4675745042040944e-03" rms="4.4959768652915955e-01" purity="4.3065804243087769e-01" nType="-99"/>
        </Node>
        <Node pos="r" depth="1" NCoef="0" IVar="5" Cut="1.1223975419998169e+00" cType="1" res="-9.9599966779351234e-03" rms="4.5533937215805054e-01" purity="5.4353868961334229e-01" nType="0">
          <Node pos="l" depth="2" NCoef="0" IVar="-1" Cut="0.0000000000000000e+00" cType="1" res="-7.0125889033079147e-04" rms="4.5807516574859619e-01" purity="6.3716793060302734e-01" nType="-99"/>
          <Node pos="r" depth="2" NCoef="0" IVar="-1" Cut="0.0000000000000000e+00" cType="1" res="1.3329865760169923e-04" rms="4.5037207007408142e-01" purity="3.8768386840820312e-01" nType="-99"/>
        </Node>
      </Node>
    </BinaryTree>
    <BinaryTree type="DecisionTree" boostWeight="1.0000000000000000e+00" itree="869">
      <Node pos="s" depth="0" NCoef="0" IVar="6" Cut="3.9976853877305984e-02" cType="1" res="5.0549972802400589e-03" rms="4.5025336742401123e-01" purity="5.0570189952850342e-01" nType="0">
        <Node pos="l" depth="1" NCoef="0" IVar="4" Cut="6.5481933593750000e+01" cType="1" res="7.9420143738389015e-03" rms="4.5017921924591064e-01" purity="5.1538139581680298e-01" nType="0">
          <Node pos="l" depth="2" NCoef="0" IVar="-1" Cut="0.0000000000000000e+00" cType="1" res="-8.0691091716289520e-04" rms="4.4862428307533264e-01" purity="3.7440058588981628e-01" nType="-99"/>
          <Node pos="r" depth="2" NCoef="0" IVar="-1" Cut="0.0000000000000000e+00" cType="1" res="3.8543238770216703e-04" rms="4.5018377900123596e-01" purity="5.2887779474258423e-01" nType="-99"/>
        </Node>
        <Node pos="r" depth="1" NCoef="0" IVar="-1" Cut="0.0000000000000000e+00" cType="1" res="-1.0907804826274514e-03" rms="4.4917121529579163e-01" purity="3.6181220412254333e-01" nType="-99"/>
      </Node>
    </BinaryTree>
    <BinaryTree type="DecisionTree" boostWeight="1.0000000000000000e+00" itree="870">
      <Node pos="s" depth="0" NCoef="0" IVar="4" Cut="1.2832708740234375e+02" cType="1" res="-6.3311690464615822e-03" rms="4.5160838961601257e-01" purity="4.9328345060348511e-01" nType="0">
        <Node pos="l" depth="1" NCoef="0" IVar="4" Cut="6.8740394592285156e+01" cType="1" res="4.9325334839522839e-03" rms="4.4893014430999756e-01" purity="5.3352677822113037e-01" nType="0">
          <Node pos="l" depth="2" NCoef="0" IVar="-1" Cut="0.0000000000000000e+00" cType="1" res="-1.2643419904634356e-03" rms="4.4243377447128296e-01" purity="3.5930091142654419e-01" nType="-99"/>
          <Node pos="r" depth="2" NCoef="0" IVar="-1" Cut="0.0000000000000000e+00" cType="1" res="7.2217389242723584e-04" rms="4.4987130165100098e-01" purity="5.8798766136169434e-01" nType="-99"/>
        </Node>
        <Node pos="r" depth="1" NCoef="0" IVar="9" Cut="9.4953489303588867e-01" cType="1" res="-1.4161113649606705e-02" rms="4.5329597592353821e-01" purity="4.6530833840370178e-01" nType="0">
          <Node pos="l" depth="2" NCoef="0" IVar="-1" Cut="0.0000000000000000e+00" cType="1" res="1.8557028670329601e-04" rms="4.4357725977897644e-01" purity="3.9649701118469238e-01" nType="-99"/>
          <Node pos="r" depth="2" NCoef="0" IVar="-1" Cut="0.0000000000000000e+00" cType="1" res="-8.7652349611744285e-04" rms="4.5896363258361816e-01" purity="5.0952947139739990e-01" nType="-99"/>
        </Node>
      </Node>
    </BinaryTree>
    <BinaryTree type="DecisionTree" boostWeight="1.0000000000000000e+00" itree="871">
      <Node pos="s" depth="0" NCoef="0" IVar="3" Cut="1.0232089996337891e+02" cType="1" res="-5.5889189243316650e-03" rms="4.5223706960678101e-01" purity="4.9443691968917847e-01" nType="0">
        <Node pos="l" depth="1" NCoef="0" IVar="1" Cut="1.1964607238769531e+00" cType="1" res="-1.1512945406138897e-02" rms="4.5806744694709778e-01" purity="4.7411677241325378e-01" nType="0">
          <Node pos="l" depth="2" NCoef="0" IVar="-1" Cut="0.0000000000000000e+00" cType="1" res="-7.2087149601429701e-04" rms="4.6595597267150879e-01" purity="5.3061127662658691e-01" nType="-99"/>
          <Node pos="r" depth="2" NCoef="0" IVar="-1" Cut="0.0000000000000000e+00" cType="1" res="1.8507178174331784e-04" rms="4.4446614384651184e-01" purity="3.8281437754631042e-01" nType="-99"/>
        </Node>
        <Node pos="r" depth="1" NCoef="0" IVar="2" Cut="8.2350987195968628e-01" cType="1" res="9.4345519319176674e-03" rms="4.3674242496490479e-01" purity="5.4596936702728271e-01" nType="0">
          <Node pos="l" depth="2" NCoef="0" IVar="-1" Cut="0.0000000000000000e+00" cType="1" res="-6.7517382558435202e-04" rms="4.4678348302841187e-01" purity="3.7918645143508911e-01" nType="-99"/>
          <Node pos="r" depth="2" NCoef="0" IVar="-1" Cut="0.0000000000000000e+00" cType="1" res="1.1203879257664084e-03" rms="4.2991051077842712e-01" purity="6.4018821716308594e-01" nType="-99"/>
        </Node>
      </Node>
    </BinaryTree>
    <BinaryTree type="DecisionTree" boostWeight="1.0000000000000000e+00" itree="872">
      <Node pos="s" depth="0" NCoef="0" IVar="3" Cut="1.2896449279785156e+02" cType="1" res="-1.8045144388452172e-03" rms="4.5100504159927368e-01" purity="4.9993717670440674e-01" nType="0">
        <Node pos="l" depth="1" NCoef="0" IVar="3" Cut="1.0085588073730469e+02" cType="1" res="1.5315954806283116e-03" rms="4.5170223712921143e-01" purity="5.0786936283111572e-01" nType="0">
          <Node pos="l" depth="2" NCoef="0" IVar="-1" Cut="0.0000000000000000e+00" cType="1" res="-1.4478567754849792e-04" rms="4.5416417717933655e-01" purity="4.8229125142097473e-01" nType="-99"/>
          <Node pos="r" depth="2" NCoef="0" IVar="-1" Cut="0.0000000000000000e+00" cType="1" res="1.0722406441345811e-03" rms="4.3995773792266846e-01" purity="6.1837208271026611e-01" nType="-99"/>
        </Node>
        <Node pos="r" depth="1" NCoef="0" IVar="8" Cut="5.3724062442779541e-01" cType="1" res="-2.4868899956345558e-02" rms="4.4547218084335327e-01" purity="4.4509798288345337e-01" nType="0">
          <Node pos="l" depth="2" NCoef="0" IVar="-1" Cut="0.0000000000000000e+00" cType="1" res="2.5017940788529813e-04" rms="4.4596493244171143e-01" purity="4.1116473078727722e-01" nType="-99"/>
          <Node pos="r" depth="2" NCoef="0" IVar="-1" Cut="0.0000000000000000e+00" cType="1" res="-1.7537348903715611e-03" rms="4.4318845868110657e-01" purity="4.7391027212142944e-01" nType="-99"/>
        </Node>
      </Node>
    </BinaryTree>
    <BinaryTree type="DecisionTree" boostWeight="1.0000000000000000e+00" itree="873">
      <Node pos="s" depth="0" NCoef="0" IVar="6" Cut="5.1507805474102497e-03" cType="1" res="-4.2368248105049133e-03" rms="4.5209202170372009e-01" purity="4.9961686134338379e-01" nType="0">
        <Node pos="l" depth="1" NCoef="0" IVar="1" Cut="1.0445145368576050e+00" cType="1" res="-2.2037712857127190e-02" rms="4.5076298713684082e-01" purity="5.8747291564941406e-01" nType="0">
          <Node pos="l" depth="2" NCoef="0" IVar="-1" Cut="0.0000000000000000e+00" cType="1" res="-1.8141728360205889e-03" rms="4.4528561830520630e-01" purity="6.3202905654907227e-01" nType="-99"/>
          <Node pos="r" depth="2" NCoef="0" IVar="-1" Cut="0.0000000000000000e+00" cType="1" res="2.8717765235342085e-04" rms="4.5605707168579102e-01" purity="5.2889388799667358e-01" nType="-99"/>
        </Node>
        <Node pos="r" depth="1" NCoef="0" IVar="8" Cut="6.1119091510772705e-01" cType="1" res="8.2096026744693518e-04" rms="4.5234116911888123e-01" purity="4.7465422749519348e-01" nType="0">
          <Node pos="l" depth="2" NCoef="0" IVar="-1" Cut="0.0000000000000000e+00" cType="1" res="-1.3276995741762221e-04" rms="4.5209893584251404e-01" purity="4.4430515170097351e-01" nType="-99"/>
          <Node pos="r" depth="2" NCoef="0" IVar="-1" Cut="0.0000000000000000e+00" cType="1" res="1.0544290998950601e-03" rms="4.5267069339752197e-01" purity="6.2846380472183228e-01" nType="-99"/>
        </Node>
      </Node>
    </BinaryTree>
    <BinaryTree type="DecisionTree" boostWeight="1.0000000000000000e+00" itree="874">
      <Node pos="s" depth="0" NCoef="0" IVar="6" Cut="2.0654562860727310e-02" cType="1" res="-5.4899763199500740e-05" rms="4.5384094119071960e-01" purity="5.0642526149749756e-01" nType="0">
        <Node pos="l" depth="1" NCoef="0" IVar="5" Cut="1.1362243890762329e+00" cType="1" res="-8.9029036462306976e-03" rms="4.5157632231712341e-01" purity="5.4965633153915405e-01" nType="0">
          <Node pos="l" depth="2" NCoef="0" IVar="-1" Cut="0.0000000000000000e+00" cType="1" res="-7.8898225910961628e-04" rms="4.5393037796020508e-01" purity="6.3388925790786743e-01" nType="-99"/>
          <Node pos="r" depth="2" NCoef="0" IVar="-1" Cut="0.0000000000000000e+00" cType="1" res="3.8158745155669749e-04" rms="4.4644913077354431e-01" purity="3.9640775322914124e-01" nType="-99"/>
        </Node>
        <Node pos="r" depth="1" NCoef="0" IVar="1" Cut="3.7403658032417297e-01" cType="1" res="1.1638978496193886e-02" rms="4.5655372738838196e-01" purity="4.4928941130638123e-01" nType="0">
          <Node pos="l" depth="2" NCoef="0" IVar="-1" Cut="0.0000000000000000e+00" cType="1" res="-8.1547716399654746e-04" rms="4.6210274100303650e-01" purity="5.3064024448394775e-01" nType="-99"/>
          <Node pos="r" depth="2" NCoef="0" IVar="-1" Cut="0.0000000000000000e+00" cType="1" res="5.6880287593230605e-04" rms="4.5529353618621826e-01" purity="4.3544083833694458e-01" nType="-99"/>
        </Node>
      </Node>
    </BinaryTree>
    <BinaryTree type="DecisionTree" boostWeight="1.0000000000000000e+00" itree="875">
      <Node pos="s" depth="0" NCoef="0" IVar="7" Cut="5.1513886451721191e-01" cType="1" res="2.1320476662367582e-03" rms="4.5349004864692688e-01" purity="5.0645917654037476e-01" nType="0">
        <Node pos="l" depth="1" NCoef="0" IVar="-1" Cut="0.0000000000000000e+00" cType="1" res="-1.1716270819306374e-03" rms="4.3311280012130737e-01" purity="3.1472131609916687e-01" nType="-99"/>
        <Node pos="r" depth="1" NCoef="0" IVar="8" Cut="6.6136354207992554e-01" cType="1" res="6.2569733709096909e-03" rms="4.5519644021987915e-01" purity="5.2496653795242310e-01" nType="0">
          <Node pos="l" depth="2" NCoef="0" IVar="-1" Cut="0.0000000000000000e+00" cType="1" res="7.2627597546670586e-05" rms="4.5784366130828857e-01" purity="5.0775212049484253e-01" nType="-99"/>
          <Node pos="r" depth="2" NCoef="0" IVar="-1" Cut="0.0000000000000000e+00" cType="1" res="1.9739870913326740e-03" rms="4.2758929729461670e-01" purity="6.8708342313766479e-01" nType="-99"/>
        </Node>
      </Node>
    </BinaryTree>
    <BinaryTree type="DecisionTree" boostWeight="1.0000000000000000e+00" itree="876">
      <Node pos="s" depth="0" NCoef="0" IVar="6" Cut="5.1244227215647697e-03" cType="1" res="-2.6113237254321575e-03" rms="4.5302623510360718e-01" purity="4.9875462055206299e-01" nType="0">
        <Node pos="l" depth="1" NCoef="0" IVar="0" Cut="1.0493720769882202e+00" cType="1" res="-2.6007503271102905e-02" rms="4.5492672920227051e-01" purity="5.8415788412094116e-01" nType="0">
          <Node pos="l" depth="2" NCoef="0" IVar="-1" Cut="0.0000000000000000e+00" cType="1" res="-2.5520655326545238e-03" rms="4.5397520065307617e-01" purity="6.6245710849761963e-01" nType="-99"/>
          <Node pos="r" depth="2" NCoef="0" IVar="-1" Cut="0.0000000000000000e+00" cType="1" res="2.0126102026551962e-04" rms="4.5355588197708130e-01" purity="5.0703483819961548e-01" nType="-99"/>
        </Node>
        <Node pos="r" depth="1" NCoef="0" IVar="8" Cut="5.7418274879455566e-01" cType="1" res="4.2420020326972008e-03" rms="4.5223885774612427e-01" purity="4.7373789548873901e-01" nType="0">
          <Node pos="l" depth="2" NCoef="0" IVar="-1" Cut="0.0000000000000000e+00" cType="1" res="-1.6167129797395319e-04" rms="4.5034566521644592e-01" purity="4.2019736766815186e-01" nType="-99"/>
          <Node pos="r" depth="2" NCoef="0" IVar="-1" Cut="0.0000000000000000e+00" cType="1" res="8.5463776485994458e-04" rms="4.5545932650566101e-01" purity="5.8298218250274658e-01" nType="-99"/>
        </Node>
      </Node>
    </BinaryTree>
    <BinaryTree type="DecisionTree" boostWeight="1.0000000000000000e+00" itree="877">
      <Node pos="s" depth="0" NCoef="0" IVar="2" Cut="9.6909689903259277e-01" cType="1" res="-6.8149948492646217e-03" rms="4.5237454771995544e-01" purity="4.9183428287506104e-01" nType="0">
        <Node pos="l" depth="1" NCoef="0" IVar="8" Cut="6.5161359310150146e-01" cType="1" res="-4.1475882753729820e-03" rms="4.5238599181175232e-01" purity="4.8347604274749756e-01" nType="0">
          <Node pos="l" depth="2" NCoef="0" IVar="-1" Cut="0.0000000000000000e+00" cType="1" res="-2.3052000324241817e-04" rms="4.5242059230804443e-01" purity="4.6823957562446594e-01" nType="-99"/>
          <Node pos="r" depth="2" NCoef="0" IVar="-1" Cut="0.0000000000000000e+00" cType="1" res="1.3952612644061446e-03" rms="4.5029091835021973e-01" purity="6.6717624664306641e-01" nType="-99"/>
        </Node>
        <Node pos="r" depth="1" NCoef="0" IVar="-1" Cut="0.0000000000000000e+00" cType="1" res="-1.5078730648383498e-03" rms="4.5084589719772339e-01" purity="5.9845912456512451e-01" nType="-99"/>
      </Node>
    </BinaryTree>
    <BinaryTree type="DecisionTree" boostWeight="1.0000000000000000e+00" itree="878">
      <Node pos="s" depth="0" NCoef="0" IVar="5" Cut="4.7784164547920227e-01" cType="1" res="-6.0420427471399307e-03" rms="4.5408603549003601e-01" purity="4.9465540051460266e-01" nType="0">
        <Node pos="l" depth="1" NCoef="0" IVar="-1" Cut="0.0000000000000000e+00" cType="1" res="1.2933440739288926e-03" rms="4.4721937179565430e-01" purity="6.8800330162048340e-01" nType="-99"/>
        <Node pos="r" depth="1" NCoef="0" IVar="9" Cut="9.4835174083709717e-01" cType="1" res="-9.3317516148090363e-03" rms="4.5455133914947510e-01" purity="4.7733458876609802e-01" nType="0">
          <Node pos="l" depth="2" NCoef="0" IVar="-1" Cut="0.0000000000000000e+00" cType="1" res="8.7165251898113638e-05" rms="4.4984263181686401e-01" purity="4.0316411852836609e-01" nType="-99"/>
          <Node pos="r" depth="2" NCoef="0" IVar="-1" Cut="0.0000000000000000e+00" cType="1" res="-5.5480527225881815e-04" rms="4.5722046494483948e-01" purity="5.2221637964248657e-01" nType="-99"/>
        </Node>
      </Node>
    </BinaryTree>
    <BinaryTree type="DecisionTree" boostWeight="1.0000000000000000e+00" itree="879">
      <Node pos="s" depth="0" NCoef="0" IVar="0" Cut="6.3464367389678955e-01" cType="1" res="7.2672823444008827e-03" rms="4.4924777746200562e-01" purity="5.0688737630844116e-01" nType="0">
        <Node pos="l" depth="1" NCoef="0" IVar="-1" Cut="0.0000000000000000e+00" cType="1" res="-1.5452713705599308e-03" rms="4.6032685041427612e-01" purity="6.5392976999282837e-01" nType="-99"/>
        <Node pos="r" depth="1" NCoef="0" IVar="5" Cut="5.3763341903686523e-01" cType="1" res="1.1411798186600208e-02" rms="4.4798225164413452e-01" purity="4.9327805638313293e-01" nType="0">
          <Node pos="l" depth="2" NCoef="0" IVar="-1" Cut="0.0000000000000000e+00" cType="1" res="2.4804025888442993e-03" rms="4.3229714035987854e-01" purity="6.9266706705093384e-01" nType="-99"/>
          <Node pos="r" depth="2" NCoef="0" IVar="-1" Cut="0.0000000000000000e+00" cType="1" res="2.2866801009513438e-04" rms="4.4911867380142212e-01" purity="4.7524160146713257e-01" nType="-99"/>
        </Node>
      </Node>
    </BinaryTree>
    <BinaryTree type="DecisionTree" boostWeight="1.0000000000000000e+00" itree="880">
      <Node pos="s" depth="0" NCoef="0" IVar="1" Cut="2.6508241891860962e-01" cType="1" res="-1.3680662959814072e-03" rms="4.5296883583068848e-01" purity="4.9957424402236938e-01" nType="0">
        <Node pos="l" depth="1" NCoef="0" IVar="-1" Cut="0.0000000000000000e+00" cType="1" res="1.8899261485785246e-03" rms="4.3035942316055298e-01" purity="6.7431223392486572e-01" nType="-99"/>
        <Node pos="r" depth="1" NCoef="0" IVar="6" Cut="5.1509435288608074e-03" cType="1" res="-5.5816057138144970e-03" rms="4.5468798279762268e-01" purity="4.8402127623558044e-01" nType="0">
          <Node pos="l" depth="2" NCoef="0" IVar="-1" Cut="0.0000000000000000e+00" cType="1" res="-1.0357062565162778e-03" rms="4.4969582557678223e-01" purity="5.6369698047637939e-01" nType="-99"/>
          <Node pos="r" depth="2" NCoef="0" IVar="-1" Cut="0.0000000000000000e+00" cType="1" res="3.2194755476666614e-05" rms="4.5585247874259949e-01" purity="4.6178781986236572e-01" nType="-99"/>
        </Node>
      </Node>
    </BinaryTree>
    <BinaryTree type="DecisionTree" boostWeight="1.0000000000000000e+00" itree="881">
      <Node pos="s" depth="0" NCoef="0" IVar="3" Cut="8.2387718200683594e+01" cType="1" res="-5.5476231500506401e-03" rms="4.5456367731094360e-01" purity="4.9737000465393066e-01" nType="0">
        <Node pos="l" depth="1" NCoef="0" IVar="3" Cut="6.5006835937500000e+01" cType="1" res="-1.6629179939627647e-02" rms="4.5896860957145691e-01" purity="4.5643576979637146e-01" nType="0">
          <Node pos="l" depth="2" NCoef="0" IVar="-1" Cut="0.0000000000000000e+00" cType="1" res="-1.7841596854850650e-04" rms="4.5702466368675232e-01" purity="4.5527198910713196e-01" nType="-99"/>
          <Node pos="r" depth="2" NCoef="0" IVar="-1" Cut="0.0000000000000000e+00" cType="1" res="-1.2308995937928557e-03" rms="4.6229791641235352e-01" purity="4.5897445082664490e-01" nType="-99"/>
        </Node>
        <Node pos="r" depth="1" NCoef="0" IVar="2" Cut="7.7291345596313477e-01" cType="1" res="9.9838636815547943e-03" rms="4.4785583019256592e-01" purity="5.5474185943603516e-01" nType="0">
          <Node pos="l" depth="2" NCoef="0" IVar="-1" Cut="0.0000000000000000e+00" cType="1" res="-8.3580421051010489e-04" rms="4.4808864593505859e-01" purity="3.2417193055152893e-01" nType="-99"/>
          <Node pos="r" depth="2" NCoef="0" IVar="-1" Cut="0.0000000000000000e+00" cType="1" res="6.7469378700479865e-04" rms="4.4739288091659546e-01" purity="6.0164302587509155e-01" nType="-99"/>
        </Node>
      </Node>
    </BinaryTree>
    <BinaryTree type="DecisionTree" boostWeight="1.0000000000000000e+00" itree="882">
      <Node pos="s" depth="0" NCoef="0" IVar="0" Cut="1.6365941762924194e+00" cType="1" res="-4.8905164003372192e-03" rms="4.5076721906661987e-01" purity="4.9388754367828369e-01" nType="0">
        <Node pos="l" depth="1" NCoef="0" IVar="5" Cut="4.9530971050262451e-01" cType="1" res="-1.2946896022185683e-03" rms="4.5650529861450195e-01" purity="5.2247703075408936e-01" nType="0">
          <Node pos="l" depth="2" NCoef="0" IVar="-1" Cut="0.0000000000000000e+00" cType="1" res="-1.1828604619950056e-03" rms="4.6142438054084778e-01" purity="6.2033271789550781e-01" nType="-99"/>
          <Node pos="r" depth="2" NCoef="0" IVar="-1" Cut="0.0000000000000000e+00" cType="1" res="7.7857970609329641e-05" rms="4.5577761530876160e-01" purity="5.1082682609558105e-01" nType="-99"/>
        </Node>
        <Node pos="r" depth="1" NCoef="0" IVar="-1" Cut="0.0000000000000000e+00" cType="1" res="-1.1871830793097615e-03" rms="3.9010548591613770e-01" purity="2.2091697156429291e-01" nType="-99"/>
      </Node>
    </BinaryTree>
    <BinaryTree type="DecisionTree" boostWeight="1.0000000000000000e+00" itree="883">
      <Node pos="s" depth="0" NCoef="0" IVar="9" Cut="9.1953343152999878e-01" cType="1" res="1.4597612898796797e-03" rms="4.5353788137435913e-01" purity="5.0403338670730591e-01" nType="0">
        <Node pos="l" depth="1" NCoef="0" IVar="5" Cut="1.2446625232696533e+00" cType="1" res="1.9186912104487419e-02" rms="4.4852825999259949e-01" purity="4.0458214282989502e-01" nType="0">
          <Node pos="l" depth="2" NCoef="0" IVar="-1" Cut="0.0000000000000000e+00" cType="1" res="1.0851629776880145e-03" rms="4.7335639595985413e-01" purity="5.0536352396011353e-01" nType="-99"/>
          <Node pos="r" depth="2" NCoef="0" IVar="-1" Cut="0.0000000000000000e+00" cType="1" res="-3.3681141212582588e-04" rms="3.9717906713485718e-01" purity="2.1941544115543365e-01" nType="-99"/>
        </Node>
        <Node pos="r" depth="1" NCoef="0" IVar="5" Cut="1.2444920539855957e+00" cType="1" res="-5.0333808176219463e-03" rms="4.5518630743026733e-01" purity="5.4046064615249634e-01" nType="0">
          <Node pos="l" depth="2" NCoef="0" IVar="-1" Cut="0.0000000000000000e+00" cType="1" res="-4.4429153786040843e-04" rms="4.6101698279380798e-01" purity="6.2072938680648804e-01" nType="-99"/>
          <Node pos="r" depth="2" NCoef="0" IVar="-1" Cut="0.0000000000000000e+00" cType="1" res="3.6836470826528966e-04" rms="4.3991887569427490e-01" purity="3.4172791242599487e-01" nType="-99"/>
        </Node>
      </Node>
    </BinaryTree>
    <BinaryTree type="DecisionTree" boostWeight="1.0000000000000000e+00" itree="884">
      <Node pos="s" depth="0" NCoef="0" IVar="9" Cut="7.8801900148391724e-01" cType="1" res="-9.1851688921451569e-03" rms="4.5332980155944824e-01" purity="4.9350804090499878e-01" nType="0">
        <Node pos="l" depth="1" NCoef="0" IVar="-1" Cut="0.0000000000000000e+00" cType="1" res="-1.3075231108814478e-03" rms="4.1850870847702026e-01" purity="2.5255227088928223e-01" nType="-99"/>
        <Node pos="r" depth="1" NCoef="0" IVar="3" Cut="1.4673435974121094e+02" cType="1" res="-5.9269107878208160e-03" rms="4.5621803402900696e-01" purity="5.1537150144577026e-01" nType="0">
          <Node pos="l" depth="2" NCoef="0" IVar="-1" Cut="0.0000000000000000e+00" cType="1" res="-8.2072547229472548e-05" rms="4.5682653784751892e-01" purity="5.2770143747329712e-01" nType="-99"/>
          <Node pos="r" depth="2" NCoef="0" IVar="-1" Cut="0.0000000000000000e+00" cType="1" res="-1.4352733269333839e-03" rms="4.4633868336677551e-01" purity="3.6242902278900146e-01" nType="-99"/>
        </Node>
      </Node>
    </BinaryTree>
    <BinaryTree type="DecisionTree" boostWeight="1.0000000000000000e+00" itree="885">
      <Node pos="s" depth="0" NCoef="0" IVar="6" Cut="4.0018115192651749e-02" cType="1" res="-8.9155451860278845e-04" rms="4.5437464118003845e-01" purity="5.0169771909713745e-01" nType="0">
        <Node pos="l" depth="1" NCoef="0" IVar="6" Cut="1.6669727629050612e-03" cType="1" res="2.0543008577078581e-03" rms="4.5604762434959412e-01" purity="5.1400560140609741e-01" nType="0">
          <Node pos="l" depth="2" NCoef="0" IVar="-1" Cut="0.0000000000000000e+00" cType="1" res="-1.3209675671532750e-03" rms="4.4036000967025757e-01" purity="5.8069294691085815e-01" nType="-99"/>
          <Node pos="r" depth="2" NCoef="0" IVar="-1" Cut="0.0000000000000000e+00" cType="1" res="2.5282154092565179e-04" rms="4.5802330970764160e-01" purity="5.0428217649459839e-01" nType="-99"/>
        </Node>
        <Node pos="r" depth="1" NCoef="0" IVar="-1" Cut="0.0000000000000000e+00" cType="1" res="-1.1748813558369875e-03" rms="4.2868196964263916e-01" purity="3.3256778120994568e-01" nType="-99"/>
      </Node>
    </BinaryTree>
    <BinaryTree type="DecisionTree" boostWeight="1.0000000000000000e+00" itree="886">
      <Node pos="s" depth="0" NCoef="0" IVar="8" Cut="6.5026056766510010e-01" cType="1" res="-1.9895401783287525e-03" rms="4.5434609055519104e-01" purity="5.0012683868408203e-01" nType="0">
        <Node pos="l" depth="1" NCoef="0" IVar="9" Cut="9.1907668113708496e-01" cType="1" res="-6.5078893676400185e-03" rms="4.5761352777481079e-01" purity="4.7790756821632385e-01" nType="0">
          <Node pos="l" depth="2" NCoef="0" IVar="-1" Cut="0.0000000000000000e+00" cType="1" res="3.2232506782747805e-04" rms="4.4872072339057922e-01" purity="3.9448797702789307e-01" nType="-99"/>
          <Node pos="r" depth="2" NCoef="0" IVar="-1" Cut="0.0000000000000000e+00" cType="1" res="-4.4921593507751822e-04" rms="4.6117520332336426e-01" purity="5.1360613107681274e-01" nType="-99"/>
        </Node>
        <Node pos="r" depth="1" NCoef="0" IVar="1" Cut="1.0562543869018555e+00" cType="1" res="3.1455855816602707e-02" rms="4.2790645360946655e-01" purity="6.6459649801254272e-01" nType="0">
          <Node pos="l" depth="2" NCoef="0" IVar="-1" Cut="0.0000000000000000e+00" cType="1" res="4.0925957728177309e-04" rms="4.1577556729316711e-01" purity="7.1674472093582153e-01" nType="-99"/>
          <Node pos="r" depth="2" NCoef="0" IVar="-1" Cut="0.0000000000000000e+00" cType="1" res="2.1681622602045536e-03" rms="4.4045144319534302e-01" purity="6.0211777687072754e-01" nType="-99"/>
        </Node>
      </Node>
    </BinaryTree>
    <BinaryTree type="DecisionTree" boostWeight="1.0000000000000000e+00" itree="887">
      <Node pos="s" depth="0" NCoef="0" IVar="0" Cut="8.0406695604324341e-01" cType="1" res="-3.0569322407245636e-03" rms="4.5270687341690063e-01" purity="4.9877032637596130e-01" nType="0">
        <Node pos="l" depth="1" NCoef="0" IVar="6" Cut="8.4488429129123688e-03" cType="1" res="-2.3829922080039978e-02" rms="4.5749914646148682e-01" purity="6.4350855350494385e-01" nType="0">
          <Node pos="l" depth="2" NCoef="0" IVar="-1" Cut="0.0000000000000000e+00" cType="1" res="-2.6436150074005127e-03" rms="4.5054095983505249e-01" purity="6.8364828824996948e-01" nType="-99"/>
          <Node pos="r" depth="2" NCoef="0" IVar="-1" Cut="0.0000000000000000e+00" cType="1" res="-2.5052618002519011e-04" rms="4.6006146073341370e-01" purity="6.2313580513000488e-01" nType="-99"/>
        </Node>
        <Node pos="r" depth="1" NCoef="0" IVar="4" Cut="4.0003399658203125e+02" cType="1" res="2.2687667515128851e-03" rms="4.5131608843803406e-01" purity="4.6166285872459412e-01" nType="0">
          <Node pos="l" depth="2" NCoef="0" IVar="-1" Cut="0.0000000000000000e+00" cType="1" res="2.0822696387767792e-04" rms="4.5386466383934021e-01" purity="4.7963732481002808e-01" nType="-99"/>
          <Node pos="r" depth="2" NCoef="0" IVar="-1" Cut="0.0000000000000000e+00" cType="1" res="-1.1649213265627623e-03" rms="4.2349600791931152e-01" purity="2.8660908341407776e-01" nType="-99"/>
        </Node>
      </Node>
    </BinaryTree>
    <BinaryTree type="DecisionTree" boostWeight="1.0000000000000000e+00" itree="888">
      <Node pos="s" depth="0" NCoef="0" IVar="3" Cut="1.4193238830566406e+02" cType="1" res="3.7783219013363123e-03" rms="4.4977802038192749e-01" purity="5.0701880455017090e-01" nType="0">
        <Node pos="l" depth="1" NCoef="0" IVar="9" Cut="7.9390555620193481e-01" cType="1" res="7.0946989580988884e-03" rms="4.5080080628395081e-01" purity="5.1965576410293579e-01" nType="0">
          <Node pos="l" depth="2" NCoef="0" IVar="-1" Cut="0.0000000000000000e+00" cType="1" res="-8.6802773876115680e-04" rms="4.2614045739173889e-01" purity="2.8118339180946350e-01" nType="-99"/>
          <Node pos="r" depth="2" NCoef="0" IVar="-1" Cut="0.0000000000000000e+00" cType="1" res="3.6469925544224679e-04" rms="4.5298409461975098e-01" purity="5.4299211502075195e-01" nType="-99"/>
        </Node>
        <Node pos="r" depth="1" NCoef="0" IVar="-1" Cut="0.0000000000000000e+00" cType="1" res="-9.4091083155944943e-04" rms="4.3761628866195679e-01" purity="3.7658849358558655e-01" nType="-99"/>
      </Node>
    </BinaryTree>
    <BinaryTree type="DecisionTree" boostWeight="1.0000000000000000e+00" itree="889">
      <Node pos="s" depth="0" NCoef="0" IVar="4" Cut="9.9836463928222656e+01" cType="1" res="2.4292383750434965e-04" rms="4.5133429765701294e-01" purity="5.0183534622192383e-01" nType="0">
        <Node pos="l" depth="1" NCoef="0" IVar="3" Cut="7.9117507934570312e+01" cType="1" res="-2.2493708878755569e-02" rms="4.5857048034667969e-01" purity="4.4196376204490662e-01" nType="0">
          <Node pos="l" depth="2" NCoef="0" IVar="-1" Cut="0.0000000000000000e+00" cType="1" res="-2.3592116485815495e-04" rms="4.5616433024406433e-01" purity="4.3140512704849243e-01" nType="-99"/>
          <Node pos="r" depth="2" NCoef="0" IVar="-1" Cut="0.0000000000000000e+00" cType="1" res="-2.1547710057348013e-03" rms="4.6299207210540771e-01" purity="4.7518914937973022e-01" nType="-99"/>
        </Node>
        <Node pos="r" depth="1" NCoef="0" IVar="4" Cut="1.3904882812500000e+02" cType="1" res="7.4553163722157478e-03" rms="4.4877392053604126e-01" purity="5.2082747220993042e-01" nType="0">
          <Node pos="l" depth="2" NCoef="0" IVar="-1" Cut="0.0000000000000000e+00" cType="1" res="1.1308840475976467e-03" rms="4.4155216217041016e-01" purity="6.3617789745330811e-01" nType="-99"/>
          <Node pos="r" depth="2" NCoef="0" IVar="-1" Cut="0.0000000000000000e+00" cType="1" res="-9.0011817519553006e-05" rms="4.5182293653488159e-01" purity="4.6570178866386414e-01" nType="-99"/>
        </Node>
      </Node>
    </BinaryTree>
    <BinaryTree type="DecisionTree" boostWeight="1.0000000000000000e+00" itree="890">
      <Node pos="s" depth="0" NCoef="0" IVar="0" Cut="8.5243964195251465e-01" cType="1" res="-6.6453282488510013e-04" rms="4.5402431488037109e-01" purity="5.0488513708114624e-01" nType="0">
        <Node pos="l" depth="1" NCoef="0" IVar="6" Cut="4.8283501528203487e-03" cType="1" res="-1.5107890591025352e-02" rms="4.5681133866310120e-01" purity="6.4441335201263428e-01" nType="0">
          <Node pos="l" depth="2" NCoef="0" IVar="-1" Cut="0.0000000000000000e+00" cType="1" res="1.3222956331446767e-03" rms="4.0754783153533936e-01" purity="7.7075636386871338e-01" nType="-99"/>
          <Node pos="r" depth="2" NCoef="0" IVar="-1" Cut="0.0000000000000000e+00" cType="1" res="-9.4985286705195904e-04" rms="4.6964296698570251e-01" purity="6.0738682746887207e-01" nType="-99"/>
        </Node>
        <Node pos="r" depth="1" NCoef="0" IVar="1" Cut="3.0081513524055481e-01" cType="1" res="4.1826339438557625e-03" rms="4.5298197865486145e-01" purity="4.5805969834327698e-01" nType="0">
          <Node pos="l" depth="2" NCoef="0" IVar="-1" Cut="0.0000000000000000e+00" cType="1" res="1.7785115633159876e-03" rms="4.4601750373840332e-01" purity="6.3588261604309082e-01" nType="-99"/>
          <Node pos="r" depth="2" NCoef="0" IVar="-1" Cut="0.0000000000000000e+00" cType="1" res="2.9931181416031905e-05" rms="4.5335170626640320e-01" purity="4.4439432024955750e-01" nType="-99"/>
        </Node>
      </Node>
    </BinaryTree>
    <BinaryTree type="DecisionTree" boostWeight="1.0000000000000000e+00" itree="891">
      <Node pos="s" depth="0" NCoef="0" IVar="6" Cut="2.0602568984031677e-02" cType="1" res="-3.4087495878338814e-03" rms="4.5436915755271912e-01" purity="5.0039547681808472e-01" nType="0">
        <Node pos="l" depth="1" NCoef="0" IVar="6" Cut="1.2445908039808273e-02" cType="1" res="-1.2558754533529282e-02" rms="4.5186111330986023e-01" purity="5.4082155227661133e-01" nType="0">
          <Node pos="l" depth="2" NCoef="0" IVar="-1" Cut="0.0000000000000000e+00" cType="1" res="-4.9352664063917473e-05" rms="4.4781014323234558e-01" purity="5.7858413457870483e-01" nType="-99"/>
          <Node pos="r" depth="2" NCoef="0" IVar="-1" Cut="0.0000000000000000e+00" cType="1" res="-1.1071743210777640e-03" rms="4.5927292108535767e-01" purity="4.6260017156600952e-01" nType="-99"/>
        </Node>
        <Node pos="r" depth="1" NCoef="0" IVar="3" Cut="1.1800050354003906e+02" cType="1" res="8.5888039320707321e-03" rms="4.5735964179039001e-01" purity="4.4738852977752686e-01" nType="0">
          <Node pos="l" depth="2" NCoef="0" IVar="-1" Cut="0.0000000000000000e+00" cType="1" res="5.6074693566188216e-04" rms="4.6096602082252502e-01" purity="4.5614951848983765e-01" nType="-99"/>
          <Node pos="r" depth="2" NCoef="0" IVar="-1" Cut="0.0000000000000000e+00" cType="1" res="-8.3623093087226152e-04" rms="4.4104459881782532e-01" purity="4.1286706924438477e-01" nType="-99"/>
        </Node>
      </Node>
    </BinaryTree>
    <BinaryTree type="DecisionTree" boostWeight="1.0000000000000000e+00" itree="892">
      <Node pos="s" depth="0" NCoef="0" IVar="7" Cut="8.6197876930236816e-01" cType="1" res="-8.8401761604472995e-04" rms="4.5290511846542358e-01" purity="5.0297224521636963e-01" nType="0">
        <Node pos="l" depth="1" NCoef="0" IVar="6" Cut="2.0769173279404640e-02" cType="1" res="-5.9713292866945267e-03" rms="4.5603582262992859e-01" purity="4.7246351838111877e-01" nType="0">
          <Node pos="l" depth="2" NCoef="0" IVar="-1" Cut="0.0000000000000000e+00" cType="1" res="-5.9541495284065604e-04" rms="4.5931571722030640e-01" purity="5.0869113206863403e-01" nType="-99"/>
          <Node pos="r" depth="2" NCoef="0" IVar="-1" Cut="0.0000000000000000e+00" cType="1" res="1.8833579088095576e-04" rms="4.5249444246292114e-01" purity="4.3714231252670288e-01" nType="-99"/>
        </Node>
        <Node pos="r" depth="1" NCoef="0" IVar="6" Cut="8.8952411897480488e-04" cType="1" res="2.4348771199584007e-02" rms="4.3616965413093567e-01" purity="6.5429407358169556e-01" nType="0">
          <Node pos="l" depth="2" NCoef="0" IVar="-1" Cut="0.0000000000000000e+00" cType="1" res="8.8319015048909932e-05" rms="4.4522088766098022e-01" purity="6.5085148811340332e-01" nType="-99"/>
          <Node pos="r" depth="2" NCoef="0" IVar="-1" Cut="0.0000000000000000e+00" cType="1" res="1.7535673687234521e-03" rms="4.2751020193099976e-01" purity="6.5719282627105713e-01" nType="-99"/>
        </Node>
      </Node>
    </BinaryTree>
    <BinaryTree type="DecisionTree" boostWeight="1.0000000000000000e+00" itree="893">
      <Node pos="s" depth="0" NCoef="0" IVar="4" Cut="2.0818420410156250e+02" cType="1" res="-9.3451904831454158e-04" rms="4.5150610804557800e-01" purity="4.9870240688323975e-01" nType="0">
        <Node pos="l" depth="1" NCoef="0" IVar="3" Cut="3.7439327239990234e+01" cType="1" res="7.7361240983009338e-03" rms="4.5244306325912476e-01" purity="5.3899997472763062e-01" nType="0">
          <Node pos="l" depth="2" NCoef="0" IVar="-1" Cut="0.0000000000000000e+00" cType="1" res="-7.4967136606574059e-04" rms="4.4554126262664795e-01" purity="3.8122630119323730e-01" nType="-99"/>
          <Node pos="r" depth="2" NCoef="0" IVar="-1" Cut="0.0000000000000000e+00" cType="1" res="4.1916818008758128e-04" rms="4.5311987400054932e-01" purity="5.5859774351119995e-01" nType="-99"/>
        </Node>
        <Node pos="r" depth="1" NCoef="0" IVar="8" Cut="5.3114485740661621e-01" cType="1" res="-2.0214395597577095e-02" rms="4.4881570339202881e-01" purity="4.0909743309020996e-01" nType="0">
          <Node pos="l" depth="2" NCoef="0" IVar="-1" Cut="0.0000000000000000e+00" cType="1" res="1.7254738486371934e-04" rms="4.4509226083755493e-01" purity="3.6771142482757568e-01" nType="-99"/>
          <Node pos="r" depth="2" NCoef="0" IVar="-1" Cut="0.0000000000000000e+00" cType="1" res="-1.2035088147968054e-03" rms="4.5058056712150574e-01" purity="4.3934017419815063e-01" nType="-99"/>
        </Node>
      </Node>
    </BinaryTree>
    <BinaryTree type="DecisionTree" boostWeight="1.0000000000000000e+00" itree="894">
      <Node pos="s" depth="0" NCoef="0" IVar="5" Cut="1.5241752862930298e+00" cType="1" res="-1.6185945132747293e-03" rms="4.5737847685813904e-01" purity="5.0354230403900146e-01" nType="0">
        <Node pos="l" depth="1" NCoef="0" IVar="6" Cut="2.4527272209525108e-02" cType="1" res="-6.2314542010426521e-03" rms="4.6422499418258667e-01" purity="5.4594981670379639e-01" nType="0">
          <Node pos="l" depth="2" NCoef="0" IVar="-1" Cut="0.0000000000000000e+00" cType="1" res="-4.7389173414558172e-04" rms="4.6182653307914734e-01" purity="5.7835644483566284e-01" nType="-99"/>
          <Node pos="r" depth="2" NCoef="0" IVar="-1" Cut="0.0000000000000000e+00" cType="1" res="2.3549412435386330e-04" rms="4.6839821338653564e-01" purity="4.8476415872573853e-01" nType="-99"/>
        </Node>
        <Node pos="r" depth="1" NCoef="0" IVar="5" Cut="1.7402511835098267e+00" cType="1" res="2.5505898520350456e-02" rms="4.1380125284194946e-01" purity="2.5417810678482056e-01" nType="0">
          <Node pos="l" depth="2" NCoef="0" IVar="-1" Cut="0.0000000000000000e+00" cType="1" res="1.6009565442800522e-03" rms="4.4735741615295410e-01" purity="3.2883238792419434e-01" nType="-99"/>
          <Node pos="r" depth="2" NCoef="0" IVar="-1" Cut="0.0000000000000000e+00" cType="1" res="7.1425049100071192e-05" rms="3.7947243452072144e-01" purity="1.8682526051998138e-01" nType="-99"/>
        </Node>
      </Node>
    </BinaryTree>
    <BinaryTree type="DecisionTree" boostWeight="1.0000000000000000e+00" itree="895">
      <Node pos="s" depth="0" NCoef="0" IVar="2" Cut="8.6759740114212036e-01" cType="1" res="1.0667812312021852e-03" rms="4.5197120308876038e-01" purity="5.0211572647094727e-01" nType="0">
        <Node pos="l" depth="1" NCoef="0" IVar="1" Cut="4.8423564434051514e-01" cType="1" res="1.0766349732875824e-02" rms="4.5615231990814209e-01" purity="4.2956784367561340e-01" nType="0">
          <Node pos="l" depth="2" NCoef="0" IVar="-1" Cut="0.0000000000000000e+00" cType="1" res="-4.7196654486469924e-04" rms="4.6556064486503601e-01" purity="5.0948745012283325e-01" nType="-99"/>
          <Node pos="r" depth="2" NCoef="0" IVar="-1" Cut="0.0000000000000000e+00" cType="1" res="5.4543587611988187e-04" rms="4.5333629846572876e-01" purity="4.0809556841850281e-01" nType="-99"/>
        </Node>
        <Node pos="r" depth="1" NCoef="0" IVar="1" Cut="1.3427125215530396e+00" cType="1" res="-9.4762677326798439e-03" rms="4.4714358448982239e-01" purity="5.8097243309020996e-01" nType="0">
          <Node pos="l" depth="2" NCoef="0" IVar="-1" Cut="0.0000000000000000e+00" cType="1" res="4.5494194637285545e-05" rms="4.4211855530738831e-01" purity="6.4965206384658813e-01" nType="-99"/>
          <Node pos="r" depth="2" NCoef="0" IVar="-1" Cut="0.0000000000000000e+00" cType="1" res="-9.4905035803094506e-04" rms="4.5682328939437866e-01" purity="4.3499171733856201e-01" nType="-99"/>
        </Node>
      </Node>
    </BinaryTree>
    <BinaryTree type="DecisionTree" boostWeight="1.0000000000000000e+00" itree="896">
      <Node pos="s" depth="0" NCoef="0" IVar="9" Cut="9.4825035333633423e-01" cType="1" res="4.4087106361985207e-03" rms="4.5177251100540161e-01" purity="5.0424695014953613e-01" nType="0">
        <Node pos="l" depth="1" NCoef="0" IVar="0" Cut="9.0924757719039917e-01" cType="1" res="1.6541723161935806e-02" rms="4.5540982484817505e-01" purity="4.3188759684562683e-01" nType="0">
          <Node pos="l" depth="2" NCoef="0" IVar="-1" Cut="0.0000000000000000e+00" cType="1" res="-2.8183005633763969e-04" rms="4.7332075238227844e-01" purity="5.5341827869415283e-01" nType="-99"/>
          <Node pos="r" depth="2" NCoef="0" IVar="-1" Cut="0.0000000000000000e+00" cType="1" res="8.3427381468936801e-04" rms="4.4778770208358765e-01" purity="3.8416308164596558e-01" nType="-99"/>
        </Node>
        <Node pos="r" depth="1" NCoef="0" IVar="2" Cut="8.3336317539215088e-01" cType="1" res="-2.7881821151822805e-03" rms="4.4944632053375244e-01" purity="5.4716807603836060e-01" nType="0">
          <Node pos="l" depth="2" NCoef="0" IVar="-1" Cut="0.0000000000000000e+00" cType="1" res="-9.4892649212852120e-04" rms="4.5356428623199463e-01" purity="3.8077947497367859e-01" nType="-99"/>
          <Node pos="r" depth="2" NCoef="0" IVar="-1" Cut="0.0000000000000000e+00" cType="1" res="1.2649703421629965e-04" rms="4.4833555817604065e-01" purity="5.8139353990554810e-01" nType="-99"/>
        </Node>
      </Node>
    </BinaryTree>
    <BinaryTree type="DecisionTree" boostWeight="1.0000000000000000e+00" itree="897">
      <Node pos="s" depth="0" NCoef="0" IVar="5" Cut="9.4426757097244263e-01" cType="1" res="2.7910920325666666e-03" rms="4.4988405704498291e-01" purity="5.0255751609802246e-01" nType="0">
        <Node pos="l" depth="1" NCoef="0" IVar="6" Cut="7.3699569329619408e-03" cType="1" res="1.6020350158214569e-02" rms="4.5168486237525940e-01" purity="6.4526522159576416e-01" nType="0">
          <Node pos="l" depth="2" NCoef="0" IVar="-1" Cut="0.0000000000000000e+00" cType="1" res="-2.4062050215434283e-04" rms="4.3043917417526245e-01" purity="7.0511567592620850e-01" nType="-99"/>
          <Node pos="r" depth="2" NCoef="0" IVar="-1" Cut="0.0000000000000000e+00" cType="1" res="9.0198096586391330e-04" rms="4.6013325452804565e-01" purity="6.1978042125701904e-01" nType="-99"/>
        </Node>
        <Node pos="r" depth="1" NCoef="0" IVar="5" Cut="1.0202833414077759e+00" cType="1" res="-7.9481657594442368e-03" rms="4.4812977313995361e-01" purity="3.8671013712882996e-01" nType="0">
          <Node pos="l" depth="2" NCoef="0" IVar="-1" Cut="0.0000000000000000e+00" cType="1" res="-1.7669029766693711e-03" rms="4.8788693547248840e-01" purity="5.1587837934494019e-01" nType="-99"/>
          <Node pos="r" depth="2" NCoef="0" IVar="-1" Cut="0.0000000000000000e+00" cType="1" res="-3.8616264646407217e-05" rms="4.4206357002258301e-01" purity="3.6926373839378357e-01" nType="-99"/>
        </Node>
      </Node>
    </BinaryTree>
    <BinaryTree type="DecisionTree" boostWeight="1.0000000000000000e+00" itree="898">
      <Node pos="s" depth="0" NCoef="0" IVar="7" Cut="8.3044624328613281e-01" cType="1" res="-9.3531571328639984e-03" rms="4.5107877254486084e-01" purity="4.8617553710937500e-01" nType="0">
        <Node pos="l" depth="1" NCoef="0" IVar="7" Cut="7.6737284660339355e-01" cType="1" res="-1.5838410705327988e-02" rms="4.5294061303138733e-01" purity="4.5032805204391479e-01" nType="0">
          <Node pos="l" depth="2" NCoef="0" IVar="-1" Cut="0.0000000000000000e+00" cType="1" res="-3.1732718343846500e-04" rms="4.5039123296737671e-01" purity="4.3915057182312012e-01" nType="-99"/>
          <Node pos="r" depth="2" NCoef="0" IVar="-1" Cut="0.0000000000000000e+00" cType="1" res="-1.8695152830332518e-03" rms="4.6880200505256653e-01" purity="5.3022927045822144e-01" nType="-99"/>
        </Node>
        <Node pos="r" depth="1" NCoef="0" IVar="6" Cut="1.8861076096072793e-03" cType="1" res="1.6882251948118210e-02" rms="4.4249829649925232e-01" purity="6.3119298219680786e-01" nType="0">
          <Node pos="l" depth="2" NCoef="0" IVar="-1" Cut="0.0000000000000000e+00" cType="1" res="-2.9976206133142114e-04" rms="4.3681710958480835e-01" purity="6.1086106300354004e-01" nType="-99"/>
          <Node pos="r" depth="2" NCoef="0" IVar="-1" Cut="0.0000000000000000e+00" cType="1" res="1.9962191581726074e-03" rms="4.4783115386962891e-01" purity="6.5813082456588745e-01" nType="-99"/>
        </Node>
      </Node>
    </BinaryTree>
    <BinaryTree type="DecisionTree" boostWeight="1.0000000000000000e+00" itree="899">
      <Node pos="s" depth="0" NCoef="0" IVar="3" Cut="1.0356473541259766e+02" cType="1" res="5.6119719520211220e-03" rms="4.5065751671791077e-01" purity="5.0612986087799072e-01" nType="0">
        <Node pos="l" depth="1" NCoef="0" IVar="4" Cut="1.2108629608154297e+02" cType="1" res="-1.4585744356736541e-03" rms="4.5626580715179443e-01" purity="4.8680555820465088e-01" nType="0">
          <Node pos="l" depth="2" NCoef="0" IVar="-1" Cut="0.0000000000000000e+00" cType="1" res="4.4593180064111948e-04" rms="4.5697322487831116e-01" purity="5.1103603839874268e-01" nType="-99"/>
          <Node pos="r" depth="2" NCoef="0" IVar="-1" Cut="0.0000000000000000e+00" cType="1" res="-4.1379811591468751e-04" rms="4.5536994934082031e-01" purity="4.6781915426254272e-01" nType="-99"/>
        </Node>
        <Node pos="r" depth="1" NCoef="0" IVar="8" Cut="4.7872048616409302e-01" cType="1" res="2.4288404732942581e-02" rms="4.3494385480880737e-01" purity="5.5717378854751587e-01" nType="0">
          <Node pos="l" depth="2" NCoef="0" IVar="-1" Cut="0.0000000000000000e+00" cType="1" res="-5.7805853430181742e-04" rms="4.5523351430892944e-01" purity="4.1120558977127075e-01" nType="-99"/>
          <Node pos="r" depth="2" NCoef="0" IVar="-1" Cut="0.0000000000000000e+00" cType="1" res="1.4959527179598808e-03" rms="4.2750743031501770e-01" purity="6.0284674167633057e-01" nType="-99"/>
        </Node>
      </Node>
    </BinaryTree>
    <BinaryTree type="DecisionTree" boostWeight="1.0000000000000000e+00" itree="900">
      <Node pos="s" depth="0" NCoef="0" IVar="0" Cut="1.4481549263000488e+00" cType="1" res="3.2030583824962378e-03" rms="4.5325559377670288e-01" purity="5.0755822658538818e-01" nType="0">
        <Node pos="l" depth="1" NCoef="0" IVar="9" Cut="8.2482188940048218e-01" cType="1" res="8.7645063176751137e-03" rms="4.6071860194206238e-01" purity="5.5850785970687866e-01" nType="0">
          <Node pos="l" depth="2" NCoef="0" IVar="-1" Cut="0.0000000000000000e+00" cType="1" res="1.7150334315374494e-03" rms="4.6903476119041443e-01" purity="4.1895574331283569e-01" nType="-99"/>
          <Node pos="r" depth="2" NCoef="0" IVar="-1" Cut="0.0000000000000000e+00" cType="1" res="1.1074403300881386e-04" rms="4.5939558744430542e-01" purity="5.7526522874832153e-01" nType="-99"/>
        </Node>
        <Node pos="r" depth="1" NCoef="0" IVar="9" Cut="9.6890187263488770e-01" cType="1" res="-2.0728291943669319e-02" rms="4.1878822445869446e-01" purity="2.8831782937049866e-01" nType="0">
          <Node pos="l" depth="2" NCoef="0" IVar="-1" Cut="0.0000000000000000e+00" cType="1" res="-9.8099488241132349e-05" rms="4.0607166290283203e-01" purity="2.6299670338630676e-01" nType="-99"/>
          <Node pos="r" depth="2" NCoef="0" IVar="-1" Cut="0.0000000000000000e+00" cType="1" res="-1.1390998261049390e-03" rms="4.3148398399353027e-01" purity="3.1610113382339478e-01" nType="-99"/>
        </Node>
      </Node>
    </BinaryTree>
    <BinaryTree type="DecisionTree" boostWeight="1.0000000000000000e+00" itree="901">
      <Node pos="s" depth="0" NCoef="0" IVar="0" Cut="8.0691474676132202e-01" cType="1" res="3.4625551197677851e-03" rms="4.4968491792678833e-01" purity="5.0244724750518799e-01" nType="0">
        <Node pos="l" depth="1" NCoef="0" IVar="9" Cut="9.3126219511032104e-01" cType="1" res="2.4269273504614830e-02" rms="4.4056946039199829e-01" purity="6.9460189342498779e-01" nType="0">
          <Node pos="l" depth="2" NCoef="0" IVar="-1" Cut="0.0000000000000000e+00" cType="1" res="2.3236058186739683e-03" rms="4.5455527305603027e-01" purity="6.3583916425704956e-01" nType="-99"/>
          <Node pos="r" depth="2" NCoef="0" IVar="-1" Cut="0.0000000000000000e+00" cType="1" res="4.4847349636256695e-04" rms="4.3458721041679382e-01" purity="7.1544188261032104e-01" nType="-99"/>
        </Node>
        <Node pos="r" depth="1" NCoef="0" IVar="3" Cut="6.0966785430908203e+01" cType="1" res="-1.5719763468950987e-03" rms="4.5171895623207092e-01" purity="4.5595219731330872e-01" nType="0">
          <Node pos="l" depth="2" NCoef="0" IVar="-1" Cut="0.0000000000000000e+00" cType="1" res="-5.2032625535503030e-04" rms="4.5072981715202332e-01" purity="3.9492970705032349e-01" nType="-99"/>
          <Node pos="r" depth="2" NCoef="0" IVar="-1" Cut="0.0000000000000000e+00" cType="1" res="2.2723576694261283e-04" rms="4.5201966166496277e-01" purity="4.8868229985237122e-01" nType="-99"/>
        </Node>
      </Node>
    </BinaryTree>
    <BinaryTree type="DecisionTree" boostWeight="1.0000000000000000e+00" itree="902">
      <Node pos="s" depth="0" NCoef="0" IVar="3" Cut="8.9461868286132812e+01" cType="1" res="5.2862050943076611e-03" rms="4.5255264639854431e-01" purity="5.0612616539001465e-01" nType="0">
        <Node pos="l" depth="1" NCoef="0" IVar="9" Cut="8.8713669776916504e-01" cType="1" res="-4.6397401019930840e-03" rms="4.5877537131309509e-01" purity="4.7273027896881104e-01" nType="0">
          <Node pos="l" depth="2" NCoef="0" IVar="-1" Cut="0.0000000000000000e+00" cType="1" res="7.3538097785785794e-04" rms="4.5110499858856201e-01" purity="3.6401945352554321e-01" nType="-99"/>
          <Node pos="r" depth="2" NCoef="0" IVar="-1" Cut="0.0000000000000000e+00" cType="1" res="-3.5797533928416669e-04" rms="4.6027657389640808e-01" purity="4.9783581495285034e-01" nType="-99"/>
        </Node>
        <Node pos="r" depth="1" NCoef="0" IVar="3" Cut="1.5331837463378906e+02" cType="1" res="2.2534793242812157e-02" rms="4.4099956750869751e-01" purity="5.6415921449661255e-01" nType="0">
          <Node pos="l" depth="2" NCoef="0" IVar="-1" Cut="0.0000000000000000e+00" cType="1" res="1.1846241541206837e-03" rms="4.3816459178924561e-01" purity="6.0573756694793701e-01" nType="-99"/>
          <Node pos="r" depth="2" NCoef="0" IVar="-1" Cut="0.0000000000000000e+00" cType="1" res="-4.9936340656131506e-04" rms="4.5247989892959595e-01" purity="3.6288225650787354e-01" nType="-99"/>
        </Node>
      </Node>
    </BinaryTree>
    <BinaryTree type="DecisionTree" boostWeight="1.0000000000000000e+00" itree="903">
      <Node pos="s" depth="0" NCoef="0" IVar="1" Cut="1.9958140850067139e+00" cType="1" res="3.9878711104393005e-03" rms="4.5050859451293945e-01" purity="5.0256198644638062e-01" nType="0">
        <Node pos="l" depth="1" NCoef="0" IVar="2" Cut="7.4447667598724365e-01" cType="1" res="8.2240765914320946e-03" rms="4.5736396312713623e-01" purity="5.4319709539413452e-01" nType="0">
          <Node pos="l" depth="2" NCoef="0" IVar="-1" Cut="0.0000000000000000e+00" cType="1" res="-6.8914191797375679e-04" rms="4.4337156414985657e-01" purity="2.9616561532020569e-01" nType="-99"/>
          <Node pos="r" depth="2" NCoef="0" IVar="-1" Cut="0.0000000000000000e+00" cType="1" res="3.9808679139241576e-04" rms="4.5861339569091797e-01" purity="5.6794410943984985e-01" nType="-99"/>
        </Node>
        <Node pos="r" depth="1" NCoef="0" IVar="5" Cut="1.3117036819458008e+00" cType="1" res="-1.8443625420331955e-02" rms="4.1158670186996460e-01" purity="2.8739136457443237e-01" nType="0">
          <Node pos="l" depth="2" NCoef="0" IVar="-1" Cut="0.0000000000000000e+00" cType="1" res="1.4551913773175329e-04" rms="4.6698278188705444e-01" purity="4.5076900720596313e-01" nType="-99"/>
          <Node pos="r" depth="2" NCoef="0" IVar="-1" Cut="0.0000000000000000e+00" cType="1" res="-1.0477609466761351e-03" rms="3.7123855948448181e-01" purity="1.8327669799327850e-01" nType="-99"/>
        </Node>
      </Node>
    </BinaryTree>
    <BinaryTree type="DecisionTree" boostWeight="1.0000000000000000e+00" itree="904">
      <Node pos="s" depth="0" NCoef="0" IVar="3" Cut="5.6525718688964844e+01" cType="1" res="-1.2028474593535066e-03" rms="4.5156741142272949e-01" purity="4.9856662750244141e-01" nType="0">
        <Node pos="l" depth="1" NCoef="0" IVar="3" Cut="3.5663406372070312e+01" cType="1" res="-1.7424972727894783e-02" rms="4.5028820633888245e-01" purity="4.2763143777847290e-01" nType="0">
          <Node pos="l" depth="2" NCoef="0" IVar="-1" Cut="0.0000000000000000e+00" cType="1" res="-1.7197118140757084e-03" rms="4.3597781658172607e-01" purity="3.1496608257293701e-01" nType="-99"/>
          <Node pos="r" depth="2" NCoef="0" IVar="-1" Cut="0.0000000000000000e+00" cType="1" res="-8.2466765888966620e-05" rms="4.5397070050239563e-01" purity="4.6501392126083374e-01" nType="-99"/>
        </Node>
        <Node pos="r" depth="1" NCoef="0" IVar="6" Cut="3.0949831008911133e-02" cType="1" res="6.3562286086380482e-03" rms="4.5196342468261719e-01" purity="5.3162056207656860e-01" nType="0">
          <Node pos="l" depth="2" NCoef="0" IVar="-1" Cut="0.0000000000000000e+00" cType="1" res="3.1784798920853063e-05" rms="4.5185366272926331e-01" purity="5.4858779907226562e-01" nType="-99"/>
          <Node pos="r" depth="2" NCoef="0" IVar="-1" Cut="0.0000000000000000e+00" cType="1" res="8.7597995297983289e-04" rms="4.5178115367889404e-01" purity="4.6724316477775574e-01" nType="-99"/>
        </Node>
      </Node>
    </BinaryTree>
    <BinaryTree type="DecisionTree" boostWeight="1.0000000000000000e+00" itree="905">
      <Node pos="s" depth="0" NCoef="0" IVar="3" Cut="1.4213145446777344e+02" cType="1" res="-4.0664202533662319e-03" rms="4.4949913024902344e-01" purity="4.9399799108505249e-01" nType="0">
        <Node pos="l" depth="1" NCoef="0" IVar="3" Cut="3.6317359924316406e+01" cType="1" res="-5.3121236851438880e-04" rms="4.4998508691787720e-01" purity="5.0589770078659058e-01" nType="0">
          <Node pos="l" depth="2" NCoef="0" IVar="-1" Cut="0.0000000000000000e+00" cType="1" res="-1.3307211920619011e-03" rms="4.3514701724052429e-01" purity="3.3128431439399719e-01" nType="-99"/>
          <Node pos="r" depth="2" NCoef="0" IVar="-1" Cut="0.0000000000000000e+00" cType="1" res="1.4584853488486260e-04" rms="4.5120638608932495e-01" purity="5.2386111021041870e-01" nType="-99"/>
        </Node>
        <Node pos="r" depth="1" NCoef="0" IVar="-1" Cut="0.0000000000000000e+00" cType="1" res="-1.2384995352476835e-03" rms="4.4278156757354736e-01" purity="3.7080761790275574e-01" nType="-99"/>
      </Node>
    </BinaryTree>
    <BinaryTree type="DecisionTree" boostWeight="1.0000000000000000e+00" itree="906">
      <Node pos="s" depth="0" NCoef="0" IVar="5" Cut="4.1145893931388855e-01" cType="1" res="2.0603619050234556e-03" rms="4.5368987321853638e-01" purity="5.0838875770568848e-01" nType="0">
        <Node pos="l" depth="1" NCoef="0" IVar="-1" Cut="0.0000000000000000e+00" cType="1" res="-1.8709502182900906e-03" rms="4.6586224436759949e-01" purity="6.0395473241806030e-01" nType="-99"/>
        <Node pos="r" depth="1" NCoef="0" IVar="6" Cut="1.6781898215413094e-02" cType="1" res="5.6914840824902058e-03" rms="4.5262622833251953e-01" purity="5.0193876028060913e-01" nType="0">
          <Node pos="l" depth="2" NCoef="0" IVar="-1" Cut="0.0000000000000000e+00" cType="1" res="-1.7244476475752890e-04" rms="4.5133981108665466e-01" purity="5.5275613069534302e-01" nType="-99"/>
          <Node pos="r" depth="2" NCoef="0" IVar="-1" Cut="0.0000000000000000e+00" cType="1" res="4.9634760944172740e-04" rms="4.5361319184303284e-01" purity="4.5378664135932922e-01" nType="-99"/>
        </Node>
      </Node>
    </BinaryTree>
    <BinaryTree type="DecisionTree" boostWeight="1.0000000000000000e+00" itree="907">
      <Node pos="s" depth="0" NCoef="0" IVar="6" Cut="5.1637212745845318e-03" cType="1" res="-4.0021543391048908e-03" rms="4.5240229368209839e-01" purity="4.9857023358345032e-01" nType="0">
        <Node pos="l" depth="1" NCoef="0" IVar="4" Cut="1.2741822052001953e+02" cType="1" res="-2.5352593511343002e-02" rms="4.5075243711471558e-01" purity="5.8473682403564453e-01" nType="0">
          <Node pos="l" depth="2" NCoef="0" IVar="-1" Cut="0.0000000000000000e+00" cType="1" res="-3.6147084756521508e-05" rms="4.4324141740798950e-01" purity="6.2666869163513184e-01" nType="-99"/>
          <Node pos="r" depth="2" NCoef="0" IVar="-1" Cut="0.0000000000000000e+00" cType="1" res="-1.4941478148102760e-03" rms="4.5539149641990662e-01" purity="5.5367732048034668e-01" nType="-99"/>
        </Node>
        <Node pos="r" depth="1" NCoef="0" IVar="6" Cut="3.5931386053562164e-02" cType="1" res="2.1860294509679079e-03" rms="4.5269116759300232e-01" purity="4.7359579801559448e-01" nType="0">
          <Node pos="l" depth="2" NCoef="0" IVar="-1" Cut="0.0000000000000000e+00" cType="1" res="2.4226889945566654e-04" rms="4.5338779687881470e-01" purity="4.8963952064514160e-01" nType="-99"/>
          <Node pos="r" depth="2" NCoef="0" IVar="-1" Cut="0.0000000000000000e+00" cType="1" res="-7.3783681727945805e-04" rms="4.4795998930931091e-01" purity="3.8818466663360596e-01" nType="-99"/>
        </Node>
      </Node>
    </BinaryTree>
    <BinaryTree type="DecisionTree" boostWeight="1.0000000000000000e+00" itree="908">
      <Node pos="s" depth="0" NCoef="0" IVar="9" Cut="8.5563868284225464e-01" cType="1" res="1.9751980435103178e-03" rms="4.5153859257698059e-01" purity="5.0442737340927124e-01" nType="0">
        <Node pos="l" depth="1" NCoef="0" IVar="7" Cut="5.7202309370040894e-01" cType="1" res="-2.8602305799722672e-02" rms="4.2750179767608643e-01" purity="3.0904743075370789e-01" nType="0">
          <Node pos="l" depth="2" NCoef="0" IVar="-1" Cut="0.0000000000000000e+00" cType="1" res="-1.5912454109638929e-03" rms="4.0794777870178223e-01" purity="2.4439752101898193e-01" nType="-99"/>
          <Node pos="r" depth="2" NCoef="0" IVar="-1" Cut="0.0000000000000000e+00" cType="1" res="1.7187124467454851e-04" rms="4.4854643940925598e-01" purity="3.9033174514770508e-01" nType="-99"/>
        </Node>
        <Node pos="r" depth="1" NCoef="0" IVar="8" Cut="4.5318758487701416e-01" cType="1" res="7.8247673809528351e-03" rms="4.5575883984565735e-01" purity="5.4180419445037842e-01" nType="0">
          <Node pos="l" depth="2" NCoef="0" IVar="-1" Cut="0.0000000000000000e+00" cType="1" res="2.5115055032074451e-03" rms="4.5949673652648926e-01" purity="5.3302109241485596e-01" nType="-99"/>
          <Node pos="r" depth="2" NCoef="0" IVar="-1" Cut="0.0000000000000000e+00" cType="1" res="7.7095806773286313e-05" rms="4.5500406622886658e-01" purity="5.4256725311279297e-01" nType="-99"/>
        </Node>
      </Node>
    </BinaryTree>
    <BinaryTree type="DecisionTree" boostWeight="1.0000000000000000e+00" itree="909">
      <Node pos="s" depth="0" NCoef="0" IVar="9" Cut="9.4957250356674194e-01" cType="1" res="-4.5734900049865246e-03" rms="4.5605501532554626e-01" purity="4.9713754653930664e-01" nType="0">
        <Node pos="l" depth="1" NCoef="0" IVar="0" Cut="7.6127946376800537e-01" cType="1" res="1.0604382492601871e-02" rms="4.5419555902481079e-01" purity="4.2924830317497253e-01" nType="0">
          <Node pos="l" depth="2" NCoef="0" IVar="-1" Cut="0.0000000000000000e+00" cType="1" res="1.6404234338551760e-03" rms="4.6594315767288208e-01" purity="6.4228546619415283e-01" nType="-99"/>
          <Node pos="r" depth="2" NCoef="0" IVar="-1" Cut="0.0000000000000000e+00" cType="1" res="1.3953020970802754e-04" rms="4.5183479785919189e-01" purity="3.9190939068794250e-01" nType="-99"/>
        </Node>
        <Node pos="r" depth="1" NCoef="0" IVar="5" Cut="1.1150230169296265e+00" cType="1" res="-1.3527221977710724e-02" rms="4.5691204071044922e-01" purity="5.3718674182891846e-01" nType="0">
          <Node pos="l" depth="2" NCoef="0" IVar="-1" Cut="0.0000000000000000e+00" cType="1" res="-9.4822974642738700e-04" rms="4.6146872639656067e-01" purity="6.2968826293945312e-01" nType="-99"/>
          <Node pos="r" depth="2" NCoef="0" IVar="-1" Cut="0.0000000000000000e+00" cType="1" res="1.5511384117417037e-04" rms="4.4884487986564636e-01" purity="3.8838234543800354e-01" nType="-99"/>
        </Node>
      </Node>
    </BinaryTree>
    <BinaryTree type="DecisionTree" boostWeight="1.0000000000000000e+00" itree="910">
      <Node pos="s" depth="0" NCoef="0" IVar="4" Cut="1.0524198150634766e+02" cType="1" res="-8.6450722301378846e-04" rms="4.5139366388320923e-01" purity="4.9967113137245178e-01" nType="0">
        <Node pos="l" depth="1" NCoef="0" IVar="3" Cut="7.8270133972167969e+01" cType="1" res="-1.9417041912674904e-02" rms="4.5930907130241394e-01" purity="4.5890581607818604e-01" nType="0">
          <Node pos="l" depth="2" NCoef="0" IVar="-1" Cut="0.0000000000000000e+00" cType="1" res="-2.2228887246455997e-04" rms="4.5390996336936951e-01" purity="4.4026485085487366e-01" nType="-99"/>
          <Node pos="r" depth="2" NCoef="0" IVar="-1" Cut="0.0000000000000000e+00" cType="1" res="-1.7588379560038447e-03" rms="4.7231015563011169e-01" purity="5.1058232784271240e-01" nType="-99"/>
        </Node>
        <Node pos="r" depth="1" NCoef="0" IVar="4" Cut="1.4688957214355469e+02" cType="1" res="5.9496643953025341e-03" rms="4.4825857877731323e-01" purity="5.1464384794235229e-01" nType="0">
          <Node pos="l" depth="2" NCoef="0" IVar="-1" Cut="0.0000000000000000e+00" cType="1" res="9.3376595759764314e-04" rms="4.3524071574211121e-01" purity="6.3107246160507202e-01" nType="-99"/>
          <Node pos="r" depth="2" NCoef="0" IVar="-1" Cut="0.0000000000000000e+00" cType="1" res="-9.9448399851098657e-05" rms="4.5431685447692871e-01" purity="4.5678633451461792e-01" nType="-99"/>
        </Node>
      </Node>
    </BinaryTree>
    <BinaryTree type="DecisionTree" boostWeight="1.0000000000000000e+00" itree="911">
      <Node pos="s" depth="0" NCoef="0" IVar="8" Cut="6.3561338186264038e-01" cType="1" res="7.2307828813791275e-03" rms="4.5278355479240417e-01" purity="5.1139193773269653e-01" nType="0">
        <Node pos="l" depth="1" NCoef="0" IVar="6" Cut="5.1592313684523106e-03" cType="1" res="1.6302723670378327e-03" rms="4.5563793182373047e-01" purity="4.8019546270370483e-01" nType="0">
          <Node pos="l" depth="2" NCoef="0" IVar="-1" Cut="0.0000000000000000e+00" cType="1" res="-8.9511973783373833e-04" rms="4.5886680483818054e-01" purity="5.4640960693359375e-01" nType="-99"/>
          <Node pos="r" depth="2" NCoef="0" IVar="-1" Cut="0.0000000000000000e+00" cType="1" res="2.1444927551783621e-04" rms="4.5485404133796692e-01" purity="4.6795177459716797e-01" nType="-99"/>
        </Node>
        <Node pos="r" depth="1" NCoef="0" IVar="0" Cut="9.4445544481277466e-01" cType="1" res="3.6405768245458603e-02" rms="4.3645241856575012e-01" purity="6.7390495538711548e-01" nType="0">
          <Node pos="l" depth="2" NCoef="0" IVar="-1" Cut="0.0000000000000000e+00" cType="1" res="-1.0472340509295464e-03" rms="4.3176695704460144e-01" purity="7.2717201709747314e-01" nType="-99"/>
          <Node pos="r" depth="2" NCoef="0" IVar="-1" Cut="0.0000000000000000e+00" cType="1" res="3.0908135231584311e-03" rms="4.3485400080680847e-01" purity="6.3236141204833984e-01" nType="-99"/>
        </Node>
      </Node>
    </BinaryTree>
    <BinaryTree type="DecisionTree" boostWeight="1.0000000000000000e+00" itree="912">
      <Node pos="s" depth="0" NCoef="0" IVar="0" Cut="1.4933708906173706e+00" cType="1" res="2.1009983029216528e-03" rms="4.5191398262977600e-01" purity="5.0554978847503662e-01" nType="0">
        <Node pos="l" depth="1" NCoef="0" IVar="3" Cut="1.3089808654785156e+02" cType="1" res="6.9109601899981499e-03" rms="4.5877429842948914e-01" purity="5.5093109607696533e-01" nType="0">
          <Node pos="l" depth="2" NCoef="0" IVar="-1" Cut="0.0000000000000000e+00" cType="1" res="3.7990679265931249e-04" rms="4.5866945385932922e-01" purity="5.5831915140151978e-01" nType="-99"/>
          <Node pos="r" depth="2" NCoef="0" IVar="-1" Cut="0.0000000000000000e+00" cType="1" res="-8.2661106716841459e-04" rms="4.5832514762878418e-01" purity="4.9498581886291504e-01" nType="-99"/>
        </Node>
        <Node pos="r" depth="1" NCoef="0" IVar="3" Cut="9.3995300292968750e+01" cType="1" res="-2.2547245025634766e-02" rms="4.1410723328590393e-01" purity="2.7299737930297852e-01" nType="0">
          <Node pos="l" depth="2" NCoef="0" IVar="-1" Cut="0.0000000000000000e+00" cType="1" res="-1.3109165010973811e-03" rms="3.9194408059120178e-01" purity="2.2410941123962402e-01" nType="-99"/>
          <Node pos="r" depth="2" NCoef="0" IVar="-1" Cut="0.0000000000000000e+00" cType="1" res="3.2098143128678203e-04" rms="4.4387036561965942e-01" purity="3.4776341915130615e-01" nType="-99"/>
        </Node>
      </Node>
    </BinaryTree>
    <BinaryTree type="DecisionTree" boostWeight="1.0000000000000000e+00" itree="913">
      <Node pos="s" depth="0" NCoef="0" IVar="8" Cut="6.3201862573623657e-01" cType="1" res="-7.5073558837175369e-03" rms="4.5507681369781494e-01" purity="4.9755305051803589e-01" nType="0">
        <Node pos="l" depth="1" NCoef="0" IVar="2" Cut="7.5675082206726074e-01" cType="1" res="-3.0124497134238482e-03" rms="4.5651260018348694e-01" purity="4.7539702057838440e-01" nType="0">
          <Node pos="l" depth="2" NCoef="0" IVar="-1" Cut="0.0000000000000000e+00" cType="1" res="-8.5036974633112550e-04" rms="4.3065628409385681e-01" purity="2.8141045570373535e-01" nType="-99"/>
          <Node pos="r" depth="2" NCoef="0" IVar="-1" Cut="0.0000000000000000e+00" cType="1" res="4.4008622353430837e-05" rms="4.6052888035774231e-01" purity="5.0767123699188232e-01" nType="-99"/>
        </Node>
        <Node pos="r" depth="1" NCoef="0" IVar="3" Cut="9.1638336181640625e+01" cType="1" res="-2.8530627489089966e-02" rms="4.4770169258117676e-01" purity="6.0117977857589722e-01" nType="0">
          <Node pos="l" depth="2" NCoef="0" IVar="-1" Cut="0.0000000000000000e+00" cType="1" res="-1.4887523138895631e-03" rms="4.6180421113967896e-01" purity="5.5977380275726318e-01" nType="-99"/>
          <Node pos="r" depth="2" NCoef="0" IVar="-1" Cut="0.0000000000000000e+00" cType="1" res="1.2123363558202982e-04" rms="4.1291412711143494e-01" purity="6.9329959154129028e-01" nType="-99"/>
        </Node>
      </Node>
    </BinaryTree>
    <BinaryTree type="DecisionTree" boostWeight="1.0000000000000000e+00" itree="914">
      <Node pos="s" depth="0" NCoef="0" IVar="5" Cut="4.4483643770217896e-01" cType="1" res="-2.0080043468624353e-03" rms="4.5395174622535706e-01" purity="5.0139945745468140e-01" nType="0">
        <Node pos="l" depth="1" NCoef="0" IVar="-1" Cut="0.0000000000000000e+00" cType="1" res="-1.2062139576300979e-03" rms="4.6167451143264771e-01" purity="6.1921918392181396e-01" nType="-99"/>
        <Node pos="r" depth="1" NCoef="0" IVar="4" Cut="1.6148406982421875e+02" cType="1" res="4.2637673323042691e-04" rms="4.5324426889419556e-01" purity="4.9204799532890320e-01" nType="0">
          <Node pos="l" depth="2" NCoef="0" IVar="-1" Cut="0.0000000000000000e+00" cType="1" res="3.1362069421447814e-04" rms="4.4914358854293823e-01" purity="5.4237496852874756e-01" nType="-99"/>
          <Node pos="r" depth="2" NCoef="0" IVar="-1" Cut="0.0000000000000000e+00" cType="1" res="-3.1064660288393497e-04" rms="4.5791548490524292e-01" purity="4.3144926428794861e-01" nType="-99"/>
        </Node>
      </Node>
    </BinaryTree>
    <BinaryTree type="DecisionTree" boostWeight="1.0000000000000000e+00" itree="915">
      <Node pos="s" depth="0" NCoef="0" IVar="3" Cut="1.4526837158203125e+02" cType="1" res="-2.0325062796473503e-03" rms="4.5176810026168823e-01" purity="4.9758091568946838e-01" nType="0">
        <Node pos="l" depth="1" NCoef="0" IVar="3" Cut="1.0772982788085938e+02" cType="1" res="5.6284660240635276e-04" rms="4.5278474688529968e-01" purity="5.0888955593109131e-01" nType="0">
          <Node pos="l" depth="2" NCoef="0" IVar="-1" Cut="0.0000000000000000e+00" cType="1" res="-2.1499779541045427e-04" rms="4.5801421999931335e-01" purity="4.8358502984046936e-01" nType="-99"/>
          <Node pos="r" depth="2" NCoef="0" IVar="-1" Cut="0.0000000000000000e+00" cType="1" res="1.2479957658797503e-03" rms="4.2762905359268188e-01" purity="6.1994439363479614e-01" nType="-99"/>
        </Node>
        <Node pos="r" depth="1" NCoef="0" IVar="-1" Cut="0.0000000000000000e+00" cType="1" res="-9.8915316630154848e-04" rms="4.3850919604301453e-01" purity="3.6481186747550964e-01" nType="-99"/>
      </Node>
    </BinaryTree>
    <BinaryTree type="DecisionTree" boostWeight="1.0000000000000000e+00" itree="916">
      <Node pos="s" depth="0" NCoef="0" IVar="2" Cut="7.7465754747390747e-01" cType="1" res="-3.8017500191926956e-03" rms="4.5395213365554810e-01" purity="4.9859932065010071e-01" nType="0">
        <Node pos="l" depth="1" NCoef="0" IVar="3" Cut="6.7633583068847656e+01" cType="1" res="2.0612316206097603e-02" rms="4.4418406486511230e-01" purity="3.3839818835258484e-01" nType="0">
          <Node pos="l" depth="2" NCoef="0" IVar="-1" Cut="0.0000000000000000e+00" cType="1" res="2.0059302914887667e-03" rms="4.4572457671165466e-01" purity="3.4877246618270874e-01" nType="-99"/>
          <Node pos="r" depth="2" NCoef="0" IVar="-1" Cut="0.0000000000000000e+00" cType="1" res="-1.2040115689160302e-04" rms="4.4142752885818481e-01" purity="3.3204337954521179e-01" nType="-99"/>
        </Node>
        <Node pos="r" depth="1" NCoef="0" IVar="9" Cut="9.7035372257232666e-01" cType="1" res="-8.4565849974751472e-03" rms="4.5564231276512146e-01" purity="5.2914357185363770e-01" nType="0">
          <Node pos="l" depth="2" NCoef="0" IVar="-1" Cut="0.0000000000000000e+00" cType="1" res="-6.7953555844724178e-04" rms="4.6175810694694519e-01" purity="4.7197419404983521e-01" nType="-99"/>
          <Node pos="r" depth="2" NCoef="0" IVar="-1" Cut="0.0000000000000000e+00" cType="1" res="4.0355356759391725e-05" rms="4.5099258422851562e-01" purity="5.6984448432922363e-01" nType="-99"/>
        </Node>
      </Node>
    </BinaryTree>
    <BinaryTree type="DecisionTree" boostWeight="1.0000000000000000e+00" itree="917">
      <Node pos="s" depth="0" NCoef="0" IVar="1" Cut="2.6827642321586609e-01" cType="1" res="1.0718018747866154e-03" rms="4.5128080248832703e-01" purity="5.0173020362854004e-01" nType="0">
        <Node pos="l" depth="1" NCoef="0" IVar="-1" Cut="0.0000000000000000e+00" cType="1" res="1.4850529842078686e-03" rms="4.3583384156227112e-01" purity="6.6823810338973999e-01" nType="-99"/>
        <Node pos="r" depth="1" NCoef="0" IVar="1" Cut="5.2300530672073364e-01" cType="1" res="-2.1024786401540041e-03" rms="4.5249396562576294e-01" purity="4.8690971732139587e-01" nType="0">
          <Node pos="l" depth="2" NCoef="0" IVar="-1" Cut="0.0000000000000000e+00" cType="1" res="-8.9749589096754789e-04" rms="4.5727384090423584e-01" purity="5.6822741031646729e-01" nType="-99"/>
          <Node pos="r" depth="2" NCoef="0" IVar="-1" Cut="0.0000000000000000e+00" cType="1" res="8.8127919298131019e-05" rms="4.5135661959648132e-01" purity="4.7026720643043518e-01" nType="-99"/>
        </Node>
      </Node>
    </BinaryTree>
    <BinaryTree type="DecisionTree" boostWeight="1.0000000000000000e+00" itree="918">
      <Node pos="s" depth="0" NCoef="0" IVar="5" Cut="4.5628523826599121e-01" cType="1" res="-1.1400768999010324e-03" rms="4.5149201154708862e-01" purity="5.0214600563049316e-01" nType="0">
        <Node pos="l" depth="1" NCoef="0" IVar="-1" Cut="0.0000000000000000e+00" cType="1" res="1.3694178778678179e-03" rms="4.3086811900138855e-01" purity="6.8533349037170410e-01" nType="-99"/>
        <Node pos="r" depth="1" NCoef="0" IVar="7" Cut="5.3614598512649536e-01" cType="1" res="-3.9249733090400696e-03" rms="4.5298025012016296e-01" purity="4.8753857612609863e-01" nType="0">
          <Node pos="l" depth="2" NCoef="0" IVar="-1" Cut="0.0000000000000000e+00" cType="1" res="7.4574467726051807e-04" rms="4.4432610273361206e-01" purity="3.8850867748260498e-01" nType="-99"/>
          <Node pos="r" depth="2" NCoef="0" IVar="-1" Cut="0.0000000000000000e+00" cType="1" res="-3.0287288245745003e-04" rms="4.5439967513084412e-01" purity="5.0616180896759033e-01" nType="-99"/>
        </Node>
      </Node>
    </BinaryTree>
    <BinaryTree type="DecisionTree" boostWeight="1.0000000000000000e+00" itree="919">
      <Node pos="s" depth="0" NCoef="0" IVar="9" Cut="9.8972308635711670e-01" cType="1" res="-3.9326497353613377e-03" rms="4.5147481560707092e-01" purity="4.9734997749328613e-01" nType="0">
        <Node pos="l" depth="1" NCoef="0" IVar="6" Cut="3.7137023173272610e-03" cType="1" res="-1.0971437208354473e-02" rms="4.5395568013191223e-01" purity="4.6292394399642944e-01" nType="0">
          <Node pos="l" depth="2" NCoef="0" IVar="-1" Cut="0.0000000000000000e+00" cType="1" res="-1.7920542741194367e-03" rms="4.5482236146926880e-01" purity="5.3647446632385254e-01" nType="-99"/>
          <Node pos="r" depth="2" NCoef="0" IVar="-1" Cut="0.0000000000000000e+00" cType="1" res="-1.3134696928318590e-04" rms="4.5345237851142883e-01" purity="4.5095127820968628e-01" nType="-99"/>
        </Node>
        <Node pos="r" depth="1" NCoef="0" IVar="4" Cut="1.0455460357666016e+02" cType="1" res="1.5340066514909267e-02" rms="4.4404056668281555e-01" purity="5.9161090850830078e-01" nType="0">
          <Node pos="l" depth="2" NCoef="0" IVar="-1" Cut="0.0000000000000000e+00" cType="1" res="-2.7485753525979817e-04" rms="4.5422440767288208e-01" purity="5.3002512454986572e-01" nType="-99"/>
          <Node pos="r" depth="2" NCoef="0" IVar="-1" Cut="0.0000000000000000e+00" cType="1" res="9.1852404875680804e-04" rms="4.3977004289627075e-01" purity="6.1505436897277832e-01" nType="-99"/>
        </Node>
      </Node>
    </BinaryTree>
    <BinaryTree type="DecisionTree" boostWeight="1.0000000000000000e+00" itree="920">
      <Node pos="s" depth="0" NCoef="0" IVar="3" Cut="1.1318005371093750e+02" cType="1" res="3.8853855803608894e-03" rms="4.5177152752876282e-01" purity="5.0791734457015991e-01" nType="0">
        <Node pos="l" depth="1" NCoef="0" IVar="0" Cut="9.5045894384384155e-01" cType="1" res="-1.9640328828245401e-03" rms="4.5559525489807129e-01" purity="4.9716764688491821e-01" nType="0">
          <Node pos="l" depth="2" NCoef="0" IVar="-1" Cut="0.0000000000000000e+00" cType="1" res="6.3430157024413347e-04" rms="4.5622915029525757e-01" purity="6.4824336767196655e-01" nType="-99"/>
          <Node pos="r" depth="2" NCoef="0" IVar="-1" Cut="0.0000000000000000e+00" cType="1" res="-3.7976083694957197e-04" rms="4.5489633083343506e-01" purity="4.1209101676940918e-01" nType="-99"/>
        </Node>
        <Node pos="r" depth="1" NCoef="0" IVar="9" Cut="9.2932760715484619e-01" cType="1" res="2.5572741404175758e-02" rms="4.3661957979202271e-01" purity="5.4777294397354126e-01" nType="0">
          <Node pos="l" depth="2" NCoef="0" IVar="-1" Cut="0.0000000000000000e+00" cType="1" res="-1.6863312339410186e-04" rms="4.5125716924667358e-01" purity="4.1368693113327026e-01" nType="-99"/>
          <Node pos="r" depth="2" NCoef="0" IVar="-1" Cut="0.0000000000000000e+00" cType="1" res="1.5723221004009247e-03" rms="4.2850393056869507e-01" purity="6.1302614212036133e-01" nType="-99"/>
        </Node>
      </Node>
    </BinaryTree>
    <BinaryTree type="DecisionTree" boostWeight="1.0000000000000000e+00" itree="921">
      <Node pos="s" depth="0" NCoef="0" IVar="7" Cut="7.9856115579605103e-01" cType="1" res="-5.8865179307758808e-03" rms="4.5276147127151489e-01" purity="4.9488440155982971e-01" nType="0">
        <Node pos="l" depth="1" NCoef="0" IVar="9" Cut="9.3833839893341064e-01" cType="1" res="-1.2581651099026203e-02" rms="4.5528319478034973e-01" purity="4.5025020837783813e-01" nType="0">
          <Node pos="l" depth="2" NCoef="0" IVar="-1" Cut="0.0000000000000000e+00" cType="1" res="1.2525489728432149e-04" rms="4.4709423184394836e-01" purity="3.9211776852607727e-01" nType="-99"/>
          <Node pos="r" depth="2" NCoef="0" IVar="-1" Cut="0.0000000000000000e+00" cType="1" res="-7.7695673098787665e-04" rms="4.6068695187568665e-01" purity="4.9186408519744873e-01" nType="-99"/>
        </Node>
        <Node pos="r" depth="1" NCoef="0" IVar="0" Cut="8.1662213802337646e-01" cType="1" res="1.4201150275766850e-02" rms="4.4450497627258301e-01" purity="6.2880212068557739e-01" nType="0">
          <Node pos="l" depth="2" NCoef="0" IVar="-1" Cut="0.0000000000000000e+00" cType="1" res="-8.5041840793564916e-04" rms="4.3058043718338013e-01" purity="7.3570388555526733e-01" nType="-99"/>
          <Node pos="r" depth="2" NCoef="0" IVar="-1" Cut="0.0000000000000000e+00" cType="1" res="8.4409420378506184e-04" rms="4.4821587204933167e-01" purity="5.9648805856704712e-01" nType="-99"/>
        </Node>
      </Node>
    </BinaryTree>
    <BinaryTree type="DecisionTree" boostWeight="1.0000000000000000e+00" itree="922">
      <Node pos="s" depth="0" NCoef="0" IVar="5" Cut="1.7480139732360840e+00" cType="1" res="5.2694161422550678e-04" rms="4.4921955466270447e-01" purity="5.0218522548675537e-01" nType="0">
        <Node pos="l" depth="1" NCoef="0" IVar="3" Cut="8.8130767822265625e+01" cType="1" res="4.1415533050894737e-03" rms="4.5721271634101868e-01" purity="5.3424680233001709e-01" nType="0">
          <Node pos="l" depth="2" NCoef="0" IVar="-1" Cut="0.0000000000000000e+00" cType="1" res="-8.5490282799582928e-05" rms="4.6285414695739746e-01" purity="4.9686032533645630e-01" nType="-99"/>
          <Node pos="r" depth="2" NCoef="0" IVar="-1" Cut="0.0000000000000000e+00" cType="1" res="5.7575758546590805e-04" rms="4.4750428199768066e-01" purity="5.9603101015090942e-01" nType="-99"/>
        </Node>
        <Node pos="r" depth="1" NCoef="0" IVar="-1" Cut="0.0000000000000000e+00" cType="1" res="-1.3073827140033245e-03" rms="3.4639939665794373e-01" purity="1.4787927269935608e-01" nType="-99"/>
      </Node>
    </BinaryTree>
    <BinaryTree type="DecisionTree" boostWeight="1.0000000000000000e+00" itree="923">
      <Node pos="s" depth="0" NCoef="0" IVar="3" Cut="1.4634167480468750e+02" cType="1" res="3.9003561250865459e-03" rms="4.5306310057640076e-01" purity="5.0595885515213013e-01" nType="0">
        <Node pos="l" depth="1" NCoef="0" IVar="7" Cut="5.2563560009002686e-01" cType="1" res="7.1693151257932186e-03" rms="4.5329609513282776e-01" purity="5.1715099811553955e-01" nType="0">
          <Node pos="l" depth="2" NCoef="0" IVar="-1" Cut="0.0000000000000000e+00" cType="1" res="-7.2459952207282186e-04" rms="4.3857136368751526e-01" purity="3.5075262188911438e-01" nType="-99"/>
          <Node pos="r" depth="2" NCoef="0" IVar="-1" Cut="0.0000000000000000e+00" cType="1" res="4.0726768202148378e-04" rms="4.5523726940155029e-01" purity="5.4168200492858887e-01" nType="-99"/>
        </Node>
        <Node pos="r" depth="1" NCoef="0" IVar="-1" Cut="0.0000000000000000e+00" cType="1" res="-1.1240669991821051e-03" rms="4.4809013605117798e-01" purity="3.6518624424934387e-01" nType="-99"/>
      </Node>
    </BinaryTree>
    <BinaryTree type="DecisionTree" boostWeight="1.0000000000000000e+00" itree="924">
      <Node pos="s" depth="0" NCoef="0" IVar="8" Cut="6.6052383184432983e-01" cType="1" res="3.3005445729941130e-03" rms="4.5323958992958069e-01" purity="5.0751256942749023e-01" nType="0">
        <Node pos="l" depth="1" NCoef="0" IVar="4" Cut="2.0893159484863281e+02" cType="1" res="-8.6232298053801060e-04" rms="4.5607057213783264e-01" purity="4.8930233716964722e-01" nType="0">
          <Node pos="l" depth="2" NCoef="0" IVar="-1" Cut="0.0000000000000000e+00" cType="1" res="-2.6718596927821636e-04" rms="4.5833325386047363e-01" purity="5.1148581504821777e-01" nType="-99"/>
          <Node pos="r" depth="2" NCoef="0" IVar="-1" Cut="0.0000000000000000e+00" cType="1" res="5.2637193584814668e-04" rms="4.5016440749168396e-01" purity="4.3650275468826294e-01" nType="-99"/>
        </Node>
        <Node pos="r" depth="1" NCoef="0" IVar="-1" Cut="0.0000000000000000e+00" cType="1" res="1.9983635284006596e-03" rms="4.2143893241882324e-01" purity="6.9064700603485107e-01" nType="-99"/>
      </Node>
    </BinaryTree>
    <BinaryTree type="DecisionTree" boostWeight="1.0000000000000000e+00" itree="925">
      <Node pos="s" depth="0" NCoef="0" IVar="7" Cut="7.2533649206161499e-01" cType="1" res="-5.7208468206226826e-03" rms="4.4992795586585999e-01" purity="4.9641409516334534e-01" nType="0">
        <Node pos="l" depth="1" NCoef="0" IVar="9" Cut="9.8969221115112305e-01" cType="1" res="-1.3531124219298363e-02" rms="4.5188155770301819e-01" purity="4.3087244033813477e-01" nType="0">
          <Node pos="l" depth="2" NCoef="0" IVar="-1" Cut="0.0000000000000000e+00" cType="1" res="-2.3878013598732650e-04" rms="4.4998344779014587e-01" purity="4.1658347845077515e-01" nType="-99"/>
          <Node pos="r" depth="2" NCoef="0" IVar="-1" Cut="0.0000000000000000e+00" cType="1" res="-1.2034828541800380e-03" rms="4.5903471112251282e-01" purity="4.9119666218757629e-01" nType="-99"/>
        </Node>
        <Node pos="r" depth="1" NCoef="0" IVar="6" Cut="9.4301076605916023e-03" cType="1" res="7.9254377633333206e-03" rms="4.4616603851318359e-01" purity="6.1092978715896606e-01" nType="0">
          <Node pos="l" depth="2" NCoef="0" IVar="-1" Cut="0.0000000000000000e+00" cType="1" res="-6.2483988585881889e-05" rms="4.4273543357849121e-01" purity="6.0471129417419434e-01" nType="-99"/>
          <Node pos="r" depth="2" NCoef="0" IVar="-1" Cut="0.0000000000000000e+00" cType="1" res="1.8933902028948069e-03" rms="4.5819881558418274e-01" purity="6.3729548454284668e-01" nType="-99"/>
        </Node>
      </Node>
    </BinaryTree>
    <BinaryTree type="DecisionTree" boostWeight="1.0000000000000000e+00" itree="926">
      <Node pos="s" depth="0" NCoef="0" IVar="4" Cut="3.9872167968750000e+02" cType="1" res="-1.9827585492748767e-04" rms="4.4898372888565063e-01" purity="4.9822884798049927e-01" nType="0">
        <Node pos="l" depth="1" NCoef="0" IVar="1" Cut="2.5317099094390869e+00" cType="1" res="3.5014715977013111e-03" rms="4.5072281360626221e-01" purity="5.1486706733703613e-01" nType="0">
          <Node pos="l" depth="2" NCoef="0" IVar="-1" Cut="0.0000000000000000e+00" cType="1" res="2.4613799178041518e-04" rms="4.5605584979057312e-01" purity="5.4099285602569580e-01" nType="-99"/>
          <Node pos="r" depth="2" NCoef="0" IVar="-1" Cut="0.0000000000000000e+00" cType="1" res="-1.1768182739615440e-03" rms="3.8406223058700562e-01" purity="2.2460195422172546e-01" nType="-99"/>
        </Node>
        <Node pos="r" depth="1" NCoef="0" IVar="-1" Cut="0.0000000000000000e+00" cType="1" res="-1.2199172051623464e-03" rms="4.2752119898796082e-01" purity="3.1703394651412964e-01" nType="-99"/>
      </Node>
    </BinaryTree>
    <BinaryTree type="DecisionTree" boostWeight="1.0000000000000000e+00" itree="927">
      <Node pos="s" depth="0" NCoef="0" IVar="3" Cut="1.0469524383544922e+02" cType="1" res="-5.4358318448066711e-03" rms="4.5273888111114502e-01" purity="4.9421718716621399e-01" nType="0">
        <Node pos="l" depth="1" NCoef="0" IVar="5" Cut="1.2852154970169067e+00" cType="1" res="-1.1276370845735073e-02" rms="4.6015095710754395e-01" purity="4.7828114032745361e-01" nType="0">
          <Node pos="l" depth="2" NCoef="0" IVar="-1" Cut="0.0000000000000000e+00" cType="1" res="-5.8048724895343184e-04" rms="4.7210252285003662e-01" purity="5.4370450973510742e-01" nType="-99"/>
          <Node pos="r" depth="2" NCoef="0" IVar="-1" Cut="0.0000000000000000e+00" cType="1" res="3.1449779635295272e-04" rms="4.1984435915946960e-01" purity="2.7354529500007629e-01" nType="-99"/>
        </Node>
        <Node pos="r" depth="1" NCoef="0" IVar="3" Cut="1.4447085571289062e+02" cType="1" res="1.0482771322131157e-02" rms="4.3149048089981079e-01" purity="5.3765130043029785e-01" nType="0">
          <Node pos="l" depth="2" NCoef="0" IVar="-1" Cut="0.0000000000000000e+00" cType="1" res="9.5199921634048223e-04" rms="4.2855471372604370e-01" purity="6.0949528217315674e-01" nType="-99"/>
          <Node pos="r" depth="2" NCoef="0" IVar="-1" Cut="0.0000000000000000e+00" cType="1" res="-6.9590867497026920e-04" rms="4.3641954660415649e-01" purity="3.7252861261367798e-01" nType="-99"/>
        </Node>
      </Node>
    </BinaryTree>
    <BinaryTree type="DecisionTree" boostWeight="1.0000000000000000e+00" itree="928">
      <Node pos="s" depth="0" NCoef="0" IVar="1" Cut="4.4947624206542969e-01" cType="1" res="1.6738586127758026e-03" rms="4.5057460665702820e-01" purity="5.0569397211074829e-01" nType="0">
        <Node pos="l" depth="1" NCoef="0" IVar="1" Cut="1.9844187796115875e-01" cType="1" res="-2.1712951362133026e-02" rms="4.5407372713088989e-01" purity="5.9545934200286865e-01" nType="0">
          <Node pos="l" depth="2" NCoef="0" IVar="-1" Cut="0.0000000000000000e+00" cType="1" res="6.8186467979103327e-04" rms="4.4492444396018982e-01" purity="6.5285217761993408e-01" nType="-99"/>
          <Node pos="r" depth="2" NCoef="0" IVar="-1" Cut="0.0000000000000000e+00" cType="1" res="-1.2641989160329103e-03" rms="4.5658454298973083e-01" purity="5.7421487569808960e-01" nType="-99"/>
        </Node>
        <Node pos="r" depth="1" NCoef="0" IVar="5" Cut="1.4098209142684937e+00" cType="1" res="7.4930521659553051e-03" rms="4.4951072335243225e-01" purity="4.8335820436477661e-01" nType="0">
          <Node pos="l" depth="2" NCoef="0" IVar="-1" Cut="0.0000000000000000e+00" cType="1" res="5.1157496636733413e-04" rms="4.6390357613563538e-01" purity="5.6611055135726929e-01" nType="-99"/>
          <Node pos="r" depth="2" NCoef="0" IVar="-1" Cut="0.0000000000000000e+00" cType="1" res="-4.7278203419409692e-04" rms="4.0251207351684570e-01" purity="2.3577922582626343e-01" nType="-99"/>
        </Node>
      </Node>
    </BinaryTree>
    <BinaryTree type="DecisionTree" boostWeight="1.0000000000000000e+00" itree="929">
      <Node pos="s" depth="0" NCoef="0" IVar="4" Cut="9.7075500488281250e+01" cType="1" res="6.3249556114897132e-04" rms="4.4956973195075989e-01" purity="5.0161200761795044e-01" nType="0">
        <Node pos="l" depth="1" NCoef="0" IVar="0" Cut="1.1785938739776611e+00" cType="1" res="-3.1240098178386688e-02" rms="4.5483106374740601e-01" purity="4.3048018217086792e-01" nType="0">
          <Node pos="l" depth="2" NCoef="0" IVar="-1" Cut="0.0000000000000000e+00" cType="1" res="-2.9277542489580810e-04" rms="4.7906398773193359e-01" purity="5.3888988494873047e-01" nType="-99"/>
          <Node pos="r" depth="2" NCoef="0" IVar="-1" Cut="0.0000000000000000e+00" cType="1" res="-1.8053335370495915e-03" rms="4.1362565755844116e-01" purity="2.6775062084197998e-01" nType="-99"/>
        </Node>
        <Node pos="r" depth="1" NCoef="0" IVar="7" Cut="8.5159301757812500e-01" cType="1" res="9.5840599387884140e-03" rms="4.4767299294471741e-01" purity="5.2158969640731812e-01" nType="0">
          <Node pos="l" depth="2" NCoef="0" IVar="-1" Cut="0.0000000000000000e+00" cType="1" res="7.9153047408908606e-05" rms="4.5303589105606079e-01" purity="4.8908683657646179e-01" nType="-99"/>
          <Node pos="r" depth="2" NCoef="0" IVar="-1" Cut="0.0000000000000000e+00" cType="1" res="1.8278014613315463e-03" rms="4.2015510797500610e-01" purity="6.7316401004791260e-01" nType="-99"/>
        </Node>
      </Node>
    </BinaryTree>
    <BinaryTree type="DecisionTree" boostWeight="1.0000000000000000e+00" itree="930">
      <Node pos="s" depth="0" NCoef="0" IVar="7" Cut="9.3570458889007568e-01" cType="1" res="-2.2738496772944927e-03" rms="4.5091170072555542e-01" purity="4.9920657277107239e-01" nType="0">
        <Node pos="l" depth="1" NCoef="0" IVar="5" Cut="1.6980351209640503e+00" cType="1" res="3.9919614209793508e-04" rms="4.5043769478797913e-01" purity="4.9195533990859985e-01" nType="0">
          <Node pos="l" depth="2" NCoef="0" IVar="-1" Cut="0.0000000000000000e+00" cType="1" res="1.2444367166608572e-04" rms="4.5962366461753845e-01" purity="5.2808368206024170e-01" nType="-99"/>
          <Node pos="r" depth="2" NCoef="0" IVar="-1" Cut="0.0000000000000000e+00" cType="1" res="-1.0616475483402610e-03" rms="3.5185578465461731e-01" purity="1.5495082736015320e-01" nType="-99"/>
        </Node>
        <Node pos="r" depth="1" NCoef="0" IVar="-1" Cut="0.0000000000000000e+00" cType="1" res="-1.4786859974265099e-03" rms="4.5583134889602661e-01" purity="6.0006314516067505e-01" nType="-99"/>
      </Node>
    </BinaryTree>
    <BinaryTree type="DecisionTree" boostWeight="1.0000000000000000e+00" itree="931">
      <Node pos="s" depth="0" NCoef="0" IVar="7" Cut="8.8313269615173340e-01" cType="1" res="5.5842660367488861e-04" rms="4.4989430904388428e-01" purity="4.9974459409713745e-01" nType="0">
        <Node pos="l" depth="1" NCoef="0" IVar="8" Cut="5.6230753660202026e-01" cType="1" res="-4.8523526638746262e-03" rms="4.5362263917922974e-01" purity="4.7549626231193542e-01" nType="0">
          <Node pos="l" depth="2" NCoef="0" IVar="-1" Cut="0.0000000000000000e+00" cType="1" res="-4.1459812200628221e-04" rms="4.5225521922111511e-01" purity="4.1979244351387024e-01" nType="-99"/>
          <Node pos="r" depth="2" NCoef="0" IVar="-1" Cut="0.0000000000000000e+00" cType="1" res="3.0532924574799836e-04" rms="4.5539787411689758e-01" purity="5.6159073114395142e-01" nType="-99"/>
        </Node>
        <Node pos="r" depth="1" NCoef="0" IVar="8" Cut="6.3554650545120239e-01" cType="1" res="3.6771185696125031e-02" rms="4.2231801152229309e-01" purity="6.6203159093856812e-01" nType="0">
          <Node pos="l" depth="2" NCoef="0" IVar="-1" Cut="0.0000000000000000e+00" cType="1" res="2.8203043621033430e-03" rms="4.2400139570236206e-01" purity="6.5929436683654785e-01" nType="-99"/>
          <Node pos="r" depth="2" NCoef="0" IVar="-1" Cut="0.0000000000000000e+00" cType="1" res="3.7613205495290458e-04" rms="4.1887611150741577e-01" purity="6.6434472799301147e-01" nType="-99"/>
        </Node>
      </Node>
    </BinaryTree>
    <BinaryTree type="DecisionTree" boostWeight="1.0000000000000000e+00" itree="932">
      <Node pos="s" depth="0" NCoef="0" IVar="6" Cut="2.0654600113630295e-02" cType="1" res="-4.7137388028204441e-03" rms="4.5517870783805847e-01" purity="4.9914190173149109e-01" nType="0">
        <Node pos="l" depth="1" NCoef="0" IVar="0" Cut="1.0575208663940430e+00" cType="1" res="-1.4593037776648998e-02" rms="4.5439872145652771e-01" purity="5.3933566808700562e-01" nType="0">
          <Node pos="l" depth="2" NCoef="0" IVar="-1" Cut="0.0000000000000000e+00" cType="1" res="-1.2199101038277149e-03" rms="4.5983538031578064e-01" purity="6.3672649860382080e-01" nType="-99"/>
          <Node pos="r" depth="2" NCoef="0" IVar="-1" Cut="0.0000000000000000e+00" cType="1" res="2.7101708838017657e-05" rms="4.4881677627563477e-01" purity="4.5034423470497131e-01" nType="-99"/>
        </Node>
        <Node pos="r" depth="1" NCoef="0" IVar="6" Cut="4.0449209511280060e-02" cType="1" res="8.3732511848211288e-03" rms="4.5588040351867676e-01" purity="4.4589772820472717e-01" nType="0">
          <Node pos="l" depth="2" NCoef="0" IVar="-1" Cut="0.0000000000000000e+00" cType="1" res="4.6631746226921678e-04" rms="4.5825824141502380e-01" purity="4.6095028519630432e-01" nType="-99"/>
          <Node pos="r" depth="2" NCoef="0" IVar="-1" Cut="0.0000000000000000e+00" cType="1" res="-9.2073995620012283e-04" rms="4.3817245960235596e-01" purity="3.4944829344749451e-01" nType="-99"/>
        </Node>
      </Node>
    </BinaryTree>
    <BinaryTree type="DecisionTree" boostWeight="1.0000000000000000e+00" itree="933">
      <Node pos="s" depth="0" NCoef="0" IVar="1" Cut="2.6887032389640808e-01" cType="1" res="1.1632589157670736e-03" rms="4.5234298706054688e-01" purity="5.0138884782791138e-01" nType="0">
        <Node pos="l" depth="1" NCoef="0" IVar="-1" Cut="0.0000000000000000e+00" cType="1" res="1.7734499415382743e-03" rms="4.3317160010337830e-01" purity="6.7562812566757202e-01" nType="-99"/>
        <Node pos="r" depth="1" NCoef="0" IVar="5" Cut="1.0839431285858154e+00" cType="1" res="-2.5447800289839506e-03" rms="4.5385706424713135e-01" purity="4.8560756444931030e-01" nType="0">
          <Node pos="l" depth="2" NCoef="0" IVar="-1" Cut="0.0000000000000000e+00" cType="1" res="-3.8111960748210549e-04" rms="4.6504527330398560e-01" purity="5.9334200620651245e-01" nType="-99"/>
          <Node pos="r" depth="2" NCoef="0" IVar="-1" Cut="0.0000000000000000e+00" cType="1" res="2.3893115576356649e-04" rms="4.3939575552940369e-01" purity="3.5229173302650452e-01" nType="-99"/>
        </Node>
      </Node>
    </BinaryTree>
    <BinaryTree type="DecisionTree" boostWeight="1.0000000000000000e+00" itree="934">
      <Node pos="s" depth="0" NCoef="0" IVar="3" Cut="1.4648326110839844e+02" cType="1" res="1.1290805414319038e-03" rms="4.5321610569953918e-01" purity="5.0421720743179321e-01" nType="0">
        <Node pos="l" depth="1" NCoef="0" IVar="4" Cut="1.0524198150634766e+02" cType="1" res="4.1902014054358006e-03" rms="4.5352953672409058e-01" purity="5.1531440019607544e-01" nType="0">
          <Node pos="l" depth="2" NCoef="0" IVar="-1" Cut="0.0000000000000000e+00" cType="1" res="-4.5117226545698941e-04" rms="4.6313366293907166e-01" purity="4.7083038091659546e-01" nType="-99"/>
          <Node pos="r" depth="2" NCoef="0" IVar="-1" Cut="0.0000000000000000e+00" cType="1" res="4.0003343019634485e-04" rms="4.4939494132995605e-01" purity="5.3320068120956421e-01" nType="-99"/>
        </Node>
        <Node pos="r" depth="1" NCoef="0" IVar="-1" Cut="0.0000000000000000e+00" cType="1" res="-1.0688296752050519e-03" rms="4.4787809252738953e-01" purity="3.7238484621047974e-01" nType="-99"/>
      </Node>
    </BinaryTree>
    <BinaryTree type="DecisionTree" boostWeight="1.0000000000000000e+00" itree="935">
      <Node pos="s" depth="0" NCoef="0" IVar="5" Cut="9.0695887804031372e-01" cType="1" res="-8.3503946370910853e-05" rms="4.5156085491180420e-01" purity="5.0101435184478760e-01" nType="0">
        <Node pos="l" depth="1" NCoef="0" IVar="0" Cut="1.0928274393081665e+00" cType="1" res="1.2450671754777431e-02" rms="4.5320588350296021e-01" purity="6.4748615026473999e-01" nType="0">
          <Node pos="l" depth="2" NCoef="0" IVar="-1" Cut="0.0000000000000000e+00" cType="1" res="4.1724619222804904e-05" rms="4.5029157400131226e-01" purity="6.5731614828109741e-01" nType="-99"/>
          <Node pos="r" depth="2" NCoef="0" IVar="-1" Cut="0.0000000000000000e+00" cType="1" res="1.6684575239196420e-03" rms="4.6032747626304626e-01" purity="6.1705905199050903e-01" nType="-99"/>
        </Node>
        <Node pos="r" depth="1" NCoef="0" IVar="8" Cut="6.0267376899719238e-01" cType="1" res="-8.8742040097713470e-03" rms="4.5019537210464478e-01" purity="3.9828801155090332e-01" nType="0">
          <Node pos="l" depth="2" NCoef="0" IVar="-1" Cut="0.0000000000000000e+00" cType="1" res="-4.4619909022003412e-04" rms="4.4770482182502747e-01" purity="3.5707890987396240e-01" nType="-99"/>
          <Node pos="r" depth="2" NCoef="0" IVar="-1" Cut="0.0000000000000000e+00" cType="1" res="2.8700873372144997e-04" rms="4.5675107836723328e-01" purity="5.1567018032073975e-01" nType="-99"/>
        </Node>
      </Node>
    </BinaryTree>
    <BinaryTree type="DecisionTree" boostWeight="1.0000000000000000e+00" itree="936">
      <Node pos="s" depth="0" NCoef="0" IVar="8" Cut="4.6847394108772278e-01" cType="1" res="-9.3910872237756848e-04" rms="4.5219248533248901e-01" purity="4.9935659766197205e-01" nType="0">
        <Node pos="l" depth="1" NCoef="0" IVar="2" Cut="8.1530457735061646e-01" cType="1" res="2.2416448220610619e-02" rms="4.4770479202270508e-01" purity="4.2171055078506470e-01" nType="0">
          <Node pos="l" depth="2" NCoef="0" IVar="-1" Cut="0.0000000000000000e+00" cType="1" res="7.2417227784171700e-05" rms="4.3665105104446411e-01" purity="3.3559432625770569e-01" nType="-99"/>
          <Node pos="r" depth="2" NCoef="0" IVar="-1" Cut="0.0000000000000000e+00" cType="1" res="1.9173575565218925e-03" rms="4.6336662769317627e-01" purity="5.6259924173355103e-01" nType="-99"/>
        </Node>
        <Node pos="r" depth="1" NCoef="0" IVar="7" Cut="5.1513886451721191e-01" cType="1" res="-5.6610899046063423e-03" rms="4.5294803380966187e-01" purity="5.1505494117736816e-01" nType="0">
          <Node pos="l" depth="2" NCoef="0" IVar="-1" Cut="0.0000000000000000e+00" cType="1" res="-1.2968380469828844e-03" rms="4.3715742230415344e-01" purity="3.4236419200897217e-01" nType="-99"/>
          <Node pos="r" depth="2" NCoef="0" IVar="-1" Cut="0.0000000000000000e+00" cType="1" res="-8.8363580289296806e-05" rms="4.5397490262985229e-01" purity="5.2812480926513672e-01" nType="-99"/>
        </Node>
      </Node>
    </BinaryTree>
    <BinaryTree type="DecisionTree" boostWeight="1.0000000000000000e+00" itree="937">
      <Node pos="s" depth="0" NCoef="0" IVar="3" Cut="1.1318005371093750e+02" cType="1" res="-5.2220821380615234e-03" rms="4.5294588804244995e-01" purity="4.9721944332122803e-01" nType="0">
        <Node pos="l" depth="1" NCoef="0" IVar="3" Cut="6.2863883972167969e+01" cType="1" res="-9.8221851512789726e-03" rms="4.5606923103332520e-01" purity="4.8599505424499512e-01" nType="0">
          <Node pos="l" depth="2" NCoef="0" IVar="-1" Cut="0.0000000000000000e+00" cType="1" res="2.7174699425813742e-05" rms="4.5377230644226074e-01" purity="4.5749533176422119e-01" nType="-99"/>
          <Node pos="r" depth="2" NCoef="0" IVar="-1" Cut="0.0000000000000000e+00" cType="1" res="-6.5210473258048296e-04" rms="4.5793464779853821e-01" purity="5.1195812225341797e-01" nType="-99"/>
        </Node>
        <Node pos="r" depth="1" NCoef="0" IVar="1" Cut="1.1799273490905762e+00" cType="1" res="1.1195609346032143e-02" rms="4.4122785329818726e-01" purity="5.3727906942367554e-01" nType="0">
          <Node pos="l" depth="2" NCoef="0" IVar="-1" Cut="0.0000000000000000e+00" cType="1" res="1.5759113011881709e-03" rms="4.2795407772064209e-01" purity="6.4767485857009888e-01" nType="-99"/>
          <Node pos="r" depth="2" NCoef="0" IVar="-1" Cut="0.0000000000000000e+00" cType="1" res="-6.9771590642631054e-04" rms="4.5536574721336365e-01" purity="3.9588615298271179e-01" nType="-99"/>
        </Node>
      </Node>
    </BinaryTree>
    <BinaryTree type="DecisionTree" boostWeight="1.0000000000000000e+00" itree="938">
      <Node pos="s" depth="0" NCoef="0" IVar="6" Cut="2.0602634176611900e-02" cType="1" res="-9.1239940957166255e-05" rms="4.5116850733757019e-01" purity="5.0207757949829102e-01" nType="0">
        <Node pos="l" depth="1" NCoef="0" IVar="5" Cut="5.9190845489501953e-01" cType="1" res="-1.0799000971019268e-02" rms="4.5004883408546448e-01" purity="5.4090303182601929e-01" nType="0">
          <Node pos="l" depth="2" NCoef="0" IVar="-1" Cut="0.0000000000000000e+00" cType="1" res="1.4562602154910564e-03" rms="4.3040522933006287e-01" purity="7.2880023717880249e-01" nType="-99"/>
          <Node pos="r" depth="2" NCoef="0" IVar="-1" Cut="0.0000000000000000e+00" cType="1" res="-6.0020689852535725e-04" rms="4.5309746265411377e-01" purity="5.0703203678131104e-01" nType="-99"/>
        </Node>
        <Node pos="r" depth="1" NCoef="0" IVar="7" Cut="6.2932723760604858e-01" cType="1" res="1.4026752673089504e-02" rms="4.5225319266319275e-01" purity="4.5088702440261841e-01" nType="0">
          <Node pos="l" depth="2" NCoef="0" IVar="-1" Cut="0.0000000000000000e+00" cType="1" res="2.1675715106539428e-04" rms="4.5109313726425171e-01" purity="4.3031528592109680e-01" nType="-99"/>
          <Node pos="r" depth="2" NCoef="0" IVar="-1" Cut="0.0000000000000000e+00" cType="1" res="2.2777160629630089e-03" rms="4.5718839764595032e-01" purity="5.9296309947967529e-01" nType="-99"/>
        </Node>
      </Node>
    </BinaryTree>
    <BinaryTree type="DecisionTree" boostWeight="1.0000000000000000e+00" itree="939">
      <Node pos="s" depth="0" NCoef="0" IVar="9" Cut="9.8968613147735596e-01" cType="1" res="5.8584799990057945e-04" rms="4.4919192790985107e-01" purity="4.9900203943252563e-01" nType="0">
        <Node pos="l" depth="1" NCoef="0" IVar="1" Cut="3.0012276768684387e-01" cType="1" res="-5.9591778554022312e-03" rms="4.5176371932029724e-01" purity="4.6373581886291504e-01" nType="0">
          <Node pos="l" depth="2" NCoef="0" IVar="-1" Cut="0.0000000000000000e+00" cType="1" res="9.7346008988097310e-04" rms="4.4121694564819336e-01" purity="6.3122057914733887e-01" nType="-99"/>
          <Node pos="r" depth="2" NCoef="0" IVar="-1" Cut="0.0000000000000000e+00" cType="1" res="-2.9521572287194431e-04" rms="4.5279106497764587e-01" purity="4.4509270787239075e-01" nType="-99"/>
        </Node>
        <Node pos="r" depth="1" NCoef="0" IVar="0" Cut="1.3368629217147827e+00" cType="1" res="1.8286325037479401e-02" rms="4.4167622923851013e-01" purity="5.9437644481658936e-01" nType="0">
          <Node pos="l" depth="2" NCoef="0" IVar="-1" Cut="0.0000000000000000e+00" cType="1" res="1.1924355057999492e-03" rms="4.4315335154533386e-01" purity="6.6885280609130859e-01" nType="-99"/>
          <Node pos="r" depth="2" NCoef="0" IVar="-1" Cut="0.0000000000000000e+00" cType="1" res="-4.0687795262783766e-04" rms="4.3587124347686768e-01" purity="3.8313728570938110e-01" nType="-99"/>
        </Node>
      </Node>
    </BinaryTree>
    <BinaryTree type="DecisionTree" boostWeight="1.0000000000000000e+00" itree="940">
      <Node pos="s" depth="0" NCoef="0" IVar="3" Cut="1.4639373779296875e+02" cType="1" res="-4.5606101048178971e-04" rms="4.4915330410003662e-01" purity="4.9978291988372803e-01" nType="0">
        <Node pos="l" depth="1" NCoef="0" IVar="3" Cut="1.1428855133056641e+02" cType="1" res="3.7964340299367905e-03" rms="4.4989550113677979e-01" purity="5.1278632879257202e-01" nType="0">
          <Node pos="l" depth="2" NCoef="0" IVar="-1" Cut="0.0000000000000000e+00" cType="1" res="-3.8396276067942381e-05" rms="4.5353657007217407e-01" purity="4.9472466111183167e-01" nType="-99"/>
          <Node pos="r" depth="2" NCoef="0" IVar="-1" Cut="0.0000000000000000e+00" cType="1" res="1.3463858049362898e-03" rms="4.2587527632713318e-01" purity="6.2248510122299194e-01" nType="-99"/>
        </Node>
        <Node pos="r" depth="1" NCoef="0" IVar="-1" Cut="0.0000000000000000e+00" cType="1" res="-1.4761836500838399e-03" rms="4.3738248944282532e-01" purity="3.4833329916000366e-01" nType="-99"/>
      </Node>
    </BinaryTree>
    <BinaryTree type="DecisionTree" boostWeight="1.0000000000000000e+00" itree="941">
      <Node pos="s" depth="0" NCoef="0" IVar="0" Cut="1.2574853897094727e+00" cType="1" res="-1.4764071675017476e-03" rms="4.5282545685768127e-01" purity="5.0023210048675537e-01" nType="0">
        <Node pos="l" depth="1" NCoef="0" IVar="4" Cut="3.3423764038085938e+02" cType="1" res="-8.1550506874918938e-03" rms="4.6013569831848145e-01" purity="5.7312649488449097e-01" nType="0">
          <Node pos="l" depth="2" NCoef="0" IVar="-1" Cut="0.0000000000000000e+00" cType="1" res="-8.3356360846664757e-05" rms="4.5940259099006653e-01" purity="5.8795547485351562e-01" nType="-99"/>
          <Node pos="r" depth="2" NCoef="0" IVar="-1" Cut="0.0000000000000000e+00" cType="1" res="-1.7327876994386315e-03" rms="4.6345794200897217e-01" purity="4.3660768866539001e-01" nType="-99"/>
        </Node>
        <Node pos="r" depth="1" NCoef="0" IVar="4" Cut="1.6071969604492188e+02" cType="1" res="1.1348956264555454e-02" rms="4.3816021084785461e-01" purity="3.6024901270866394e-01" nType="0">
          <Node pos="l" depth="2" NCoef="0" IVar="-1" Cut="0.0000000000000000e+00" cType="1" res="-1.7498907982371747e-04" rms="4.4289541244506836e-01" purity="3.8284978270530701e-01" nType="-99"/>
          <Node pos="r" depth="2" NCoef="0" IVar="-1" Cut="0.0000000000000000e+00" cType="1" res="8.9091924019157887e-04" rms="4.3277344107627869e-01" purity="3.3793723583221436e-01" nType="-99"/>
        </Node>
      </Node>
    </BinaryTree>
    <BinaryTree type="DecisionTree" boostWeight="1.0000000000000000e+00" itree="942">
      <Node pos="s" depth="0" NCoef="0" IVar="9" Cut="9.7916662693023682e-01" cType="1" res="1.2544621713459492e-03" rms="4.5118966698646545e-01" purity="5.0300532579421997e-01" nType="0">
        <Node pos="l" depth="1" NCoef="0" IVar="8" Cut="5.7033717632293701e-01" cType="1" res="-9.8930271342396736e-03" rms="4.5264032483100891e-01" purity="4.4230276346206665e-01" nType="0">
          <Node pos="l" depth="2" NCoef="0" IVar="-1" Cut="0.0000000000000000e+00" cType="1" res="-5.7073665084317327e-04" rms="4.5175740122795105e-01" purity="3.9668375253677368e-01" nType="-99"/>
          <Node pos="r" depth="2" NCoef="0" IVar="-1" Cut="0.0000000000000000e+00" cType="1" res="4.2559384019114077e-04" rms="4.5399838685989380e-01" purity="5.5169880390167236e-01" nType="-99"/>
        </Node>
        <Node pos="r" depth="1" NCoef="0" IVar="6" Cut="3.0981814488768578e-02" cType="1" res="1.7388252541422844e-02" rms="4.4859153032302856e-01" purity="5.9086030721664429e-01" nType="0">
          <Node pos="l" depth="2" NCoef="0" IVar="-1" Cut="0.0000000000000000e+00" cType="1" res="2.2976986656431109e-04" rms="4.5039749145507812e-01" purity="6.0998988151550293e-01" nType="-99"/>
          <Node pos="r" depth="2" NCoef="0" IVar="-1" Cut="0.0000000000000000e+00" cType="1" res="1.9491368439048529e-03" rms="4.4012233614921570e-01" purity="5.2498924732208252e-01" nType="-99"/>
        </Node>
      </Node>
    </BinaryTree>
    <BinaryTree type="DecisionTree" boostWeight="1.0000000000000000e+00" itree="943">
      <Node pos="s" depth="0" NCoef="0" IVar="0" Cut="1.0206166505813599e+00" cType="1" res="-1.5327926957979798e-03" rms="4.5273485779762268e-01" purity="5.0001329183578491e-01" nType="0">
        <Node pos="l" depth="1" NCoef="0" IVar="7" Cut="6.9381248950958252e-01" cType="1" res="-1.4651162549853325e-02" rms="4.6085005998611450e-01" purity="6.1722803115844727e-01" nType="0">
          <Node pos="l" depth="2" NCoef="0" IVar="-1" Cut="0.0000000000000000e+00" cType="1" res="6.3607396441511810e-05" rms="4.7031670808792114e-01" purity="5.6463164091110229e-01" nType="-99"/>
          <Node pos="r" depth="2" NCoef="0" IVar="-1" Cut="0.0000000000000000e+00" cType="1" res="-1.3559409417212009e-03" rms="4.4990366697311401e-01" purity="6.7310881614685059e-01" nType="-99"/>
        </Node>
        <Node pos="r" depth="1" NCoef="0" IVar="2" Cut="9.0684992074966431e-01" cType="1" res="8.0402223393321037e-03" rms="4.4647663831710815e-01" purity="4.1447675228118896e-01" nType="0">
          <Node pos="l" depth="2" NCoef="0" IVar="-1" Cut="0.0000000000000000e+00" cType="1" res="-8.0210294981952757e-05" rms="4.4494500756263733e-01" purity="3.6485707759857178e-01" nType="-99"/>
          <Node pos="r" depth="2" NCoef="0" IVar="-1" Cut="0.0000000000000000e+00" cType="1" res="1.3453831197693944e-03" rms="4.4947665929794312e-01" purity="5.6036305427551270e-01" nType="-99"/>
        </Node>
      </Node>
    </BinaryTree>
    <BinaryTree type="DecisionTree" boostWeight="1.0000000000000000e+00" itree="944">
      <Node pos="s" depth="0" NCoef="0" IVar="4" Cut="1.2803146362304688e+02" cType="1" res="6.5963556990027428e-03" rms="4.5166686177253723e-01" purity="5.0831449031829834e-01" nType="0">
        <Node pos="l" depth="1" NCoef="0" IVar="4" Cut="1.0052101135253906e+02" cType="1" res="1.9134441390633583e-02" rms="4.4849365949630737e-01" purity="5.5277913808822632e-01" nType="0">
          <Node pos="l" depth="2" NCoef="0" IVar="-1" Cut="0.0000000000000000e+00" cType="1" res="-2.6016222545877099e-04" rms="4.5882028341293335e-01" purity="4.6181625127792358e-01" nType="-99"/>
          <Node pos="r" depth="2" NCoef="0" IVar="-1" Cut="0.0000000000000000e+00" cType="1" res="2.3934366181492805e-03" rms="4.3088662624359131e-01" purity="6.7885762453079224e-01" nType="-99"/>
        </Node>
        <Node pos="r" depth="1" NCoef="0" IVar="4" Cut="1.9679869079589844e+02" cType="1" res="-2.1002490539103746e-03" rms="4.5365133881568909e-01" purity="4.7747313976287842e-01" nType="0">
          <Node pos="l" depth="2" NCoef="0" IVar="-1" Cut="0.0000000000000000e+00" cType="1" res="-8.7027560221031308e-04" rms="4.5710444450378418e-01" purity="5.1446449756622314e-01" nType="-99"/>
          <Node pos="r" depth="2" NCoef="0" IVar="-1" Cut="0.0000000000000000e+00" cType="1" res="5.8136449661105871e-04" rms="4.4983303546905518e-01" purity="4.4746562838554382e-01" nType="-99"/>
        </Node>
      </Node>
    </BinaryTree>
    <BinaryTree type="DecisionTree" boostWeight="1.0000000000000000e+00" itree="945">
      <Node pos="s" depth="0" NCoef="0" IVar="0" Cut="1.4649655818939209e+00" cType="1" res="4.8622302711009979e-03" rms="4.4930651783943176e-01" purity="5.0362110137939453e-01" nType="0">
        <Node pos="l" depth="1" NCoef="0" IVar="6" Cut="1.2878383276984096e-03" cType="1" res="1.0306794196367264e-02" rms="4.5702409744262695e-01" purity="5.5506932735443115e-01" nType="0">
          <Node pos="l" depth="2" NCoef="0" IVar="-1" Cut="0.0000000000000000e+00" cType="1" res="-1.0305559262633324e-03" rms="4.4460558891296387e-01" purity="6.3643938302993774e-01" nType="-99"/>
          <Node pos="r" depth="2" NCoef="0" IVar="-1" Cut="0.0000000000000000e+00" cType="1" res="4.8702777712605894e-04" rms="4.5822706818580627e-01" purity="5.4583829641342163e-01" nType="-99"/>
        </Node>
        <Node pos="r" depth="1" NCoef="0" IVar="1" Cut="1.3260217905044556e+00" cType="1" res="-1.9011000171303749e-02" rms="4.1292405128479004e-01" purity="2.7803164720535278e-01" nType="0">
          <Node pos="l" depth="2" NCoef="0" IVar="-1" Cut="0.0000000000000000e+00" cType="1" res="-1.0978607460856438e-03" rms="4.2370748519897461e-01" purity="3.1358063220977783e-01" nType="-99"/>
          <Node pos="r" depth="2" NCoef="0" IVar="-1" Cut="0.0000000000000000e+00" cType="1" res="-1.5563504712190479e-04" rms="4.0396776795387268e-01" purity="2.5103273987770081e-01" nType="-99"/>
        </Node>
      </Node>
    </BinaryTree>
    <BinaryTree type="DecisionTree" boostWeight="1.0000000000000000e+00" itree="946">
      <Node pos="s" depth="0" NCoef="0" IVar="9" Cut="9.5955091714859009e-01" cType="1" res="1.0219967225566506e-03" rms="4.5090433955192566e-01" purity="5.0409054756164551e-01" nType="0">
        <Node pos="l" depth="1" NCoef="0" IVar="9" Cut="8.3047872781753540e-01" cType="1" res="-8.9778630062937737e-03" rms="4.5487233996391296e-01" purity="4.2150554060935974e-01" nType="0">
          <Node pos="l" depth="2" NCoef="0" IVar="-1" Cut="0.0000000000000000e+00" cType="1" res="3.7777295801788568e-04" rms="4.4663920998573303e-01" purity="3.3990550041198730e-01" nType="-99"/>
          <Node pos="r" depth="2" NCoef="0" IVar="-1" Cut="0.0000000000000000e+00" cType="1" res="-5.1517976680770516e-04" rms="4.5762300491333008e-01" purity="4.5163708925247192e-01" nType="-99"/>
        </Node>
        <Node pos="r" depth="1" NCoef="0" IVar="6" Cut="2.4340433999896049e-02" cType="1" res="8.8782822713255882e-03" rms="4.4760555028915405e-01" purity="5.6897258758544922e-01" nType="0">
          <Node pos="l" depth="2" NCoef="0" IVar="-1" Cut="0.0000000000000000e+00" cType="1" res="-2.0370249330881052e-05" rms="4.4670036435127258e-01" purity="5.9623968601226807e-01" nType="-99"/>
          <Node pos="r" depth="2" NCoef="0" IVar="-1" Cut="0.0000000000000000e+00" cType="1" res="9.3570072203874588e-04" rms="4.4884684681892395e-01" purity="5.1239693164825439e-01" nType="-99"/>
        </Node>
      </Node>
    </BinaryTree>
    <BinaryTree type="DecisionTree" boostWeight="1.0000000000000000e+00" itree="947">
      <Node pos="s" depth="0" NCoef="0" IVar="9" Cut="9.2956960201263428e-01" cType="1" res="4.3449850636534393e-04" rms="4.5457553863525391e-01" purity="5.0405102968215942e-01" nType="0">
        <Node pos="l" depth="1" NCoef="0" IVar="0" Cut="8.3609044551849365e-01" cType="1" res="1.2176366522908211e-02" rms="4.5582404732704163e-01" purity="4.1293177008628845e-01" nType="0">
          <Node pos="l" depth="2" NCoef="0" IVar="-1" Cut="0.0000000000000000e+00" cType="1" res="2.0287979859858751e-03" rms="4.6316462755203247e-01" purity="6.2325990200042725e-01" nType="-99"/>
          <Node pos="r" depth="2" NCoef="0" IVar="-1" Cut="0.0000000000000000e+00" cType="1" res="4.9292702897218987e-05" rms="4.5344266295433044e-01" purity="3.6368691921234131e-01" nType="-99"/>
        </Node>
        <Node pos="r" depth="1" NCoef="0" IVar="9" Cut="9.5446383953094482e-01" cType="1" res="-4.5366939157247543e-03" rms="4.5395442843437195e-01" purity="5.4262852668762207e-01" nType="0">
          <Node pos="l" depth="2" NCoef="0" IVar="-1" Cut="0.0000000000000000e+00" cType="1" res="-1.2340493267402053e-03" rms="4.5698615908622742e-01" purity="4.5538532733917236e-01" nType="-99"/>
          <Node pos="r" depth="2" NCoef="0" IVar="-1" Cut="0.0000000000000000e+00" cType="1" res="6.2506864196620882e-05" rms="4.5311829447746277e-01" purity="5.5829769372940063e-01" nType="-99"/>
        </Node>
      </Node>
    </BinaryTree>
    <BinaryTree type="DecisionTree" boostWeight="1.0000000000000000e+00" itree="948">
      <Node pos="s" depth="0" NCoef="0" IVar="5" Cut="6.4038109779357910e-01" cType="1" res="-4.3231593735981733e-05" rms="4.5377615094184875e-01" purity="5.0172686576843262e-01" nType="0">
        <Node pos="l" depth="1" NCoef="0" IVar="1" Cut="6.9356334209442139e-01" cType="1" res="-1.5743575990200043e-02" rms="4.5480701327323914e-01" purity="6.3711410760879517e-01" nType="0">
          <Node pos="l" depth="2" NCoef="0" IVar="-1" Cut="0.0000000000000000e+00" cType="1" res="4.8038086970336735e-04" rms="4.3812075257301331e-01" purity="6.9270563125610352e-01" nType="-99"/>
          <Node pos="r" depth="2" NCoef="0" IVar="-1" Cut="0.0000000000000000e+00" cType="1" res="-1.5299288788810372e-03" rms="4.7044077515602112e-01" purity="5.7700240612030029e-01" nType="-99"/>
        </Node>
        <Node pos="r" depth="1" NCoef="0" IVar="6" Cut="1.8856044858694077e-02" cType="1" res="3.8586584851145744e-03" rms="4.5343527197837830e-01" purity="4.6808007359504700e-01" nType="0">
          <Node pos="l" depth="2" NCoef="0" IVar="-1" Cut="0.0000000000000000e+00" cType="1" res="-1.8085158080793917e-04" rms="4.5723795890808105e-01" purity="5.1692277193069458e-01" nType="-99"/>
          <Node pos="r" depth="2" NCoef="0" IVar="-1" Cut="0.0000000000000000e+00" cType="1" res="4.4218011316843331e-04" rms="4.4903331995010376e-01" purity="4.1484805941581726e-01" nType="-99"/>
        </Node>
      </Node>
    </BinaryTree>
    <BinaryTree type="DecisionTree" boostWeight="1.0000000000000000e+00" itree="949">
      <Node pos="s" depth="0" NCoef="0" IVar="9" Cut="7.5276279449462891e-01" cType="1" res="2.1095960400998592e-03" rms="4.4961884617805481e-01" purity="5.0488704442977905e-01" nType="0">
        <Node pos="l" depth="1" NCoef="0" IVar="-1" Cut="0.0000000000000000e+00" cType="1" res="-1.2642185902222991e-03" rms="4.1238066554069519e-01" purity="2.5112697482109070e-01" nType="-99"/>
        <Node pos="r" depth="1" NCoef="0" IVar="3" Cut="1.3089808654785156e+02" cType="1" res="5.3750937804579735e-03" rms="4.5189899206161499e-01" purity="5.2244043350219727e-01" nType="0">
          <Node pos="l" depth="2" NCoef="0" IVar="-1" Cut="0.0000000000000000e+00" cType="1" res="3.0910753412172198e-04" rms="4.5293995738029480e-01" purity="5.3306812047958374e-01" nType="-99"/>
          <Node pos="r" depth="2" NCoef="0" IVar="-1" Cut="0.0000000000000000e+00" cType="1" res="-6.9808395346626639e-04" rms="4.4333106279373169e-01" purity="4.4506657123565674e-01" nType="-99"/>
        </Node>
      </Node>
    </BinaryTree>
    <BinaryTree type="DecisionTree" boostWeight="1.0000000000000000e+00" itree="950">
      <Node pos="s" depth="0" NCoef="0" IVar="8" Cut="6.1872690916061401e-01" cType="1" res="-2.2519826889038086e-03" rms="4.4960543513298035e-01" purity="4.9830734729766846e-01" nType="0">
        <Node pos="l" depth="1" NCoef="0" IVar="7" Cut="8.6197769641876221e-01" cType="1" res="-7.9112276434898376e-03" rms="4.5358359813690186e-01" purity="4.6027123928070068e-01" nType="0">
          <Node pos="l" depth="2" NCoef="0" IVar="-1" Cut="0.0000000000000000e+00" cType="1" res="-3.4722930286079645e-04" rms="4.5397266745567322e-01" purity="4.4465532898902893e-01" nType="-99"/>
          <Node pos="r" depth="2" NCoef="0" IVar="-1" Cut="0.0000000000000000e+00" cType="1" res="8.3661300595849752e-04" rms="4.4868090748786926e-01" purity="6.1050575971603394e-01" nType="-99"/>
        </Node>
        <Node pos="r" depth="1" NCoef="0" IVar="5" Cut="6.7589372396469116e-01" cType="1" res="1.9078291952610016e-02" rms="4.3362057209014893e-01" purity="6.4166933298110962e-01" nType="0">
          <Node pos="l" depth="2" NCoef="0" IVar="-1" Cut="0.0000000000000000e+00" cType="1" res="3.6735075991600752e-03" rms="3.8225749135017395e-01" purity="8.1195819377899170e-01" nType="-99"/>
          <Node pos="r" depth="2" NCoef="0" IVar="-1" Cut="0.0000000000000000e+00" cType="1" res="2.0157179096713662e-04" rms="4.4772011041641235e-01" purity="5.8807647228240967e-01" nType="-99"/>
        </Node>
      </Node>
    </BinaryTree>
    <BinaryTree type="DecisionTree" boostWeight="1.0000000000000000e+00" itree="951">
      <Node pos="s" depth="0" NCoef="0" IVar="7" Cut="7.6748001575469971e-01" cType="1" res="9.8110770341008902e-04" rms="4.5324113965034485e-01" purity="5.0181001424789429e-01" nType="0">
        <Node pos="l" depth="1" NCoef="0" IVar="6" Cut="2.4465415626764297e-02" cType="1" res="-6.8314531818032265e-03" rms="4.5804211497306824e-01" purity="4.5003575086593628e-01" nType="0">
          <Node pos="l" depth="2" NCoef="0" IVar="-1" Cut="0.0000000000000000e+00" cType="1" res="-6.6270993556827307e-04" rms="4.5712301135063171e-01" purity="4.6128791570663452e-01" nType="-99"/>
          <Node pos="r" depth="2" NCoef="0" IVar="-1" Cut="0.0000000000000000e+00" cType="1" res="2.4781594402156770e-04" rms="4.5854535698890686e-01" purity="4.3808791041374207e-01" nType="-99"/>
        </Node>
        <Node pos="r" depth="1" NCoef="0" IVar="6" Cut="5.3366068750619888e-03" cType="1" res="1.9480403512716293e-02" rms="4.4111356139183044e-01" purity="6.2440586090087891e-01" nType="0">
          <Node pos="l" depth="2" NCoef="0" IVar="-1" Cut="0.0000000000000000e+00" cType="1" res="2.5486494996584952e-04" rms="4.4005569815635681e-01" purity="6.1777144670486450e-01" nType="-99"/>
          <Node pos="r" depth="2" NCoef="0" IVar="-1" Cut="0.0000000000000000e+00" cType="1" res="2.0903705153614283e-03" rms="4.4209712743759155e-01" purity="6.4186984300613403e-01" nType="-99"/>
        </Node>
      </Node>
    </BinaryTree>
    <BinaryTree type="DecisionTree" boostWeight="1.0000000000000000e+00" itree="952">
      <Node pos="s" depth="0" NCoef="0" IVar="5" Cut="1.7099123001098633e+00" cType="1" res="-1.6769717913120985e-03" rms="4.4873154163360596e-01" purity="4.9534943699836731e-01" nType="0">
        <Node pos="l" depth="1" NCoef="0" IVar="2" Cut="9.6888703107833862e-01" cType="1" res="2.0871639717370272e-03" rms="4.5816791057586670e-01" purity="5.3349912166595459e-01" nType="0">
          <Node pos="l" depth="2" NCoef="0" IVar="-1" Cut="0.0000000000000000e+00" cType="1" res="1.5839017578400671e-04" rms="4.5897433161735535e-01" purity="5.2494961023330688e-01" nType="-99"/>
          <Node pos="r" depth="2" NCoef="0" IVar="-1" Cut="0.0000000000000000e+00" cType="1" res="-1.2425166787579656e-03" rms="4.4674539566040039e-01" purity="6.3865810632705688e-01" nType="-99"/>
        </Node>
        <Node pos="r" depth="1" NCoef="0" IVar="-1" Cut="0.0000000000000000e+00" cType="1" res="-1.1718845926225185e-03" rms="3.5144770145416260e-01" purity="1.5395200252532959e-01" nType="-99"/>
      </Node>
    </BinaryTree>
    <BinaryTree type="DecisionTree" boostWeight="1.0000000000000000e+00" itree="953">
      <Node pos="s" depth="0" NCoef="0" IVar="8" Cut="4.7145012021064758e-01" cType="1" res="-5.6557771749794483e-03" rms="4.5089912414550781e-01" purity="4.9369567632675171e-01" nType="0">
        <Node pos="l" depth="1" NCoef="0" IVar="2" Cut="7.8476071357727051e-01" cType="1" res="-2.8389502316713333e-02" rms="4.4139054417610168e-01" purity="3.7342053651809692e-01" nType="0">
          <Node pos="l" depth="2" NCoef="0" IVar="-1" Cut="0.0000000000000000e+00" cType="1" res="-1.4218316646292806e-03" rms="4.1822460293769836e-01" purity="2.6043263077735901e-01" nType="-99"/>
          <Node pos="r" depth="2" NCoef="0" IVar="-1" Cut="0.0000000000000000e+00" cType="1" res="-2.6034159236587584e-04" rms="4.6021315455436707e-01" purity="4.7448232769966125e-01" nType="-99"/>
        </Node>
        <Node pos="r" depth="1" NCoef="0" IVar="9" Cut="9.6217304468154907e-01" cType="1" res="-5.0849898252636194e-04" rms="4.5286586880683899e-01" purity="5.2092790603637695e-01" nType="0">
          <Node pos="l" depth="2" NCoef="0" IVar="-1" Cut="0.0000000000000000e+00" cType="1" res="4.4997138320468366e-04" rms="4.5972025394439697e-01" purity="4.7141513228416443e-01" nType="-99"/>
          <Node pos="r" depth="2" NCoef="0" IVar="-1" Cut="0.0000000000000000e+00" cType="1" res="-3.4102381323464215e-04" rms="4.4813024997711182e-01" purity="5.5295407772064209e-01" nType="-99"/>
        </Node>
      </Node>
    </BinaryTree>
    <BinaryTree type="DecisionTree" boostWeight="1.0000000000000000e+00" itree="954">
      <Node pos="s" depth="0" NCoef="0" IVar="1" Cut="4.4889524579048157e-01" cType="1" res="-1.0575092164799571e-03" rms="4.5485368371009827e-01" purity="5.0110870599746704e-01" nType="0">
        <Node pos="l" depth="1" NCoef="0" IVar="1" Cut="2.7220714092254639e-01" cType="1" res="-2.2396167740225792e-02" rms="4.6202322840690613e-01" purity="5.9262633323669434e-01" nType="0">
          <Node pos="l" depth="2" NCoef="0" IVar="-1" Cut="0.0000000000000000e+00" cType="1" res="3.4941817284561694e-04" rms="4.5122885704040527e-01" purity="6.4303302764892578e-01" nType="-99"/>
          <Node pos="r" depth="2" NCoef="0" IVar="-1" Cut="0.0000000000000000e+00" cType="1" res="-1.6420062165707350e-03" rms="4.6914505958557129e-01" purity="5.5131953954696655e-01" nType="-99"/>
        </Node>
        <Node pos="r" depth="1" NCoef="0" IVar="7" Cut="8.0953574180603027e-01" cType="1" res="4.0721660479903221e-03" rms="4.5296341180801392e-01" purity="4.7910851240158081e-01" nType="0">
          <Node pos="l" depth="2" NCoef="0" IVar="-1" Cut="0.0000000000000000e+00" cType="1" res="3.4104462247341871e-04" rms="4.5225769281387329e-01" purity="4.4832140207290649e-01" nType="-99"/>
          <Node pos="r" depth="2" NCoef="0" IVar="-1" Cut="0.0000000000000000e+00" cType="1" res="-6.0342886717990041e-04" rms="4.5453965663909912e-01" purity="5.7620441913604736e-01" nType="-99"/>
        </Node>
      </Node>
    </BinaryTree>
    <BinaryTree type="DecisionTree" boostWeight="1.0000000000000000e+00" itree="955">
      <Node pos="s" depth="0" NCoef="0" IVar="0" Cut="6.4073091745376587e-01" cType="1" res="-6.2572173774242401e-03" rms="4.5111000537872314e-01" purity="4.9576109647750854e-01" nType="0">
        <Node pos="l" depth="1" NCoef="0" IVar="-1" Cut="0.0000000000000000e+00" cType="1" res="1.3501150533556938e-03" rms="4.3049332499504089e-01" purity="7.2782337665557861e-01" nType="-99"/>
        <Node pos="r" depth="1" NCoef="0" IVar="9" Cut="9.4957250356674194e-01" cType="1" res="-9.3372724950313568e-03" rms="4.5274162292480469e-01" purity="4.7542867064476013e-01" nType="0">
          <Node pos="l" depth="2" NCoef="0" IVar="-1" Cut="0.0000000000000000e+00" cType="1" res="7.4252944614272565e-05" rms="4.4677692651748657e-01" purity="4.0015563368797302e-01" nType="-99"/>
          <Node pos="r" depth="2" NCoef="0" IVar="-1" Cut="0.0000000000000000e+00" cType="1" res="-5.5686308769509196e-04" rms="4.5632883906364441e-01" purity="5.2318775653839111e-01" nType="-99"/>
        </Node>
      </Node>
    </BinaryTree>
    <BinaryTree type="DecisionTree" boostWeight="1.0000000000000000e+00" itree="956">
      <Node pos="s" depth="0" NCoef="0" IVar="7" Cut="5.6758826971054077e-01" cType="1" res="3.0457065440714359e-04" rms="4.5264932513237000e-01" purity="5.0296580791473389e-01" nType="0">
        <Node pos="l" depth="1" NCoef="0" IVar="7" Cut="5.1094055175781250e-01" cType="1" res="-1.9909884780645370e-02" rms="4.5003443956375122e-01" purity="3.7437793612480164e-01" nType="0">
          <Node pos="l" depth="2" NCoef="0" IVar="-1" Cut="0.0000000000000000e+00" cType="1" res="-1.2746400898322463e-03" rms="4.5136302709579468e-01" purity="3.2459595799446106e-01" nType="-99"/>
          <Node pos="r" depth="2" NCoef="0" IVar="-1" Cut="0.0000000000000000e+00" cType="1" res="-3.1855198903940618e-04" rms="4.4917786121368408e-01" purity="3.9265623688697815e-01" nType="-99"/>
        </Node>
        <Node pos="r" depth="1" NCoef="0" IVar="5" Cut="1.1640019416809082e+00" cType="1" res="7.9660452902317047e-03" rms="4.5340096950531006e-01" purity="5.5170184373855591e-01" nType="0">
          <Node pos="l" depth="2" NCoef="0" IVar="-1" Cut="0.0000000000000000e+00" cType="1" res="-7.7852913818787783e-05" rms="4.5528760552406311e-01" purity="6.3942474126815796e-01" nType="-99"/>
          <Node pos="r" depth="2" NCoef="0" IVar="-1" Cut="0.0000000000000000e+00" cType="1" res="7.9991552047431469e-04" rms="4.4926863908767700e-01" purity="3.8822335004806519e-01" nType="-99"/>
        </Node>
      </Node>
    </BinaryTree>
    <BinaryTree type="DecisionTree" boostWeight="1.0000000000000000e+00" itree="957">
      <Node pos="s" depth="0" NCoef="0" IVar="6" Cut="2.5753809604793787e-03" cType="1" res="-2.6718371082097292e-03" rms="4.5223209261894226e-01" purity="4.9926072359085083e-01" nType="0">
        <Node pos="l" depth="1" NCoef="0" IVar="3" Cut="6.7829895019531250e+01" cType="1" res="-3.3971019089221954e-02" rms="4.4573140144348145e-01" purity="5.8580452203750610e-01" nType="0">
          <Node pos="l" depth="2" NCoef="0" IVar="-1" Cut="0.0000000000000000e+00" cType="1" res="-2.1184762008488178e-03" rms="4.6378675103187561e-01" purity="5.0402665138244629e-01" nType="-99"/>
          <Node pos="r" depth="2" NCoef="0" IVar="-1" Cut="0.0000000000000000e+00" cType="1" res="-3.5013488377444446e-04" rms="4.2870104312896729e-01" purity="6.5268963575363159e-01" nType="-99"/>
        </Node>
        <Node pos="r" depth="1" NCoef="0" IVar="0" Cut="1.6507798433303833e+00" cType="1" res="2.7404562570154667e-03" rms="4.5312756299972534e-01" purity="4.8429548740386963e-01" nType="0">
          <Node pos="l" depth="2" NCoef="0" IVar="-1" Cut="0.0000000000000000e+00" cType="1" res="2.0813394803553820e-04" rms="4.5965471863746643e-01" purity="5.1182889938354492e-01" nType="-99"/>
          <Node pos="r" depth="2" NCoef="0" IVar="-1" Cut="0.0000000000000000e+00" cType="1" res="-1.0816646972671151e-03" rms="3.7930628657341003e-01" purity="2.0715311169624329e-01" nType="-99"/>
        </Node>
      </Node>
    </BinaryTree>
    <BinaryTree type="DecisionTree" boostWeight="1.0000000000000000e+00" itree="958">
      <Node pos="s" depth="0" NCoef="0" IVar="6" Cut="2.4465564638376236e-02" cType="1" res="4.0113814175128937e-03" rms="4.5272096991539001e-01" purity="5.0883120298385620e-01" nType="0">
        <Node pos="l" depth="1" NCoef="0" IVar="8" Cut="5.1708072423934937e-01" cType="1" res="-3.7633334286510944e-03" rms="4.5233762264251709e-01" purity="5.3959709405899048e-01" nType="0">
          <Node pos="l" depth="2" NCoef="0" IVar="-1" Cut="0.0000000000000000e+00" cType="1" res="-7.2761310730129480e-04" rms="4.6780934929847717e-01" purity="4.4421780109405518e-01" nType="-99"/>
          <Node pos="r" depth="2" NCoef="0" IVar="-1" Cut="0.0000000000000000e+00" cType="1" res="1.4018658839631826e-04" rms="4.4595584273338318e-01" purity="5.7659763097763062e-01" nType="-99"/>
        </Node>
        <Node pos="r" depth="1" NCoef="0" IVar="9" Cut="9.8955851793289185e-01" cType="1" res="1.8375478684902191e-02" rms="4.5307758450508118e-01" purity="4.5198994874954224e-01" nType="0">
          <Node pos="l" depth="2" NCoef="0" IVar="-1" Cut="0.0000000000000000e+00" cType="1" res="9.7296060994267464e-04" rms="4.5023474097251892e-01" purity="4.3966042995452881e-01" nType="-99"/>
          <Node pos="r" depth="2" NCoef="0" IVar="-1" Cut="0.0000000000000000e+00" cType="1" res="-5.6540063815191388e-04" rms="4.5954641699790955e-01" purity="4.8876929283142090e-01" nType="-99"/>
        </Node>
      </Node>
    </BinaryTree>
    <BinaryTree type="DecisionTree" boostWeight="1.0000000000000000e+00" itree="959">
      <Node pos="s" depth="0" NCoef="0" IVar="7" Cut="6.4102190732955933e-01" cType="1" res="-1.8742115935310721e-03" rms="4.5078358054161072e-01" purity="4.9808165431022644e-01" nType="0">
        <Node pos="l" depth="1" NCoef="0" IVar="2" Cut="7.7563327550888062e-01" cType="1" res="-1.7201587557792664e-02" rms="4.5333173871040344e-01" purity="4.0350338816642761e-01" nType="0">
          <Node pos="l" depth="2" NCoef="0" IVar="-1" Cut="0.0000000000000000e+00" cType="1" res="5.1610128139145672e-05" rms="4.4430378079414368e-01" purity="3.2581397891044617e-01" nType="-99"/>
          <Node pos="r" depth="2" NCoef="0" IVar="-1" Cut="0.0000000000000000e+00" cType="1" res="-8.0233818152919412e-04" rms="4.5741614699363708e-01" purity="4.4167715311050415e-01" nType="-99"/>
        </Node>
        <Node pos="r" depth="1" NCoef="0" IVar="6" Cut="1.9797794520854950e-02" cType="1" res="1.1650576256215572e-02" rms="4.4808787107467651e-01" purity="5.8153700828552246e-01" nType="0">
          <Node pos="l" depth="2" NCoef="0" IVar="-1" Cut="0.0000000000000000e+00" cType="1" res="2.2627082944381982e-04" rms="4.4834420084953308e-01" purity="5.8126229047775269e-01" nType="-99"/>
          <Node pos="r" depth="2" NCoef="0" IVar="-1" Cut="0.0000000000000000e+00" cType="1" res="2.3047032300382853e-03" rms="4.4228261709213257e-01" purity="5.8416515588760376e-01" nType="-99"/>
        </Node>
      </Node>
    </BinaryTree>
    <BinaryTree type="DecisionTree" boostWeight="1.0000000000000000e+00" itree="960">
      <Node pos="s" depth="0" NCoef="0" IVar="0" Cut="1.6348251104354858e+00" cType="1" res="-4.7812755219638348e-03" rms="4.5292472839355469e-01" purity="4.9570801854133606e-01" nType="0">
        <Node pos="l" depth="1" NCoef="0" IVar="8" Cut="6.3345456123352051e-01" cType="1" res="-9.9176750518381596e-04" rms="4.5942327380180359e-01" purity="5.2643352746963501e-01" nType="0">
          <Node pos="l" depth="2" NCoef="0" IVar="-1" Cut="0.0000000000000000e+00" cType="1" res="1.0269338963553309e-04" rms="4.6133199334144592e-01" purity="5.0437635183334351e-01" nType="-99"/>
          <Node pos="r" depth="2" NCoef="0" IVar="-1" Cut="0.0000000000000000e+00" cType="1" res="-7.9768750583752990e-04" rms="4.4988501071929932e-01" purity="6.2946552038192749e-01" nType="-99"/>
        </Node>
        <Node pos="r" depth="1" NCoef="0" IVar="-1" Cut="0.0000000000000000e+00" cType="1" res="-1.2151928385719657e-03" rms="3.8700655102729797e-01" purity="2.1564245223999023e-01" nType="-99"/>
      </Node>
    </BinaryTree>
    <BinaryTree type="DecisionTree" boostWeight="1.0000000000000000e+00" itree="961">
      <Node pos="s" depth="0" NCoef="0" IVar="7" Cut="8.3056110143661499e-01" cType="1" res="2.6820439379662275e-03" rms="4.5074078440666199e-01" purity="5.0467032194137573e-01" nType="0">
        <Node pos="l" depth="1" NCoef="0" IVar="2" Cut="8.9362603425979614e-01" cType="1" res="-3.8846805691719055e-03" rms="4.5370233058929443e-01" purity="4.6687018871307373e-01" nType="0">
          <Node pos="l" depth="2" NCoef="0" IVar="-1" Cut="0.0000000000000000e+00" cType="1" res="1.8285551050212234e-04" rms="4.5120424032211304e-01" purity="4.4819912314414978e-01" nType="-99"/>
          <Node pos="r" depth="2" NCoef="0" IVar="-1" Cut="0.0000000000000000e+00" cType="1" res="-1.5519078588113189e-03" rms="4.6180987358093262e-01" purity="5.4499095678329468e-01" nType="-99"/>
        </Node>
        <Node pos="r" depth="1" NCoef="0" IVar="7" Cut="9.2521429061889648e-01" cType="1" res="2.8287539258599281e-02" rms="4.3806284666061401e-01" purity="6.5206360816955566e-01" nType="0">
          <Node pos="l" depth="2" NCoef="0" IVar="-1" Cut="0.0000000000000000e+00" cType="1" res="1.8520730081945658e-03" rms="4.3392273783683777e-01" purity="6.6011524200439453e-01" nType="-99"/>
          <Node pos="r" depth="2" NCoef="0" IVar="-1" Cut="0.0000000000000000e+00" cType="1" res="6.1884675233159214e-05" rms="4.4319659471511841e-01" purity="6.3936257362365723e-01" nType="-99"/>
        </Node>
      </Node>
    </BinaryTree>
    <BinaryTree type="DecisionTree" boostWeight="1.0000000000000000e+00" itree="962">
      <Node pos="s" depth="0" NCoef="0" IVar="6" Cut="2.0633256062865257e-02" cType="1" res="9.1843807604163885e-04" rms="4.5326867699623108e-01" purity="5.0687837600708008e-01" nType="0">
        <Node pos="l" depth="1" NCoef="0" IVar="5" Cut="8.9588731527328491e-01" cType="1" res="-8.3123184740543365e-03" rms="4.5200258493423462e-01" purity="5.4806184768676758e-01" nType="0">
          <Node pos="l" depth="2" NCoef="0" IVar="-1" Cut="0.0000000000000000e+00" cType="1" res="-9.5382559811696410e-04" rms="4.5149865746498108e-01" purity="6.5516734123229980e-01" nType="-99"/>
          <Node pos="r" depth="2" NCoef="0" IVar="-1" Cut="0.0000000000000000e+00" cType="1" res="1.1151631042594090e-04" rms="4.5204132795333862e-01" purity="4.6420064568519592e-01" nType="-99"/>
        </Node>
        <Node pos="r" depth="1" NCoef="0" IVar="2" Cut="8.5403764247894287e-01" cType="1" res="1.3364030979573727e-02" rms="4.5467355847358704e-01" purity="4.5135176181793213e-01" nType="0">
          <Node pos="l" depth="2" NCoef="0" IVar="-1" Cut="0.0000000000000000e+00" cType="1" res="9.7745214588940144e-05" rms="4.5403534173965454e-01" purity="4.0194910764694214e-01" nType="-99"/>
          <Node pos="r" depth="2" NCoef="0" IVar="-1" Cut="0.0000000000000000e+00" cType="1" res="1.6433958662673831e-03" rms="4.5522075891494751e-01" purity="6.0181844234466553e-01" nType="-99"/>
        </Node>
      </Node>
    </BinaryTree>
    <BinaryTree type="DecisionTree" boostWeight="1.0000000000000000e+00" itree="963">
      <Node pos="s" depth="0" NCoef="0" IVar="4" Cut="3.8756082153320312e+02" cType="1" res="1.9054232398048043e-03" rms="4.5016604661941528e-01" purity="5.0358051061630249e-01" nType="0">
        <Node pos="l" depth="1" NCoef="0" IVar="3" Cut="3.6327774047851562e+01" cType="1" res="4.8450818285346031e-03" rms="4.5297515392303467e-01" purity="5.2173137664794922e-01" nType="0">
          <Node pos="l" depth="2" NCoef="0" IVar="-1" Cut="0.0000000000000000e+00" cType="1" res="-1.0005729272961617e-03" rms="4.4119930267333984e-01" purity="3.5404962301254272e-01" nType="-99"/>
          <Node pos="r" depth="2" NCoef="0" IVar="-1" Cut="0.0000000000000000e+00" cType="1" res="2.9510792228393257e-04" rms="4.5388892292976379e-01" purity="5.3753364086151123e-01" nType="-99"/>
        </Node>
        <Node pos="r" depth="1" NCoef="0" IVar="-1" Cut="0.0000000000000000e+00" cType="1" res="-8.1904919352382421e-04" rms="4.2067602276802063e-01" purity="3.2634678483009338e-01" nType="-99"/>
      </Node>
    </BinaryTree>
    <BinaryTree type="DecisionTree" boostWeight="1.0000000000000000e+00" itree="964">
      <Node pos="s" depth="0" NCoef="0" IVar="2" Cut="9.6221691370010376e-01" cType="1" res="1.5032067894935608e-03" rms="4.5080772042274475e-01" purity="5.0480109453201294e-01" nType="0">
        <Node pos="l" depth="1" NCoef="0" IVar="9" Cut="9.3925642967224121e-01" cType="1" res="-2.2354791872203350e-03" rms="4.5420575141906738e-01" purity="4.8852446675300598e-01" nType="0">
          <Node pos="l" depth="2" NCoef="0" IVar="-1" Cut="0.0000000000000000e+00" cType="1" res="3.3168192021548748e-04" rms="4.4870856404304504e-01" purity="4.2036229372024536e-01" nType="-99"/>
          <Node pos="r" depth="2" NCoef="0" IVar="-1" Cut="0.0000000000000000e+00" cType="1" res="-3.1714141368865967e-04" rms="4.5712926983833313e-01" purity="5.2711302042007446e-01" nType="-99"/>
        </Node>
        <Node pos="r" depth="1" NCoef="0" IVar="-1" Cut="0.0000000000000000e+00" cType="1" res="1.6777602722868323e-03" rms="4.1268107295036316e-01" purity="6.7061841487884521e-01" nType="-99"/>
      </Node>
    </BinaryTree>
    <BinaryTree type="DecisionTree" boostWeight="1.0000000000000000e+00" itree="965">
      <Node pos="s" depth="0" NCoef="0" IVar="3" Cut="1.4648326110839844e+02" cType="1" res="-3.9369151927530766e-03" rms="4.4831547141075134e-01" purity="4.9557441473007202e-01" nType="0">
        <Node pos="l" depth="1" NCoef="0" IVar="8" Cut="6.5733736753463745e-01" cType="1" res="-7.9387833829969168e-04" rms="4.4848445057868958e-01" purity="5.0721442699432373e-01" nType="0">
          <Node pos="l" depth="2" NCoef="0" IVar="-1" Cut="0.0000000000000000e+00" cType="1" res="-1.4806618855800480e-04" rms="4.5101308822631836e-01" purity="4.8716259002685547e-01" nType="-99"/>
          <Node pos="r" depth="2" NCoef="0" IVar="-1" Cut="0.0000000000000000e+00" cType="1" res="1.5407413011416793e-03" rms="4.2239454388618469e-01" purity="6.9537883996963501e-01" nType="-99"/>
        </Node>
        <Node pos="r" depth="1" NCoef="0" IVar="-1" Cut="0.0000000000000000e+00" cType="1" res="-1.2874891981482506e-03" rms="4.4435888528823853e-01" purity="3.5090526938438416e-01" nType="-99"/>
      </Node>
    </BinaryTree>
    <BinaryTree type="DecisionTree" boostWeight="1.0000000000000000e+00" itree="966">
      <Node pos="s" depth="0" NCoef="0" IVar="3" Cut="6.0787792205810547e+01" cType="1" res="-1.0907823452726007e-03" rms="4.5490875840187073e-01" purity="5.0245213508605957e-01" nType="0">
        <Node pos="l" depth="1" NCoef="0" IVar="9" Cut="9.1179478168487549e-01" cType="1" res="1.4810059219598770e-02" rms="4.5753374695777893e-01" purity="4.7682896256446838e-01" nType="0">
          <Node pos="l" depth="2" NCoef="0" IVar="-1" Cut="0.0000000000000000e+00" cType="1" res="2.1190324332565069e-03" rms="4.5384457707405090e-01" purity="4.1528725624084473e-01" nType="-99"/>
          <Node pos="r" depth="2" NCoef="0" IVar="-1" Cut="0.0000000000000000e+00" cType="1" res="-5.7888851188181434e-06" rms="4.5754459500312805e-01" purity="4.9503016471862793e-01" nType="-99"/>
        </Node>
        <Node pos="r" depth="1" NCoef="0" IVar="2" Cut="7.8295290470123291e-01" cType="1" res="-9.5861442387104034e-03" rms="4.5327153801918030e-01" purity="5.1614183187484741e-01" nType="0">
          <Node pos="l" depth="2" NCoef="0" IVar="-1" Cut="0.0000000000000000e+00" cType="1" res="-1.0142043465748429e-03" rms="4.4913634657859802e-01" purity="3.1788483262062073e-01" nType="-99"/>
          <Node pos="r" depth="2" NCoef="0" IVar="-1" Cut="0.0000000000000000e+00" cType="1" res="-1.0767244384624064e-04" rms="4.5406422019004822e-01" purity="5.6572610139846802e-01" nType="-99"/>
        </Node>
      </Node>
    </BinaryTree>
    <BinaryTree type="DecisionTree" boostWeight="1.0000000000000000e+00" itree="967">
      <Node pos="s" depth="0" NCoef="0" IVar="6" Cut="1.9314691424369812e-02" cType="1" res="-7.4767530895769596e-04" rms="4.5043554902076721e-01" purity="4.9774399399757385e-01" nType="0">
        <Node pos="l" depth="1" NCoef="0" IVar="3" Cut="1.1999376678466797e+02" cType="1" res="-9.4670057296752930e-03" rms="4.5285308361053467e-01" purity="5.4812240600585938e-01" nType="0">
          <Node pos="l" depth="2" NCoef="0" IVar="-1" Cut="0.0000000000000000e+00" cType="1" res="-5.3759146248921752e-04" rms="4.5647111535072327e-01" purity="5.3995758295059204e-01" nType="-99"/>
          <Node pos="r" depth="2" NCoef="0" IVar="-1" Cut="0.0000000000000000e+00" cType="1" res="8.2857743836939335e-04" rms="4.3284332752227783e-01" purity="5.8912181854248047e-01" nType="-99"/>
        </Node>
        <Node pos="r" depth="1" NCoef="0" IVar="6" Cut="2.9939891770482063e-02" cType="1" res="9.1988015919923782e-03" rms="4.4745439291000366e-01" purity="4.4027537107467651e-01" nType="0">
          <Node pos="l" depth="2" NCoef="0" IVar="-1" Cut="0.0000000000000000e+00" cType="1" res="1.0778872529044747e-03" rms="4.4804218411445618e-01" purity="4.8720130324363708e-01" nType="-99"/>
          <Node pos="r" depth="2" NCoef="0" IVar="-1" Cut="0.0000000000000000e+00" cType="1" res="-3.6065030144527555e-04" rms="4.4587412476539612e-01" purity="3.9746823906898499e-01" nType="-99"/>
        </Node>
      </Node>
    </BinaryTree>
    <BinaryTree type="DecisionTree" boostWeight="1.0000000000000000e+00" itree="968">
      <Node pos="s" depth="0" NCoef="0" IVar="1" Cut="2.5317099094390869e+00" cType="1" res="-2.9603354632854462e-03" rms="4.5064789056777954e-01" purity="4.9696859717369080e-01" nType="0">
        <Node pos="l" depth="1" NCoef="0" IVar="1" Cut="2.1333791315555573e-01" cType="1" res="-1.8407500465400517e-04" rms="4.5559021830558777e-01" purity="5.2127319574356079e-01" nType="0">
          <Node pos="l" depth="2" NCoef="0" IVar="-1" Cut="0.0000000000000000e+00" cType="1" res="1.7479854868724942e-03" rms="4.3953639268875122e-01" purity="6.9133561849594116e-01" nType="-99"/>
          <Node pos="r" depth="2" NCoef="0" IVar="-1" Cut="0.0000000000000000e+00" cType="1" res="-9.0002737124450505e-05" rms="4.5647418498992920e-01" purity="5.1043921709060669e-01" nType="-99"/>
        </Node>
        <Node pos="r" depth="1" NCoef="0" IVar="-1" Cut="0.0000000000000000e+00" cType="1" res="-1.0556433117017150e-03" rms="3.9042663574218750e-01" purity="2.2771456837654114e-01" nType="-99"/>
      </Node>
    </BinaryTree>
    <BinaryTree type="DecisionTree" boostWeight="1.0000000000000000e+00" itree="969">
      <Node pos="s" depth="0" NCoef="0" IVar="5" Cut="8.6089909076690674e-01" cType="1" res="-3.8747538346797228e-03" rms="4.5320570468902588e-01" purity="4.9674361944198608e-01" nType="0">
        <Node pos="l" depth="1" NCoef="0" IVar="6" Cut="2.0472738891839981e-02" cType="1" res="7.1657015942037106e-03" rms="4.5440912246704102e-01" purity="6.4963376522064209e-01" nType="0">
          <Node pos="l" depth="2" NCoef="0" IVar="-1" Cut="0.0000000000000000e+00" cType="1" res="-3.3589778468012810e-04" rms="4.4473412632942200e-01" purity="6.7916864156723022e-01" nType="-99"/>
          <Node pos="r" depth="2" NCoef="0" IVar="-1" Cut="0.0000000000000000e+00" cType="1" res="9.9108589347451925e-04" rms="4.6700477600097656e-01" purity="6.0754764080047607e-01" nType="-99"/>
        </Node>
        <Node pos="r" depth="1" NCoef="0" IVar="9" Cut="9.6900504827499390e-01" cType="1" res="-1.0326204821467400e-02" rms="4.5237627625465393e-01" purity="4.0740278363227844e-01" nType="0">
          <Node pos="l" depth="2" NCoef="0" IVar="-1" Cut="0.0000000000000000e+00" cType="1" res="-5.0068092605215497e-06" rms="4.4484540820121765e-01" purity="3.5992589592933655e-01" nType="-99"/>
          <Node pos="r" depth="2" NCoef="0" IVar="-1" Cut="0.0000000000000000e+00" cType="1" res="-6.3306809170171618e-04" rms="4.5965105295181274e-01" purity="4.5550119876861572e-01" nType="-99"/>
        </Node>
      </Node>
    </BinaryTree>
    <BinaryTree type="DecisionTree" boostWeight="1.0000000000000000e+00" itree="970">
      <Node pos="s" depth="0" NCoef="0" IVar="4" Cut="2.5536624145507812e+02" cType="1" res="-2.9697855934500694e-03" rms="4.5383074879646301e-01" purity="5.0030410289764404e-01" nType="0">
        <Node pos="l" depth="1" NCoef="0" IVar="5" Cut="1.1150230169296265e+00" cType="1" res="2.3831506259739399e-03" rms="4.5649015903472900e-01" purity="5.3204607963562012e-01" nType="0">
          <Node pos="l" depth="2" NCoef="0" IVar="-1" Cut="0.0000000000000000e+00" cType="1" res="-3.0722684459760785e-04" rms="4.6181985735893250e-01" purity="6.1132490634918213e-01" nType="-99"/>
          <Node pos="r" depth="2" NCoef="0" IVar="-1" Cut="0.0000000000000000e+00" cType="1" res="6.7777390358969569e-04" rms="4.4583469629287720e-01" purity="3.8620993494987488e-01" nType="-99"/>
        </Node>
        <Node pos="r" depth="1" NCoef="0" IVar="8" Cut="5.9315687417984009e-01" cType="1" res="-2.2259967401623726e-02" rms="4.4357949495315552e-01" purity="3.8591691851615906e-01" nType="0">
          <Node pos="l" depth="2" NCoef="0" IVar="-1" Cut="0.0000000000000000e+00" cType="1" res="-1.0173120535910130e-03" rms="4.4247257709503174e-01" purity="3.3734276890754700e-01" nType="-99"/>
          <Node pos="r" depth="2" NCoef="0" IVar="-1" Cut="0.0000000000000000e+00" cType="1" res="3.1315651722252369e-04" rms="4.4477948546409607e-01" purity="5.0864183902740479e-01" nType="-99"/>
        </Node>
      </Node>
    </BinaryTree>
    <BinaryTree type="DecisionTree" boostWeight="1.0000000000000000e+00" itree="971">
      <Node pos="s" depth="0" NCoef="0" IVar="8" Cut="6.4665675163269043e-01" cType="1" res="1.2324530398473144e-03" rms="4.4944891333580017e-01" purity="5.0318664312362671e-01" nType="0">
        <Node pos="l" depth="1" NCoef="0" IVar="6" Cut="3.8689165376126766e-03" cType="1" res="-3.6874809302389622e-03" rms="4.5248934626579285e-01" purity="4.7911834716796875e-01" nType="0">
          <Node pos="l" depth="2" NCoef="0" IVar="-1" Cut="0.0000000000000000e+00" cType="1" res="-1.2673299061134458e-03" rms="4.6135294437408447e-01" purity="5.5480420589447021e-01" nType="-99"/>
          <Node pos="r" depth="2" NCoef="0" IVar="-1" Cut="0.0000000000000000e+00" cType="1" res="4.0078120946418494e-05" rms="4.5091027021408081e-01" purity="4.6750542521476746e-01" nType="-99"/>
        </Node>
        <Node pos="r" depth="1" NCoef="0" IVar="7" Cut="9.1435903310775757e-01" cType="1" res="3.5914558917284012e-02" rms="4.2579281330108643e-01" purity="6.7285132408142090e-01" nType="0">
          <Node pos="l" depth="2" NCoef="0" IVar="-1" Cut="0.0000000000000000e+00" cType="1" res="3.2357873860746622e-03" rms="4.1588768362998962e-01" purity="6.9077771902084351e-01" nType="-99"/>
          <Node pos="r" depth="2" NCoef="0" IVar="-1" Cut="0.0000000000000000e+00" cType="1" res="-5.9194292407482862e-04" rms="4.3473342061042786e-01" purity="6.4715164899826050e-01" nType="-99"/>
        </Node>
      </Node>
    </BinaryTree>
    <BinaryTree type="DecisionTree" boostWeight="1.0000000000000000e+00" itree="972">
      <Node pos="s" depth="0" NCoef="0" IVar="6" Cut="3.8727227598428726e-02" cType="1" res="-5.0303256139159203e-03" rms="4.5049282908439636e-01" purity="4.9461397528648376e-01" nType="0">
        <Node pos="l" depth="1" NCoef="0" IVar="6" Cut="1.6942488029599190e-02" cType="1" res="-1.9113566959276795e-03" rms="4.5028412342071533e-01" purity="5.0757640600204468e-01" nType="0">
          <Node pos="l" depth="2" NCoef="0" IVar="-1" Cut="0.0000000000000000e+00" cType="1" res="-5.0104327965527773e-04" rms="4.5327204465866089e-01" purity="5.5023282766342163e-01" nType="-99"/>
          <Node pos="r" depth="2" NCoef="0" IVar="-1" Cut="0.0000000000000000e+00" cType="1" res="3.8251932710409164e-04" rms="4.4651836156845093e-01" purity="4.6002963185310364e-01" nType="-99"/>
        </Node>
        <Node pos="r" depth="1" NCoef="0" IVar="-1" Cut="0.0000000000000000e+00" cType="1" res="-1.1560226557776332e-03" rms="4.5135790109634399e-01" purity="3.5065215826034546e-01" nType="-99"/>
      </Node>
    </BinaryTree>
    <BinaryTree type="DecisionTree" boostWeight="1.0000000000000000e+00" itree="973">
      <Node pos="s" depth="0" NCoef="0" IVar="8" Cut="5.3114485740661621e-01" cType="1" res="2.1930548828095198e-03" rms="4.5290994644165039e-01" purity="5.0448602437973022e-01" nType="0">
        <Node pos="l" depth="1" NCoef="0" IVar="1" Cut="1.0467445850372314e+00" cType="1" res="1.6972793266177177e-02" rms="4.5495364069938660e-01" purity="4.4318926334381104e-01" nType="0">
          <Node pos="l" depth="2" NCoef="0" IVar="-1" Cut="0.0000000000000000e+00" cType="1" res="1.1455988278612494e-03" rms="4.6548098325729370e-01" purity="5.3644448518753052e-01" nType="-99"/>
          <Node pos="r" depth="2" NCoef="0" IVar="-1" Cut="0.0000000000000000e+00" cType="1" res="-7.6391675975173712e-05" rms="4.4248977303504944e-01" purity="3.4257116913795471e-01" nType="-99"/>
        </Node>
        <Node pos="r" depth="1" NCoef="0" IVar="3" Cut="1.3026107788085938e+02" cType="1" res="-7.5054061599075794e-03" rms="4.5130088925361633e-01" purity="5.4470896720886230e-01" nType="0">
          <Node pos="l" depth="2" NCoef="0" IVar="-1" Cut="0.0000000000000000e+00" cType="1" res="-7.8952616604510695e-05" rms="4.5252224802970886e-01" purity="5.5446207523345947e-01" nType="-99"/>
          <Node pos="r" depth="2" NCoef="0" IVar="-1" Cut="0.0000000000000000e+00" cType="1" res="-1.6456602606922388e-03" rms="4.3868973851203918e-01" purity="4.6399515867233276e-01" nType="-99"/>
        </Node>
      </Node>
    </BinaryTree>
    <BinaryTree type="DecisionTree" boostWeight="1.0000000000000000e+00" itree="974">
      <Node pos="s" depth="0" NCoef="0" IVar="8" Cut="4.7684222459793091e-01" cType="1" res="3.9359331130981445e-03" rms="4.5145678520202637e-01" purity="5.0366443395614624e-01" nType="0">
        <Node pos="l" depth="1" NCoef="0" IVar="2" Cut="7.5398612022399902e-01" cType="1" res="-1.4127531088888645e-02" rms="4.4818073511123657e-01" purity="3.8128089904785156e-01" nType="0">
          <Node pos="l" depth="2" NCoef="0" IVar="-1" Cut="0.0000000000000000e+00" cType="1" res="-1.3819874729961157e-03" rms="4.1929623484611511e-01" purity="2.4788381159305573e-01" nType="-99"/>
          <Node pos="r" depth="2" NCoef="0" IVar="-1" Cut="0.0000000000000000e+00" cType="1" res="3.0991006497060880e-05" rms="4.5953014492988586e-01" purity="4.4011288881301880e-01" nType="-99"/>
        </Node>
        <Node pos="r" depth="1" NCoef="0" IVar="2" Cut="8.3083456754684448e-01" cType="1" res="8.7037598714232445e-03" rms="4.5219719409942627e-01" purity="5.3596735000610352e-01" nType="0">
          <Node pos="l" depth="2" NCoef="0" IVar="-1" Cut="0.0000000000000000e+00" cType="1" res="8.7403168436139822e-04" rms="4.5957350730895996e-01" purity="4.2571434378623962e-01" nType="-99"/>
          <Node pos="r" depth="2" NCoef="0" IVar="-1" Cut="0.0000000000000000e+00" cType="1" res="4.8843699914868921e-05" rms="4.4915029406547546e-01" purity="5.7778155803680420e-01" nType="-99"/>
        </Node>
      </Node>
    </BinaryTree>
    <BinaryTree type="DecisionTree" boostWeight="1.0000000000000000e+00" itree="975">
      <Node pos="s" depth="0" NCoef="0" IVar="5" Cut="4.7602450847625732e-01" cType="1" res="-1.3214310165494680e-03" rms="4.4954988360404968e-01" purity="5.0125223398208618e-01" nType="0">
        <Node pos="l" depth="1" NCoef="0" IVar="-1" Cut="0.0000000000000000e+00" cType="1" res="1.6987635754048824e-03" rms="4.3517243862152100e-01" purity="6.9431084394454956e-01" nType="-99"/>
        <Node pos="r" depth="1" NCoef="0" IVar="6" Cut="2.4465531110763550e-02" cType="1" res="-5.0324662588536739e-03" rms="4.5062911510467529e-01" purity="4.8396393656730652e-01" nType="0">
          <Node pos="l" depth="2" NCoef="0" IVar="-1" Cut="0.0000000000000000e+00" cType="1" res="-4.1225977474823594e-04" rms="4.5275589823722839e-01" purity="5.1517170667648315e-01" nType="-99"/>
          <Node pos="r" depth="2" NCoef="0" IVar="-1" Cut="0.0000000000000000e+00" cType="1" res="2.7987128123641014e-04" rms="4.4622147083282471e-01" purity="4.2463615536689758e-01" nType="-99"/>
        </Node>
      </Node>
    </BinaryTree>
    <BinaryTree type="DecisionTree" boostWeight="1.0000000000000000e+00" itree="976">
      <Node pos="s" depth="0" NCoef="0" IVar="3" Cut="1.0062521362304688e+02" cType="1" res="2.4286359548568726e-03" rms="4.5069962739944458e-01" purity="5.0238955020904541e-01" nType="0">
        <Node pos="l" depth="1" NCoef="0" IVar="2" Cut="7.6487761735916138e-01" cType="1" res="-5.6358892470598221e-03" rms="4.5476546883583069e-01" purity="4.7887066006660461e-01" nType="0">
          <Node pos="l" depth="2" NCoef="0" IVar="-1" Cut="0.0000000000000000e+00" cType="1" res="8.2848221063613892e-04" rms="4.3652901053428650e-01" purity="3.2049775123596191e-01" nType="-99"/>
          <Node pos="r" depth="2" NCoef="0" IVar="-1" Cut="0.0000000000000000e+00" cType="1" res="-3.4213796607218683e-04" rms="4.5728382468223572e-01" purity="5.0305342674255371e-01" nType="-99"/>
        </Node>
        <Node pos="r" depth="1" NCoef="0" IVar="8" Cut="5.7115834951400757e-01" cType="1" res="2.1717505529522896e-02" rms="4.4022399187088013e-01" purity="5.5864244699478149e-01" nType="0">
          <Node pos="l" depth="2" NCoef="0" IVar="-1" Cut="0.0000000000000000e+00" cType="1" res="2.4645160010550171e-05" rms="4.5160907506942749e-01" purity="4.7412502765655518e-01" nType="-99"/>
          <Node pos="r" depth="2" NCoef="0" IVar="-1" Cut="0.0000000000000000e+00" cType="1" res="2.6164348237216473e-03" rms="4.1815841197967529e-01" purity="6.9994837045669556e-01" nType="-99"/>
        </Node>
      </Node>
    </BinaryTree>
    <BinaryTree type="DecisionTree" boostWeight="1.0000000000000000e+00" itree="977">
      <Node pos="s" depth="0" NCoef="0" IVar="3" Cut="7.3262107849121094e+01" cType="1" res="-1.7477837391197681e-03" rms="4.5371267199516296e-01" purity="4.9773022532463074e-01" nType="0">
        <Node pos="l" depth="1" NCoef="0" IVar="2" Cut="8.0685997009277344e-01" cType="1" res="1.2032333761453629e-02" rms="4.5834106206893921e-01" purity="4.8143458366394043e-01" nType="0">
          <Node pos="l" depth="2" NCoef="0" IVar="-1" Cut="0.0000000000000000e+00" cType="1" res="1.4902744442224503e-03" rms="4.5263850688934326e-01" purity="3.7499725818634033e-01" nType="-99"/>
          <Node pos="r" depth="2" NCoef="0" IVar="-1" Cut="0.0000000000000000e+00" cType="1" res="7.2328703026869334e-06" rms="4.5962828397750854e-01" purity="5.1703935861587524e-01" nType="-99"/>
        </Node>
        <Node pos="r" depth="1" NCoef="0" IVar="7" Cut="9.0336406230926514e-01" cType="1" res="-1.4142517000436783e-02" rms="4.4914785027503967e-01" purity="5.1238757371902466e-01" nType="0">
          <Node pos="l" depth="2" NCoef="0" IVar="-1" Cut="0.0000000000000000e+00" cType="1" res="-6.0030323220416903e-04" rms="4.5191276073455811e-01" purity="4.9036327004432678e-01" nType="-99"/>
          <Node pos="r" depth="2" NCoef="0" IVar="-1" Cut="0.0000000000000000e+00" cType="1" res="1.0214489884674549e-03" rms="4.2239382863044739e-01" purity="7.0556926727294922e-01" nType="-99"/>
        </Node>
      </Node>
    </BinaryTree>
    <BinaryTree type="DecisionTree" boostWeight="1.0000000000000000e+00" itree="978">
      <Node pos="s" depth="0" NCoef="0" IVar="5" Cut="1.7488049268722534e+00" cType="1" res="2.8248925809748471e-04" rms="4.4996333122253418e-01" purity="5.0139051675796509e-01" nType="0">
        <Node pos="l" depth="1" NCoef="0" IVar="4" Cut="1.5119979858398438e+02" cType="1" res="3.4577613696455956e-03" rms="4.5796123147010803e-01" purity="5.3343099355697632e-01" nType="0">
          <Node pos="l" depth="2" NCoef="0" IVar="-1" Cut="0.0000000000000000e+00" cType="1" res="4.3056317372247577e-04" rms="4.5365497469902039e-01" purity="5.7794988155364990e-01" nType="-99"/>
          <Node pos="r" depth="2" NCoef="0" IVar="-1" Cut="0.0000000000000000e+00" cType="1" res="-2.0739543833769858e-04" rms="4.6270194649696350e-01" purity="4.8178464174270630e-01" nType="-99"/>
        </Node>
        <Node pos="r" depth="1" NCoef="0" IVar="-1" Cut="0.0000000000000000e+00" cType="1" res="-1.1706639779731631e-03" rms="3.4911215305328369e-01" purity="1.5159514546394348e-01" nType="-99"/>
      </Node>
    </BinaryTree>
    <BinaryTree type="DecisionTree" boostWeight="1.0000000000000000e+00" itree="979">
      <Node pos="s" depth="0" NCoef="0" IVar="4" Cut="2.5536624145507812e+02" cType="1" res="-5.9754448011517525e-04" rms="4.5208421349525452e-01" purity="4.9973040819168091e-01" nType="0">
        <Node pos="l" depth="1" NCoef="0" IVar="0" Cut="7.2748172283172607e-01" cType="1" res="5.8793495409190655e-03" rms="4.5582154393196106e-01" purity="5.3402137756347656e-01" nType="0">
          <Node pos="l" depth="2" NCoef="0" IVar="-1" Cut="0.0000000000000000e+00" cType="1" res="-9.2884560581296682e-04" rms="4.5324459671974182e-01" purity="6.6633361577987671e-01" nType="-99"/>
          <Node pos="r" depth="2" NCoef="0" IVar="-1" Cut="0.0000000000000000e+00" cType="1" res="3.6224580253474414e-04" rms="4.5609515905380249e-01" purity="5.1031309366226196e-01" nType="-99"/>
        </Node>
        <Node pos="r" depth="1" NCoef="0" IVar="6" Cut="9.8936986178159714e-03" cType="1" res="-2.2933950647711754e-02" rms="4.3821778893470764e-01" purity="3.8147357106208801e-01" nType="0">
          <Node pos="l" depth="2" NCoef="0" IVar="-1" Cut="0.0000000000000000e+00" cType="1" res="-1.7238288419321179e-03" rms="4.4367969036102295e-01" purity="4.3413069844245911e-01" nType="-99"/>
          <Node pos="r" depth="2" NCoef="0" IVar="-1" Cut="0.0000000000000000e+00" cType="1" res="-2.6483106194064021e-04" rms="4.3520364165306091e-01" purity="3.6069810390472412e-01" nType="-99"/>
        </Node>
      </Node>
    </BinaryTree>
    <BinaryTree type="DecisionTree" boostWeight="1.0000000000000000e+00" itree="980">
      <Node pos="s" depth="0" NCoef="0" IVar="6" Cut="2.5793048553168774e-03" cType="1" res="-7.1438611485064030e-03" rms="4.5212161540985107e-01" purity="4.9484780430793762e-01" nType="0">
        <Node pos="l" depth="1" NCoef="0" IVar="4" Cut="1.4155432128906250e+02" cType="1" res="-4.1186925023794174e-02" rms="4.4336131215095520e-01" purity="5.7132250070571899e-01" nType="0">
          <Node pos="l" depth="2" NCoef="0" IVar="-1" Cut="0.0000000000000000e+00" cType="1" res="-7.1584712713956833e-04" rms="4.3308600783348083e-01" purity="6.2999421358108521e-01" nType="-99"/>
          <Node pos="r" depth="2" NCoef="0" IVar="-1" Cut="0.0000000000000000e+00" cType="1" res="-2.1860282868146896e-03" rms="4.5300665497779846e-01" purity="5.0644499063491821e-01" nType="-99"/>
        </Node>
        <Node pos="r" depth="1" NCoef="0" IVar="5" Cut="8.8406717777252197e-01" cType="1" res="-1.0896227322518826e-03" rms="4.5339420437812805e-01" purity="4.8124748468399048e-01" nType="0">
          <Node pos="l" depth="2" NCoef="0" IVar="-1" Cut="0.0000000000000000e+00" cType="1" res="4.4095641351304948e-04" rms="4.5974200963973999e-01" purity="6.3405001163482666e-01" nType="-99"/>
          <Node pos="r" depth="2" NCoef="0" IVar="-1" Cut="0.0000000000000000e+00" cType="1" res="-2.8298827237449586e-04" rms="4.4911593198776245e-01" purity="3.8410261273384094e-01" nType="-99"/>
        </Node>
      </Node>
    </BinaryTree>
    <BinaryTree type="DecisionTree" boostWeight="1.0000000000000000e+00" itree="981">
      <Node pos="s" depth="0" NCoef="0" IVar="1" Cut="5.9766769409179688e-01" cType="1" res="-2.8808852657675743e-03" rms="4.5259073376655579e-01" purity="5.0070112943649292e-01" nType="0">
        <Node pos="l" depth="1" NCoef="0" IVar="3" Cut="1.0374565124511719e+02" cType="1" res="1.9939951598644257e-02" rms="4.4737073779106140e-01" purity="6.3136899471282959e-01" nType="0">
          <Node pos="l" depth="2" NCoef="0" IVar="-1" Cut="0.0000000000000000e+00" cType="1" res="3.2428940176032484e-04" rms="4.6236979961395264e-01" purity="6.0339289903640747e-01" nType="-99"/>
          <Node pos="r" depth="2" NCoef="0" IVar="-1" Cut="0.0000000000000000e+00" cType="1" res="2.5582732632756233e-03" rms="3.9800658822059631e-01" purity="7.1403831243515015e-01" nType="-99"/>
        </Node>
        <Node pos="r" depth="1" NCoef="0" IVar="0" Cut="1.2828955650329590e+00" cType="1" res="-1.1446555145084858e-02" rms="4.5423874258995056e-01" purity="4.5165571570396423e-01" nType="0">
          <Node pos="l" depth="2" NCoef="0" IVar="-1" Cut="0.0000000000000000e+00" cType="1" res="-6.0862489044666290e-04" rms="4.6804463863372803e-01" purity="5.2964228391647339e-01" nType="-99"/>
          <Node pos="r" depth="2" NCoef="0" IVar="-1" Cut="0.0000000000000000e+00" cType="1" res="1.9563070964068174e-05" rms="4.3117371201515198e-01" purity="3.2803270220756531e-01" nType="-99"/>
        </Node>
      </Node>
    </BinaryTree>
    <BinaryTree type="DecisionTree" boostWeight="1.0000000000000000e+00" itree="982">
      <Node pos="s" depth="0" NCoef="0" IVar="2" Cut="7.2392743825912476e-01" cType="1" res="-4.6492745168507099e-03" rms="4.5156279206275940e-01" purity="4.9536508321762085e-01" nType="0">
        <Node pos="l" depth="1" NCoef="0" IVar="-1" Cut="0.0000000000000000e+00" cType="1" res="-1.2340416433289647e-03" rms="4.1403236985206604e-01" purity="2.3892942070960999e-01" nType="-99"/>
        <Node pos="r" depth="1" NCoef="0" IVar="3" Cut="1.4518669128417969e+02" cType="1" res="-1.9536663312464952e-03" rms="4.5403707027435303e-01" purity="5.1390326023101807e-01" nType="0">
          <Node pos="l" depth="2" NCoef="0" IVar="-1" Cut="0.0000000000000000e+00" cType="1" res="2.3923488697619177e-05" rms="4.5406064391136169e-01" purity="5.2587413787841797e-01" nType="-99"/>
          <Node pos="r" depth="2" NCoef="0" IVar="-1" Cut="0.0000000000000000e+00" cType="1" res="-9.9116226192563772e-04" rms="4.5260131359100342e-01" purity="3.7422057986259460e-01" nType="-99"/>
        </Node>
      </Node>
    </BinaryTree>
    <BinaryTree type="DecisionTree" boostWeight="1.0000000000000000e+00" itree="983">
      <Node pos="s" depth="0" NCoef="0" IVar="6" Cut="3.3563621342182159e-02" cType="1" res="-1.4798376942053437e-03" rms="4.5136475563049316e-01" purity="5.0030046701431274e-01" nType="0">
        <Node pos="l" depth="1" NCoef="0" IVar="0" Cut="6.9487881660461426e-01" cType="1" res="-5.3115063346922398e-03" rms="4.5233359932899475e-01" purity="5.1386380195617676e-01" nType="0">
          <Node pos="l" depth="2" NCoef="0" IVar="-1" Cut="0.0000000000000000e+00" cType="1" res="9.1723829973489046e-04" rms="4.3786540627479553e-01" purity="7.2409939765930176e-01" nType="-99"/>
          <Node pos="r" depth="2" NCoef="0" IVar="-1" Cut="0.0000000000000000e+00" cType="1" res="-2.7377522201277316e-04" rms="4.5403921604156494e-01" purity="4.8718431591987610e-01" nType="-99"/>
        </Node>
        <Node pos="r" depth="1" NCoef="0" IVar="8" Cut="5.2361112833023071e-01" cType="1" res="1.9032128155231476e-02" rms="4.4558265805244446e-01" purity="4.2769199609756470e-01" nType="0">
          <Node pos="l" depth="2" NCoef="0" IVar="-1" Cut="0.0000000000000000e+00" cType="1" res="-2.4423105060122907e-04" rms="4.3424853682518005e-01" purity="3.6114969849586487e-01" nType="-99"/>
          <Node pos="r" depth="2" NCoef="0" IVar="-1" Cut="0.0000000000000000e+00" cType="1" res="1.6090024728327990e-03" rms="4.5580372214317322e-01" purity="5.0039136409759521e-01" nType="-99"/>
        </Node>
      </Node>
    </BinaryTree>
    <BinaryTree type="DecisionTree" boostWeight="1.0000000000000000e+00" itree="984">
      <Node pos="s" depth="0" NCoef="0" IVar="4" Cut="2.5637911987304688e+02" cType="1" res="-3.9122104644775391e-03" rms="4.5134803652763367e-01" purity="4.9762886762619019e-01" nType="0">
        <Node pos="l" depth="1" NCoef="0" IVar="8" Cut="6.1518168449401855e-01" cType="1" res="9.0677721891552210e-04" rms="4.5264694094657898e-01" purity="5.2671295404434204e-01" nType="0">
          <Node pos="l" depth="2" NCoef="0" IVar="-1" Cut="0.0000000000000000e+00" cType="1" res="2.0857424533460289e-04" rms="4.5630326867103577e-01" purity="4.9728792905807495e-01" nType="-99"/>
          <Node pos="r" depth="2" NCoef="0" IVar="-1" Cut="0.0000000000000000e+00" cType="1" res="-6.5268127946183085e-04" rms="4.4035494327545166e-01" purity="6.2027442455291748e-01" nType="-99"/>
        </Node>
        <Node pos="r" depth="1" NCoef="0" IVar="9" Cut="9.3043744564056396e-01" cType="1" res="-2.1801644936203957e-02" rms="4.4603791832923889e-01" purity="3.8966074585914612e-01" nType="0">
          <Node pos="l" depth="2" NCoef="0" IVar="-1" Cut="0.0000000000000000e+00" cType="1" res="2.5399023434147239e-04" rms="4.2539343237876892e-01" purity="3.1903484463691711e-01" nType="-99"/>
          <Node pos="r" depth="2" NCoef="0" IVar="-1" Cut="0.0000000000000000e+00" cType="1" res="-1.1174322571605444e-03" rms="4.5567554235458374e-01" purity="4.2654737830162048e-01" nType="-99"/>
        </Node>
      </Node>
    </BinaryTree>
    <BinaryTree type="DecisionTree" boostWeight="1.0000000000000000e+00" itree="985">
      <Node pos="s" depth="0" NCoef="0" IVar="2" Cut="8.7708276510238647e-01" cType="1" res="-2.6260302402079105e-03" rms="4.5387756824493408e-01" purity="5.0172495841979980e-01" nType="0">
        <Node pos="l" depth="1" NCoef="0" IVar="7" Cut="6.0216218233108521e-01" cType="1" res="6.9642723537981510e-03" rms="4.5454245805740356e-01" purity="4.3596744537353516e-01" nType="0">
          <Node pos="l" depth="2" NCoef="0" IVar="-1" Cut="0.0000000000000000e+00" cType="1" res="-1.9742766744457185e-04" rms="4.5105525851249695e-01" purity="3.9239791035652161e-01" nType="-99"/>
          <Node pos="r" depth="2" NCoef="0" IVar="-1" Cut="0.0000000000000000e+00" cType="1" res="9.4796536723151803e-04" rms="4.5926705002784729e-01" purity="5.0613141059875488e-01" nType="-99"/>
        </Node>
        <Node pos="r" depth="1" NCoef="0" IVar="0" Cut="7.1022164821624756e-01" cType="1" res="-1.5087748877704144e-02" rms="4.5270872116088867e-01" purity="5.8717072010040283e-01" nType="0">
          <Node pos="l" depth="2" NCoef="0" IVar="-1" Cut="0.0000000000000000e+00" cType="1" res="-2.9307168442755938e-03" rms="4.4523474574089050e-01" purity="6.9690668582916260e-01" nType="-99"/>
          <Node pos="r" depth="2" NCoef="0" IVar="-1" Cut="0.0000000000000000e+00" cType="1" res="-2.4988624500110745e-04" rms="4.5351302623748779e-01" purity="5.6822234392166138e-01" nType="-99"/>
        </Node>
      </Node>
    </BinaryTree>
    <BinaryTree type="DecisionTree" boostWeight="1.0000000000000000e+00" itree="986">
      <Node pos="s" depth="0" NCoef="0" IVar="6" Cut="2.0585825666785240e-02" cType="1" res="-1.7498239176347852e-03" rms="4.5058092474937439e-01" purity="4.9731203913688660e-01" nType="0">
        <Node pos="l" depth="1" NCoef="0" IVar="6" Cut="1.0718859732151031e-02" cType="1" res="-1.1200012639164925e-02" rms="4.4838443398475647e-01" purity="5.3538590669631958e-01" nType="0">
          <Node pos="l" depth="2" NCoef="0" IVar="-1" Cut="0.0000000000000000e+00" cType="1" res="-4.6321656554937363e-06" rms="4.4199004769325256e-01" purity="5.7921481132507324e-01" nType="-99"/>
          <Node pos="r" depth="2" NCoef="0" IVar="-1" Cut="0.0000000000000000e+00" cType="1" res="-8.9574523735791445e-04" rms="4.5764979720115662e-01" purity="4.6699035167694092e-01" nType="-99"/>
        </Node>
        <Node pos="r" depth="1" NCoef="0" IVar="6" Cut="2.6592403650283813e-02" cType="1" res="1.0601819492876530e-02" rms="4.5313867926597595e-01" purity="4.4754844903945923e-01" nType="0">
          <Node pos="l" depth="2" NCoef="0" IVar="-1" Cut="0.0000000000000000e+00" cType="1" res="1.1569360503926873e-03" rms="4.5863041281700134e-01" purity="4.9964645504951477e-01" nType="-99"/>
          <Node pos="r" depth="2" NCoef="0" IVar="-1" Cut="0.0000000000000000e+00" cType="1" res="2.9139559046598151e-05" rms="4.5049676299095154e-01" purity="4.2603632807731628e-01" nType="-99"/>
        </Node>
      </Node>
    </BinaryTree>
    <BinaryTree type="DecisionTree" boostWeight="1.0000000000000000e+00" itree="987">
      <Node pos="s" depth="0" NCoef="0" IVar="5" Cut="4.4654306769371033e-01" cType="1" res="9.4444991555064917e-04" rms="4.5141342282295227e-01" purity="5.0149452686309814e-01" nType="0">
        <Node pos="l" depth="1" NCoef="0" IVar="-1" Cut="0.0000000000000000e+00" cType="1" res="-1.4619752764701843e-03" rms="4.6055397391319275e-01" purity="6.1332750320434570e-01" nType="-99"/>
        <Node pos="r" depth="1" NCoef="0" IVar="0" Cut="6.5467196702957153e-01" cType="1" res="4.2132851667702198e-03" rms="4.5051655173301697e-01" purity="4.9258494377136230e-01" nType="0">
          <Node pos="l" depth="2" NCoef="0" IVar="-1" Cut="0.0000000000000000e+00" cType="1" res="1.8032987136393785e-03" rms="4.3349540233612061e-01" purity="7.2918683290481567e-01" nType="-99"/>
          <Node pos="r" depth="2" NCoef="0" IVar="-1" Cut="0.0000000000000000e+00" cType="1" res="5.7715598813956603e-05" rms="4.5155888795852661e-01" purity="4.7635564208030701e-01" nType="-99"/>
        </Node>
      </Node>
    </BinaryTree>
    <BinaryTree type="DecisionTree" boostWeight="1.0000000000000000e+00" itree="988">
      <Node pos="s" depth="0" NCoef="0" IVar="6" Cut="2.0602568984031677e-02" cType="1" res="-3.0478676781058311e-03" rms="4.5664227008819580e-01" purity="5.0049304962158203e-01" nType="0">
        <Node pos="l" depth="1" NCoef="0" IVar="5" Cut="1.1131931543350220e+00" cType="1" res="-1.2862555682659149e-02" rms="4.5690429210662842e-01" purity="5.4232847690582275e-01" nType="0">
          <Node pos="l" depth="2" NCoef="0" IVar="-1" Cut="0.0000000000000000e+00" cType="1" res="-1.0041033383458853e-03" rms="4.6111738681793213e-01" purity="6.2867712974548340e-01" nType="-99"/>
          <Node pos="r" depth="2" NCoef="0" IVar="-1" Cut="0.0000000000000000e+00" cType="1" res="3.0432912171818316e-04" rms="4.4881123304367065e-01" purity="3.9760974049568176e-01" nType="-99"/>
        </Node>
        <Node pos="r" depth="1" NCoef="0" IVar="8" Cut="6.0506153106689453e-01" cType="1" res="9.7392071038484573e-03" rms="4.5598390698432922e-01" purity="4.4598764181137085e-01" nType="0">
          <Node pos="l" depth="2" NCoef="0" IVar="-1" Cut="0.0000000000000000e+00" cType="1" res="7.7743738074786961e-05" rms="4.5496392250061035e-01" purity="4.2170667648315430e-01" nType="-99"/>
          <Node pos="r" depth="2" NCoef="0" IVar="-1" Cut="0.0000000000000000e+00" cType="1" res="2.4345759302377701e-03" rms="4.5998859405517578e-01" purity="6.2787330150604248e-01" nType="-99"/>
        </Node>
      </Node>
    </BinaryTree>
    <BinaryTree type="DecisionTree" boostWeight="1.0000000000000000e+00" itree="989">
      <Node pos="s" depth="0" NCoef="0" IVar="7" Cut="9.2503917217254639e-01" cType="1" res="-3.1513131689280272e-03" rms="4.5204415917396545e-01" purity="4.9999761581420898e-01" nType="0">
        <Node pos="l" depth="1" NCoef="0" IVar="9" Cut="9.1743421554565430e-01" cType="1" res="2.3962270461197477e-06" rms="4.5201626420021057e-01" purity="4.9027276039123535e-01" nType="0">
          <Node pos="l" depth="2" NCoef="0" IVar="-1" Cut="0.0000000000000000e+00" cType="1" res="-4.7633348731324077e-04" rms="4.5077857375144958e-01" purity="3.7233862280845642e-01" nType="-99"/>
          <Node pos="r" depth="2" NCoef="0" IVar="-1" Cut="0.0000000000000000e+00" cType="1" res="2.3137299285735935e-04" rms="4.5237499475479126e-01" purity="5.4059988260269165e-01" nType="-99"/>
        </Node>
        <Node pos="r" depth="1" NCoef="0" IVar="-1" Cut="0.0000000000000000e+00" cType="1" res="-1.3832703698426485e-03" rms="4.5094814896583557e-01" purity="6.0476803779602051e-01" nType="-99"/>
      </Node>
    </BinaryTree>
    <BinaryTree type="DecisionTree" boostWeight="1.0000000000000000e+00" itree="990">
      <Node pos="s" depth="0" NCoef="0" IVar="7" Cut="6.4101487398147583e-01" cType="1" res="1.0547478450462222e-03" rms="4.4858700037002563e-01" purity="5.0150287151336670e-01" nType="0">
        <Node pos="l" depth="1" NCoef="0" IVar="4" Cut="1.0524198150634766e+02" cType="1" res="-1.1277764104306698e-02" rms="4.4971135258674622e-01" purity="4.0725401043891907e-01" nType="0">
          <Node pos="l" depth="2" NCoef="0" IVar="-1" Cut="0.0000000000000000e+00" cType="1" res="-8.7143870769068599e-04" rms="4.4556108117103577e-01" purity="3.6666855216026306e-01" nType="-99"/>
          <Node pos="r" depth="2" NCoef="0" IVar="-1" Cut="0.0000000000000000e+00" cType="1" res="-1.2255138426553458e-04" rms="4.5108708739280701e-01" purity="4.2289283871650696e-01" nType="-99"/>
        </Node>
        <Node pos="r" depth="1" NCoef="0" IVar="6" Cut="1.8257394433021545e-02" cType="1" res="1.1837156489491463e-02" rms="4.4732320308685303e-01" purity="5.8390533924102783e-01" nType="0">
          <Node pos="l" depth="2" NCoef="0" IVar="-1" Cut="0.0000000000000000e+00" cType="1" res="1.9292322394903749e-04" rms="4.4796401262283325e-01" purity="5.8269631862640381e-01" nType="-99"/>
          <Node pos="r" depth="2" NCoef="0" IVar="-1" Cut="0.0000000000000000e+00" cType="1" res="2.0174277015030384e-03" rms="4.4032534956932068e-01" purity="5.9223073720932007e-01" nType="-99"/>
        </Node>
      </Node>
    </BinaryTree>
    <BinaryTree type="DecisionTree" boostWeight="1.0000000000000000e+00" itree="991">
      <Node pos="s" depth="0" NCoef="0" IVar="3" Cut="1.1562955474853516e+02" cType="1" res="1.4553985092788935e-03" rms="4.5134085416793823e-01" purity="5.0173276662826538e-01" nType="0">
        <Node pos="l" depth="1" NCoef="0" IVar="5" Cut="1.5117386579513550e+00" cType="1" res="-3.1098772305995226e-03" rms="4.5467001199722290e-01" purity="4.9282777309417725e-01" nType="0">
          <Node pos="l" depth="2" NCoef="0" IVar="-1" Cut="0.0000000000000000e+00" cType="1" res="3.4800563298631459e-05" rms="4.6616736054420471e-01" purity="5.4571932554244995e-01" nType="-99"/>
          <Node pos="r" depth="2" NCoef="0" IVar="-1" Cut="0.0000000000000000e+00" cType="1" res="-8.2815671339631081e-04" rms="3.8375040888786316e-01" purity="1.9893631339073181e-01" nType="-99"/>
        </Node>
        <Node pos="r" depth="1" NCoef="0" IVar="3" Cut="1.3108728027343750e+02" cType="1" res="2.0022436976432800e-02" rms="4.3704906105995178e-01" purity="5.3794956207275391e-01" nType="0">
          <Node pos="l" depth="2" NCoef="0" IVar="-1" Cut="0.0000000000000000e+00" cType="1" res="2.3293362464755774e-03" rms="4.1571143269538879e-01" purity="6.5929234027862549e-01" nType="-99"/>
          <Node pos="r" depth="2" NCoef="0" IVar="-1" Cut="0.0000000000000000e+00" cType="1" res="-1.4859008661005646e-04" rms="4.4903019070625305e-01" purity="4.5716729760169983e-01" nType="-99"/>
        </Node>
      </Node>
    </BinaryTree>
    <BinaryTree type="DecisionTree" boostWeight="1.0000000000000000e+00" itree="992">
      <Node pos="s" depth="0" NCoef="0" IVar="5" Cut="4.0366736054420471e-01" cType="1" res="-4.6916811697883531e-05" rms="4.5214432477951050e-01" purity="5.0061702728271484e-01" nType="0">
        <Node pos="l" depth="1" NCoef="0" IVar="-1" Cut="0.0000000000000000e+00" cType="1" res="-1.8226745305582881e-03" rms="4.5887005329132080e-01" purity="5.9971386194229126e-01" nType="-99"/>
        <Node pos="r" depth="1" NCoef="0" IVar="0" Cut="7.5108391046524048e-01" cType="1" res="3.0064105521887541e-03" rms="4.5155477523803711e-01" purity="4.9465867877006531e-01" nType="0">
          <Node pos="l" depth="2" NCoef="0" IVar="-1" Cut="0.0000000000000000e+00" cType="1" res="1.3575409539043903e-03" rms="4.3948131799697876e-01" purity="7.0928281545639038e-01" nType="-99"/>
          <Node pos="r" depth="2" NCoef="0" IVar="-1" Cut="0.0000000000000000e+00" cType="1" res="-3.3779720979509875e-05" rms="4.5312729477882385e-01" purity="4.6366786956787109e-01" nType="-99"/>
        </Node>
      </Node>
    </BinaryTree>
    <BinaryTree type="DecisionTree" boostWeight="1.0000000000000000e+00" itree="993">
      <Node pos="s" depth="0" NCoef="0" IVar="0" Cut="8.6201578378677368e-01" cType="1" res="-3.2345275394618511e-03" rms="4.5259690284729004e-01" purity="4.9763956665992737e-01" nType="0">
        <Node pos="l" depth="1" NCoef="0" IVar="1" Cut="9.8021119832992554e-01" cType="1" res="-1.8660616129636765e-02" rms="4.5762169361114502e-01" purity="6.3862645626068115e-01" nType="0">
          <Node pos="l" depth="2" NCoef="0" IVar="-1" Cut="0.0000000000000000e+00" cType="1" res="-2.6143918512389064e-04" rms="4.4893398880958557e-01" purity="6.6924369335174561e-01" nType="-99"/>
          <Node pos="r" depth="2" NCoef="0" IVar="-1" Cut="0.0000000000000000e+00" cType="1" res="-1.7019090009853244e-03" rms="4.7851181030273438e-01" purity="5.5688619613647461e-01" nType="-99"/>
        </Node>
        <Node pos="r" depth="1" NCoef="0" IVar="2" Cut="8.3214575052261353e-01" cType="1" res="2.1572012919932604e-03" rms="4.5070293545722961e-01" purity="4.4836178421974182e-01" nType="0">
          <Node pos="l" depth="2" NCoef="0" IVar="-1" Cut="0.0000000000000000e+00" cType="1" res="-3.4795262035913765e-04" rms="4.4004330039024353e-01" purity="3.2272484898567200e-01" nType="-99"/>
          <Node pos="r" depth="2" NCoef="0" IVar="-1" Cut="0.0000000000000000e+00" cType="1" res="3.6001059925183654e-04" rms="4.5700258016586304e-01" purity="5.2662855386734009e-01" nType="-99"/>
        </Node>
      </Node>
    </BinaryTree>
    <BinaryTree type="DecisionTree" boostWeight="1.0000000000000000e+00" itree="994">
      <Node pos="s" depth="0" NCoef="0" IVar="5" Cut="4.2215552926063538e-01" cType="1" res="-8.9325141161680222e-03" rms="4.5428013801574707e-01" purity="4.9280786514282227e-01" nType="0">
        <Node pos="l" depth="1" NCoef="0" IVar="-1" Cut="0.0000000000000000e+00" cType="1" res="-1.8109675729647279e-03" rms="4.6902266144752502e-01" purity="6.0217761993408203e-01" nType="-99"/>
        <Node pos="r" depth="1" NCoef="0" IVar="2" Cut="9.1716599464416504e-01" cType="1" res="-6.1724982224404812e-03" rms="4.5315122604370117e-01" purity="4.8556190729141235e-01" nType="0">
          <Node pos="l" depth="2" NCoef="0" IVar="-1" Cut="0.0000000000000000e+00" cType="1" res="-1.0697486686694901e-05" rms="4.5416751503944397e-01" purity="4.5354801416397095e-01" nType="-99"/>
          <Node pos="r" depth="2" NCoef="0" IVar="-1" Cut="0.0000000000000000e+00" cType="1" res="-8.6372124496847391e-04" rms="4.4958436489105225e-01" purity="5.8284735679626465e-01" nType="-99"/>
        </Node>
      </Node>
    </BinaryTree>
    <BinaryTree type="DecisionTree" boostWeight="1.0000000000000000e+00" itree="995">
      <Node pos="s" depth="0" NCoef="0" IVar="3" Cut="1.0062521362304688e+02" cType="1" res="3.7553852889686823e-03" rms="4.5245456695556641e-01" purity="5.0691944360733032e-01" nType="0">
        <Node pos="l" depth="1" NCoef="0" IVar="6" Cut="2.0472528412938118e-02" cType="1" res="-3.6106326151639223e-03" rms="4.5769894123077393e-01" purity="4.8279026150703430e-01" nType="0">
          <Node pos="l" depth="2" NCoef="0" IVar="-1" Cut="0.0000000000000000e+00" cType="1" res="-5.3718255367130041e-04" rms="4.5815569162368774e-01" purity="5.1938158273696899e-01" nType="-99"/>
          <Node pos="r" depth="2" NCoef="0" IVar="-1" Cut="0.0000000000000000e+00" cType="1" res="3.9202353218570352e-04" rms="4.5660179853439331e-01" purity="4.3607643246650696e-01" nType="-99"/>
        </Node>
        <Node pos="r" depth="1" NCoef="0" IVar="8" Cut="5.9376674890518188e-01" cType="1" res="2.1279932931065559e-02" rms="4.3923002481460571e-01" purity="5.6432545185089111e-01" nType="0">
          <Node pos="l" depth="2" NCoef="0" IVar="-1" Cut="0.0000000000000000e+00" cType="1" res="3.8019305793568492e-04" rms="4.5211458206176758e-01" purity="5.0661045312881470e-01" nType="-99"/>
          <Node pos="r" depth="2" NCoef="0" IVar="-1" Cut="0.0000000000000000e+00" cType="1" res="2.1536157000809908e-03" rms="4.0494701266288757e-01" purity="7.0532393455505371e-01" nType="-99"/>
        </Node>
      </Node>
    </BinaryTree>
    <BinaryTree type="DecisionTree" boostWeight="1.0000000000000000e+00" itree="996">
      <Node pos="s" depth="0" NCoef="0" IVar="1" Cut="3.0071666836738586e-01" cType="1" res="-6.5923246438615024e-05" rms="4.5311680436134338e-01" purity="5.0159341096878052e-01" nType="0">
        <Node pos="l" depth="1" NCoef="0" IVar="-1" Cut="0.0000000000000000e+00" cType="1" res="1.2259195791557431e-03" rms="4.3893584609031677e-01" purity="6.7338788509368896e-01" nType="-99"/>
        <Node pos="r" depth="1" NCoef="0" IVar="1" Cut="4.4327852129936218e-01" cType="1" res="-3.3127560745924711e-03" rms="4.5449942350387573e-01" purity="4.8307985067367554e-01" nType="0">
          <Node pos="l" depth="2" NCoef="0" IVar="-1" Cut="0.0000000000000000e+00" cType="1" res="-1.0713088558986783e-03" rms="4.6098035573959351e-01" purity="5.6662005186080933e-01" nType="-99"/>
          <Node pos="r" depth="2" NCoef="0" IVar="-1" Cut="0.0000000000000000e+00" cType="1" res="-1.4339224435389042e-05" rms="4.5372271537780762e-01" purity="4.7437444329261780e-01" nType="-99"/>
        </Node>
      </Node>
    </BinaryTree>
    <BinaryTree type="DecisionTree" boostWeight="1.0000000000000000e+00" itree="997">
      <Node pos="s" depth="0" NCoef="0" IVar="0" Cut="1.1981955766677856e+00" cType="1" res="-9.9822867196053267e-04" rms="4.5297744870185852e-01" purity="5.0152671337127686e-01" nType="0">
        <Node pos="l" depth="1" NCoef="0" IVar="1" Cut="1.5967694520950317e+00" cType="1" res="-9.5185544341802597e-03" rms="4.6332210302352905e-01" purity="5.8314472436904907e-01" nType="0">
          <Node pos="l" depth="2" NCoef="0" IVar="-1" Cut="0.0000000000000000e+00" cType="1" res="-5.4224045015871525e-04" rms="4.6109792590141296e-01" purity="5.9532088041305542e-01" nType="-99"/>
          <Node pos="r" depth="2" NCoef="0" IVar="-1" Cut="0.0000000000000000e+00" cType="1" res="8.9584599481895566e-04" rms="4.7575604915618896e-01" purity="5.0399231910705566e-01" nType="-99"/>
        </Node>
        <Node pos="r" depth="1" NCoef="0" IVar="9" Cut="9.2943567037582397e-01" cType="1" res="1.2065338902175426e-02" rms="4.3631809949874878e-01" purity="3.7638807296752930e-01" nType="0">
          <Node pos="l" depth="2" NCoef="0" IVar="-1" Cut="0.0000000000000000e+00" cType="1" res="-3.9540851139463484e-04" rms="4.1319927573204041e-01" purity="2.6817685365676880e-01" nType="-99"/>
          <Node pos="r" depth="2" NCoef="0" IVar="-1" Cut="0.0000000000000000e+00" cType="1" res="7.9094216926023364e-04" rms="4.4764146208763123e-01" purity="4.3435141444206238e-01" nType="-99"/>
        </Node>
      </Node>
    </BinaryTree>
    <BinaryTree type="DecisionTree" boostWeight="1.0000000000000000e+00" itree="998">
      <Node pos="s" depth="0" NCoef="0" IVar="9" Cut="7.5276279449462891e-01" cType="1" res="-1.7490152968093753e-03" rms="4.5144641399383545e-01" purity="4.9944165349006653e-01" nType="0">
        <Node pos="l" depth="1" NCoef="0" IVar="-1" Cut="0.0000000000000000e+00" cType="1" res="-1.3642365811392665e-03" rms="4.1337934136390686e-01" purity="2.4109931290149689e-01" nType="-99"/>
        <Node pos="r" depth="1" NCoef="0" IVar="8" Cut="5.2720475196838379e-01" cType="1" res="1.2384674046188593e-03" rms="4.5371624827384949e-01" purity="5.1668381690979004e-01" nType="0">
          <Node pos="l" depth="2" NCoef="0" IVar="-1" Cut="0.0000000000000000e+00" cType="1" res="6.4143503550440073e-04" rms="4.5579138398170471e-01" purity="4.6524864435195923e-01" nType="-99"/>
          <Node pos="r" depth="2" NCoef="0" IVar="-1" Cut="0.0000000000000000e+00" cType="1" res="-2.9812642605975270e-04" rms="4.5229691267013550e-01" purity="5.4397815465927124e-01" nType="-99"/>
        </Node>
      </Node>
    </BinaryTree>
    <BinaryTree type="DecisionTree" boostWeight="1.0000000000000000e+00" itree="999">
      <Node pos="s" depth="0" NCoef="0" IVar="2" Cut="7.2350591421127319e-01" cType="1" res="5.2167242392897606e-03" rms="4.5115470886230469e-01" purity="5.0790399312973022e-01" nType="0">
        <Node pos="l" depth="1" NCoef="0" IVar="-1" Cut="0.0000000000000000e+00" cType="1" res="-1.0380975436419249e-03" rms="4.1878619790077209e-01" purity="2.5233504176139832e-01" nType="-99"/>
        <Node pos="r" depth="1" NCoef="0" IVar="6" Cut="2.0602602511644363e-02" cType="1" res="8.1672333180904388e-03" rms="4.5323833823204041e-01" purity="5.2619045972824097e-01" nType="0">
          <Node pos="l" depth="2" NCoef="0" IVar="-1" Cut="0.0000000000000000e+00" cType="1" res="-6.7862958530895412e-05" rms="4.5110529661178589e-01" purity="5.6264638900756836e-01" nType="-99"/>
          <Node pos="r" depth="2" NCoef="0" IVar="-1" Cut="0.0000000000000000e+00" cType="1" res="7.0980837335810065e-04" rms="4.5581933856010437e-01" purity="4.7541406750679016e-01" nType="-99"/>
        </Node>
      </Node>
    </BinaryTree>
    <BinaryTree type="DecisionTree" boostWeight="1.0000000000000000e+00" itree="1000">
      <Node pos="s" depth="0" NCoef="0" IVar="3" Cut="1.2801347351074219e+02" cType="1" res="-3.5159969702363014e-03" rms="4.5067197084426880e-01" purity="4.9720704555511475e-01" nType="0">
        <Node pos="l" depth="1" NCoef="0" IVar="8" Cut="6.5669387578964233e-01" cType="1" res="2.2552243899554014e-03" rms="4.5104277133941650e-01" purity="5.0726717710494995e-01" nType="0">
          <Node pos="l" depth="2" NCoef="0" IVar="-1" Cut="0.0000000000000000e+00" cType="1" res="-7.9748067946638912e-05" rms="4.5409628748893738e-01" purity="4.8752936720848083e-01" nType="-99"/>
          <Node pos="r" depth="2" NCoef="0" IVar="-1" Cut="0.0000000000000000e+00" cType="1" res="1.8512730021029711e-03" rms="4.2078781127929688e-01" purity="6.8177247047424316e-01" nType="-99"/>
        </Node>
        <Node pos="r" depth="1" NCoef="0" IVar="5" Cut="1.1171343326568604e+00" cType="1" res="-3.9199933409690857e-02" rms="4.4671982526779175e-01" purity="4.3500462174415588e-01" nType="0">
          <Node pos="l" depth="2" NCoef="0" IVar="-1" Cut="0.0000000000000000e+00" cType="1" res="-2.4700660724192858e-03" rms="4.6633625030517578e-01" purity="5.6398421525955200e-01" nType="-99"/>
          <Node pos="r" depth="2" NCoef="0" IVar="-1" Cut="0.0000000000000000e+00" cType="1" res="-3.1559399212710559e-04" rms="4.2625212669372559e-01" purity="3.1880703568458557e-01" nType="-99"/>
        </Node>
      </Node>
    </BinaryTree>
    <BinaryTree type="DecisionTree" boostWeight="1.0000000000000000e+00" itree="1001">
      <Node pos="s" depth="0" NCoef="0" IVar="0" Cut="7.1865475177764893e-01" cType="1" res="4.9602240324020386e-03" rms="4.4849139451980591e-01" purity="5.0573718547821045e-01" nType="0">
        <Node pos="l" depth="1" NCoef="0" IVar="1" Cut="5.2936953306198120e-01" cType="1" res="3.9551515132188797e-02" rms="4.2785894870758057e-01" purity="7.2658401727676392e-01" nType="0">
          <Node pos="l" depth="2" NCoef="0" IVar="-1" Cut="0.0000000000000000e+00" cType="1" res="6.9293251726776361e-04" rms="4.2816579341888428e-01" purity="7.2586607933044434e-01" nType="-99"/>
          <Node pos="r" depth="2" NCoef="0" IVar="-1" Cut="0.0000000000000000e+00" cType="1" res="2.7495280373841524e-03" rms="4.2637240886688232e-01" purity="7.2721993923187256e-01" nType="-99"/>
        </Node>
        <Node pos="r" depth="1" NCoef="0" IVar="9" Cut="8.4620422124862671e-01" cType="1" res="-9.8798496765084565e-05" rms="4.5120763778686523e-01" purity="4.7343811392784119e-01" nType="0">
          <Node pos="l" depth="2" NCoef="0" IVar="-1" Cut="0.0000000000000000e+00" cType="1" res="-8.4348244126886129e-04" rms="4.3632730841636658e-01" purity="2.8946316242218018e-01" nType="-99"/>
          <Node pos="r" depth="2" NCoef="0" IVar="-1" Cut="0.0000000000000000e+00" cType="1" res="1.5222164802253246e-04" rms="4.5346042513847351e-01" purity="5.0403618812561035e-01" nType="-99"/>
        </Node>
      </Node>
    </BinaryTree>
    <BinaryTree type="DecisionTree" boostWeight="1.0000000000000000e+00" itree="1002">
      <Node pos="s" depth="0" NCoef="0" IVar="6" Cut="5.1583945751190186e-03" cType="1" res="-2.7819001115858555e-03" rms="4.5192986726760864e-01" purity="4.9584090709686279e-01" nType="0">
        <Node pos="l" depth="1" NCoef="0" IVar="4" Cut="1.2913107299804688e+02" cType="1" res="-2.1943779662251472e-02" rms="4.4817477464675903e-01" purity="5.7654255628585815e-01" nType="0">
          <Node pos="l" depth="2" NCoef="0" IVar="-1" Cut="0.0000000000000000e+00" cType="1" res="1.2616123422048986e-04" rms="4.4156038761138916e-01" purity="6.2863910198211670e-01" nType="-99"/>
          <Node pos="r" depth="2" NCoef="0" IVar="-1" Cut="0.0000000000000000e+00" cType="1" res="-1.4417878119274974e-03" rms="4.5253524184226990e-01" purity="5.3327846527099609e-01" nType="-99"/>
        </Node>
        <Node pos="r" depth="1" NCoef="0" IVar="7" Cut="7.8757780790328979e-01" cType="1" res="2.8593293391168118e-03" rms="4.5287498831748962e-01" purity="4.7208249568939209e-01" nType="0">
          <Node pos="l" depth="2" NCoef="0" IVar="-1" Cut="0.0000000000000000e+00" cType="1" res="-2.9734177587670274e-05" rms="4.5413649082183838e-01" purity="4.5768326520919800e-01" nType="-99"/>
          <Node pos="r" depth="2" NCoef="0" IVar="-1" Cut="0.0000000000000000e+00" cType="1" res="1.8547634826973081e-03" rms="4.3556964397430420e-01" purity="6.3906055688858032e-01" nType="-99"/>
        </Node>
      </Node>
    </BinaryTree>
    <BinaryTree type="DecisionTree" boostWeight="1.0000000000000000e+00" itree="1003">
      <Node pos="s" depth="0" NCoef="0" IVar="0" Cut="8.1563502550125122e-01" cType="1" res="-5.9155351482331753e-03" rms="4.5518842339515686e-01" purity="4.9635493755340576e-01" nType="0">
        <Node pos="l" depth="1" NCoef="0" IVar="9" Cut="9.2160111665725708e-01" cType="1" res="-2.3214373737573624e-02" rms="4.5979616045951843e-01" purity="6.4160251617431641e-01" nType="0">
          <Node pos="l" depth="2" NCoef="0" IVar="-1" Cut="0.0000000000000000e+00" cType="1" res="8.3586201071739197e-04" rms="4.7585192322731018e-01" purity="5.9218972921371460e-01" nType="-99"/>
          <Node pos="r" depth="2" NCoef="0" IVar="-1" Cut="0.0000000000000000e+00" cType="1" res="-1.6100086504593492e-03" rms="4.5314756035804749e-01" purity="6.5811252593994141e-01" nType="-99"/>
        </Node>
        <Node pos="r" depth="1" NCoef="0" IVar="9" Cut="9.0000921487808228e-01" cType="1" res="-1.3393061235547066e-03" rms="4.5385140180587769e-01" purity="4.5793122053146362e-01" nType="0">
          <Node pos="l" depth="2" NCoef="0" IVar="-1" Cut="0.0000000000000000e+00" cType="1" res="-7.4335158569738269e-04" rms="4.4258090853691101e-01" purity="3.1182584166526794e-01" nType="-99"/>
          <Node pos="r" depth="2" NCoef="0" IVar="-1" Cut="0.0000000000000000e+00" cType="1" res="2.0614004461094737e-04" rms="4.5712313055992126e-01" purity="5.0457465648651123e-01" nType="-99"/>
        </Node>
      </Node>
    </BinaryTree>
    <BinaryTree type="DecisionTree" boostWeight="1.0000000000000000e+00" itree="1004">
      <Node pos="s" depth="0" NCoef="0" IVar="7" Cut="5.7819962501525879e-01" cType="1" res="3.9059386472217739e-04" rms="4.5187798142433167e-01" purity="5.0219988822937012e-01" nType="0">
        <Node pos="l" depth="1" NCoef="0" IVar="0" Cut="9.2569303512573242e-01" cType="1" res="-1.3269909657537937e-02" rms="4.5145082473754883e-01" purity="3.8338279724121094e-01" nType="0">
          <Node pos="l" depth="2" NCoef="0" IVar="-1" Cut="0.0000000000000000e+00" cType="1" res="-1.3875296572223306e-03" rms="4.7582045197486877e-01" purity="4.8889809846878052e-01" nType="-99"/>
          <Node pos="r" depth="2" NCoef="0" IVar="-1" Cut="0.0000000000000000e+00" cType="1" res="4.2538336856523529e-05" rms="4.4004806876182556e-01" purity="3.3932745456695557e-01" nType="-99"/>
        </Node>
        <Node pos="r" depth="1" NCoef="0" IVar="1" Cut="8.4191554784774780e-01" cType="1" res="6.3356636092066765e-03" rms="4.5193481445312500e-01" purity="5.5390924215316772e-01" nType="0">
          <Node pos="l" depth="2" NCoef="0" IVar="-1" Cut="0.0000000000000000e+00" cType="1" res="8.8980450527742505e-04" rms="4.3931856751441956e-01" purity="6.6048651933670044e-01" nType="-99"/>
          <Node pos="r" depth="2" NCoef="0" IVar="-1" Cut="0.0000000000000000e+00" cType="1" res="-1.7023232067003846e-04" rms="4.6073368191719055e-01" purity="4.7474282979965210e-01" nType="-99"/>
        </Node>
      </Node>
    </BinaryTree>
    <BinaryTree type="DecisionTree" boostWeight="1.0000000000000000e+00" itree="1005">
      <Node pos="s" depth="0" NCoef="0" IVar="9" Cut="8.7912333011627197e-01" cType="1" res="-3.2458554487675428e-03" rms="4.5157214999198914e-01" purity="4.9717277288436890e-01" nType="0">
        <Node pos="l" depth="1" NCoef="0" IVar="8" Cut="5.2528744935989380e-01" cType="1" res="1.6397221013903618e-02" rms="4.4897636771202087e-01" purity="3.7806859612464905e-01" nType="0">
          <Node pos="l" depth="2" NCoef="0" IVar="-1" Cut="0.0000000000000000e+00" cType="1" res="-1.3069166743662208e-04" rms="4.4281432032585144e-01" purity="3.3200657367706299e-01" nType="-99"/>
          <Node pos="r" depth="2" NCoef="0" IVar="-1" Cut="0.0000000000000000e+00" cType="1" res="2.3158299736678600e-03" rms="4.5997822284698486e-01" purity="4.9419444799423218e-01" nType="-99"/>
        </Node>
        <Node pos="r" depth="1" NCoef="0" IVar="8" Cut="4.5586448907852173e-01" cType="1" res="-7.5023379176855087e-03" rms="4.5202016830444336e-01" purity="5.2298158407211304e-01" nType="0">
          <Node pos="l" depth="2" NCoef="0" IVar="-1" Cut="0.0000000000000000e+00" cType="1" res="6.3394679455086589e-04" rms="4.6026206016540527e-01" purity="4.7104725241661072e-01" nType="-99"/>
          <Node pos="r" depth="2" NCoef="0" IVar="-1" Cut="0.0000000000000000e+00" cType="1" res="-3.4587559639476240e-04" rms="4.5109170675277710e-01" purity="5.2819949388504028e-01" nType="-99"/>
        </Node>
      </Node>
    </BinaryTree>
    <BinaryTree type="DecisionTree" boostWeight="1.0000000000000000e+00" itree="1006">
      <Node pos="s" depth="0" NCoef="0" IVar="4" Cut="1.0013864898681641e+02" cType="1" res="1.8020328134298325e-03" rms="4.5112809538841248e-01" purity="5.0395089387893677e-01" nType="0">
        <Node pos="l" depth="1" NCoef="0" IVar="5" Cut="9.4994360208511353e-01" cType="1" res="-1.7048815265297890e-02" rms="4.5270106196403503e-01" purity="4.4539427757263184e-01" nType="0">
          <Node pos="l" depth="2" NCoef="0" IVar="-1" Cut="0.0000000000000000e+00" cType="1" res="2.9018722125329077e-04" rms="4.7349300980567932e-01" purity="5.8356511592864990e-01" nType="-99"/>
          <Node pos="r" depth="2" NCoef="0" IVar="-1" Cut="0.0000000000000000e+00" cType="1" res="-1.2479501310735941e-03" rms="4.2862811684608459e-01" purity="3.0311363935470581e-01" nType="-99"/>
        </Node>
        <Node pos="r" depth="1" NCoef="0" IVar="7" Cut="6.7285400629043579e-01" cType="1" res="7.7794012613594532e-03" rms="4.5046347379684448e-01" purity="5.2251845598220825e-01" nType="0">
          <Node pos="l" depth="2" NCoef="0" IVar="-1" Cut="0.0000000000000000e+00" cType="1" res="-1.8347862351220101e-04" rms="4.5382985472679138e-01" purity="4.3530127406120300e-01" nType="-99"/>
          <Node pos="r" depth="2" NCoef="0" IVar="-1" Cut="0.0000000000000000e+00" cType="1" res="9.1166567290201783e-04" rms="4.4603481888771057e-01" purity="6.2291777133941650e-01" nType="-99"/>
        </Node>
      </Node>
    </BinaryTree>
    <BinaryTree type="DecisionTree" boostWeight="1.0000000000000000e+00" itree="1007">
      <Node pos="s" depth="0" NCoef="0" IVar="6" Cut="3.7436328828334808e-02" cType="1" res="-1.3397790025919676e-03" rms="4.5321556925773621e-01" purity="5.0256317853927612e-01" nType="0">
        <Node pos="l" depth="1" NCoef="0" IVar="7" Cut="5.2565503120422363e-01" cType="1" res="1.6935032326728106e-03" rms="4.5462122559547424e-01" purity="5.1689201593399048e-01" nType="0">
          <Node pos="l" depth="2" NCoef="0" IVar="-1" Cut="0.0000000000000000e+00" cType="1" res="1.4719661558046937e-03" rms="4.3805924057960510e-01" purity="3.8801202178001404e-01" nType="-99"/>
          <Node pos="r" depth="2" NCoef="0" IVar="-1" Cut="0.0000000000000000e+00" cType="1" res="-4.5631310058524832e-05" rms="4.5558142662048340e-01" purity="5.2576267719268799e-01" nType="-99"/>
        </Node>
        <Node pos="r" depth="1" NCoef="0" IVar="-1" Cut="0.0000000000000000e+00" cType="1" res="-8.7956554489210248e-04" rms="4.3863311409950256e-01" purity="3.6678776144981384e-01" nType="-99"/>
      </Node>
    </BinaryTree>
    <BinaryTree type="DecisionTree" boostWeight="1.0000000000000000e+00" itree="1008">
      <Node pos="s" depth="0" NCoef="0" IVar="7" Cut="6.0972535610198975e-01" cType="1" res="-9.1207623481750488e-03" rms="4.5321020483970642e-01" purity="4.9079984426498413e-01" nType="0">
        <Node pos="l" depth="1" NCoef="0" IVar="0" Cut="9.4378548860549927e-01" cType="1" res="-2.4463789537549019e-02" rms="4.5228648185729980e-01" purity="3.8521412014961243e-01" nType="0">
          <Node pos="l" depth="2" NCoef="0" IVar="-1" Cut="0.0000000000000000e+00" cType="1" res="-1.5812780475243926e-03" rms="4.7587546706199646e-01" purity="4.8861587047576904e-01" nType="-99"/>
          <Node pos="r" depth="2" NCoef="0" IVar="-1" Cut="0.0000000000000000e+00" cType="1" res="-2.9131217161193490e-04" rms="4.3970468640327454e-01" purity="3.3530995249748230e-01" nType="-99"/>
        </Node>
        <Node pos="r" depth="1" NCoef="0" IVar="2" Cut="8.2480973005294800e-01" cType="1" res="9.8063203040510416e-04" rms="4.5353406667709351e-01" purity="5.6031441688537598e-01" nType="0">
          <Node pos="l" depth="2" NCoef="0" IVar="-1" Cut="0.0000000000000000e+00" cType="1" res="1.3969619758427143e-03" rms="4.5604062080383301e-01" purity="4.5321306586265564e-01" nType="-99"/>
          <Node pos="r" depth="2" NCoef="0" IVar="-1" Cut="0.0000000000000000e+00" cType="1" res="-1.8811500922311097e-04" rms="4.5282921195030212e-01" purity="5.7592076063156128e-01" nType="-99"/>
        </Node>
      </Node>
    </BinaryTree>
    <BinaryTree type="DecisionTree" boostWeight="1.0000000000000000e+00" itree="1009">
      <Node pos="s" depth="0" NCoef="0" IVar="9" Cut="9.8947155475616455e-01" cType="1" res="-1.9337724661454558e-03" rms="4.5284193754196167e-01" purity="4.9907132983207703e-01" nType="0">
        <Node pos="l" depth="1" NCoef="0" IVar="0" Cut="9.2538684606552124e-01" cType="1" res="-8.8182399049401283e-03" rms="4.5445790886878967e-01" purity="4.6358004212379456e-01" nType="0">
          <Node pos="l" depth="2" NCoef="0" IVar="-1" Cut="0.0000000000000000e+00" cType="1" res="-9.5158658223226666e-04" rms="4.7074574232101440e-01" purity="5.9361410140991211e-01" nType="-99"/>
          <Node pos="r" depth="2" NCoef="0" IVar="-1" Cut="0.0000000000000000e+00" cType="1" res="-2.0069068341399543e-05" rms="4.4684004783630371e-01" purity="4.0621277689933777e-01" nType="-99"/>
        </Node>
        <Node pos="r" depth="1" NCoef="0" IVar="3" Cut="9.3032951354980469e+01" cType="1" res="1.6832362860441208e-02" rms="4.4787040352821350e-01" purity="5.9581595659255981e-01" nType="0">
          <Node pos="l" depth="2" NCoef="0" IVar="-1" Cut="0.0000000000000000e+00" cType="1" res="1.1291288537904620e-03" rms="4.4985562562942505e-01" purity="5.8421945571899414e-01" nType="-99"/>
          <Node pos="r" depth="2" NCoef="0" IVar="-1" Cut="0.0000000000000000e+00" cType="1" res="-5.7040550746023655e-04" rms="4.4200286269187927e-01" purity="6.2034904956817627e-01" nType="-99"/>
        </Node>
      </Node>
    </BinaryTree>
    <BinaryTree type="DecisionTree" boostWeight="1.0000000000000000e+00" itree="1010">
      <Node pos="s" depth="0" NCoef="0" IVar="1" Cut="5.3530907630920410e-01" cType="1" res="7.8492928296327591e-03" rms="4.5312824845314026e-01" purity="5.1589727401733398e-01" nType="0">
        <Node pos="l" depth="1" NCoef="0" IVar="7" Cut="7.2533649206161499e-01" cType="1" res="-2.2090220823884010e-02" rms="4.5534318685531616e-01" purity="5.9001338481903076e-01" nType="0">
          <Node pos="l" depth="2" NCoef="0" IVar="-1" Cut="0.0000000000000000e+00" cType="1" res="-1.3643492711707950e-03" rms="4.7005370259284973e-01" purity="5.1133257150650024e-01" nType="-99"/>
          <Node pos="r" depth="2" NCoef="0" IVar="-1" Cut="0.0000000000000000e+00" cType="1" res="5.6691787904128432e-04" rms="4.2839500308036804e-01" purity="7.1678978204727173e-01" nType="-99"/>
        </Node>
        <Node pos="r" depth="1" NCoef="0" IVar="8" Cut="4.6972998976707458e-01" cType="1" res="1.7853081226348877e-02" rms="4.5194387435913086e-01" purity="4.9113267660140991e-01" nType="0">
          <Node pos="l" depth="2" NCoef="0" IVar="-1" Cut="0.0000000000000000e+00" cType="1" res="-3.0609025270678103e-04" rms="4.5141568779945374e-01" purity="3.6586683988571167e-01" nType="-99"/>
          <Node pos="r" depth="2" NCoef="0" IVar="-1" Cut="0.0000000000000000e+00" cType="1" res="8.0916174920275807e-04" rms="4.5182731747627258e-01" purity="5.1891106367111206e-01" nType="-99"/>
        </Node>
      </Node>
    </BinaryTree>
    <BinaryTree type="DecisionTree" boostWeight="1.0000000000000000e+00" itree="1011">
      <Node pos="s" depth="0" NCoef="0" IVar="5" Cut="9.7795456647872925e-01" cType="1" res="2.6508800219744444e-03" rms="4.5107305049896240e-01" purity="5.0200396776199341e-01" nType="0">
        <Node pos="l" depth="1" NCoef="0" IVar="0" Cut="8.3238470554351807e-01" cType="1" res="1.2984573841094971e-02" rms="4.5366588234901428e-01" purity="6.4167594909667969e-01" nType="0">
          <Node pos="l" depth="2" NCoef="0" IVar="-1" Cut="0.0000000000000000e+00" cType="1" res="-2.2647430887445807e-04" rms="4.4713285565376282e-01" purity="6.6610020399093628e-01" nType="-99"/>
          <Node pos="r" depth="2" NCoef="0" IVar="-1" Cut="0.0000000000000000e+00" cType="1" res="1.0023945942521095e-03" rms="4.5832231640815735e-01" purity="6.2195187807083130e-01" nType="-99"/>
        </Node>
        <Node pos="r" depth="1" NCoef="0" IVar="6" Cut="7.7375383116304874e-03" cType="1" res="-6.5896571613848209e-03" rms="4.4854027032852173e-01" purity="3.7710735201835632e-01" nType="0">
          <Node pos="l" depth="2" NCoef="0" IVar="-1" Cut="0.0000000000000000e+00" cType="1" res="-8.3809334319084883e-04" rms="4.5692300796508789e-01" purity="4.4283309578895569e-01" nType="-99"/>
          <Node pos="r" depth="2" NCoef="0" IVar="-1" Cut="0.0000000000000000e+00" cType="1" res="2.9598431865451857e-05" rms="4.4527021050453186e-01" purity="3.5368877649307251e-01" nType="-99"/>
        </Node>
      </Node>
    </BinaryTree>
    <BinaryTree type="DecisionTree" boostWeight="1.0000000000000000e+00" itree="1012">
      <Node pos="s" depth="0" NCoef="0" IVar="7" Cut="7.3593133687973022e-01" cType="1" res="-7.0112063549458981e-03" rms="4.5214998722076416e-01" purity="4.9540916085243225e-01" nType="0">
        <Node pos="l" depth="1" NCoef="0" IVar="6" Cut="2.0808685570955276e-02" cType="1" res="-1.5437734313309193e-02" rms="4.5547884702682495e-01" purity="4.3515518307685852e-01" nType="0">
          <Node pos="l" depth="2" NCoef="0" IVar="-1" Cut="0.0000000000000000e+00" cType="1" res="-1.1026397114619613e-03" rms="4.6294581890106201e-01" purity="4.4761750102043152e-01" nType="-99"/>
          <Node pos="r" depth="2" NCoef="0" IVar="-1" Cut="0.0000000000000000e+00" cType="1" res="-1.2749906454700977e-04" rms="4.5087042450904846e-01" purity="4.2821416258811951e-01" nType="-99"/>
        </Node>
        <Node pos="r" depth="1" NCoef="0" IVar="4" Cut="1.6300457763671875e+02" cType="1" res="8.7784463539719582e-03" rms="4.4541645050048828e-01" purity="6.0831332206726074e-01" nType="0">
          <Node pos="l" depth="2" NCoef="0" IVar="-1" Cut="0.0000000000000000e+00" cType="1" res="1.3573886826634407e-03" rms="4.3042805790901184e-01" purity="6.7159205675125122e-01" nType="-99"/>
          <Node pos="r" depth="2" NCoef="0" IVar="-1" Cut="0.0000000000000000e+00" cType="1" res="-7.4594764737412333e-04" rms="4.6323361992835999e-01" purity="5.2195119857788086e-01" nType="-99"/>
        </Node>
      </Node>
    </BinaryTree>
    <BinaryTree type="DecisionTree" boostWeight="1.0000000000000000e+00" itree="1013">
      <Node pos="s" depth="0" NCoef="0" IVar="7" Cut="5.1512426137924194e-01" cType="1" res="-5.1223030313849449e-03" rms="4.5219781994819641e-01" purity="4.9946102499961853e-01" nType="0">
        <Node pos="l" depth="1" NCoef="0" IVar="-1" Cut="0.0000000000000000e+00" cType="1" res="-1.3251304626464844e-03" rms="4.4034293293952942e-01" purity="3.2224851846694946e-01" nType="-99"/>
        <Node pos="r" depth="1" NCoef="0" IVar="6" Cut="1.9430769607424736e-02" cType="1" res="-1.2517489958554506e-03" rms="4.5308727025985718e-01" purity="5.1590245962142944e-01" nType="0">
          <Node pos="l" depth="2" NCoef="0" IVar="-1" Cut="0.0000000000000000e+00" cType="1" res="-4.2215874418616295e-04" rms="4.5040321350097656e-01" purity="5.4367810487747192e-01" nType="-99"/>
          <Node pos="r" depth="2" NCoef="0" IVar="-1" Cut="0.0000000000000000e+00" cType="1" res="4.7535143676213920e-04" rms="4.5649760961532593e-01" purity="4.7538819909095764e-01" nType="-99"/>
        </Node>
      </Node>
    </BinaryTree>
    <BinaryTree type="DecisionTree" boostWeight="1.0000000000000000e+00" itree="1014">
      <Node pos="s" depth="0" NCoef="0" IVar="7" Cut="5.6758826971054077e-01" cType="1" res="-4.5680692419409752e-03" rms="4.5655792951583862e-01" purity="4.9791306257247925e-01" nType="0">
        <Node pos="l" depth="1" NCoef="0" IVar="7" Cut="5.4002463817596436e-01" cType="1" res="-2.2528801113367081e-02" rms="4.5491763949394226e-01" purity="3.7338963150978088e-01" nType="0">
          <Node pos="l" depth="2" NCoef="0" IVar="-1" Cut="0.0000000000000000e+00" cType="1" res="-2.1617686434183270e-04" rms="4.5301726460456848e-01" purity="3.7408635020256042e-01" nType="-99"/>
          <Node pos="r" depth="2" NCoef="0" IVar="-1" Cut="0.0000000000000000e+00" cType="1" res="-1.4571700012311339e-03" rms="4.5708224177360535e-01" purity="3.7208992242813110e-01" nType="-99"/>
        </Node>
        <Node pos="r" depth="1" NCoef="0" IVar="2" Cut="7.9795295000076294e-01" cType="1" res="2.2777849808335304e-03" rms="4.5699581503868103e-01" purity="5.4537600278854370e-01" nType="0">
          <Node pos="l" depth="2" NCoef="0" IVar="-1" Cut="0.0000000000000000e+00" cType="1" res="2.1387934684753418e-03" rms="4.6141639351844788e-01" purity="4.4646856188774109e-01" nType="-99"/>
          <Node pos="r" depth="2" NCoef="0" IVar="-1" Cut="0.0000000000000000e+00" cType="1" res="-1.8383780843578279e-04" rms="4.5587459206581116e-01" purity="5.5700993537902832e-01" nType="-99"/>
        </Node>
      </Node>
    </BinaryTree>
    <BinaryTree type="DecisionTree" boostWeight="1.0000000000000000e+00" itree="1015">
      <Node pos="s" depth="0" NCoef="0" IVar="6" Cut="2.4527272209525108e-02" cType="1" res="-2.9683622415177524e-04" rms="4.5422732830047607e-01" purity="5.0383013486862183e-01" nType="0">
        <Node pos="l" depth="1" NCoef="0" IVar="9" Cut="8.1545424461364746e-01" cType="1" res="-6.3192853704094887e-03" rms="4.5401075482368469e-01" purity="5.3565728664398193e-01" nType="0">
          <Node pos="l" depth="2" NCoef="0" IVar="-1" Cut="0.0000000000000000e+00" cType="1" res="7.9727929551154375e-04" rms="4.5772543549537659e-01" purity="3.6236938834190369e-01" nType="-99"/>
          <Node pos="r" depth="2" NCoef="0" IVar="-1" Cut="0.0000000000000000e+00" cType="1" res="-3.3397716470062733e-04" rms="4.5348417758941650e-01" purity="5.5401027202606201e-01" nType="-99"/>
        </Node>
        <Node pos="r" depth="1" NCoef="0" IVar="8" Cut="5.9371596574783325e-01" cType="1" res="1.0972692631185055e-02" rms="4.5441791415214539e-01" purity="4.4427332282066345e-01" nType="0">
          <Node pos="l" depth="2" NCoef="0" IVar="-1" Cut="0.0000000000000000e+00" cType="1" res="5.4839438234921545e-05" rms="4.5366835594177246e-01" purity="4.1466179490089417e-01" nType="-99"/>
          <Node pos="r" depth="2" NCoef="0" IVar="-1" Cut="0.0000000000000000e+00" cType="1" res="2.2945862729102373e-03" rms="4.5526760816574097e-01" purity="6.0376220941543579e-01" nType="-99"/>
        </Node>
      </Node>
    </BinaryTree>
    <BinaryTree type="DecisionTree" boostWeight="1.0000000000000000e+00" itree="1016">
      <Node pos="s" depth="0" NCoef="0" IVar="7" Cut="5.1512938737869263e-01" cType="1" res="5.2149412222206593e-03" rms="4.5311766862869263e-01" purity="5.1007771492004395e-01" nType="0">
        <Node pos="l" depth="1" NCoef="0" IVar="-1" Cut="0.0000000000000000e+00" cType="1" res="-7.6613476267084479e-04" rms="4.4633486866950989e-01" purity="3.4092327952384949e-01" nType="-99"/>
        <Node pos="r" depth="1" NCoef="0" IVar="6" Cut="2.0645117387175560e-02" cType="1" res="8.1574143841862679e-03" rms="4.5362421870231628e-01" purity="5.2565902471542358e-01" nType="0">
          <Node pos="l" depth="2" NCoef="0" IVar="-1" Cut="0.0000000000000000e+00" cType="1" res="4.2971214497811161e-06" rms="4.5037060976028442e-01" purity="5.5508792400360107e-01" nType="-99"/>
          <Node pos="r" depth="2" NCoef="0" IVar="-1" Cut="0.0000000000000000e+00" cType="1" res="6.7617755848914385e-04" rms="4.5846167206764221e-01" purity="4.7885054349899292e-01" nType="-99"/>
        </Node>
      </Node>
    </BinaryTree>
    <BinaryTree type="DecisionTree" boostWeight="1.0000000000000000e+00" itree="1017">
      <Node pos="s" depth="0" NCoef="0" IVar="0" Cut="8.6549264192581177e-01" cType="1" res="2.5505006778985262e-03" rms="4.5324122905731201e-01" purity="5.0581550598144531e-01" nType="0">
        <Node pos="l" depth="1" NCoef="0" IVar="9" Cut="9.2902773618698120e-01" cType="1" res="-2.0214123651385307e-02" rms="4.5822271704673767e-01" purity="6.3522654771804810e-01" nType="0">
          <Node pos="l" depth="2" NCoef="0" IVar="-1" Cut="0.0000000000000000e+00" cType="1" res="8.0885051283985376e-04" rms="4.6937417984008789e-01" purity="5.8275592327117920e-01" nType="-99"/>
          <Node pos="r" depth="2" NCoef="0" IVar="-1" Cut="0.0000000000000000e+00" cType="1" res="-1.4458947116509080e-03" rms="4.5312544703483582e-01" purity="6.5389567613601685e-01" nType="-99"/>
        </Node>
        <Node pos="r" depth="1" NCoef="0" IVar="6" Cut="1.2911050580441952e-03" cType="1" res="1.0610128752887249e-02" rms="4.5118916034698486e-01" purity="4.5999863743782043e-01" nType="0">
          <Node pos="l" depth="2" NCoef="0" IVar="-1" Cut="0.0000000000000000e+00" cType="1" res="-8.7331590475514531e-04" rms="4.4835942983627319e-01" purity="5.4700338840484619e-01" nType="-99"/>
          <Node pos="r" depth="2" NCoef="0" IVar="-1" Cut="0.0000000000000000e+00" cType="1" res="4.6364753507077694e-04" rms="4.5131775736808777e-01" purity="4.5046225190162659e-01" nType="-99"/>
        </Node>
      </Node>
    </BinaryTree>
    <BinaryTree type="DecisionTree" boostWeight="1.0000000000000000e+00" itree="1018">
      <Node pos="s" depth="0" NCoef="0" IVar="0" Cut="1.0208181142807007e+00" cType="1" res="-8.9467288926243782e-03" rms="4.5403042435646057e-01" purity="4.9480238556861877e-01" nType="0">
        <Node pos="l" depth="1" NCoef="0" IVar="0" Cut="5.7620131969451904e-01" cType="1" res="-2.2065145894885063e-02" rms="4.6140158176422119e-01" purity="6.0767692327499390e-01" nType="0">
          <Node pos="l" depth="2" NCoef="0" IVar="-1" Cut="0.0000000000000000e+00" cType="1" res="1.8409874755889177e-03" rms="4.2708456516265869e-01" purity="7.2578084468841553e-01" nType="-99"/>
          <Node pos="r" depth="2" NCoef="0" IVar="-1" Cut="0.0000000000000000e+00" cType="1" res="-1.0795426787808537e-03" rms="4.6534806489944458e-01" purity="5.9108501672744751e-01" nType="-99"/>
        </Node>
        <Node pos="r" depth="1" NCoef="0" IVar="1" Cut="1.9426351785659790e+00" cType="1" res="5.1598571008071303e-04" rms="4.4839999079704285e-01" purity="4.1338250041007996e-01" nType="0">
          <Node pos="l" depth="2" NCoef="0" IVar="-1" Cut="0.0000000000000000e+00" cType="1" res="2.9182172147557139e-04" rms="4.5875465869903564e-01" purity="4.6110075712203979e-01" nType="-99"/>
          <Node pos="r" depth="2" NCoef="0" IVar="-1" Cut="0.0000000000000000e+00" cType="1" res="-8.0487882951274514e-04" rms="4.1399443149566650e-01" purity="2.6761996746063232e-01" nType="-99"/>
        </Node>
      </Node>
    </BinaryTree>
    <BinaryTree type="DecisionTree" boostWeight="1.0000000000000000e+00" itree="1019">
      <Node pos="s" depth="0" NCoef="0" IVar="4" Cut="1.1295301055908203e+02" cType="1" res="1.6440155450254679e-03" rms="4.5027405023574829e-01" purity="5.0146991014480591e-01" nType="0">
        <Node pos="l" depth="1" NCoef="0" IVar="0" Cut="7.2748172283172607e-01" cType="1" res="-1.3326398096978664e-02" rms="4.5577907562255859e-01" purity="4.8443487286567688e-01" nType="0">
          <Node pos="l" depth="2" NCoef="0" IVar="-1" Cut="0.0000000000000000e+00" cType="1" res="-1.9772578962147236e-03" rms="4.6592116355895996e-01" purity="5.9224271774291992e-01" nType="-99"/>
          <Node pos="r" depth="2" NCoef="0" IVar="-1" Cut="0.0000000000000000e+00" cType="1" res="-1.3465911615639925e-04" rms="4.5309886336326599e-01" purity="4.6176007390022278e-01" nType="-99"/>
        </Node>
        <Node pos="r" depth="1" NCoef="0" IVar="2" Cut="9.1788464784622192e-01" cType="1" res="8.6741233244538307e-03" rms="4.4749274849891663e-01" purity="5.0946956872940063e-01" nType="0">
          <Node pos="l" depth="2" NCoef="0" IVar="-1" Cut="0.0000000000000000e+00" cType="1" res="5.2804178267251700e-05" rms="4.5248943567276001e-01" purity="4.6786782145500183e-01" nType="-99"/>
          <Node pos="r" depth="2" NCoef="0" IVar="-1" Cut="0.0000000000000000e+00" cType="1" res="1.2686287518590689e-03" rms="4.2993003129959106e-01" purity="6.4561724662780762e-01" nType="-99"/>
        </Node>
      </Node>
    </BinaryTree>
    <BinaryTree type="DecisionTree" boostWeight="1.0000000000000000e+00" itree="1020">
      <Node pos="s" depth="0" NCoef="0" IVar="7" Cut="7.0438820123672485e-01" cType="1" res="1.4372012810781598e-03" rms="4.4922667741775513e-01" purity="5.0277429819107056e-01" nType="0">
        <Node pos="l" depth="1" NCoef="0" IVar="0" Cut="7.3584592342376709e-01" cType="1" res="-7.8679053112864494e-03" rms="4.5008966326713562e-01" purity="4.3122968077659607e-01" nType="0">
          <Node pos="l" depth="2" NCoef="0" IVar="-1" Cut="0.0000000000000000e+00" cType="1" res="8.0639711814001203e-04" rms="4.6153593063354492e-01" purity="6.4772647619247437e-01" nType="-99"/>
          <Node pos="r" depth="2" NCoef="0" IVar="-1" Cut="0.0000000000000000e+00" cType="1" res="-3.6262584035284817e-04" rms="4.4825774431228638e-01" purity="4.0004447102546692e-01" nType="-99"/>
        </Node>
        <Node pos="r" depth="1" NCoef="0" IVar="3" Cut="1.1043288421630859e+02" cType="1" res="1.5300302766263485e-02" rms="4.4757926464080811e-01" purity="6.0936427116394043e-01" nType="0">
          <Node pos="l" depth="2" NCoef="0" IVar="-1" Cut="0.0000000000000000e+00" cType="1" res="2.0102653070352972e-04" rms="4.5691671967506409e-01" purity="5.9014874696731567e-01" nType="-99"/>
          <Node pos="r" depth="2" NCoef="0" IVar="-1" Cut="0.0000000000000000e+00" cType="1" res="2.1885305177420378e-03" rms="4.1092085838317871e-01" purity="6.7749583721160889e-01" nType="-99"/>
        </Node>
      </Node>
    </BinaryTree>
    <BinaryTree type="DecisionTree" boostWeight="1.0000000000000000e+00" itree="1021">
      <Node pos="s" depth="0" NCoef="0" IVar="7" Cut="9.1467750072479248e-01" cType="1" res="6.0920399846509099e-04" rms="4.5237624645233154e-01" purity="5.0226861238479614e-01" nType="0">
        <Node pos="l" depth="1" NCoef="0" IVar="8" Cut="5.0857520103454590e-01" cType="1" res="-3.0557236168533564e-03" rms="4.5432358980178833e-01" purity="4.8454108834266663e-01" nType="0">
          <Node pos="l" depth="2" NCoef="0" IVar="-1" Cut="0.0000000000000000e+00" cType="1" res="2.9947623261250556e-04" rms="4.5263308286666870e-01" purity="4.2043620347976685e-01" nType="-99"/>
          <Node pos="r" depth="2" NCoef="0" IVar="-1" Cut="0.0000000000000000e+00" cType="1" res="-3.1343929003924131e-04" rms="4.5502877235412598e-01" purity="5.1638585329055786e-01" nType="-99"/>
        </Node>
        <Node pos="r" depth="1" NCoef="0" IVar="-1" Cut="0.0000000000000000e+00" cType="1" res="1.5345207648351789e-03" rms="4.3105193972587585e-01" purity="6.7698293924331665e-01" nType="-99"/>
      </Node>
    </BinaryTree>
    <BinaryTree type="DecisionTree" boostWeight="1.0000000000000000e+00" itree="1022">
      <Node pos="s" depth="0" NCoef="0" IVar="3" Cut="1.3479183959960938e+02" cType="1" res="-7.1885152719914913e-03" rms="4.5574447512626648e-01" purity="4.9911060929298401e-01" nType="0">
        <Node pos="l" depth="1" NCoef="0" IVar="1" Cut="9.3252295255661011e-01" cType="1" res="-3.5130381584167480e-03" rms="4.5594003796577454e-01" purity="5.0935304164886475e-01" nType="0">
          <Node pos="l" depth="2" NCoef="0" IVar="-1" Cut="0.0000000000000000e+00" cType="1" res="-4.9563957145437598e-04" rms="4.5748415589332581e-01" purity="5.7658380270004272e-01" nType="-99"/>
          <Node pos="r" depth="2" NCoef="0" IVar="-1" Cut="0.0000000000000000e+00" cType="1" res="2.1080339502077550e-04" rms="4.5423257350921631e-01" purity="4.4541391730308533e-01" nType="-99"/>
        </Node>
        <Node pos="r" depth="1" NCoef="0" IVar="-1" Cut="0.0000000000000000e+00" cType="1" res="-1.2048501521348953e-03" rms="4.5296016335487366e-01" purity="4.1390880942344666e-01" nType="-99"/>
      </Node>
    </BinaryTree>
    <BinaryTree type="DecisionTree" boostWeight="1.0000000000000000e+00" itree="1023">
      <Node pos="s" depth="0" NCoef="0" IVar="6" Cut="3.8629725575447083e-02" cType="1" res="1.3172378530725837e-03" rms="4.5111662149429321e-01" purity="5.0326001644134521e-01" nType="0">
        <Node pos="l" depth="1" NCoef="0" IVar="0" Cut="1.6504886150360107e+00" cType="1" res="5.3631360642611980e-03" rms="4.5167648792266846e-01" purity="5.1704728603363037e-01" nType="0">
          <Node pos="l" depth="2" NCoef="0" IVar="-1" Cut="0.0000000000000000e+00" cType="1" res="2.8740888228639960e-04" rms="4.5712113380432129e-01" purity="5.4328113794326782e-01" nType="-99"/>
          <Node pos="r" depth="2" NCoef="0" IVar="-1" Cut="0.0000000000000000e+00" cType="1" res="-9.0886023826897144e-04" rms="3.8378360867500305e-01" purity="2.2329057753086090e-01" nType="-99"/>
        </Node>
        <Node pos="r" depth="1" NCoef="0" IVar="-1" Cut="0.0000000000000000e+00" cType="1" res="-1.2452038936316967e-03" rms="4.4237378239631653e-01" purity="3.5018196702003479e-01" nType="-99"/>
      </Node>
    </BinaryTree>
    <BinaryTree type="DecisionTree" boostWeight="1.0000000000000000e+00" itree="1024">
      <Node pos="s" depth="0" NCoef="0" IVar="3" Cut="1.0536952972412109e+02" cType="1" res="-1.5495602274313569e-03" rms="4.5211854577064514e-01" purity="5.0047653913497925e-01" nType="0">
        <Node pos="l" depth="1" NCoef="0" IVar="3" Cut="3.6361034393310547e+01" cType="1" res="-6.7042130976915359e-03" rms="4.5680615305900574e-01" purity="4.8342052102088928e-01" nType="0">
          <Node pos="l" depth="2" NCoef="0" IVar="-1" Cut="0.0000000000000000e+00" cType="1" res="-1.0065370006486773e-03" rms="4.4536632299423218e-01" purity="3.4658268094062805e-01" nType="-99"/>
          <Node pos="r" depth="2" NCoef="0" IVar="-1" Cut="0.0000000000000000e+00" cType="1" res="-9.5404036983381957e-05" rms="4.5813241600990295e-01" purity="5.0115799903869629e-01" nType="-99"/>
        </Node>
        <Node pos="r" depth="1" NCoef="0" IVar="8" Cut="4.8750901222229004e-01" cType="1" res="1.3137163594365120e-02" rms="4.3815538287162781e-01" purity="5.4907292127609253e-01" nType="0">
          <Node pos="l" depth="2" NCoef="0" IVar="-1" Cut="0.0000000000000000e+00" cType="1" res="-5.5945786880329251e-04" rms="4.5263427495956421e-01" purity="4.1800838708877563e-01" nType="-99"/>
          <Node pos="r" depth="2" NCoef="0" IVar="-1" Cut="0.0000000000000000e+00" cType="1" res="9.1219926252961159e-04" rms="4.3245580792427063e-01" purity="5.9492635726928711e-01" nType="-99"/>
        </Node>
      </Node>
    </BinaryTree>
    <BinaryTree type="DecisionTree" boostWeight="1.0000000000000000e+00" itree="1025">
      <Node pos="s" depth="0" NCoef="0" IVar="1" Cut="4.4947624206542969e-01" cType="1" res="-4.7404500655829906e-03" rms="4.5215848088264465e-01" purity="4.9813374876976013e-01" nType="0">
        <Node pos="l" depth="1" NCoef="0" IVar="5" Cut="6.2834119796752930e-01" cType="1" res="-2.7044292539358139e-02" rms="4.6221527457237244e-01" purity="5.9442973136901855e-01" nType="0">
          <Node pos="l" depth="2" NCoef="0" IVar="-1" Cut="0.0000000000000000e+00" cType="1" res="2.6795480516739190e-04" rms="4.3390321731567383e-01" purity="6.9621604681015015e-01" nType="-99"/>
          <Node pos="r" depth="2" NCoef="0" IVar="-1" Cut="0.0000000000000000e+00" cType="1" res="-1.3860380277037621e-03" rms="4.7334888577461243e-01" purity="5.4985797405242920e-01" nType="-99"/>
        </Node>
        <Node pos="r" depth="1" NCoef="0" IVar="1" Cut="2.5414278507232666e+00" cType="1" res="6.6858774516731501e-04" rms="4.4951894879341125e-01" purity="4.7478041052818298e-01" nType="0">
          <Node pos="l" depth="2" NCoef="0" IVar="-1" Cut="0.0000000000000000e+00" cType="1" res="1.6768531349953264e-04" rms="4.5551282167434692e-01" purity="5.0203067064285278e-01" nType="-99"/>
          <Node pos="r" depth="2" NCoef="0" IVar="-1" Cut="0.0000000000000000e+00" cType="1" res="-1.2133643031120300e-03" rms="3.8906440138816833e-01" purity="2.2927445173263550e-01" nType="-99"/>
        </Node>
      </Node>
    </BinaryTree>
    <BinaryTree type="DecisionTree" boostWeight="1.0000000000000000e+00" itree="1026">
      <Node pos="s" depth="0" NCoef="0" IVar="8" Cut="4.1890090703964233e-01" cType="1" res="1.2184742372483015e-03" rms="4.5117458701133728e-01" purity="5.0328493118286133e-01" nType="0">
        <Node pos="l" depth="1" NCoef="0" IVar="-1" Cut="0.0000000000000000e+00" cType="1" res="-1.3538370840251446e-03" rms="4.3904343247413635e-01" purity="3.2594278454780579e-01" nType="-99"/>
        <Node pos="r" depth="1" NCoef="0" IVar="3" Cut="1.1660949707031250e+02" cType="1" res="4.4333613477647305e-03" rms="4.5179548859596252e-01" purity="5.1518982648849487e-01" nType="0">
          <Node pos="l" depth="2" NCoef="0" IVar="-1" Cut="0.0000000000000000e+00" cType="1" res="-2.5937823011190630e-05" rms="4.5532712340354919e-01" purity="5.0669986009597778e-01" nType="-99"/>
          <Node pos="r" depth="2" NCoef="0" IVar="-1" Cut="0.0000000000000000e+00" cType="1" res="9.8491751123219728e-04" rms="4.3554514646530151e-01" purity="5.5175626277923584e-01" nType="-99"/>
        </Node>
      </Node>
    </BinaryTree>
    <BinaryTree type="DecisionTree" boostWeight="1.0000000000000000e+00" itree="1027">
      <Node pos="s" depth="0" NCoef="0" IVar="4" Cut="6.5481933593750000e+01" cType="1" res="-3.0814320780336857e-03" rms="4.4984862208366394e-01" purity="4.9474793672561646e-01" nType="0">
        <Node pos="l" depth="1" NCoef="0" IVar="-1" Cut="0.0000000000000000e+00" cType="1" res="-1.0343011235818267e-03" rms="4.3886697292327881e-01" purity="3.5265693068504333e-01" nType="-99"/>
        <Node pos="r" depth="1" NCoef="0" IVar="2" Cut="9.0705335140228271e-01" cType="1" res="-8.7462452938780189e-05" rms="4.5073622465133667e-01" purity="5.0792354345321655e-01" nType="0">
          <Node pos="l" depth="2" NCoef="0" IVar="-1" Cut="0.0000000000000000e+00" cType="1" res="-2.2787772468291223e-04" rms="4.5557814836502075e-01" purity="4.5631101727485657e-01" nType="-99"/>
          <Node pos="r" depth="2" NCoef="0" IVar="-1" Cut="0.0000000000000000e+00" cType="1" res="7.3663692455738783e-04" rms="4.3736413121223450e-01" purity="6.4199709892272949e-01" nType="-99"/>
        </Node>
      </Node>
    </BinaryTree>
    <BinaryTree type="DecisionTree" boostWeight="1.0000000000000000e+00" itree="1028">
      <Node pos="s" depth="0" NCoef="0" IVar="0" Cut="1.0080703496932983e+00" cType="1" res="-1.7669475637376308e-03" rms="4.5418334007263184e-01" purity="5.0037974119186401e-01" nType="0">
        <Node pos="l" depth="1" NCoef="0" IVar="6" Cut="2.4711855221539736e-03" cType="1" res="-1.6291042789816856e-02" rms="4.6292731165885925e-01" purity="6.1740309000015259e-01" nType="0">
          <Node pos="l" depth="2" NCoef="0" IVar="-1" Cut="0.0000000000000000e+00" cType="1" res="-2.4173234123736620e-03" rms="4.4675546884536743e-01" purity="6.7370039224624634e-01" nType="-99"/>
          <Node pos="r" depth="2" NCoef="0" IVar="-1" Cut="0.0000000000000000e+00" cType="1" res="-3.0662462813779712e-04" rms="4.6561002731323242e-01" purity="6.0648548603057861e-01" nType="-99"/>
        </Node>
        <Node pos="r" depth="1" NCoef="0" IVar="5" Cut="8.0034172534942627e-01" cType="1" res="8.0130705609917641e-03" rms="4.4793412089347839e-01" purity="4.2158028483390808e-01" nType="0">
          <Node pos="l" depth="2" NCoef="0" IVar="-1" Cut="0.0000000000000000e+00" cType="1" res="1.7120105912908912e-03" rms="4.5469599962234497e-01" purity="6.3164561986923218e-01" nType="-99"/>
          <Node pos="r" depth="2" NCoef="0" IVar="-1" Cut="0.0000000000000000e+00" cType="1" res="1.8843635189114138e-05" rms="4.4627365469932556e-01" purity="3.8246059417724609e-01" nType="-99"/>
        </Node>
      </Node>
    </BinaryTree>
    <BinaryTree type="DecisionTree" boostWeight="1.0000000000000000e+00" itree="1029">
      <Node pos="s" depth="0" NCoef="0" IVar="9" Cut="9.8967355489730835e-01" cType="1" res="1.2922611495014280e-04" rms="4.5049750804901123e-01" purity="5.0092709064483643e-01" nType="0">
        <Node pos="l" depth="1" NCoef="0" IVar="2" Cut="9.4200861454010010e-01" cType="1" res="-5.7038874365389347e-03" rms="4.5303672552108765e-01" purity="4.6549957990646362e-01" nType="0">
          <Node pos="l" depth="2" NCoef="0" IVar="-1" Cut="0.0000000000000000e+00" cType="1" res="-4.7562149120494723e-05" rms="4.5216384530067444e-01" purity="4.5506799221038818e-01" nType="-99"/>
          <Node pos="r" depth="2" NCoef="0" IVar="-1" Cut="0.0000000000000000e+00" cType="1" res="-1.7976692179217935e-03" rms="4.5969530940055847e-01" purity="5.7279080152511597e-01" nType="-99"/>
        </Node>
        <Node pos="r" depth="1" NCoef="0" IVar="7" Cut="7.3586887121200562e-01" cType="1" res="1.6223326325416565e-02" rms="4.4301810860633850e-01" purity="5.9867471456527710e-01" nType="0">
          <Node pos="l" depth="2" NCoef="0" IVar="-1" Cut="0.0000000000000000e+00" cType="1" res="-1.4826317783445120e-04" rms="4.5465549826622009e-01" purity="5.2405625581741333e-01" nType="-99"/>
          <Node pos="r" depth="2" NCoef="0" IVar="-1" Cut="0.0000000000000000e+00" cType="1" res="1.4222847530618310e-03" rms="4.3191614747047424e-01" purity="6.6315394639968872e-01" nType="-99"/>
        </Node>
      </Node>
    </BinaryTree>
    <BinaryTree type="DecisionTree" boostWeight="1.0000000000000000e+00" itree="1030">
      <Node pos="s" depth="0" NCoef="0" IVar="5" Cut="8.8934040069580078e-01" cType="1" res="-7.0211687125265598e-03" rms="4.5280200242996216e-01" purity="4.9677476286888123e-01" nType="0">
        <Node pos="l" depth="1" NCoef="0" IVar="6" Cut="1.7913514748215675e-02" cType="1" res="3.9512203074991703e-03" rms="4.5539519190788269e-01" purity="6.4306479692459106e-01" nType="0">
          <Node pos="l" depth="2" NCoef="0" IVar="-1" Cut="0.0000000000000000e+00" cType="1" res="-5.4430839372798800e-04" rms="4.4608861207962036e-01" purity="6.7652016878128052e-01" nType="-99"/>
          <Node pos="r" depth="2" NCoef="0" IVar="-1" Cut="0.0000000000000000e+00" cType="1" res="8.1637833500280976e-04" rms="4.6533688902854919e-01" purity="6.0364317893981934e-01" nType="-99"/>
        </Node>
        <Node pos="r" depth="1" NCoef="0" IVar="5" Cut="1.3302367925643921e+00" cType="1" res="-1.4320882968604565e-02" rms="4.5092067122459412e-01" purity="3.9945086836814880e-01" nType="0">
          <Node pos="l" depth="2" NCoef="0" IVar="-1" Cut="0.0000000000000000e+00" cType="1" res="-7.3116499697789550e-04" rms="4.7229525446891785e-01" purity="4.9290385842323303e-01" nType="-99"/>
          <Node pos="r" depth="2" NCoef="0" IVar="-1" Cut="0.0000000000000000e+00" cType="1" res="-2.3653348762309179e-05" rms="4.1966959834098816e-01" purity="2.7211076021194458e-01" nType="-99"/>
        </Node>
      </Node>
    </BinaryTree>
    <BinaryTree type="DecisionTree" boostWeight="1.0000000000000000e+00" itree="1031">
      <Node pos="s" depth="0" NCoef="0" IVar="1" Cut="7.6813536882400513e-01" cType="1" res="-9.4256084412336349e-04" rms="4.5059987902641296e-01" purity="4.9859023094177246e-01" nType="0">
        <Node pos="l" depth="1" NCoef="0" IVar="1" Cut="5.9264612197875977e-01" cType="1" res="1.2108054943382740e-02" rms="4.5281541347503662e-01" purity="6.1071139574050903e-01" nType="0">
          <Node pos="l" depth="2" NCoef="0" IVar="-1" Cut="0.0000000000000000e+00" cType="1" res="-1.5223131413222291e-05" rms="4.5546996593475342e-01" purity="6.0739916563034058e-01" nType="-99"/>
          <Node pos="r" depth="2" NCoef="0" IVar="-1" Cut="0.0000000000000000e+00" cType="1" res="1.7786936368793249e-03" rms="4.4331318140029907e-01" purity="6.2007772922515869e-01" nType="-99"/>
        </Node>
        <Node pos="r" depth="1" NCoef="0" IVar="2" Cut="8.3559638261795044e-01" cType="1" res="-8.6471177637577057e-03" rms="4.4910880923271179e-01" purity="4.3239846825599670e-01" nType="0">
          <Node pos="l" depth="2" NCoef="0" IVar="-1" Cut="0.0000000000000000e+00" cType="1" res="-6.0160370776429772e-04" rms="4.3524360656738281e-01" purity="3.1036129593849182e-01" nType="-99"/>
          <Node pos="r" depth="2" NCoef="0" IVar="-1" Cut="0.0000000000000000e+00" cType="1" res="-2.5687546440167353e-05" rms="4.5789971947669983e-01" purity="5.1329952478408813e-01" nType="-99"/>
        </Node>
      </Node>
    </BinaryTree>
    <BinaryTree type="DecisionTree" boostWeight="1.0000000000000000e+00" itree="1032">
      <Node pos="s" depth="0" NCoef="0" IVar="3" Cut="1.1318005371093750e+02" cType="1" res="1.8453287193551660e-03" rms="4.5055109262466431e-01" purity="5.0083553791046143e-01" nType="0">
        <Node pos="l" depth="1" NCoef="0" IVar="7" Cut="5.6771034002304077e-01" cType="1" res="-4.0207752026617527e-03" rms="4.5486143231391907e-01" purity="4.9080184102058411e-01" nType="0">
          <Node pos="l" depth="2" NCoef="0" IVar="-1" Cut="0.0000000000000000e+00" cType="1" res="-6.7335960920900106e-04" rms="4.4801908731460571e-01" purity="3.5778543353080750e-01" nType="-99"/>
          <Node pos="r" depth="2" NCoef="0" IVar="-1" Cut="0.0000000000000000e+00" cType="1" res="1.1562443251023069e-04" rms="4.5726865530014038e-01" purity="5.4231953620910645e-01" nType="-99"/>
        </Node>
        <Node pos="r" depth="1" NCoef="0" IVar="0" Cut="1.3737790584564209e+00" cType="1" res="2.3356899619102478e-02" rms="4.3370032310485840e-01" purity="5.3763014078140259e-01" nType="0">
          <Node pos="l" depth="2" NCoef="0" IVar="-1" Cut="0.0000000000000000e+00" cType="1" res="1.5956307761371136e-03" rms="4.3670105934143066e-01" purity="6.4422583580017090e-01" nType="-99"/>
          <Node pos="r" depth="2" NCoef="0" IVar="-1" Cut="0.0000000000000000e+00" cType="1" res="-2.6930280728265643e-04" rms="4.2583489418029785e-01" purity="3.2551944255828857e-01" nType="-99"/>
        </Node>
      </Node>
    </BinaryTree>
    <BinaryTree type="DecisionTree" boostWeight="1.0000000000000000e+00" itree="1033">
      <Node pos="s" depth="0" NCoef="0" IVar="5" Cut="9.5158028602600098e-01" cType="1" res="2.0978348329663277e-03" rms="4.5173335075378418e-01" purity="5.0181037187576294e-01" nType="0">
        <Node pos="l" depth="1" NCoef="0" IVar="0" Cut="1.0936558246612549e+00" cType="1" res="1.4730674214661121e-02" rms="4.5558959245681763e-01" purity="6.4555215835571289e-01" nType="0">
          <Node pos="l" depth="2" NCoef="0" IVar="-1" Cut="0.0000000000000000e+00" cType="1" res="1.1520450789248571e-04" rms="4.5566248893737793e-01" purity="6.5609049797058105e-01" nType="-99"/>
          <Node pos="r" depth="2" NCoef="0" IVar="-1" Cut="0.0000000000000000e+00" cType="1" res="1.7563779838383198e-03" rms="4.5361736416816711e-01" purity="6.1475503444671631e-01" nType="-99"/>
        </Node>
        <Node pos="r" depth="1" NCoef="0" IVar="0" Cut="1.0769050121307373e+00" cType="1" res="-8.2529652863740921e-03" rms="4.4828373193740845e-01" purity="3.8403469324111938e-01" nType="0">
          <Node pos="l" depth="2" NCoef="0" IVar="-1" Cut="0.0000000000000000e+00" cType="1" res="-1.0810362873598933e-03" rms="4.7883176803588867e-01" purity="4.9630779027938843e-01" nType="-99"/>
          <Node pos="r" depth="2" NCoef="0" IVar="-1" Cut="0.0000000000000000e+00" cType="1" res="4.8188714572461322e-05" rms="4.3662825226783752e-01" purity="3.4462368488311768e-01" nType="-99"/>
        </Node>
      </Node>
    </BinaryTree>
    <BinaryTree type="DecisionTree" boostWeight="1.0000000000000000e+00" itree="1034">
      <Node pos="s" depth="0" NCoef="0" IVar="8" Cut="5.8244568109512329e-01" cType="1" res="3.1099696643650532e-03" rms="4.5138400793075562e-01" purity="5.0239127874374390e-01" nType="0">
        <Node pos="l" depth="1" NCoef="0" IVar="3" Cut="5.6719760894775391e+01" cType="1" res="-7.3828734457492828e-03" rms="4.5637309551239014e-01" purity="4.4417703151702881e-01" nType="0">
          <Node pos="l" depth="2" NCoef="0" IVar="-1" Cut="0.0000000000000000e+00" cType="1" res="3.7505387444980443e-04" rms="4.4956338405609131e-01" purity="4.1044604778289795e-01" nType="-99"/>
          <Node pos="r" depth="2" NCoef="0" IVar="-1" Cut="0.0000000000000000e+00" cType="1" res="-4.8338438500650227e-04" rms="4.5886626839637756e-01" purity="4.5785573124885559e-01" nType="-99"/>
        </Node>
        <Node pos="r" depth="1" NCoef="0" IVar="2" Cut="9.5261549949645996e-01" cType="1" res="2.2074734792113304e-02" rms="4.4159188866615295e-01" purity="6.0760766267776489e-01" nType="0">
          <Node pos="l" depth="2" NCoef="0" IVar="-1" Cut="0.0000000000000000e+00" cType="1" res="5.1713560242205858e-04" rms="4.5112726092338562e-01" purity="5.8437079191207886e-01" nType="-99"/>
          <Node pos="r" depth="2" NCoef="0" IVar="-1" Cut="0.0000000000000000e+00" cType="1" res="2.2289184853434563e-03" rms="4.0340694785118103e-01" purity="6.9285631179809570e-01" nType="-99"/>
        </Node>
      </Node>
    </BinaryTree>
    <BinaryTree type="DecisionTree" boostWeight="1.0000000000000000e+00" itree="1035">
      <Node pos="s" depth="0" NCoef="0" IVar="3" Cut="4.1561588287353516e+01" cType="1" res="-2.8477020096033812e-03" rms="4.5119687914848328e-01" purity="4.9620443582534790e-01" nType="0">
        <Node pos="l" depth="1" NCoef="0" IVar="7" Cut="6.4079988002777100e-01" cType="1" res="-3.3051494508981705e-02" rms="4.5294469594955444e-01" purity="3.7740147113800049e-01" nType="0">
          <Node pos="l" depth="2" NCoef="0" IVar="-1" Cut="0.0000000000000000e+00" cType="1" res="-1.4504375867545605e-03" rms="4.4141864776611328e-01" purity="2.9590633511543274e-01" nType="-99"/>
          <Node pos="r" depth="2" NCoef="0" IVar="-1" Cut="0.0000000000000000e+00" cType="1" res="-4.4888426782563329e-04" rms="4.6221813559532166e-01" purity="4.5000928640365601e-01" nType="-99"/>
        </Node>
        <Node pos="r" depth="1" NCoef="0" IVar="5" Cut="8.6845195293426514e-01" cType="1" res="2.0759650506079197e-03" rms="4.5071950554847717e-01" purity="5.1557111740112305e-01" nType="0">
          <Node pos="l" depth="2" NCoef="0" IVar="-1" Cut="0.0000000000000000e+00" cType="1" res="7.0640537887811661e-04" rms="4.5047283172607422e-01" purity="6.8132281303405762e-01" nType="-99"/>
          <Node pos="r" depth="2" NCoef="0" IVar="-1" Cut="0.0000000000000000e+00" cType="1" res="-1.9406758656259626e-04" rms="4.5064309239387512e-01" purity="4.2146515846252441e-01" nType="-99"/>
        </Node>
      </Node>
    </BinaryTree>
    <BinaryTree type="DecisionTree" boostWeight="1.0000000000000000e+00" itree="1036">
      <Node pos="s" depth="0" NCoef="0" IVar="9" Cut="9.8972308635711670e-01" cType="1" res="-3.0060179997235537e-03" rms="4.5191329717636108e-01" purity="4.9706903100013733e-01" nType="0">
        <Node pos="l" depth="1" NCoef="0" IVar="8" Cut="5.3585422039031982e-01" cType="1" res="-9.8532205447554588e-03" rms="4.5339938998222351e-01" purity="4.6111136674880981e-01" nType="0">
          <Node pos="l" depth="2" NCoef="0" IVar="-1" Cut="0.0000000000000000e+00" cType="1" res="1.3695958477910608e-04" rms="4.5332252979278564e-01" purity="4.1619655489921570e-01" nType="-99"/>
          <Node pos="r" depth="2" NCoef="0" IVar="-1" Cut="0.0000000000000000e+00" cType="1" res="-7.3964789044111967e-04" rms="4.5307672023773193e-01" purity="5.0218492746353149e-01" nType="-99"/>
        </Node>
        <Node pos="r" depth="1" NCoef="0" IVar="1" Cut="4.7608336806297302e-01" cType="1" res="1.6100067645311356e-02" rms="4.4718647003173828e-01" purity="5.9740340709686279e-01" nType="0">
          <Node pos="l" depth="2" NCoef="0" IVar="-1" Cut="0.0000000000000000e+00" cType="1" res="-1.1748633114621043e-03" rms="4.4148862361907959e-01" purity="6.5233868360519409e-01" nType="-99"/>
          <Node pos="r" depth="2" NCoef="0" IVar="-1" Cut="0.0000000000000000e+00" cType="1" res="1.0436696466058493e-03" rms="4.4793859124183655e-01" purity="5.8226126432418823e-01" nType="-99"/>
        </Node>
      </Node>
    </BinaryTree>
    <BinaryTree type="DecisionTree" boostWeight="1.0000000000000000e+00" itree="1037">
      <Node pos="s" depth="0" NCoef="0" IVar="2" Cut="7.5722378492355347e-01" cType="1" res="6.1020236462354660e-03" rms="4.5205730199813843e-01" purity="5.1020145416259766e-01" nType="0">
        <Node pos="l" depth="1" NCoef="0" IVar="8" Cut="4.7335827350616455e-01" cType="1" res="-2.1080080419778824e-02" rms="4.3532368540763855e-01" purity="2.8695458173751831e-01" nType="0">
          <Node pos="l" depth="2" NCoef="0" IVar="-1" Cut="0.0000000000000000e+00" cType="1" res="-2.9385756351985037e-04" rms="4.3400788307189941e-01" purity="2.8316828608512878e-01" nType="-99"/>
          <Node pos="r" depth="2" NCoef="0" IVar="-1" Cut="0.0000000000000000e+00" cType="1" res="-9.4986445037648082e-04" rms="4.3636718392372131e-01" purity="2.9082727432250977e-01" nType="-99"/>
        </Node>
        <Node pos="r" depth="1" NCoef="0" IVar="9" Cut="9.4801121950149536e-01" cType="1" res="9.7511392086744308e-03" rms="4.5413297414779663e-01" purity="5.4017168283462524e-01" nType="0">
          <Node pos="l" depth="2" NCoef="0" IVar="-1" Cut="0.0000000000000000e+00" cType="1" res="1.0604512644931674e-03" rms="4.5829808712005615e-01" purity="4.9820435047149658e-01" nType="-99"/>
          <Node pos="r" depth="2" NCoef="0" IVar="-1" Cut="0.0000000000000000e+00" cType="1" res="1.1289168469374999e-05" rms="4.5206400752067566e-01" purity="5.5751997232437134e-01" nType="-99"/>
        </Node>
      </Node>
    </BinaryTree>
    <BinaryTree type="DecisionTree" boostWeight="1.0000000000000000e+00" itree="1038">
      <Node pos="s" depth="0" NCoef="0" IVar="0" Cut="1.3126214742660522e+00" cType="1" res="2.0756446756422520e-03" rms="4.5098412036895752e-01" purity="5.0384777784347534e-01" nType="0">
        <Node pos="l" depth="1" NCoef="0" IVar="5" Cut="1.2892849445343018e+00" cType="1" res="8.4857735782861710e-03" rms="4.6008330583572388e-01" purity="5.7983469963073730e-01" nType="0">
          <Node pos="l" depth="2" NCoef="0" IVar="-1" Cut="0.0000000000000000e+00" cType="1" res="1.1192297824891284e-04" rms="4.5888528227806091e-01" purity="6.0612791776657104e-01" nType="-99"/>
          <Node pos="r" depth="2" NCoef="0" IVar="-1" Cut="0.0000000000000000e+00" cType="1" res="1.3037121389061213e-03" rms="4.6629464626312256e-01" purity="4.0898281335830688e-01" nType="-99"/>
        </Node>
        <Node pos="r" depth="1" NCoef="0" IVar="6" Cut="2.0654696971178055e-02" cType="1" res="-1.3055943883955479e-02" rms="4.2835924029350281e-01" purity="3.2447484135627747e-01" nType="0">
          <Node pos="l" depth="2" NCoef="0" IVar="-1" Cut="0.0000000000000000e+00" cType="1" res="-7.2329305112361908e-04" rms="4.3592178821563721e-01" purity="3.5576099157333374e-01" nType="-99"/>
          <Node pos="r" depth="2" NCoef="0" IVar="-1" Cut="0.0000000000000000e+00" cType="1" res="3.1068582757143304e-05" rms="4.1851580142974854e-01" purity="2.8629299998283386e-01" nType="-99"/>
        </Node>
      </Node>
    </BinaryTree>
    <BinaryTree type="DecisionTree" boostWeight="1.0000000000000000e+00" itree="1039">
      <Node pos="s" depth="0" NCoef="0" IVar="3" Cut="1.4145062255859375e+02" cType="1" res="-3.2319854944944382e-03" rms="4.5323592424392700e-01" purity="4.9917113780975342e-01" nType="0">
        <Node pos="l" depth="1" NCoef="0" IVar="3" Cut="3.4797351837158203e+01" cType="1" res="-2.1699073840864003e-04" rms="4.5362624526023865e-01" purity="5.1014125347137451e-01" nType="0">
          <Node pos="l" depth="2" NCoef="0" IVar="-1" Cut="0.0000000000000000e+00" cType="1" res="-1.2053468963131309e-03" rms="4.3750873208045959e-01" purity="3.4352827072143555e-01" nType="-99"/>
          <Node pos="r" depth="2" NCoef="0" IVar="-1" Cut="0.0000000000000000e+00" cType="1" res="9.6693154773674905e-05" rms="4.5464813709259033e-01" purity="5.2250844240188599e-01" nType="-99"/>
        </Node>
        <Node pos="r" depth="1" NCoef="0" IVar="-1" Cut="0.0000000000000000e+00" cType="1" res="-1.0598681401461363e-03" rms="4.4801586866378784e-01" purity="3.8616305589675903e-01" nType="-99"/>
      </Node>
    </BinaryTree>
    <BinaryTree type="DecisionTree" boostWeight="1.0000000000000000e+00" itree="1040">
      <Node pos="s" depth="0" NCoef="0" IVar="4" Cut="1.3261779785156250e+02" cType="1" res="-1.3687229948118329e-03" rms="4.5302432775497437e-01" purity="5.0041788816452026e-01" nType="0">
        <Node pos="l" depth="1" NCoef="0" IVar="0" Cut="1.2052743434906006e+00" cType="1" res="1.4119269326329231e-02" rms="4.4618549942970276e-01" purity="5.4909574985504150e-01" nType="0">
          <Node pos="l" depth="2" NCoef="0" IVar="-1" Cut="0.0000000000000000e+00" cType="1" res="1.0956593323498964e-03" rms="4.4758984446525574e-01" purity="6.4009314775466919e-01" nType="-99"/>
          <Node pos="r" depth="2" NCoef="0" IVar="-1" Cut="0.0000000000000000e+00" cType="1" res="-3.7752508069388568e-04" rms="4.4241556525230408e-01" purity="3.8469743728637695e-01" nType="-99"/>
        </Node>
        <Node pos="r" depth="1" NCoef="0" IVar="6" Cut="5.1584392786026001e-03" cType="1" res="-1.3154278509318829e-02" rms="4.5780903100967407e-01" purity="4.6337664127349854e-01" nType="0">
          <Node pos="l" depth="2" NCoef="0" IVar="-1" Cut="0.0000000000000000e+00" cType="1" res="-1.8764784326776862e-03" rms="4.6233606338500977e-01" purity="5.2262568473815918e-01" nType="-99"/>
          <Node pos="r" depth="2" NCoef="0" IVar="-1" Cut="0.0000000000000000e+00" cType="1" res="-3.1680629035690799e-05" rms="4.5579773187637329e-01" purity="4.4689059257507324e-01" nType="-99"/>
        </Node>
      </Node>
    </BinaryTree>
    <BinaryTree type="DecisionTree" boostWeight="1.0000000000000000e+00" itree="1041">
      <Node pos="s" depth="0" NCoef="0" IVar="0" Cut="7.3584592342376709e-01" cType="1" res="-3.6812569014728069e-03" rms="4.5238167047500610e-01" purity="4.9915343523025513e-01" nType="0">
        <Node pos="l" depth="1" NCoef="0" IVar="1" Cut="4.7723042964935303e-01" cType="1" res="2.8506616130471230e-02" rms="4.3589210510253906e-01" purity="7.1273839473724365e-01" nType="0">
          <Node pos="l" depth="2" NCoef="0" IVar="-1" Cut="0.0000000000000000e+00" cType="1" res="-3.2208519405685365e-04" rms="4.4070994853973389e-01" purity="6.9992452859878540e-01" nType="-99"/>
          <Node pos="r" depth="2" NCoef="0" IVar="-1" Cut="0.0000000000000000e+00" cType="1" res="2.2945110686123371e-03" rms="4.3104648590087891e-01" purity="7.2122609615325928e-01" nType="-99"/>
        </Node>
        <Node pos="r" depth="1" NCoef="0" IVar="0" Cut="8.7823522090911865e-01" cType="1" res="-8.9952275156974792e-03" rms="4.5482748746871948e-01" purity="4.6389216184616089e-01" nType="0">
          <Node pos="l" depth="2" NCoef="0" IVar="-1" Cut="0.0000000000000000e+00" cType="1" res="-1.1384207755327225e-03" rms="4.6161830425262451e-01" purity="5.8464771509170532e-01" nType="-99"/>
          <Node pos="r" depth="2" NCoef="0" IVar="-1" Cut="0.0000000000000000e+00" cType="1" res="-1.4250270032789558e-04" rms="4.5342251658439636e-01" purity="4.4159719347953796e-01" nType="-99"/>
        </Node>
      </Node>
    </BinaryTree>
    <BinaryTree type="DecisionTree" boostWeight="1.0000000000000000e+00" itree="1042">
      <Node pos="s" depth="0" NCoef="0" IVar="2" Cut="9.6856921911239624e-01" cType="1" res="-4.9791228957474232e-03" rms="4.4908705353736877e-01" purity="4.9449935555458069e-01" nType="0">
        <Node pos="l" depth="1" NCoef="0" IVar="1" Cut="1.7049974203109741e+00" cType="1" res="-1.1635823175311089e-03" rms="4.4900014996528625e-01" purity="4.8707336187362671e-01" nType="0">
          <Node pos="l" depth="2" NCoef="0" IVar="-1" Cut="0.0000000000000000e+00" cType="1" res="1.8788635497912765e-04" rms="4.5704084634780884e-01" purity="5.4153716564178467e-01" nType="-99"/>
          <Node pos="r" depth="2" NCoef="0" IVar="-1" Cut="0.0000000000000000e+00" cType="1" res="-7.5011461740359664e-04" rms="4.1869714856147766e-01" purity="2.9586431384086609e-01" nType="-99"/>
        </Node>
        <Node pos="r" depth="1" NCoef="0" IVar="-1" Cut="0.0000000000000000e+00" cType="1" res="-1.7963586142286658e-03" rms="4.4767934083938599e-01" purity="5.8170592784881592e-01" nType="-99"/>
      </Node>
    </BinaryTree>
    <BinaryTree type="DecisionTree" boostWeight="1.0000000000000000e+00" itree="1043">
      <Node pos="s" depth="0" NCoef="0" IVar="5" Cut="4.5366162061691284e-01" cType="1" res="5.1240124739706516e-03" rms="4.4840943813323975e-01" purity="5.0374090671539307e-01" nType="0">
        <Node pos="l" depth="1" NCoef="0" IVar="-1" Cut="0.0000000000000000e+00" cType="1" res="2.0536205265671015e-03" rms="4.2886519432067871e-01" purity="7.0577937364578247e-01" nType="-99"/>
        <Node pos="r" depth="1" NCoef="0" IVar="9" Cut="9.6887391805648804e-01" cType="1" res="1.8316331552341580e-03" rms="4.4968649744987488e-01" purity="4.8841449618339539e-01" nType="0">
          <Node pos="l" depth="2" NCoef="0" IVar="-1" Cut="0.0000000000000000e+00" cType="1" res="-2.5372341042384505e-04" rms="4.5217388868331909e-01" purity="4.1553124785423279e-01" nType="-99"/>
          <Node pos="r" depth="2" NCoef="0" IVar="-1" Cut="0.0000000000000000e+00" cType="1" res="4.2706020758487284e-04" rms="4.4689747691154480e-01" purity="5.6292605400085449e-01" nType="-99"/>
        </Node>
      </Node>
    </BinaryTree>
    <BinaryTree type="DecisionTree" boostWeight="1.0000000000000000e+00" itree="1044">
      <Node pos="s" depth="0" NCoef="0" IVar="7" Cut="8.3046352863311768e-01" cType="1" res="-5.6186397559940815e-03" rms="4.5204129815101624e-01" purity="4.9649876356124878e-01" nType="0">
        <Node pos="l" depth="1" NCoef="0" IVar="6" Cut="2.0753709599375725e-02" cType="1" res="-1.2491891160607338e-02" rms="4.5417529344558716e-01" purity="4.5866349339485168e-01" nType="0">
          <Node pos="l" depth="2" NCoef="0" IVar="-1" Cut="0.0000000000000000e+00" cType="1" res="-8.3162647206336260e-04" rms="4.5476222038269043e-01" purity="4.8906603455543518e-01" nType="-99"/>
          <Node pos="r" depth="2" NCoef="0" IVar="-1" Cut="0.0000000000000000e+00" cType="1" res="-2.3516526198363863e-05" rms="4.5333683490753174e-01" purity="4.3213108181953430e-01" nType="-99"/>
        </Node>
        <Node pos="r" depth="1" NCoef="0" IVar="7" Cut="9.4258642196655273e-01" cType="1" res="2.0466078072786331e-02" rms="4.4287964701652527e-01" purity="6.4008772373199463e-01" nType="0">
          <Node pos="l" depth="2" NCoef="0" IVar="-1" Cut="0.0000000000000000e+00" cType="1" res="1.6609091544523835e-03" rms="4.3396931886672974e-01" purity="6.5567356348037720e-01" nType="-99"/>
          <Node pos="r" depth="2" NCoef="0" IVar="-1" Cut="0.0000000000000000e+00" cType="1" res="-1.1952195782214403e-03" rms="4.6045026183128357e-01" purity="6.0081893205642700e-01" nType="-99"/>
        </Node>
      </Node>
    </BinaryTree>
  </Weights>
</MethodSetup>
